<unk>	0
<s>	0
</s>	0
ng	-0
ang	-1
an	-2
▁n	-3
▁s	-4
at	-5
ag	-6
▁m	-7
al	-8
in	-9
ay	-10
▁k	-11
▁p	-12
▁ng	-13
▁sa	-14
▁na	-15
▁ang	-16
ak	-17
it	-18
as	-19
am	-20
il	-21
ar	-22
ap	-23
ing	-24
▁b	-25
ong	-26
ah	-27
aw	-28
▁l	-29
iy	-30
▁at	-31
▁t	-32
ab	-33
▁d	-34
ga	-35
is	-36
ul	-37
▁mga	-38
▁ay	-39
▁A	-40
on	-41
um	-42
▁h	-43
un	-44
ig	-45
▁pag	-46
▁S	-47
ib	-48
ad	-49
ik	-50
▁K	-51
ung	-52
▁N	-53
▁P	-54
iya	-55
▁M	-56
ip	-57
▁kan	-58
▁mag	-59
▁I	-60
▁nag	-61
▁g	-62
us	-63
ito	-64
▁D	-65
▁ni	-66
▁si	-67
▁Ang	-68
di	-69
ut	-70
▁is	-71
ala	-72
uh	-73
im	-74
ilang	-75
apat	-76
uk	-77
▁kany	-78
▁B	-79
ari	-80
indi	-81
up	-82
and	-83
os	-84
▁T	-85
ub	-86
ila	-87
▁L	-88
▁kanyang	-89
▁H	-90
uw	-91
▁isang	-92
ro	-93
▁nang	-94
▁"	-95
awa	-96
▁may	-97
alang	-98
ot	-99
ayan	-100
▁ak	-101
iw	-102
▁niya	-103
aya	-104
▁ito	-105
▁siya	-106
▁Sa	-107
iyang	-108
ih	-109
ug	-110
alak	-111
▁ka	-112
▁pan	-113
▁nak	-114
▁o	-115
en	-116
▁hindi	-117
er	-118
▁ko	-119
ir	-120
ata	-121
id	-122
▁in	-123
▁pin	-124
ur	-125
..	-126
to	-127
▁w	-128
ita	-129
▁pang	-130
amang	-131
ol	-132
▁an	-133
ya	-134
▁ib	-135
▁ta	-136
▁nam	-137
og	-138
ahan	-139
▁pa	-140
ok	-141
▁sin	-142
▁(	-143
▁r	-144
ant	-145
es	-146
▁mat	-147
▁mak	-148
▁pagk	-149
▁mal	-150
angg	-151
alag	-152
▁kay	-153
▁mo	-154
aan	-155
od	-156
▁kung	-157
ahat	-158
ama	-159
▁pam	-160
▁kat	-161
agk	-162
▁ma	-163
▁kas	-164
or	-165
yon	-166
▁iy	-167
yo	-168
▁At	-169
ayo	-170
▁par	-171
oy	-172
ipin	-173
▁it	-174
."	-175
uhay	-176
ula	-177
▁kap	-178
awang	-179
▁lamang	-180
ahil	-181
▁man	-182
sa	-183
abi	-184
ibig	-185
itan	-186
▁lahat	-187
alan	-188
ating	-189
▁dapat	-190
▁dal	-191
▁kanilang	-192
ungk	-193
▁kal	-194
▁bat	-195
ob	-196
▁Ib	-197
araw	-198
▁Nag	-199
uan	-200
alam	-201
▁mas	-202
aka	-203
▁tin	-204
upang	-205
aba	-206
▁di	-207
▁lum	-208
oon	-209
▁siyang	-210
aring	-211
anda	-212
▁kah	-213
▁naman	-214
ana	-215
▁ako	-216
ta	-217
▁upang	-218
▁niyang	-219
▁bin	-220
▁mah	-221
▁nito	-222
▁Don	-223
ulo	-224
▁kab	-225
▁E	-226
▁din	-227
ra	-228
▁F	-229
...	-230
▁mang	-231
▁tao	-232
ili	-233
▁mab	-234
▁Al	-235
▁G	-236
▁um	-237
akas	-238
▁sila	-239
▁nap	-240
▁kar	-241
▁kam	-242
ayon	-243
▁araw	-244
und	-245
▁anak	-246
unit	-247
el	-248
▁pal	-249
▁mar	-250
▁map	-251
alit	-252
▁walang	-253
▁bag	-254
▁buhay	-255
▁Ng	-256
▁nat	-257
yong	-258
▁magk	-259
▁ik	-260
ulang	-261
aling	-262
▁kin	-263
sang	-264
arra	-265
andang	-266
agkat	-267
oob	-268
atay	-269
alim	-270
▁Hindi	-271
▁Ibarra	-272
int	-273
▁kong	-274
▁aking	-275
▁In	-276
▁sum	-277
▁Kung	-278
▁Kap	-279
▁C	-280
ali	-281
awan	-282
▁hin	-283
unt	-284
ON	-285
aban	-286
ulan	-287
▁Nang	-288
▁Pil	-289
aman	-290
▁dahil	-291
uno	-292
▁tag	-293
ayang	-294
▁rin	-295
▁tum	-296
alik	-297
▁il	-298
▁sap	-299
upa	-300
▁bah	-301
pap	-302
asa	-303
ins	-304
YON	-305
▁bayan	-306
SYON	-307
▁nila	-308
EK	-309
ahon	-310
▁SEK	-311
▁SEKSYON	-312
▁e	-313
▁Mari	-314
ante	-315
▁Pilipin	-316
ado	-317
▁para	-318
abang	-319
ulong	-320
▁pags	-321
om	-322
iling	-323
▁pagl	-324
ina	-325
▁J	-326
angk	-327
▁pat	-328
▁iyong	-329
alaki	-330
apit	-331
yan	-332
▁gin	-333
▁sak	-334
tat	-335
iwan	-336
▁May	-337
▁kaya	-338
▁Maria	-339
ika	-340
▁al	-341
▁Na	-342
alaga	-343
▁baba	-344
▁dalawang	-345
▁mam	-346
ha	-347
▁lang	-348
▁iba	-349
▁Pang	-350
isa	-351
ungan	-352
▁ama	-353
asawa	-354
akit	-355
da	-356
▁pus	-357
asan	-358
inig	-359
▁kag	-360
uhan	-361
uha	-362
▁Sin	-363
▁Mag	-364
▁pinag	-365
awag	-366
▁1	-367
usap	-368
▁kanya	-369
amp	-370
ura	-371
arap	-372
anggang	-373
▁W	-374
amb	-375
▁lupa	-376
ent	-377
▁dum	-378
uwag	-379
apos	-380
yang	-381
▁Fl	-382
ago	-383
▁wala	-384
st	-385
▁kum	-386
eg	-387
alo	-388
ipag	-389
▁ipin	-390
▁R	-391
▁nags	-392
anap	-393
▁ina	-394
asyon	-395
yari	-396
aming	-397
▁loob	-398
apag	-399
▁Pag	-400
▁sar	-401
▁U	-402
ero	-403
unod	-404
em	-405
na	-406
▁panahon	-407
amit	-408
uti	-409
▁hal	-410
▁tat	-411
alita	-412
▁babae	-413
alaking	-414
uwa	-415
▁pak	-416
unong	-417
▁bu	-418
▁sapagkat	-419
▁Flor	-420
alay	-421
uman	-422
apatid	-423
unang	-424
uli	-425
amah	-426
itong	-427
han	-428
abas	-429
aran	-430
▁pagh	-431
ulad	-432
▁maa	-433
▁dito	-434
▁tungk	-435
▁nas	-436
▁nga	-437
▁pagb	-438
▁pr	-439
akl	-440
atu	-441
iyos	-442
▁Dapat	-443
▁batas	-444
▁Si	-445
angan	-446
ayong	-447
irap	-448
▁Florante	-449
.)	-450
▁Isang	-451
▁Ito	-452
ahang	-453
▁y	-454
ban	-455
▁Ay	-456
▁nagk	-457
oro	-458
▁mad	-459
▁isa	-460
▁nin	-461
▁sab	-462
▁mong	-463
▁hanggang	-464
▁ngunit	-465
ist	-466
uro	-467
agat	-468
▁puso	-469
▁itong	-470
alin	-471
▁bahay	-472
igl	-473
ihan	-474
unan	-475
▁Lam	-476
▁nagp	-477
▁taong	-478
agaw	-479
ulat	-480
▁pagkak	-481
ulog	-482
▁Juan	-483
▁naging	-484
awat	-485
▁hum	-486
▁Ngunit	-487
utan	-488
ain	-489
▁Di	-490
▁nan	-491
▁sam	-492
abing	-493
▁Tin	-494
▁ano	-495
▁nasa	-496
ko	-497
agi	-498
▁nagl	-499
▁Donya	-500
▁bum	-501
▁iyon	-502
▁lalaki	-503
apang	-504
▁nagb	-505
▁nab	-506
uling	-507
uy	-508
aso	-509
▁pagt	-510
▁Kapitan	-511
▁O	-512
ind	-513
alis	-514
▁Pangulo	-515
ati	-516
ump	-517
iyak	-518
▁buw	-519
irang	-520
▁maaaring	-521
amd	-522
aga	-523
▁kuw	-524
▁itin	-525
ek	-526
▁Ad	-527
agad	-528
isip	-529
▁bul	-530
anong	-531
▁Nak	-532
▁nar	-533
▁hari	-534
▁pamam	-535
▁Pin	-536
▁tang	-537
▁pagpap	-538
res	-539
▁Ag	-540
uloy	-541
▁ban	-542
▁buong	-543
ilangan	-544
una	-545
ust	-546
▁magp	-547
ulungan	-548
ud	-549
wa	-550
▁ikaw	-551
oong	-552
along	-553
bay	-554
arian	-555
▁hang	-556
re	-557
ast	-558
▁An	-559
ara	-560
▁mags	-561
▁langit	-562
long	-563
▁mula	-564
▁nagt	-565
▁Dahil	-566
aroon	-567
▁ip	-568
arang	-569
alaman	-570
anggap	-571
pin	-572
uri	-573
ihin	-574
▁bawat	-575
▁po	-576
agal	-577
▁gum	-578
atang	-579
isyon	-580
▁puno	-581
▁dalaga	-582
▁silang	-583
ento	-584
unga	-585
▁nil	-586
▁magt	-587
ed	-588
▁Y	-589
usa	-590
▁pas	-591
▁sag	-592
▁Kaya	-593
iran	-594
▁mata	-595
igit	-596
ugan	-597
▁pum	-598
li	-599
ano	-600
sin	-601
hang	-602
ubat	-603
▁kun	-604
ibigan	-605
▁asawa	-606
▁maging	-607
▁Pilipinas	-608
awak	-609
ayag	-610
agawa	-611
▁La	-612
▁ba	-613
iging	-614
▁ibang	-615
▁Pilipino	-616
▁2	-617
agp	-618
alaan	-619
,"	-620
et	-621
alig	-622
ilim	-623
▁iyo	-624
iwanag	-625
▁ating	-626
▁unang	-627
awit	-628
▁ngayon	-629
▁pap	-630
aklak	-631
lo	-632
▁huk	-633
▁Pari	-634
▁pagp	-635
▁wika	-636
▁kahit	-637
▁sinabi	-638
▁'	-639
tas	-640
▁or	-641
ungo	-642
▁panan	-643
▁bilang	-644
▁tungkol	-645
uto	-646
abag	-647
alat	-648
▁Mga	-649
▁kaw	-650
▁kapatid	-651
!"	-652
ami	-653
abaw	-654
anga	-655
▁nagh	-656
▁kamay	-657
▁parang	-658
ungkulan	-659
yay	-660
▁re	-661
ulay	-662
undok	-663
▁pagd	-664
▁da	-665
ilala	-666
▁kang	-667
▁nilang	-668
▁Siya	-669
▁Kaban	-670
▁Kabanata	-671
iko	-672
asal	-673
ubig	-674
▁taon	-675
agitan	-676
▁kasama	-677
AN	-678
ahing	-679
▁dumating	-680
uting	-681
▁akin	-682
▁Laura	-683
eng	-684
ayop	-685
▁tun	-686
bayan	-687
▁magb	-688
oto	-689
tan	-690
▁Ik	-691
alaw	-692
▁lag	-693
▁bagay	-694
▁pamamagitan	-695
aki	-696
sak	-697
say	-698
ilig	-699
▁Kin	-700
▁Sinabi	-701
alas	-702
ingg	-703
▁buk	-704
nan	-705
▁nakat	-706
▁binata	-707
▁i	-708
esa	-709
▁noon	-710
alagang	-711
▁Pagkat	-712
kas	-713
▁ep	-714
▁gan	-715
▁sino	-716
▁ninyo	-717
▁nitong	-718
▁Mar	-719
▁min	-720
▁ibig	-721
▁kundi	-722
▁Il	-723
▁lug	-724
▁Kong	-725
▁Diyos	-726
▁mamam	-727
▁kaharian	-728
ako	-729
man	-730
aral	-731
asyo	-732
usan	-733
▁lub	-734
▁tan	-735
▁sina	-736
alakas	-737
▁hayop	-738
▁ilang	-739
akan	-740
hala	-741
lias	-742
reso	-743
▁Elias	-744
▁dalawa	-745
▁karapat	-746
▁Kongreso	-747
iwa	-748
▁Bin	-749
▁Est	-750
alamat	-751
▁bulaklak	-752
ilit	-753
roon	-754
▁Lum	-755
▁nal	-756
▁tubig	-757
lay	-758
igil	-759
▁Sum	-760
▁dib	-761
angyari	-762
▁maraming	-763
agan	-764
▁naw	-765
isang	-766
▁Datu	-767
▁lakas	-768
api	-769
sing	-770
ulin	-771
unta	-772
▁Bat	-773
▁nah	-774
▁Agat	-775
▁pinak	-776
dib	-777
ilip	-778
iyon	-779
araan	-780
iwang	-781
▁tunay	-782
arating	-783
▁Estado	-784
la	-785
ahin	-786
ibil	-787
ukha	-788
▁lib	-789
▁gubat	-790
▁matat	-791
amo	-792
dig	-793
imp	-794
ira	-795
▁ya	-796
▁Ako	-797
▁ulo	-798
▁bunga	-799
▁dagat	-800
▁prins	-801
alawang	-802
▁Walang	-803
▁magandang	-804
adh	-805
ern	-806
imb	-807
stit	-808
▁sand	-809
unting	-810
▁pagsas	-811
?"	-812
so	-813
amdam	-814
banya	-815
stitus	-816
▁buwan	-817
▁dibdib	-818
▁tatlong	-819
agang	-820
▁gabi	-821
▁huwag	-822
▁sarili	-823
▁Kon	-824
▁Man	-825
▁Tiy	-826
ingan	-827
▁gawa	-828
anggol	-829
▁bundok	-830
▁kapangyari	-831
▁tr	-832
akot	-833
isan	-834
pang	-835
▁Ipin	-836
▁katawan	-837
ma	-838
unl	-839
▁kayo	-840
▁Haring	-841
▁pagtat	-842
hin	-843
olo	-844
▁lik	-845
▁sim	-846
ataas	-847
▁isip	-848
▁muli	-849
▁tayo	-850
▁lugar	-851
▁Tiyago	-852
tor	-853
▁Dam	-854
▁Mak	-855
umang	-856
▁Pero	-857
▁doon	-858
▁Damaso	-859
▁nakita	-860
do	-861
▁Ka	-862
akda	-863
igdig	-864
ubong	-865
utang	-866
▁isin	-867
▁kanila	-868
▁magulang	-869
olf	-870
uran	-871
▁Mah	-872
▁magl	-873
▁pagm	-874
▁Adolf	-875
▁mahal	-876
▁makita	-877
▁punong	-878
ahi	-879
igan	-880
ikan	-881
ilis	-882
ingin	-883
▁ibon	-884
▁pangk	-885
pan	-886
apan	-887
apon	-888
atan	-889
▁bago	-890
▁bata	-891
▁kapag	-892
uin	-893
awin	-894
agd	-895
akb	-896
ugo	-897
ilin	-898
unin	-899
▁Sal	-900
▁agad	-901
▁pagg	-902
▁a	-903
▁Pr	-904
ulot	-905
▁Kom	-906
asang	-907
▁luha	-908
adhana	-909
▁higit	-910
▁nakak	-911
▁muling	-912
▁–	-913
aro	-914
ener	-915
undo	-916
▁sal	-917
▁sus	-918
insan	-919
iwala	-920
▁bato	-921
▁nagd	-922
arapat	-923
ungkot	-924
▁malaking	-925
▁sariling	-926
ci	-927
▁ap	-928
asok	-929
igaw	-930
▁Nam	-931
▁akong	-932
▁bangk	-933
▁tinig	-934
ilangang	-935
",	-936
▁V	-937
Ang	-938
ego	-939
ers	-940
▁It	-941
ihim	-942
ingi	-943
ulit	-944
▁lim	-945
ahanap	-946
amahal	-947
iglang	-948
▁tanging	-949
apa	-950
uwi	-951
ayaw	-952
inga	-953
▁bak	-954
usang	-955
▁ilog	-956
▁ring	-957
▁Adolfo	-958
▁Ar	-959
aong	-960
▁San	-961
▁git	-962
ikita	-963
▁mukha	-964
▁habang	-965
▁lalaking	-966
ubo	-967
uni	-968
akad	-969
apal	-970
ibay	-971
▁kita	-972
▁noong	-973
▁Albanya	-974
per	-975
...!	-976
abis	-977
amat	-978
ilan	-979
ikang	-980
▁alin	-981
▁datu	-982
▁sakit	-983
▁ilalim	-984
akay	-985
▁Mab	-986
ahong	-987
▁Kagaw	-988
▁bansa	-989
▁pamah	-990
▁tulad	-991
▁Nagong	-992
▁bahagi	-993
▁matandang	-994
igay	-995
▁bal	-996
▁tuw	-997
amant	-998
▁Kast	-999
▁Koro	-1000
▁Huwag	-1001
▁lalong	-1002
ris	-1003
uhat	-1004
utos	-1005
abalik	-1006
irahan	-1007
ubalit	-1008
▁magkak	-1009
iba	-1010
pak	-1011
ango	-1012
ukol	-1013
unti	-1014
▁Hin	-1015
▁nagm	-1016
▁oras	-1017
▁natin	-1018
▁Kagawad	-1019
ann	-1020
erm	-1021
yat	-1022
▁Fa	-1023
oyan	-1024
▁Mat	-1025
itang	-1026
unlad	-1027
▁saan	-1028
▁sabi	-1029
▁taga	-1030
eneral	-1031
▁yaong	-1032
annoyan	-1033
▁laging	-1034
▁nagpap	-1035
▁mamamayan	-1036
Ay	-1037
▁3	-1038
san	-1039
syon	-1040
▁Bas	-1041
▁suk	-1042
▁Wala	-1043
▁ding	-1044
▁Faust	-1045
▁diyos	-1046
▁tinat	-1047
▁bagong	-1048
▁gayong	-1049
▁pagkain	-1050
▁Cannoyan	-1051
abay	-1052
▁kulay	-1053
▁tahan	-1054
▁inyong	-1055
▁daigdig	-1056
▁kaibigan	-1057
▁Konstitus	-1058
awi	-1059
agka	-1060
▁Pad	-1061
▁nina	-1062
ibigay	-1063
▁mapag	-1064
▁Faustus	-1065
op	-1066
ikha	-1067
uhin	-1068
upad	-1069
▁kon	-1070
igaya	-1071
▁Diego	-1072
▁kamat	-1073
▁makat	-1074
▁pagka	-1075
alaysay	-1076
▁pagkat	-1077
▁Bathala	-1078
▁Kastila	-1079
▁matanda	-1080
▁kapangyarihan	-1081
upo	-1082
▁Is	-1083
▁sul	-1084
akain	-1085
▁napak	-1086
▁katulad	-1087
uga	-1088
agot	-1089
ilos	-1090
▁Mad	-1091
▁ari	-1092
▁pab	-1093
▁pro	-1094
ibang	-1095
uo	-1096
anan	-1097
away	-1098
ilag	-1099
▁ini	-1100
antay	-1101
uhang	-1102
uring	-1103
▁ipag	-1104
▁nais	-1105
yayari	-1106
▁Komisyon	-1107
alip	-1108
isig	-1109
uang	-1110
▁Mas	-1111
awala	-1112
▁Sisa	-1113
▁kapwa	-1114
▁namang	-1115
sik	-1116
abuk	-1117
atas	-1118
itin	-1119
▁Kay	-1120
▁awit	-1121
▁ikin	-1122
▁panun	-1123
▁mabuti	-1124
▁malakas	-1125
pa	-1126
abot	-1127
▁big	-1128
▁dak	-1129
▁pil	-1130
▁koro	-1131
atawan	-1132
▁gitna	-1133
▁pakik	-1134
▁nagtat	-1135
▁tulong	-1136
ipe	-1137
▁de	-1138
▁ul	-1139
amis	-1140
ilya	-1141
usto	-1142
▁lip	-1143
▁sas	-1144
▁uri	-1145
▁Padre	-1146
▁Yaong	-1147
▁hirap	-1148
▁ginawa	-1149
est	-1150
▁Lu	-1151
ahim	-1152
nong	-1153
▁Kal	-1154
alian	-1155
▁magh	-1156
▁katut	-1157
▁biglang	-1158
▁palasyo	-1159
eo	-1160
ks	-1161
▁san	-1162
ikong	-1163
ahayag	-1164
▁laban	-1165
▁kuwento	-1166
▁karapatan	-1167
ic	-1168
ibo	-1169
ino	-1170
iban	-1171
igla	-1172
▁Kas	-1173
▁Tum	-1174
▁sil	-1175
agong	-1176
▁pala	-1177
▁saka	-1178
ukuman	-1179
▁masas	-1180
▁nakas	-1181
▁tapat	-1182
eh	-1183
yal	-1184
angi	-1185
anta	-1186
iliw	-1187
lado	-1188
ayaan	-1189
intay	-1190
ising	-1191
urang	-1192
▁Tula	-1193
▁anyo	-1194
▁naka	-1195
▁tagapag	-1196
▁kamatayan	-1197
ens	-1198
▁Ma	-1199
▁as	-1200
▁ih	-1201
ilio	-1202
▁Kat	-1203
▁Mal	-1204
▁him	-1205
▁sana	-1206
▁palad	-1207
alitang	-1208
▁hangin	-1209
▁pinakam	-1210
▁panahong	-1211
▁Kapulungan	-1212
▁ug	-1213
ahoy	-1214
amot	-1215
▁bun	-1216
imula	-1217
peres	-1218
▁ayon	-1219
▁galit	-1220
▁kahoy	-1221
▁nakab	-1222
alakbay	-1223
▁masamang	-1224
ep	-1225
anak	-1226
ista	-1227
▁Dum	-1228
▁Adar	-1229
▁inih	-1230
▁inil	-1231
▁lalo	-1232
agalog	-1233
▁Inang	-1234
▁bakit	-1235
▁kalul	-1236
▁palak	-1237
▁Alperes	-1238
▁prinsesa	-1239
▁tungkulin	-1240
▁Pagkatapos	-1241
AR	-1242
ahas	-1243
utin	-1244
▁Nagk	-1245
▁anim	-1246
▁magd	-1247
▁sing	-1248
amdamin	-1249
▁Adarna	-1250
▁dating	-1251
amantala	-1252
▁malapit	-1253
▁tahanan	-1254
eb	-1255
aal	-1256
law	-1257
por	-1258
▁(1	-1259
▁(2	-1260
ahal	-1261
lang	-1262
tong	-1263
▁Isa	-1264
▁Nap	-1265
▁Alad	-1266
▁Ikaw	-1267
▁diwa	-1268
▁magm	-1269
atuloy	-1270
usapan	-1271
▁gayon	-1272
▁patay	-1273
▁pinuno	-1274
▁Basilio	-1275
▁liwanag	-1276
▁nangyari	-1277
▁pagdating	-1278
▁pamahalaan	-1279
hi	-1280
umb	-1281
▁pul	-1282
adong	-1283
igkas	-1284
roong	-1285
agamit	-1286
▁inang	-1287
▁karan	-1288
▁makak	-1289
▁pamban	-1290
▁tauhan	-1291
▁Tagalog	-1292
▁kabilang	-1293
▁pambayan	-1294
▁magkaroon	-1295
▁panunungkulan	-1296
vi	-1297
aks	-1298
angh	-1299
ayun	-1300
utok	-1301
uyan	-1302
▁Par	-1303
▁alam	-1304
▁hukb	-1305
akasal	-1306
alabas	-1307
alakad	-1308
▁Ibong	-1309
▁Lahat	-1310
▁manok	-1311
▁sinas	-1312
▁batang	-1313
▁kagand	-1314
ey	-1315
isi	-1316
anay	-1317
ingk	-1318
mang	-1319
ubuk	-1320
▁Kah	-1321
▁Lin	-1322
▁kor	-1323
▁tul	-1324
▁Nagp	-1325
▁tula	-1326
arawan	-1327
▁Prins	-1328
▁Salvi	-1329
▁Nakita	-1330
abukasan	-1331
▁dahilan	-1332
▁halaman	-1333
▁maganda	-1334
de	-1335
iti	-1336
ono	-1337
▁Um	-1338
▁Un	-1339
atid	-1340
ente	-1341
igat	-1342
ipit	-1343
iyam	-1344
▁Hum	-1345
▁raw	-1346
ongan	-1347
▁baka	-1348
▁dugo	-1349
▁kami	-1350
▁muna	-1351
▁panl	-1352
▁pook	-1353
▁samp	-1354
▁tuwa	-1355
agpuan	-1356
entong	-1357
▁Kapag	-1358
▁kalag	-1359
▁labis	-1360
▁nanin	-1361
▁kinaka	-1362
▁namatay	-1363
dir	-1364
iit	-1365
ilo	-1366
lan	-1367
lat	-1368
tik	-1369
▁ag	-1370
amak	-1371
dang	-1372
isin	-1373
▁Tag	-1374
▁kak	-1375
▁sad	-1376
akyat	-1377
▁apat	-1378
▁aming	-1379
▁epiko	-1380
▁Aladin	-1381
▁limang	-1382
▁Heneral	-1383
▁babaing	-1384
▁kaniyang	-1385
▁magiging	-1386
▁Konstitusyong	-1387
iz	-1388
oo	-1389
era	-1390
las	-1391
rist	-1392
▁Jos	-1393
▁Ped	-1394
▁imp	-1395
▁niy	-1396
aloob	-1397
iwata	-1398
▁Ayon	-1399
▁Kura	-1400
▁ibin	-1401
▁pana	-1402
▁tila	-1403
iyahan	-1404
ungang	-1405
▁gagaw	-1406
▁lumip	-1407
▁gawain	-1408
▁itinat	-1409
▁lupain	-1410
▁salita	-1411
▁umalis	-1412
▁bangkay	-1413
▁sanggol	-1414
▁mabuting	-1415
▁pangalan	-1416
emb	-1417
eon	-1418
agin	-1419
hati	-1420
▁Sen	-1421
▁bit	-1422
▁Pagk	-1423
▁Pers	-1424
▁sang	-1425
▁simb	-1426
amatay	-1427
aralan	-1428
asyong	-1429
▁Sibil	-1430
▁ibong	-1431
▁kasal	-1432
▁kaysa	-1433
▁magag	-1434
▁nasas	-1435
▁ipinag	-1436
▁Hukuman	-1437
▁nararapat	-1438
Sa	-1439
ca	-1440
arin	-1441
igid	-1442
▁(2)	-1443
▁Nat	-1444
▁ent	-1445
▁kad	-1446
akita	-1447
▁apoy	-1448
▁bang	-1449
▁nakik	-1450
▁sagot	-1451
▁pagbab	-1452
▁taglay	-1453
▁halalan	-1454
▁kayaman	-1455
▁makapag	-1456
▁kaluluwa	-1457
no	-1458
▁4	-1459
agl	-1460
aho	-1461
ays	-1462
pit	-1463
▁ab	-1464
inis	-1465
tang	-1466
ukot	-1467
upit	-1468
utol	-1469
▁nai	-1470
▁paa	-1471
▁uma	-1472
▁dala	-1473
▁pati	-1474
ahimik	-1475
utusan	-1476
▁mundo	-1477
▁palay	-1478
▁pamum	-1479
alagaan	-1480
▁alamat	-1481
▁marami	-1482
▁paraan	-1483
▁kailangan	-1484
▁katungkulan	-1485
dal	-1486
tog	-1487
idad	-1488
ikat	-1489
ikit	-1490
iyas	-1491
utom	-1492
uyod	-1493
▁Nab	-1494
▁kul	-1495
▁pah	-1496
andog	-1497
▁Cris	-1498
▁Jose	-1499
▁buto	-1500
▁rito	-1501
abayan	-1502
▁ginto	-1503
▁halos	-1504
▁harap	-1505
▁niyon	-1506
▁kaagad	-1507
▁tulang	-1508
▁Binukot	-1509
▁hukuman	-1510
▁maliban	-1511
▁munting	-1512
▁Namongan	-1513
▁damdamin	-1514
duk	-1515
uko	-1516
uyo	-1517
▁ig	-1518
awad	-1519
ikal	-1520
izal	-1521
▁(1)	-1522
▁daw	-1523
▁day	-1524
▁pun	-1525
▁reg	-1526
▁tal	-1527
igyan	-1528
▁kamp	-1529
alagay	-1530
▁Rizal	-1531
▁natut	-1532
▁kaaway	-1533
▁magtat	-1534
▁pagkab	-1535
▁matsing	-1536
▁mayroong	-1537
io	-1538
iro	-1539
▁am	-1540
anti	-1541
emon	-1542
hiya	-1543
ilaw	-1544
▁Din	-1545
alimb	-1546
▁gaya	-1547
▁iyan	-1548
aguyod	-1549
▁Kahit	-1550
▁Tasyo	-1551
▁panin	-1552
▁tawag	-1553
▁bayang	-1554
▁mataas	-1555
▁pusong	-1556
▁taning	-1557
▁kawayan	-1558
▁mamatay	-1559
▁Samantala	-1560
▁pagkakata	-1561
hh	-1562
po	-1563
dan	-1564
▁Es	-1565
asya	-1566
ayos	-1567
ubuo	-1568
uwal	-1569
▁bay	-1570
▁but	-1571
▁hig	-1572
angal	-1573
nayan	-1574
▁Mula	-1575
▁Sila	-1576
▁daan	-1577
alaala	-1578
alapit	-1579
▁Noong	-1580
▁bibig	-1581
▁damit	-1582
▁ganda	-1583
▁hanap	-1584
▁nayon	-1585
amdaman	-1586
▁nagsis	-1587
▁simbahan	-1588
fa	-1589
ora	-1590
▁Am	-1591
▁ar	-1592
ibat	-1593
ipon	-1594
▁lin	-1595
▁rey	-1596
Hindi	-1597
aalam	-1598
uyang	-1599
▁Bant	-1600
▁Nagt	-1601
▁tabi	-1602
intong	-1603
▁hukbo	-1604
aysayan	-1605
ihintay	-1606
▁ligaya	-1607
▁minsan	-1608
▁yaring	-1609
aliwanag	-1610
▁subalit	-1611
▁Hanggang	-1612
AT	-1613
ch	-1614
mo	-1615
ti	-1616
▁5	-1617
ada	-1618
uot	-1619
▁Ig	-1620
agay	-1621
alad	-1622
ubos	-1623
unog	-1624
▁Kan	-1625
▁buh	-1626
▁dig	-1627
▁nad	-1628
aaral	-1629
aging	-1630
ayapa	-1631
▁kumb	-1632
aharap	-1633
alangin	-1634
taasang	-1635
▁Habang	-1636
▁kaloob	-1637
▁kasint	-1638
▁magkas	-1639
▁pagong	-1640
▁bilangg	-1641
▁malaman	-1642
▁paligid	-1643
▁pampang	-1644
▁pangang	-1645
▁pangyayari	-1646
le	-1647
ard	-1648
erp	-1649
kan	-1650
log	-1651
anao	-1652
arir	-1653
ukan	-1654
wang	-1655
▁Kab	-1656
▁kom	-1657
▁tit	-1658
ampas	-1659
unita	-1660
▁Nags	-1661
▁lawa	-1662
▁utos	-1663
ingnan	-1664
uhayan	-1665
▁Bakit	-1666
▁Bayan	-1667
▁Pedro	-1668
▁entab	-1669
▁ngayo	-1670
awalang	-1671
▁malaki	-1672
▁tanong	-1673
▁lumabas	-1674
▁katutubong	-1675
▁pagmamahal	-1676
3)	-1677
yu	-1678
ida	-1679
▁la	-1680
amba	-1681
▁bab	-1682
▁eks	-1683
▁umi	-1684
adala	-1685
yente	-1686
▁Agyu	-1687
▁guro	-1688
▁ilaw	-1689
▁kasi	-1690
▁pant	-1691
awalan	-1692
uwaang	-1693
▁hawak	-1694
▁lubos	-1695
▁mangg	-1696
▁kasalan	-1697
▁lubhang	-1698
▁sabihin	-1699
▁kumbento	-1700
▁entablado	-1701
▁tinatawag	-1702
ia	-1703
▁-	-1704
end	-1705
pag	-1706
put	-1707
▁Dr	-1708
ahay	-1709
amay	-1710
anat	-1711
ares	-1712
iyan	-1713
ugon	-1714
▁Lab	-1715
▁Min	-1716
▁mus	-1717
ansin	-1718
ataan	-1719
igpit	-1720
ingat	-1721
▁Araw	-1722
▁Pagd	-1723
▁kaug	-1724
▁sama	-1725
alakay	-1726
isipan	-1727
ugtong	-1728
▁bukid	-1729
▁tiyak	-1730
▁Kataas	-1731
▁malayo	-1732
▁nagsas	-1733
▁mabilis	-1734
▁tinawag	-1735
amahalaan	-1736
▁nagiging	-1737
▁Kataastaasang	-1738
▁Ak	-1739
anaw	-1740
erno	-1741
ilik	-1742
uong	-1743
▁Bis	-1744
▁Nal	-1745
▁Pab	-1746
▁tuk	-1747
▁tut	-1748
anggi	-1749
umpay	-1750
▁Ines	-1751
▁dusa	-1752
▁lagi	-1753
▁sund	-1754
▁ukol	-1755
iwalay	-1756
▁amang	-1757
▁iyang	-1758
▁kawal	-1759
▁magka	-1760
▁ngang	-1761
▁patak	-1762
▁sibat	-1763
▁silid	-1764
▁umaga	-1765
▁pakpak	-1766
▁pinagm	-1767
▁wikang	-1768
▁Tuwaang	-1769
▁sadyang	-1770
▁Kinatawan	-1771
▁kailangang	-1772
ahe	-1773
ton	-1774
wel	-1775
▁19	-1776
Kung	-1777
apak	-1778
▁Gin	-1779
▁Ina	-1780
▁Nar	-1781
▁Tul	-1782
▁yum	-1783
abait	-1784
abasa	-1785
alana	-1786
alino	-1787
igtas	-1788
▁Doon	-1789
▁Itin	-1790
▁Saka	-1791
▁kont	-1792
anggit	-1793
ubuhay	-1794
usahan	-1795
▁Ilang	-1796
▁Upang	-1797
▁dahon	-1798
▁gawin	-1799
▁halip	-1800
▁kawan	-1801
▁pilak	-1802
▁umuwi	-1803
ahangad	-1804
alingan	-1805
▁gumawa	-1806
▁korpor	-1807
▁paglal	-1808
▁pinagt	-1809
▁pitong	-1810
▁salapi	-1811
▁samant	-1812
▁mayroon	-1813
▁nangang	-1814
▁singsing	-1815
▁kayamanan	-1816
▁kuwentong	-1817
▁kagandahan	-1818
▁pambansang	-1819
00	-1820
co	-1821
agh	-1822
ans	-1823
ena	-1824
obo	-1825
▁Cl	-1826
▁kw	-1827
alon	-1828
ayak	-1829
umpa	-1830
▁Ano	-1831
▁hap	-1832
▁kil	-1833
▁lok	-1834
ihang	-1835
uwang	-1836
▁Ibig	-1837
▁Moro	-1838
▁pari	-1839
▁pulo	-1840
▁roon	-1841
akbang	-1842
ihingi	-1843
ulugan	-1844
▁dilag	-1845
▁kapal	-1846
▁lihim	-1847
▁sukat	-1848
▁talim	-1849
▁gabing	-1850
▁lumaki	-1851
▁puting	-1852
▁Linares	-1853
▁gagawin	-1854
▁gintong	-1855
▁mabuhay	-1856
▁nakapag	-1857
▁sumunod	-1858
▁dalagang	-1859
▁masayang	-1860
▁pangarap	-1861
▁prinsipe	-1862
▁magkapatid	-1863
▁samantalang	-1864
hik	-1865
ngk	-1866
ola	-1867
tok	-1868
ukl	-1869
uon	-1870
▁pl	-1871
akip	-1872
aliw	-1873
anim	-1874
asin	-1875
ular	-1876
▁Ind	-1877
▁naa	-1878
▁reh	-1879
▁tig	-1880
itolo	-1881
▁Isin	-1882
▁ayaw	-1883
▁maka	-1884
anggam	-1885
atlong	-1886
irapan	-1887
uhunan	-1888
▁buhok	-1889
▁ganap	-1890
▁lokal	-1891
▁namum	-1892
▁sulat	-1893
▁tangh	-1894
▁yaman	-1895
▁Naging	-1896
▁gulang	-1897
▁maliit	-1898
▁piling	-1899
▁Subalit	-1900
▁pagkaka	-1901
▁tanggap	-1902
apangyari	-1903
▁nagkaroon	-1904
gan	-1905
ran	-1906
▁Ab	-1907
▁Ha	-1908
▁es	-1909
▁id	-1910
abel	-1911
amig	-1912
otoo	-1913
upan	-1914
uwan	-1915
▁And	-1916
▁Bag	-1917
▁Hal	-1918
▁Rey	-1919
▁sug	-1920
alala	-1921
▁Dito	-1922
▁Ilog	-1923
▁Mang	-1924
▁Nagb	-1925
▁Para	-1926
▁kina	-1927
▁pamb	-1928
abihin	-1929
inding	-1930
isyong	-1931
unayan	-1932
▁bunso	-1933
▁laman	-1934
▁napag	-1935
▁sapat	-1936
▁Bisaya	-1937
▁Isabel	-1938
▁Minsan	-1939
▁bayani	-1940
▁diwata	-1941
▁magsas	-1942
▁bumalik	-1943
▁mahirap	-1944
▁narinig	-1945
▁tandang	-1946
▁Bantugan	-1947
▁libingan	-1948
▁marunong	-1949
▁pagpapat	-1950
▁Pagdating	-1951
▁Pangalawang	-1952
LO	-1953
▁u	-1954
cas	-1955
lap	-1956
▁Ra	-1957
ahad	-1958
apay	-1959
iwat	-1960
▁(3)	-1961
▁Gan	-1962
▁Men	-1963
▁Sul	-1964
▁Vic	-1965
▁biy	-1966
▁lar	-1967
▁pup	-1968
▁put	-1969
▁sek	-1970
▁sis	-1971
onood	-1972
unawa	-1973
▁alim	-1974
▁manl	-1975
▁nama	-1976
▁pint	-1977
abigat	-1978
andaan	-1979
aunlad	-1980
ayanan	-1981
emonyo	-1982
ilipad	-1983
intang	-1984
usunod	-1985
▁mahiw	-1986
▁nakal	-1987
▁natat	-1988
▁sibil	-1989
▁sinta	-1990
▁takot	-1991
▁tumut	-1992
abayang	-1993
▁Alamat	-1994
▁Senado	-1995
▁balang	-1996
▁hirang	-1997
▁kusang	-1998
▁nagbab	-1999
▁pawang	-2000
▁sangay	-2001
▁anumang	-2002
▁patungo	-2003
▁pagkakas	-2004
▁salitang	-2005
▁kasaysayan	-2006
▁pagkakataon	-2007
te	-2008
ags	-2009
cio	-2010
ema	-2011
igo	-2012
pir	-2013
sod	-2014
adal	-2015
fael	-2016
ingn	-2017
isyo	-2018
itik	-2019
usay	-2020
usog	-2021
▁Pan	-2022
▁bas	-2023
▁int	-2024
▁sig	-2025
aking	-2026
atnan	-2027
esyon	-2028
kahoy	-2029
ugang	-2030
usong	-2031
▁Pagb	-2032
ahanda	-2033
inggan	-2034
iranin	-2035
otohan	-2036
▁balak	-2037
▁balat	-2038
▁batis	-2039
▁giliw	-2040
▁kabut	-2041
▁paano	-2042
▁panig	-2043
▁sanga	-2044
unahing	-2045
▁Rafael	-2046
▁Victor	-2047
▁bituin	-2048
▁buwaya	-2049
▁ganito	-2050
▁magpap	-2051
alawigan	-2052
▁Crispin	-2053
▁dayuhan	-2054
▁epikong	-2055
▁pamilya	-2056
▁pumasok	-2057
▁Dumating	-2058
▁Tulalang	-2059
▁madaling	-2060
▁makikita	-2061
▁paaralan	-2062
▁kalagayan	-2063
▁pakikipag	-2064
▁sandaling	-2065
angailangan	-2066
▁karapatang	-2067
▁pagkatapos	-2068
▁paglalakbay	-2069
6.	-2070
II	-2071
ue	-2072
ANG	-2073
ato	-2074
kin	-2075
way	-2076
abal	-2077
ahah	-2078
ardo	-2079
ayat	-2080
bong	-2081
elih	-2082
ihis	-2083
uhod	-2084
▁Bid	-2085
▁maw	-2086
▁sup	-2087
▁una	-2088
amaan	-2089
asari	-2090
ihing	-2091
uparo	-2092
▁aral	-2093
▁dako	-2094
▁inyo	-2095
▁isda	-2096
▁kaka	-2097
▁laki	-2098
▁lung	-2099
ipunan	-2100
▁Espan	-2101
▁Gayon	-2102
▁buhat	-2103
▁gamit	-2104
▁kalup	-2105
▁likas	-2106
▁makas	-2107
▁namin	-2108
▁tinut	-2109
alitaan	-2110
iligtas	-2111
indanao	-2112
saknong	-2113
ukulang	-2114
▁batong	-2115
▁galing	-2116
▁naming	-2117
▁nating	-2118
▁nawala	-2119
▁higante	-2120
▁kasaluk	-2121
▁katangi	-2122
▁matapos	-2123
▁Prinsipe	-2124
▁kalooban	-2125
▁manonood	-2126
▁nagtagal	-2127
▁Pamahalaan	-2128
▁kinabukasan	-2129
▁naninirahan	-2130
▁magkakapatid	-2131
▁c	-2132
nap	-2133
ubi	-2134
▁1.	-2135
▁2.	-2136
▁Ni	-2137
abit	-2138
adya	-2139
akbo	-2140
amas	-2141
anib	-2142
enas	-2143
hasa	-2144
ipan	-2145
ipik	-2146
itim	-2147
ubog	-2148
▁Bal	-2149
▁Kam	-2150
▁Nan	-2151
▁Nen	-2152
▁Pum	-2153
▁Ros	-2154
▁Sap	-2155
▁Sel	-2156
▁bar	-2157
▁ham	-2158
▁neg	-2159
uusap	-2160
▁Puti	-2161
▁pero	-2162
▁ulan	-2163
ubatan	-2164
▁Balag	-2165
▁abang	-2166
▁habag	-2167
▁kalak	-2168
▁matut	-2169
▁sigaw	-2170
▁tangk	-2171
untahan	-2172
untunin	-2173
▁Parang	-2174
▁huling	-2175
▁kailan	-2176
▁mabait	-2177
▁pagtut	-2178
▁tingin	-2179
▁Cabigat	-2180
▁lumapit	-2181
▁matamis	-2182
▁pangkat	-2183
▁sampung	-2184
▁sandali	-2185
▁tahimik	-2186
▁binatang	-2187
▁kababayan	-2188
▁matinding	-2189
▁minamahal	-2190
▁karaniwang	-2191
▁kasintahan	-2192
▁mahiwagang	-2193
▁paniniwala	-2194
▁pangunahing	-2195
AK	-2196
apo	-2197
kop	-2198
tol	-2199
uel	-2200
▁3.	-2201
itaw	-2202
ling	-2203
maan	-2204
nila	-2205
ukal	-2206
▁Ama	-2207
▁Pal	-2208
▁ika	-2209
▁per	-2210
agdag	-2211
andro	-2212
angis	-2213
ibong	-2214
inang	-2215
laban	-2216
ungin	-2217
wiran	-2218
▁Fler	-2219
▁Nagm	-2220
▁Solo	-2221
▁bait	-2222
▁bunt	-2223
▁kand	-2224
▁kult	-2225
▁lahi	-2226
▁land	-2227
▁pand	-2228
▁sist	-2229
aganda	-2230
apatay	-2231
atawag	-2232
ilingk	-2233
▁Clara	-2234
▁gutom	-2235
▁pista	-2236
▁sinus	-2237
▁sumas	-2238
▁ugali	-2239
embaran	-2240
ibigang	-2241
▁Malana	-2242
▁dunong	-2243
▁tuwing	-2244
▁usapan	-2245
dukasyon	-2246
▁Langgam	-2247
▁Mabilis	-2248
▁lupaing	-2249
▁pangung	-2250
▁mahigpit	-2251
▁panauhin	-2252
▁talagang	-2253
▁suliranin	-2254
▁tumanggap	-2255
▁pinagmulan	-2256
iu	-2257
erb	-2258
fer	-2259
lim	-2260
lip	-2261
orm	-2262
pas	-2263
rol	-2264
▁aw	-2265
ador	-2266
agas	-2267
alok	-2268
iisa	-2269
istr	-2270
iyag	-2271
▁pis	-2272
▁piy	-2273
ahati	-2274
alawa	-2275
itaas	-2276
iting	-2277
orong	-2278
tasan	-2279
ugtog	-2280
▁Bern	-2281
▁Leon	-2282
▁Nasa	-2283
▁Tiya	-2284
▁Lucas	-2285
▁Manok	-2286
▁kapar	-2287
▁karun	-2288
▁labas	-2289
▁likod	-2290
▁pangh	-2291
▁panuk	-2292
▁sabay	-2293
▁sasak	-2294
▁siyam	-2295
▁utang	-2296
agumpay	-2297
arungan	-2298
▁Labtik	-2299
▁Madali	-2300
▁Ngayon	-2301
▁balita	-2302
▁diyosa	-2303
▁niyong	-2304
alimbawa	-2305
▁binubuo	-2306
▁lumakad	-2307
▁Bembaran	-2308
▁Bernardo	-2309
▁Bidasari	-2310
▁Dalawang	-2311
▁Tinyente	-2312
▁pagiging	-2313
▁tulungan	-2314
▁kagubatan	-2315
0.	-2316
ATA	-2317
agb	-2318
apt	-2319
cis	-2320
ily	-2321
lit	-2322
rog	-2323
▁4.	-2324
▁Oh	-2325
akaw	-2326
alap	-2327
atak	-2328
atut	-2329
ikap	-2330
ilog	-2331
orot	-2332
tana	-2333
▁Bul	-2334
▁Kum	-2335
▁Maa	-2336
▁hih	-2337
aglay	-2338
anaog	-2339
ibing	-2340
indig	-2341
▁alit	-2342
▁epis	-2343
▁init	-2344
▁pamp	-2345
ibhasa	-2346
ngkant	-2347
ubilin	-2348
▁Sulay	-2349
▁anong	-2350
▁bisig	-2351
▁gusto	-2352
▁halal	-2353
▁handa	-2354
▁katap	-2355
akilala	-2356
apansin	-2357
insunod	-2358
intulot	-2359
▁Atenas	-2360
▁Igorot	-2361
▁bangka	-2362
▁kumain	-2363
▁lupang	-2364
▁magkab	-2365
▁malaya	-2366
▁nagkas	-2367
▁palaka	-2368
▁simula	-2369
asalamat	-2370
elihiyon	-2371
ilingkod	-2372
▁Maynila	-2373
▁hakbang	-2374
▁kalaban	-2375
▁ngayong	-2376
itolohiya	-2377
▁Sulayman	-2378
▁alimango	-2379
▁binigyan	-2380
▁napansin	-2381
▁lalawigan	-2382
▁tinanggap	-2383
▁pagpapaunlad	-2384
▁kinakailangan	-2385
▁kapangyarihang	-2386
).	-2387
4)	-2388
ka	-2389
gad	-2390
isd	-2391
kal	-2392
les	-2393
nay	-2394
pis	-2395
▁Im	-2396
▁Pa	-2397
akat	-2398
amad	-2399
awid	-2400
into	-2401
isag	-2402
pres	-2403
ukoy	-2404
utas	-2405
▁Ban	-2406
▁Bum	-2407
▁Del	-2408
▁Nas	-2409
▁bub	-2410
▁ger	-2411
▁mai	-2412
▁pad	-2413
agsik	-2414
akila	-2415
angit	-2416
asong	-2417
awing	-2418
batas	-2419
buhay	-2420
▁Magb	-2421
▁Sari	-2422
▁band	-2423
▁baya	-2424
▁boto	-2425
▁lamb	-2426
▁prib	-2427
abihan	-2428
iganti	-2429
ugulin	-2430
usapin	-2431
▁Aling	-2432
▁Itong	-2433
▁kilos	-2434
▁laang	-2435
▁mapap	-2436
▁nakar	-2437
▁pagod	-2438
asawang	-2439
atauhan	-2440
ikilala	-2441
▁Neneng	-2442
▁ibabaw	-2443
▁ninuno	-2444
▁pabula	-2445
▁sakdal	-2446
▁Flerida	-2447
▁bakuran	-2448
▁engkant	-2449
▁pamamah	-2450
▁pintuan	-2451
▁dakilang	-2452
▁ginagawa	-2453
▁itadhana	-2454
▁itaguyod	-2455
▁kalayaan	-2456
▁sinabing	-2457
▁kaibigang	-2458
▁kapalaran	-2459
▁malungkot	-2460
▁panukalang	-2461
▁magagandang	-2462
),	-2463
At	-2464
si	-2465
ONG	-2466
tao	-2467
uso	-2468
▁Ap	-2469
atol	-2470
igma	-2471
iral	-2472
iuag	-2473
song	-2474
uwid	-2475
▁Kro	-2476
▁Sar	-2477
▁lay	-2478
▁tab	-2479
aklaw	-2480
alayo	-2481
among	-2482
ining	-2483
iusap	-2484
utian	-2485
▁Bago	-2486
▁Fran	-2487
▁TATA	-2488
▁pans	-2489
▁sala	-2490
araang	-2491
eksyon	-2492
ustong	-2493
▁Biuag	-2494
▁Selya	-2495
▁bango	-2496
▁itlog	-2497
▁linya	-2498
▁mahih	-2499
▁panit	-2500
agaling	-2501
angalan	-2502
tanggol	-2503
▁Kroton	-2504
▁Maging	-2505
▁Sultan	-2506
▁episod	-2507
▁gunita	-2508
▁hangad	-2509
▁landas	-2510
▁magpat	-2511
▁makata	-2512
▁naiiba	-2513
▁pagsus	-2514
agkaloob	-2515
alimutan	-2516
diriwang	-2517
▁digmaan	-2518
▁nasasak	-2519
▁pinangg	-2520
▁Menandro	-2521
▁Paruparo	-2522
▁halamang	-2523
▁nakikita	-2524
▁paggamit	-2525
▁sinumang	-2526
▁nagbibigay	-2527
▁itinatadhana	-2528
▁makapangyari	-2529
▁kinakailangang	-2530
2.	-2531
ao	-2532
hal	-2533
inh	-2534
iyo	-2535
ons	-2536
tod	-2537
zon	-2538
▁15	-2539
▁gr	-2540
abin	-2541
abog	-2542
akap	-2543
atap	-2544
ipas	-2545
unos	-2546
usob	-2547
▁Buk	-2548
▁Sib	-2549
▁hah	-2550
▁kub	-2551
▁mut	-2552
▁usa	-2553
aksil	-2554
alagi	-2555
anang	-2556
cisco	-2557
iisip	-2558
ikain	-2559
iyong	-2560
oroon	-2561
sakit	-2562
ugong	-2563
yahan	-2564
▁Agad	-2565
▁Dama	-2566
▁Miya	-2567
▁Nagl	-2568
▁anya	-2569
▁asal	-2570
▁damo	-2571
▁ilan	-2572
▁itat	-2573
▁mand	-2574
▁part	-2575
▁ulap	-2576
agamot	-2577
aginip	-2578
ahinga	-2579
ilalim	-2580
napung	-2581
▁Buhay	-2582
▁bukas	-2583
▁kakay	-2584
▁kinat	-2585
▁lingk	-2586
▁puman	-2587
▁reyna	-2588
▁tatlo	-2589
ingning	-2590
▁Kaagad	-2591
▁dakila	-2592
▁dangal	-2593
▁dinala	-2594
▁kabayo	-2595
▁masama	-2596
▁naglal	-2597
▁pinagb	-2598
▁pulong	-2599
akasalan	-2600
▁Kalabaw	-2601
▁Tandang	-2602
▁kapakan	-2603
▁marahil	-2604
▁nawalan	-2605
▁pagsang	-2606
▁regular	-2607
▁susunod	-2608
▁Prinsesa	-2609
▁ganitong	-2610
▁Francisco	-2611
▁Pagbigkas	-2612
▁hinahanap	-2613
▁pamamaraan	-2614
▁Kinabukasan	-2615
▁pangalagaan	-2616
▁Konstitusyon	-2617
".	-2618
1.	-2619
AG	-2620
AM	-2621
iri	-2622
isk	-2623
ity	-2624
lam	-2625
yag	-2626
▁5.	-2627
▁Ba	-2628
▁im	-2629
ahok	-2630
amam	-2631
amok	-2632
ibik	-2633
inaw	-2634
ugad	-2635
ugot	-2636
ural	-2637
usig	-2638
▁Tar	-2639
▁bot	-2640
▁hur	-2641
▁lul	-2642
▁sah	-2643
▁ser	-2644
▁sub	-2645
abaho	-2646
ahagi	-2647
akbay	-2648
ganis	-2649
iliit	-2650
urong	-2651
▁Samp	-2652
▁Tang	-2653
▁atin	-2654
▁dulo	-2655
▁igin	-2656
▁irog	-2657
▁kani	-2658
aganap	-2659
alamin	-2660
atipik	-2661
ighati	-2662
iligaw	-2663
ilipin	-2664
imbing	-2665
inigay	-2666
iyerno	-2667
umpung	-2668
▁dilim	-2669
▁inaas	-2670
▁layun	-2671
▁mapan	-2672
▁nagng	-2673
▁nanan	-2674
▁sumis	-2675
▁tumat	-2676
alubong	-2677
uturing	-2678
▁Bundok	-2679
▁Langit	-2680
▁Persya	-2681
▁kabila	-2682
▁kayang	-2683
▁maaari	-2684
▁mapang	-2685
▁masaya	-2686
▁nagkak	-2687
▁pagtit	-2688
▁tayong	-2689
alagahan	-2690
otohanan	-2691
yayaring	-2692
▁Maganda	-2693
▁kagawad	-2694
▁kampana	-2695
▁lipunan	-2696
▁lungkot	-2697
▁marapat	-2698
▁marinig	-2699
▁mayaman	-2700
▁nakabab	-2701
▁sapagka	-2702
ungkulang	-2703
▁darating	-2704
▁episodyo	-2705
▁layuning	-2706
▁nagtungo	-2707
▁kasalanan	-2708
▁pagkaraan	-2709
▁pamumuhay	-2710
▁punongkahoy	-2711
IK	-2712
IN	-2713
aa	-2714
ba	-2715
go	-2716
lks	-2717
wan	-2718
▁br	-2719
....	-2720
aano	-2721
abol	-2722
ermo	-2723
iwas	-2724
rito	-2725
ubay	-2726
udad	-2727
ugol	-2728
uyog	-2729
▁Dul	-2730
▁apo	-2731
▁est	-2732
▁ins	-2733
▁kuk	-2734
▁lab	-2735
▁noo	-2736
▁tak	-2737
ababa	-2738
agkan	-2739
ahala	-2740
ardin	-2741
atong	-2742
ayway	-2743
bahay	-2744
imang	-2745
islap	-2746
undan	-2747
undin	-2748
▁Pina	-2749
▁leon	-2750
▁nuno	-2751
alaang	-2752
anghal	-2753
apatan	-2754
ayaman	-2755
rolado	-2756
▁Binig	-2757
▁Bugan	-2758
▁Gayun	-2759
▁Konde	-2760
▁bagyo	-2761
▁banal	-2762
▁bigas	-2763
▁itaas	-2764
▁kaawa	-2765
▁lunti	-2766
▁nakap	-2767
▁napap	-2768
▁pangg	-2769
▁pinap	-2770
▁tribo	-2771
▁tuloy	-2772
anatili	-2773
presyon	-2774
▁Manuel	-2775
▁alaala	-2776
▁bigyan	-2777
▁gawing	-2778
▁iniwan	-2779
▁itakda	-2780
▁kinuha	-2781
▁lumbay	-2782
▁mandir	-2783
▁pulubi	-2784
▁Leonora	-2785
▁Salermo	-2786
▁hanapin	-2787
▁hinanap	-2788
▁masipag	-2789
▁matangi	-2790
▁paggawa	-2791
▁Maraming	-2792
▁institus	-2793
▁kabataan	-2794
▁panganib	-2795
▁Victorina	-2796
▁kabuhayan	-2797
▁mamamatay	-2798
▁pagbabago	-2799
▁karunungan	-2800
▁pagkamatay	-2801
5)	-2802
IA	-2803
ea	-2804
mb	-2805
▁9	-2806
art	-2807
ido	-2808
oko	-2809
yla	-2810
▁Da	-2811
▁Gr	-2812
ahih	-2813
atlo	-2814
ikas	-2815
ilid	-2816
iram	-2817
itas	-2818
▁(4)	-2819
▁Tab	-2820
▁dag	-2821
▁erm	-2822
▁kur	-2823
▁las	-2824
▁nau	-2825
▁nir	-2826
aanak	-2827
alapi	-2828
andaw	-2829
aptap	-2830
arili	-2831
asyal	-2832
erong	-2833
idlat	-2834
intas	-2835
ipagk	-2836
▁Ikin	-2837
▁Nagh	-2838
▁Noon	-2839
▁aliw	-2840
▁labi	-2841
▁nagw	-2842
▁tupa	-2843
▁yaon	-2844
agutan	-2845
ahatid	-2846
amihan	-2847
itanyo	-2848
orilya	-2849
ukhang	-2850
uluhan	-2851
▁Labaw	-2852
▁Mahal	-2853
▁Pagka	-2854
▁batay	-2855
▁binab	-2856
▁galak	-2857
▁makap	-2858
▁narir	-2859
▁pinto	-2860
gugulin	-2861
▁Manobo	-2862
▁angkop	-2863
▁ganoon	-2864
▁kayong	-2865
▁libing	-2866
▁magawa	-2867
▁paghih	-2868
▁pagkag	-2869
▁pinsan	-2870
▁sultan	-2871
▁waring	-2872
▁Kanyang	-2873
▁Makisig	-2874
▁babaeng	-2875
▁gawaing	-2876
▁hininga	-2877
▁kaligay	-2878
▁lumipas	-2879
▁lumitaw	-2880
▁madilim	-2881
▁madlang	-2882
▁malalim	-2883
▁manging	-2884
▁nahulog	-2885
▁nilikha	-2886
▁sumapit	-2887
▁tadhana	-2888
▁Mindanao	-2889
▁bayaning	-2890
▁katutubo	-2891
▁magbalik	-2892
▁malayong	-2893
▁maligaya	-2894
▁maliliit	-2895
▁nilalang	-2896
▁paningin	-2897
▁sambayan	-2898
▁edukasyon	-2899
▁lumilipad	-2900
▁pagbigkas	-2901
▁panaginip	-2902
▁kontrolado	-2903
RT	-2904
ANA	-2905
Ito	-2906
kon	-2907
str	-2908
uke	-2909
agap	-2910
aryo	-2911
awig	-2912
enor	-2913
ibon	-2914
init	-2915
ugin	-2916
unas	-2917
▁Kag	-2918
▁Nil	-2919
▁awa	-2920
Bakit	-2921
akala	-2922
akang	-2923
akwel	-2924
cifer	-2925
ermon	-2926
ingap	-2927
kalde	-2928
ulaan	-2929
uluan	-2930
uyong	-2931
▁Duke	-2932
▁Pamb	-2933
▁baga	-2934
▁bung	-2935
▁kura	-2936
▁kusa	-2937
▁mala	-2938
▁payo	-2939
▁puri	-2940
▁unti	-2941
agatan	-2942
alahat	-2943
alipas	-2944
amalas	-2945
imbang	-2946
ristal	-2947
▁Anong	-2948
▁akala	-2949
▁duwag	-2950
▁kamag	-2951
▁kumak	-2952
▁nalal	-2953
▁nangg	-2954
▁wakas	-2955
unawaan	-2956
▁Kinuha	-2957
▁Lalong	-2958
▁Pagong	-2959
▁Sibyla	-2960
▁alipin	-2961
▁biyaya	-2962
▁hardin	-2963
▁iisang	-2964
▁lahing	-2965
▁luhang	-2966
▁maling	-2967
▁pinagk	-2968
▁saging	-2969
▁sanang	-2970
▁sesyon	-2971
▁usapin	-2972
apangulo	-2973
aririnig	-2974
▁Espanya	-2975
▁Krotona	-2976
▁Lucifer	-2977
▁Nagalit	-2978
▁bintana	-2979
▁gorilya	-2980
▁kalungk	-2981
▁layunin	-2982
▁lumipad	-2983
▁lumisan	-2984
▁matuwid	-2985
▁sundalo	-2986
▁Maaaring	-2987
▁Sapagkat	-2988
▁magagawa	-2989
▁mahabang	-2990
▁malayang	-2991
▁matapang	-2992
▁nagbigay	-2993
▁pambansa	-2994
▁ermitanyo	-2995
▁impiyerno	-2996
▁kahirapan	-2997
▁katangian	-2998
▁pribadong	-2999
▁sasabihin	-3000
▁sumusunod	-3001
▁tanghalan	-3002
▁bilangguan	-3003
▁ekspresyon	-3004
▁Tagapangulo	-3005
▁matatagpuan	-3006
▁nasasakupan	-3007
▁pamahalaang	-3008
▁paglilingkod	-3009
An	-3010
Ep	-3011
MP	-3012
Ng	-3013
gr	-3014
pe	-3015
AND	-3016
IKU	-3017
aha	-3018
any	-3019
dad	-3020
iwi	-3021
mas	-3022
sas	-3023
ubl	-3024
ugh	-3025
uta	-3026
▁Ah	-3027
▁ha	-3028
..."	-3029
ARIA	-3030
Iput	-3031
ando	-3032
atao	-3033
udit	-3034
undi	-3035
ungg	-3036
yayi	-3037
▁ART	-3038
▁Ber	-3039
▁IMP	-3040
▁Int	-3041
▁Mus	-3042
▁Pak	-3043
▁Pat	-3044
▁aki	-3045
▁pet	-3046
▁res	-3047
▁saw	-3048
▁say	-3049
IKULO	-3050
agana	-3051
agsak	-3052
ambal	-3053
angon	-3054
arusa	-3055
enang	-3056
ingal	-3057
isdik	-3058
uruan	-3059
urusa	-3060
uyuan	-3061
▁Anak	-3062
▁Iput	-3063
▁Nais	-3064
▁Sand	-3065
▁diin	-3066
▁idin	-3067
▁kain	-3068
▁pray	-3069
▁tatl	-3070
ansang	-3071
antong	-3072
apitan	-3073
ayaang	-3074
ilipat	-3075
ilitar	-3076
ristan	-3077
▁Diwat	-3078
▁Gibon	-3079
▁Hapon	-3080
▁MARIA	-3081
▁baboy	-3082
▁bakod	-3083
▁bigla	-3084
▁burol	-3085
▁gapos	-3086
▁hamog	-3087
▁hiyas	-3088
▁instr	-3089
▁kabig	-3090
▁kapat	-3091
▁layaw	-3092
▁lilim	-3093
▁mapat	-3094
▁pilit	-3095
▁sikat	-3096
▁totoo	-3097
alagyan	-3098
anganak	-3099
arangay	-3100
hininga	-3101
ilalang	-3102
istrado	-3103
oroonan	-3104
▁Bilang	-3105
▁IMPONG	-3106
▁Morong	-3107
▁Muling	-3108
▁bumaba	-3109
▁dalita	-3110
▁kabund	-3111
▁kasund	-3112
▁kawani	-3113
▁kilala	-3114
▁kulang	-3115
▁laking	-3116
▁niring	-3117
▁pagpup	-3118
▁pagsis	-3119
▁sektor	-3120
arapatra	-3121
ormasyon	-3122
▁Alkalde	-3123
▁Demonyo	-3124
▁Filipin	-3125
▁Inahing	-3126
▁Tinawag	-3127
▁bathala	-3128
▁humingi	-3129
▁madalas	-3130
▁mahusay	-3131
▁matagal	-3132
▁natapos	-3133
▁organis	-3134
▁paraang	-3135
▁patuloy	-3136
▁sagisag	-3137
▁sinapit	-3138
▁sintang	-3139
▁ARTIKULO	-3140
▁Sumakwel	-3141
▁Tinanong	-3142
▁hurisdik	-3143
▁pinagtat	-3144
▁sasakyan	-3145
▁kabutihan	-3146
▁kahulugan	-3147
▁nagsimula	-3148
▁paghirang	-3149
▁panitikan	-3150
▁tanggapan	-3151
▁Diwatandaw	-3152
▁karamdaman	-3153
▁nakarating	-3154
▁nawawalang	-3155
▁panlipunan	-3156
▁sambayanan	-3157
▁Indarapatra	-3158
▁korporasyon	-3159
▁pagkakaroon	-3160
▁Ipinaliwanag	-3161
▁korporasyong	-3162
▁pangangailangan	-3163
GA	-3164
bi	-3165
May	-3166
ete	-3167
ian	-3168
ice	-3169
iga	-3170
ipo	-3171
irh	-3172
oso	-3173
tar	-3174
ugt	-3175
wit	-3176
▁en	-3177
akop	-3178
alab	-3179
atin	-3180
ibit	-3181
irin	-3182
isay	-3183
isda	-3184
kong	-3185
nang	-3186
osop	-3187
silo	-3188
ubok	-3189
uksa	-3190
usta	-3191
▁Ing	-3192
▁Pas	-3193
▁abo	-3194
▁ros	-3195
▁tek	-3196
aglit	-3197
agpis	-3198
alakh	-3199
indak	-3200
istro	-3201
palad	-3202
unton	-3203
uturo	-3204
▁Euro	-3205
▁Inil	-3206
▁damb	-3207
▁itim	-3208
▁kaba	-3209
▁kaso	-3210
▁opis	-3211
▁puti	-3212
▁ugat	-3213
▁wari	-3214
aalala	-3215
ambing	-3216
awakan	-3217
▁Kundi	-3218
▁Pablo	-3219
▁aklat	-3220
▁halik	-3221
▁hatol	-3222
▁hinah	-3223
▁hukom	-3224
▁karik	-3225
▁mangh	-3226
▁nalul	-3227
▁paksa	-3228
▁papel	-3229
▁progr	-3230
▁tagap	-3231
amangha	-3232
angguni	-3233
antayan	-3234
apaloob	-3235
araanan	-3236
aramdam	-3237
araming	-3238
ayundin	-3239
ingatan	-3240
usisyon	-3241
utangan	-3242
▁Diwata	-3243
▁Ibalon	-3244
▁Mabuti	-3245
▁Punong	-3246
▁bulong	-3247
▁daliri	-3248
▁gawang	-3249
▁hangga	-3250
▁kagyat	-3251
▁paghah	-3252
▁pambih	-3253
▁pantay	-3254
▁piyesa	-3255
▁saglit	-3256
▁tabing	-3257
Sabayang	-3258
agubilin	-3259
ahulugan	-3260
angkilik	-3261
arusahan	-3262
ayanihan	-3263
▁Biglang	-3264
▁Mahirap	-3265
▁Pilosop	-3266
▁Tarsilo	-3267
▁Unnayan	-3268
▁bugtong	-3269
▁bungang	-3270
▁kalabaw	-3271
▁kalalak	-3272
▁kasabay	-3273
▁kasangk	-3274
▁lungsod	-3275
▁makipag	-3276
▁malinis	-3277
▁malupit	-3278
▁nagmula	-3279
▁opisyal	-3280
▁palakol	-3281
▁pananim	-3282
▁patayin	-3283
▁pumanaw	-3284
▁sistema	-3285
▁tawagin	-3286
▁tuwiran	-3287
anghalian	-3288
▁kumakain	-3289
▁magaling	-3290
▁mangyari	-3291
▁nagngang	-3292
▁nakakita	-3293
▁nakilala	-3294
▁pagkakat	-3295
▁salaysay	-3296
amantalang	-3297
▁Nagkaroon	-3298
▁halimbawa	-3299
▁hinihingi	-3300
▁karagatan	-3301
▁natagpuan	-3302
▁natutulog	-3303
▁Mahistrado	-3304
▁manggagawa	-3305
▁naglalakad	-3306
▁paghahanap	-3307
▁kaligayahan	-3308
▁kalungkutan	-3309
▁pinanggalingan	-3310
3.	-3311
4.	-3312
AP	-3313
UP	-3314
ri	-3315
Ano	-3316
aas	-3317
abe	-3318
adl	-3319
eba	-3320
igu	-3321
kad	-3322
non	-3323
orn	-3324
pos	-3325
uds	-3326
▁6.	-3327
▁As	-3328
▁Ed	-3329
▁Ep	-3330
▁Pl	-3331
▁em	-3332
▁ga	-3333
agda	-3334
amag	-3335
asiw	-3336
atag	-3337
bing	-3338
daan	-3339
imit	-3340
inam	-3341
inta	-3342
ismo	-3343
kero	-3344
ment	-3345
oses	-3346
rang	-3347
ugat	-3348
upot	-3349
usin	-3350
uwek	-3351
▁Gag	-3352
▁MGA	-3353
▁Omb	-3354
▁Tal	-3355
▁aso	-3356
▁hil	-3357
▁ind	-3358
▁pip	-3359
▁sik	-3360
akpan	-3361
artel	-3362
asiwa	-3363
atili	-3364
dapat	-3365
iligo	-3366
ilipo	-3367
intul	-3368
oserp	-3369
unuan	-3370
usyon	-3371
▁Fern	-3372
▁NANA	-3373
▁Pand	-3374
▁Pati	-3375
▁Sino	-3376
▁dila	-3377
▁mist	-3378
▁pina	-3379
agalit	-3380
agapos	-3381
akaawa	-3382
amaraw	-3383
awayan	-3384
dahang	-3385
ensahe	-3386
ibutan	-3387
iguyon	-3388
ilikha	-3389
ilitaw	-3390
udsman	-3391
uwiran	-3392
▁Lakas	-3393
▁awtor	-3394
▁bakas	-3395
▁halim	-3396
▁hamak	-3397
▁hangg	-3398
▁husto	-3399
▁kayum	-3400
▁kinar	-3401
▁kumik	-3402
▁kunin	-3403
▁mayor	-3404
▁nangh	-3405
▁napat	-3406
▁negos	-3407
▁sugat	-3408
▁tunog	-3409
agalang	-3410
aliksik	-3411
asiwaan	-3412
ilanggo	-3413
inabang	-3414
▁Bagong	-3415
▁Filipo	-3416
▁Marami	-3417
▁Muslim	-3418
▁hiling	-3419
▁kasawi	-3420
▁kasing	-3421
▁labing	-3422
▁libong	-3423
▁magsis	-3424
▁ngalan	-3425
▁paglil	-3426
▁payapa	-3427
▁tapang	-3428
▁utusan	-3429
agandang	-3430
amahalan	-3431
amdaming	-3432
kanilang	-3433
oserpina	-3434
▁Sumagot	-3435
▁hanging	-3436
▁iniibig	-3437
▁instrum	-3438
▁larawan	-3439
▁malinaw	-3440
▁mangang	-3441
▁matibay	-3442
▁militar	-3443
▁nakasal	-3444
▁ninyong	-3445
▁pagitan	-3446
▁saknong	-3447
▁sandata	-3448
alawikain	-3449
amangkero	-3450
▁Aliguyon	-3451
▁Berbanya	-3452
▁Sumarang	-3453
▁barangay	-3454
▁dalampas	-3455
▁ibinigay	-3456
▁kaalaman	-3457
▁magtakda	-3458
▁narating	-3459
▁nasabing	-3460
▁nawawala	-3461
▁tinanong	-3462
▁tuluyang	-3463
▁Ombudsman	-3464
▁alinsunod	-3465
▁awtoridad	-3466
▁ginagamit	-3467
▁ikalawang	-3468
▁nabubuhay	-3469
▁nagpaalam	-3470
▁pananalig	-3471
▁relihiyon	-3472
▁Proserpina	-3473
▁karangalan	-3474
▁makarating	-3475
▁malalaking	-3476
▁mandirigma	-3477
▁manliligaw	-3478
▁mitolohiya	-3479
▁kabayanihan	-3480
▁kasalukuyan	-3481
▁naghihintay	-3482
▁hurisdiksyon	-3483
▁institusyong	-3484
▁nakabababang	-3485
AB	-3486
Al	-3487
EN	-3488
ec	-3489
Ako	-3490
agt	-3491
did	-3492
din	-3493
eho	-3494
igh	-3495
ini	-3496
itu	-3497
ona	-3498
oni	-3499
pad	-3500
sob	-3501
udo	-3502
uka	-3503
ult	-3504
▁BU	-3505
▁Ip	-3506
▁TO	-3507
Nang	-3508
alal	-3509
ampa	-3510
anin	-3511
ihag	-3512
iham	-3513
loob	-3514
pada	-3515
ugod	-3516
ukin	-3517
utla	-3518
▁Ali	-3519
▁Ant	-3520
▁Bub	-3521
▁Dal	-3522
▁Gum	-3523
▁Lib	-3524
▁bis	-3525
▁dar	-3526
▁liw	-3527
Huwag	-3528
adaan	-3529
aghoy	-3530
apaan	-3531
asama	-3532
ilaan	-3533
inseo	-3534
itiis	-3535
riseo	-3536
yudad	-3537
▁Hang	-3538
▁Saan	-3539
▁Tayo	-3540
▁agos	-3541
▁dali	-3542
▁dati	-3543
▁maip	-3544
▁patn	-3545
▁ulit	-3546
abatid	-3547
alaban	-3548
alimot	-3549
ayagan	-3550
ilayan	-3551
iyasat	-3552
ugutan	-3553
ulatan	-3554
umango	-3555
uparan	-3556
▁Aking	-3557
▁Lakan	-3558
▁Oyayi	-3559
▁Puwek	-3560
▁Reyna	-3561
▁Sarag	-3562
▁balik	-3563
▁bukal	-3564
▁daang	-3565
▁daing	-3566
▁dilaw	-3567
▁gamot	-3568
▁hapis	-3569
▁hapon	-3570
▁kahil	-3571
▁kalin	-3572
▁kapit	-3573
▁lingg	-3574
▁lubid	-3575
▁madla	-3576
▁manan	-3577
▁masis	-3578
▁namim	-3579
▁pasya	-3580
▁pinat	-3581
▁tanda	-3582
▁tangi	-3583
▁trono	-3584
agdagan	-3585
ahalaga	-3586
akasama	-3587
anganib	-3588
atahang	-3589
ibigkas	-3590
paganap	-3591
uhalang	-3592
uklasan	-3593
▁Briseo	-3594
▁Linseo	-3595
▁Sinang	-3596
▁Tingal	-3597
▁bantay	-3598
▁dakong	-3599
▁dalang	-3600
▁handog	-3601
▁haring	-3602
▁kalang	-3603
▁kuweba	-3604
▁madali	-3605
▁maitim	-3606
▁mandin	-3607
▁musika	-3608
▁nakaka	-3609
▁pagkap	-3610
▁pangit	-3611
▁perlas	-3612
▁pinang	-3613
apalaran	-3614
▁Malakas	-3615
▁Senador	-3616
▁Tamaraw	-3617
▁Tanging	-3618
▁Tumango	-3619
▁asawang	-3620
▁gustong	-3621
▁kadilim	-3622
▁kasunod	-3623
▁labanan	-3624
▁lumikha	-3625
▁magmula	-3626
▁masarap	-3627
▁naaayon	-3628
▁napatay	-3629
▁pahayag	-3630
▁pinatay	-3631
▁puhunan	-3632
▁pumunta	-3633
alanutian	-3634
▁Fernando	-3635
▁Gayunman	-3636
▁bahaging	-3637
▁bilanggo	-3638
▁gagawing	-3639
▁kasamaan	-3640
▁kilalang	-3641
▁kuwintas	-3642
▁larangan	-3643
▁magtatag	-3644
▁matalino	-3645
▁mayamang	-3646
▁pagkatao	-3647
▁Pagkaraan	-3648
▁kakayahan	-3649
▁magsasaka	-3650
▁nakasulat	-3651
▁nakatulog	-3652
▁patakaran	-3653
▁kabundukan	-3654
▁naghahanap	-3655
▁pananalapi	-3656
▁pambihirang	-3657
▁pangkalahat	-3658
▁dalampasigan	-3659
▁Konstitusyonal	-3660
▁tagapagpaganap	-3661
DO	-3662
IW	-3663
OG	-3664
Oo	-3665
ru	-3666
▁6	-3667
ARO	-3668
are	-3669
edi	-3670
ekt	-3671
iin	-3672
iis	-3673
its	-3674
ors	-3675
pat	-3676
reh	-3677
udy	-3678
▁20	-3679
▁IN	-3680
▁le	-3681
▁pw	-3682
YANG	-3683
agpo	-3684
alog	-3685
ampu	-3686
anag	-3687
ding	-3688
eduk	-3689
esto	-3690
gado	-3691
ibot	-3692
ibur	-3693
ilat	-3694
ilay	-3695
ipad	-3696
tomo	-3697
ukay	-3698
ulak	-3699
▁Bar	-3700
▁III	-3701
▁Ini	-3702
▁LAK	-3703
▁Pam	-3704
▁aba	-3705
▁bud	-3706
aawit	-3707
abong	-3708
abuti	-3709
ahiya	-3710
ahuli	-3711
aligt	-3712
aliit	-3713
amasa	-3714
bagay	-3715
dahan	-3716
erito	-3717
gayak	-3718
hikan	-3719
ikudo	-3720
pindi	-3721
ugnay	-3722
ulila	-3723
umbay	-3724
umula	-3725
ungib	-3726
▁Alam	-3727
▁Birh	-3728
▁Daga	-3729
▁Iyan	-3730
▁Mags	-3731
▁Mayo	-3732
▁Rosa	-3733
▁Taga	-3734
▁iwan	-3735
▁kabu	-3736
▁kast	-3737
▁kons	-3738
▁laya	-3739
▁mait	-3740
▁napa	-3741
▁pong	-3742
▁prop	-3743
▁pula	-3744
ahamak	-3745
alipik	-3746
angong	-3747
antimp	-3748
inggil	-3749
inggit	-3750
wirang	-3751
▁Alban	-3752
▁Dagat	-3753
▁Karan	-3754
▁Panay	-3755
▁Unang	-3756
▁anino	-3757
▁bilin	-3758
▁binib	-3759
▁bulag	-3760
▁buwis	-3761
▁dahan	-3762
▁dalaw	-3763
▁humah	-3764
▁ibaba	-3765
▁kaban	-3766
▁lumul	-3767
▁makik	-3768
▁malay	-3769
▁matip	-3770
▁nagug	-3771
▁nakad	-3772
▁nasus	-3773
▁reyno	-3774
▁rosas	-3775
▁sangk	-3776
▁sanhi	-3777
▁sinag	-3778
▁talud	-3779
▁tamis	-3780
▁tapos	-3781
▁tigil	-3782
ahandog	-3783
amalaki	-3784
ampanan	-3785
arangaw	-3786
erbisyo	-3787
higanti	-3788
imulang	-3789
ustuhan	-3790
yayahan	-3791
▁Kaptan	-3792
▁Simang	-3793
▁TOYANG	-3794
▁angkin	-3795
▁baybay	-3796
▁buwang	-3797
▁kausap	-3798
▁kumuha	-3799
▁makuha	-3800
▁naglil	-3801
▁nagpas	-3802
▁naisip	-3803
▁naiwan	-3804
▁nanaog	-3805
▁pansin	-3806
▁pinagh	-3807
▁pulang	-3808
▁talaga	-3809
▁talino	-3810
▁umiyak	-3811
▁yamang	-3812
▁yungib	-3813
ungkahoy	-3814
▁Lumipas	-3815
▁Sumunod	-3816
▁babalik	-3817
▁bandila	-3818
▁bansang	-3819
▁demonyo	-3820
▁ginamit	-3821
▁hahanap	-3822
▁kapitan	-3823
▁kumalat	-3824
▁maagang	-3825
▁malamig	-3826
▁malawak	-3827
▁naganap	-3828
▁nakakat	-3829
▁panging	-3830
▁sumagot	-3831
▁tumupad	-3832
▁umakyat	-3833
edukasyon	-3834
sapalaran	-3835
▁Balagtas	-3836
▁Barangaw	-3837
▁Binigyan	-3838
▁Marikudo	-3839
▁Silangan	-3840
▁balitang	-3841
▁gererong	-3842
▁gumagawa	-3843
▁hirangin	-3844
▁kaisipan	-3845
▁katulong	-3846
▁marangal	-3847
▁paglabag	-3848
▁paglakad	-3849
▁pagtupad	-3850
atipikahan	-3851
▁Komisyong	-3852
▁kailanman	-3853
▁kasiyahan	-3854
▁katapusan	-3855
▁kaugalian	-3856
▁kinalaman	-3857
▁magsagawa	-3858
▁matatanda	-3859
▁naririnig	-3860
▁prusisyon	-3861
▁Balagtasan	-3862
▁Kailangang	-3863
▁Saragnayan	-3864
▁kahilingan	-3865
▁kapakanang	-3866
▁katarungan	-3867
▁magpatibay	-3868
▁mahalagang	-3869
▁masasamang	-3870
▁nanggaling	-3871
▁pagpapasya	-3872
▁pamamahala	-3873
▁alituntunin	-3874
▁kagandahang	-3875
▁kalalakihan	-3876
▁katotohanan	-3877
▁manungkulan	-3878
▁pagdiriwang	-3879
▁punungkahoy	-3880
▁kasalukuyang	-3881
▁kinaroroonan	-3882
▁makapangyarihan	-3883
BU	-3884
Ib	-3885
bl	-3886
ct	-3887
ua	-3888
ENA	-3889
IWA	-3890
UAN	-3891
aon	-3892
ekl	-3893
ela	-3894
hel	-3895
ima	-3896
ion	-3897
oby	-3898
ukt	-3899
uny	-3900
▁25	-3901
▁9.	-3902
▁Bo	-3903
▁EL	-3904
▁Or	-3905
▁ad	-3906
▁ca	-3907
▁kr	-3908
ABLO	-3909
ARUP	-3910
Mlks	-3911
aboy	-3912
adap	-3913
agit	-3914
ahag	-3915
asag	-3916
atal	-3917
ayad	-3918
ayog	-3919
cion	-3920
each	-3921
igas	-3922
ikot	-3923
ilak	-3924
imog	-3925
ones	-3926
taas	-3927
tuwa	-3928
ukso	-3929
unay	-3930
unot	-3931
upok	-3932
usok	-3933
uyak	-3934
▁10.	-3935
▁11.	-3936
▁Imp	-3937
▁Kar	-3938
▁Lun	-3939
▁Nol	-3940
▁Rep	-3941
▁Tip	-3942
▁and	-3943
▁inu	-3944
▁kol	-3945
▁lig	-3946
▁mau	-3947
▁mit	-3948
▁puw	-3949
▁sya	-3950
▁umu	-3951
▁uod	-3952
aklap	-3953
alung	-3954
amali	-3955
ampot	-3956
amtan	-3957
andag	-3958
apong	-3959
arito	-3960
ehiyo	-3961
embro	-3962
inoon	-3963
iyego	-3964
omong	-3965
▁Band	-3966
▁Bato	-3967
▁JUAN	-3968
▁Kayo	-3969
▁Lawa	-3970
▁Magm	-3971
▁Niya	-3972
▁Pagh	-3973
▁Pags	-3974
▁Sant	-3975
▁Tila	-3976
▁amin	-3977
▁caca	-3978
▁huli	-3979
▁kuba	-3980
▁nagn	-3981
▁nuon	-3982
▁pera	-3983
▁sawa	-3984
▁trad	-3985
▁unit	-3986
ANDIWA	-3987
agawan	-3988
ahalal	-3989
akdang	-3990
amayan	-3991
ariang	-3992
astong	-3993
ensyon	-3994
ilitan	-3995
iwatig	-3996
iyakap	-3997
ostomo	-3998
pantay	-3999
rabaho	-4000
upunta	-4001
▁Bawat	-4002
▁Buhat	-4003
▁Buwan	-4004
▁ELENA	-4005
▁Galit	-4006
▁PABLO	-4007
▁PARUP	-4008
▁Pangk	-4009
▁Sinas	-4010
▁Tibur	-4011
▁Tulad	-4012
▁bakal	-4013
▁balon	-4014
▁boses	-4015
▁butil	-4016
▁dadal	-4017
▁digma	-4018
▁hilig	-4019
▁kalik	-4020
▁kalis	-4021
▁lamok	-4022
▁liham	-4023
▁lunas	-4024
▁mahuh	-4025
▁makab	-4026
▁nasis	-4027
▁natit	-4028
▁pakay	-4029
▁panib	-4030
▁pinam	-4031
▁pinas	-4032
▁pugad	-4033
▁sahod	-4034
▁salig	-4035
▁sumpa	-4036
▁tabak	-4037
agawang	-4038
ahating	-4039
alakhak	-4040
alinong	-4041
ayapaan	-4042
iibigan	-4043
ilitang	-4044
olusyon	-4045
ubuksan	-4046
ulitika	-4047
ulugang	-4048
▁Europa	-4049
▁Tinong	-4050
▁bangis	-4051
▁halaga	-4052
▁lusong	-4053
▁mapagk	-4054
▁naroon	-4055
▁pagkah	-4056
▁pinagl	-4057
▁pinagp	-4058
▁prayle	-4059
▁pribil	-4060
▁puntod	-4061
▁sermon	-4062
▁suklay	-4063
▁sumama	-4064
▁suyuan	-4065
▁tuktok	-4066
abuhayan	-4067
ahiwalay	-4068
aligiran	-4069
atanging	-4070
▁Bugtong	-4071
▁Griyego	-4072
▁Hinanap	-4073
▁Humadap	-4074
▁Mensahe	-4075
▁Nalaman	-4076
▁bunsong	-4077
▁dalisay	-4078
▁gantimp	-4079
▁himutok	-4080
▁hinggil	-4081
▁igalang	-4082
▁kultura	-4083
▁palabas	-4084
▁pangako	-4085
▁papayag	-4086
▁patalim	-4087
▁pupunta	-4088
▁rehiyon	-4089
▁sinuman	-4090
▁tingnan	-4091
▁umiiral	-4092
ahalagang	-4093
ahintulot	-4094
▁Bulaklak	-4095
▁Filipino	-4096
▁PARUPARO	-4097
▁Tiburcio	-4098
▁ariarian	-4099
▁ginawang	-4100
▁ikatlong	-4101
▁inutusan	-4102
▁kalahati	-4103
▁kapuluan	-4104
▁katwiran	-4105
▁kaunting	-4106
▁mabisang	-4107
▁mangmang	-4108
▁mapayapa	-4109
▁nagbalik	-4110
▁nakatayo	-4111
▁nakatira	-4112
▁pananamp	-4113
▁LAKANDIWA	-4114
▁hakbangin	-4115
▁nasiyahan	-4116
▁palibhasa	-4117
▁sakristan	-4118
▁tanggapin	-4119
▁Crisostomo	-4120
▁kasunduang	-4121
▁magtadhana	-4122
▁mamamayang	-4123
▁mangyayari	-4124
▁nagsisipag	-4125
▁nangyayari	-4126
▁naniniwala	-4127
▁pagsintang	-4128
▁tatlumpung	-4129
▁dambuhalang	-4130
▁kasangkapan	-4131
▁magkaibigan	-4132
▁makatwirang	-4133
▁manggagamot	-4134
▁pagsasabing	-4135
▁pananagutan	-4136
▁pangkalahatang	-4137
!!	-4138
-1	-4139
2:	-4140
▁,	-4141
BUY	-4142
Mga	-4143
Tat	-4144
agm	-4145
agu	-4146
arl	-4147
bat	-4148
eta	-4149
eus	-4150
fin	-4151
igi	-4152
lag	-4153
ord	-4154
rit	-4155
tin	-4156
uod	-4157
wak	-4158
wal	-4159
yas	-4160
▁--	-4161
▁30	-4162
▁II	-4163
▁ub	-4164
alot	-4165
ampo	-4166
anod	-4167
asik	-4168
dali	-4169
egur	-4170
eter	-4171
etro	-4172
haga	-4173
iyaw	-4174
king	-4175
rero	-4176
rong	-4177
sama	-4178
ubad	-4179
ubha	-4180
uhos	-4181
unam	-4182
urin	-4183
usal	-4184
yaya	-4185
▁(5)	-4186
▁12.	-4187
▁Ati	-4188
▁Iba	-4189
▁Ika	-4190
▁Kak	-4191
▁Spe	-4192
▁adh	-4193
▁bus	-4194
▁dah	-4195
▁del	-4196
▁gag	-4197
▁hid	-4198
▁leg	-4199
▁miy	-4200
▁mon	-4201
▁rec	-4202
▁sob	-4203
▁tor	-4204
BUYOG	-4205
aalay	-4206
anais	-4207
arami	-4208
bayad	-4209
daang	-4210
dagat	-4211
ihasa	-4212
sunod	-4213
uksan	-4214
umano	-4215
umbas	-4216
undag	-4217
utong	-4218
yagan	-4219
▁Cons	-4220
▁Hari	-4221
▁Herm	-4222
▁Lagi	-4223
▁Lena	-4224
▁Linc	-4225
▁Magk	-4226
▁alak	-4227
▁alip	-4228
▁alon	-4229
▁asos	-4230
▁banc	-4231
▁bers	-4232
▁ginh	-4233
▁kaki	-4234
▁kond	-4235
▁kubo	-4236
▁lilo	-4237
▁lipi	-4238
▁mais	-4239
▁naip	-4240
▁naro	-4241
▁puro	-4242
▁saya	-4243
▁tekn	-4244
▁ulat	-4245
▁yari	-4246
abango	-4247
abawal	-4248
abayad	-4249
adalaw	-4250
agawin	-4251
aklong	-4252
alahan	-4253
alidad	-4254
angkop	-4255
antang	-4256
ayahan	-4257
eritor	-4258
ibigin	-4259
ikling	-4260
inggin	-4261
salita	-4262
tasyon	-4263
uksang	-4264
undong	-4265
usugan	-4266
usumpa	-4267
▁Artik	-4268
▁Dulaw	-4269
▁Halos	-4270
▁Lawin	-4271
▁Napag	-4272
▁Pinak	-4273
▁Pinat	-4274
▁Tabor	-4275
▁Tinig	-4276
▁brily	-4277
▁busog	-4278
▁butas	-4279
▁dampa	-4280
▁diyam	-4281
▁grupo	-4282
▁gumag	-4283
▁humih	-4284
▁inter	-4285
▁kalig	-4286
▁kanan	-4287
▁kanin	-4288
▁likha	-4289
▁maaga	-4290
▁munti	-4291
▁palat	-4292
▁pamim	-4293
▁pinup	-4294
▁sampu	-4295
▁sinis	-4296
▁sulok	-4297
▁tamad	-4298
▁titig	-4299
▁tugon	-4300
▁wagas	-4301
Heneral	-4302
alayong	-4303
alimbag	-4304
alitong	-4305
angkang	-4306
halalan	-4307
irasong	-4308
nanakaw	-4309
sakahan	-4310
▁Ayonan	-4311
▁Bayang	-4312
▁Delfin	-4313
▁Flores	-4314
▁Ingles	-4315
▁Kailan	-4316
▁Narito	-4317
▁Santos	-4318
▁Tuwang	-4319
▁anyong	-4320
▁dalhin	-4321
▁ganyan	-4322
▁himpap	-4323
▁ibigay	-4324
▁kainin	-4325
▁kidlat	-4326
▁korona	-4327
▁mahina	-4328
▁mawala	-4329
▁nagsus	-4330
▁nganga	-4331
▁pantao	-4332
▁paring	-4333
▁piging	-4334
▁sagana	-4335
▁tatuan	-4336
▁umawit	-4337
▁BUBUYOG	-4338
▁Cristal	-4339
▁botante	-4340
▁heneral	-4341
▁hukbong	-4342
▁humarap	-4343
▁ipinagb	-4344
▁ipinang	-4345
▁ituring	-4346
▁kapalit	-4347
▁kumilos	-4348
▁limutin	-4349
▁makapan	-4350
▁matatag	-4351
▁matiyak	-4352
▁minsang	-4353
▁mutyang	-4354
▁nangung	-4355
▁negosyo	-4356
▁niyakap	-4357
▁palagay	-4358
▁pinggan	-4359
▁pumayag	-4360
▁tangkay	-4361
▁tauhang	-4362
▁teritor	-4363
▁tumigil	-4364
▁umaawit	-4365
▁wastong	-4366
ihimagsik	-4367
▁Inutusan	-4368
▁Kaibigan	-4369
▁itinakda	-4370
▁kalabasa	-4371
▁kariktan	-4372
▁kasawian	-4373
▁magdamag	-4374
▁makatang	-4375
▁makitang	-4376
▁marating	-4377
▁maysakit	-4378
▁miyembro	-4379
▁nagpunta	-4380
▁naroroon	-4381
▁panganay	-4382
▁Albanyang	-4383
▁Palibhasa	-4384
▁Tipaklong	-4385
▁brilyante	-4386
▁diyamante	-4387
▁kadiliman	-4388
▁karamihan	-4389
▁karanasan	-4390
▁magkasint	-4391
▁nagmumula	-4392
▁pamayanan	-4393
▁pinagkaka	-4394
▁pormasyon	-4395
▁tinutukoy	-4396
▁Calanutian	-4397
▁Pilipinong	-4398
▁animnapung	-4399
▁gantimpala	-4400
▁kabutihang	-4401
▁kalangitan	-4402
▁kapayapaan	-4403
▁kayumanggi	-4404
▁pagbibigay	-4405
▁paglalaban	-4406
▁pahintulot	-4407
▁Nagmalitong	-4408
▁Samantalang	-4409
▁ipagtanggol	-4410
▁magkabilang	-4411
▁matatandang	-4412
▁nakatakdang	-4413
▁natatanging	-4414
▁paghahangad	-4415
▁pribilehiyo	-4416
▁katungkulang	-4417
▁pagkakataong	-4418
▁pangkabuhayan	-4419
-2	-4420
AS	-4421
IT	-4422
Ka	-4423
NG	-4424
ee	-4425
iv	-4426
pu	-4427
sm	-4428
ss	-4429
Nak	-4430
abo	-4431
ary	-4432
asm	-4433
bag	-4434
dim	-4435
goy	-4436
pot	-4437
uho	-4438
ver	-4439
▁If	-4440
▁Ul	-4441
▁oo	-4442
Dito	-4443
abik	-4444
adab	-4445
aker	-4446
alul	-4447
amon	-4448
atat	-4449
awis	-4450
awng	-4451
ihas	-4452
imot	-4453
irog	-4454
kita	-4455
lian	-4456
omin	-4457
oryo	-4458
ugao	-4459
ugis	-4460
uhit	-4461
umin	-4462
urog	-4463
▁13.	-4464
▁14.	-4465
▁15.	-4466
▁16.	-4467
▁Ahh	-4468
▁Bit	-4469
▁Dem	-4470
▁Gat	-4471
▁Hes	-4472
▁Lus	-4473
▁Osm	-4474
▁Una	-4475
▁anu	-4476
▁dir	-4477
▁guw	-4478
▁mul	-4479
▁pos	-4480
▁tib	-4481
▁was	-4482
▁win	-4483
alaka	-4484
alast	-4485
alima	-4486
alinl	-4487
aping	-4488
ariwa	-4489
arong	-4490
ayuan	-4491
ensya	-4492
etong	-4493
kapal	-4494
syong	-4495
ugali	-4496
uhing	-4497
ukang	-4498
uluto	-4499
umpis	-4500
uotan	-4501
uusig	-4502
▁Alit	-4503
▁Dala	-4504
▁INDO	-4505
▁Muli	-4506
▁Nagd	-4507
▁Tiwi	-4508
▁Yawa	-4509
▁akda	-4510
▁ayos	-4511
▁dili	-4512
▁dula	-4513
▁edad	-4514
▁gayo	-4515
▁magn	-4516
▁mapa	-4517
▁suot	-4518
▁suso	-4519
▁taas	-4520
▁trib	-4521
▁yata	-4522
ahilig	-4523
atanaw	-4524
awasan	-4525
awngaw	-4526
ayaran	-4527
ayuhan	-4528
diwang	-4529
ihinal	-4530
isigaw	-4531
saring	-4532
udulot	-4533
ugatan	-4534
unahan	-4535
usbong	-4536
uwento	-4537
▁Delos	-4538
▁Krist	-4539
▁Labis	-4540
▁Minda	-4541
▁Ngayo	-4542
▁Papay	-4543
▁Sipag	-4544
▁Tagak	-4545
▁Tiyak	-4546
▁altar	-4547
▁anaki	-4548
▁antas	-4549
▁balah	-4550
▁bilog	-4551
▁hinih	-4552
▁ilong	-4553
▁ipagb	-4554
▁kapan	-4555
▁kasab	-4556
▁kinal	-4557
▁kontr	-4558
▁lakad	-4559
▁lamig	-4560
▁mabub	-4561
▁mahin	-4562
▁mithi	-4563
▁pader	-4564
▁putik	-4565
▁regul	-4566
▁sanda	-4567
▁tagal	-4568
▁takip	-4569
▁tulog	-4570
▁tuwid	-4571
abagong	-4572
abinete	-4573
akalang	-4574
alataya	-4575
atayang	-4576
ibigyan	-4577
intawak	-4578
intuang	-4579
olohiya	-4580
ulaklak	-4581
unahang	-4582
ungkahi	-4583
▁Ifugao	-4584
▁Kasama	-4585
▁Magtat	-4586
▁Persiy	-4587
▁Pusong	-4588
▁Simula	-4589
▁Siyang	-4590
▁bisita	-4591
▁buntot	-4592
▁dugong	-4593
▁inagaw	-4594
▁inilag	-4595
▁isdang	-4596
▁isipan	-4597
▁kapuwa	-4598
▁maayos	-4599
▁mahuli	-4600
▁manang	-4601
▁mapagb	-4602
▁mapagt	-4603
▁murang	-4604
▁nagpat	-4605
▁nakuha	-4606
▁nangak	-4607
▁paanan	-4608
▁pagkas	-4609
▁patung	-4610
▁sundin	-4611
▁tangan	-4612
▁tumubo	-4613
ahahahah	-4614
ahimikan	-4615
andangan	-4616
astangan	-4617
eachment	-4618
▁Laurang	-4619
▁Madalas	-4620
▁Matapos	-4621
▁Mayroon	-4622
▁Speaker	-4623
▁balikat	-4624
▁bubuyog	-4625
▁iibigin	-4626
▁ipinagp	-4627
▁kabiyak	-4628
▁kalakal	-4629
▁kaugnay	-4630
▁lansang	-4631
▁madilaw	-4632
▁mahigit	-4633
▁malimit	-4634
▁maunlad	-4635
▁nabuhay	-4636
▁nagalit	-4637
▁nalaman	-4638
▁namuhay	-4639
▁nauukol	-4640
▁pagsuyo	-4641
▁tinapay	-4642
intulutan	-4643
▁Masayang	-4644
▁Napansin	-4645
▁Pilosopo	-4646
▁Serbisyo	-4647
▁gayundin	-4648
▁inihanda	-4649
▁kasamang	-4650
▁kawaning	-4651
▁kultural	-4652
▁kuwartel	-4653
▁kwalipik	-4654
▁magharap	-4655
▁maglagda	-4656
▁mahalaga	-4657
▁pamumuno	-4658
▁programa	-4659
▁sakaling	-4660
▁tuntunin	-4661
▁alitaptap	-4662
▁balangkas	-4663
▁kinatawan	-4664
▁nakagapos	-4665
▁nakikipag	-4666
▁nalalaman	-4667
▁nanirahan	-4668
▁pagtuturo	-4669
▁papalapit	-4670
▁Gagalangin	-4671
▁Humadapnon	-4672
▁Nagpatuloy	-4673
▁hinahangad	-4674
▁hinihintay	-4675
▁kapitbahay	-4676
▁katangiang	-4677
▁nagpatuloy	-4678
▁paghahanda	-4679
▁pansakahan	-4680
▁Nalandangan	-4681
▁kasintahang	-4682
▁katahimikan	-4683
▁nagtataglay	-4684
▁pagpupulong	-4685
▁pampulitika	-4686
▁pangungusap	-4687
▁pangyayaring	-4688
▁nangangailangan	-4689
1:	-4690
3:	-4691
4:	-4692
6)	-4693
AL	-4694
▁v	-4695
,00	-4696
amt	-4697
atr	-4698
cia	-4699
cil	-4700
emp	-4701
hap	-4702
hol	-4703
hoy	-4704
iha	-4705
ihi	-4706
ipa	-4707
iso	-4708
ite	-4709
kep	-4710
lus	-4711
ous	-4712
ral	-4713
ruz	-4714
sel	-4715
tim	-4716
urg	-4717
▁Br	-4718
▁El	-4719
▁NG	-4720
▁pi	-4721
aari	-4722
abae	-4723
awal	-4724
edya	-4725
ekto	-4726
eses	-4727
gabi	-4728
ikom	-4729
ilap	-4730
ilas	-4731
ilyo	-4732
iman	-4733
imik	-4734
ipat	-4735
isap	-4736
itil	-4737
olin	-4738
ract	-4739
seng	-4740
uban	-4741
ugal	-4742
ukob	-4743
ukod	-4744
ustr	-4745
uway	-4746
waan	-4747
▁Amb	-4748
▁Dor	-4749
▁Edo	-4750
▁Hil	-4751
▁Map	-4752
▁Pap	-4753
▁art	-4754
▁aut	-4755
▁bil	-4756
▁dok	-4757
▁huw	-4758
▁imb	-4759
▁pay	-4760
▁pit	-4761
▁pon	-4762
▁tur	-4763
abaon	-4764
agulo	-4765
alake	-4766
ambit	-4767
angka	-4768
apati	-4769
arama	-4770
aruga	-4771
asdan	-4772
astos	-4773
atiin	-4774
awaan	-4775
ayain	-4776
buwan	-4777
emang	-4778
erpre	-4779
esang	-4780
idong	-4781
iglap	-4782
imdim	-4783
iyaga	-4784
konom	-4785
orneo	-4786
risto	-4787
sabay	-4788
tuloy	-4789
ubuan	-4790
uwing	-4791
wagan	-4792
yaman	-4793
▁Ayaw	-4794
▁Baka	-4795
▁Ibin	-4796
▁Lila	-4797
▁Magh	-4798
▁Puno	-4799
▁Sina	-4800
▁Wika	-4801
▁abot	-4802
▁ahas	-4803
▁alag	-4804
▁amoy	-4805
▁bala	-4806
▁bany	-4807
▁dami	-4808
▁huni	-4809
▁iisa	-4810
▁kuta	-4811
▁leeg	-4812
▁maih	-4813
▁misa	-4814
▁naib	-4815
▁pleb	-4816
▁poot	-4817
▁pors	-4818
▁sakl	-4819
▁sert	-4820
▁suma	-4821
▁tala	-4822
▁tama	-4823
aguita	-4824
ahanan	-4825
akbong	-4826
aklolo	-4827
aksaya	-4828
alikod	-4829
alinga	-4830
alipad	-4831
alitan	-4832
amahan	-4833
ardiya	-4834
asanay	-4835
atakas	-4836
atulan	-4837
ensiya	-4838
iisang	-4839
ikayat	-4840
imulan	-4841
inhawa	-4842
omongo	-4843
piritu	-4844
ubukas	-4845
ulitin	-4846
untong	-4847
▁Bohol	-4848
▁Gansa	-4849
▁Halik	-4850
▁Hibik	-4851
▁Higit	-4852
▁Juana	-4853
▁Kaysa	-4854
▁Likal	-4855
▁Nagpa	-4856
▁Napak	-4857
▁Nguni	-4858
▁Pluto	-4859
▁Prans	-4860
▁agong	-4861
▁balit	-4862
▁beses	-4863
▁binit	-4864
▁binub	-4865
▁bumub	-4866
▁dalag	-4867
▁disin	-4868
▁gulay	-4869
▁hubad	-4870
▁kagit	-4871
▁kamah	-4872
▁kauna	-4873
▁kaunl	-4874
▁lubha	-4875
▁mabab	-4876
▁mamah	-4877
▁mutya	-4878
▁naaal	-4879
▁nagka	-4880
▁namam	-4881
▁panay	-4882
▁pasub	-4883
▁payat	-4884
▁pinab	-4885
▁pinan	-4886
▁sadya	-4887
▁sayaw	-4888
▁segur	-4889
▁sigla	-4890
▁simoy	-4891
▁sunog	-4892
▁umano	-4893
aganaan	-4894
akitang	-4895
amandag	-4896
aragdag	-4897
asyahan	-4898
etongin	-4899
ibilang	-4900
iglahin	-4901
ilimbag	-4902
obyerno	-4903
olacion	-4904
umpisal	-4905
▁Birhen	-4906
▁Daldal	-4907
▁Ganyan	-4908
▁Laging	-4909
▁Linceo	-4910
▁Palaka	-4911
▁Republ	-4912
▁Wikang	-4913
▁alagad	-4914
▁anuman	-4915
▁bangin	-4916
▁bumoto	-4917
▁damong	-4918
▁diwang	-4919
▁gising	-4920
▁ipinas	-4921
▁kaliwa	-4922
▁katalo	-4923
▁kitang	-4924
▁labind	-4925
▁maipag	-4926
▁nagawa	-4927
▁naghih	-4928
▁nagpup	-4929
▁pagmam	-4930
▁palang	-4931
▁pinana	-4932
▁regalo	-4933
▁saysay	-4934
▁sining	-4935
▁talaan	-4936
▁tamang	-4937
▁tumayo	-4938
agamitin	-4939
ahiwatig	-4940
amatayan	-4941
asaalang	-4942
uwalhati	-4943
▁Bubuyog	-4944
▁Demeter	-4945
▁Mariang	-4946
▁Matagal	-4947
▁Namatay	-4948
▁Pedrito	-4949
▁Seksyon	-4950
▁Tatlong	-4951
▁abogado	-4952
▁buntung	-4953
▁ginhawa	-4954
▁handang	-4955
▁hihigit	-4956
▁inahing	-4957
▁interes	-4958
▁kabuuan	-4959
▁kadahil	-4960
▁kahapon	-4961
▁kandila	-4962
▁likuran	-4963
▁lingkod	-4964
▁maaring	-4965
▁maglaan	-4966
▁maingat	-4967
▁malubha	-4968
▁marahas	-4969
▁marikit	-4970
▁matapat	-4971
▁nagsabi	-4972
▁nakaupo	-4973
▁nanging	-4974
▁pagpili	-4975
▁palayok	-4976
▁pananaw	-4977
▁salamin	-4978
▁sumakay	-4979
▁tirahan	-4980
▁umagang	-4981
anggunian	-4982
anyayahan	-4983
aramdaman	-4984
ikilalang	-4985
▁Amomongo	-4986
▁Madaling	-4987
▁Makiling	-4988
▁Maykapal	-4989
▁Nagtungo	-4990
▁Nakilala	-4991
▁Soloista	-4992
▁bulwagan	-4993
▁dalagita	-4994
▁hiniling	-4995
▁iniharap	-4996
▁isaalang	-4997
▁katumbas	-4998
▁ketongin	-4999
▁kulungan	-5000
▁mababang	-5001
▁mabangis	-5002
▁magalang	-5003
▁makakain	-5004
▁masagana	-5005
▁masaklap	-5006
▁mawawala	-5007
▁nagdulot	-5008
▁naghanda	-5009
▁orihinal	-5010
▁pagkaing	-5011
▁pagpapak	-5012
▁pagsinta	-5013
▁pagsubok	-5014
▁panlahat	-5015
▁parusang	-5016
▁patnubay	-5017
▁tagumpay	-5018
▁taludtod	-5019
▁tumanggi	-5020
▁Halimbawa	-5021
▁Panginoon	-5022
▁halamanan	-5023
▁isinilang	-5024
▁kagagawan	-5025
▁kakaibang	-5026
▁kalikasan	-5027
▁kaukulang	-5028
▁lansangan	-5029
▁maririnig	-5030
▁naglakbay	-5031
▁nagsalita	-5032
▁pagkabata	-5033
▁pagkawala	-5034
▁paglingap	-5035
▁propesyon	-5036
alingawngaw	-5037
erpretasyon	-5038
▁Mitolohiya	-5039
▁inaasahang	-5040
▁kagustuhan	-5041
▁kalupunang	-5042
▁kayamanang	-5043
▁magbibigay	-5044
▁magnanakaw	-5045
▁nagkasakit	-5046
▁pagkaraang	-5047
▁pinagtibay	-5048
▁resolusyon	-5049
▁sinalubong	-5050
▁Consolacion	-5051
▁Komisyonado	-5052
▁iginagalang	-5053
▁impeachment	-5054
▁itinuturing	-5055
▁mangingisda	-5056
▁naghahangad	-5057
▁pagsasalita	-5058
▁pasasalamat	-5059
▁organisasyon	-5060
▁pagkakasakit	-5061
▁pangangalaga	-5062
▁salamangkero	-5063
▁magkasintahan	-5064
▁maratipikahan	-5065
▁nagngangalang	-5066
'-	-5067
-3	-5068
6:	-5069
AY	-5070
Di	-5071
IP	-5072
mm	-5073
ow	-5074
▁.	-5075
▁:	-5076
Mag	-5077
dla	-5078
eto	-5079
ham	-5080
ibe	-5081
iig	-5082
ipi	-5083
kis	-5084
kob	-5085
lak	-5086
nat	-5087
pol	-5088
tad	-5089
uty	-5090
uya	-5091
yak	-5092
yaw	-5093
▁"'	-5094
▁oh	-5095
▁ut	-5096
Solo	-5097
Wala	-5098
aani	-5099
agos	-5100
amin	-5101
ampi	-5102
ansa	-5103
apad	-5104
apas	-5105
apis	-5106
asta	-5107
ataw	-5108
ayin	-5109
edur	-5110
enta	-5111
ikim	-5112
inip	-5113
ipot	-5114
itag	-5115
kaya	-5116
kepu	-5117
mana	-5118
maya	-5119
mong	-5120
onal	-5121
roso	-5122
ugay	-5123
ulum	-5124
unal	-5125
unao	-5126
unig	-5127
unpu	-5128
upil	-5129
usot	-5130
utop	-5131
utya	-5132
uyos	-5133
wari	-5134
wela	-5135
▁(6)	-5136
▁19.	-5137
▁ANG	-5138
▁Bay	-5139
▁Buy	-5140
▁Dep	-5141
▁Lad	-5142
▁Lim	-5143
▁Lis	-5144
▁Mam	-5145
▁Nah	-5146
▁Peb	-5147
▁Rog	-5148
▁Sak	-5149
▁Sig	-5150
▁Sta	-5151
▁Tat	-5152
▁ani	-5153
▁haw	-5154
▁ing	-5155
▁kup	-5156
▁med	-5157
▁tar	-5158
aanan	-5159
aayos	-5160
adali	-5161
aktan	-5162
angat	-5163
anggo	-5164
ganda	-5165
ibili	-5166
igaan	-5167
iikan	-5168
ilong	-5169
imlan	-5170
ipiko	-5171
itlog	-5172
pakan	-5173
salin	-5174
ungat	-5175
untik	-5176
yakap	-5177
▁Cruz	-5178
▁Duri	-5179
▁Edna	-5180
▁Etol	-5181
▁Kina	-5182
▁Luis	-5183
▁Magt	-5184
▁Naku	-5185
▁Nana	-5186
▁Pabl	-5187
▁Unti	-5188
▁bitu	-5189
▁buny	-5190
▁daga	-5191
▁eksk	-5192
▁kaay	-5193
▁mari	-5194
▁mesa	-5195
▁nand	-5196
▁nawa	-5197
▁palo	-5198
▁prot	-5199
▁sari	-5200
▁tali	-5201
▁ubod	-5202
abatas	-5203
abutan	-5204
agalan	-5205
alakal	-5206
alanin	-5207
alanta	-5208
amitan	-5209
angkin	-5210
atangi	-5211
atapwa	-5212
atawat	-5213
atoryo	-5214
awagan	-5215
awakas	-5216
awanan	-5217
edurug	-5218
ibabaw	-5219
igilan	-5220
ikilos	-5221
ilimot	-5222
indaya	-5223
ingwit	-5224
isinta	-5225
iwasan	-5226
otoong	-5227
samang	-5228
ubusan	-5229
ukulan	-5230
umanon	-5231
ungkol	-5232
walong	-5233
▁Akong	-5234
▁Bahay	-5235
▁Banal	-5236
▁Iyang	-5237
▁Mayor	-5238
▁Narir	-5239
▁Palay	-5240
▁Patay	-5241
▁Timog	-5242
▁Tubig	-5243
▁aalis	-5244
▁alaga	-5245
▁alang	-5246
▁alila	-5247
▁bahag	-5248
▁baliw	-5249
▁banda	-5250
▁batid	-5251
▁batok	-5252
▁binti	-5253
▁diyan	-5254
▁hapag	-5255
▁iglap	-5256
▁kagaw	-5257
▁kagip	-5258
▁kahus	-5259
▁kalan	-5260
▁kapur	-5261
▁kinab	-5262
▁kinag	-5263
▁kinak	-5264
▁kinap	-5265
▁kinau	-5266
▁kodla	-5267
▁kulog	-5268
▁labag	-5269
▁ligaw	-5270
▁maest	-5271
▁mahim	-5272
▁malam	-5273
▁malul	-5274
▁masus	-5275
▁matin	-5276
▁matit	-5277
▁nahih	-5278
▁nanun	-5279
▁nguni	-5280
▁palam	-5281
▁punta	-5282
▁susog	-5283
▁talam	-5284
▁tangg	-5285
▁tumit	-5286
▁umupo	-5287
▁yapak	-5288
Epikong	-5289
abagsak	-5290
abaihan	-5291
aganang	-5292
akiusap	-5293
alagtas	-5294
apantay	-5295
atingin	-5296
ehistro	-5297
entuhan	-5298
iwalaan	-5299
iwalang	-5300
iyahang	-5301
ractice	-5302
udyante	-5303
uhunang	-5304
▁Andres	-5305
▁Anggoy	-5306
▁Binata	-5307
▁Borneo	-5308
▁Deputy	-5309
▁Dinala	-5310
▁Hangga	-5311
▁Iniwan	-5312
▁Kumuha	-5313
▁Ladlaw	-5314
▁Lisuga	-5315
▁Malaki	-5316
▁Masaya	-5317
▁Naisip	-5318
▁Nasaan	-5319
▁Nawala	-5320
▁Nitong	-5321
▁Rosita	-5322
▁Saglit	-5323
▁Talisa	-5324
▁bantog	-5325
▁buksan	-5326
▁dumalo	-5327
▁ekonom	-5328
▁gerero	-5329
▁hating	-5330
▁ikinab	-5331
▁kabata	-5332
▁kaming	-5333
▁kawili	-5334
▁ligtas	-5335
▁lumang	-5336
▁mangga	-5337
▁mapagm	-5338
▁maputi	-5339
▁nagbub	-5340
▁napang	-5341
▁nasaan	-5342
▁paalam	-5343
▁pagkal	-5344
▁pampan	-5345
▁pataas	-5346
▁taghoy	-5347
▁tainga	-5348
▁talang	-5349
▁tanang	-5350
▁tinang	-5351
alathala	-5352
alingang	-5353
alinuhan	-5354
▁Antenor	-5355
▁Daigdig	-5356
▁Halalan	-5357
▁Hayaang	-5358
▁Katulad	-5359
▁Libulan	-5360
▁Lumapit	-5361
▁Minango	-5362
▁Osmalik	-5363
▁Salamat	-5364
▁Tingnan	-5365
▁balaraw	-5366
▁bandang	-5367
▁batayan	-5368
▁bayabas	-5369
▁dumalaw	-5370
▁halimaw	-5371
▁hilahil	-5372
▁industr	-5373
▁iniisip	-5374
▁itinuro	-5375
▁kalapit	-5376
▁kasipag	-5377
▁kukunin	-5378
▁lalapit	-5379
▁lumipat	-5380
▁mahulog	-5381
▁mapalad	-5382
▁masakit	-5383
▁nakapan	-5384
▁nakatat	-5385
▁nakipag	-5386
▁pakasal	-5387
▁saklolo	-5388
▁sapitin	-5389
▁talulot	-5390
▁trabaho	-5391
▁tulisan	-5392
▁umiiyak	-5393
▁Adolfong	-5394
▁Naggayak	-5395
▁Nagpunta	-5396
▁Naririto	-5397
▁Tinagong	-5398
▁Victoria	-5399
▁batayang	-5400
▁baybayin	-5401
▁bumagsak	-5402
▁dadalhin	-5403
▁dahilang	-5404
▁dinatnan	-5405
▁giniikan	-5406
▁hinagpis	-5407
▁ibibigay	-5408
▁kundiman	-5409
▁mabigyan	-5410
▁malamang	-5411
▁manatili	-5412
▁nagtuloy	-5413
▁nakitang	-5414
▁paghanga	-5415
▁pagkakah	-5416
▁paglusob	-5417
▁pagpatay	-5418
▁salungat	-5419
▁silangan	-5420
▁tahanang	-5421
▁tuwirang	-5422
apangasawa	-5423
sengedurug	-5424
▁Alitaptap	-5425
▁Kailangan	-5426
▁Kamatayan	-5427
▁Malungkot	-5428
▁Nagpaalam	-5429
▁Nalungkot	-5430
▁Paghirang	-5431
▁Republika	-5432
▁dalawampu	-5433
▁guwardiya	-5434
▁hahanapin	-5435
▁kalupunan	-5436
▁kapakanan	-5437
▁karaniwan	-5438
▁kasayahan	-5439
▁katapatan	-5440
▁kaugnayan	-5441
▁mahimbing	-5442
▁maliwanag	-5443
▁mistulang	-5444
▁nakikinig	-5445
▁natatakot	-5446
▁pagsusuri	-5447
▁seguruhin	-5448
▁sinalakay	-5449
▁sinaunang	-5450
▁sistemang	-5451
unungkulang	-5452
▁Nakarating	-5453
▁Pangumanon	-5454
▁engkantado	-5455
▁estudyante	-5456
▁himpapawid	-5457
▁instrument	-5458
▁ipinahayag	-5459
▁kasaganaan	-5460
▁katapangan	-5461
▁magpatuloy	-5462
▁masaganang	-5463
▁matatapang	-5464
▁pagkakaisa	-5465
▁pasiglahin	-5466
▁patakarang	-5467
▁pinanaugan	-5468
▁pinuntahan	-5469
▁Likalibutan	-5470
▁ipinanganak	-5471
▁kahalagahan	-5472
▁katalinuhan	-5473
▁magkakaroon	-5474
▁mapangasawa	-5475
▁pagbabagong	-5476
▁pamamalakad	-5477
▁sandatahang	-5478
▁naaalinsunod	-5479
▁pagmamahalan	-5480
▁pagpapahayag	-5481
▁pagsasagamit	-5482
▁pagtatanghal	-5483
▁pananaliksik	-5484
▁paghihimagsik	-5485
▁pagsasalaysay	-5486
▁pinakamalaking	-5487
UN	-5488
dr	-5489
gl	-5490
ke	-5491
th	-5492
tr	-5493
Mab	-5494
ade	-5495
atn	-5496
bal	-5497
che	-5498
ikl	-5499
ikt	-5500
iph	-5501
kaw	-5502
mal	-5503
ngi	-5504
oun	-5505
rip	-5506
ter	-5507
umi	-5508
uns	-5509
yol	-5510
yth	-5511
▁Hu	-5512
▁Oo	-5513
▁Ta	-5514
▁Ut	-5515
▁dr	-5516
▁ek	-5517
▁et	-5518
▁ir	-5519
▁of	-5520
▁on	-5521
abon	-5522
agis	-5523
ahol	-5524
alda	-5525
alos	-5526
amar	-5527
andi	-5528
asam	-5529
enan	-5530
enep	-5531
ersa	-5532
ibol	-5533
ight	-5534
insa	-5535
isid	-5536
ispo	-5537
itng	-5538
iyab	-5539
lano	-5540
leng	-5541
list	-5542
oche	-5543
onom	-5544
oras	-5545
potl	-5546
puno	-5547
taka	-5548
ugma	-5549
ugso	-5550
uhog	-5551
ukat	-5552
unat	-5553
uwat	-5554
uyin	-5555
wili	-5556
▁Bik	-5557
▁Hag	-5558
▁KAP	-5559
▁Kul	-5560
▁Pro	-5561
▁Pul	-5562
▁Sas	-5563
▁Tur	-5564
▁Yao	-5565
▁akt	-5566
▁bol	-5567
▁cor	-5568
▁des	-5569
▁esk	-5570
▁hul	-5571
▁let	-5572
▁mum	-5573
▁nun	-5574
▁pop	-5575
▁siy	-5576
▁tad	-5577
aaliw	-5578
abato	-5579
abula	-5580
adpad	-5581
aguan	-5582
alogo	-5583
ambot	-5584
apaap	-5585
araos	-5586
bitin	-5587
edium	-5588
eklar	-5589
embre	-5590
ement	-5591
endum	-5592
facio	-5593
idlip	-5594
iliin	-5595
imtim	-5596
ingas	-5597
intik	-5598
ipong	-5599
iraos	-5600
isito	-5601
katlo	-5602
liyaw	-5603
obong	-5604
ority	-5605
resya	-5606
saing	-5607
sayaw	-5608
uezon	-5609
ughaw	-5610
uhong	-5611
ukuha	-5612
uming	-5613
uning	-5614
uyuko	-5615
yento	-5616
▁Agio	-5617
▁Alin	-5618
▁Awit	-5619
▁Boni	-5620
▁Buod	-5621
▁Dali	-5622
▁Gabi	-5623
▁Iyon	-5624
▁Lalo	-5625
▁Lupa	-5626
▁Pagt	-5627
▁biro	-5628
▁ikag	-5629
▁inam	-5630
▁ipap	-5631
▁isas	-5632
▁isus	-5633
▁mamb	-5634
▁nami	-5635
▁nanl	-5636
▁pain	-5637
▁pako	-5638
▁sapa	-5639
▁sulo	-5640
▁tugt	-5641
▁ulam	-5642
▁writ	-5643
aasawa	-5644
adyang	-5645
agling	-5646
agupit	-5647
ahayan	-5648
ahirap	-5649
alahad	-5650
alapad	-5651
alayag	-5652
alipat	-5653
alisan	-5654
ampung	-5655
anggay	-5656
apunan	-5657
arinig	-5658
aryong	-5659
athala	-5660
ayakap	-5661
daling	-5662
didato	-5663
hanang	-5664
hiyang	-5665
ibitiw	-5666
igawan	-5667
ilaban	-5668
ilbing	-5669
ilinan	-5670
ilitis	-5671
iliyag	-5672
ilyero	-5673
ingang	-5674
inting	-5675
iskano	-5676
itngit	-5677
nanasa	-5678
ngkong	-5679
orogan	-5680
unduan	-5681
uugali	-5682
uwagan	-5683
▁Atlas	-5684
▁Audit	-5685
▁Banna	-5686
▁Bruno	-5687
▁Bukod	-5688
▁Bulan	-5689
▁Buong	-5690
▁Gusto	-5691
▁Kalig	-5692
▁Kapul	-5693
▁Lunes	-5694
▁Makat	-5695
▁Nakat	-5696
▁Paano	-5697
▁Reyno	-5698
▁Tenor	-5699
▁Tunay	-5700
▁abala	-5701
▁aniya	-5702
▁benep	-5703
▁bigay	-5704
▁budhi	-5705
▁bukod	-5706
▁buuin	-5707
▁dahas	-5708
▁dumad	-5709
▁gatas	-5710
▁hugis	-5711
▁kakah	-5712
▁kapus	-5713
▁lalam	-5714
▁lipad	-5715
▁liyag	-5716
▁lugod	-5717
▁makag	-5718
▁makal	-5719
▁mandi	-5720
▁mapak	-5721
▁nabab	-5722
▁nalag	-5723
▁napan	-5724
▁napas	-5725
▁pamil	-5726
▁pangw	-5727
▁papag	-5728
▁party	-5729
▁patut	-5730
▁pipit	-5731
▁pugon	-5732
▁purok	-5733
▁refer	-5734
▁repor	-5735
▁sahig	-5736
▁salat	-5737
▁sarap	-5738
▁sisiw	-5739
▁sunod	-5740
▁talas	-5741
▁tinal	-5742
▁tiyan	-5743
▁tungo	-5744
Salamat	-5745
abangon	-5746
abayaan	-5747
agsikan	-5748
akdaang	-5749
aligaya	-5750
aligtas	-5751
amasdan	-5752
amtaman	-5753
apitong	-5754
arangan	-5755
atayuan	-5756
atwiran	-5757
ayagang	-5758
ilinang	-5759
indihan	-5760
istahan	-5761
itikang	-5762
iwayway	-5763
untunan	-5764
▁Abyang	-5765
▁Batang	-5766
▁Batooy	-5767
▁Buyung	-5768
▁Diyosa	-5769
▁Dunong	-5770
▁Gresya	-5771
▁Ibigin	-5772
▁Intsik	-5773
▁Martin	-5774
▁Waring	-5775
▁adhika	-5776
▁amihan	-5777
▁awitin	-5778
▁bagang	-5779
▁dagdag	-5780
▁dahong	-5781
▁deklar	-5782
▁dusang	-5783
▁entity	-5784
▁espada	-5785
▁hinang	-5786
▁kaakit	-5787
▁kanang	-5788
▁karamp	-5789
▁kislap	-5790
▁langis	-5791
▁lungga	-5792
▁mainit	-5793
▁mapagp	-5794
▁minana	-5795
▁nabigo	-5796
▁nangag	-5797
▁narito	-5798
▁nasang	-5799
▁natamo	-5800
▁pagkad	-5801
▁pagkam	-5802
▁pagpip	-5803
▁parusa	-5804
▁pastol	-5805
▁pinagd	-5806
▁pinags	-5807
▁pisngi	-5808
▁saklaw	-5809
▁sansin	-5810
▁sumuko	-5811
▁tahana	-5812
▁taksil	-5813
▁umibig	-5814
ahangaan	-5815
akasakit	-5816
alahanin	-5817
alamhati	-5818
alarawan	-5819
ampangan	-5820
angkahoy	-5821
atutupad	-5822
potlight	-5823
urusahan	-5824
▁Babalik	-5825
▁Bagamat	-5826
▁Humingi	-5827
▁Karapat	-5828
▁Lalabas	-5829
▁Matulog	-5830
▁Pumasok	-5831
▁Reynong	-5832
▁Tinungo	-5833
▁aliping	-5834
▁autonom	-5835
▁bakante	-5836
▁dinggin	-5837
▁diumano	-5838
▁gaanong	-5839
▁gamitin	-5840
▁hidwaan	-5841
▁itataas	-5842
▁kabihas	-5843
▁kapanat	-5844
▁lalabas	-5845
▁mababaw	-5846
▁magkaka	-5847
▁magsisi	-5848
▁matikas	-5849
▁nagbago	-5850
▁nagdaan	-5851
▁namamah	-5852
▁napakat	-5853
▁natakot	-5854
▁naunang	-5855
▁negrito	-5856
▁pagbasa	-5857
▁pamagat	-5858
▁partido	-5859
▁pautang	-5860
▁pisikal	-5861
▁ratipik	-5862
▁salamat	-5863
▁sangkap	-5864
▁sobrang	-5865
▁sumisid	-5866
▁supling	-5867
▁takdang	-5868
▁tuluyan	-5869
▁tumanda	-5870
▁umunlad	-5871
anggalang	-5872
asalubong	-5873
asaysayan	-5874
istradong	-5875
▁Alindaya	-5876
▁Artikulo	-5877
▁Dulliyaw	-5878
▁Espanyol	-5879
▁Gabinete	-5880
▁Kapitana	-5881
▁Magulang	-5882
▁Mayroong	-5883
▁Narating	-5884
▁Talisain	-5885
▁Tulungan	-5886
▁bersiyon	-5887
▁bibigkas	-5888
▁bibigyan	-5889
▁binuksan	-5890
▁dingding	-5891
▁gumaling	-5892
▁gunitain	-5893
▁halalang	-5894
▁hukumang	-5895
▁ipalabas	-5896
▁itinanim	-5897
▁itinatag	-5898
▁kampupot	-5899
▁kasuotan	-5900
▁kinakain	-5901
▁magbigay	-5902
▁magising	-5903
▁makipagk	-5904
▁masining	-5905
▁naglalag	-5906
▁paggiliw	-5907
▁pagkilos	-5908
▁pamalagi	-5909
▁panaghoy	-5910
▁panimdim	-5911
▁pinunong	-5912
▁puntahan	-5913
▁rehiyong	-5914
▁sariwang	-5915
▁tagapagl	-5916
▁tanungin	-5917
▁tinatang	-5918
▁tribunal	-5919
apastangan	-5920
▁Bonifacio	-5921
▁Edukasyon	-5922
▁Nabanggit	-5923
▁asosasyon	-5924
▁baranggay	-5925
▁damdaming	-5926
▁gagamitin	-5927
▁ipinakita	-5928
▁kalusugan	-5929
▁kandungan	-5930
▁kapatagan	-5931
▁kasamaang	-5932
▁kasipagan	-5933
▁kasulatan	-5934
▁kilalanin	-5935
▁magsimula	-5936
▁makabalik	-5937
▁malalakas	-5938
▁manirahan	-5939
▁matatawag	-5940
▁mayayaman	-5941
▁naglahong	-5942
▁nagsisisi	-5943
▁nakahanda	-5944
▁nakasakay	-5945
▁namumuhay	-5946
▁nilalaman	-5947
▁pagkakita	-5948
▁pinakamah	-5949
▁plebisito	-5950
▁porsyento	-5951
▁sinasamba	-5952
▁tagubilin	-5953
▁tangkilik	-5954
▁tradisyon	-5955
itolohiyang	-5956
▁Balintawak	-5957
▁Isinusumpa	-5958
▁Kinikilala	-5959
▁Salawikain	-5960
▁binibigkas	-5961
▁dumarating	-5962
▁engkantada	-5963
▁ginintuang	-5964
▁himagsikan	-5965
▁ipagkaloob	-5966
▁itinatakda	-5967
▁kababaihan	-5968
▁kabalagtas	-5969
▁kagitingan	-5970
▁kakayahang	-5971
▁kalagayang	-5972
▁lingkurang	-5973
▁magpakasal	-5974
▁maningning	-5975
▁masasayang	-5976
▁matalinong	-5977
▁nasasaklaw	-5978
▁natuklasan	-5979
▁pagbabalik	-5980
▁pagkabuhay	-5981
▁pagtatanim	-5982
▁pananalita	-5983
▁referendum	-5984
▁salawikain	-5985
▁sumailalim	-5986
▁Isinalaysay	-5987
▁Pransiskano	-5988
▁deklarasyon	-5989
▁maglalakbay	-5990
▁nagsasabing	-5991
▁nakalimutan	-5992
▁paghihintay	-5993
▁pangasiwaan	-5994
▁tagapagmana	-5995
▁ipinagkaloob	-5996
▁kinalalagyan	-5997
▁labingwalong	-5998
▁makatarungan	-5999
▁paglalarawan	-6000
▁pagtatanggol	-6001
▁pananghalian	-6002
▁pinakamataas	-6003
▁labindalawang	-6004
▁napakagandang	-6005
▁Nanunungkulang	-6006
▁pananampalataya	-6007
0:	-6008
2)	-6009
AH	-6010
It	-6011
Pa	-6012
ac	-6013
bo	-6014
se	-6015
sh	-6016
ING	-6017
Ina	-6018
Mal	-6019
Pap	-6020
aly	-6021
bit	-6022
can	-6023
day	-6024
eat	-6025
eda	-6026
elo	-6027
gon	-6028
ill	-6029
inl	-6030
lin	-6031
mat	-6032
ort	-6033
osa	-6034
uev	-6035
ugb	-6036
ulg	-6037
urn	-6038
wis	-6039
▁(3	-6040
▁AT	-6041
▁Jo	-6042
▁Me	-6043
▁Uv	-6044
▁VI	-6045
,000	-6046
ITAN	-6047
Kaya	-6048
Magp	-6049
abok	-6050
abul	-6051
agon	-6052
aloy	-6053
anas	-6054
apup	-6055
aram	-6056
aris	-6057
arya	-6058
asas	-6059
asid	-6060
bata	-6061
buan	-6062
esta	-6063
esus	-6064
hing	-6065
ibak	-6066
ibis	-6067
iiba	-6068
ilen	-6069
illa	-6070
iong	-6071
itig	-6072
itis	-6073
iton	-6074
kayo	-6075
laro	-6076
mata	-6077
puso	-6078
ramo	-6079
reng	-6080
siya	-6081
tama	-6082
ubli	-6083
ugto	-6084
ugun	-6085
uhaw	-6086
ukad	-6087
ukas	-6088
ukaw	-6089
umpo	-6090
unaw	-6091
unyi	-6092
wahe	-6093
▁20.	-6094
▁21.	-6095
▁Aba	-6096
▁Ale	-6097
▁Car	-6098
▁Fel	-6099
▁Huk	-6100
▁Ilo	-6101
▁Kem	-6102
▁Med	-6103
▁Pia	-6104
▁Put	-6105
▁Rom	-6106
▁Sag	-6107
▁Tik	-6108
▁ala	-6109
▁amb	-6110
▁amp	-6111
▁ber	-6112
▁daa	-6113
▁dam	-6114
▁dat	-6115
▁det	-6116
▁dis	-6117
▁diy	-6118
▁doo	-6119
▁gar	-6120
▁hab	-6121
▁hit	-6122
▁lal	-6123
▁lup	-6124
▁lut	-6125
▁nya	-6126
▁pri	-6127
▁sol	-6128
▁sun	-6129
▁tip	-6130
▁uli	-6131
▁yao	-6132
Isang	-6133
abago	-6134
agwan	-6135
ainan	-6136
ataon	-6137
awiin	-6138
bansa	-6139
bayat	-6140
blema	-6141
brero	-6142
ektor	-6143
habag	-6144
handa	-6145
ibust	-6146
iglig	-6147
ikaan	-6148
intal	-6149
ipeng	-6150
itain	-6151
iwant	-6152
kanto	-6153
tapat	-6154
ubing	-6155
ubkob	-6156
ubund	-6157
uhuli	-6158
uklok	-6159
ungaw	-6160
ungay	-6161
ungit	-6162
upkop	-6163
uwalh	-6164
wayen	-6165
▁Ahhh	-6166
▁Apol	-6167
▁Coun	-6168
▁Dula	-6169
▁Kami	-6170
▁Nanl	-6171
▁Rita	-6172
▁Sabi	-6173
▁Ulan	-6174
▁Uwak	-6175
▁alay	-6176
▁bati	-6177
▁daig	-6178
▁eduk	-6179
▁gawi	-6180
▁gulo	-6181
▁hagd	-6182
▁hits	-6183
▁hiya	-6184
▁iyak	-6185
▁karn	-6186
▁klas	-6187
▁komp	-6188
▁krus	-6189
▁lans	-6190
▁nagg	-6191
▁pagn	-6192
▁pagw	-6193
▁paka	-6194
▁pers	-6195
▁piso	-6196
▁purg	-6197
▁sanl	-6198
▁sind	-6199
▁sira	-6200
▁sump	-6201
▁taos	-6202
▁tema	-6203
▁unos	-6204
▁usok	-6205
aantok	-6206
abuhay	-6207
agdaan	-6208
ahanga	-6209
ahinto	-6210
akutan	-6211
alalay	-6212
alawak	-6213
alipin	-6214
amahin	-6215
amanan	-6216
amasid	-6217
angang	-6218
angkat	-6219
apakan	-6220
asinan	-6221
asundo	-6222
awarin	-6223
emonya	-6224
endeng	-6225
entibo	-6226
halang	-6227
ibuhin	-6228
iingat	-6229
inigil	-6230
ipitas	-6231
isahan	-6232
isdaan	-6233
iwalag	-6234
otroso	-6235
ubhang	-6236
ubukin	-6237
ulinig	-6238
unurin	-6239
utyang	-6240
▁Akala	-6241
▁Bagyo	-6242
▁Bangk	-6243
▁Doron	-6244
▁Handi	-6245
▁Huwan	-6246
▁Ilian	-6247
▁Iyong	-6248
▁Masas	-6249
▁Naawa	-6250
▁Natat	-6251
▁Pilit	-6252
▁Pinag	-6253
▁Sagot	-6254
▁Sangk	-6255
▁Siyam	-6256
▁Tuloy	-6257
▁Umaga	-6258
▁Wigan	-6259
▁agila	-6260
▁bakol	-6261
▁baril	-6262
▁bayad	-6263
▁bigat	-6264
▁bilis	-6265
▁braso	-6266
▁bumab	-6267
▁bumuo	-6268
▁daloy	-6269
▁ganid	-6270
▁gipit	-6271
▁gulat	-6272
▁hangi	-6273
▁hawla	-6274
▁himig	-6275
▁ingat	-6276
▁ingay	-6277
▁kabuk	-6278
▁kakan	-6279
▁kanal	-6280
▁karta	-6281
▁kasam	-6282
▁katuw	-6283
▁lason	-6284
▁lawak	-6285
▁limit	-6286
▁lipos	-6287
▁lupit	-6288
▁magug	-6289
▁malag	-6290
▁malig	-6291
▁mamum	-6292
▁manun	-6293
▁mapup	-6294
▁minum	-6295
▁monar	-6296
▁nasok	-6297
▁nuong	-6298
▁panyo	-6299
▁pauwi	-6300
▁pinah	-6301
▁pondo	-6302
▁pulit	-6303
▁sabik	-6304
▁sakay	-6305
▁sakop	-6306
▁salaw	-6307
▁sukab	-6308
▁tagpo	-6309
▁tibay	-6310
▁tinik	-6311
▁tuhod	-6312
▁ulila	-6313
▁wasto	-6314
Lalapit	-6315
ahalata	-6316
akailan	-6317
akainin	-6318
akbuhan	-6319
aksihan	-6320
alaging	-6321
alayuan	-6322
ambitan	-6323
amitang	-6324
asyonal	-6325
atiling	-6326
ayamang	-6327
ayanang	-6328
bitinan	-6329
erasyon	-6330
igdigan	-6331
imbahan	-6332
impalad	-6333
indigan	-6334
iniwala	-6335
itingin	-6336
sobispo	-6337
tuwiran	-6338
uluhang	-6339
umbalik	-6340
umunuan	-6341
unguhan	-6342
uniguni	-6343
uspindi	-6344
▁Andeng	-6345
▁Bahagi	-6346
▁Bituin	-6347
▁Dumaan	-6348
▁Halika	-6349
▁Laking	-6350
▁Ligaya	-6351
▁Maliit	-6352
▁Mangga	-6353
▁Naiwan	-6354
▁Paalam	-6355
▁Puting	-6356
▁Tumayo	-6357
▁Uvigan	-6358
▁Yamang	-6359
▁agawin	-6360
▁alahas	-6361
▁alamin	-6362
▁anghel	-6363
▁bahala	-6364
▁bigkas	-6365
▁bubong	-6366
▁bughaw	-6367
▁butong	-6368
▁dragon	-6369
▁dumaan	-6370
▁haligi	-6371
▁ihanda	-6372
▁iharap	-6373
▁ilipat	-6374
▁inggit	-6375
▁inibig	-6376
▁inumin	-6377
▁inutos	-6378
▁kalong	-6379
▁kampon	-6380
▁kanino	-6381
▁karsel	-6382
▁katoto	-6383
▁lalake	-6384
▁mabisa	-6385
▁magkat	-6386
▁makain	-6387
▁mapait	-6388
▁misyon	-6389
▁musiko	-6390
▁nagkat	-6391
▁pagbub	-6392
▁pagdar	-6393
▁pagkuk	-6394
▁panreh	-6395
▁pantas	-6396
▁papuri	-6397
▁patpat	-6398
▁perang	-6399
▁piloto	-6400
▁pinaka	-6401
▁produk	-6402
▁pumili	-6403
▁puring	-6404
▁rarang	-6405
▁silong	-6406
▁sinong	-6407
▁sumang	-6408
▁taguan	-6409
▁tugtog	-6410
▁turuan	-6411
▁umaasa	-6412
alaganap	-6413
alangkas	-6414
anggapin	-6415
ibustero	-6416
ighatian	-6417
istulang	-6418
itingala	-6419
mamalaki	-6420
▁Bumalik	-6421
▁Council	-6422
▁Ingkong	-6423
▁Ipinagb	-6424
▁Ipinagt	-6425
▁Itinuro	-6426
▁Jatakas	-6427
▁KAPITAN	-6428
▁Liwanag	-6429
▁Lumakad	-6430
▁Magmula	-6431
▁Marahil	-6432
▁Maranao	-6433
▁Matsing	-6434
▁Nagtaka	-6435
▁Nakapag	-6436
▁Nalbuan	-6437
▁Panahon	-6438
▁Pandora	-6439
▁Persyan	-6440
▁Pinilit	-6441
▁Sapagka	-6442
▁Sinikap	-6443
▁alagang	-6444
▁angking	-6445
▁bagamat	-6446
▁basahin	-6447
▁bawasan	-6448
▁biyenan	-6449
▁bunying	-6450
▁busilak	-6451
▁dadalaw	-6452
▁eksklus	-6453
▁gumamit	-6454
▁handaan	-6455
▁hapunan	-6456
▁harapan	-6457
▁hawakan	-6458
▁hitsura	-6459
▁humanap	-6460
▁huminga	-6461
▁huminto	-6462
▁ibabang	-6463
▁iligtas	-6464
▁inilaan	-6465
▁itinayo	-6466
▁kahabag	-6467
▁kaparte	-6468
▁kinalag	-6469
▁komedya	-6470
▁maalala	-6471
▁mahalin	-6472
▁mahilig	-6473
▁makapal	-6474
▁malasin	-6475
▁mapatay	-6476
▁matipid	-6477
▁matulog	-6478
▁nababag	-6479
▁nadinig	-6480
▁nagdala	-6481
▁nangags	-6482
▁nasapit	-6483
▁paglaya	-6484
▁pangkap	-6485
▁panulat	-6486
▁pasakit	-6487
▁patawad	-6488
▁pighati	-6489
▁pumatay	-6490
▁sinulat	-6491
▁sumayaw	-6492
▁sumbong	-6493
▁sumikat	-6494
▁sumulat	-6495
▁tanawin	-6496
▁taunang	-6497
▁timbang	-6498
▁torogan	-6499
▁totoong	-6500
▁tumakas	-6501
▁tumakbo	-6502
▁tungkod	-6503
▁umiibig	-6504
ahulugang	-6505
alastasan	-6506
amadaling	-6507
amanhikan	-6508
anatiling	-6509
apalooban	-6510
awagayway	-6511
ihinagpis	-6512
ilanganin	-6513
▁Handiong	-6514
▁Kayganda	-6515
▁Kembayat	-6516
▁Magbitag	-6517
▁Magwayen	-6518
▁Naalaala	-6519
▁Nagising	-6520
▁Nalimbag	-6521
▁Namangha	-6522
▁Persiyus	-6523
▁Sinapati	-6524
▁binibini	-6525
▁dalangin	-6526
▁gampanan	-6527
▁gobyerno	-6528
▁halagang	-6529
▁hinagkan	-6530
▁ikinasal	-6531
▁itinapon	-6532
▁kaayusan	-6533
▁kamataya	-6534
▁karimlan	-6535
▁katauhan	-6536
▁katawang	-6537
▁kawawang	-6538
▁kuliglig	-6539
▁ligayang	-6540
▁lipunang	-6541
▁magbayad	-6542
▁magkakas	-6543
▁magmahal	-6544
▁magpapat	-6545
▁magtungo	-6546
▁makapags	-6547
▁mamasyal	-6548
▁manggang	-6549
▁manugang	-6550
▁matuling	-6551
▁mayabang	-6552
▁nagagawa	-6553
▁nalalabi	-6554
▁naliligo	-6555
▁naturang	-6556
▁pabulang	-6557
▁paghawak	-6558
▁pagkakal	-6559
▁paglutas	-6560
▁pagmamay	-6561
▁pagpunta	-6562
▁pagtulog	-6563
▁palamuti	-6564
▁pasyahan	-6565
▁payapang	-6566
▁personal	-6567
▁priority	-6568
▁sabayang	-6569
▁sinasabi	-6570
▁tanghali	-6571
akatuparan	-6572
alinlangan	-6573
uwalhating	-6574
▁Inalagaan	-6575
▁Katunayan	-6576
▁Magandang	-6577
▁Makatunao	-6578
▁Nagtanong	-6579
▁Naririnig	-6580
▁Tenoriong	-6581
▁benepisyo	-6582
▁binanggit	-6583
▁direksyon	-6584
▁gumagamit	-6585
▁gumaganap	-6586
▁halimuyak	-6587
▁humihingi	-6588
▁iniligtas	-6589
▁insentibo	-6590
▁ituturing	-6591
▁kabanalan	-6592
▁kagipitan	-6593
▁kakahuyan	-6594
▁kalupitan	-6595
▁kamahalan	-6596
▁kasabikan	-6597
▁kondisyon	-6598
▁magaganda	-6599
▁magkabisa	-6600
▁magkasama	-6601
▁magpaalam	-6602
▁masasarap	-6603
▁maunawaan	-6604
▁mayoryang	-6605
▁nagdurusa	-6606
▁naglalaro	-6607
▁nagtanong	-6608
▁nailigtas	-6609
▁nakaharap	-6610
▁nakasabit	-6611
▁natutuhan	-6612
▁pagkikita	-6613
▁paglalaro	-6614
▁pagsasama	-6615
▁pagsilang	-6616
▁pagtulong	-6617
▁pangalawa	-6618
▁pangitain	-6619
▁parusahan	-6620
▁patungong	-6621
▁regulahin	-6622
▁repormang	-6623
▁spotlight	-6624
▁Ginbitinan	-6625
▁Kaligirang	-6626
▁Karaniwang	-6627
▁Pangasinan	-6628
▁alalahanin	-6629
▁autonomous	-6630
▁hatinggabi	-6631
▁kagamitang	-6632
▁kalahating	-6633
▁kaligtasan	-6634
▁kapirasong	-6635
▁katakdaang	-6636
▁kinikilala	-6637
▁mahihirang	-6638
▁makamandag	-6639
▁masasabing	-6640
▁nagbabadya	-6641
▁nagpasalin	-6642
▁naramdaman	-6643
▁paghihirap	-6644
▁paglilipat	-6645
▁paglilitis	-6646
▁pagsasanay	-6647
▁pagtanggap	-6648
▁pangunguna	-6649
▁panibagong	-6650
▁teritoryal	-6651
▁tutulungan	-6652
▁balahibuhin	-6653
▁ipinakilala	-6654
▁kailanganin	-6655
▁kapighatian	-6656
▁nagdiriwang	-6657
▁naglalakbay	-6658
▁nagtagumpay	-6659
▁pagtitiwala	-6660
▁pamumuhunan	-6661
▁pananalakay	-6662
▁pangalawang	-6663
▁panghukuman	-6664
▁bungangkahoy	-6665
▁kinatatayuan	-6666
▁kinauukulang	-6667
▁mangyayaring	-6668
▁nakararaming	-6669
▁nakasalubong	-6670
▁napakalaking	-6671
▁paghihiganti	-6672
▁pahintulutan	-6673
▁ratipikasyon	-6674
▁rehistradong	-6675
▁sandaigdigan	-6676
▁kakailanganin	-6677
▁pagpapahalaga	-6678
▁Interpretasyon	-6679
▁Pangkasaysayan	-6680
▁kinapapalooban	-6681
▁nagpapaliwanag	-6682
9:	-6683
;"	-6684
AD	-6685
IL	-6686
Ia	-6687
ST	-6688
Ul	-6689
ef	-6690
ez	-6691
of	-6692
pl	-6693
III	-6694
Ing	-6695
Kas	-6696
apl	-6697
bas	-6698
bgl	-6699
bid	-6700
cho	-6701
com	-6702
cos	-6703
dia	-6704
ere	-6705
eri	-6706
kam	-6707
lor	-6708
lum	-6709
mak	-6710
mar	-6711
may	-6712
mpa	-6713
ope	-6714
pus	-6715
rap	-6716
ril	-6717
ros	-6718
sip	-6719
taz	-6720
uba	-6721
udi	-6722
uer	-6723
ukd	-6724
uki	-6725
uma	-6726
was	-6727
wat	-6728
wid	-6729
yos	-6730
▁Em	-6731
▁En	-6732
▁IV	-6733
▁Ph	-6734
▁el	-6735
▁iw	-6736
▁mg	-6737
▁up	-6738
▁ur	-6739
AMAN	-6740
Ikaw	-6741
Iyan	-6742
Mags	-6743
Saan	-6744
abos	-6745
akal	-6746
aksi	-6747
amao	-6748
ariw	-6749
arok	-6750
asim	-6751
awas	-6752
bers	-6753
bisa	-6754
dala	-6755
diwa	-6756
ecto	-6757
enda	-6758
eral	-6759
eryo	-6760
esor	-6761
hhhh	-6762
horn	-6763
ihip	-6764
ilbi	-6765
imba	-6766
imin	-6767
ipis	-6768
irat	-6769
irit	-6770
klam	-6771
lain	-6772
nais	-6773
napu	-6774
paro	-6775
rado	-6776
rati	-6777
reto	-6778
sala	-6779
sino	-6780
taon	-6781
ugho	-6782
ulag	-6783
ulas	-6784
ulos	-6785
umpu	-6786
unik	-6787
uray	-6788
usad	-6789
usaw	-6790
uwak	-6791
uyas	-6792
▁199	-6793
▁22.	-6794
▁Apo	-6795
▁Bah	-6796
▁Bai	-6797
▁Bun	-6798
▁Cir	-6799
▁Hah	-6800
▁Nin	-6801
▁Noo	-6802
▁Umi	-6803
▁aan	-6804
▁aya	-6805
▁dos	-6806
▁etn	-6807
▁gam	-6808
▁gas	-6809
▁gul	-6810
▁hag	-6811
▁hik	-6812
▁iis	-6813
▁ipa	-6814
▁lan	-6815
▁pen	-6816
▁tah	-6817
Anupa	-6818
Babae	-6819
Diyos	-6820
Epiko	-6821
UNONG	-6822
abata	-6823
abola	-6824
agpas	-6825
agtas	-6826
agupa	-6827
ahiga	-6828
akasi	-6829
alata	-6830
alaya	-6831
aligo	-6832
ambog	-6833
ampal	-6834
ampok	-6835
angya	-6836
anhik	-6837
anhin	-6838
antao	-6839
araya	-6840
areal	-6841
aslas	-6842
asmin	-6843
bisig	-6844
gunam	-6845
hindi	-6846
ialam	-6847
ibiro	-6848
ihina	-6849
ikman	-6850
ilian	-6851
inaas	-6852
inlok	-6853
ipang	-6854
iwaga	-6855
iwika	-6856
lipad	-6857
luran	-6858
oloko	-6859
osyon	-6860
palit	-6861
pangh	-6862
rinig	-6863
tamis	-6864
tazar	-6865
ukala	-6866
uking	-6867
uktot	-6868
ulgol	-6869
uluwa	-6870
umpok	-6871
unyag	-6872
uriin	-6873
uutos	-6874
▁Bata	-6875
▁Bumb	-6876
▁Cora	-6877
▁Gaya	-6878
▁Ilan	-6879
▁Kamp	-6880
▁Lahi	-6881
▁Lope	-6882
▁Magl	-6883
▁Maya	-6884
▁Mong	-6885
▁Naka	-6886
▁Noli	-6887
▁Paib	-6888
▁Puso	-6889
▁Samb	-6890
▁Sana	-6891
▁Sump	-6892
▁baro	-6893
▁basa	-6894
▁base	-6895
▁bend	-6896
▁bida	-6897
▁bote	-6898
▁buti	-6899
▁daho	-6900
▁dini	-6901
▁dung	-6902
▁hina	-6903
▁igat	-6904
▁ingk	-6905
▁ipak	-6906
▁item	-6907
▁kayl	-6908
▁laot	-6909
▁liig	-6910
▁lobo	-6911
▁lolo	-6912
▁maik	-6913
▁mali	-6914
▁muni	-6915
▁nala	-6916
▁onsa	-6917
▁pagr	-6918
▁pait	-6919
▁paru	-6920
▁publ	-6921
▁real	-6922
▁sasa	-6923
▁sawi	-6924
▁tamb	-6925
▁tawa	-6926
▁tubo	-6927
▁tunt	-6928
Alamat	-6929
Ngayon	-6930
Ngunit	-6931
Ulitin	-6932
aalaga	-6933
aanong	-6934
abalot	-6935
abasag	-6936
agayan	-6937
agusto	-6938
ahilan	-6939
akante	-6940
akdaan	-6941
alanan	-6942
alasik	-6943
aliang	-6944
alismo	-6945
aluhan	-6946
alunan	-6947
amaliw	-6948
ambang	-6949
anakaw	-6950
anawan	-6951
ansala	-6952
anyaya	-6953
arahas	-6954
asaluk	-6955
astila	-6956
ataong	-6957
atayan	-6958
awirin	-6959
dalang	-6960
hangad	-6961
idigma	-6962
igilin	-6963
igipit	-6964
imutan	-6965
ingkod	-6966
insala	-6967
isdang	-6968
onggon	-6969
oyagan	-6970
raming	-6971
saysay	-6972
tataka	-6973
ugugol	-6974
umbong	-6975
umento	-6976
undang	-6977
upiter	-6978
ustang	-6979
utlang	-6980
▁Anupa	-6981
▁Baran	-6982
▁Batid	-6983
▁Bukid	-6984
▁Ilong	-6985
▁Jesus	-6986
▁Kapwa	-6987
▁Lalap	-6988
▁Latin	-6989
▁Lubos	-6990
▁Luzon	-6991
▁Nakal	-6992
▁Nakas	-6993
▁Natut	-6994
▁Noche	-6995
▁Samar	-6996
▁Silen	-6997
▁agham	-6998
▁along	-6999
▁anito	-7000
▁aring	-7001
▁awang	-7002
▁babas	-7003
▁balot	-7004
▁baong	-7005
▁basta	-7006
▁binhi	-7007
▁bungo	-7008
▁duhat	-7009
▁gayun	-7010
▁gilid	-7011
▁ginag	-7012
▁hamon	-7013
▁iiwan	-7014
▁ilaan	-7015
▁ipagl	-7016
▁isama	-7017
▁kaany	-7018
▁kaisa	-7019
▁kamao	-7020
▁karak	-7021
▁karne	-7022
▁katiw	-7023
▁kumot	-7024
▁kuwar	-7025
▁lagay	-7026
▁lalim	-7027
▁lawin	-7028
▁luksa	-7029
▁lulan	-7030
▁magig	-7031
▁minsa	-7032
▁mismo	-7033
▁nakay	-7034
▁napah	-7035
▁ngala	-7036
▁nimpa	-7037
▁niyog	-7038
▁pakir	-7039
▁paman	-7040
▁pangm	-7041
▁paunl	-7042
▁pawis	-7043
▁pulis	-7044
▁saang	-7045
▁salin	-7046
▁santo	-7047
▁sinab	-7048
▁sumus	-7049
▁takbo	-7050
▁taluk	-7051
▁tatak	-7052
▁tigib	-7053
▁tukso	-7054
▁tutol	-7055
▁ulang	-7056
▁urban	-7057
▁yakap	-7058
▁yumao	-7059
Lalabas	-7060
Sabihin	-7061
Uulitin	-7062
abilang	-7063
adalhan	-7064
ahihiya	-7065
aksilan	-7066
alinhan	-7067
amahagi	-7068
amangka	-7069
amayang	-7070
angging	-7071
angkisa	-7072
arangal	-7073
ariling	-7074
arinlan	-7075
atapuwa	-7076
etropol	-7077
hikayat	-7078
ibingan	-7079
igiting	-7080
ilingon	-7081
inyagan	-7082
isipang	-7083
tikular	-7084
ugunita	-7085
umanhin	-7086
umbayan	-7087
utulong	-7088
uusapan	-7089
▁Etolya	-7090
▁Felipo	-7091
▁Ganito	-7092
▁Hasmin	-7093
▁Kayong	-7094
▁Maaari	-7095
▁Magpap	-7096
▁Malaya	-7097
▁Nagpap	-7098
▁Natuwa	-7099
▁Pagtat	-7100
▁Pantay	-7101
▁Rogong	-7102
▁Silang	-7103
▁Taglay	-7104
▁Umalis	-7105
▁Yaring	-7106
▁baging	-7107
▁bating	-7108
▁binati	-7109
▁daanan	-7110
▁dulang	-7111
▁ganang	-7112
▁gastos	-7113
▁higaan	-7114
▁himala	-7115
▁ibalik	-7116
▁ihatid	-7117
▁inspir	-7118
▁intern	-7119
▁isinas	-7120
▁kabibe	-7121
▁kagaya	-7122
▁kamang	-7123
▁kampan	-7124
▁kapang	-7125
▁kataka	-7126
▁kinain	-7127
▁kwento	-7128
▁lagyan	-7129
▁laruan	-7130
▁linggo	-7131
▁lumayo	-7132
▁magpas	-7133
▁mahaba	-7134
▁mailap	-7135
▁masdan	-7136
▁matamo	-7137
▁maubos	-7138
▁muntik	-7139
▁naakit	-7140
▁nagdad	-7141
▁nagdar	-7142
▁nagdur	-7143
▁naghah	-7144
▁nagpak	-7145
▁naipag	-7146
▁nakang	-7147
▁nakiki	-7148
▁napili	-7149
▁nasabi	-7150
▁natalo	-7151
▁ngipin	-7152
▁pakana	-7153
▁pamana	-7154
▁pareho	-7155
▁pating	-7156
▁piitan	-7157
▁sabing	-7158
▁siguro	-7159
▁superb	-7160
▁tulain	-7161
▁tumama	-7162
▁tuwang	-7163
▁tuyong	-7164
▁ulirat	-7165
▁umagaw	-7166
▁umahon	-7167
▁walong	-7168
........	-7169
ahambing	-7170
alinhaga	-7171
ihimutok	-7172
iligawan	-7173
ingkuran	-7174
liwayway	-7175
▁Bandila	-7176
▁Corazon	-7177
▁Epikong	-7178
▁Hagibis	-7179
▁Ikalawa	-7180
▁Kasunod	-7181
▁Kawayan	-7182
▁Lumatay	-7183
▁Lumikha	-7184
▁Mabigat	-7185
▁Malabon	-7186
▁Malapit	-7187
▁Natakot	-7188
▁Ngayong	-7189
▁Paganay	-7190
▁Pinakam	-7191
▁Pumayag	-7192
▁Sabihin	-7193
▁Tangere	-7194
▁Tumawag	-7195
▁bumubuo	-7196
▁dalawin	-7197
▁dukhang	-7198
▁emosyon	-7199
▁ganyang	-7200
▁ginugol	-7201
▁gumanap	-7202
▁hatulan	-7203
▁humanga	-7204
▁huwaran	-7205
▁ibababa	-7206
▁inaasam	-7207
▁italaga	-7208
▁kamalig	-7209
▁kandong	-7210
▁kariton	-7211
▁karwahe	-7212
▁kastila	-7213
▁katipan	-7214
▁kawalan	-7215
▁kristal	-7216
▁lambing	-7217
▁magbago	-7218
▁magiliw	-7219
▁magluto	-7220
▁magsabi	-7221
▁malapad	-7222
▁mamuhay	-7223
▁mamunga	-7224
▁mapigil	-7225
▁marupok	-7226
▁masapit	-7227
▁masukal	-7228
▁mawalan	-7229
▁minahal	-7230
▁monarka	-7231
▁mundong	-7232
▁nabihag	-7233
▁nabuwal	-7234
▁nagkita	-7235
▁nagsasa	-7236
▁nagtago	-7237
▁nagturo	-7238
▁nilisan	-7239
▁palihim	-7240
▁palitan	-7241
▁papatay	-7242
▁papunta	-7243
▁paputok	-7244
▁payagan	-7245
▁pinilit	-7246
▁pribado	-7247
▁publiko	-7248
▁sayawan	-7249
▁sinagot	-7250
▁sinapup	-7251
▁sultana	-7252
▁sumigaw	-7253
▁tangang	-7254
▁tatawag	-7255
▁watawat	-7256
▁yumaong	-7257
agalingan	-7258
akiusapan	-7259
alamutian	-7260
alinghaga	-7261
ihinatnan	-7262
ihinayang	-7263
inabangan	-7264
intakutan	-7265
iwantiwan	-7266
klamasyon	-7267
otohanang	-7268
relihiyon	-7269
stitusyon	-7270
untaryong	-7271
▁Bumbaran	-7272
▁Floresca	-7273
▁Gayundin	-7274
▁Hiniling	-7275
▁Mabuting	-7276
▁Makikita	-7277
▁Mangyari	-7278
▁Masinlok	-7279
▁Pambansa	-7280
▁Parabula	-7281
▁Sabayang	-7282
▁Sampalok	-7283
▁alinmang	-7284
▁bangkang	-7285
▁bunganga	-7286
▁daraanan	-7287
▁dosenang	-7288
▁hangarin	-7289
▁humirang	-7290
▁inaakala	-7291
▁iniaalay	-7292
▁inilagay	-7293
▁kadakila	-7294
▁kawayang	-7295
▁komisyon	-7296
▁lansones	-7297
▁libangan	-7298
▁liwayway	-7299
▁lumuluha	-7300
▁magarang	-7301
▁makausap	-7302
▁makilala	-7303
▁malalaki	-7304
▁malamlam	-7305
▁maliligo	-7306
▁malumbay	-7307
▁mapagkuk	-7308
▁maybahay	-7309
▁ministro	-7310
▁nadarama	-7311
▁nagdaang	-7312
▁naghirap	-7313
▁naglilip	-7314
▁nagpapas	-7315
▁nagpapat	-7316
▁nagpasya	-7317
▁nahuhuli	-7318
▁nakaraan	-7319
▁nanatili	-7320
▁natutong	-7321
▁pagbalik	-7322
▁pagkamam	-7323
▁paglipas	-7324
▁pagsunod	-7325
▁pagtawag	-7326
▁panlabas	-7327
▁pantalon	-7328
▁papalayo	-7329
▁parabola	-7330
▁paruparo	-7331
▁petisyon	-7332
▁pinakain	-7333
▁problema	-7334
▁sabihing	-7335
▁seksyong	-7336
▁tinangay	-7337
▁tinubuan	-7338
▁tugtugin	-7339
▁tumindig	-7340
▁tumulong	-7341
agkaibigan	-7342
atutunayan	-7343
▁Arsobispo	-7344
▁Baranugun	-7345
▁Dinoyagan	-7346
▁Ibinalita	-7347
▁Itinanong	-7348
▁Kailanman	-7349
▁Karamihan	-7350
▁Lumilitaw	-7351
▁Maririnig	-7352
▁Nararapat	-7353
▁Pagkakita	-7354
▁Paiborong	-7355
▁Sinimulan	-7356
▁Tinatawag	-7357
▁banyagang	-7358
▁dokumento	-7359
▁ekonomiya	-7360
▁hangganan	-7361
▁hiningang	-7362
▁ibinalita	-7363
▁ikinulong	-7364
▁inaasahan	-7365
▁isalaysay	-7366
▁kabataang	-7367
▁kabayaran	-7368
▁kabukiran	-7369
▁kagamitan	-7370
▁kagawaran	-7371
▁kahusayan	-7372
▁kalawakan	-7373
▁kandidato	-7374
▁katunayan	-7375
▁katuwiran	-7376
▁kaunlaran	-7377
▁mabangong	-7378
▁magdamdam	-7379
▁magsalita	-7380
▁magtaglay	-7381
▁magtamasa	-7382
▁makatulog	-7383
▁malalapad	-7384
▁mamahalin	-7385
▁mananakop	-7386
▁mapalagay	-7387
▁mapanglaw	-7388
▁naaangkop	-7389
▁nagbabago	-7390
▁nakabitin	-7391
▁nakalaban	-7392
▁nakalipas	-7393
▁nakayanan	-7394
▁nasusulat	-7395
▁natatanaw	-7396
▁paggalang	-7397
▁pagnanasa	-7398
▁pagsulong	-7399
▁pagtingin	-7400
▁pakasalan	-7401
▁pambayang	-7402
▁pangalang	-7403
▁pangwakas	-7404
▁panibugho	-7405
▁panunumpa	-7406
▁pasalamat	-7407
▁prangkisa	-7408
▁pulitikal	-7409
▁pupugutan	-7410
▁seremonya	-7411
▁tumutukoy	-7412
aalinlangan	-7413
etropolitan	-7414
panghukuman	-7415
▁Magindanao	-7416
▁Pambansang	-7417
▁Panitikang	-7418
▁Pilosopong	-7419
▁Sampaguita	-7420
▁binubuksan	-7421
▁gumagapang	-7422
▁industriya	-7423
▁kababayang	-7424
▁kagalingan	-7425
▁kalinangan	-7426
▁kaparaanan	-7427
▁katamtaman	-7428
▁katiwalian	-7429
▁kinatawang	-7430
▁mababangis	-7431
▁mabalitaan	-7432
▁maghiwalay	-7433
▁makatulong	-7434
▁makatwiran	-7435
▁mangangaso	-7436
▁mapagtibay	-7437
▁mapapansin	-7438
▁matuklasan	-7439
▁nagkasundo	-7440
▁nagpahatid	-7441
▁nagpakasal	-7442
▁nakapaloob	-7443
▁nakararami	-7444
▁nalalabing	-7445
▁pagbibitiw	-7446
▁pagkakaiba	-7447
▁paglalakad	-7448
▁pagpaplano	-7449
▁pagsasayaw	-7450
▁pagtitipon	-7451
▁pakiramdam	-7452
▁pamamasyal	-7453
▁pamanhikan	-7454
▁pamayanang	-7455
▁pangangaso	-7456
▁pangisdaan	-7457
▁panitikang	-7458
▁partikular	-7459
▁pinangalan	-7460
▁pinapansin	-7461
▁prinsipeng	-7462
▁programang	-7463
▁proteksyon	-7464
▁purgatoryo	-7465
▁sasailalim	-7466
▁sawimpalad	-7467
▁sinilangan	-7468
apangyarihan	-7469
▁Ipinagtapat	-7470
▁Ipinakiusap	-7471
▁Sandatahang	-7472
▁hinahangaan	-7473
▁impormasyon	-7474
▁inihahandog	-7475
▁inspirasyon	-7476
▁kadahilanan	-7477
▁kagalingang	-7478
▁kapaligiran	-7479
▁kapanatagan	-7480
▁karampatang	-7481
▁karunungang	-7482
▁magpanatili	-7483
▁nagsisimula	-7484
▁nangangamba	-7485
▁nangangarap	-7486
▁napangasawa	-7487
▁pagkukulang	-7488
▁pakakasalan	-7489
▁palatandaan	-7490
▁pamalagiang	-7491
▁pinarusahan	-7492
▁siyamnapung	-7493
▁teknolohiya	-7494
▁Maniwantiwan	-7495
▁Salamangkero	-7496
▁katanghalian	-7497
▁kinikilalang	-7498
▁konstitusyon	-7499
▁mahahalagang	-7500
▁makapaniwala	-7501
▁nagkahiwalay	-7502
▁nagpapahayag	-7503
▁nararamdaman	-7504
▁pagpapakasal	-7505
▁pagpapatuloy	-7506
▁pansamantala	-7507
▁pinaghalalan	-7508
▁pinamumunuan	-7509
▁ipinagpatuloy	-7510
▁mangingisdang	-7511
▁nagpapakilala	-7512
▁nagsasalaysay	-7513
▁organisasyong	-7514
▁pagkakapantay	-7515
▁pakikipaglaban	-7516
9)	-7517
In	-7518
UL	-7519
ce	-7520
fi	-7521
he	-7522
ho	-7523
ki	-7524
▁f	-7525
All	-7526
Bal	-7527
INI	-7528
Kay	-7529
LAK	-7530
Mak	-7531
Nap	-7532
Pag	-7533
Tut	-7534
ais	-7535
ani	-7536
cav	-7537
der	-7538
dio	-7539
egr	-7540
ehe	-7541
eod	-7542
get	-7543
hay	-7544
him	-7545
ibi	-7546
ikn	-7547
itn	-7548
kab	-7549
ket	-7550
lod	-7551
mag	-7552
nit	-7553
okr	-7554
ook	-7555
opo	-7556
ote	-7557
pay	-7558
roc	-7559
rom	-7560
uos	-7561
usy	-7562
ven	-7563
▁1:	-7564
▁2:	-7565
▁Be	-7566
▁De	-7567
▁Hi	-7568
▁Oy	-7569
▁er	-7570
▁se	-7571
▁ti	-7572
ANDA	-7573
APAT	-7574
Anak	-7575
Andr	-7576
IPAG	-7577
Kasi	-7578
aala	-7579
abut	-7580
agip	-7581
aham	-7582
ahaw	-7583
akin	-7584
alau	-7585
alop	-7586
amoy	-7587
apwa	-7588
arat	-7589
aray	-7590
asko	-7591
atub	-7592
cala	-7593
cial	-7594
dand	-7595
echo	-7596
elan	-7597
empo	-7598
enus	-7599
eron	-7600
fina	-7601
gawa	-7602
ibal	-7603
ibre	-7604
igin	-7605
iimb	-7606
ikil	-7607
ikip	-7608
ilad	-7609
ilok	-7610
imat	-7611
imon	-7612
inoo	-7613
ipol	-7614
itna	-7615
itre	-7616
iwil	-7617
lupa	-7618
mura	-7619
oice	-7620
olar	-7621
oloh	-7622
oper	-7623
orin	-7624
payo	-7625
pine	-7626
port	-7627
puti	-7628
rami	-7629
saan	-7630
sidi	-7631
tion	-7632
uela	-7633
uest	-7634
ulta	-7635
umba	-7636
unyo	-7637
uuin	-7638
uwis	-7639
▁(19	-7640
▁...	-7641
▁Dom	-7642
▁Gar	-7643
▁Hab	-7644
▁Kad	-7645
▁Kur	-7646
▁Niy	-7647
▁Nor	-7648
▁Pah	-7649
▁Sis	-7650
▁Sol	-7651
▁Sto	-7652
▁Sus	-7653
▁Tao	-7654
▁Tok	-7655
▁Uri	-7656
▁Val	-7657
▁amo	-7658
▁api	-7659
▁bih	-7660
▁duk	-7661
▁dur	-7662
▁eng	-7663
▁hud	-7664
▁ibo	-7665
▁isk	-7666
▁iya	-7667
▁kut	-7668
▁lak	-7669
▁lat	-7670
▁law	-7671
▁nob	-7672
▁pir	-7673
▁rek	-7674
▁rel	-7675
▁tik	-7676
Galit	-7677
Gusto	-7678
Higit	-7679
aaway	-7680
abaya	-7681
abeas	-7682
agaan	-7683
aglag	-7684
aksak	-7685
alaot	-7686
alina	-7687
alipo	-7688
amaya	-7689
amnan	-7690
anaig	-7691
angin	-7692
arant	-7693
arayo	-7694
arida	-7695
aruan	-7696
astas	-7697
audit	-7698
ayari	-7699
bigay	-7700
cavay	-7701
chang	-7702
egalo	-7703
endag	-7704
engke	-7705
giliw	-7706
idang	-7707
idlan	-7708
ighan	-7709
igong	-7710
igoro	-7711
igowa	-7712
impal	-7713
inggo	-7714
ingon	-7715
iring	-7716
isisi	-7717
iskis	-7718
isong	-7719
istor	-7720
kamay	-7721
lahat	-7722
lawan	-7723
lipat	-7724
nayon	-7725
nilay	-7726
okawa	-7727
ormal	-7728
otong	-7729
paman	-7730
pirit	-7731
sahan	-7732
silim	-7733
tonio	-7734
tonom	-7735
ubdan	-7736
ubsob	-7737
ugbog	-7738
umahe	-7739
unsod	-7740
upaan	-7741
upong	-7742
uulit	-7743
uwahe	-7744
weldo	-7745
westo	-7746
yawan	-7747
▁Abot	-7748
▁Aila	-7749
▁Asya	-7750
▁Atis	-7751
▁Baut	-7752
▁Carl	-7753
▁Dugo	-7754
▁Gran	-7755
▁Haba	-7756
▁Ibon	-7757
▁Iday	-7758
▁Igin	-7759
▁Impo	-7760
▁Ipak	-7761
▁Magp	-7762
▁Mand	-7763
▁Maru	-7764
▁Mind	-7765
▁Napa	-7766
▁Pagm	-7767
▁Seus	-7768
▁Sing	-7769
▁Teod	-7770
▁Toni	-7771
▁Tubo	-7772
▁Utos	-7773
▁Wari	-7774
▁asin	-7775
▁bisa	-7776
▁bola	-7777
▁disk	-7778
▁ebid	-7779
▁empl	-7780
▁gabe	-7781
▁gamp	-7782
▁halo	-7783
▁ihip	-7784
▁ikal	-7785
▁imin	-7786
▁impl	-7787
▁ipan	-7788
▁ipat	-7789
▁itak	-7790
▁itut	-7791
▁kapa	-7792
▁kaut	-7793
▁kibo	-7794
▁lamp	-7795
▁luma	-7796
▁magw	-7797
▁maya	-7798
▁nati	-7799
▁over	-7800
▁pano	-7801
▁pili	-7802
▁plan	-7803
▁pusp	-7804
▁sent	-7805
▁sige	-7806
▁sipi	-7807
▁sugo	-7808
▁susi	-7809
▁tamp	-7810
▁tant	-7811
▁test	-7812
▁tore	-7813
▁tung	-7814
▁usap	-7815
▁utop	-7816
▁uwak	-7817
Ingles	-7818
Tatayo	-7819
aantay	-7820
abagin	-7821
abalag	-7822
abawas	-7823
agdaka	-7824
aginan	-7825
aglahi	-7826
ahunan	-7827
akaisa	-7828
akapit	-7829
akasan	-7830
alakan	-7831
alasap	-7832
alayin	-7833
aligid	-7834
alikha	-7835
alisin	-7836
amalay	-7837
amilya	-7838
angako	-7839
anggal	-7840
aniban	-7841
arlika	-7842
aspang	-7843
atahan	-7844
atanas	-7845
atanim	-7846
atiran	-7847
awahan	-7848
ayanig	-7849
ayawan	-7850
ayunin	-7851
dandan	-7852
enteng	-7853
hagang	-7854
ibilog	-7855
igmang	-7856
igyang	-7857
ihinto	-7858
ilabas	-7859
ilabot	-7860
ilahin	-7861
ilahok	-7862
ilikot	-7863
iluhan	-7864
imatay	-7865
inhing	-7866
inisid	-7867
ipigil	-7868
istang	-7869
itawin	-7870
itikan	-7871
itnaan	-7872
itungo	-7873
iwasay	-7874
mangan	-7875
masaya	-7876
okasta	-7877
operat	-7878
syonal	-7879
ukuban	-7880
ultura	-7881
uluhod	-7882
ulutan	-7883
uluyan	-7884
umpaan	-7885
umpati	-7886
upling	-7887
urayan	-7888
yaring	-7889
yembre	-7890
▁Basta	-7891
▁Batas	-7892
▁Beata	-7893
▁Binab	-7894
▁Cirio	-7895
▁Dahon	-7896
▁Dinar	-7897
▁Duhat	-7898
▁Epiko	-7899
▁GANDA	-7900
▁Ganda	-7901
▁Gener	-7902
▁Grupo	-7903
▁Handa	-7904
▁Hunyo	-7905
▁Indio	-7906
▁Kalik	-7907
▁Kanya	-7908
▁Lamut	-7909
▁Limay	-7910
▁Makan	-7911
▁Malin	-7912
▁Miram	-7913
▁Pakik	-7914
▁Pasko	-7915
▁Pinoy	-7916
▁Rabut	-7917
▁SIPAG	-7918
▁Sabay	-7919
▁Santo	-7920
▁Tanag	-7921
▁Tatlo	-7922
▁Tinay	-7923
▁YAMAN	-7924
▁Yaman	-7925
▁animo	-7926
▁aruga	-7927
▁asong	-7928
▁balae	-7929
▁balag	-7930
▁bangg	-7931
▁banig	-7932
▁banta	-7933
▁bibit	-7934
▁bingi	-7935
▁biyas	-7936
▁dagta	-7937
▁dayap	-7938
▁dinad	-7939
▁disip	-7940
▁dukha	-7941
▁dulot	-7942
▁erehe	-7943
▁gaano	-7944
▁galaw	-7945
▁hango	-7946
▁hatid	-7947
▁hibik	-7948
▁hilaw	-7949
▁hinog	-7950
▁hipan	-7951
▁iraos	-7952
▁ituro	-7953
▁kahin	-7954
▁kakat	-7955
▁kapul	-7956
▁kapup	-7957
▁katat	-7958
▁katul	-7959
▁kinam	-7960
▁kiwil	-7961
▁klase	-7962
▁kumuk	-7963
▁kuwad	-7964
▁lasak	-7965
▁layon	-7966
▁legal	-7967
▁libis	-7968
▁lungg	-7969
▁magpa	-7970
▁malal	-7971
▁maliw	-7972
▁mapam	-7973
▁marir	-7974
▁masak	-7975
▁matul	-7976
▁moral	-7977
▁naawa	-7978
▁nahan	-7979
▁nakib	-7980
▁ngiti	-7981
▁pagda	-7982
▁paral	-7983
▁parir	-7984
▁paris	-7985
▁parol	-7986
▁pasan	-7987
▁petsa	-7988
▁pumup	-7989
▁putok	-7990
▁salam	-7991
▁saliw	-7992
▁salop	-7993
▁samyo	-7994
▁sikap	-7995
▁silbi	-7996
▁sinul	-7997
▁sipag	-7998
▁talip	-7999
▁tanan	-8000
▁tanik	-8001
▁tanod	-8002
▁tapis	-8003
▁tatay	-8004
▁tindi	-8005
▁tingn	-8006
▁tinit	-8007
▁tugma	-8008
▁tungg	-8009
▁tunod	-8010
Andrade	-8011
aalaala	-8012
aanyong	-8013
ahabang	-8014
akilang	-8015
akitaan	-8016
alaglag	-8017
ambibig	-8018
andaang	-8019
anggawa	-8020
atayong	-8021
awaglit	-8022
imagsik	-8023
intasan	-8024
intulad	-8025
isasyon	-8026
iwasang	-8027
labanan	-8028
otabato	-8029
sidiary	-8030
ubungin	-8031
uhangin	-8032
ukadkad	-8033
unggali	-8034
▁Aanhin	-8035
▁Alaala	-8036
▁Anding	-8037
▁Androm	-8038
▁Bagama	-8039
▁Baysay	-8040
▁Binati	-8041
▁DUNONG	-8042
▁Dalawa	-8043
▁Espada	-8044
▁Farida	-8045
▁Gulong	-8046
▁Impong	-8047
▁Indiyo	-8048
▁Ipinas	-8049
▁Iskong	-8050
▁Kagand	-8051
▁Linggo	-8052
▁Nasabi	-8053
▁Pamaya	-8054
▁Pantao	-8055
▁Philip	-8056
▁Pinagb	-8057
▁Romano	-8058
▁Sileno	-8059
▁aksyon	-8060
▁aktwal	-8061
▁ayusin	-8062
▁balana	-8063
▁balong	-8064
▁bihasa	-8065
▁bilhin	-8066
▁budget	-8067
▁corpus	-8068
▁damdam	-8069
▁dumapo	-8070
▁estilo	-8071
▁galang	-8072
▁gitara	-8073
▁habeas	-8074
▁hapong	-8075
▁hingin	-8076
▁hudyat	-8077
▁humina	-8078
▁ibigin	-8079
▁ihalal	-8080
▁imbing	-8081
▁inabot	-8082
▁ipinap	-8083
▁isipin	-8084
▁kahima	-8085
▁kambal	-8086
▁karagd	-8087
▁kaunti	-8088
▁kukong	-8089
▁lalung	-8090
▁lambak	-8091
▁lanubo	-8092
▁layang	-8093
▁lingap	-8094
▁lintik	-8095
▁lobong	-8096
▁lugami	-8097
▁maaliw	-8098
▁madula	-8099
▁magbub	-8100
▁magpak	-8101
▁mahika	-8102
▁mainam	-8103
▁maingg	-8104
▁mamili	-8105
▁mamuno	-8106
▁mapagl	-8107
▁mapapa	-8108
▁mapili	-8109
▁masabi	-8110
▁nagapi	-8111
▁nagnin	-8112
▁nagtut	-8113
▁nahuli	-8114
▁namuno	-8115
▁napagk	-8116
▁natuto	-8117
▁ninais	-8118
▁nobela	-8119
▁orasan	-8120
▁pagbib	-8121
▁pagrer	-8122
▁pamalo	-8123
▁pamang	-8124
▁panaho	-8125
▁pasiya	-8126
▁patula	-8127
▁paulit	-8128
▁pinili	-8129
▁punung	-8130
▁putong	-8131
▁pwersa	-8132
▁record	-8133
▁sariwa	-8134
▁sayang	-8135
▁sindak	-8136
▁sweldo	-8137
▁tabako	-8138
▁tatayo	-8139
▁trumpo	-8140
▁tumira	-8141
▁tumpak	-8142
▁unahan	-8143
▁winika	-8144
aakalang	-8145
abayaran	-8146
adlangan	-8147
aginipan	-8148
ahamakan	-8149
ahatulan	-8150
alambing	-8151
alapitan	-8152
aligtaan	-8153
alikabok	-8154
alimuyak	-8155
amakaawa	-8156
anggapan	-8157
anggulan	-8158
angkutan	-8159
arungang	-8160
awakawak	-8161
aysayang	-8162
igorotan	-8163
ihinging	-8164
indigowa	-8165
ingganda	-8166
ipinsala	-8167
practice	-8168
ulantang	-8169
ulinigan	-8170
undangan	-8171
ungaling	-8172
▁Abuhing	-8173
▁Antonio	-8174
▁Basahin	-8175
▁Bulusan	-8176
▁Bungang	-8177
▁Datapwa	-8178
▁Donggon	-8179
▁Elenang	-8180
▁Ginamit	-8181
▁Huminto	-8182
▁Ikaapat	-8183
▁Ilianon	-8184
▁Inakala	-8185
▁Iniutos	-8186
▁Larawan	-8187
▁Lubhang	-8188
▁Lumabas	-8189
▁Mabuhay	-8190
▁Madilim	-8191
▁Mariano	-8192
▁Masakit	-8193
▁Masarap	-8194
▁Matanda	-8195
▁Munting	-8196
▁Naalala	-8197
▁Nagulat	-8198
▁Nawalan	-8199
▁Pablito	-8200
▁Patuloy	-8201
▁Pumunta	-8202
▁Sampung	-8203
▁Satanas	-8204
▁Sicavay	-8205
▁Sumpain	-8206
▁Teodoro	-8207
▁Toniong	-8208
▁Walayin	-8209
▁akalain	-8210
▁alapaap	-8211
▁baguhin	-8212
▁balabal	-8213
▁batisan	-8214
▁bayaang	-8215
▁baywang	-8216
▁bituing	-8217
▁bumabag	-8218
▁bumbong	-8219
▁dagitin	-8220
▁dinakip	-8221
▁dininig	-8222
▁gamutin	-8223
▁ginamot	-8224
▁gitnang	-8225
▁gugulin	-8226
▁hanggan	-8227
▁hinango	-8228
▁hinarap	-8229
▁hiniram	-8230
▁hinubog	-8231
▁hulihin	-8232
▁humawak	-8233
▁humilig	-8234
▁hustong	-8235
▁ibayong	-8236
▁ikaapat	-8237
▁ilibing	-8238
▁inaawit	-8239
▁ingkong	-8240
▁ipaalam	-8241
▁isagawa	-8242
▁isipang	-8243
▁itanong	-8244
▁itinago	-8245
▁kahanga	-8246
▁kahawig	-8247
▁kalahok	-8248
▁kalinga	-8249
▁kaparis	-8250
▁katiwas	-8251
▁kuwitis	-8252
▁kwartel	-8253
▁laganap	-8254
▁langgam	-8255
▁lapatan	-8256
▁laruang	-8257
▁ligalig	-8258
▁luksang	-8259
▁lumaban	-8260
▁lumahok	-8261
▁luntian	-8262
▁mabagal	-8263
▁mabango	-8264
▁mabigat	-8265
▁maestro	-8266
▁maganap	-8267
▁magkita	-8268
▁magtago	-8269
▁mahalal	-8270
▁maiiwan	-8271
▁makakat	-8272
▁makamit	-8273
▁makasal	-8274
▁makisig	-8275
▁malusog	-8276
▁maluwag	-8277
▁mapatid	-8278
▁matakot	-8279
▁matalas	-8280
▁matigas	-8281
▁matinik	-8282
▁matulin	-8283
▁mawalay	-8284
▁mayorya	-8285
▁mineral	-8286
▁naalala	-8287
▁naglaho	-8288
▁nagsama	-8289
▁nagtamo	-8290
▁nagwika	-8291
▁nakakap	-8292
▁nanatak	-8293
▁napagod	-8294
▁napatid	-8295
▁nariyan	-8296
▁natigil	-8297
▁natupad	-8298
▁naulila	-8299
▁ninuman	-8300
▁nunukal	-8301
▁pabalik	-8302
▁pabango	-8303
▁pagboto	-8304
▁pagdaka	-8305
▁pagpapa	-8306
▁pagsasa	-8307
▁paitaas	-8308
▁palayaw	-8309
▁papaano	-8310
▁petsang	-8311
▁pigilin	-8312
▁pinagka	-8313
▁pinanin	-8314
▁plumahe	-8315
▁reynong	-8316
▁salawal	-8317
▁santong	-8318
▁sinunod	-8319
▁sugatan	-8320
▁tagapam	-8321
▁tanglaw	-8322
▁taniman	-8323
▁tinipon	-8324
▁tinugon	-8325
▁tinungo	-8326
▁tinuran	-8327
▁tumawag	-8328
▁ulilang	-8329
ahanggang	-8330
alatayang	-8331
alinangan	-8332
ipikasyon	-8333
unikasyon	-8334
▁Baltazar	-8335
▁Bautista	-8336
▁Doronoon	-8337
▁Halamang	-8338
▁Hilagang	-8339
▁Hukumang	-8340
▁Kalabasa	-8341
▁Kalayaan	-8342
▁Kampupot	-8343
▁Karaniwa	-8344
▁Kasamang	-8345
▁Kristong	-8346
▁Kundiman	-8347
▁Mahalaga	-8348
▁Malaking	-8349
▁Menalipo	-8350
▁Nagbalik	-8351
▁Naghanda	-8352
▁Naisipan	-8353
▁Nakiusap	-8354
▁Namalagi	-8355
▁Simbahan	-8356
▁Sinundan	-8357
▁Tanagyaw	-8358
▁Tinchang	-8359
▁Tumulong	-8360
▁balangay	-8361
▁batingaw	-8362
▁buhangin	-8363
▁bulubund	-8364
▁dagdagan	-8365
▁engkanto	-8366
▁gumagala	-8367
▁gumising	-8368
▁guniguni	-8369
▁halakhak	-8370
▁himalang	-8371
▁hinintay	-8372
▁ipinasya	-8373
▁isinilid	-8374
▁isinulat	-8375
▁itatakda	-8376
▁kaanyuan	-8377
▁kabaitan	-8378
▁kahapong	-8379
▁kailalim	-8380
▁kakilala	-8381
▁kalayuan	-8382
▁kampilan	-8383
▁karakter	-8384
▁karuwahe	-8385
▁katagang	-8386
▁kawikaan	-8387
▁kontrata	-8388
▁lalagyan	-8389
▁lubusang	-8390
▁lumalaki	-8391
▁lumalang	-8392
▁lumangoy	-8393
▁luntiang	-8394
▁mababasa	-8395
▁magbunga	-8396
▁magiting	-8397
▁magkakat	-8398
▁magtuloy	-8399
▁maibigan	-8400
▁maikling	-8401
▁malambot	-8402
▁mapakali	-8403
▁mapansin	-8404
▁masasama	-8405
▁minokawa	-8406
▁nagbuhat	-8407
▁nagising	-8408
▁naglaban	-8409
▁nagnakaw	-8410
▁nagtampo	-8411
▁naisipan	-8412
▁nakiusap	-8413
▁namangha	-8414
▁namumuno	-8415
▁nanganak	-8416
▁napaiyak	-8417
▁natirang	-8418
▁ninanais	-8419
▁pabareal	-8420
▁pabigkas	-8421
▁pagbubuo	-8422
▁pagkakab	-8423
▁pagkamak	-8424
▁pagkamat	-8425
▁paglahok	-8426
▁paglikha	-8427
▁pagliyag	-8428
▁pagmamal	-8429
▁pagpapas	-8430
▁pagpasok	-8431
▁pagsikat	-8432
▁pagyaman	-8433
▁pakitang	-8434
▁palengke	-8435
▁panghabi	-8436
▁paniwala	-8437
▁pinansin	-8438
▁piyesang	-8439
▁puhunang	-8440
▁pulubing	-8441
▁pulutong	-8442
▁sabungan	-8443
▁saligang	-8444
▁sumaklaw	-8445
▁tagapayo	-8446
▁taguring	-8447
▁talangka	-8448
▁talipapa	-8449
▁tangkang	-8450
▁tinakpan	-8451
▁tinamong	-8452
▁titingin	-8453
▁tumingin	-8454
▁tumutubo	-8455
agkalooban	-8456
pakinabang	-8457
▁Amburayan	-8458
▁Binanggit	-8459
▁Binigyang	-8460
▁Kastilang	-8461
▁Kayamanan	-8462
▁Krotonang	-8463
▁Miramolin	-8464
▁Pakinggan	-8465
▁Sandaling	-8466
▁Tanggapan	-8467
▁bahagyang	-8468
▁banggitin	-8469
▁binitiwan	-8470
▁hinaharap	-8471
▁ipinadala	-8472
▁itinanong	-8473
▁kabatiran	-8474
▁kaguluhan	-8475
▁kaisipang	-8476
▁kalakalan	-8477
▁kapurihan	-8478
▁kasabihan	-8479
▁kasagutan	-8480
▁kasunduan	-8481
▁katakdaan	-8482
▁katuparan	-8483
▁kumakanta	-8484
▁kumikilos	-8485
▁lingkuran	-8486
▁lumalapit	-8487
▁mabubuhay	-8488
▁magagamit	-8489
▁maginhawa	-8490
▁magkaanak	-8491
▁magkaloob	-8492
▁mahinhing	-8493
▁makabayan	-8494
▁makalipad	-8495
▁mananakaw	-8496
▁maririkit	-8497
▁masilayan	-8498
▁matagpuan	-8499
▁matutuhan	-8500
▁nababagay	-8501
▁nababatid	-8502
▁nabanggit	-8503
▁nagaganap	-8504
▁nagigipit	-8505
▁nagsabing	-8506
▁nagsasaad	-8507
▁nagugutom	-8508
▁naiinggit	-8509
▁nakarinig	-8510
▁namamatay	-8511
▁napatigil	-8512
▁nasilayan	-8513
▁nilagdaan	-8514
▁pagbabasa	-8515
▁pagdaraos	-8516
▁pagdurusa	-8517
▁paglililo	-8518
▁pagnanais	-8519
▁pagsasabi	-8520
▁pagsasaka	-8521
▁pagtataka	-8522
▁pagtatalo	-8523
▁pakakasal	-8524
▁pakinggan	-8525
▁pamilyang	-8526
▁patawarin	-8527
▁paumanhin	-8528
▁paunlarin	-8529
▁pinagpala	-8530
▁pinipitas	-8531
▁pinuhunan	-8532
▁sasakyang	-8533
▁sertipiko	-8534
▁sinabihan	-8535
▁sinundang	-8536
▁sumalakay	-8537
▁sumasapit	-8538
▁tadhanang	-8539
▁Gayunpaman	-8540
▁Ipinatawag	-8541
▁Kaigorotan	-8542
▁Kalahating	-8543
▁Karapatang	-8544
▁Nabilanggo	-8545
▁Naniniwala	-8546
▁Pagmamahal	-8547
▁Panganiban	-8548
▁Philippine	-8549
▁Pinuntahan	-8550
▁Saridandan	-8551
▁alimangong	-8552
▁apatnapung	-8553
▁binantayan	-8554
▁bukambibig	-8555
▁edukasyong	-8556
▁hanapbuhay	-8557
▁hinihiling	-8558
▁ipinangako	-8559
▁ipinatawag	-8560
▁itinanghal	-8561
▁kaluluwang	-8562
▁kaparangan	-8563
▁katularing	-8564
▁katunggali	-8565
▁kumikinang	-8566
▁linggatong	-8567
▁mabubuting	-8568
▁magagaling	-8569
▁magbabalik	-8570
▁magigiting	-8571
▁magkasakit	-8572
▁maglingkod	-8573
▁magtaguyod	-8574
▁magtotroso	-8575
▁makikilala	-8576
▁maligayang	-8577
▁mapanganib	-8578
▁maramdamin	-8579
▁matulungan	-8580
▁mayayamang	-8581
▁nabalitaan	-8582
▁nagduruyan	-8583
▁naghihirap	-8584
▁naglalahad	-8585
▁naglalaman	-8586
▁nagmamahal	-8587
▁nakaligtas	-8588
▁nalilimbag	-8589
▁napakalaki	-8590
▁pagbabayad	-8591
▁pagbubukas	-8592
▁paghahalal	-8593
▁paglalayag	-8594
▁pagtatakda	-8595
▁panambitan	-8596
▁panrehiyon	-8597
▁pasubaling	-8598
▁sandatahan	-8599
▁sinusundan	-8600
▁subsidiary	-8601
▁talampakan	-8602
▁tinulungan	-8603
▁tradisyong	-8604
▁tungkuling	-8605
angailangang	-8606
▁Inanyayahan	-8607
▁Kahalagahan	-8608
▁institusyon	-8609
▁ipaghiganti	-8610
▁kapahamakan	-8611
▁karagdagang	-8612
▁kumakatawan	-8613
▁magpakailan	-8614
▁magsasalita	-8615
▁mahihirapan	-8616
▁mainggiting	-8617
▁makakayanan	-8618
▁makasalanan	-8619
▁nagkakaroon	-8620
▁nagsimulang	-8621
▁nakatanggap	-8622
▁nakatatanda	-8623
▁nangungusap	-8624
▁napakaganda	-8625
▁pagdaralita	-8626
▁pagkagising	-8627
▁pagkakaloob	-8628
▁pagkakasala	-8629
▁pagpapatayo	-8630
▁panghikayat	-8631
▁pilibustero	-8632
▁sinapupunan	-8633
▁superbisyon	-8634
▁tatanggapin	-8635
▁tinatanggap	-8636
▁boluntaryong	-8637
▁eksklusibong	-8638
▁engkantadong	-8639
▁ikinabubuhay	-8640
▁inilalarawan	-8641
▁mandirigmang	-8642
▁naglalarawan	-8643
▁nagmistulang	-8644
▁nagngangalit	-8645
▁nagtatrabaho	-8646
▁nangangasiwa	-8647
▁paglingkuran	-8648
▁pagpapatupad	-8649
▁pagsasabatas	-8650
▁pagtataguyod	-8651
▁pangangasiwa	-8652
▁patutunguhan	-8653
▁tagapagbatas	-8654
▁Lalapindigowa	-8655
▁instrumentong	-8656
▁internasyonal	-8657
▁ipinagbabawal	-8658
▁mapapangasawa	-8659
▁pagpapanatili	-8660
▁pinagtataguan	-8661
▁pinakamahusay	-8662
▁sertipikasyon	-8663
▁tagapagligtas	-8664
▁ipinagmamalaki	-8665
▁pagkamakabayan	-8666
▁pampangasiwaan	-8667
▁pangkapulungan	-8668
▁pansamantalang	-8669
▁pinagkautangan	-8670
▁pinakamagandang	-8671
0)	-8672
AW	-8673
Ar	-8674
HH	-8675
IM	-8676
YA	-8677
ew	-8678
ll	-8679
ui	-8680
uu	-8681
ve	-8682
!!!	-8683
6-1	-8684
AMB	-8685
Bin	-8686
Dum	-8687
HAN	-8688
Hum	-8689
Low	-8690
Lum	-8691
Man	-8692
Mas	-8693
Mat	-8694
Nag	-8695
Nin	-8696
Opo	-8697
Pas	-8698
Pin	-8699
San	-8700
Sap	-8701
Sas	-8702
Sig	-8703
Sin	-8704
Tit	-8705
agn	-8706
ale	-8707
alm	-8708
ams	-8709
ayd	-8710
ber	-8711
bis	-8712
buk	-8713
def	-8714
eks	-8715
eme	-8716
ert	-8717
ese	-8718
eth	-8719
gil	-8720
hid	-8721
hih	-8722
ico	-8723
ide	-8724
iki	-8725
kit	-8726
mok	-8727
mos	-8728
nos	-8729
oli	-8730
omb	-8731
ond	-8732
peo	-8733
pio	-8734
ple	-8735
pok	-8736
ram	-8737
ras	-8738
rib	-8739
rid	-8740
sar	-8741
ser	-8742
sul	-8743
tub	-8744
uad	-8745
uda	-8746
uoy	-8747
wil	-8748
yed	-8749
▁11	-8750
▁12	-8751
▁2,	-8752
▁3:	-8753
▁4:	-8754
▁5:	-8755
▁6:	-8756
▁9:	-8757
▁Ch	-8758
▁Iw	-8759
▁Ku	-8760
▁Mo	-8761
▁Ro	-8762
▁Ya	-8763
!...	-8764
Ilog	-8765
Mbgl	-8766
Miya	-8767
Naku	-8768
Pero	-8769
Sino	-8770
Taga	-8771
abla	-8772
adag	-8773
ahen	-8774
ahid	-8775
ahis	-8776
alya	-8777
amil	-8778
aria	-8779
ario	-8780
asak	-8781
asay	-8782
asop	-8783
atil	-8784
atim	-8785
atok	-8786
ayom	-8787
diin	-8788
dila	-8789
edia	-8790
emor	-8791
endi	-8792
erpe	-8793
erti	-8794
gong	-8795
ibok	-8796
ikaw	-8797
impi	-8798
inog	-8799
ipid	-8800
isik	-8801
isis	-8802
iuna	-8803
kang	-8804
kest	-8805
kuro	-8806
laki	-8807
lead	-8808
luko	-8809
mula	-8810
muni	-8811
offi	-8812
onso	-8813
opol	-8814
pala	-8815
ribo	-8816
rita	-8817
salo	-8818
sari	-8819
ship	-8820
sura	-8821
ting	-8822
ubin	-8823
udla	-8824
ugaw	-8825
uhug	-8826
uipo	-8827
uity	-8828
ukab	-8829
umid	-8830
umon	-8831
upin	-8832
urak	-8833
urol	-8834
uyot	-8835
walo	-8836
wita	-8837
yena	-8838
▁10:	-8839
▁23.	-8840
▁25,	-8841
▁Art	-8842
▁Aya	-8843
▁Bud	-8844
▁Buw	-8845
▁Cap	-8846
▁Eto	-8847
▁Hig	-8848
▁Iya	-8849
▁Kaw	-8850
▁Kup	-8851
▁Lag	-8852
▁Leg	-8853
▁Mac	-8854
▁Mel	-8855
▁Nad	-8856
▁Nai	-8857
▁Per	-8858
▁Pup	-8859
▁Sab	-8860
▁Tay	-8861
▁Teb	-8862
▁Tig	-8863
▁Tom	-8864
▁Toy	-8865
▁Uma	-8866
▁Yum	-8867
▁bel	-8868
▁buo	-8869
▁dap	-8870
▁dem	-8871
▁dug	-8872
▁gig	-8873
▁gob	-8874
▁gug	-8875
▁iwi	-8876
▁lap	-8877
▁leh	-8878
▁los	-8879
▁lus	-8880
▁pot	-8881
▁rad	-8882
▁ret	-8883
▁sep	-8884
▁sib	-8885
▁sos	-8886
▁tel	-8887
▁tir	-8888
▁tol	-8889
▁tub	-8890
▁wal	-8891
Anong	-8892
Bayan	-8893
Buong	-8894
Dahan	-8895
Iiyak	-8896
Iyong	-8897
Lahat	-8898
Mahal	-8899
aalab	-8900
aalis	-8901
aalok	-8902
aanim	-8903
abawi	-8904
abida	-8905
adako	-8906
adlad	-8907
adlak	-8908
adtad	-8909
agpak	-8910
ainit	-8911
akong	-8912
akyan	-8913
alain	-8914
alamb	-8915
alisa	-8916
alsik	-8917
amiha	-8918
amisa	-8919
anaag	-8920
anasa	-8921
angga	-8922
anood	-8923
antad	-8924
antas	-8925
anyak	-8926
apian	-8927
apuan	-8928
apula	-8929
arhan	-8930
asaan	-8931
aspas	-8932
aston	-8933
atiis	-8934
atras	-8935
atriz	-8936
awagi	-8937
egula	-8938
ehong	-8939
emiko	-8940
hanga	-8941
ibigo	-8942
igang	-8943
iglas	-8944
ikano	-8945
iklab	-8946
iknik	-8947
iksik	-8948
ility	-8949
imawa	-8950
imbar	-8951
imlim	-8952
inaos	-8953
indol	-8954
indra	-8955
ingil	-8956
intab	-8957
ipagt	-8958
ipint	-8959
iraan	-8960
irapa	-8961
iyano	-8962
kasan	-8963
labis	-8964
lakad	-8965
lanca	-8966
linga	-8967
mundo	-8968
peras	-8969
ports	-8970
rimon	-8971
sanan	-8972
sanga	-8973
silip	-8974
takot	-8975
tanim	-8976
tibay	-8977
torya	-8978
ubaya	-8979
ugmok	-8980
ukano	-8981
uklam	-8982
uklay	-8983
ukump	-8984
ulain	-8985
ulano	-8986
ultur	-8987
umpak	-8988
unday	-8989
ungal	-8990
ungot	-8991
unyon	-8992
urnal	-8993
usisa	-8994
uyasu	-8995
ythag	-8996
▁Alem	-8997
▁Alim	-8998
▁Amer	-8999
▁Apat	-9000
▁Cord	-9001
▁Daig	-9002
▁Guev	-9003
▁Ilaw	-9004
▁Inih	-9005
▁Judi	-9006
▁Kano	-9007
▁Kasi	-9008
▁Kumb	-9009
▁Lamb	-9010
▁Lola	-9011
▁Lolo	-9012
▁Magu	-9013
▁Manl	-9014
▁Mata	-9015
▁Pagl	-9016
▁Pagp	-9017
▁Paru	-9018
▁Pebo	-9019
▁Poon	-9020
▁Pulo	-9021
▁Sakb	-9022
▁Sama	-9023
▁Sige	-9024
▁Tama	-9025
▁Tata	-9026
▁Yamb	-9027
▁baha	-9028
▁balo	-9029
▁bulo	-9030
▁buod	-9031
▁dapt	-9032
▁dipa	-9033
▁dumi	-9034
▁ikab	-9035
▁ikas	-9036
▁ilal	-9037
▁imik	-9038
▁inir	-9039
▁inis	-9040
▁itso	-9041
▁kara	-9042
▁kata	-9043
▁kati	-9044
▁kuko	-9045
▁kuro	-9046
▁laro	-9047
▁liku	-9048
▁lima	-9049
▁lins	-9050
▁lira	-9051
▁mail	-9052
▁mano	-9053
▁mura	-9054
▁myth	-9055
▁naih	-9056
▁nana	-9057
▁ngum	-9058
▁perp	-9059
▁pipi	-9060
▁porm	-9061
▁puma	-9062
▁pusa	-9063
▁pust	-9064
▁ramo	-9065
▁salu	-9066
▁sant	-9067
▁serp	-9068
▁solo	-9069
▁sukd	-9070
▁trah	-9071
▁tuka	-9072
▁ubos	-9073
▁uhay	-9074
▁uuwi	-9075
▁walo	-9076
Halina	-9077
Iaayon	-9078
Ibarra	-9079
Lalaki	-9080
Mabuti	-9081
Parang	-9082
Walang	-9083
aaruga	-9084
abilis	-9085
abulan	-9086
abusaw	-9087
agakat	-9088
agalak	-9089
agatin	-9090
agayon	-9091
agisag	-9092
ahaman	-9093
ahanay	-9094
ahasan	-9095
ahawak	-9096
akahin	-9097
alakip	-9098
alasan	-9099
alasin	-9100
alatag	-9101
alaueg	-9102
alayaw	-9103
aliwan	-9104
alyero	-9105
ambong	-9106
amhati	-9107
amunin	-9108
andila	-9109
andili	-9110
angkot	-9111
anglaw	-9112
antaon	-9113
anting	-9114
apalad	-9115
aranas	-9116
arapin	-9117
asahan	-9118
atagin	-9119
atanto	-9120
awisan	-9121
awitan	-9122
ayuang	-9123
bahala	-9124
bulong	-9125
eklamo	-9126
entral	-9127
eriana	-9128
ernong	-9129
etheus	-9130
galang	-9131
hambal	-9132
ibayan	-9133
idilim	-9134
igmaan	-9135
iimbot	-9136
ikaing	-9137
ikulan	-9138
iligid	-9139
ilipit	-9140
illera	-9141
ilyong	-9142
iminal	-9143
iwalat	-9144
iyawan	-9145
kainan	-9146
kislap	-9147
limang	-9148
lutang	-9149
minsan	-9150
parong	-9151
sindak	-9152
tanong	-9153
tulong	-9154
ubuang	-9155
ubukan	-9156
ubukid	-9157
ugitan	-9158
ulagta	-9159
ulalas	-9160
ulanan	-9161
ulgado	-9162
uluwal	-9163
umihan	-9164
unahin	-9165
ungkal	-9166
untung	-9167
unugin	-9168
unuran	-9169
unwari	-9170
uunlad	-9171
wiling	-9172
▁Adlaw	-9173
▁Asong	-9174
▁Ating	-9175
▁Ayoko	-9176
▁Batay	-9177
▁Bikol	-9178
▁Bukal	-9179
▁Dahan	-9180
▁Dinig	-9181
▁Edipo	-9182
▁Gawin	-9183
▁Gubat	-9184
▁Hawak	-9185
▁Hayop	-9186
▁Hesuk	-9187
▁Hirap	-9188
▁Ibang	-9189
▁Ildef	-9190
▁Kapal	-9191
▁Kasop	-9192
▁Katap	-9193
▁Kayum	-9194
▁Lihim	-9195
▁Likas	-9196
▁Lumul	-9197
▁Luson	-9198
▁Maawa	-9199
▁Mapat	-9200
▁Namum	-9201
▁Nanay	-9202
▁Napat	-9203
▁Odang	-9204
▁Panga	-9205
▁Pilar	-9206
▁Polin	-9207
▁Recto	-9208
▁Sumas	-9209
▁Takot	-9210
▁Tapat	-9211
▁Tinat	-9212
▁Totoo	-9213
▁Waray	-9214
▁alkon	-9215
▁antok	-9216
▁anupa	-9217
▁armas	-9218
▁binur	-9219
▁bisyo	-9220
▁bitui	-9221
▁bulsa	-9222
▁certi	-9223
▁dapit	-9224
▁dasal	-9225
▁dawag	-9226
▁doong	-9227
▁emper	-9228
▁gayak	-9229
▁hanay	-9230
▁hinig	-9231
▁hiram	-9232
▁hitik	-9233
▁hitso	-9234
▁hulog	-9235
▁huwad	-9236
▁iabot	-9237
▁imbit	-9238
▁ipang	-9239
▁kabin	-9240
▁kahap	-9241
▁kahon	-9242
▁kaita	-9243
▁kapak	-9244
▁kasak	-9245
▁kasan	-9246
▁kasoy	-9247
▁katan	-9248
▁kayat	-9249
▁kisap	-9250
▁kisig	-9251
▁kolon	-9252
▁kurik	-9253
▁lalag	-9254
▁lente	-9255
▁liban	-9256
▁limos	-9257
▁lumil	-9258
▁lupon	-9259
▁maawa	-9260
▁madad	-9261
▁maing	-9262
▁malas	-9263
▁manin	-9264
▁mapas	-9265
▁matim	-9266
▁medyo	-9267
▁multo	-9268
▁nahah	-9269
▁nakag	-9270
▁nakah	-9271
▁nakam	-9272
▁nalig	-9273
▁nanay	-9274
▁nanga	-9275
▁napal	-9276
▁napip	-9277
▁napup	-9278
▁nilag	-9279
▁nomin	-9280
▁ordin	-9281
▁pahih	-9282
▁palig	-9283
▁pares	-9284
▁parte	-9285
▁patul	-9286
▁payag	-9287
▁payak	-9288
▁pilat	-9289
▁pilay	-9290
▁pinaa	-9291
▁pinar	-9292
▁plano	-9293
▁plasa	-9294
▁plead	-9295
▁popul	-9296
▁pulos	-9297
▁punan	-9298
▁sakim	-9299
▁saksi	-9300
▁sanay	-9301
▁setro	-9302
▁sikdo	-9303
▁sobra	-9304
▁subok	-9305
▁supil	-9306
▁suson	-9307
▁sutla	-9308
▁tanso	-9309
▁tawad	-9310
▁tikas	-9311
▁torso	-9312
▁trigo	-9313
▁unawa	-9314
▁upuan	-9315
▁walis	-9316
▁yagit	-9317
Ituturo	-9318
Papasok	-9319
Pilipin	-9320
Pupunta	-9321
aangkin	-9322
aaralan	-9323
abasang	-9324
agdasal	-9325
agmulan	-9326
ahangga	-9327
akaloob	-9328
alamuha	-9329
alastas	-9330
aligtad	-9331
alisang	-9332
ambilat	-9333
analapi	-9334
andugan	-9335
angyang	-9336
antihan	-9337
apakpak	-9338
aralang	-9339
ariwara	-9340
asmasan	-9341
atangis	-9342
atulang	-9343
awagang	-9344
awangis	-9345
bibigay	-9346
ernador	-9347
hiwalay	-9348
ikitang	-9349
inggang	-9350
intayin	-9351
isilang	-9352
isipsip	-9353
itanong	-9354
lawigan	-9355
lumpung	-9356
officio	-9357
padahan	-9358
panahon	-9359
uhayang	-9360
uktutan	-9361
umbasan	-9362
umiglas	-9363
ungawan	-9364
usahang	-9365
ustuhin	-9366
▁Andong	-9367
▁Apollo	-9368
▁Banlak	-9369
▁Blanca	-9370
▁Buhong	-9371
▁Carpio	-9372
▁Dakila	-9373
▁Doming	-9374
▁Ganoon	-9375
▁Gumawa	-9376
▁Halina	-9377
▁Hangin	-9378
▁Ikatlo	-9379
▁Ilongo	-9380
▁Inabot	-9381
▁Ipinal	-9382
▁Ipugaw	-9383
▁Kagaya	-9384
▁Kidlat	-9385
▁Kikong	-9386
▁Kilala	-9387
▁Kinain	-9388
▁Komite	-9389
▁Kristo	-9390
▁Kuaman	-9391
▁Kuyasu	-9392
▁Layang	-9393
▁Limang	-9394
▁Lumaki	-9395
▁Lunsod	-9396
▁Mabini	-9397
▁Madrid	-9398
▁Maitim	-9399
▁Malayo	-9400
▁Manila	-9401
▁Masdan	-9402
▁Mataas	-9403
▁Medusa	-9404
▁Nagsas	-9405
▁Nagtat	-9406
▁Niyong	-9407
▁Pabula	-9408
▁Pagkak	-9409
▁Pagsas	-9410
▁Perlas	-9411
▁Pinags	-9412
▁Pythag	-9413
▁Sariwa	-9414
▁Sining	-9415
▁Toyang	-9416
▁Tuwing	-9417
▁Umahon	-9418
▁Umiyak	-9419
▁Yuyuko	-9420
▁abutin	-9421
▁agimat	-9422
▁alisin	-9423
▁alitan	-9424
▁angkan	-9425
▁aralin	-9426
▁artist	-9427
▁asahan	-9428
▁bagama	-9429
▁balite	-9430
▁bigkis	-9431
▁binili	-9432
▁bumasa	-9433
▁bumati	-9434
▁bumili	-9435
▁bumuka	-9436
▁damhin	-9437
▁dangan	-9438
▁datung	-9439
▁demokr	-9440
▁dispos	-9441
▁dumami	-9442
▁eksena	-9443
▁employ	-9444
▁garuda	-9445
▁ginang	-9446
▁giting	-9447
▁gurong	-9448
▁halama	-9449
▁halong	-9450
▁hangal	-9451
▁hinala	-9452
▁hinhin	-9453
▁hinuli	-9454
▁histor	-9455
▁ibayad	-9456
▁ikasal	-9457
▁ikmong	-9458
▁imahin	-9459
▁impluw	-9460
▁integr	-9461
▁inuuna	-9462
▁ipinak	-9463
▁ipinat	-9464
▁ipuipo	-9465
▁itapon	-9466
▁itsura	-9467
▁iwanan	-9468
▁kaagaw	-9469
▁kaanak	-9470
▁kaginh	-9471
▁kalahi	-9472
▁kanais	-9473
▁kanina	-9474
▁kapaki	-9475
▁kapara	-9476
▁kasiph	-9477
▁katawa	-9478
▁koalis	-9479
▁kompit	-9480
▁kumita	-9481
▁kumpas	-9482
▁kumpis	-9483
▁kurang	-9484
▁lagnat	-9485
▁maagap	-9486
▁maalam	-9487
▁maalis	-9488
▁madugo	-9489
▁magkap	-9490
▁malaon	-9491
▁mapaso	-9492
▁masawi	-9493
▁masira	-9494
▁matuto	-9495
▁medium	-9496
▁mulala	-9497
▁naglul	-9498
▁nahati	-9499
▁naluto	-9500
▁nangas	-9501
▁napagb	-9502
▁napapa	-9503
▁nasira	-9504
▁nasyon	-9505
▁natuwa	-9506
▁nayong	-9507
▁ningas	-9508
▁orkest	-9509
▁pagbuo	-9510
▁pagmum	-9511
▁palalo	-9512
▁palong	-9513
▁piping	-9514
▁propor	-9515
▁puspos	-9516
▁puwang	-9517
▁saklap	-9518
▁sakong	-9519
▁salinl	-9520
▁sawing	-9521
▁singaw	-9522
▁singil	-9523
▁subali	-9524
▁sumira	-9525
▁tagdan	-9526
▁tanyag	-9527
▁tiniis	-9528
▁titulo	-9529
▁tiwala	-9530
▁tiyaga	-9531
▁tumula	-9532
▁tuwina	-9533
▁umakay	-9534
▁umimik	-9535
▁umisip	-9536
▁usbong	-9537
▁utopia	-9538
Sapagkat	-9539
abalahan	-9540
ahinuhod	-9541
alabasan	-9542
alikuran	-9543
amanglaw	-9544
apakinig	-9545
araanang	-9546
asunduan	-9547
atakutan	-9548
atanghal	-9549
bersyong	-9550
igtasang	-9551
ilanlang	-9552
ilimutan	-9553
iliwanag	-9554
inggitan	-9555
intangan	-9556
ipitagan	-9557
kalayuan	-9558
olohikal	-9559
pagaling	-9560
pirasong	-9561
sarimbar	-9562
ugtungan	-9563
ukuwento	-9564
ulturero	-9565
umingiti	-9566
▁Bandina	-9567
▁Bantong	-9568
▁Birheng	-9569
▁Bitiwan	-9570
▁Cagayan	-9571
▁Dagling	-9572
▁Dinggin	-9573
▁Diumano	-9574
▁Europeo	-9575
▁Gagamba	-9576
▁Gintong	-9577
▁Granada	-9578
▁Haharap	-9579
▁Hinugot	-9580
▁Humanda	-9581
▁Ikalima	-9582
▁Ilukano	-9583
▁Journal	-9584
▁Kulaman	-9585
▁Lumipad	-9586
▁Lumitaw	-9587
▁Mahalin	-9588
▁Malinaw	-9589
▁Matangi	-9590
▁Nabuhay	-9591
▁Nakinig	-9592
▁Nangako	-9593
▁Nanging	-9594
▁Napatay	-9595
▁Paggawa	-9596
▁Palayok	-9597
▁Pinasan	-9598
▁Pinigil	-9599
▁Pupunta	-9600
▁Selyang	-9601
▁Sumakay	-9602
▁Tinipon	-9603
▁Tumalon	-9604
▁Tungkol	-9605
▁Yokasta	-9606
▁alagaan	-9607
▁awtonom	-9608
▁bagoong	-9609
▁bagyong	-9610
▁bahagya	-9611
▁bawalan	-9612
▁binalot	-9613
▁binuhay	-9614
▁buntong	-9615
▁buwitre	-9616
▁dagling	-9617
▁datapwa	-9618
▁diyaryo	-9619
▁dumatal	-9620
▁dustang	-9621
▁eskwela	-9622
▁gandang	-9623
▁gasatan	-9624
▁gumugol	-9625
▁haharap	-9626
▁hangaan	-9627
▁hayaang	-9628
▁hinabol	-9629
▁hinamak	-9630
▁humanda	-9631
▁humigit	-9632
▁ibalita	-9633
▁idinaos	-9634
▁iisipin	-9635
▁ikalawa	-9636
▁ikintal	-9637
▁inakala	-9638
▁indayog	-9639
▁iniutos	-9640
▁ipagtat	-9641
▁ipakita	-9642
▁ipinagk	-9643
▁isaisip	-9644
▁isilang	-9645
▁kakanin	-9646
▁kalasag	-9647
▁kanayon	-9648
▁kapilas	-9649
▁karamay	-9650
▁karayom	-9651
▁karibal	-9652
▁kinasas	-9653
▁konseho	-9654
▁kulisap	-9655
▁kumanta	-9656
▁kuwarto	-9657
▁lagapak	-9658
▁lalakad	-9659
▁leghorn	-9660
▁letrang	-9661
▁libreng	-9662
▁lilipad	-9663
▁linyang	-9664
▁liwasan	-9665
▁luhaang	-9666
▁lumakas	-9667
▁lumukso	-9668
▁lumulan	-9669
▁lumusob	-9670
▁lunting	-9671
▁maamong	-9672
▁magdala	-9673
▁magsama	-9674
▁magsaya	-9675
▁magsing	-9676
▁magtamo	-9677
▁magtayo	-9678
▁magtiis	-9679
▁makatao	-9680
▁makinig	-9681
▁makipan	-9682
▁malagim	-9683
▁malalag	-9684
▁malilim	-9685
▁maluwat	-9686
▁mamulat	-9687
▁mangung	-9688
▁masigla	-9689
▁matalik	-9690
▁matanaw	-9691
▁matatap	-9692
▁matulad	-9693
▁mistula	-9694
▁mithiin	-9695
▁musikal	-9696
▁naaakit	-9697
▁nahabag	-9698
▁nakalul	-9699
▁nakamit	-9700
▁namunga	-9701
▁nangako	-9702
▁nanguha	-9703
▁napigil	-9704
▁natanaw	-9705
▁natulog	-9706
▁negrita	-9707
▁nilusob	-9708
▁ninakaw	-9709
▁paanong	-9710
▁pagbili	-9711
▁pagdami	-9712
▁paglaki	-9713
▁pagtula	-9714
▁paharap	-9715
▁palakas	-9716
▁palayan	-9717
▁pambata	-9718
▁panalok	-9719
▁panitik	-9720
▁papalit	-9721
▁papeles	-9722
▁paraiso	-9723
▁pasukan	-9724
▁pinakas	-9725
▁pulisya	-9726
▁pumalit	-9727
▁pumitas	-9728
▁pumutok	-9729
▁pumutol	-9730
▁putlain	-9731
▁putukan	-9732
▁putulin	-9733
▁sagutin	-9734
▁samahan	-9735
▁sikreto	-9736
▁sinasal	-9737
▁sinulid	-9738
▁sisikat	-9739
▁sulatan	-9740
▁sulatin	-9741
▁sumilip	-9742
▁sumpaan	-9743
▁taimtim	-9744
▁tandaan	-9745
▁tantuin	-9746
▁tukuyin	-9747
▁tumugon	-9748
▁tumungo	-9749
▁tumutol	-9750
▁ugaling	-9751
▁usaping	-9752
agpatuloy	-9753
ahagulgol	-9754
aklolohan	-9755
alisasyon	-9756
anganyaya	-9757
anggaling	-9758
awanggawa	-9759
intangang	-9760
iwangwang	-9761
operatiba	-9762
ukulangin	-9763
uwentuhan	-9764
▁Bantawan	-9765
▁Batangas	-9766
▁Bikulano	-9767
▁Bukidnon	-9768
▁Darangan	-9769
▁Guevarra	-9770
▁Hinampas	-9771
▁Ibinigay	-9772
▁Isinulat	-9773
▁Josefina	-9774
▁Kabataan	-9775
▁Kaluluwa	-9776
▁Kasopiya	-9777
▁Katauhan	-9778
▁Macarang	-9779
▁Magbuhat	-9780
▁Magtatag	-9781
▁Mahigpit	-9782
▁Mindanaw	-9783
▁Naglaban	-9784
▁Naglagay	-9785
▁Nagyakap	-9786
▁Napadaan	-9787
▁Palayain	-9788
▁Persyano	-9789
▁Pinakain	-9790
▁Polinese	-9791
▁Sakbawan	-9792
▁Tumanggi	-9793
▁adhikain	-9794
▁akalaing	-9795
▁alaalang	-9796
▁alikabok	-9797
▁babagsak	-9798
▁balahibo	-9799
▁bigkasan	-9800
▁butihing	-9801
▁desisyon	-9802
▁dibisyon	-9803
▁diyosang	-9804
▁etnikong	-9805
▁gagapang	-9806
▁gamiting	-9807
▁gumulang	-9808
▁halatang	-9809
▁hinirang	-9810
▁ibabalik	-9811
▁idinulog	-9812
▁ikinalat	-9813
▁ilalapat	-9814
▁inilabas	-9815
▁ipabatid	-9816
▁ipinasok	-9817
▁isinabit	-9818
▁isinabog	-9819
▁isinumpa	-9820
▁isisigaw	-9821
▁ispiritu	-9822
▁kabiguan	-9823
▁kabuuang	-9824
▁kahambal	-9825
▁kahirapa	-9826
▁kakainin	-9827
▁kakaunti	-9828
▁kalakhan	-9829
▁kalinang	-9830
▁kaliwang	-9831
▁kapantay	-9832
▁kapiling	-9833
▁karaniwa	-9834
▁katuwira	-9835
▁kawalang	-9836
▁kinausap	-9837
▁kriminal	-9838
▁kwentong	-9839
▁lalampas	-9840
▁lingapin	-9841
▁liwasang	-9842
▁lulutang	-9843
▁lumalayo	-9844
▁lumingap	-9845
▁mabagsik	-9846
▁mabilang	-9847
▁mabining	-9848
▁maghanap	-9849
▁magpasya	-9850
▁magsikap	-9851
▁magsugal	-9852
▁mahirang	-9853
▁mahuhuli	-9854
▁makaalis	-9855
▁makakuha	-9856
▁makasama	-9857
▁malaglag	-9858
▁manligaw	-9859
▁mapadaan	-9860
▁mapapasa	-9861
▁marahang	-9862
▁masasabi	-9863
▁masasaya	-9864
▁masisira	-9865
▁masungit	-9866
▁matataas	-9867
▁matulain	-9868
▁mayabong	-9869
▁minanang	-9870
▁mungkahi	-9871
▁musikang	-9872
▁nabahala	-9873
▁nagawang	-9874
▁nagbilin	-9875
▁naggayak	-9876
▁naghanap	-9877
▁nagkaisa	-9878
▁nagpilit	-9879
▁nagsadya	-9880
▁nagsaing	-9881
▁nahalata	-9882
▁naiibang	-9883
▁nakadapo	-9884
▁nakatali	-9885
▁nakausap	-9886
▁nakulong	-9887
▁namihasa	-9888
▁nanalong	-9889
▁napagpas	-9890
▁napiling	-9891
▁nasaktan	-9892
▁natatamo	-9893
▁natikman	-9894
▁ngitngit	-9895
▁ningning	-9896
▁niyaring	-9897
▁pagdalaw	-9898
▁pagdinig	-9899
▁paggalaw	-9900
▁paggugol	-9901
▁paghanap	-9902
▁paglaban	-9903
▁pagpigil	-9904
▁pagsapit	-9905
▁pagsasal	-9906
▁pakiusap	-9907
▁palakpak	-9908
▁palayain	-9909
▁pamanang	-9910
▁pamaraan	-9911
▁pandinig	-9912
▁pangahas	-9913
▁pangamba	-9914
▁papanhik	-9915
▁pinakama	-9916
▁pinapalo	-9917
▁pinipint	-9918
▁pirasong	-9919
▁pleading	-9920
▁practice	-9921
▁prayleng	-9922
▁saganang	-9923
▁salaming	-9924
▁salaping	-9925
▁sampalok	-9926
▁sibilyan	-9927
▁sisidlan	-9928
▁soloista	-9929
▁sumbrero	-9930
▁sumilong	-9931
▁suspindi	-9932
▁tagapagb	-9933
▁talastas	-9934
▁tatlumpu	-9935
▁teknikal	-9936
▁tinalian	-9937
▁tinamaan	-9938
▁tindahan	-9939
▁tinunton	-9940
▁tinyente	-9941
▁tulisang	-9942
▁tumugtog	-9943
intulutang	-9944
sanggalang	-9945
▁Andromeda	-9946
▁Bathalang	-9947
▁Filipinas	-9948
▁Ikinulong	-9949
▁Ildefonso	-9950
▁Kabikulan	-9951
▁Kapagdaka	-9952
▁Magbangon	-9953
▁Makalipas	-9954
▁Matandang	-9955
▁Mongindra	-9956
▁Naglakbay	-9957
▁Nagsimula	-9958
▁Sakristan	-9959
▁Tarabusaw	-9960
▁Tiningnan	-9961
▁bandilang	-9962
▁dalamhati	-9963
▁ebidensya	-9964
▁higanteng	-9965
▁humantong	-9966
▁ikapitong	-9967
▁inihandog	-9968
▁ipagbawal	-9969
▁ipaglihim	-9970
▁isinagawa	-9971
▁kababalag	-9972
▁kabahayan	-9973
▁kabaitang	-9974
▁kabaliwan	-9975
▁kabayanan	-9976
▁kabuluhan	-9977
▁kagalakan	-9978
▁kahariang	-9979
▁kaitaasan	-9980
▁kalinisan	-9981
▁kaluwagan	-9982
▁karaingan	-9983
▁katandaan	-9984
▁lambingan	-9985
▁lilimutin	-9986
▁lumalakad	-9987
▁lumilitaw	-9988
▁mabalasik	-9989
▁maestrong	-9990
▁magagalit	-9991
▁magaspang	-9992
▁magdadala	-9993
▁magdiwang	-9994
▁maghapong	-9995
▁magkaaway	-9996
▁magkabila	-9997
▁magtanong	-9998
▁mahabagin	-9999
▁mahuhulog	-10000
▁mailigtas	-10001
▁makatagpo	-10002
▁malalaman	-10003
▁malambing	-10004
▁malilimot	-10005
▁malimutan	-10006
▁maninisid	-10007
▁mapahamak	-10008
▁mapaparam	-10009
▁masalalay	-10010
▁masiyahan	-10011
▁masugatan	-10012
▁matanggap	-10013
▁matatanaw	-10014
▁mumunting	-10015
▁nagagalit	-10016
▁nagdadala	-10017
▁nagdaraan	-10018
▁nagkamali	-10019
▁nagkulang	-10020
▁nagpakita	-10021
▁nakaaaliw	-10022
▁nakakapag	-10023
▁nakangiti	-10024
▁nakaraang	-10025
▁nakatikom	-10026
▁nalathala	-10027
▁nalilikha	-10028
▁nalimutan	-10029
▁nalulunod	-10030
▁napilitan	-10031
▁nasugatan	-10032
▁nasusunog	-10033
▁natanggap	-10034
▁nawawalan	-10035
▁nililiyag	-10036
▁pagbabayo	-10037
▁pagdaraan	-10038
▁pagkabigo	-10039
▁pagkatuto	-10040
▁pagluluto	-10041
▁pagmasdan	-10042
▁pagpipita	-10043
▁pagsuyong	-10044
▁pagtugtog	-10045
▁pahayagan	-10046
▁palakihin	-10047
▁paliwanag	-10048
▁pamamahay	-10049
▁pamangkin	-10050
▁pampangin	-10051
▁pananamit	-10052
▁pandanggo	-10053
▁patatagin	-10054
▁pinagdaan	-10055
▁pinayuhan	-10056
▁salinlahi	-10057
▁sapagakat	-10058
▁sinimulan	-10059
▁sinisinta	-10060
▁taginting	-10061
▁talinhaga	-10062
▁teritoryo	-10063
▁titingnan	-10064
▁tumandang	-10065
▁tumatawag	-10066
▁tumututol	-10067
akasalubong	-10068
asalukuyang	-10069
▁Artikulong	-10070
▁Cordillera	-10071
▁Hesukristo	-10072
▁Katarungan	-10073
▁Kristiyano	-10074
▁Makanungan	-10075
▁Nabalitaan	-10076
▁Nagkataong	-10077
▁Pinagmulan	-10078
▁Pythagoras	-10079
▁Silanganan	-10080
▁asosasyong	-10081
▁balagtasan	-10082
▁bibigkasin	-10083
▁bilanggong	-10084
▁binibigyan	-10085
▁binurdahan	-10086
▁bumubulong	-10087
▁durungawan	-10088
▁emperatriz	-10089
▁ginagawang	-10090
▁gobernador	-10091
▁ibinibigay	-10092
▁ikinagalit	-10093
▁ikinamatay	-10094
▁iniingatan	-10095
▁inilalabas	-10096
▁kabihasnan	-10097
▁kabuktutan	-10098
▁kadakilaan	-10099
▁kahulugang	-10100
▁kamatayang	-10101
▁kapalarang	-10102
▁kapansanan	-10103
▁kapintasan	-10104
▁kaugaliang	-10105
▁kondisyong	-10106
▁konsensiya	-10107
▁kukulangin	-10108
▁lawlawigan	-10109
▁maaliwalas	-10110
▁mabulaklak	-10111
▁magbabawas	-10112
▁magigising	-10113
▁magkakapit	-10114
▁magmamaliw	-10115
▁magmukhang	-10116
▁magtrabaho	-10117
▁makakasama	-10118
▁mamahaling	-10119
▁mapagmahal	-10120
▁maramdaman	-10121
▁marangyang	-10122
▁mararating	-10123
▁matipunong	-10124
▁matulungin	-10125
▁nabibilang	-10126
▁nagliliyab	-10127
▁nagmakaawa	-10128
▁nagpahinga	-10129
▁nagsisipan	-10130
▁nagtatakda	-10131
▁nakakaalam	-10132
▁nakapagpap	-10133
▁nakatingin	-10134
▁nakibahagi	-10135
▁nakikiusap	-10136
▁nanatiling	-10137
▁naniningil	-10138
▁napapaloob	-10139
▁natitirang	-10140
▁pagbanggit	-10141
▁pagbibilog	-10142
▁paghahabol	-10143
▁paghahamok	-10144
▁paghakbang	-10145
▁pagkabalda	-10146
▁pagkabigla	-10147
▁pagsalakay	-10148
▁pagtatatag	-10149
▁pagtutulad	-10150
▁pakikipagk	-10151
▁pakikipagt	-10152
▁panalangin	-10153
▁pangatlong	-10154
▁panggabing	-10155
▁pangunguha	-10156
▁papayagang	-10157
▁paroroonan	-10158
▁pasalaysay	-10159
▁pinadalhan	-10160
▁pinangarap	-10161
▁pinayagang	-10162
▁pormasyong	-10163
▁produksyon	-10164
▁regulasyon	-10165
▁sanggunian	-10166
▁sansinukob	-10167
▁sapilitang	-10168
▁sinambilat	-10169
▁sinasabing	-10170
▁sinasariwa	-10171
▁tinangkang	-10172
▁tinatanong	-10173
▁tumutulong	-10174
▁tunggalian	-10175
ipagkaibigan	-10176
▁Ipinakilala	-10177
▁Kapulungang	-10178
▁Maguindanao	-10179
▁Panghalalan	-10180
▁Pinampangan	-10181
▁binabanggit	-10182
▁ikinabahala	-10183
▁imahinasyon	-10184
▁inanyayahan	-10185
▁ipahintulot	-10186
▁isinalaysay	-10187
▁kalagitnaan	-10188
▁kaligtasang	-10189
▁kasingganda	-10190
▁katiwasayan	-10191
▁kooperatiba	-10192
▁luwalhating	-10193
▁madamdaming	-10194
▁magkakasama	-10195
▁magtagumpay	-10196
▁magtataksil	-10197
▁makipagkita	-10198
▁mambibigkas	-10199
▁manghahalal	-10200
▁mangingibig	-10201
▁maparusahan	-10202
▁minumutyang	-10203
▁nagbabantay	-10204
▁naglalayong	-10205
▁nagsalaysay	-10206
▁nagsasalita	-10207
▁nagtangkang	-10208
▁nagtatanong	-10209
▁nagulantang	-10210
▁nakahandang	-10211
▁nakasalalay	-10212
▁nalulungkot	-10213
▁nanganganib	-10214
▁nasisiyahan	-10215
▁pagkakaagaw	-10216
▁pagkakamali	-10217
▁pagmamalaki	-10218
▁pagpaparusa	-10219
▁pagpasyahan	-10220
▁pagsasarili	-10221
▁pagtataksil	-10222
▁pakikilaban	-10223
▁pakikitungo	-10224
▁parurusahan	-10225
▁pinakasalan	-10226
▁pinakawalan	-10227
▁propesyonal	-10228
▁sepulturero	-10229
▁sinasadyang	-10230
▁Bungangsakit	-10231
▁Metropolitan	-10232
▁Mitolohiyang	-10233
▁Nagpasalamat	-10234
▁Sangkatauhan	-10235
▁ipinaliwanag	-10236
▁ipinatutupad	-10237
▁kadahilanang	-10238
▁kaginhawahan	-10239
▁kahihinatnan	-10240
▁kamangmangan	-10241
▁kaparusahang	-10242
▁kasangkapang	-10243
▁katotohanang	-10244
▁komunikasyon	-10245
▁magkahiwalay	-10246
▁makipaglaban	-10247
▁mitolohiyang	-10248
▁naghihimutok	-10249
▁naglalagalag	-10250
▁naglilingkod	-10251
▁nagliliwanag	-10252
▁nagmamahalan	-10253
▁nagpasalamat	-10254
▁nagsasaalang	-10255
▁napakaraming	-10256
▁nasyonalismo	-10257
▁pagkakasundo	-10258
▁pagkamatapat	-10259
▁pagpapahirap	-10260
▁pagpapalakad	-10261
▁pagpapatiuna	-10262
▁pagsasaalang	-10263
▁pagsisiyasat	-10264
▁pinakamaliit	-10265
▁proporsyonal	-10266
▁sangkatauhan	-10267
▁sansinukuban	-10268
▁talasalitaan	-10269
▁tinatangisan	-10270
▁bulubunduking	-10271
▁humahalimuyak	-10272
▁ipagtatanggol	-10273
▁kwalipikadong	-10274
▁kwalipikasyon	-10275
▁magkakaibigan	-10276
▁magpahanggang	-10277
▁magtatagumpay	-10278
▁maipaghiganti	-10279
▁makapagsalita	-10280
▁nagniningning	-10281
▁nanunungkulan	-10282
▁napanaginipan	-10283
▁paghihinagpis	-10284
▁pagkakahirang	-10285
▁pampamahalaan	-10286
▁pampananalapi	-10287
▁pangangatawan	-10288
▁pinagmamasdan	-10289
▁pinakamaganda	-10290
▁pinakamayaman	-10291
▁pinangalanang	-10292
▁pinarurusahan	-10293
▁umalingawngaw	-10294
▁makapaghiganti	-10295
▁nagdadalamhati	-10296
▁napakahalagang	-10297
▁pinagtatalunan	-10298
▁tagapagtanggol	-10299
▁nangangahulugan	-10300
▁pagkamamamayang	-10301
):	-10302
.'	-10303
5:	-10304
60	-10305
??	-10306
ER	-10307
Ip	-10308
Is	-10309
OS	-10310
SP	-10311
Si	-10312
US	-10313
bp	-10314
ou	-10315
pi	-10316
sy	-10317
vo	-10318
we	-10319
!",	-10320
-10	-10321
4-3	-10322
5-2	-10323
AMP	-10324
Aba	-10325
Hin	-10326
Hoy	-10327
Isa	-10328
Mam	-10329
Min	-10330
Pup	-10331
UPO	-10332
aca	-10333
ads	-10334
all	-10335
bls	-10336
bol	-10337
bos	-10338
dog	-10339
gay	-10340
hag	-10341
hat	-10342
hhh	-10343
imm	-10344
irt	-10345
isl	-10346
lot	-10347
mol	-10348
nam	-10349
ont	-10350
rok	-10351
rup	-10352
sap	-10353
sue	-10354
tio	-10355
tot	-10356
uar	-10357
uob	-10358
usi	-10359
wag	-10360
yap	-10361
▁1)	-10362
▁He	-10363
▁Ih	-10364
▁SA	-10365
▁Sy	-10366
▁Ts	-10367
▁co	-10368
▁dy	-10369
▁ok	-10370
▁op	-10371
▁py	-10372
▁ro	-10373
▁uy	-10374
AGAW	-10375
AHAT	-10376
AKAR	-10377
AKAS	-10378
AYAN	-10379
Ayaw	-10380
High	-10381
IMUL	-10382
INIS	-10383
Magh	-10384
Mula	-10385
Pagb	-10386
Pers	-10387
SANG	-10388
Sana	-10389
Sige	-10390
Siya	-10391
Tama	-10392
UPOT	-10393
aama	-10394
agiw	-10395
akod	-10396
alta	-10397
alye	-10398
amog	-10399
va	-10400
Mar	-10401
alp	-10402
das	-10403
git	-10404
mah	-10405
rik	-10406
usm	-10407
▁hu	-10408
▁ts	-10409
Tayo	-10410
abab	-10411
akam	-10412
anya	-10413
apin	-10414
aron	-10415
arot	-10416
atis	-10417
atsa	-10418
bibi	-10419
bino	-10420
dong	-10421
ehiy	-10422
elpa	-10423
ende	-10424
enig	-10425
etso	-10426
etua	-10427
fuer	-10428
gang	-10429
guni	-10430
hele	-10431
ibag	-10432
ibin	-10433
ibug	-10434
idos	-10435
ikin	-10436
iksi	-10437
ildo	-10438
ilot	-10439
inid	-10440
inio	-10441
irik	-10442
irot	-10443
isle	-10444
iyuh	-10445
layo	-10446
mbid	-10447
ngay	-10448
okya	-10449
olog	-10450
otan	-10451
otea	-10452
pirm	-10453
pons	-10454
puin	-10455
pula	-10456
rant	-10457
rile	-10458
rino	-10459
rote	-10460
tayo	-10461
tiis	-10462
uano	-10463
ueva	-10464
ulto	-10465
umal	-10466
unoy	-10467
upig	-10468
urda	-10469
uris	-10470
usod	-10471
veto	-10472
wira	-10473
yuko	-10474
▁11:	-10475
▁12:	-10476
▁13:	-10477
▁15:	-10478
▁16:	-10479
▁192	-10480
▁19:	-10481
▁20:	-10482
▁21:	-10483
▁23:	-10484
▁24.	-10485
▁24:	-10486
▁25.	-10487
▁25:	-10488
▁26.	-10489
▁26:	-10490
▁29:	-10491
▁30:	-10492
▁Aso	-10493
▁Biy	-10494
▁Bol	-10495
▁Ceb	-10496
▁Dir	-10497
▁Doo	-10498
▁Gay	-10499
Ah	-10500
STA	-10501
ces	-10502
idi	-10503
iik	-10504
ikd	-10505
ipk	-10506
kok	-10507
men	-10508
mga	-10509
▁Sh	-10510
▁ho	-10511
aang	-10512
abad	-10513
gaan	-10514
ilao	-10515
inti	-10516
isaw	-10517
ktub	-10518
onis	-10519
ulis	-10520
▁Bac	-10521
▁Day	-10522
▁Huh	-10523
▁Iyo	-10524
▁Jac	-10525
▁KAR	-10526
▁Kos	-10527
▁Lar	-10528
▁Lip	-10529
▁Lor	-10530
▁Los	-10531
▁Mau	-10532
▁PAN	-10533
▁PAT	-10534
▁Pen	-10535
▁Pol	-10536
▁Riv	-10537
▁Sat	-10538
▁Siy	-10539
▁Sub	-10540
▁Taw	-10541
▁Tit	-10542
▁Tup	-10543
▁Tut	-10544
▁alo	-10545
▁apl	-10546
▁bik	-10547
▁dec	-10548
▁der	-10549
▁dob	-10550
▁hib	-10551
▁kau	-10552
▁lil	-10553
▁lol	-10554
▁mis	-10555
▁mot	-10556
▁pih	-10557
▁rum	-10558
▁sch	-10559
▁sed	-10560
▁ugn	-10561
▁upo	-10562
▁war	-10563
,000.	-10564
Aking	-10565
Epiro	-10566
IMULA	-10567
Ilang	-10568
Kaawa	-10569
Maria	-10570
Nguni	-10571
Papal	-10572
aakay	-10573
abaan	-10574
adang	-10575
adsad	-10576
agham	-10577
agnas	-10578
akulo	-10579
akwil	-10580
alaon	-10581
alaro	-10582
ampon	-10583
anday	-10584
andez	-10585
andig	-10586
angla	-10587
antap	-10588
anzon	-10589
apagp	-10590
areer	-10591
ative	-10592
atuon	-10593
aydor	-10594
aypay	-10595
aysay	-10596
bukid	-10597
calac	-10598
cient	-10599
UM	-10600
Mah	-10601
Sus	-10602
▁DE	-10603
enio	-10604
ihaw	-10605
inom	-10606
osyo	-10607
pito	-10608
umot	-10609
utik	-10610
▁Ana	-10611
▁Ger	-10612
▁Liv	-10613
▁Mon	-10614
▁arm	-10615
▁ist	-10616
▁kus	-10617
▁poo	-10618
▁suw	-10619
▁tup	-10620
Yaong	-10621
aklad	-10622
eater	-10623
edest	-10624
edras	-10625
elekt	-10626
encia	-10627
endre	-10628
entas	-10629
entaw	-10630
erang	-10631
ernat	-10632
erola	-10633
etary	-10634
eyado	-10635
ginsa	-10636
hapon	-10637
hayop	-10638
hento	-10639
hinan	-10640
ibayo	-10641
iinom	-10642
imbal	-10643
imili	-10644
imiti	-10645
impas	-10646
impok	-10647
inain	-10648
ingga	-10649
ingit	-10650
inung	-10651
ipkip	-10652
irhen	-10653
irits	-10654
islat	-10655
ister	-10656
itano	-10657
kabit	-10658
lagas	-10659
orari	-10660
ortal	-10661
panya	-10662
pasin	-10663
raban	-10664
roduk	-10665
sanib	-10666
sayad	-10667
sayan	-10668
shirt	-10669
sibol	-10670
sulok	-10671
tasin	-10672
turan	-10673
ubuka	-10674
udyok	-10675
uging	-10676
ugulo	-10677
uhaan	-10678
uhian	-10679
ukain	-10680
uliro	-10681
ulpot	-10682
uluga	-10683
umamo	-10684
ungad	-10685
ungis	-10686
ungol	-10687
unian	-10688
unsad	-10689
urado	-10690
using	-10691
ustos	-10692
venue	-10693
yedad	-10694
▁Abad	-10695
▁Ahas	-10696
▁Apoy	-10697
▁Aray	-10698
▁Bawa	-10699
Un	-10700
uum	-10701
▁mu	-10702
...?	-10703
?...	-10704
aapi	-10705
elas	-10706
erba	-10707
luha	-10708
orta	-10709
▁Bib	-10710
▁Guw	-10711
Kapag	-10712
Matat	-10713
alili	-10714
amsam	-10715
imbag	-10716
tanaw	-10717
undat	-10718
▁Aral	-10719
▁Bitu	-10720
▁Emir	-10721
▁Gand	-10722
▁Glor	-10723
▁Hala	-10724
▁Hayo	-10725
▁Igon	-10726
▁Iisa	-10727
▁Indo	-10728
▁Ipag	-10729
▁Irog	-10730
▁Isis	-10731
▁Itat	-10732
▁Itim	-10733
▁Joel	-10734
▁KAMP	-10735
▁Kaka	-10736
▁Kayb	-10737
▁Kult	-10738
▁Magg	-10739
▁Meme	-10740
▁Nagu	-10741
▁Nawa	-10742
▁Ninf	-10743
▁Noby	-10744
▁Orak	-10745
▁PANG	-10746
▁Pito	-10747
▁Pray	-10748
▁Sang	-10749
▁Sits	-10750
▁Tala	-10751
▁Ulap	-10752
▁VIII	-10753
▁Yaon	-10754
▁abay	-10755
▁akad	-10756
▁akay	-10757
▁alis	-10758
▁asim	-10759
▁atas	-10760
▁atbp	-10761
▁bikt	-10762
▁bula	-10763
▁daya	-10764
▁dayo	-10765
▁disi	-10766
▁diya	-10767
▁duon	-10768
▁elem	-10769
▁ener	-10770
▁hapo	-10771
▁heto	-10772
▁ibub	-10773
▁ikap	-10774
▁imbi	-10775
▁kaaa	-10776
▁kaal	-10777
▁kaas	-10778
▁kalo	-10779
▁karo	-10780
▁kayg	-10781
▁kint	-10782
▁kwak	-10783
▁laan	-10784
▁laso	-10785
▁lata	-10786
▁libo	-10787
▁look	-10788
▁luko	-10789
▁maid	-10790
▁maig	-10791
▁main	-10792
▁mana	-10793
▁masy	-10794
▁mito	-10795
▁moog	-10796
▁muog	-10797
▁pare	-10798
▁pika	-10799
ayu	-10800
neg	-10801
ugn	-10802
▁Ko	-10803
▁Re	-10804
emat	-10805
hina	-10806
lalo	-10807
okus	-10808
▁Bak	-10809
▁Col	-10810
▁Jer	-10811
akdal	-10812
aliin	-10813
angko	-10814
antsa	-10815
gubat	-10816
ilaok	-10817
inaon	-10818
untis	-10819
▁Ngum	-10820
▁aban	-10821
▁pios	-10822
▁pira	-10823
▁plat	-10824
▁post	-10825
▁pung	-10826
▁pwed	-10827
▁pwer	-10828
▁ruro	-10829
▁samo	-10830
▁sapi	-10831
▁sint	-10832
▁subs	-10833
▁suka	-10834
▁susp	-10835
▁suyo	-10836
▁taun	-10837
▁teng	-10838
▁term	-10839
▁tran	-10840
▁tulo	-10841
▁tuyo	-10842
▁uhaw	-10843
▁umid	-10844
▁unan	-10845
▁usig	-10846
▁utak	-10847
▁uupo	-10848
AGAWAR	-10849
Magpap	-10850
Medium	-10851
aabang	-10852
abakas	-10853
abanas	-10854
abulid	-10855
abunan	-10856
adaloy	-10857
adlang	-10858
adurog	-10859
agahan	-10860
agalag	-10861
ahabol	-10862
ahagya	-10863
alahin	-10864
alakaw	-10865
alakot	-10866
alaong	-10867
alinis	-10868
alugad	-10869
amaang	-10870
amante	-10871
amaran	-10872
amuhin	-10873
amukha	-10874
andera	-10875
anggan	-10876
angkal	-10877
antala	-10878
apatak	-10879
apatda	-10880
arawal	-10881
ariaan	-10882
arilyo	-10883
asalin	-10884
asauli	-10885
ayahin	-10886
ayukay	-10887
bagang	-10888
bahagi	-10889
bibili	-10890
bighan	-10891
egildo	-10892
ektado	-10893
endrez	-10894
fuerte	-10895
himala	-10896
ibayin	-10897
iedras	-10898
igitan	-10899
iil	-10900
ree	-10901
sil	-10902
ahos	-10903
ayas	-10904
daos	-10905
itay	-10906
nasa	-10907
▁Rin	-10908
▁aks	-10909
▁alp	-10910
▁sem	-10911
▁yan	-10912
agand	-10913
akopa	-10914
alyas	-10915
atuwa	-10916
ibago	-10917
istis	-10918
sarap	-10919
▁Buto	-10920
▁giba	-10921
▁kawa	-10922
▁lola	-10923
▁tuwi	-10924
Pagkat	-10925
araing	-10926
idilig	-10927
iglaan	-10928
ihagis	-10929
ihimig	-10930
ikhang	-10931
ilagay	-10932
ilahan	-10933
ilidad	-10934
iligin	-10935
ilikan	-10936
ilipas	-10937
ilisik	-10938
iliwan	-10939
imasok	-10940
imbita	-10941
imithi	-10942
imutok	-10943
inanap	-10944
ingala	-10945
ingkad	-10946
inipay	-10947
iphayo	-10948
isanin	-10949
isayas	-10950
isipot	-10951
itaryo	-10952
itigil	-10953
itikim	-10954
itiyak	-10955
iwakal	-10956
iyempo	-10957
ktubre	-10958
latera	-10959
libong	-10960
lumbay	-10961
omenda	-10962
ontrol	-10963
pagkat	-10964
pangan	-10965
pulong	-10966
rapura	-10967
ration	-10968
saping	-10969
tangis	-10970
tising	-10971
uardia	-10972
ugasan	-10973
uguhit	-10974
ugulat	-10975
ugunin	-10976
uhukay	-10977
ulihan	-10978
ulupot	-10979
umilit	-10980
unaway	-10981
ungero	-10982
unggoy	-10983
unghay	-10984
ungsod	-10985
untang	-10986
unying	-10987
upitin	-10988
upukol	-10989
urihan	-10990
urnino	-10991
usabos	-10992
usilak	-10993
usulat	-10994
utulan	-10995
uwende	-10996
uwesto	-10997
uwisit	-10998
walang	-10999
50	-11000
▁Ol	-11001
▁Ru	-11002
empl	-11003
enso	-11004
haya	-11005
lugo	-11006
urot	-11007
uump	-11008
▁14:	-11009
▁ESP	-11010
agump	-11011
ainom	-11012
akhan	-11013
arapo	-11014
atian	-11015
ikaso	-11016
isama	-11017
tikal	-11018
ulian	-11019
uunan	-11020
yunan	-11021
▁Beng	-11022
▁Dati	-11023
▁Guro	-11024
▁Ibub	-11025
▁Nuon	-11026
▁turo	-11027
agatas	-11028
alalim	-11029
alayas	-11030
didiin	-11031
ibalik	-11032
lusion	-11033
sahang	-11034
tangan	-11035
umanay	-11036
waring	-11037
yayang	-11038
▁1992.	-11039
▁Agham	-11040
▁Aklan	-11041
▁Alang	-11042
▁Amang	-11043
▁Apolo	-11044
▁Asawa	-11045
▁Babae	-11046
▁Babay	-11047
▁Baboy	-11048
▁Bagom	-11049
▁Balat	-11050
▁Binit	-11051
▁Casta	-11052
▁Claro	-11053
▁Dapwa	-11054
▁Diyan	-11055
▁Diyuh	-11056
▁Domin	-11057
▁Doray	-11058
▁Embid	-11059
▁Epiro	-11060
▁Gabay	-11061
▁Hamog	-11062
▁Hayun	-11063
▁Hesus	-11064
▁Hinih	-11065
▁Iabot	-11066
▁Igala	-11067
▁Impah	-11068
▁Imper	-11069
▁Indya	-11070
▁Islaw	-11071
▁Itaas	-11072
▁Itago	-11073
▁Kabis	-11074
▁Kabuk	-11075
▁Kapit	-11076
▁Kulog	-11077
▁Kunin	-11078
▁Laban	-11079
▁Labos	-11080
▁Lanaw	-11081
▁Leron	-11082
▁Lubay	-11083
▁Malay	-11084
▁Mangg	-11085
▁Manun	-11086
▁Marso	-11087
▁Mateo	-11088
▁Minis	-11089
▁Nakak	-11090
▁Nanan	-11091
▁Naupo	-11092
▁Nayon	-11093
▁Niyog	-11094
▁Nuong	-11095
▁Pamah	-11096
▁Pamay	-11097
▁Pangg	-11098
▁Parup	-11099
▁2)	-11100
ated	-11101
ikli	-11102
▁Dis	-11103
▁Fil	-11104
▁Kod	-11105
▁Neg	-11106
▁gma	-11107
▁wag	-11108
aalsa	-11109
iktak	-11110
tanto	-11111
uklas	-11112
▁Asin	-11113
▁Idin	-11114
▁Nand	-11115
▁baon	-11116
▁layo	-11117
▁puto	-11118
ayunan	-11119
dakila	-11120
ilugan	-11121
inoong	-11122
panhik	-11123
rehens	-11124
▁Aniya	-11125
▁Bunga	-11126
▁Pinam	-11127
▁Pinya	-11128
▁Pista	-11129
▁Poong	-11130
▁Pulis	-11131
▁Rosas	-11132
▁Santa	-11133
▁Santi	-11134
▁Sinig	-11135
▁Sinta	-11136
▁Sulod	-11137
▁Tapos	-11138
▁Tsino	-11139
▁Tundo	-11140
▁Tungk	-11141
▁Tungo	-11142
▁Turko	-11143
▁Umuwi	-11144
▁Utang	-11145
▁Villa	-11146
▁Voice	-11147
▁aaral	-11148
▁aawit	-11149
▁adver	-11150
▁agnos	-11151
▁amain	-11152
▁apong	-11153
▁arkit	-11154
▁aywan	-11155
▁bahaw	-11156
▁bahid	-11157
▁bakya	-11158
▁balan	-11159
▁balse	-11160
▁banga	-11161
▁basag	-11162
▁basal	-11163
▁bayaw	-11164
▁bihis	-11165
▁bilao	-11166
▁binid	-11167
▁bitag	-11168
▁bubog	-11169
▁burda	-11170
▁dahop	-11171
▁dalub	-11172
▁delib	-11173
▁dikit	-11174
▁dinig	-11175
▁diskw	-11176
▁doble	-11177
▁duyan	-11178
▁ektar	-11179
▁galos	-11180
▁ginat	-11181
▁ginaw	-11182
▁guhit	-11183
▁gunam	-11184
▁gusot	-11185
▁hener	-11186
▁hikbi	-11187
▁hinag	-11188
▁hinto	-11189
▁hipon	-11190
▁hukay	-11191
▁hurno	-11192
▁ibayo	-11193
▁ihain	-11194
▁iiyak	-11195
▁iluha	-11196
▁inaan	-11197
▁initi	-11198
▁isipa	-11199
OM	-11200
OR	-11201
▁he	-11202
amyo	-11203
apoy	-11204
kibo	-11205
▁22:	-11206
▁Har	-11207
▁KAS	-11208
agdan	-11209
akrip	-11210
atiko	-11211
iliti	-11212
indoy	-11213
lunos	-11214
ngang	-11215
▁Kiko	-11216
▁Oras	-11217
▁loro	-11218
▁samb	-11219
igawad	-11220
igiliw	-11221
ipilit	-11222
▁Bukas	-11223
▁Kinam	-11224
▁Kulay	-11225
▁Talas	-11226
▁gansa	-11227
▁issue	-11228
▁itala	-11229
▁kabag	-11230
▁kagat	-11231
▁kalaw	-11232
▁kamal	-11233
▁kanun	-11234
▁kapos	-11235
▁kasuk	-11236
▁katig	-11237
▁kawag	-11238
▁kawak	-11239
▁kendi	-11240
▁kinah	-11241
▁kiyas	-11242
▁kulot	-11243
▁kupas	-11244
▁kurus	-11245
▁labor	-11246
▁latay	-11247
▁leong	-11248
▁letra	-11249
▁libro	-11250
▁limot	-11251
▁linaw	-11252
▁lumag	-11253
▁maari	-11254
▁mabuo	-11255
▁maint	-11256
▁makad	-11257
▁makar	-11258
▁mamul	-11259
▁mapay	-11260
▁masid	-11261
▁maski	-11262
▁matiy	-11263
▁mawat	-11264
▁media	-11265
▁milag	-11266
▁nabib	-11267
▁nabuo	-11268
▁nagis	-11269
▁nagsi	-11270
▁nakuk	-11271
▁nalik	-11272
▁nanaw	-11273
▁nilul	-11274
▁nukal	-11275
▁order	-11276
▁oyayi	-11277
▁padre	-11278
▁pagsa	-11279
▁pahat	-11280
▁pahim	-11281
▁paimb	-11282
▁paisa	-11283
▁palwa	-11284
▁panda	-11285
▁parke	-11286
▁patid	-11287
▁patik	-11288
▁patyo	-11289
▁penal	-11290
▁pitik	-11291
▁pumap	-11292
▁punlo	-11293
▁pusod	-11294
▁radio	-11295
▁rebol	-11296
▁rehas	-11297
▁relih	-11298
▁retir	-11299
▁rural	-11300
▁rurok	-11301
▁salag	-11302
▁sangm	-11303
▁sapin	-11304
▁sapul	-11305
▁sasab	-11306
▁sigwa	-11307
▁silya	-11308
▁sunud	-11309
▁supot	-11310
▁tahur	-11311
▁takda	-11312
▁talon	-11313
▁tanga	-11314
▁tanto	-11315
▁tatan	-11316
▁tawid	-11317
▁tibok	-11318
▁tigas	-11319
▁tigre	-11320
▁timog	-11321
▁tipak	-11322
▁titik	-11323
▁tolda	-11324
▁trans	-11325
▁tribu	-11326
▁tukod	-11327
▁tulin	-11328
▁tutup	-11329
▁yugto	-11330
Albanya	-11331
Ibababa	-11332
Itataas	-11333
Malakas	-11334
Tagalog	-11335
Tatakbo	-11336
Tingnan	-11337
aagawan	-11338
aanyaya	-11339
abangan	-11340
abantog	-11341
agaslaw	-11342
agatang	-11343
agawian	-11344
aghapon	-11345
agistis	-11346
agpalit	-11347
agulang	-11348
agunita	-11349
aharian	-11350
ahasang	-11351
ahinang	-11352
akulong	-11353
alabind	-11354
aladkad	-11355
alangit	-11356
alasang	-11357
alasing	-11358
alimang	-11359
alingon	-11360
aliping	-11361
alisbis	-11362
amadali	-11363
amahala	-11364
amasyal	-11365
ambahan	-11366
ampanga	-11367
ampisaw	-11368
anaagan	-11369
andusay	-11370
anghali	-11371
anghero	-11372
aplusin	-11373
arangya	-11374
arausan	-11375
asariwa	-11376
asayang	-11377
atapwat	-11378
atubili	-11379
awawala	-11380
ayagpag	-11381
ayuhang	-11382
bahayan	-11383
ehiyado	-11384
ehiyong	-11385
ekalogo	-11386
ektahan	-11387
ensyang	-11388
esermon	-11389
esmundo	-11390
gilalas	-11391
ikiusap	-11392
ilanlan	-11393
ilibing	-11394
iligaya	-11395
ilingin	-11396
imitivo	-11397
ingnang	-11398
irahang	-11399
iritsit	-11400
iwagang	-11401
iwanang	-11402
kamukha	-11403
kanyang	-11404
kendeng	-11405
marikit	-11406
natapos	-11407
ortahan	-11408
paganda	-11409
risinta	-11410
rocinio	-11411
saksyon	-11412
saktong	-11413
sinelas	-11414
ubukang	-11415
ubuklod	-11416
ugalian	-11417
ukumpas	-11418
unayang	-11419
unyapit	-11420
▁Adonis	-11421
▁Alagad	-11422
▁Albino	-11423
▁Anghel	-11424
▁Anyong	-11425
▁Bagobo	-11426
▁Balita	-11427
▁Baltog	-11428
▁Baston	-11429
▁Batong	-11430
▁Bigyan	-11431
▁Binasa	-11432
▁Buksan	-11433
▁Bumaba	-11434
▁Carlos	-11435
▁Dalaga	-11436
▁Dalhin	-11437
▁Darang	-11438
▁Emilio	-11439
▁Gabing	-11440
▁Gayong	-11441
▁Ginawa	-11442
▁Handog	-11443
▁Hermen	-11444
▁Hilaga	-11445
▁Ibanag	-11446
▁Iisang	-11447
▁Iloilo	-11448
▁Inalis	-11449
▁Inayos	-11450
▁Inisip	-11451
▁Ipinag	-11452
▁Ipinap	-11453
▁Kapule	-11454
▁Katang	-11455
▁Kitang	-11456
▁Kurita	-11457
▁Labimp	-11458
▁Laguna	-11459
▁Lahing	-11460
▁Lalaki	-11461
▁Lamang	-11462
▁Lintik	-11463
▁Lumayo	-11464
▁Maghah	-11465
▁Magpak	-11466
▁Magsas	-11467
▁Mahina	-11468
▁Mainit	-11469
▁Makata	-11470
▁Makopa	-11471
▁Mamang	-11472
▁Mantap	-11473
▁Mapang	-11474
▁Marcos	-11475
▁Matang	-11476
▁Nabawi	-11477
▁Nadala	-11478
▁Nagpak	-11479
▁Nagpup	-11480
▁Naiiba	-11481
▁Nanaog	-11482
▁Naroon	-11483
▁Natalo	-11484
▁Naubos	-11485
▁Nimpas	-11486
▁Ninfas	-11487
▁Pagkap	-11488
▁Pagpap	-11489
▁Pantas	-11490
▁Parkas	-11491
▁Pawang	-11492
▁Pebong	-11493
▁Pinagh	-11494
▁Pitong	-11495
▁Platas	-11496
▁Prayle	-11497
▁Rivera	-11498
▁Salapi	-11499
▁Santol	-11500
▁Sinong	-11501
▁Subali	-11502
▁Talaan	-11503
▁Tamang	-11504
▁Tanang	-11505
▁Tatayo	-11506
▁Tauhan	-11507
▁Tulong	-11508
▁Tumaas	-11509
▁aakyat	-11510
▁agahan	-11511
▁agawan	-11512
▁alisan	-11513
▁aliwin	-11514
▁awitan	-11515
▁babala	-11516
▁babasa	-11517
▁bagwis	-11518
▁baklad	-11519
▁balbas	-11520
▁balido	-11521
▁baligt	-11522
▁baling	-11523
▁balisa	-11524
▁bangko	-11525
▁basket	-11526
▁bathin	-11527
▁batiin	-11528
▁bawiin	-11529
▁bayong	-11530
▁binawi	-11531
▁binayo	-11532
▁birhen	-11533
▁bisang	-11534
▁bolang	-11535
▁buhong	-11536
▁bukana	-11537
▁bulkan	-11538
▁career	-11539
▁corrup	-11540
▁decree	-11541
▁dinaya	-11542
▁disipl	-11543
▁doktor	-11544
▁dukeng	-11545
▁dumumi	-11546
▁estado	-11547
▁gating	-11548
▁gulong	-11549
▁guwang	-11550
▁hagdan	-11551
▁halina	-11552
▁hampas	-11553
▁hatiin	-11554
▁hidhid	-11555
▁higera	-11556
▁higtan	-11557
▁hilaga	-11558
▁hiwaga	-11559
▁ibuhos	-11560
▁ihulog	-11561
▁ikagig	-11562
▁ikatat	-11563
▁ikinal	-11564
▁ilabas	-11565
▁imahen	-11566
▁inaapi	-11567
▁inahin	-11568
▁inilul	-11569
▁inisip	-11570
▁inukol	-11571
▁inulit	-11572
▁ipasya	-11573
▁ipinam	-11574
▁isahan	-11575
▁iskrip	-11576
▁itanim	-11577
▁itawag	-11578
▁itigil	-11579
▁itulak	-11580
▁ituloy	-11581
▁kaanib	-11582
▁kabang	-11583
▁kagila	-11584
▁kalesa	-11585
▁kalian	-11586
▁kamusm	-11587
▁kaniya	-11588
▁kapani	-11589
▁kapuri	-11590
▁karamd	-11591
▁katyaw	-11592
▁kubang	-11593
▁kutang	-11594
▁lalayo	-11595
▁lambat	-11596
▁lantay	-11597
▁latigo	-11598
▁layuni	-11599
▁lilong	-11600
▁linsil	-11601
▁liping	-11602
▁lunday	-11603
▁lutuan	-11604
▁maabot	-11605
▁maagaw	-11606
▁maasim	-11607
▁mababa	-11608
▁mabasa	-11609
▁mabawi	-11610
▁magaan	-11611
▁magdad	-11612
▁maghih	-11613
▁magkam	-11614
▁magkar	-11615
▁magsus	-11616
▁magtut	-11617
▁magulo	-11618
▁malabo	-11619
▁manika	-11620
▁mapags	-11621
▁mapasa	-11622
▁mapawi	-11623
▁mapuno	-11624
▁mariin	-11625
▁marmol	-11626
▁masins	-11627
▁matang	-11628
▁matiis	-11629
▁matuwa	-11630
▁matwid	-11631
▁mayama	-11632
▁motion	-11633
▁munang	-11634
▁musang	-11635
▁musmos	-11636
▁naagaw	-11637
▁naamis	-11638
▁nabali	-11639
▁nagbib	-11640
▁nagkik	-11641
▁nagkuk	-11642
▁nagsil	-11643
▁nagsip	-11644
▁naipit	-11645
▁naisin	-11646
▁nalang	-11647
▁nanalo	-11648
▁napana	-11649
▁napuna	-11650
▁napuno	-11651
▁nasawi	-11652
▁natira	-11653
▁natuyo	-11654
▁naubos	-11655
▁ninong	-11656
▁niyaya	-11657
▁normal	-11658
▁obrero	-11659
▁pabaon	-11660
▁pagano	-11661
▁pagdad	-11662
▁pagkar	-11663
▁pagkit	-11664
▁pahina	-11665
▁palaso	-11666
▁palayo	-11667
▁pamahi	-11668
▁panday	-11669
▁pangan	-11670
▁pangko	-11671
▁panhik	-11672
▁pantig	-11673
▁papaya	-11674
▁parati	-11675
▁paroko	-11676
▁paslit	-11677
▁piknik	-11678
▁pinalo	-11679
▁piraso	-11680
▁punglo	-11681
▁ranggo	-11682
▁recall	-11683
▁rentas	-11684
▁sabong	-11685
▁sadlak	-11686
▁sagang	-11687
▁sakali	-11688
▁salang	-11689
▁sandok	-11690
▁sasama	-11691
▁scient	-11692
▁serpiy	-11693
▁sinira	-11694
▁sirain	-11695
▁sising	-11696
▁siyent	-11697
▁subdib	-11698
▁sundan	-11699
▁sungay	-11700
▁takpan	-11701
▁talian	-11702
▁taling	-11703
▁tamaan	-11704
▁taripa	-11705
▁tignan	-11706
▁tinamo	-11707
▁tindig	-11708
▁tingni	-11709
▁tinuka	-11710
▁tumaas	-11711
▁tumulo	-11712
▁turing	-11713
▁uliran	-11714
▁ulunan	-11715
▁umabot	-11716
▁umusad	-11717
▁unggoy	-11718
▁usigin	-11719
▁wikain	-11720
Dumating	-11721
Hanggang	-11722
Maraming	-11723
Nakalaan	-11724
Pilipino	-11725
abatayan	-11726
adhanang	-11727
agalawan	-11728
akaawang	-11729
alakayin	-11730
alatkayo	-11731
alipinan	-11732
alumpati	-11733
andulong	-11734
apalawak	-11735
apalitan	-11736
asagutin	-11737
atingala	-11738
ayakapin	-11739
ayukayok	-11740
binyagan	-11741
egaluhan	-11742
ekomenda	-11743
ektibong	-11744
elektwal	-11745
hinayang	-11746
ibigyang	-11747
ihingalo	-11748
ilandang	-11749
iligalig	-11750
isisihan	-11751
itanghal	-11752
kaniyang	-11753
maligaya	-11754
manghang	-11755
olarship	-11756
paaralan	-11757
piritwal	-11758
ubuhayin	-11759
unggaban	-11760
ungkalin	-11761
ungkutin	-11762
▁Alading	-11763
▁Antalan	-11764
▁Bituing	-11765
▁Buhayin	-11766
▁Bunsong	-11767
▁Cebuano	-11768
▁Dianzon	-11769
▁Dinarad	-11770
▁Dumalap	-11771
▁Filemon	-11772
▁Ganding	-11773
▁Garrote	-11774
▁Hermana	-11775
▁Heswita	-11776
▁Hiningi	-11777
▁Igalang	-11778
▁Ikaanim	-11779
▁Indones	-11780
▁Iniibig	-11781
▁Isinuot	-11782
▁Itinaas	-11783
▁Jacinto	-11784
▁Jupiter	-11785
▁KAGAWAR	-11786
▁KARAPAT	-11787
▁Kalihim	-11788
▁Kasabay	-11789
▁Katawan	-11790
▁Kayrami	-11791
▁Kumapit	-11792
▁Kumatok	-11793
▁Layunin	-11794
▁Lipunan	-11795
▁Lumawig	-11796
▁Magsisi	-11797
▁Mahanga	-11798
▁Mahigit	-11799
▁Malasin	-11800
▁Maliban	-11801
▁Malugod	-11802
▁Malupit	-11803
▁Mamatay	-11804
▁Marikit	-11805
▁Martang	-11806
▁Matamis	-11807
▁Matibay	-11808
▁Matindi	-11809
▁Mayaman	-11810
▁Mutyang	-11811
▁Nabigla	-11812
▁Nahulog	-11813
▁Nakaupo	-11814
▁Namuhay	-11815
▁Nangags	-11816
▁Nangung	-11817
▁Narinig	-11818
▁Nilusob	-11819
▁Palawan	-11820
▁Pangkat	-11821
▁Pinanin	-11822
▁Pinasok	-11823
▁Sadyang	-11824
▁Sagisag	-11825
▁Sandayo	-11826
▁Sentral	-11827
▁Sicalac	-11828
▁Siyudad	-11829
▁Sumapit	-11830
▁Sumigaw	-11831
▁Sumisid	-11832
▁Tahimik	-11833
▁Tayabas	-11834
▁Tumigil	-11835
▁Visayas	-11836
▁Watawat	-11837
▁aanihin	-11838
▁abangan	-11839
▁abaniko	-11840
▁anitong	-11841
▁bagaman	-11842
▁balikan	-11843
▁balitaw	-11844
▁bandera	-11845
▁banyaga	-11846
▁bayaran	-11847
▁bendita	-11848
▁bihisan	-11849
▁biktima	-11850
▁binalak	-11851
▁bingwit	-11852
▁binuwag	-11853
▁bubuuin	-11854
▁buhayin	-11855
▁bukirin	-11856
▁bunutin	-11857
▁detalye	-11858
▁diligin	-11859
▁dinanas	-11860
▁duluhan	-11861
▁dumakot	-11862
▁dumaloy	-11863
▁dumulog	-11864
▁duwende	-11865
▁element	-11866
▁ganapin	-11867
▁ganoong	-11868
▁grupong	-11869
▁habilin	-11870
▁hamunin	-11871
▁hanguin	-11872
▁higupin	-11873
▁hinding	-11874
▁hiningi	-11875
▁hinugot	-11876
▁hukayin	-11877
▁humalik	-11878
▁humihip	-11879
▁ibinato	-11880
▁ikawalo	-11881
▁inaakay	-11882
▁inaalis	-11883
▁inaaliw	-11884
▁inaanak	-11885
▁inianak	-11886
▁inihain	-11887
▁iniraos	-11888
▁ipadala	-11889
▁ipinagt	-11890
▁ipiniit	-11891
▁isinama	-11892
▁isusubo	-11893
▁isusuot	-11894
▁ituturo	-11895
▁kabaita	-11896
▁kabaong	-11897
▁kabigha	-11898
▁kagalit	-11899
▁kaginoo	-11900
▁kaginsa	-11901
▁kakaiba	-11902
▁kakampi	-11903
▁kalakip	-11904
▁kalunos	-11905
▁kamukha	-11906
▁kanyong	-11907
▁kapatak	-11908
▁kapisan	-11909
▁katakot	-11910
▁katamis	-11911
▁katapat	-11912
▁katwira	-11913
▁kilabot	-11914
▁kinahih	-11915
▁kontrol	-11916
▁kunwari	-11917
▁kuratsa	-11918
▁kuwalta	-11919
▁labagin	-11920
▁lalabis	-11921
▁lambong	-11922
▁lamunin	-11923
▁likhang	-11924
▁luluhod	-11925
▁lumagay	-11926
▁lumalag	-11927
▁lumawig	-11928
▁luminis	-11929
▁lumiyag	-11930
▁lumubog	-11931
▁lumuhod	-11932
▁lumulon	-11933
▁lutasin	-11934
▁mabatid	-11935
▁mabibig	-11936
▁mabigla	-11937
▁mabunga	-11938
▁madamot	-11939
▁magdusa	-11940
▁maghapo	-11941
▁magilas	-11942
▁magumon	-11943
▁mahimok	-11944
▁mahinog	-11945
▁maiinam	-11946
▁makaban	-11947
▁makahoy	-11948
▁makitil	-11949
▁malaong	-11950
▁malibre	-11951
▁malikha	-11952
▁maliksi	-11953
▁malunod	-11954
▁manding	-11955
▁mangaso	-11956
▁manipis	-11957
▁mapapal	-11958
▁mapapan	-11959
▁maramot	-11960
▁mariing	-11961
▁masakim	-11962
▁masasal	-11963
▁maselan	-11964
▁masunod	-11965
▁masupil	-11966
▁matayog	-11967
▁matuloy	-11968
▁matupad	-11969
▁mauubos	-11970
▁maykaya	-11971
▁mensahe	-11972
▁mismong	-11973
▁monopol	-11974
▁mukhang	-11975
▁nabatid	-11976
▁nadakip	-11977
▁nagbayo	-11978
▁naghari	-11979
▁naglaon	-11980
▁nagmana	-11981
▁nagpala	-11982
▁nagpati	-11983
▁nagtaas	-11984
▁nagtayo	-11985
▁nagulat	-11986
▁nahayag	-11987
▁naiinip	-11988
▁nakahih	-11989
▁nalanta	-11990
▁nalulug	-11991
▁namalas	-11992
▁nangagb	-11993
▁nangagh	-11994
▁nangagl	-11995
▁napakas	-11996
▁napapan	-11997
▁napipin	-11998
▁naputol	-11999
▁natupok	-12000
▁naturan	-12001
▁nayanig	-12002
▁nililok	-12003
▁nilimot	-12004
▁nominee	-12005
▁okasyon	-12006
▁orakulo	-12007
▁paghabi	-12008
▁pagkuha	-12009
▁pagpuri	-12010
▁pagtaas	-12011
▁pakikib	-12012
▁palaboy	-12013
▁palakad	-12014
▁palapit	-12015
▁pamatay	-12016
▁panatil	-12017
▁panyong	-12018
▁parokya	-12019
▁patente	-12020
▁pinahih	-12021
▁pinakad	-12022
▁pinakap	-12023
▁pinangh	-12024
▁pinauwi	-12025
▁pinigil	-12026
▁pinsang	-12027
▁pintong	-12028
▁pitasin	-12029
▁piyesta	-12030
▁planeta	-12031
▁plantsa	-12032
▁popular	-12033
▁puluhan	-12034
▁pumanik	-12035
▁pustiso	-12036
▁puwersa	-12037
▁puwesto	-12038
▁resulta	-12039
▁revenue	-12040
▁sagipin	-12041
▁sagrado	-12042
▁sakbibi	-12043
▁sasagot	-12044
▁sigwang	-12045
▁silahis	-12046
▁simulan	-12047
▁sinadya	-12048
▁sinauna	-12049
▁singkad	-12050
▁siyudad	-12051
▁subukin	-12052
▁sukaban	-12053
▁sumibol	-12054
▁sumipot	-12055
▁suporta	-12056
▁tabsing	-12057
▁talukap	-12058
▁termino	-12059
▁tigilan	-12060
▁tinudla	-12061
▁tiririt	-12062
▁tribong	-12063
▁tumagal	-12064
▁tumikim	-12065
▁tumulak	-12066
▁ugnayan	-12067
▁umaabot	-12068
▁umaakay	-12069
▁umaayon	-12070
▁umanong	-12071
▁umiikot	-12072
▁umiling	-12073
▁umugong	-12074
▁unawain	-12075
▁utusang	-12076
Lalapitan	-12077
Malungkot	-12078
Mamamatay	-12079
agumpayan	-12080
akripisyo	-12081
alintulad	-12082
atakutang	-12083
awawalang	-12084
bighaning	-12085
comulgado	-12086
ementeryo	-12087
ernatural	-12088
ipaglaban	-12089
lalawigan	-12090
pirmasyon	-12091
rikultura	-12092
rimonyong	-12093
ungkahing	-12094
ungunahan	-12095
upumiglas	-12096
uumpugang	-12097
▁Aninipay	-12098
▁Bangkaya	-12099
▁Binatang	-12100
▁Bubuksan	-12101
▁Bumaling	-12102
▁Darating	-12103
▁Dinampot	-12104
▁Dinatnan	-12105
▁Diyuhara	-12106
▁Etolyang	-12107
▁Gobyerno	-12108
▁Halikayo	-12109
▁Hinintay	-12110
▁Ikinasal	-12111
▁Inabutan	-12112
▁Inihagis	-12113
▁Inilabas	-12114
▁Inilagay	-12115
▁Isisilid	-12116
▁Isusumpa	-12117
▁Itinapon	-12118
▁KAMPUPOT	-12119
▁Kabilang	-12120
▁Kanilang	-12121
▁Kapuluan	-12122
▁Katindoy	-12123
▁Kotabato	-12124
▁Kupidong	-12125
▁Magaling	-12126
▁Magbayad	-12127
▁Maglagda	-12128
▁Makahiya	-12129
▁Malayang	-12130
▁Maligaya	-12131
▁Marunong	-12132
▁Naaalala	-12133
▁Nagagawa	-12134
▁Nagbigay	-12135
▁Nagbihis	-12136
▁Nagdaang	-12137
▁Nagsayaw	-12138
▁Nagtuloy	-12139
▁Nahalata	-12140
▁Nakatira	-12141
▁Nanatili	-12142
▁Naroroon	-12143
▁Pagsapit	-12144
▁Pilipina	-12145
▁Pumanaog	-12146
▁Salaysay	-12147
▁Santiago	-12148
▁Sarhento	-12149
▁Talagang	-12150
▁Tinuruan	-12151
▁Titingin	-12152
▁Tumilaok	-12153
▁Tumingin	-12154
▁aktibong	-12155
▁alipusta	-12156
▁apatnapu	-12157
▁apektado	-12158
▁armadong	-12159
▁atensyon	-12160
▁babatiin	-12161
▁bahagdan	-12162
▁bantayog	-12163
▁batikang	-12164
▁bersyong	-12165
▁bibilang	-12166
▁binabasa	-12167
▁binabayo	-12168
▁binagtas	-12169
▁binyagan	-12170
▁bisperas	-12171
▁biyayang	-12172
▁bubuksan	-12173
▁bumababa	-12174
▁bumabati	-12175
▁bumangon	-12176
▁dalitang	-12177
▁daluyong	-12178
▁datapuwa	-12179
▁dayalogo	-12180
▁dayuhang	-12181
▁digmaang	-12182
▁dinaanan	-12183
▁dinapuan	-12184
▁dumadapo	-12185
▁enerhiya	-12186
▁espiritu	-12187
▁gabinete	-12188
▁gampanin	-12189
▁gumapang	-12190
▁hahagkan	-12191
▁himagsik	-12192
▁hintayin	-12193
▁ibinilin	-12194
▁iginapos	-12195
▁ikinalul	-12196
▁ilalagay	-12197
▁inaaring	-12198
▁inihagis	-12199
▁inihalal	-12200
▁inihatid	-12201
▁inilawan	-12202
▁inilipat	-12203
▁iniwanan	-12204
▁ipagbili	-12205
▁ipahatid	-12206
▁ipakasal	-12207
▁ipatupad	-12208
▁ipinataw	-12209
▁isinagot	-12210
▁isinalin	-12211
▁isusunod	-12212
▁itinangi	-12213
▁itinuloy	-12214
▁kaasalan	-12215
▁kabanata	-12216
▁kabayong	-12217
▁kagalang	-12218
▁kahuluga	-12219
▁kailanma	-12220
▁kalabang	-12221
▁kalaguyo	-12222
▁kalapati	-12223
▁kalawang	-12224
▁kaliskis	-12225
▁kalumbay	-12226
▁kamagong	-12227
▁kamandag	-12228
▁kamangha	-12229
▁karakang	-12230
▁karamiha	-12231
▁karangya	-12232
▁kaserola	-12233
▁kasindak	-12234
▁kasinung	-12235
▁kastilyo	-12236
▁katabing	-12237
▁katalong	-12238
▁katotong	-12239
▁katuwaan	-12240
▁katuwang	-12241
▁kausapin	-12242
▁kautusan	-12243
▁kayarian	-12244
▁kilyawan	-12245
▁kinubkob	-12246
▁kumidlat	-12247
▁kumikibo	-12248
▁kupidong	-12249
▁labanang	-12250
▁landasin	-12251
▁lehislat	-12252
▁likurang	-12253
▁limitado	-12254
▁linangin	-12255
▁linggong	-12256
▁listahan	-12257
▁lumaking	-12258
▁lumundag	-12259
▁lumutang	-12260
▁lunggati	-12261
▁maaalala	-12262
▁maalamat	-12263
▁mababait	-12264
▁mabubuti	-12265
▁madugong	-12266
▁magbalak	-12267
▁magbuhat	-12268
▁magdasal	-12269
▁maghapon	-12270
▁maglakad	-12271
▁magmasid	-12272
▁magpapas	-12273
▁magyakap	-12274
▁mahinhin	-12275
▁mahiwaga	-12276
▁makagawa	-12277
▁makapagd	-12278
▁makapagm	-12279
▁makapagp	-12280
▁makatayo	-12281
▁makipags	-12282
▁malagong	-12283
▁malamyos	-12284
▁mamasdan	-12285
▁mamumuno	-12286
▁mangusap	-12287
▁masusing	-12288
▁matauhan	-12289
▁matimyas	-12290
▁matinong	-12291
▁matipuno	-12292
▁matiyaga	-12293
▁mawiwika	-12294
▁naaalala	-12295
▁nadatnan	-12296
▁naganyak	-12297
▁nagbihis	-12298
▁nagdasal	-12299
▁nagdilim	-12300
▁nagkagan	-12301
▁nagkakas	-12302
▁nagkalat	-12303
▁naglagay	-12304
▁naglalak	-12305
▁nagmamay	-12306
▁nagpapak	-12307
▁nagpatih	-12308
▁nagsisip	-12309
▁nagtanim	-12310
▁nagtatag	-12311
▁nahirang	-12312
▁nahuling	-12313
▁naisulat	-12314
▁nakahuli	-12315
▁nakaiwas	-12316
▁nakalaan	-12317
▁nakapagt	-12318
▁nakapang	-12319
▁nakasama	-12320
▁nakataas	-12321
▁nakatiis	-12322
▁nakayuko	-12323
▁nakubkob	-12324
▁nalamang	-12325
▁nalimbag	-12326
▁namasyal	-12327
▁namataan	-12328
▁namayapa	-12329
▁nanaisin	-12330
▁nanghina	-12331
▁nangusap	-12332
▁naniwala	-12333
▁napadaan	-12334
▁napadpad	-12335
▁naparito	-12336
▁napayapa	-12337
▁naririto	-12338
▁nasambit	-12339
▁nasindak	-12340
▁nasisira	-12341
▁naubusan	-12342
▁nawaglit	-12343
▁nawalang	-12344
▁nilagyan	-12345
▁niluluto	-12346
▁ninanasa	-12347
▁orkestra	-12348
▁paalisin	-12349
▁paanyaya	-12350
▁pabayaan	-12351
▁pabulong	-12352
▁pagawaan	-12353
▁pagdaing	-12354
▁pagdamay	-12355
▁paggapas	-12356
▁paghahal	-12357
▁pagharap	-12358
▁paghingi	-12359
▁paghinto	-12360
▁pagkaawa	-12361
▁pagkakap	-12362
▁paglabas	-12363
▁paglilin	-12364
▁paglubog	-12365
▁pagpanaw	-12366
▁pagsulat	-12367
▁pagsuway	-12368
▁pagtanda	-12369
▁pagtungo	-12370
▁pakialam	-12371
▁palaging	-12372
▁palalong	-12373
▁palaring	-12374
▁palasong	-12375
▁palendag	-12376
▁pamimili	-12377
▁paminsan	-12378
▁pangkura	-12379
▁panlunas	-12380
▁pansinin	-12381
▁pantribo	-12382
▁parangal	-12383
▁parating	-12384
▁parehong	-12385
▁partidos	-12386
▁pasubsob	-12387
▁patibong	-12388
▁patnugot	-12389
▁payagang	-12390
▁perpetua	-12391
▁pinapang	-12392
▁pipiliin	-12393
▁produkto	-12394
▁pumalaot	-12395
▁pumanhik	-12396
▁pumarito	-12397
▁pwersang	-12398
▁relasyon	-12399
▁sagupaan	-12400
▁salitaan	-12401
▁sandaang	-12402
▁sangguni	-12403
▁sektoral	-12404
▁serbisyo	-12405
▁simulain	-12406
▁singilin	-12407
▁sinundan	-12408
▁sinusuyo	-12409
▁sosyedad	-12410
▁sukdulan	-12411
▁susundan	-12412
▁susuriin	-12413
▁tagsibol	-12414
▁talampas	-12415
▁taluktok	-12416
▁tampulan	-12417
▁tanikala	-12418
▁tatsulok	-12419
▁tawaging	-12420
▁tinangis	-12421
▁tinangka	-12422
▁tinuruan	-12423
▁tiyakang	-12424
▁trahedya	-12425
▁tumangis	-12426
▁ugnayang	-12427
▁umusbong	-12428
▁umuunlad	-12429
Balintawak	-12430
Pagkatapos	-12431
Tutulungan	-12432
abinlimang	-12433
agubilinan	-12434
akasalanan	-12435
amalasakit	-12436
amatandang	-12437
ampalataya	-12438
angkilikin	-12439
ganisasyon	-12440
paniwalang	-12441
uestration	-12442
uwalhatian	-12443
▁Artilyero	-12444
▁Bahaginan	-12445
▁Capariaan	-12446
▁Damdaming	-12447
▁Disyembre	-12448
▁Embidayan	-12449
▁Fleridang	-12450
▁Ginagamit	-12451
▁Hahahahah	-12452
▁Hahawakan	-12453
▁Hinahanap	-12454
▁Ikalawang	-12455
▁Impiyerno	-12456
▁Inaasahan	-12457
▁Indrapura	-12458
▁Inglatera	-12459
▁Ipinadala	-12460
▁Kagawaran	-12461
▁Kapalaran	-12462
▁Kasulatan	-12463
▁Kulturang	-12464
▁Lakandiwa	-12465
▁Mabubuhay	-12466
▁Macaranga	-12467
▁Magaganda	-12468
▁Magmadali	-12469
▁Mantapuli	-12470
▁Mapatubig	-12471
▁Melendrez	-12472
▁Minisalaw	-12473
▁Nagdurusa	-12474
▁Nagkagulo	-12475
▁Nagkataon	-12476
▁Nagsasama	-12477
▁Nalimutan	-12478
▁Napilitan	-12479
▁Natagpuan	-12480
▁Natatakot	-12481
▁Nilapitan	-12482
▁Nobyembre	-12483
▁Pablitong	-12484
▁Pagkaalis	-12485
▁Persiyano	-12486
▁Pinawalan	-12487
▁Primitivo	-12488
▁Saturnino	-12489
▁Sinabihan	-12490
▁Suliranin	-12491
▁Tabunaway	-12492
▁Tinanggap	-12493
▁Tinawagan	-12494
▁Titingala	-12495
▁Valeriana	-12496
▁Yambungan	-12497
▁akademiko	-12498
▁ariariang	-12499
▁artistiko	-12500
▁bangungot	-12501
▁binabalik	-12502
▁binigyang	-12503
▁binubunot	-12504
▁bubuhayin	-12505
▁bumubuong	-12506
▁dadalawin	-12507
▁daigdigan	-12508
▁dinaranas	-12509
▁dumadalaw	-12510
▁ginugugol	-12511
▁hagupitin	-12512
▁hanggahan	-12513
▁hardinero	-12514
▁hinatulan	-12515
▁hinimatay	-12516
▁humihinga	-12517
▁ihahandog	-12518
▁ikauunlad	-12519
▁industriy	-12520
▁inilibing	-12521
▁inilimbag	-12522
▁iniluklok	-12523
▁ipagpalit	-12524
▁ipagtapat	-12525
▁ipakikita	-12526
▁ipakilala	-12527
▁ipinadpad	-12528
▁isalubong	-12529
▁isisilang	-12530
▁itatalaga	-12531
▁itinatago	-12532
▁kabilugan	-12533
▁kalabanin	-12534
▁kaliluhan	-12535
▁kamukhang	-12536
▁kapatiran	-12537
▁kariktang	-12538
▁karugtong	-12539
▁kasakiman	-12540
▁kasanayan	-12541
▁katagalan	-12542
▁katamaran	-12543
▁katatagan	-12544
▁katayuang	-12545
▁katipunan	-12546
▁katuturan	-12547
▁kautusang	-12548
▁kawanihan	-12549
▁kinaawaan	-12550
▁kinagagap	-12551
▁kinakapos	-12552
▁kinawayan	-12553
▁kulturang	-12554
▁kurikulum	-12555
▁labandera	-12556
▁limampung	-12557
▁lumaganap	-12558
▁lumalabas	-12559
▁luwalhati	-12560
▁mababakas	-12561
▁magbangon	-12562
▁magkausap	-12563
▁magparusa	-12564
▁magpulong	-12565
▁magsasabi	-12566
▁mahihirap	-12567
▁maiibigan	-12568
▁maiwasang	-12569
▁makaharap	-12570
▁makakamit	-12571
▁makalabas	-12572
▁makalapit	-12573
▁makalimot	-12574
▁makapasok	-12575
▁makarinig	-12576
▁makasapit	-12577
▁makatapos	-12578
▁makikipag	-12579
▁malilikot	-12580
▁mambabasa	-12581
▁mapatakan	-12582
▁masakitin	-12583
▁masunurin	-12584
▁masusupil	-12585
▁matagalan	-12586
▁matahimik	-12587
▁matutulis	-12588
▁matutuloy	-12589
▁matutupad	-12590
▁nababatay	-12591
▁nagagapos	-12592
▁nagbabala	-12593
▁nagbangon	-12594
▁nagbibiro	-12595
▁naghandog	-12596
▁naghangad	-12597
▁nagkaanak	-12598
▁nagkagulo	-12599
▁nagpulong	-12600
▁nagsasabi	-12601
▁nagsasaya	-12602
▁nagtaksil	-12603
▁nagtatago	-12604
▁nagtuturo	-12605
▁naibalita	-12606
▁nakaabang	-12607
▁nakabalik	-12608
▁nakabihis	-12609
▁nakalahad	-12610
▁nakalatag	-12611
▁nakalipad	-12612
▁nakasaksi	-12613
▁nakatakda	-12614
▁nakatikim	-12615
▁nalalanta	-12616
▁namamahay	-12617
▁namamalas	-12618
▁namumunga	-12619
▁namumutla	-12620
▁nangakong	-12621
▁nanghiram	-12622
▁nangitlog	-12623
▁napansing	-12624
▁nasasabik	-12625
▁nasasakop	-12626
▁nasasalig	-12627
▁natanawan	-12628
▁natapakan	-12629
▁natitipon	-12630
▁negosyong	-12631
▁nilapitan	-12632
▁nilikhang	-12633
▁ordinansa	-12634
▁pagdidiin	-12635
▁paggunita	-12636
▁pagkahari	-12637
▁pagkukusa	-12638
▁paglinang	-12639
▁pagtalima	-12640
▁pagtatayo	-12641
▁pagtitiis	-12642
▁pagtutuos	-12643
▁pakendeng	-12644
▁palasyong	-12645
▁palayawin	-12646
▁palitawin	-12647
▁palugitan	-12648
▁pamalakad	-12649
▁pambayani	-12650
▁pambungad	-12651
▁pandaraya	-12652
▁pangkaran	-12653
▁pansarili	-12654
▁pantulong	-12655
▁papatayin	-12656
▁paraluman	-12657
▁pasilidad	-12658
▁pinalabas	-12659
▁pinalayas	-12660
▁pinangang	-12661
▁pinanumpa	-12662
▁pinapatay	-12663
▁pinasukan	-12664
▁pinturang	-12665
▁pipitasin	-12666
▁pitumpung	-12667
▁puspusang	-12668
▁reclusion	-12669
▁sabungero	-12670
▁sandalyas	-12671
▁sandatang	-12672
▁scientist	-12673
▁sigarilyo	-12674
▁sinamahan	-12675
▁sinasadya	-12676
▁sinusunod	-12677
▁solitaryo	-12678
▁sumasayaw	-12679
▁sumisikat	-12680
▁sundalong	-12681
▁tangraban	-12682
▁taumbayan	-12683
▁tinatapos	-12684
▁tinigilan	-12685
▁tinikling	-12686
▁tiningnan	-12687
▁tinutulan	-12688
▁tinutungo	-12689
▁tumutugon	-12690
▁tuntuning	-12691
Papalibutan	-12692
alipikasyon	-12693
amantalahan	-12694
arantiyahan	-12695
rehensibong	-12696
▁Bagombayan	-12697
▁Inilarawan	-12698
▁Ipinangako	-12699
▁Kalanutian	-12700
▁Kalikasang	-12701
▁Kasarinlan	-12702
▁Katapusang	-12703
▁Kayumanggi	-12704
▁Naghiyawan	-12705
▁Nagkakaisa	-12706
▁Nagmakaawa	-12707
▁Nagsisipan	-12708
▁Nakaramdam	-12709
▁Nanggaling	-12710
▁Napilitang	-12711
▁Naramdaman	-12712
▁Pagkalipas	-12713
▁Pagkaraang	-12714
▁Pamayamaya	-12715
▁Paruparong	-12716
▁Patrocinio	-12717
▁Persyanong	-12718
▁Samaritano	-12719
▁Silanganin	-12720
▁Sinasabing	-12721
▁Sinimulang	-12722
▁Tinangkang	-12723
▁Tinulungan	-12724
▁baligtarin	-12725
▁binitiwang	-12726
▁bumabalong	-12727
▁certiorari	-12728
▁dinaramdam	-12729
▁hahalinhan	-12730
▁henerasyon	-12731
▁hinahagkan	-12732
▁historikal	-12733
▁imbitasyon	-12734
▁inaakalang	-12735
▁inaalagaan	-12736
▁inilarawan	-12737
▁initiative	-12738
▁integrated	-12739
▁interesado	-12740
▁ipahiwatig	-12741
▁ipaliwanag	-12742
▁kaalipinan	-12743
▁kabinataan	-12744
▁kabuhayang	-12745
▁kagawarang	-12746
▁kahusayang	-12747
▁kailaliman	-12748
▁kampanaryo	-12749
▁kapabayaan	-12750
▁kapasyahan	-12751
▁kapulungan	-12752
▁kapurihang	-12753
▁kapuspalad	-12754
▁karalitaan	-12755
▁kararating	-12756
▁kasarinlan	-12757
▁kataksilan	-12758
▁katapusang	-12759
▁kinakitaan	-12760
▁koalisyong	-12761
▁kolehiyado	-12762
▁kontrabida	-12763
▁lumilingon	-12764
▁lumulutang	-12765
▁magbubukid	-12766
▁magdudulot	-12767
▁maghapunan	-12768
▁magkagalit	-12769
▁magkaharap	-12770
▁magkakamag	-12771
▁magkasundo	-12772
▁magpahayag	-12773
▁magpautang	-12774
▁magsabatas	-12775
▁magtanggol	-12776
▁maitanghal	-12777
▁makabangon	-12778
▁makakamtan	-12779
▁makaramdam	-12780
▁manalangin	-12781
▁mananatili	-12782
▁mangyaring	-12783
▁mapagbigay	-12784
▁mapuputing	-12785
▁maralitang	-12786
▁matagumpay	-12787
▁matiyagang	-12788
▁mauunawaan	-12789
▁mawawaglit	-12790
▁nadagdagan	-12791
▁nagbangong	-12792
▁nagbubuhat	-12793
▁nagdahilan	-12794
▁naghahanda	-12795
▁naghahatid	-12796
▁naghahayag	-12797
▁naghiwalay	-12798
▁nagkapalad	-12799
▁naglalagay	-12800
▁naglalagos	-12801
▁naglilibot	-12802
▁nagpahayag	-12803
▁nagpapalit	-12804
▁nagpupugay	-12805
▁nagtatanim	-12806
▁nagugunita	-12807
▁nagwawakas	-12808
▁nakababasa	-12809
▁nakakulong	-12810
▁nakapanhik	-12811
▁nakikilala	-12812
▁namamangka	-12813
▁namamasyal	-12814
▁nanalangin	-12815
▁nananariwa	-12816
▁nananatili	-12817
▁nanghihina	-12818
▁nararating	-12819
▁naulinigan	-12820
▁ngumingiti	-12821
▁pagbabanta	-12822
▁paghahakot	-12823
▁paghaharap	-12824
▁pagkaganda	-12825
▁pagkakapag	-12826
▁pagkakapat	-12827
▁pagkalimot	-12828
▁pagkaputol	-12829
▁pagkatakot	-12830
▁paglalagay	-12831
▁paglalahad	-12832
▁paglilibot	-12833
▁pagpapalit	-12834
▁pagsusulat	-12835
▁pagtalikod	-12836
▁pagtibayin	-12837
▁pagwawakas	-12838
▁pagyamanin	-12839
▁pakikipags	-12840
▁palaisipan	-12841
▁pamamahagi	-12842
▁pampamilya	-12843
▁pandaigdig	-12844
▁panghihina	-12845
▁panghuling	-12846
▁panuntunan	-12847
▁papanhikin	-12848
▁pariralang	-12849
▁patuluyang	-12850
▁pinagagawa	-12851
▁prinsesang	-12852
▁pupuntahan	-12853
▁salubungin	-12854
▁sampaguita	-12855
▁sinasakyan	-12856
▁sinindihan	-12857
▁sinisipsip	-12858
▁sumalubong	-12859
▁sumasaklaw	-12860
▁taludturan	-12861
▁tanghaling	-12862
▁tatawaging	-12863
▁tinalunton	-12864
▁tinataglay	-12865
▁tinatakpan	-12866
▁tiwangwang	-12867
alapastangan	-12868
isinungaling	-12869
▁Impahimbang	-12870
▁Kapampangan	-12871
▁Maghimagsik	-12872
▁Pangawalang	-12873
▁Sitsiritsit	-12874
▁Tangkilikin	-12875
▁Villafuerte	-12876
▁advertising	-12877
▁alingawngaw	-12878
▁disposisyon	-12879
▁elementarya	-12880
▁ginagalawan	-12881
▁intelektwal	-12882
▁kabihasnang	-12883
▁kabundukang	-12884
▁kalinangang	-12885
▁kapanahunan	-12886
▁kaparaanang	-12887
▁kapulungang	-12888
▁kapupulutan	-12889
▁karamdamang	-12890
▁kasanggulan	-12891
▁kasaysayang	-12892
▁kasiphayuan	-12893
▁katarungang	-12894
▁kinatagpuan	-12895
▁laboratoryo	-12896
▁magdaragdag	-12897
▁magkasamang	-12898
▁magpagulang	-12899
▁maitutulong	-12900
▁maituturing	-12901
▁makabuluhan	-12902
▁makalimutan	-12903
▁makatuwiran	-12904
▁malalabasan	-12905
▁mamumuhunan	-12906
▁mananalamin	-12907
▁manghimasok	-12908
▁manlalakbay	-12909
▁mapatunayan	-12910
▁matatanggap	-12911
▁matatapatan	-12912
▁naghahandog	-12913
▁nagkakaloob	-12914
▁nagkapakpak	-12915
▁nagmamalaki	-12916
▁nagsusuyuan	-12917
▁nahihimbing	-12918
▁nakakalimot	-12919
▁nakalulunos	-12920
▁nakapaligid	-12921
▁nakasusulat	-12922
▁namamanglaw	-12923
▁namimilipit	-12924
▁nanghihingi	-12925
▁napayukayok	-12926
▁pagbabahagi	-12927
▁pagdaragdag	-12928
▁pagkadakila	-12929
▁pagkahirang	-12930
▁pagkakaluto	-12931
▁pagkamangha	-12932
▁paglilinang	-12933
▁pagpapairal	-12934
▁pagsisilang	-12935
▁pagtatamasa	-12936
▁pakikidigma	-12937
▁pakikilahok	-12938
▁pamimingwit	-12939
▁pananahimik	-12940
▁panganganak	-12941
▁panggagamot	-12942
▁pangingisda	-12943
▁pansariling	-12944
▁pasalamatan	-12945
▁pinagbigyan	-12946
▁pinagdaanan	-12947
▁pinagdarayo	-12948
▁pinaglaruan	-12949
▁pinaligiran	-12950
▁scholarship	-12951
▁sinisintang	-12952
▁siyentipiko	-12953
▁suspindihin	-12954
▁tagapakinig	-12955
▁tangkilikin	-12956
▁tinalikuran	-12957
▁tinatahanan	-12958
▁transaksyon	-12959
▁tumatanggap	-12960
apangyarihang	-12961
▁Binabantayan	-12962
▁Hermenegildo	-12963
▁Ipinalalagay	-12964
▁Nararamdaman	-12965
▁Pinakamataas	-12966
▁Proklamasyon	-12967
▁awtonomiyang	-12968
▁binabantayan	-12969
▁deliberasyon	-12970
▁himpapawirin	-12971
▁ikagiginhawa	-12972
▁kalalakihang	-12973
▁kayumangging	-12974
▁magkakasunod	-12975
▁magkakatulad	-12976
▁magpapatuloy	-12977
▁magsisilbing	-12978
▁magtagubilin	-12979
▁magtataguyod	-12980
▁mahimasmasan	-12981
▁maintindihan	-12982
▁makabuluhang	-12983
▁makakatulong	-12984
▁mananatiling	-12985
▁mangangalaga	-12986
▁manggagawang	-12987
▁mapagkukunan	-12988
▁nakakapiling	-12989
▁nakarehistro	-12990
▁nangakaraang	-12991
▁nanggagaling	-12992
▁nangyayaring	-12993
▁nasisiyahang	-12994
▁pagkakahawig	-12995
▁pagkakasugat	-12996
▁pagkakasunod	-12997
▁pagkakautang	-12998
▁pagkatanggap	-12999
▁pagmamalabis	-13000
▁pagpapatibay	-13001
▁pagpapatotoo	-13002
▁pagpapayaman	-13003
▁pagpipitagan	-13004
▁pagtangkilik	-13005
▁palatuntunan	-13006
▁pampanitikan	-13007
▁paniniwalang	-13008
▁panrelihiyon	-13009
▁pinagbilinan	-13010
▁pinaghirapan	-13011
▁pinaglabanan	-13012
▁pinagsabihan	-13013
▁pinagtawanan	-13014
▁pinalamutian	-13015
▁proklamasyon	-13016
▁sibilisasyon	-13017
▁subdibisyong	-13018
▁supernatural	-13019
▁Ipinagpatuloy	-13020
▁Nakapagtataka	-13021
▁Pinatutunayan	-13022
▁ikatatlumpung	-13023
▁kaluwalhatian	-13024
▁maipagtanggol	-13025
▁makapagsimula	-13026
▁makipanirahan	-13027
▁maluwalhating	-13028
▁mangangalakal	-13029
▁mapagkukunang	-13030
▁mapaparusahan	-13031
▁naghihinagpis	-13032
▁nakatatandang	-13033
▁naratipikahan	-13034
▁pagkakaibigan	-13035
▁pagpapasyahan	-13036
▁pagtatagumpay	-13037
▁pagtutulungan	-13038
▁pangingibabaw	-13039
▁pangrelihiyon	-13040
▁pinagkalooban	-13041
▁pinaglibingan	-13042
▁pinatutunayan	-13043
▁Pinaniniwalaan	-13044
▁interpretasyon	-13045
▁kinatatakutang	-13046
▁magpakailanman	-13047
▁maisakatuparan	-13048
▁makapagbibigay	-13049
▁mangungunyapit	-13050
▁nagpapahiwatig	-13051
▁napapalamutian	-13052
▁pangkalinangan	-13053
▁pangungumpisal	-13054
▁pinagtatagpuan	-13055
▁umaalingawngaw	-13056
▁Makapangyarihan	-13057
▁kasinungalingan	-13058
▁komprehensibong	-13059
▁napagbintangang	-13060
▁napagpasiyahang	-13061
▁pagpapahalagang	-13062
▁pinagtagumpayan	-13063
▁pinangungunahan	-13064
-12	-13065
-20	-13066
00.	-13067
32)	-13068
5):	-13069
AMA	-13070
Eee	-13071
IYA	-13072
KAL	-13073
TOR	-13074
UNG	-13075
eck	-13076
eee	-13077
fea	-13078
ief	-13079
kia	-13080
poc	-13081
tec	-13082
-12:	-13083
604.	-13084
APAG	-13085
Alam	-13086
Araw	-13087
Buod	-13088
CTOR	-13089
Dard	-13090
Flor	-13091
ILIP	-13092
Ibig	-13093
LING	-13094
Magm	-13095
ONST	-13096
Patr	-13097
UNAN	-13098
akti	-13099
-39	-13100
noo	-13101
Ikin	-13102
Nags	-13103
argo	-13104
baon	-13105
bato	-13106
biro	-13107
celo	-13108
cher	-13109
chos	-13110
cpoc	-13111
cuad	-13112
dite	-13113
ence	-13114
gayn	-13115
ikmo	-13116
lowe	-13117
magb	-13118
mlks	-13119
ngao	-13120
omoo	-13121
peta	-13122
plas	-13123
rade	-13124
rico	-13125
riol	-13126
ssss	-13127
tada	-13128
ucia	-13129
ugba	-13130
vice	-13131
vide	-13132
yoso	-13133
▁(9)	-13134
▁151	-13135
▁30,	-13136
▁Aca	-13137
▁Apr	-13138
▁Asu	-13139
▁Eba	-13140
▁Low	-13141
▁PAM	-13142
▁Paz	-13143
▁ROS	-13144
▁Rec	-13145
▁TAD	-13146
▁TAG	-13147
▁VII	-13148
▁for	-13149
▁ide	-13150
▁ire	-13151
▁roo	-13152
▁uso	-13153
▁val	-13154
Akong	-13155
Matut	-13156
Ngayo	-13157
STADO	-13158
ablot	-13159
ahuyo	-13160
akmal	-13161
aldal	-13162
amtam	-13163
anyag	-13164
aplos	-13165
apora	-13166
bando	-13167
bukas	-13168
buong	-13169
casta	-13170
chant	-13171
cillo	-13172
doras	-13173
durog	-13174
eckar	-13175
ectec	-13176
eksto	-13177
empsy	-13178
erico	-13179
ertos	-13180
etiro	-13181
gusot	-13182
idido	-13183
iguel	-13184
iilaw	-13185
iinit	-13186
iitim	-13187
ikdik	-13188
ikomp	-13189
iktis	-13190
ilihi	-13191
itian	-13192
itono	-13193
iyera	-13194
kanya	-13195
lagim	-13196
ligid	-13197
lipop	-13198
luksa	-13199
eyp	-13200
ashi	-13201
ebey	-13202
sisi	-13203
▁Chi	-13204
▁Dav	-13205
▁Seb	-13206
mahal	-13207
mamam	-13208
minsa	-13209
nubay	-13210
nugot	-13211
ombra	-13212
onsid	-13213
orcis	-13214
ordin	-13215
pawis	-13216
pukan	-13217
rolyo	-13218
seras	-13219
silyo	-13220
suwan	-13221
tagpo	-13222
talon	-13223
tumba	-13224
tuyot	-13225
ughog	-13226
ukdok	-13227
ulwak	-13228
ulyap	-13229
urgos	-13230
uugat	-13231
vukad	-13232
watak	-13233
witas	-13234
yenda	-13235
▁Alba	-13236
▁Amay	-13237
▁Bayl	-13238
▁Budd	-13239
▁Caca	-13240
▁Epim	-13241
▁Harp	-13242
▁High	-13243
▁Laru	-13244
▁Losl	-13245
▁Misk	-13246
▁PAMB	-13247
▁Pasc	-13248
▁Shar	-13249
▁Unos	-13250
▁Utak	-13251
▁Vill	-13252
▁amba	-13253
▁amga	-13254
▁bibe	-13255
▁gras	-13256
▁guho	-13257
▁hard	-13258
▁impi	-13259
▁ipau	-13260
▁iwas	-13261
▁kimm	-13262
▁kudy	-13263
▁rubi	-13264
▁sipa	-13265
▁soso	-13266
▁tayu	-13267
▁teyp	-13268
▁tigh	-13269
▁titi	-13270
▁tult	-13271
▁turb	-13272
ALINIS	-13273
AMBINI	-13274
ANSANG	-13275
Aruman	-13276
HANANG	-13277
IPUNAN	-13278
Lalake	-13279
Magpip	-13280
Magsis	-13281
Naging	-13282
Nakang	-13283
Narito	-13284
Nasaan	-13285
Sasamb	-13286
aaabot	-13287
aalpas	-13288
abitiw	-13289
adyain	-13290
aghari	-13291
ahador	-13292
ahasik	-13293
alibag	-13294
alupan	-13295
amakin	-13296
anayam	-13297
andard	-13298
angond	-13299
ica	-13300
ensy	-13301
epto	-13302
fino	-13303
icol	-13304
nest	-13305
▁Eks	-13306
▁Luc	-13307
▁ass	-13308
sigla	-13309
yales	-13310
▁himl	-13311
▁mest	-13312
abigla	-13313
aliban	-13314
aninaw	-13315
apamil	-13316
apusin	-13317
aramay	-13318
aridad	-13319
arimot	-13320
arinaw	-13321
aripas	-13322
asamba	-13323
atuday	-13324
ayadas	-13325
bagong	-13326
cpoclo	-13327
cuadro	-13328
ebeyew	-13329
elismo	-13330
empong	-13331
ensyal	-13332
esorya	-13333
espada	-13334
eywang	-13335
gaynet	-13336
igatig	-13337
ighani	-13338
ihiyan	-13339
iinang	-13340
incial	-13341
irenas	-13342
iretso	-13343
isigla	-13344
itikom	-13345
itnang	-13346
iumpok	-13347
laking	-13348
libing	-13349
ligtas	-13350
lument	-13351
masdan	-13352
ogyaya	-13353
okohan	-13354
orcism	-13355
oucher	-13356
ponsab	-13357
radong	-13358
rapiko	-13359
regalo	-13360
regula	-13361
rodite	-13362
saglit	-13363
sasaya	-13364
takang	-13365
ubuwal	-13366
udurog	-13367
ugenio	-13368
ugnung	-13369
ugtung	-13370
uhugin	-13371
ulapay	-13372
umikap	-13373
unidad	-13374
unsina	-13375
upikal	-13376
usyoso	-13377
uugnay	-13378
venido	-13379
waging	-13380
yenang	-13381
▁1604.	-13382
▁Abala	-13383
▁Aladi	-13384
▁Ambro	-13385
▁Aming	-13386
▁Armen	-13387
▁Bakya	-13388
▁Benig	-13389
▁Benus	-13390
▁Bicol	-13391
▁Buuin	-13392
▁Dampa	-13393
▁Enero	-13394
▁Giliw	-13395
▁Ginto	-13396
▁Gitna	-13397
▁Hamak	-13398
▁Iloko	-13399
▁Ipa	-13400
▁dep	-13401
Batas	-13402
amsik	-13403
lagot	-13404
liham	-13405
▁Aeta	-13406
▁Isda	-13407
▁Isip	-13408
▁ROSA	-13409
▁amis	-13410
▁aria	-13411
▁kopa	-13412
akisig	-13413
ibangb	-13414
puring	-13415
uruang	-13416
▁Dilag	-13417
▁Ipina	-13418
▁KONST	-13419
▁Kabat	-13420
▁Kagit	-13421
▁Kamay	-13422
▁Kamya	-13423
▁Kanin	-13424
▁Karun	-13425
▁Kasoy	-13426
▁Kayat	-13427
▁LAHAT	-13428
▁Lince	-13429
▁Linog	-13430
▁Minsa	-13431
▁Momoo	-13432
▁Mutya	-13433
▁Nahih	-13434
▁Ohhhh	-13435
▁Panan	-13436
▁Payat	-13437
▁Pipit	-13438
▁Polid	-13439
▁Pugad	-13440
▁Repor	-13441
▁Reyes	-13442
▁Sasab	-13443
▁Singk	-13444
▁Sukat	-13445
▁Tangi	-13446
▁Tebas	-13447
▁Tomas	-13448
▁Tomin	-13449
▁Tsina	-13450
▁Umupo	-13451
▁Undas	-13452
▁Venus	-13453
▁aisle	-13454
▁ambas	-13455
▁ambon	-13456
▁ampon	-13457
▁asset	-13458
▁babal	-13459
▁beter	-13460
▁bihag	-13461
▁binuo	-13462
▁bitak	-13463
▁brief	-13464
▁bungi	-13465
▁bunyi	-13466
▁burok	-13467
▁buslo	-13468
▁dadag	-13469
▁dagim	-13470
▁dagli	-13471
▁dagok	-13472
▁darak	-13473
▁deten	-13474
▁dilat	-13475
▁disab	-13476
▁durog	-13477
▁gatol	-13478
▁gulod	-13479
▁hahag	-13480
▁hyena	-13481
▁iatas	-13482
▁ikons	-13483
▁inani	-13484
▁inapo	-13485
▁ipagm	-13486
▁ipagt	-13487
▁iwing	-13488
▁kakab	-13489
▁kakar	-13490
▁kikil	-13491
▁koles	-13492
▁kolor	-13493
▁konde	-13494
▁kubol	-13495
▁kurap	-13496
▁kurso	-13497
▁kutad	-13498
▁kutya	-13499
200	-13500
▁35	-13501
▁39	-13502
▁fa	-13503
Ipak	-13504
ahop	-13505
igsi	-13506
inop	-13507
ahibo	-13508
akada	-13509
igiba	-13510
kanay	-13511
libot	-13512
▁laon	-13513
▁oper	-13514
ilanon	-13515
kimpal	-13516
▁Hinto	-13517
▁Lipay	-13518
▁Matut	-13519
▁Sakay	-13520
▁gabay	-13521
▁lanta	-13522
▁laong	-13523
▁lasap	-13524
▁latin	-13525
▁laway	-13526
▁liksi	-13527
▁lipat	-13528
▁lolok	-13529
▁lunos	-13530
▁macan	-13531
▁mawiw	-13532
▁memor	-13533
▁nadad	-13534
▁nalao	-13535
▁naupo	-13536
▁ngipi	-13537
▁niyan	-13538
▁pabor	-13539
▁paroo	-13540
▁pawid	-13541
▁pilas	-13542
▁pilik	-13543
▁pingk	-13544
▁puwed	-13545
▁rever	-13546
▁rosal	-13547
▁rumar	-13548
▁sangh	-13549
▁santa	-13550
▁sasan	-13551
▁sekta	-13552
▁semin	-13553
▁sikad	-13554
▁sipit	-13555
▁sisis	-13556
▁siyas	-13557
▁sugal	-13558
▁suwel	-13559
▁tampo	-13560
▁teleb	-13561
▁tibud	-13562
▁tiisi	-13563
▁tumba	-13564
▁tuyot	-13565
▁ugong	-13566
▁valid	-13567
▁vinta	-13568
Bugtong	-13569
Gagawin	-13570
Katawan	-13571
Luluhod	-13572
Malaueg	-13573
Matanto	-13574
Maynila	-13575
Ninakaw	-13576
Pasigaw	-13577
Sinuman	-13578
Tatlong	-13579
aawitan	-13580
abinyag	-13581
abuklod	-13582
abuksan	-13583
agaslas	-13584
aglayin	-13585
agpuang	-13586
agsakan	-13587
ahatiin	-13588
alagian	-13589
alamlam	-13590
alamyos	-13591
alibing	-13592
alimuot	-13593
alogdog	-13594
alpasan	-13595
aluktot	-13596
alungat	-13597
amasama	-13598
ambahay	-13599
civ	-13600
Nagd	-13601
buko	-13602
hers	-13603
▁KAT	-13604
▁civ	-13605
Mapan	-13606
abuso	-13607
aluin	-13608
kapan	-13609
masok	-13610
panin	-13611
▁Papa	-13612
▁agua	-13613
▁istr	-13614
▁pugo	-13615
▁swak	-13616
▁teks	-13617
abilin	-13618
agdang	-13619
asayaw	-13620
ikatan	-13621
ilapon	-13622
pansin	-13623
yayaan	-13624
▁Arabi	-13625
▁Mapan	-13626
▁Papal	-13627
▁civil	-13628
▁ehers	-13629
▁hahal	-13630
▁indul	-13631
▁labak	-13632
▁lundo	-13633
▁salot	-13634
agasang	-13635
ambayad	-13636
amikong	-13637
amilant	-13638
apanhik	-13639
arahuyo	-13640
asarili	-13641
asikaso	-13642
atasang	-13643
atectec	-13644
atnubay	-13645
ayabong	-13646
ayukdok	-13647
didilim	-13648
dugtong	-13649
ederico	-13650
edestal	-13651
ematika	-13652
ensuela	-13653
ensyong	-13654
estiyon	-13655
etapora	-13656
ginanap	-13657
hanggan	-13658
hensiya	-13659
hrodite	-13660
ibigkis	-13661
ihangin	-13662
iikutin	-13663
ikalawa	-13664
iktorya	-13665
ilanlin	-13666
ilyuhan	-13667
imortal	-13668
inaayos	-13669
inamnam	-13670
inigiit	-13671
insulto	-13672
isingin	-13673
iwagaan	-13674
iyayaan	-13675
kabigin	-13676
katlong	-13677
lilisik	-13678
mabilis	-13679
maganda	-13680
mundong	-13681
negosyo	-13682
nitaryo	-13683
ologist	-13684
omunyon	-13685
ongabon	-13686
opootan	-13687
patupad	-13688
pinsala	-13689
pisahan	-13690
present	-13691
reklamo	-13692
rilyero	-13693
samahin	-13694
sampung	-13695
saulian	-13696
sinukob	-13697
sunuran	-13698
ugbugin	-13699
Bac	-13700
ctor	-13701
ikdo	-13702
lima	-13703
atahi	-13704
imbin	-13705
impil	-13706
octor	-13707
risan	-13708
rofea	-13709
▁Kail	-13710
▁trab	-13711
Doctor	-13712
adhika	-13713
astern	-13714
ihisan	-13715
ilisan	-13716
ipigan	-13717
irikan	-13718
isigan	-13719
unlang	-13720
uwisan	-13721
▁Ginap	-13722
▁Kaawa	-13723
▁Mahih	-13724
▁Tanod	-13725
▁aping	-13726
▁inimb	-13727
▁ipagh	-13728
▁likat	-13729
▁likaw	-13730
▁mariw	-13731
▁tipon	-13732
▁turan	-13733
apaapoy	-13734
ilagang	-13735
risanto	-13736
ukdulan	-13737
ulaanan	-13738
uluwang	-13739
umanhik	-13740
umurang	-13741
uwintas	-13742
▁(1932)	-13743
▁30,000	-13744
▁Aakyat	-13745
▁Angkin	-13746
▁Arabic	-13747
▁Bagwis	-13748
▁Bandan	-13749
▁Bayaan	-13750
▁Bumili	-13751
▁Bungal	-13752
▁Burgos	-13753
▁Buwaya	-13754
▁Damdam	-13755
▁ESTADO	-13756
▁Enrile	-13757
▁Gloria	-13758
▁Guwela	-13759
▁Hangad	-13760
▁Higera	-13761
▁Hinang	-13762
▁Ilipad	-13763
▁Iliyan	-13764
▁Ilocos	-13765
▁Inusig	-13766
▁Ipinab	-13767
▁Isipin	-13768
▁KASAMA	-13769
▁Kabesa	-13770
▁Kagabi	-13771
▁Kaning	-13772
▁Karamp	-13773
▁Kasukd	-13774
▁Kausap	-13775
▁Korong	-13776
▁Labins	-13777
▁Labong	-13778
▁Ligtas	-13779
▁Loslos	-13780
▁Lupain	-13781
▁Makati	-13782
▁Mamili	-13783
▁Manang	-13784
▁Menand	-13785
▁Minago	-13786
▁Miskoy	-13787
▁Momong	-13788
▁Muntik	-13789
▁Nagbab	-13790
▁Nagmak	-13791
▁Nagpas	-13792
▁Nagsis	-13793
▁Nakasa	-13794
▁Nanood	-13795
▁Napuna	-13796
▁Naumid	-13797
▁Nenita	-13798
▁Orofea	-13799
Ab	-13800
Ad	-13801
dob	-13802
▁Ur	-13803
Adab	-13804
Gaya	-13805
Naka	-13806
casi	-13807
digo	-13808
itla	-13809
puan	-13810
yora	-13811
▁Sit	-13812
▁har	-13813
Mahin	-13814
alika	-13815
amook	-13816
entil	-13817
ongto	-13818
ubdob	-13819
▁Mana	-13820
▁Nene	-13821
▁bona	-13822
▁casi	-13823
▁himp	-13824
▁libl	-13825
▁mass	-13826
Halika	-13827
Manobo	-13828
aligan	-13829
isahin	-13830
isilip	-13831
kinita	-13832
tatamo	-13833
▁Bansa	-13834
▁Urban	-13835
▁eklip	-13836
▁kalap	-13837
▁kalus	-13838
▁masig	-13839
▁masug	-13840
abaging	-13841
abaunan	-13842
aluhong	-13843
amaalam	-13844
ambahin	-13845
ongtoan	-13846
uklukan	-13847
▁Hermes	-13848
▁Manaul	-13849
▁Osmali	-13850
▁Padang	-13851
▁Pagkag	-13852
▁Paglip	-13853
▁Pandak	-13854
▁Parati	-13855
▁Paulit	-13856
▁Persia	-13857
▁Pulubi	-13858
▁Rufino	-13859
▁SIMULA	-13860
▁Saging	-13861
▁Sakmal	-13862
▁Sigaan	-13863
▁Sinagm	-13864
▁Sising	-13865
▁Sundin	-13866
▁Susana	-13867
▁Tagyak	-13868
▁Tanyag	-13869
▁Tapaan	-13870
▁Teksto	-13871
▁Tinuka	-13872
▁Tuliro	-13873
▁Turkia	-13874
▁Turuan	-13875
▁Tuyong	-13876
▁Unahan	-13877
▁abutan	-13878
▁adelpa	-13879
▁alabok	-13880
▁alibug	-13881
▁amnest	-13882
▁aragan	-13883
▁arkong	-13884
▁asotea	-13885
▁bakasy	-13886
▁balota	-13887
▁barong	-13888
▁basong	-13889
▁binato	-13890
▁bitbit	-13891
▁bubuga	-13892
▁buktot	-13893
▁bungad	-13894
▁buntis	-13895
▁dakpin	-13896
▁daratn	-13897
▁desent	-13898
▁devide	-13899
!)	-13900
.")	-13901
ekn	-13902
hud	-13903
kur	-13904
sol	-13905
▁10	-13906
agak	-13907
alsa	-13908
idor	-13909
▁Hoy	-13910
▁tiw	-13911
Dahil	-13912
aalan	-13913
gusto	-13914
iibig	-13915
iiwan	-13916
iluha	-13917
pitan	-13918
udhud	-13919
urias	-13920
yalan	-13921
▁Atin	-13922
▁Katu	-13923
▁Pusa	-13924
▁cari	-13925
▁habi	-13926
▁hati	-13927
▁namn	-13928
aakyat	-13929
alabin	-13930
aputok	-13931
isipol	-13932
udlang	-13933
ungkag	-13934
utukin	-13935
▁Dadal	-13936
▁Dilim	-13937
▁Kabal	-13938
▁Mapag	-13939
▁aagap	-13940
▁aleng	-13941
▁kapon	-13942
▁manib	-13943
▁mulat	-13944
akadugo	-13945
alambot	-13946
alunton	-13947
idating	-13948
iglahan	-13949
▁Furias	-13950
▁Hangal	-13951
▁Hudhud	-13952
▁Naakit	-13953
▁Pagpup	-13954
▁dayami	-13955
▁diyata	-13956
▁dulaan	-13957
▁dungis	-13958
▁dyaryo	-13959
▁eksors	-13960
▁garant	-13961
▁gatong	-13962
▁ginuho	-13963
▁gitgit	-13964
▁grasya	-13965
▁guguan	-13966
▁gumiri	-13967
▁hagkan	-13968
▁hapagk	-13969
▁humpay	-13970
▁iganti	-13971
▁igawad	-13972
▁ihasik	-13973
▁ihayag	-13974
▁ikabub	-13975
▁ikalul	-13976
▁ikatlo	-13977
▁ikinag	-13978
▁ikinas	-13979
▁ikinat	-13980
▁ilagay	-13981
▁impera	-13982
▁inaama	-13983
▁inasam	-13984
▁inihaw	-13985
▁ipagka	-13986
▁ipapak	-13987
▁ipataw	-13988
▁ipukol	-13989
▁isinis	-13990
▁isinus	-13991
▁isukat	-13992
▁kaalam	-13993
▁kabibi	-13994
▁kahang	-13995
▁kaibig	-13996
▁kainan	-13997
▁kakain	-13998
▁kaliks	-13999
UK	-14000
aws	-14001
des	-14002
gal	-14003
ile	-14004
▁(4	-14005
▁Er	-14006
ales	-14007
anyo	-14008
ason	-14009
hena	-14010
iago	-14011
laan	-14012
ogod	-14013
silk	-14014
unok	-14015
▁Ate	-14016
▁Ulo	-14017
▁bok	-14018
▁lun	-14019
▁mod	-14020
apant	-14021
awsaw	-14022
kahan	-14023
laman	-14024
oseso	-14025
unaan	-14026
▁1515	-14027
▁Payo	-14028
▁bagk	-14029
▁kubl	-14030
adikit	-14031
ahatan	-14032
alamig	-14033
itinda	-14034
ogodog	-14035
sunong	-14036
ukasan	-14037
▁1515.	-14038
▁Binti	-14039
▁Kalaw	-14040
▁Makap	-14041
▁Maman	-14042
▁Tiago	-14043
▁kayam	-14044
▁makin	-14045
▁makuk	-14046
▁malun	-14047
▁mapah	-14048
▁monte	-14049
▁naaan	-14050
alangoy	-14051
ambulat	-14052
anggong	-14053
aralgal	-14054
arining	-14055
▁Athena	-14056
▁bayaan	-14057
▁kanunu	-14058
▁kasimp	-14059
▁kastil	-14060
▁kimpal	-14061
▁kinita	-14062
▁kintab	-14063
▁kinumb	-14064
▁komang	-14065
▁konsul	-14066
▁kusina	-14067
▁kwenta	-14068
▁lampad	-14069
▁lampas	-14070
▁lampin	-14071
▁lapain	-14072
▁lasing	-14073
▁lasong	-14074
▁luhaan	-14075
▁lumaon	-14076
▁lumiit	-14077
▁maatim	-14078
▁magdar	-14079
▁maghim	-14080
▁maginh	-14081
▁magmay	-14082
▁magnom	-14083
▁maikli	-14084
▁maiksi	-14085
▁maipak	-14086
▁mairog	-14087
▁makaka	-14088
▁makaya	-14089
▁manood	-14090
▁materi	-14091
▁maulit	-14092
▁mawika	-14093
▁merito	-14094
▁naaani	-14095
▁naaawa	-14096
▁nabawi	-14097
▁nagmum	-14098
▁nahapo	-14099
Nat	-14100
huy	-14101
sum	-14102
toc	-14103
▁to	-14104
gata	-14105
gulo	-14106
idas	-14107
obya	-14108
vana	-14109
▁Lol	-14110
▁Pur	-14111
▁Syb	-14112
▁ant	-14113
▁mol	-14114
▁pol	-14115
entor	-14116
ingid	-14117
inong	-14118
ontoc	-14119
papel	-14120
tawad	-14121
▁Bita	-14122
▁Hern	-14123
▁haba	-14124
▁hita	-14125
▁ibat	-14126
▁ibib	-14127
▁ipab	-14128
▁kali	-14129
▁nait	-14130
▁pran	-14131
▁tela	-14132
Bayaan	-14133
agutom	-14134
tauhan	-14135
▁Basag	-14136
▁Midas	-14137
▁gangg	-14138
▁marur	-14139
▁pagal	-14140
alooban	-14141
aravana	-14142
ugulong	-14143
yenteng	-14144
▁Bigong	-14145
▁Bontoc	-14146
▁kubkob	-14147
▁lingid	-14148
▁mamaka	-14149
▁mediko	-14150
▁molabe	-14151
▁nadala	-14152
▁nailat	-14153
▁naisat	-14154
▁naitan	-14155
▁nakini	-14156
▁nalaon	-14157
▁naligo	-14158
▁nanahi	-14159
▁napawi	-14160
▁nautas	-14161
▁nauuwi	-14162
▁nunung	-14163
▁pabuya	-14164
▁padyak	-14165
▁pagdir	-14166
▁pakwan	-14167
▁paluin	-14168
▁panata	-14169
▁panira	-14170
▁pasint	-14171
▁pastor	-14172
▁patnub	-14173
▁pawiin	-14174
▁perdig	-14175
▁piliin	-14176
▁pinans	-14177
▁piniit	-14178
▁piskal	-14179
▁pumawi	-14180
▁pyesta	-14181
▁sakram	-14182
▁sasagp	-14183
▁sedula	-14184
▁sibiko	-14185
▁sierpe	-14186
▁silyon	-14187
▁singko	-14188
▁siwang	-14189
▁soldad	-14190
▁subsid	-14191
▁suklam	-14192
▁sungit	-14193
▁sunung	-14194
▁suriin	-14195
▁susuko	-14196
▁tadtad	-14197
▁teksto	-14198
▁tiktak	-14199
"?	-14200
-9	-14201
Hul	-14202
eni	-14203
eny	-14204
gas	-14205
nen	-14206
AMAM	-14207
Unti	-14208
ihon	-14209
imen	-14210
isen	-14211
isil	-14212
▁Duw	-14213
▁Mod	-14214
▁Ter	-14215
▁den	-14216
Malag	-14217
Patay	-14218
alags	-14219
alaim	-14220
ander	-14221
enyor	-14222
isana	-14223
▁Prom	-14224
▁esep	-14225
▁gong	-14226
▁kaag	-14227
▁kaap	-14228
Siyang	-14229
abaing	-14230
abanan	-14231
alawig	-14232
▁Lalak	-14233
▁Tulog	-14234
▁bulok	-14235
▁espos	-14236
▁hitan	-14237
▁kalim	-14238
▁patag	-14239
▁pilos	-14240
▁tarak	-14241
Hulihin	-14242
Malagom	-14243
aksakin	-14244
▁Natawa	-14245
▁Talags	-14246
▁balkon	-14247
▁ipinab	-14248
▁krimen	-14249
▁nangal	-14250
▁patong	-14251
▁senyor	-14252
▁sumbat	-14253
▁tingal	-14254
▁tingga	-14255
▁tinola	-14256
▁tubuan	-14257
▁tukain	-14258
▁tuklas	-14259
▁umihip	-14260
▁umunat	-14261
▁unahin	-14262
▁upuang	-14263
▁uunlad	-14264
▁wasaki	-14265
▁yantok	-14266
▁yumuko	-14267
Arumanen	-14268
Bibigkas	-14269
Dardarat	-14270
Dekalogo	-14271
Florante	-14272
Iaangkop	-14273
Ibibigay	-14274
Kaibigan	-14275
Lumundag	-14276
Mamayang	-14277
Paulitin	-14278
Pupwesto	-14279
Titingin	-14280
aalalang	-14281
aasikaso	-14282
abalutan	-14283
agabihan	-14284
agayakan	-14285
aginting	-14286
agkanulo	-14287
ahagurin	-14288
ahanguin	-14289
ahantong	-14290
ahariang	-14291
alakhing	-14292
alungkot	-14293
amatuwid	-14294
anagutin	-14295
andidato	-14296
andingan	-14297
angakong	-14298
apanatag	-14299
kuw	-14300
tuw	-14301
aawa	-14302
abes	-14303
arik	-14304
ubot	-14305
▁dad	-14306
▁kot	-14307
▁nut	-14308
▁tro	-14309
adiin	-14310
agasa	-14311
awawa	-14312
ipres	-14313
lapad	-14314
musal	-14315
witin	-14316
▁(199	-14317
▁aaga	-14318
▁hila	-14319
▁inak	-14320
▁kasa	-14321
▁pila	-14322
Kawawa	-14323
agalaw	-14324
alimit	-14325
andong	-14326
hapong	-14327
ilibak	-14328
ilihan	-14329
madiin	-14330
manong	-14331
pektor	-14332
▁Daing	-14333
▁Lanao	-14334
▁Lorna	-14335
▁Mapay	-14336
▁Tahan	-14337
▁Yabes	-14338
▁ipagp	-14339
▁kalat	-14340
▁karat	-14341
▁nawaw	-14342
▁posib	-14343
▁talis	-14344
▁tanim	-14345
awanang	-14346
▁Awitin	-14347
▁Dumapo	-14348
▁hibang	-14349
▁hingan	-14350
▁ikapag	-14351
▁kawali	-14352
▁maring	-14353
▁nangat	-14354
▁pandar	-14355
▁tighaw	-14356
ararapat	-14357
arinigan	-14358
asapitan	-14359
asiyahan	-14360
atatapon	-14361
atingkad	-14362
chantara	-14363
didatong	-14364
eguruhan	-14365
engkanto	-14366
envenido	-14367
etyembre	-14368
ibilihan	-14369
ihimasok	-14370
ikompisa	-14371
ilikhain	-14372
ilinlang	-14373
inigilan	-14374
inisikan	-14375
intuturo	-14376
isinalin	-14377
isiyasat	-14378
itirikan	-14379
iwalaang	-14380
maghapon	-14381
nanasang	-14382
obotohan	-14383
ograpiko	-14384
piritung	-14385
presyong	-14386
rehiyong	-14387
salaysay	-14388
simbahan	-14389
ubukalan	-14390
ubuwisit	-14391
ugaliang	-14392
ungsuwan	-14393
untugang	-14394
wentuhan	-14395
▁Alagaan	-14396
▁Andrade	-14397
▁Apolaki	-14398
▁Babaing	-14399
ayt	-14400
imo	-14401
▁be	-14402
Saka	-14403
anos	-14404
ingp	-14405
ubul	-14406
▁Sob	-14407
▁Sur	-14408
Amang	-14409
andum	-14410
balat	-14411
dilim	-14412
sindi	-14413
umaga	-14414
▁Bete	-14415
▁kaib	-14416
▁kurt	-14417
▁sako	-14418
▁tuso	-14419
alahaw	-14420
andata	-14421
apitas	-14422
ilanga	-14423
inging	-14424
ubukal	-14425
▁Disin	-14426
▁Pingp	-14427
▁Sobra	-14428
▁barko	-14429
▁malis	-14430
▁mapit	-14431
alakpak	-14432
atanong	-14433
islapan	-14434
[...]
