<unk>	0
<s>	0
</s>	0
ng	-0
ang	-1
an	-2
▁n	-3
ag	-4
▁s	-5
▁m	-6
at	-7
al	-8
ay	-9
in	-10
▁k	-11
▁p	-12
ak	-13
▁ng	-14
▁sa	-15
▁ang	-16
▁na	-17
it	-18
am	-19
il	-20
ing	-21
as	-22
▁b	-23
ong	-24
aw	-25
ap	-26
ah	-27
ar	-28
▁t	-29
▁l	-30
ab	-31
iy	-32
▁d	-33
▁A	-34
▁at	-35
ul	-36
is	-37
ig	-38
▁ay	-39
ga	-40
um	-41
▁h	-42
un	-43
▁mga	-44
on	-45
▁N	-46
▁S	-47
ik	-48
▁M	-49
▁pag	-50
ib	-51
ung	-52
iya	-53
▁K	-54
▁P	-55
▁I	-56
▁mag	-57
▁g	-58
▁Ang	-59
▁nag	-60
ad	-61
ip	-62
▁kan	-63
ut	-64
▁B	-65
us	-66
uh	-67
ito	-68
im	-69
ala	-70
▁is	-71
and	-72
▁D	-73
▁ni	-74
▁si	-75
..	-76
▁L	-77
ind	-78
up	-79
ilang	-80
yang	-81
▁ak	-82
▁T	-83
ila	-84
uw	-85
▁Sa	-86
os	-87
ub	-88
▁"	-89
▁nang	-90
iw	-91
awa	-92
uk	-93
alak	-94
▁H	-95
ot	-96
aya	-97
indi	-98
▁ka	-99
▁isang	-100
▁kanyang	-101
alang	-102
▁may	-103
▁ko	-104
ug	-105
og	-106
▁ito	-107
ir	-108
ita	-109
ih	-110
▁mo	-111
▁w	-112
iyang	-113
ayan	-114
▁niya	-115
ayo	-116
id	-117
▁At	-118
▁in	-119
▁siya	-120
▁mat	-121
▁nak	-122
▁(	-123
▁pin	-124
▁ib	-125
▁ta	-126
▁pa	-127
▁pan	-128
ok	-129
ur	-130
amang	-131
▁hindi	-132
▁iy	-133
▁mal	-134
ol	-135
▁an	-136
apat	-137
ahan	-138
angg	-139
▁mak	-140
▁r	-141
▁nam	-142
alag	-143
ya	-144
ari	-145
uhay	-146
oy	-147
to	-148
aan	-149
▁pang	-150
▁Nag	-151
▁kung	-152
...	-153
or	-154
ibig	-155
▁sin	-156
oon	-157
en	-158
ata	-159
ahat	-160
ula	-161
yo	-162
▁pagk	-163
aman	-164
er	-165
ama	-166
od	-167
▁ako	-168
▁ma	-169
sa	-170
▁kas	-171
▁man	-172
▁kat	-173
araw	-174
anda	-175
aba	-176
▁di	-177
ating	-178
agk	-179
abi	-180
und	-181
▁kay	-182
aka	-183
▁Ng	-184
▁mas	-185
▁kal	-186
▁lum	-187
▁tao	-188
ipin	-189
ant	-190
▁G	-191
▁par	-192
▁kah	-193
."	-194
awang	-195
▁Kung	-196
▁lamang	-197
▁kap	-198
▁lahat	-199
▁dal	-200
▁it	-201
andang	-202
▁tin	-203
ayon	-204
▁mah	-205
▁kanilang	-206
alan	-207
▁buhay	-208
▁mab	-209
alit	-210
▁In	-211
ahil	-212
amat	-213
▁niyang	-214
unit	-215
▁sila	-216
unt	-217
▁anak	-218
▁aking	-219
▁mar	-220
▁siyang	-221
upang	-222
▁kab	-223
▁kong	-224
▁ik	-225
▁araw	-226
akas	-227
▁iyong	-228
▁o	-229
amp	-230
▁rin	-231
▁Na	-232
ulang	-233
▁naman	-234
▁din	-235
▁e	-236
ana	-237
sang	-238
▁upang	-239
▁al	-240
▁nap	-241
▁pal	-242
▁map	-243
▁nat	-244
alaki	-245
▁walang	-246
int	-247
upa	-248
▁Nang	-249
▁bag	-250
uan	-251
ili	-252
▁um	-253
akit	-254
▁lang	-255
ika	-256
ob	-257
ali	-258
▁Ay	-259
▁bat	-260
▁pat	-261
▁bin	-262
amb	-263
▁W	-264
▁Mag	-265
aling	-266
▁baba	-267
ungk	-268
▁nila	-269
es	-270
asawa	-271
ina	-272
▁sum	-273
▁magk	-274
alik	-275
atu	-276
asa	-277
▁hin	-278
iwan	-279
▁gin	-280
ayang	-281
▁C	-282
▁tul	-283
.)	-284
▁tag	-285
alaga	-286
iling	-287
ins	-288
ahon	-289
apit	-290
▁May	-291
abang	-292
▁Hindi	-293
▁il	-294
▁Lam	-295
▁bah	-296
yong	-297
▁kam	-298
aring	-299
▁kar	-300
yan	-301
▁lupa	-302
uno	-303
alim	-304
▁U	-305
▁tum	-306
uti	-307
▁pus	-308
agkat	-309
aming	-310
▁wala	-311
uwag	-312
lak	-313
awan	-314
▁bayan	-315
angk	-316
▁Pag	-317
▁nin	-318
iyos	-319
ha	-320
▁babae	-321
alaking	-322
alo	-323
awag	-324
ihan	-325
▁kaya	-326
▁Isang	-327
ulan	-328
agat	-329
▁mong	-330
▁nga	-331
anggang	-332
▁Pil	-333
▁mang	-334
▁dahil	-335
▁Ag	-336
▁pam	-337
▁sal	-338
▁nito	-339
inig	-340
el	-341
ulo	-342
apag	-343
uhan	-344
▁sar	-345
uha	-346
yon	-347
▁Pilipin	-348
uwa	-349
▁dum	-350
▁lalaki	-351
ipag	-352
arang	-353
sas	-354
uto	-355
arap	-356
▁bul	-357
em	-358
▁pagl	-359
▁nagp	-360
▁y	-361
▁ikaw	-362
▁pinag	-363
▁ina	-364
▁R	-365
▁Al	-366
▁hal	-367
▁pak	-368
oong	-369
▁Ngunit	-370
tat	-371
▁langit	-372
▁mul	-373
▁ngunit	-374
ko	-375
unang	-376
▁ating	-377
▁dalawang	-378
,"	-379
aban	-380
asan	-381
▁kum	-382
▁itong	-383
irap	-384
itan	-385
▁puso	-386
aga	-387
▁po	-388
aran	-389
tong	-390
ain	-391
big	-392
▁lag	-393
▁Y	-394
▁Sin	-395
alin	-396
anap	-397
▁tat	-398
apang	-399
unong	-400
▁panahon	-401
▁E	-402
amah	-403
ungan	-404
▁kanya	-405
▁iba	-406
apatid	-407
uong	-408
▁Ito	-409
▁sab	-410
ta	-411
▁O	-412
▁Si	-413
amit	-414
▁kin	-415
▁nar	-416
aklak	-417
▁nagk	-418
▁F	-419
▁Il	-420
ugan	-421
▁hang	-422
apos	-423
▁iyo	-424
▁dito	-425
▁nags	-426
tan	-427
unga	-428
▁kul	-429
▁wika	-430
▁hanggang	-431
▁ba	-432
abas	-433
▁Pin	-434
▁ninyo	-435
▁naging	-436
ro	-437
igl	-438
▁Nak	-439
▁ama	-440
ayong	-441
▁asawa	-442
▁bahay	-443
▁dalaga	-444
▁mad	-445
pik	-446
▁buw	-447
ahang	-448
itong	-449
▁kang	-450
na	-451
awat	-452
awin	-453
▁hum	-454
una	-455
isip	-456
▁Datu	-457
▁para	-458
oob	-459
▁kag	-460
▁nil	-461
▁Agat	-462
▁Bat	-463
▁sag	-464
▁sap	-465
▁ngayon	-466
amd	-467
bay	-468
▁isa	-469
ulong	-470
▁pagh	-471
▁silang	-472
▁J	-473
▁da	-474
▁Mar	-475
▁Mga	-476
alita	-477
kas	-478
ust	-479
rins	-480
usap	-481
▁tang	-482
wa	-483
▁bum	-484
▁kuw	-485
▁nal	-486
▁nan	-487
▁nagl	-488
ibigan	-489
bab	-490
isa	-491
hala	-492
ubig	-493
utan	-494
▁gum	-495
uting	-496
▁Kaya	-497
iwanag	-498
▁buong	-499
iwa	-500
▁An	-501
ulog	-502
▁Pagkat	-503
atan	-504
iyak	-505
▁akin	-506
▁ipin	-507
▁pagp	-508
▁bulaklak	-509
agp	-510
ami	-511
agal	-512
alay	-513
▁kaw	-514
▁Diyos	-515
▁unang	-516
oro	-517
igaw	-518
▁Ako	-519
ago	-520
▁nilang	-521
uy	-522
▁Ik	-523
awak	-524
ayop	-525
▁Lum	-526
along	-527
dig	-528
sin	-529
anga	-530
▁kayo	-531
▁noon	-532
AN	-533
ilim	-534
▁pum	-535
▁nagh	-536
atay	-537
ihin	-538
▁Man	-539
undok	-540
▁puno	-541
▁tayo	-542
▁taong	-543
▁parang	-544
!"	-545
ati	-546
▁Di	-547
abaw	-548
alas	-549
▁Sum	-550
igdig	-551
▁nasa	-552
▁dagat	-553
alig	-554
▁tun	-555
arian	-556
iwang	-557
▁Walang	-558
▁Kas	-559
▁Mak	-560
▁Tin	-561
▁nas	-562
ahing	-563
▁Siya	-564
▁mata	-565
▁hayop	-566
▁Pilipino	-567
tas	-568
iging	-569
▁kahit	-570
▁tubig	-571
yay	-572
awit	-573
long	-574
▁bawat	-575
▁kamay	-576
asal	-577
ungo	-578
unod	-579
▁hig	-580
▁tan	-581
abing	-582
▁lakas	-583
▁sinabi	-584
ud	-585
uri	-586
▁ag	-587
ingg	-588
angan	-589
ano	-590
▁buk	-591
▁nab	-592
agang	-593
▁ibig	-594
alakas	-595
▁Dahil	-596
▁kapatid	-597
▁–	-598
imb	-599
ump	-600
...!	-601
ipad	-602
▁datu	-603
▁epik	-604
▁iyon	-605
▁nagt	-606
▁maging	-607
▁magandang	-608
ma	-609
▁ya	-610
▁mam	-611
▁Nagong	-612
?"	-613
alat	-614
unan	-615
▁Bin	-616
▁Koro	-617
▁pags	-618
▁magulang	-619
lo	-620
agi	-621
lay	-622
usa	-623
ikan	-624
▁pagt	-625
▁bundok	-626
▁pagkak	-627
ann	-628
esa	-629
▁ap	-630
▁bagay	-631
▁maraming	-632
eng	-633
▁Fa	-634
▁Ip	-635
oyan	-636
▁gan	-637
▁pap	-638
▁bunga	-639
annoyan	-640
imp	-641
lad	-642
▁dak	-643
atang	-644
insan	-645
▁loob	-646
amatay	-647
▁Faust	-648
▁Huwag	-649
▁dapat	-650
▁panan	-651
▁Cannoyan	-652
alis	-653
ayaw	-654
agawa	-655
▁ibang	-656
▁natin	-657
alagang	-658
▁i	-659
▁ban	-660
▁naw	-661
unting	-662
▁matat	-663
▁tunay	-664
▁Faustus	-665
▁daigdig	-666
ira	-667
▁Ya	-668
agan	-669
▁lug	-670
▁magp	-671
anggol	-672
ungkot	-673
▁akong	-674
▁inyong	-675
▁sarili	-676
da	-677
aro	-678
▁or	-679
unta	-680
aroon	-681
▁tungk	-682
▁Bathala	-683
▁dumating	-684
▁kaharian	-685
iran	-686
▁pagd	-687
▁tinig	-688
arating	-689
▁lalaking	-690
aki	-691
nan	-692
ubo	-693
uloy	-694
▁min	-695
ilangan	-696
Ay	-697
om	-698
so	-699
▁ul	-700
ulad	-701
usan	-702
▁sak	-703
▁ibon	-704
amahal	-705
▁buwan	-706
▁ilang	-707
▁mahal	-708
uro	-709
amin	-710
▁kita	-711
▁muli	-712
▁kuwen	-713
▁tulad	-714
▁dalawa	-715
▁laging	-716
▁nakita	-717
uin	-718
amag	-719
uhat	-720
undi	-721
uran	-722
▁Par	-723
▁ulo	-724
igaya	-725
▁Wala	-726
▁bato	-727
▁gabi	-728
▁koro	-729
▁kulay	-730
▁lugar	-731
olo	-732
ilis	-733
isang	-734
▁nagd	-735
▁pinak	-736
▁nitong	-737
",	-738
ks	-739
▁Ib	-740
ikita	-741
▁nagb	-742
▁pagm	-743
▁sabi	-744
▁yaong	-745
ent	-746
ian	-747
pak	-748
akot	-749
▁Nam	-750
iting	-751
▁hari	-752
▁mags	-753
▁prins	-754
aso	-755
agka	-756
ukha	-757
▁lik	-758
▁maa	-759
▁nah	-760
▁sas	-761
▁ilog	-762
▁diyos	-763
▁katawan	-764
oo	-765
ahi	-766
amo	-767
ays	-768
▁Mab	-769
▁Mah	-770
▁Mat	-771
▁Tula	-772
▁bata	-773
▁isip	-774
▁huwag	-775
▁nakat	-776
▁tahan	-777
ahay	-778
ulat	-779
▁bak	-780
▁sam	-781
▁ring	-782
▁habang	-783
▁magkak	-784
ags	-785
alam	-786
ilag	-787
ilig	-788
itin	-789
▁pas	-790
▁gawa	-791
▁magb	-792
▁nagm	-793
ahanap	-794
▁makita	-795
ed	-796
eg	-797
apa	-798
ern	-799
han	-800
▁Mas	-801
▁gag	-802
ilala	-803
▁itin	-804
▁mula	-805
▁Inang	-806
▁Yaong	-807
▁muling	-808
hin	-809
ubos	-810
undo	-811
▁Hin	-812
▁Kal	-813
▁Kay	-814
▁doon	-815
▁binata	-816
▁hangin	-817
▁sapagkat	-818
api	-819
ero	-820
yar	-821
▁tr	-822
ahim	-823
ango	-824
▁oras	-825
▁sina	-826
▁pagka	-827
▁kasama	-828
▁malaking	-829
▁matandang	-830
akb	-831
apak	-832
▁big	-833
▁pab	-834
irang	-835
▁nais	-836
▁saan	-837
▁noong	-838
ugo	-839
uli	-840
▁Ka	-841
apal	-842
apan	-843
aral	-844
▁Mad	-845
▁ano	-846
itang	-847
▁magt	-848
▁kundi	-849
▁pagkain	-850
do	-851
la	-852
op	-853
igan	-854
inga	-855
unti	-856
▁git	-857
▁lib	-858
imula	-859
utang	-860
ubalit	-861
▁napak	-862
▁tinat	-863
upo	-864
▁ip	-865
ikha	-866
ilan	-867
▁sul	-868
ahong	-869
akain	-870
iwala	-871
ongan	-872
▁sino	-873
iglang	-874
▁palak	-875
▁halaman	-876
▁a	-877
dib	-878
man	-879
alaw	-880
amis	-881
hang	-882
isig	-883
▁dib	-884
agong	-885
▁Ikaw	-886
anggap	-887
▁epiko	-888
▁kapag	-889
▁kanila	-890
▁liwanag	-891
▁kaibigan	-892
uga	-893
ulot	-894
▁isin	-895
▁sand	-896
alaman	-897
ibigay	-898
irahan	-899
▁dibdib	-900
▁sariling	-901
▁Pilipinas	-902
law	-903
▁Ar	-904
ahin	-905
anak	-906
iliw	-907
▁Tum	-908
▁sus	-909
▁diwa	-910
arapat	-911
▁mukha	-912
AR	-913
▁1	-914
Ang	-915
▁Kat	-916
awala	-917
ingin	-918
iwata	-919
▁pagg	-920
alakbay	-921
▁Sinabi	-922
▁mabuti	-923
▁pagsas	-924
▁kuwento	-925
san	-926
abay	-927
agot	-928
akay	-929
apon	-930
ilos	-931
ilya	-932
isan	-933
▁pil	-934
asyon	-935
uluwa	-936
▁Binuk	-937
▁kapwa	-938
▁punong	-939
io	-940
▁[	-941
ipe	-942
sing	-943
unin	-944
▁Nar	-945
▁bal	-946
ibang	-947
uling	-948
▁kami	-949
▁pala	-950
alapit	-951
▁higit	-952
▁bagong	-953
▁pagtat	-954
▁Binukot	-955
▁maganda	-956
▁tungkol	-957
▁Namongan	-958
dan	-959
pan	-960
uwi	-961
akan	-962
anay	-963
away	-964
igat	-965
ubat	-966
ulay	-967
▁Kah	-968
▁tal	-969
ubong	-970
▁agad	-971
▁apoy	-972
▁pagb	-973
▁taga	-974
▁alamat	-975
▁ginawa	-976
▁sanggol	-977
▁tatlong	-978
emb	-979
abis	-980
emon	-981
ipas	-982
▁Tul	-983
▁ini	-984
▁lip	-985
anong	-986
▁iyan	-987
▁luha	-988
▁gitna	-989
▁magag	-990
▁manok	-991
▁bahagi	-992
▁tahanan	-993
▁prinsesa	-994
hh	-995
iba	-996
ante	-997
ikit	-998
yari	-999
▁Jos	-1000
▁bit	-1001
▁suk	-1002
ikang	-1003
ingan	-1004
ising	-1005
▁Bant	-1006
▁magl	-1007
▁pook	-1008
ahimik	-1009
bigkas	-1010
▁hirap	-1011
▁bilang	-1012
▁salita	-1013
▁malakas	-1014
ac	-1015
ara	-1016
isi	-1017
▁It	-1018
pang	-1019
▁Mari	-1020
▁Nagp	-1021
▁awit	-1022
▁ding	-1023
▁taon	-1024
▁bakit	-1025
▁kamat	-1026
et	-1027
▁Am	-1028
▁Ig	-1029
▁Un	-1030
ubuk	-1031
▁Hum	-1032
▁Kin	-1033
▁san	-1034
▁sana	-1035
▁tila	-1036
yayari	-1037
▁Kapag	-1038
▁Noong	-1039
▁galit	-1040
▁inang	-1041
▁nakak	-1042
▁nayon	-1043
▁palad	-1044
▁dating	-1045
▁lalong	-1046
▁tulang	-1047
▁babaing	-1048
▁Pagkatapos	-1049
re	-1050
yu	-1051
apas	-1052
ikat	-1053
ilid	-1054
utin	-1055
utom	-1056
▁Don	-1057
▁uri	-1058
ataas	-1059
ayaan	-1060
uhang	-1061
▁Jose	-1062
▁magd	-1063
▁saka	-1064
▁tula	-1065
▁Lahat	-1066
▁gubat	-1067
▁kahoy	-1068
▁karan	-1069
yarihan	-1070
▁tauhan	-1071
▁kaluluwa	-1072
ibo	-1073
ist	-1074
lap	-1075
ahoy	-1076
akad	-1077
ibat	-1078
ingi	-1079
uman	-1080
▁Kan	-1081
▁sad	-1082
ampas	-1083
araan	-1084
ugali	-1085
▁Agyu	-1086
▁ikin	-1087
▁magm	-1088
▁mand	-1089
▁pati	-1090
agpuan	-1091
intong	-1092
▁aming	-1093
▁ganda	-1094
▁ibong	-1095
▁mundo	-1096
▁pagkat	-1097
amagitan	-1098
▁katulad	-1099
ba	-1100
iit	-1101
lan	-1102
las	-1103
▁Ri	-1104
abot	-1105
agin	-1106
anta	-1107
ihim	-1108
lado	-1109
tila	-1110
utos	-1111
uyan	-1112
▁bab	-1113
▁ent	-1114
▁lin	-1115
▁tuw	-1116
imang	-1117
nayan	-1118
▁magh	-1119
ablado	-1120
agalog	-1121
uwaang	-1122
▁Prins	-1123
▁bangk	-1124
▁ginto	-1125
▁katut	-1126
▁mapag	-1127
▁tapat	-1128
▁tulong	-1129
▁kawayan	-1130
▁maaaring	-1131
▁mabuting	-1132
▁entablado	-1133
▁V	-1134
awi	-1135
uni	-1136
yat	-1137
ahas	-1138
anan	-1139
dang	-1140
igid	-1141
igla	-1142
ipit	-1143
▁Dal	-1144
▁Dum	-1145
▁Nat	-1146
▁bun	-1147
▁pul	-1148
▁Ines	-1149
▁Ipin	-1150
▁Pang	-1151
▁damd	-1152
▁pamp	-1153
▁iyang	-1154
▁palay	-1155
▁patay	-1156
▁nagtat	-1157
▁tanong	-1158
▁Tuwaang	-1159
▁biglang	-1160
▁panahong	-1161
▁pamamagitan	-1162
ek	-1163
ra	-1164
▁-	-1165
ura	-1166
uyo	-1167
zal	-1168
anao	-1169
igil	-1170
inis	-1171
usto	-1172
▁Din	-1173
▁Mal	-1174
▁ham	-1175
▁ipag	-1176
arawan	-1177
▁Rizal	-1178
▁gayon	-1179
▁sibat	-1180
alitang	-1181
▁kapang	-1182
▁matanda	-1183
▁pagmamahal	-1184
iti	-1185
ngk	-1186
ono	-1187
iyan	-1188
uang	-1189
uhin	-1190
▁Bis	-1191
▁Nal	-1192
▁pun	-1193
alimb	-1194
bigay	-1195
ihang	-1196
▁Sila	-1197
▁bago	-1198
▁kamp	-1199
▁lalo	-1200
anggam	-1201
ugtong	-1202
▁Kahit	-1203
▁laban	-1204
▁makak	-1205
▁nanin	-1206
▁Haring	-1207
▁Nakita	-1208
▁marami	-1209
▁Tagalog	-1210
▁malapit	-1211
▁tanging	-1212
▁Hanggang	-1213
▁masamang	-1214
aa	-1215
ey	-1216
loh	-1217
res	-1218
tik	-1219
▁Ak	-1220
▁Lu	-1221
agad	-1222
anaw	-1223
ipon	-1224
▁Kab	-1225
▁pay	-1226
▁uma	-1227
alana	-1228
intay	-1229
▁Ayon	-1230
▁Mula	-1231
▁Saka	-1232
▁buto	-1233
▁kasi	-1234
▁mayr	-1235
▁muna	-1236
▁nina	-1237
▁sing	-1238
itoloh	-1239
▁Bakit	-1240
▁ligaya	-1241
▁pagbab	-1242
▁paligid	-1243
▁pangalan	-1244
NG	-1245
ens	-1246
log	-1247
ugt	-1248
▁Is	-1249
▁Um	-1250
▁ih	-1251
alon	-1252
▁Isa	-1253
▁Lab	-1254
▁paa	-1255
▁tak	-1256
▁Araw	-1257
▁Ibig	-1258
▁Nagk	-1259
▁ilaw	-1260
▁lagi	-1261
irinig	-1262
▁Bayan	-1263
▁Upang	-1264
▁bibig	-1265
▁nasas	-1266
▁talim	-1267
alangin	-1268
aysayan	-1269
▁Minsan	-1270
▁malayo	-1271
▁minsan	-1272
▁namang	-1273
▁taglay	-1274
▁gintong	-1275
▁Bantugan	-1276
▁kamatayan	-1277
agd	-1278
uko	-1279
▁as	-1280
abag	-1281
amot	-1282
asyo	-1283
ulin	-1284
▁Ano	-1285
▁raw	-1286
Hindi	-1287
amant	-1288
andog	-1289
unlad	-1290
uring	-1291
▁alam	-1292
▁baka	-1293
▁dugo	-1294
▁ibin	-1295
▁pulo	-1296
akasal	-1297
emonyo	-1298
ungang	-1299
▁bansa	-1300
▁kasal	-1301
▁sagot	-1302
▁sakit	-1303
▁Alamat	-1304
▁Bisaya	-1305
▁batang	-1306
▁Kastila	-1307
▁munting	-1308
AT	-1309
hi	-1310
ako	-1311
lat	-1312
obo	-1313
▁Dr	-1314
▁Ha	-1315
angh	-1316
lang	-1317
orot	-1318
unog	-1319
uwan	-1320
▁Gin	-1321
▁Ina	-1322
▁but	-1323
igyan	-1324
onood	-1325
▁Doon	-1326
▁Mind	-1327
▁anyo	-1328
▁pamb	-1329
abigat	-1330
▁Maria	-1331
▁dilag	-1332
▁masas	-1333
▁nakab	-1334
▁ngang	-1335
▁diwata	-1336
▁lupain	-1337
▁pinagm	-1338
▁puting	-1339
▁tandang	-1340
▁Tulalang	-1341
▁pangarap	-1342
po	-1343
agl	-1344
aho	-1345
say	-1346
arin	-1347
ista	-1348
upan	-1349
upit	-1350
uwal	-1351
▁Bid	-1352
▁Kap	-1353
▁Nab	-1354
▁biy	-1355
▁kak	-1356
▁mus	-1357
angal	-1358
uparo	-1359
▁inyo	-1360
▁manl	-1361
▁pana	-1362
alaala	-1363
atuloy	-1364
ilipad	-1365
iyahan	-1366
▁bukid	-1367
▁labis	-1368
▁natut	-1369
▁pakik	-1370
▁sinas	-1371
▁nating	-1372
▁pakpak	-1373
▁piling	-1374
ilangang	-1375
▁epikong	-1376
▁mamatay	-1377
▁nagiging	-1378
▁tinatawag	-1379
uo	-1380
ado	-1381
ers	-1382
ros	-1383
ahah	-1384
ahal	-1385
ardo	-1386
ilog	-1387
ugat	-1388
utol	-1389
▁Gan	-1390
▁Pal	-1391
▁Sar	-1392
▁Tag	-1393
▁eks	-1394
▁sis	-1395
aloob	-1396
inang	-1397
umang	-1398
▁Ilog	-1399
▁bang	-1400
▁naka	-1401
aharap	-1402
ubuhay	-1403
▁kabab	-1404
▁ngayo	-1405
▁pamum	-1406
▁pangk	-1407
▁tangh	-1408
▁bayang	-1409
▁lumaki	-1410
▁malaki	-1411
▁Cabigat	-1412
▁mabuhay	-1413
▁mahirap	-1414
▁namatay	-1415
▁sadyang	-1416
▁manonood	-1417
ep	-1418
dal	-1419
end	-1420
umb	-1421
▁Bi	-1422
amig	-1423
ilaw	-1424
iwat	-1425
mang	-1426
ulit	-1427
▁Ind	-1428
▁Kam	-1429
▁Nen	-1430
▁buh	-1431
▁him	-1432
akyat	-1433
amdam	-1434
urang	-1435
▁Puti	-1436
▁Solo	-1437
▁apat	-1438
▁daan	-1439
▁dala	-1440
▁inih	-1441
▁inil	-1442
▁rito	-1443
▁samp	-1444
▁tabi	-1445
ahayag	-1446
alabas	-1447
isipan	-1448
▁mahiw	-1449
▁panin	-1450
▁pilak	-1451
▁tawag	-1452
▁umaga	-1453
embaran	-1454
ulungan	-1455
▁Malana	-1456
▁maliit	-1457
▁pagpap	-1458
▁pusong	-1459
▁Langgam	-1460
▁kasalan	-1461
▁pampang	-1462
▁Prinsipe	-1463
▁dalagang	-1464
▁damdamin	-1465
▁magiging	-1466
▁kapangyarihan	-1467
if	-1468
din	-1469
erp	-1470
hik	-1471
pis	-1472
uot	-1473
asin	-1474
atid	-1475
ilip	-1476
▁Ros	-1477
▁imp	-1478
▁kad	-1479
aging	-1480
ansin	-1481
asari	-1482
▁Bern	-1483
▁Nagm	-1484
▁lahi	-1485
alagay	-1486
▁Manok	-1487
▁dahon	-1488
▁gawin	-1489
▁hanap	-1490
▁nakal	-1491
▁nakas	-1492
▁yaman	-1493
ahangad	-1494
alaysay	-1495
▁Labtik	-1496
▁bituin	-1497
▁buwaya	-1498
▁gumawa	-1499
▁naming	-1500
▁paraan	-1501
▁Subalit	-1502
▁malaman	-1503
▁palasyo	-1504
▁pinakam	-1505
▁tahimik	-1506
▁tinawag	-1507
▁Bembaran	-1508
▁Bernardo	-1509
▁Bidasari	-1510
▁nangyari	-1511
▁kailangan	-1512
An	-1513
ena	-1514
▁Oh	-1515
aliw	-1516
ayag	-1517
ayos	-1518
itik	-1519
▁bay	-1520
▁niy	-1521
▁put	-1522
▁tut	-1523
antay	-1524
ugang	-1525
usang	-1526
uwang	-1527
▁aral	-1528
▁ayaw	-1529
▁engk	-1530
▁sund	-1531
agamit	-1532
inggan	-1533
ulugan	-1534
▁Donya	-1535
▁Sulay	-1536
▁bunso	-1537
▁halos	-1538
▁harap	-1539
▁hawak	-1540
▁kaysa	-1541
▁Igorot	-1542
▁bayani	-1543
▁dunong	-1544
▁kagand	-1545
▁yaring	-1546
▁gagawin	-1547
▁higante	-1548
▁nangang	-1549
▁nasasak	-1550
itolohiya	-1551
▁Sulayman	-1552
▁pagkakata	-1553
AK	-1554
ATA	-1555
ilit	-1556
iyam	-1557
tang	-1558
ukan	-1559
ukol	-1560
▁Ban	-1561
▁Bul	-1562
▁per	-1563
▁tuk	-1564
alala	-1565
tasan	-1566
uyang	-1567
▁Ting	-1568
▁laki	-1569
▁lawa	-1570
abalik	-1571
▁Ilang	-1572
▁buhok	-1573
▁gutom	-1574
▁laman	-1575
▁sigaw	-1576
▁tumut	-1577
abayang	-1578
arangan	-1579
▁Madali	-1580
▁Naging	-1581
▁Ngayon	-1582
▁Samant	-1583
▁kaaway	-1584
▁katang	-1585
▁paglal	-1586
▁palaka	-1587
alimbawa	-1588
▁kayaman	-1589
▁dakilang	-1590
▁singsing	-1591
▁mahiwagang	-1592
▁pinagmulan	-1593
st	-1594
▁u	-1595
ada	-1596
aks	-1597
ola	-1598
uag	-1599
way	-1600
▁Ma	-1601
▁Ni	-1602
▁de	-1603
▁ig	-1604
agas	-1605
amba	-1606
anti	-1607
apay	-1608
erno	-1609
hati	-1610
igma	-1611
▁Bal	-1612
▁Buk	-1613
▁Nap	-1614
▁Sap	-1615
▁nai	-1616
▁piy	-1617
abasa	-1618
alino	-1619
indig	-1620
laban	-1621
oroon	-1622
pisod	-1623
umpay	-1624
▁TATA	-1625
▁simb	-1626
abihin	-1627
apatay	-1628
▁Biuag	-1629
▁Itong	-1630
▁balat	-1631
▁linya	-1632
▁nakik	-1633
▁namin	-1634
▁Habang	-1635
▁Maging	-1636
▁Neneng	-1637
▁episod	-1638
▁gabing	-1639
▁magkas	-1640
▁bakuran	-1641
▁subalit	-1642
▁Paruparo	-1643
▁paglalakbay	-1644
ONG	-1645
uel	-1646
▁Gr	-1647
adal	-1648
adya	-1649
aham	-1650
alok	-1651
ayak	-1652
ibay	-1653
igit	-1654
ilin	-1655
ingn	-1656
itim	-1657
pres	-1658
uhod	-1659
wang	-1660
▁Ama	-1661
▁Min	-1662
▁Pab	-1663
▁bas	-1664
▁kil	-1665
▁tig	-1666
akila	-1667
awing	-1668
▁Dama	-1669
▁Miya	-1670
▁Nags	-1671
▁Pagd	-1672
▁nama	-1673
▁ulan	-1674
▁ulap	-1675
aginip	-1676
amihan	-1677
ayahan	-1678
utusan	-1679
▁bango	-1680
▁batis	-1681
▁buhat	-1682
▁kapal	-1683
▁magka	-1684
▁sanga	-1685
amdaman	-1686
ihintay	-1687
▁batong	-1688
▁galing	-1689
▁ilalim	-1690
▁nagbab	-1691
▁nagsis	-1692
▁pabula	-1693
▁Kalabaw	-1694
▁bumalik	-1695
▁mabilis	-1696
▁narinig	-1697
▁kabilang	-1698
▁kaniyang	-1699
▁makikita	-1700
▁Pagbigkas	-1701
▁pagdating	-1702
▁pangyayari	-1703
▁magkakapatid	-1704
ec	-1705
pir	-1706
uon	-1707
▁Ab	-1708
▁Pa	-1709
▁ab	-1710
Kung	-1711
abit	-1712
alad	-1713
anim	-1714
ling	-1715
ubog	-1716
usog	-1717
▁sig	-1718
▁usa	-1719
abait	-1720
adala	-1721
agsak	-1722
akita	-1723
amaan	-1724
anggi	-1725
aysay	-1726
ikain	-1727
ingat	-1728
ungin	-1729
▁Itin	-1730
▁dusa	-1731
▁init	-1732
▁isda	-1733
▁land	-1734
uhayan	-1735
usapan	-1736
▁Aling	-1737
▁anong	-1738
▁kawal	-1739
▁likod	-1740
▁lubos	-1741
▁makat	-1742
▁silid	-1743
▁tiyak	-1744
▁lupang	-1745
▁nagsas	-1746
▁ninuno	-1747
▁tayong	-1748
▁engkant	-1749
▁lumakad	-1750
▁sabihin	-1751
▁episodyo	-1752
▁halamang	-1753
▁marunong	-1754
▁masayang	-1755
▁salitang	-1756
▁kababayan	-1757
▁karaniwang	-1758
▁kasaysayan	-1759
▁magagandang	-1760
▁naninirahan	-1761
),	-1762
Ip	-1763
MP	-1764
eh	-1765
akw	-1766
apo	-1767
ino	-1768
kan	-1769
lit	-1770
lks	-1771
sik	-1772
ubi	-1773
▁II	-1774
....	-1775
amay	-1776
isag	-1777
ugon	-1778
umpa	-1779
▁Aga	-1780
▁Bum	-1781
▁Dul	-1782
▁Kum	-1783
▁Luc	-1784
▁Pan	-1785
▁Sal	-1786
▁Tat	-1787
▁har	-1788
asang	-1789
bayan	-1790
isyon	-1791
utian	-1792
▁Bago	-1793
▁Dito	-1794
▁Isin	-1795
▁Magb	-1796
▁Mang	-1797
▁gaya	-1798
▁kina	-1799
▁lamb	-1800
▁sala	-1801
aganda	-1802
alakad	-1803
amangk	-1804
amayan	-1805
iligaw	-1806
▁Balag	-1807
▁Bugan	-1808
▁giliw	-1809
▁nawaw	-1810
▁panig	-1811
▁panit	-1812
▁takot	-1813
▁tribo	-1814
presyon	-1815
▁Parang	-1816
▁gawain	-1817
▁kaloob	-1818
▁mataas	-1819
▁nagpap	-1820
▁nawala	-1821
▁pagkab	-1822
▁salapi	-1823
▁makapag	-1824
▁nakikita	-1825
▁simbahan	-1826
▁tulungan	-1827
▁Pagdating	-1828
ahe	-1829
apt	-1830
orm	-1831
zon	-1832
▁Es	-1833
abal	-1834
abuk	-1835
agay	-1836
akaw	-1837
anib	-1838
ayun	-1839
iyon	-1840
otoo	-1841
upad	-1842
urol	-1843
usay	-1844
▁And	-1845
▁Pum	-1846
▁gun	-1847
▁lub	-1848
▁maw	-1849
▁yum	-1850
alian	-1851
aptap	-1852
igtas	-1853
ugtog	-1854
▁Pagk	-1855
▁Pina	-1856
▁maka	-1857
▁pand	-1858
▁roon	-1859
▁tupa	-1860
▁utos	-1861
ayuhan	-1862
orilya	-1863
upunta	-1864
usahan	-1865
▁Labaw	-1866
▁kagub	-1867
▁karun	-1868
▁kilos	-1869
▁napag	-1870
alagaan	-1871
asawang	-1872
atauhan	-1873
ibigang	-1874
iriwang	-1875
▁Manobo	-1876
▁dangal	-1877
▁ibabaw	-1878
▁ipinag	-1879
▁tuwing	-1880
akasalan	-1881
▁Mabilis	-1882
▁lumabas	-1883
▁masipag	-1884
▁mayroon	-1885
▁sapagka	-1886
▁binigyan	-1887
▁pagbigkas	-1888
).	-1889
IA	-1890
▁2	-1891
ANG	-1892
adh	-1893
asy	-1894
era	-1895
iin	-1896
inh	-1897
ora	-1898
ris	-1899
uso	-1900
▁Ap	-1901
▁gr	-1902
akbo	-1903
ibon	-1904
ikal	-1905
iman	-1906
ingk	-1907
inta	-1908
iong	-1909
utok	-1910
uwid	-1911
▁tor	-1912
▁umi	-1913
akwel	-1914
andaw	-1915
ining	-1916
islap	-1917
itaas	-1918
▁Agad	-1919
▁Nagt	-1920
▁Nasa	-1921
▁Para	-1922
▁Samp	-1923
▁atin	-1924
▁baya	-1925
▁damo	-1926
▁pint	-1927
▁tuwa	-1928
andaan	-1929
anggit	-1930
iwalay	-1931
▁Buhay	-1932
▁Gayon	-1933
▁bigas	-1934
▁damit	-1935
▁matut	-1936
▁paano	-1937
▁pagod	-1938
▁sumas	-1939
▁tangk	-1940
ingning	-1941
intahan	-1942
untahan	-1943
▁alipin	-1944
▁kaagad	-1945
▁kayong	-1946
▁landas	-1947
▁limang	-1948
▁mandir	-1949
▁naglal	-1950
ayanihan	-1951
▁Kanyang	-1952
▁Maganda	-1953
▁Makisig	-1954
▁Tandang	-1955
▁bangkay	-1956
▁dahilan	-1957
▁gorilya	-1958
▁nilikha	-1959
▁suliran	-1960
▁Dalawang	-1961
▁Maraming	-1962
▁makapang	-1963
▁maligaya	-1964
▁nilalang	-1965
▁kagubatan	-1966
▁malungkot	-1967
▁nararapat	-1968
▁ekspresyon	-1969
▁kagandahan	-1970
▁kailangang	-1971
▁pagkakataon	-1972
ia	-1973
pa	-1974
▁'	-1975
▁c	-1976
AND	-1977
ilo	-1978
iro	-1979
iwi	-1980
oto	-1981
uba	-1982
▁KA	-1983
▁ed	-1984
ARIA	-1985
Iput	-1986
amad	-1987
asok	-1988
awid	-1989
ifer	-1990
ihis	-1991
imit	-1992
irog	-1993
isin	-1994
iyag	-1995
ungg	-1996
▁IMP	-1997
▁apo	-1998
▁ika	-1999
▁pah	-2000
▁sup	-2001
alayo	-2002
asdan	-2003
atili	-2004
bahay	-2005
enang	-2006
ihing	-2007
iliit	-2008
ngang	-2009
sakit	-2010
ugong	-2011
▁Iput	-2012
▁Nagb	-2013
▁Nagh	-2014
▁baga	-2015
▁dako	-2016
▁kaka	-2017
▁pant	-2018
▁sama	-2019
ahanda	-2020
alakay	-2021
apatan	-2022
iyerno	-2023
tanong	-2024
▁Diwat	-2025
▁Gibon	-2026
▁MARIA	-2027
▁Pagka	-2028
▁gusto	-2029
▁kalag	-2030
▁kalig	-2031
▁mangg	-2032
▁namum	-2033
▁sasak	-2034
▁sumis	-2035
angalan	-2036
arangay	-2037
▁IMPONG	-2038
▁Manuel	-2039
▁balang	-2040
▁dakila	-2041
▁diyosa	-2042
▁hangad	-2043
▁hardin	-2044
▁kumain	-2045
▁magsas	-2046
▁makata	-2047
▁masama	-2048
▁masaya	-2049
▁pawang	-2050
▁pinagk	-2051
▁sanang	-2052
▁umalis	-2053
arapatra	-2054
asalamat	-2055
▁Demonyo	-2056
▁Inahing	-2057
▁Lucifer	-2058
▁anumang	-2059
▁kasaluk	-2060
▁lungkot	-2061
▁matamis	-2062
▁pamilya	-2063
▁Sumakwel	-2064
▁ginagawa	-2065
▁kalooban	-2066
▁katutubo	-2067
▁mahabang	-2068
▁nagtagal	-2069
▁napansin	-2070
▁prinsipe	-2071
▁kayamanan	-2072
▁kuwentong	-2073
▁lumilipad	-2074
▁suliranin	-2075
▁Diwatandaw	-2076
▁nagbibigay	-2077
▁paniniwala	-2078
▁Indarapatra	-2079
eo	-2080
mo	-2081
ti	-2082
ANA	-2083
agh	-2084
ans	-2085
ida	-2086
igm	-2087
iri	-2088
kin	-2089
les	-2090
lim	-2091
tod	-2092
tok	-2093
▁Ah	-2094
▁Im	-2095
akat	-2096
anin	-2097
ento	-2098
eyna	-2099
hasa	-2100
iban	-2101
ibik	-2102
iisa	-2103
ikot	-2104
iyas	-2105
ubuy	-2106
ugol	-2107
▁Gag	-2108
▁Hal	-2109
▁dam	-2110
▁hap	-2111
▁lul	-2112
▁mut	-2113
▁una	-2114
▁was	-2115
Bakit	-2116
agana	-2117
ataan	-2118
idlat	-2119
intas	-2120
unawa	-2121
usong	-2122
▁aliw	-2123
▁damb	-2124
akbang	-2125
alitan	-2126
andila	-2127
inding	-2128
lakbay	-2129
ubuyog	-2130
▁amang	-2131
▁banal	-2132
▁bukas	-2133
▁burol	-2134
▁dilim	-2135
▁ganap	-2136
▁handa	-2137
▁itlog	-2138
▁kalak	-2139
▁makab	-2140
▁mapap	-2141
▁siyam	-2142
▁sukat	-2143
alitaan	-2144
▁Diwata	-2145
▁Ibalon	-2146
▁Lalong	-2147
▁biyaya	-2148
▁ganito	-2149
▁ganoon	-2150
▁huling	-2151
▁iisang	-2152
▁kabund	-2153
▁libing	-2154
▁nagpas	-2155
▁pinuno	-2156
▁piyesa	-2157
▁sultan	-2158
▁tingin	-2159
Sabayang	-2160
▁Unnayan	-2161
▁nakapag	-2162
▁palakol	-2163
▁patungo	-2164
▁tagapag	-2165
▁madaling	-2166
▁panauhin	-2167
▁Samantala	-2168
▁impiyerno	-2169
▁kabuhayan	-2170
▁kaibigang	-2171
▁minamahal	-2172
▁nagkaroon	-2173
▁pamumuhay	-2174
▁panaginip	-2175
▁tanghalan	-2176
▁katutubong	-2177
▁nasasakupan	-2178
".	-2179
NA	-2180
UP	-2181
eb	-2182
ic	-2183
aca	-2184
igu	-2185
lip	-2186
non	-2187
oko	-2188
orn	-2189
ukl	-2190
uns	-2191
wit	-2192
yak	-2193
▁As	-2194
▁Da	-2195
▁br	-2196
▁ha	-2197
▁pr	-2198
abog	-2199
ahad	-2200
atap	-2201
atol	-2202
into	-2203
ipak	-2204
ipan	-2205
ubay	-2206
uwek	-2207
▁Bag	-2208
▁Nas	-2209
▁Pat	-2210
▁aso	-2211
▁daw	-2212
▁kuk	-2213
▁nad	-2214
▁ros	-2215
▁sik	-2216
ahati	-2217
aking	-2218
alaan	-2219
alakh	-2220
ipags	-2221
▁Juan	-2222
▁NANA	-2223
▁Nagl	-2224
▁Pros	-2225
▁Sari	-2226
▁dulo	-2227
▁itim	-2228
▁porm	-2229
amaraw	-2230
ambing	-2231
awayan	-2232
erpina	-2233
ibhasa	-2234
ibutan	-2235
igmaan	-2236
iguyon	-2237
pikong	-2238
unayan	-2239
ustong	-2240
▁baboy	-2241
▁bisig	-2242
▁gamit	-2243
▁hamog	-2244
▁layaw	-2245
▁makas	-2246
▁mapan	-2247
▁napap	-2248
▁sikat	-2249
▁tuloy	-2250
▁ugali	-2251
agumpay	-2252
alingan	-2253
apansin	-2254
aramdam	-2255
unahing	-2256
▁Bagong	-2257
▁Marami	-2258
▁Pagong	-2259
▁alaala	-2260
▁balita	-2261
▁bulong	-2262
▁kailan	-2263
▁mabait	-2264
▁pambih	-2265
▁pulubi	-2266
▁simula	-2267
▁waring	-2268
alagahan	-2269
▁Mahirap	-2270
▁Nagalit	-2271
▁bathala	-2272
▁bugtong	-2273
▁kalungk	-2274
▁matapos	-2275
▁ninyong	-2276
▁pagkaka	-2277
▁pananim	-2278
▁pangung	-2279
▁pintuan	-2280
▁sandali	-2281
▁sumunod	-2282
amangkero	-2283
▁Aliguyon	-2284
▁Dumating	-2285
▁Mindanao	-2286
▁Sumarang	-2287
▁barangay	-2288
▁malayong	-2289
▁maliliit	-2290
▁magkaroon	-2291
▁mamamayan	-2292
▁panitikan	-2293
▁tungkulin	-2294
▁Proserpina	-2295
▁manliligaw	-2296
▁mitolohiya	-2297
▁nawawalang	-2298
▁kabayanihan	-2299
he	-2300
uka	-2301
wak	-2302
▁BU	-2303
▁Ed	-2304
▁Ta	-2305
▁ar	-2306
▁ga	-2307
..."	-2308
aano	-2309
alab	-2310
asam	-2311
atut	-2312
ayat	-2313
itaw	-2314
ubuo	-2315
ugin	-2316
upot	-2317
utas	-2318
yayi	-2319
▁Bas	-2320
▁Lib	-2321
▁Mus	-2322
▁Sul	-2323
▁kon	-2324
▁lam	-2325
agkan	-2326
aglay	-2327
angis	-2328
asyal	-2329
ayway	-2330
ingap	-2331
iusap	-2332
uluan	-2333
undin	-2334
uturo	-2335
▁Saan	-2336
▁alin	-2337
▁anim	-2338
▁ayon	-2339
▁bung	-2340
▁bunt	-2341
▁kult	-2342
▁labi	-2343
akaawa	-2344
amalas	-2345
awakan	-2346
entong	-2347
ihingi	-2348
ilayan	-2349
intang	-2350
otohan	-2351
uhunan	-2352
▁Aking	-2353
▁Espan	-2354
▁Oyayi	-2355
▁Puwek	-2356
▁Sarag	-2357
▁bagyo	-2358
▁galak	-2359
▁halik	-2360
▁halim	-2361
▁itaas	-2362
▁kasab	-2363
▁lihim	-2364
▁nalul	-2365
▁nangg	-2366
▁sabay	-2367
▁tumat	-2368
▁tunog	-2369
alawang	-2370
ibigkas	-2371
uhalang	-2372
utangan	-2373
▁Tingal	-2374
▁bangka	-2375
▁lahing	-2376
▁maling	-2377
▁paglil	-2378
▁pinagt	-2379
▁sakdal	-2380
▁tabing	-2381
abukasan	-2382
yarihang	-2383
yayaring	-2384
▁Tamaraw	-2385
▁Tinawag	-2386
▁lumipas	-2387
▁lumisan	-2388
▁marinig	-2389
▁mayaman	-2390
▁nahulog	-2391
▁paggawa	-2392
alanutian	-2393
▁Sapagkat	-2394
▁dalampas	-2395
▁kalayaan	-2396
▁kuwintas	-2397
▁nagbigay	-2398
▁nagngang	-2399
▁nagtungo	-2400
▁panganib	-2401
▁halimbawa	-2402
▁hinahanap	-2403
▁kapalaran	-2404
▁karunungan	-2405
▁nakarating	-2406
▁matatagpuan	-2407
▁pangunahing	-2408
AB	-2409
IW	-2410
OY	-2411
Sa	-2412
ARO	-2413
Ano	-2414
Tat	-2415
agt	-2416
ato	-2417
itu	-2418
kop	-2419
udo	-2420
▁Ba	-2421
▁id	-2422
ahag	-2423
atas	-2424
ayok	-2425
ilay	-2426
isay	-2427
ongo	-2428
ugad	-2429
ugot	-2430
ukin	-2431
▁Del	-2432
▁LAK	-2433
▁TOY	-2434
▁bar	-2435
▁noo	-2436
aanak	-2437
alawa	-2438
ambal	-2439
angon	-2440
atong	-2441
gayak	-2442
ibing	-2443
ibong	-2444
iisip	-2445
ikudo	-2446
iping	-2447
kahoy	-2448
ngles	-2449
uruan	-2450
uyong	-2451
▁Daga	-2452
▁Mens	-2453
▁Nais	-2454
▁Noon	-2455
▁Pand	-2456
▁Rosa	-2457
▁Sant	-2458
▁Sino	-2459
▁Tayo	-2460
▁dati	-2461
▁kain	-2462
▁patn	-2463
▁pong	-2464
▁puri	-2465
▁sang	-2466
▁wari	-2467
agalit	-2468
agatan	-2469
anghal	-2470
ansang	-2471
ayanan	-2472
dahang	-2473
imbang	-2474
imbing	-2475
ingnan	-2476
irapan	-2477
usunod	-2478
▁Dagat	-2479
▁Mahal	-2480
▁abang	-2481
▁bakod	-2482
▁balak	-2483
▁dilaw	-2484
▁kaawa	-2485
▁kabut	-2486
▁karik	-2487
▁katap	-2488
▁kayum	-2489
▁labas	-2490
▁lilim	-2491
▁makik	-2492
▁masis	-2493
▁nabab	-2494
▁nanan	-2495
▁natat	-2496
▁patak	-2497
▁wakas	-2498
ahating	-2499
ampalat	-2500
arangaw	-2501
ingatan	-2502
ugalian	-2503
ukasyon	-2504
▁Kaptan	-2505
▁Mabuti	-2506
▁TOYANG	-2507
▁dinala	-2508
▁gawang	-2509
▁gunita	-2510
▁iniwan	-2511
▁kinuha	-2512
▁malaya	-2513
▁musika	-2514
▁tapang	-2515
ungkahoy	-2516
▁Malakas	-2517
▁demonyo	-2518
▁digmaan	-2519
▁gawaing	-2520
▁hanging	-2521
▁kampana	-2522
▁lumipad	-2523
▁madilim	-2524
▁malalim	-2525
▁manging	-2526
▁marahil	-2527
▁matuwid	-2528
▁nagmula	-2529
▁pangkat	-2530
▁pumanaw	-2531
▁sagisag	-2532
▁sundalo	-2533
▁Barangaw	-2534
▁Marikudo	-2535
▁darating	-2536
▁kumakain	-2537
▁magaling	-2538
▁matapang	-2539
▁nakakita	-2540
▁narating	-2541
▁nawawala	-2542
▁sasakyan	-2543
▁talagang	-2544
▁ginagamit	-2545
▁nagsimula	-2546
▁natagpuan	-2547
▁pananalig	-2548
▁Balagtasan	-2549
▁Saragnayan	-2550
▁kabundukan	-2551
▁mandirigma	-2552
▁pagkatapos	-2553
▁kalungkutan	-2554
▁pambihirang	-2555
▁punungkahoy	-2556
▁dalampasigan	-2557
Al	-2558
LE	-2559
LO	-2560
OG	-2561
go	-2562
IWA	-2563
UAN	-2564
ema	-2565
igh	-2566
igp	-2567
pas	-2568
rab	-2569
ubl	-2570
▁im	-2571
ABLO	-2572
ARUP	-2573
LENA	-2574
Mlks	-2575
adap	-2576
alap	-2577
iram	-2578
nang	-2579
nong	-2580
rito	-2581
uksa	-2582
ukso	-2583
upok	-2584
uyak	-2585
▁Pak	-2586
▁awa	-2587
▁est	-2588
▁lim	-2589
▁sim	-2590
▁tab	-2591
aaral	-2592
agsik	-2593
ahiya	-2594
akang	-2595
akpan	-2596
amanh	-2597
asong	-2598
atnan	-2599
buhay	-2600
ungib	-2601
yante	-2602
▁Bato	-2603
▁Iyan	-2604
▁JUAN	-2605
▁Mayr	-2606
▁Niya	-2607
▁agos	-2608
▁asal	-2609
▁bint	-2610
▁caca	-2611
▁igin	-2612
▁ilan	-2613
▁kani	-2614
▁laya	-2615
▁sawa	-2616
ANDIWA	-2617
agamot	-2618
ahinga	-2619
apasok	-2620
apitan	-2621
ayaang	-2622
ukhang	-2623
usumpa	-2624
▁Anong	-2625
▁ELENA	-2626
▁Galit	-2627
▁Karan	-2628
▁PABLO	-2629
▁PARUP	-2630
▁Panay	-2631
▁butil	-2632
▁gumag	-2633
▁halip	-2634
▁hangg	-2635
▁kapit	-2636
▁kinat	-2637
▁lamok	-2638
▁lunti	-2639
▁nangh	-2640
▁paksa	-2641
▁pilit	-2642
▁pinto	-2643
▁reyna	-2644
▁rosas	-2645
▁salaw	-2646
▁sinta	-2647
▁totoo	-2648
▁utang	-2649
abilang	-2650
alakhak	-2651
amalaki	-2652
iligtas	-2653
iwayway	-2654
▁Bilang	-2655
▁Muling	-2656
▁Muslim	-2657
▁Simang	-2658
▁daliri	-2659
▁hirang	-2660
▁kabayo	-2661
▁kulang	-2662
▁maitim	-2663
▁mandin	-2664
▁nagkak	-2665
▁nagkas	-2666
▁pangit	-2667
▁pulong	-2668
▁suklay	-2669
▁yungib	-2670
ahulugan	-2671
apalaran	-2672
▁Bugtong	-2673
▁Humadap	-2674
▁Mensahe	-2675
▁babaeng	-2676
▁bungang	-2677
▁hanapin	-2678
▁hinanap	-2679
▁iniibig	-2680
▁kalabaw	-2681
▁kalalak	-2682
▁lipunan	-2683
▁lumapit	-2684
▁lumitaw	-2685
▁maagang	-2686
▁ngayong	-2687
▁patayin	-2688
▁pinangg	-2689
▁sampung	-2690
▁sandata	-2691
▁Bulaklak	-2692
▁PARUPARO	-2693
▁bayaning	-2694
▁binatang	-2695
▁libingan	-2696
▁magagawa	-2697
▁magbalik	-2698
▁pagiging	-2699
▁LAKANDIWA	-2700
▁kahulugan	-2701
▁karagatan	-2702
▁katangian	-2703
▁mamamatay	-2704
▁sandaling	-2705
▁sasabihin	-2706
▁dambuhalang	-2707
!!	-2708
BU	-2709
ND	-2710
le	-2711
BUY	-2712
Mag	-2713
agb	-2714
agu	-2715
eba	-2716
ego	-2717
fin	-2718
hap	-2719
hig	-2720
its	-2721
mas	-2722
ote	-2723
sis	-2724
tar	-2725
▁--	-2726
agaw	-2727
ahih	-2728
alog	-2729
ayog	-2730
bong	-2731
ener	-2732
ihag	-2733
ilik	-2734
inaw	-2735
init	-2736
irin	-2737
ones	-2738
ukal	-2739
ukoy	-2740
unos	-2741
▁Ati	-2742
▁Gum	-2743
▁III	-2744
▁Kag	-2745
▁Nan	-2746
▁Pas	-2747
▁Ped	-2748
▁San	-2749
▁adh	-2750
▁aki	-2751
▁ari	-2752
▁dag	-2753
▁mai	-2754
▁pad	-2755
▁sil	-2756
▁uod	-2757
BUYOG	-2758
aalam	-2759
aawit	-2760
aliit	-2761
arito	-2762
iligo	-2763
inoon	-2764
irito	-2765
ulaan	-2766
umula	-2767
undan	-2768
urong	-2769
▁Kayo	-2770
▁Lagi	-2771
▁Lawa	-2772
▁Lena	-2773
▁Pamb	-2774
▁Pati	-2775
▁alit	-2776
▁alon	-2777
▁bait	-2778
▁katw	-2779
▁kuba	-2780
▁lipi	-2781
▁nagw	-2782
▁puti	-2783
▁ugat	-2784
▁ukol	-2785
▁unti	-2786
▁yaon	-2787
atanaw	-2788
atawag	-2789
atlong	-2790
ilikha	-2791
uluhan	-2792
▁Buhat	-2793
▁Buwan	-2794
▁Dapat	-2795
▁Dulaw	-2796
▁Kundi	-2797
▁Lawin	-2798
▁Papay	-2799
▁Tipak	-2800
▁hamak	-2801
▁hapon	-2802
▁hilig	-2803
▁hiyas	-2804
▁kapat	-2805
▁kumik	-2806
▁likas	-2807
▁makal	-2808
▁pangh	-2809
▁sinus	-2810
▁tamis	-2811
▁tatlo	-2812
▁tinut	-2813
▁umuwi	-2814
▁wagas	-2815
alitong	-2816
ayundin	-2817
itingin	-2818
tanggol	-2819
ulugang	-2820
▁Ayonan	-2821
▁Delfin	-2822
▁gulang	-2823
▁halaga	-2824
▁kabila	-2825
▁kalang	-2826
▁magtat	-2827
▁nagdur	-2828
▁pagong	-2829
▁payapa	-2830
▁pulang	-2831
▁sagana	-2832
▁talaga	-2833
▁tatuan	-2834
aliwanag	-2835
amahalan	-2836
otohanan	-2837
▁BUBUYOG	-2838
▁Biglang	-2839
▁Hinanap	-2840
▁dalisay	-2841
▁kalaban	-2842
▁lubhang	-2843
▁masarap	-2844
▁pumunta	-2845
▁saknong	-2846
▁susunod	-2847
▁tawagin	-2848
amanhikan	-2849
▁Silangan	-2850
▁ganitong	-2851
▁kalabasa	-2852
▁kapuluan	-2853
▁larangan	-2854
▁marating	-2855
▁mayroong	-2856
▁paningin	-2857
▁salaysay	-2858
▁tuluyang	-2859
▁Tipaklong	-2860
▁kalagayan	-2861
▁kasalanan	-2862
▁katapusan	-2863
▁matinding	-2864
▁nabubuhay	-2865
▁pinakamag	-2866
▁pormasyon	-2867
▁Calanutian	-2868
▁magkapatid	-2869
▁mahalagang	-2870
▁makarating	-2871
▁malalaking	-2872
▁naghahanap	-2873
▁paghahanap	-2874
▁Nagmalitong	-2875
▁kaligayahan	-2876
▁pananampalat	-2877
AM	-2878
At	-2879
Oo	-2880
ho	-2881
oc	-2882
oh	-2883
pu	-2884
ri	-2885
si	-2886
ss	-2887
te	-2888
ue	-2889
Ako	-2890
NDO	-2891
aha	-2892
amt	-2893
goy	-2894
ikl	-2895
iko	-2896
ini	-2897
inl	-2898
kis	-2899
lor	-2900
pot	-2901
ugn	-2902
uny	-2903
▁If	-2904
▁us	-2905
ampa	-2906
asik	-2907
esto	-2908
haga	-2909
ilak	-2910
isda	-2911
itas	-2912
kong	-2913
piko	-2914
tuwa	-2915
ugao	-2916
▁Ahh	-2917
▁Bit	-2918
▁Bon	-2919
▁Dem	-2920
▁Gat	-2921
▁Ini	-2922
▁Kar	-2923
▁Kul	-2924
▁Lus	-2925
▁bus	-2926
▁hah	-2927
▁lar	-2928
▁lay	-2929
▁mau	-2930
▁naa	-2931
▁pis	-2932
▁tik	-2933
▁umu	-2934
Huwag	-2935
ababa	-2936
ahala	-2937
alaka	-2938
anaog	-2939
arili	-2940
itiis	-2941
iyego	-2942
lakad	-2943
▁Anak	-2944
▁Dala	-2945
▁INDO	-2946
▁Inil	-2947
▁Taga	-2948
▁Tang	-2949
▁Tila	-2950
▁Tiwi	-2951
▁Yawa	-2952
▁bers	-2953
▁dali	-2954
▁guro	-2955
▁himp	-2956
▁irog	-2957
▁panl	-2958
abango	-2959
alanta	-2960
alikat	-2961
angaso	-2962
atanda	-2963
athala	-2964
ayawan	-2965
ibigin	-2966
inigay	-2967
tasyon	-2968
undong	-2969
▁Lakan	-2970
▁Minda	-2971
▁Ngayo	-2972
▁Pangk	-2973
▁Sipag	-2974
▁Tagak	-2975
▁Unang	-2976
▁bakal	-2977
▁bilog	-2978
▁dadal	-2979
▁dahan	-2980
▁grupo	-2981
▁habag	-2982
▁hatol	-2983
▁kalin	-2984
▁lingg	-2985
▁mamah	-2986
▁pamam	-2987
▁pangg	-2988
▁putik	-2989
▁sangk	-2990
▁tugon	-2991
agaling	-2992
amangha	-2993
ibilang	-2994
intawak	-2995
oroonan	-2996
ubuksan	-2997
unawaan	-2998
undiman	-2999
▁Ifugao	-3000
▁Kaagad	-3001
▁Kinuha	-3002
▁Narito	-3003
▁Simula	-3004
▁Sultan	-3005
▁angkop	-3006
▁dalita	-3007
▁ganyan	-3008
▁handog	-3009
▁hiling	-3010
▁isdang	-3011
▁kasing	-3012
▁kayang	-3013
▁kuweba	-3014
▁laking	-3015
▁maaari	-3016
▁magawa	-3017
▁makuha	-3018
▁mapang	-3019
▁naroon	-3020
▁nganga	-3021
▁paghih	-3022
▁pagkag	-3023
▁perlas	-3024
▁pinagh	-3025
▁pitong	-3026
▁saglit	-3027
▁tuktok	-3028
ahahahah	-3029
andangan	-3030
anggapin	-3031
▁Griyego	-3032
▁Lumipas	-3033
▁dayuhan	-3034
▁hahanap	-3035
▁humingi	-3036
▁labanan	-3037
▁mahusay	-3038
▁malamig	-3039
▁matagal	-3040
▁mutyang	-3041
▁nabuhay	-3042
▁pagitan	-3043
▁patuloy	-3044
▁sumagot	-3045
▁tangkay	-3046
ipaglaban	-3047
▁kilalang	-3048
▁matalino	-3049
▁nakatira	-3050
▁nakilala	-3051
▁naroroon	-3052
▁alitaptap	-3053
▁kaugalian	-3054
▁matatanda	-3055
▁nasiyahan	-3056
▁natutulog	-3057
▁pinagkaka	-3058
▁Gagalangin	-3059
▁Humadapnon	-3060
▁kapitbahay	-3061
▁karangalan	-3062
▁kasintahan	-3063
▁kayumanggi	-3064
▁nanggaling	-3065
▁Nalandangan	-3066
▁kalalakihan	-3067
▁kasalukuyan	-3068
▁pagdiriwang	-3069
▁pagkakaroon	-3070
ipagsapalaran	-3071
▁pinanggalingan	-3072
Ka	-3073
bi	-3074
bo	-3075
ru	-3076
Ito	-3077
Mga	-3078
Nak	-3079
abe	-3080
are	-3081
eks	-3082
hel	-3083
iis	-3084
kep	-3085
liy	-3086
wan	-3087
yas	-3088
▁El	-3089
▁Pl	-3090
▁Ul	-3091
▁la	-3092
▁pl	-3093
▁ub	-3094
abae	-3095
abik	-3096
ampo	-3097
atak	-3098
awad	-3099
awis	-3100
dali	-3101
edur	-3102
enor	-3103
eter	-3104
iang	-3105
igas	-3106
ihip	-3107
ikap	-3108
inam	-3109
iwas	-3110
kita	-3111
ohol	-3112
terp	-3113
ugis	-3114
ulak	-3115
usin	-3116
▁Edo	-3117
▁Imp	-3118
▁Kak	-3119
▁Lim	-3120
▁Maa	-3121
▁Pad	-3122
▁Tab	-3123
▁anu	-3124
▁hag	-3125
▁las	-3126
▁saw	-3127
▁tit	-3128
abong	-3129
adlaw	-3130
agpis	-3131
ahagi	-3132
alake	-3133
amtan	-3134
angat	-3135
apaan	-3136
arong	-3137
dagat	-3138
egalo	-3139
igpit	-3140
ikong	-3141
iyaga	-3142
orneo	-3143
orong	-3144
palad	-3145
ubuan	-3146
uluto	-3147
▁Amom	-3148
▁Baka	-3149
▁Ikin	-3150
▁Lila	-3151
▁Magh	-3152
▁Magk	-3153
▁Magm	-3154
▁Magp	-3155
▁Mayo	-3156
▁Pers	-3157
▁ginh	-3158
▁kaba	-3159
▁kand	-3160
▁kubo	-3161
▁trad	-3162
▁yari	-3163
▁yata	-3164
aguita	-3165
ahamak	-3166
alamat	-3167
antang	-3168
antimp	-3169
ipunan	-3170
terpre	-3171
ulitin	-3172
▁Bawat	-3173
▁Bohol	-3174
▁Gansa	-3175
▁Hibik	-3176
▁Kaysa	-3177
▁Likal	-3178
▁Pinak	-3179
▁Sinas	-3180
▁Tinig	-3181
▁Tulad	-3182
▁agong	-3183
▁balah	-3184
▁butas	-3185
▁daang	-3186
▁dalag	-3187
▁duwag	-3188
▁hapis	-3189
▁humah	-3190
▁ilong	-3191
▁kaban	-3192
▁kabig	-3193
▁kamag	-3194
▁kauna	-3195
▁lamig	-3196
▁matip	-3197
▁nakap	-3198
▁nasus	-3199
▁pinap	-3200
▁pugad	-3201
▁sapat	-3202
▁sayaw	-3203
▁simoy	-3204
▁sunog	-3205
▁tagap	-3206
▁talud	-3207
▁tamad	-3208
▁tanda	-3209
▁tangi	-3210
▁tulog	-3211
Lalapit	-3212
ahalaga	-3213
akasama	-3214
alubong	-3215
araanan	-3216
babalik	-3217
engedur	-3218
ilingan	-3219
indanao	-3220
itingan	-3221
ulaklak	-3222
unahang	-3223
▁Bundok	-3224
▁Daldal	-3225
▁Ganyan	-3226
▁Laging	-3227
▁Palaka	-3228
▁Santos	-3229
▁Wikang	-3230
▁angkin	-3231
▁bumaba	-3232
▁dakong	-3233
▁gawing	-3234
▁gayong	-3235
▁himpap	-3236
▁isipan	-3237
▁kainin	-3238
▁kilala	-3239
▁lumbay	-3240
▁mawala	-3241
▁murang	-3242
▁naiiba	-3243
▁ngalan	-3244
▁pagtit	-3245
▁pinana	-3246
▁puntod	-3247
▁samant	-3248
▁usapan	-3249
▁wikang	-3250
alimutan	-3251
▁Bubuyog	-3252
▁Daigdig	-3253
▁Demeter	-3254
▁Espanya	-3255
▁Mariang	-3256
▁Matapos	-3257
▁Pedrito	-3258
▁Sumagot	-3259
▁asawang	-3260
▁bansang	-3261
▁hininga	-3262
▁iibigin	-3263
▁inahing	-3264
▁kabiyak	-3265
▁kultura	-3266
▁kumilos	-3267
▁madalas	-3268
▁magmula	-3269
▁malimit	-3270
▁malinis	-3271
▁mananak	-3272
▁nalilim	-3273
▁namuhay	-3274
▁napatay	-3275
▁palagay	-3276
▁palayok	-3277
▁pamamah	-3278
▁patalim	-3279
▁pinggan	-3280
▁Amomongo	-3281
▁Kaibigan	-3282
▁Makiling	-3283
▁Prinsesa	-3284
▁Soloista	-3285
▁dalagita	-3286
▁kaalaman	-3287
▁kabataan	-3288
▁kariktan	-3289
▁makatang	-3290
▁mayamang	-3291
▁maysakit	-3292
▁nakatayo	-3293
▁pinagtat	-3294
▁Halimbawa	-3295
▁karapatan	-3296
▁kasiyahan	-3297
▁maririnig	-3298
▁naglakbay	-3299
▁nagmumula	-3300
▁nagsalita	-3301
▁naririnig	-3302
▁tinanggap	-3303
angailangan	-3304
▁Mitolohiya	-3305
▁Pilipinong	-3306
▁kalangitan	-3307
terpretasyon	-3308
▁Kinabukasan	-3309
▁naghihintay	-3310
▁salamangkero	-3311
'-	-3312
00	-3313
Ng	-3314
ka	-3315
mm	-3316
no	-3317
ow	-3318
Mab	-3319
Mar	-3320
aas	-3321
agm	-3322
dla	-3323
eho	-3324
eta	-3325
hal	-3326
haw	-3327
ibe	-3328
kad	-3329
lam	-3330
min	-3331
mos	-3332
tol	-3333
tor	-3334
uho	-3335
unl	-3336
uta	-3337
yaw	-3338
▁(1	-3339
▁(2	-3340
▁1.	-3341
▁2.	-3342
▁Or	-3343
▁oh	-3344
Magp	-3345
Solo	-3346
aani	-3347
aant	-3348
abol	-3349
acio	-3350
agit	-3351
agpo	-3352
anag	-3353
apap	-3354
asag	-3355
awal	-3356
awig	-3357
ding	-3358
esus	-3359
ikom	-3360
ilap	-3361
imog	-3362
isid	-3363
ismo	-3364
kepu	-3365
laro	-3366
lolo	-3367
ubad	-3368
ubok	-3369
ugod	-3370
ugun	-3371
uhos	-3372
unao	-3373
unas	-3374
unat	-3375
unpu	-3376
urin	-3377
urog	-3378
▁Amb	-3379
▁Buy	-3380
▁Fil	-3381
▁Hag	-3382
▁Lis	-3383
▁Mam	-3384
▁Rog	-3385
▁huk	-3386
▁lal	-3387
▁mit	-3388
▁pup	-3389
▁ser	-3390
▁tib	-3391
agdag	-3392
aligt	-3393
ampot	-3394
anais	-3395
angit	-3396
apati	-3397
ariwa	-3398
ayapa	-3399
bitin	-3400
buwan	-3401
embro	-3402
ganda	-3403
igkas	-3404
iglap	-3405
iikan	-3406
itlog	-3407
risto	-3408
sabay	-3409
salin	-3410
tanim	-3411
ulila	-3412
uotan	-3413
▁Alam	-3414
▁Alit	-3415
▁Duri	-3416
▁Edna	-3417
▁Muli	-3418
▁Naku	-3419
▁Nana	-3420
▁Pabl	-3421
▁Pero	-3422
▁Wika	-3423
▁ahas	-3424
▁alak	-3425
▁amin	-3426
▁bitu	-3427
▁bril	-3428
▁dila	-3429
▁gayo	-3430
▁mala	-3431
▁pari	-3432
▁taas	-3433
▁tala	-3434
abihan	-3435
aralan	-3436
arinig	-3437
atawat	-3438
awagan	-3439
awanan	-3440
awitan	-3441
ilagay	-3442
indaya	-3443
ingwit	-3444
inhawa	-3445
iwatig	-3446
piritu	-3447
ubusan	-3448
udulot	-3449
umanon	-3450
▁Bahay	-3451
▁Banal	-3452
▁Datap	-3453
▁Iyang	-3454
▁Lakas	-3455
▁Nakat	-3456
▁Pluto	-3457
▁Salaw	-3458
▁Tiyak	-3459
▁Tubig	-3460
▁aklat	-3461
▁altar	-3462
▁bigla	-3463
▁binab	-3464
▁daing	-3465
▁diyan	-3466
▁gamot	-3467
▁ibaba	-3468
▁kakay	-3469
▁kanan	-3470
▁kanin	-3471
▁kodla	-3472
▁kumak	-3473
▁kunin	-3474
▁ligaw	-3475
▁lumul	-3476
▁mangh	-3477
▁munti	-3478
▁nagka	-3479
▁nakad	-3480
▁nasis	-3481
▁pista	-3482
▁punta	-3483
▁sigla	-3484
Epikong	-3485
aganaan	-3486
alagtas	-3487
alooban	-3488
antayan	-3489
apangan	-3490
imulang	-3491
intuang	-3492
ustuhan	-3493
yayahan	-3494
▁Andres	-3495
▁Anggoy	-3496
▁Bayang	-3497
▁Binata	-3498
▁Borneo	-3499
▁Ingles	-3500
▁Kasama	-3501
▁Ladlaw	-3502
▁Lisuga	-3503
▁Masaya	-3504
▁Nitong	-3505
▁Rosita	-3506
▁Tuwang	-3507
▁anyong	-3508
▁bangin	-3509
▁buntot	-3510
▁buwang	-3511
▁damong	-3512
▁diwang	-3513
▁katalo	-3514
▁kidlat	-3515
▁kitang	-3516
▁maputi	-3517
▁nagbub	-3518
▁pansin	-3519
▁pinagl	-3520
▁pinagp	-3521
▁pinang	-3522
▁pinsan	-3523
▁saging	-3524
▁tumayo	-3525
agandang	-3526
arusahan	-3527
istulang	-3528
kanilang	-3529
sengedur	-3530
▁Hayaang	-3531
▁Libulan	-3532
▁Lumapit	-3533
▁Matagal	-3534
▁Minango	-3535
▁Sumunod	-3536
▁Tanging	-3537
▁Tingnan	-3538
▁balikat	-3539
▁bayabas	-3540
▁gantimp	-3541
▁handang	-3542
▁kasangk	-3543
▁kasipag	-3544
▁larawan	-3545
▁likuran	-3546
▁marapat	-3547
▁marikit	-3548
▁matatag	-3549
▁matibay	-3550
▁nagalit	-3551
▁nakaupo	-3552
▁nawalan	-3553
▁pagsuyo	-3554
▁pangako	-3555
▁pumasok	-3556
▁pupunta	-3557
▁salamin	-3558
▁talulot	-3559
▁tauhang	-3560
▁umaawit	-3561
▁wastong	-3562
aniniwala	-3563
▁Madaling	-3564
▁Naggayak	-3565
▁Naririto	-3566
▁Tinagong	-3567
▁gagawing	-3568
▁giniikan	-3569
▁kaisipan	-3570
▁kasamaan	-3571
▁kulungan	-3572
▁mahalaga	-3573
▁masagana	-3574
▁naghanda	-3575
▁pamumuno	-3576
▁patnubay	-3577
▁tahanang	-3578
▁tinanong	-3579
apaliwanag	-3580
sengedurug	-3581
▁Alitaptap	-3582
▁Palibhasa	-3583
▁Panginoon	-3584
▁edukasyon	-3585
▁halamanan	-3586
▁karamihan	-3587
▁nakatulog	-3588
▁nalalaman	-3589
▁sinaunang	-3590
▁Pangumanon	-3591
▁engkantado	-3592
▁hinahangad	-3593
▁kahilingan	-3594
▁katangiang	-3595
▁mangyayari	-3596
▁matatapang	-3597
▁pinanaugan	-3598
▁Likalibutan	-3599
▁katotohanan	-3600
▁manggagamot	-3601
▁paghahangad	-3602
▁samantalang	-3603
▁pagtatanghal	-3604
▁nagngangalang	-3605
▁pinakamalaking	-3606
IT	-3607
LI	-3608
ao	-3609
di	-3610
ee	-3611
th	-3612
Kas	-3613
Mal	-3614
May	-3615
ade	-3616
bag	-3617
est	-3618
eus	-3619
hoy	-3620
igi	-3621
ium	-3622
lag	-3623
rum	-3624
ter	-3625
tim	-3626
yos	-3627
yth	-3628
▁Hu	-3629
▁Oo	-3630
▁dr	-3631
▁es	-3632
▁et	-3633
▁le	-3634
▁oo	-3635
Wala	-3636
aari	-3637
aboy	-3638
agap	-3639
ahol	-3640
alot	-3641
atag	-3642
ayad	-3643
ente	-3644
ibis	-3645
ibol	-3646
ight	-3647
ilas	-3648
inog	-3649
itag	-3650
nila	-3651
ogan	-3652
potl	-3653
sama	-3654
song	-3655
taas	-3656
ubha	-3657
uhit	-3658
ukob	-3659
unay	-3660
unot	-3661
▁Bik	-3662
▁Her	-3663
▁Iba	-3664
▁Ika	-3665
▁Nil	-3666
▁Niy	-3667
▁Pap	-3668
▁Sam	-3669
▁Sas	-3670
▁Sic	-3671
▁Sig	-3672
▁Una	-3673
▁Yao	-3674
▁bis	-3675
▁dar	-3676
▁hih	-3677
▁inu	-3678
▁kur	-3679
▁lig	-3680
▁miy	-3681
▁nau	-3682
▁sug	-3683
aayos	-3684
abula	-3685
adaan	-3686
akala	-3687
aklap	-3688
akong	-3689
alogo	-3690
amana	-3691
ambit	-3692
anang	-3693
angga	-3694
apaap	-3695
apong	-3696
dapat	-3697
inain	-3698
indak	-3699
liyaw	-3700
tamis	-3701
uhing	-3702
uksan	-3703
umano	-3704
undag	-3705
unsod	-3706
unuan	-3707
utong	-3708
yakap	-3709
▁Agio	-3710
▁Apol	-3711
▁Ayaw	-3712
▁Dali	-3713
▁Hand	-3714
▁Ibin	-3715
▁Luis	-3716
▁Lupa	-3717
▁Mags	-3718
▁Sand	-3719
▁abot	-3720
▁ayos	-3721
▁bala	-3722
▁daga	-3723
▁dami	-3724
▁huli	-3725
▁iisa	-3726
▁iwan	-3727
▁kons	-3728
▁mait	-3729
▁nuon	-3730
▁pina	-3731
▁sapa	-3732
▁saya	-3733
▁sulo	-3734
▁sump	-3735
▁suso	-3736
▁ulam	-3737
▁ulit	-3738
ahalan	-3739
alaban	-3740
alipin	-3741
awalan	-3742
awarin	-3743
ensiya	-3744
hatian	-3745
ifacio	-3746
ikasan	-3747
ikling	-3748
ilitaw	-3749
inggin	-3750
inggit	-3751
isigaw	-3752
ngkong	-3753
rabaho	-3754
saring	-3755
tangan	-3756
uksang	-3757
unahan	-3758
▁Akong	-3759
▁Atlas	-3760
▁Banna	-3761
▁Binig	-3762
▁Bulan	-3763
▁Gayun	-3764
▁Kalig	-3765
▁Makat	-3766
▁Napak	-3767
▁Pinat	-3768
▁Talis	-3769
▁Tenor	-3770
▁akala	-3771
▁alaga	-3772
▁bahag	-3773
▁bakas	-3774
▁batid	-3775
▁batok	-3776
▁bigay	-3777
▁bukal	-3778
▁bulag	-3779
▁bumab	-3780
▁dampa	-3781
▁dumad	-3782
▁hinah	-3783
▁hubad	-3784
▁iglap	-3785
▁kapar	-3786
▁katuw	-3787
▁kulog	-3788
▁lipad	-3789
▁maaga	-3790
▁mabub	-3791
▁madla	-3792
▁mahih	-3793
▁manan	-3794
▁matin	-3795
▁mithi	-3796
▁nalal	-3797
▁pakay	-3798
▁panib	-3799
▁pinam	-3800
▁pugon	-3801
▁sanda	-3802
▁sanhi	-3803
▁sinag	-3804
▁sisiw	-3805
▁sumpa	-3806
▁takip	-3807
▁talas	-3808
▁tapos	-3809
▁tuwid	-3810
aganang	-3811
agsikan	-3812
ahandog	-3813
aligaya	-3814
aliksik	-3815
alimbag	-3816
alinong	-3817
amtaman	-3818
angkang	-3819
ayapaan	-3820
bitinan	-3821
ibigyan	-3822
ilitang	-3823
intulot	-3824
nanakaw	-3825
uklasan	-3826
▁Abyang	-3827
▁Batooy	-3828
▁Buyung	-3829
▁Diyosa	-3830
▁Dunong	-3831
▁Ibigin	-3832
▁Langit	-3833
▁Nasaan	-3834
▁adhika	-3835
▁anuman	-3836
▁bigyan	-3837
▁buksan	-3838
▁dalang	-3839
▁dalhin	-3840
▁dugong	-3841
▁gising	-3842
▁kaliwa	-3843
▁kusang	-3844
▁lumang	-3845
▁maayos	-3846
▁magsis	-3847
▁mapagm	-3848
▁naglil	-3849
▁naisip	-3850
▁niyong	-3851
▁paanan	-3852
▁pagmam	-3853
▁pagsis	-3854
▁pagtut	-3855
▁patung	-3856
▁tahana	-3857
▁talang	-3858
▁talino	-3859
▁tangan	-3860
▁umibig	-3861
▁umiyak	-3862
▁yamang	-3863
ahimikan	-3864
akasakit	-3865
aligiran	-3866
amatayan	-3867
amdaming	-3868
ampangan	-3869
angkilik	-3870
itingala	-3871
itingnan	-3872
potlight	-3873
ungkulan	-3874
▁Matulog	-3875
▁Maynila	-3876
▁Nalaman	-3877
▁Salamat	-3878
▁Tatlong	-3879
▁babalik	-3880
▁bandila	-3881
▁binubuo	-3882
▁gagamit	-3883
▁ginhawa	-3884
▁gustong	-3885
▁hakbang	-3886
▁halimaw	-3887
▁itataas	-3888
▁kapalit	-3889
▁kasabay	-3890
▁lumikha	-3891
▁magsisi	-3892
▁maliban	-3893
▁malinaw	-3894
▁mapalad	-3895
▁nangung	-3896
▁salamat	-3897
▁sumakay	-3898
▁sumisid	-3899
▁supling	-3900
▁tingnan	-3901
▁tuluyan	-3902
▁tumanda	-3903
▁umagang	-3904
agpatuloy	-3905
anyayahan	-3906
asalubong	-3907
▁Alindaya	-3908
▁Dulliyaw	-3909
▁Inutusan	-3910
▁Napansin	-3911
▁Talisain	-3912
▁Tulungan	-3913
▁bersiyon	-3914
▁bibigkas	-3915
▁bumagsak	-3916
▁gumagawa	-3917
▁ibibigay	-3918
▁kampupot	-3919
▁katwiran	-3920
▁kinakain	-3921
▁kundiman	-3922
▁mabigyan	-3923
▁magalang	-3924
▁magdamag	-3925
▁mahigpit	-3926
▁mangmang	-3927
▁mangyari	-3928
▁masining	-3929
▁miyembro	-3930
▁pagkaing	-3931
▁pagkakas	-3932
▁pagpapak	-3933
▁silangan	-3934
▁tagumpay	-3935
▁Bonifacio	-3936
▁Nalungkot	-3937
▁brilyante	-3938
▁hahanapin	-3939
▁kakaibang	-3940
▁kapatagan	-3941
▁kasayahan	-3942
▁kasipagan	-3943
▁paglingap	-3944
▁papalapit	-3945
itolohiyang	-3946
▁Balintawak	-3947
▁Isinusumpa	-3948
▁Salawikain	-3949
▁binibigkas	-3950
▁engkantada	-3951
▁gantimpala	-3952
▁ginintuang	-3953
▁himagsikan	-3954
▁himpapawid	-3955
▁kabalagtas	-3956
▁kagitingan	-3957
▁kasaganaan	-3958
▁katapangan	-3959
▁masaganang	-3960
▁naglalakad	-3961
▁nagpatuloy	-3962
▁naniniwala	-3963
▁pagtatanim	-3964
▁pinuntahan	-3965
▁salawikain	-3966
▁Samantalang	-3967
▁kahalagahan	-3968
▁katahimikan	-3969
▁magkabilang	-3970
▁magkaibigan	-3971
▁matatandang	-3972
▁punongkahoy	-3973
▁paglalarawan	-3974
▁napakagandang	-3975
▁makapangyarihan	-3976
AG	-3977
It	-3978
Pa	-3979
gl	-3980
Ina	-3981
PIT	-3982
can	-3983
dar	-3984
ela	-3985
elo	-3986
eto	-3987
gon	-3988
igo	-3989
ipo	-3990
kaw	-3991
mag	-3992
nin	-3993
oby	-3994
rom	-3995
ruz	-3996
tao	-3997
tot	-3998
uya	-3999
wis	-4000
yag	-4001
▁Fr	-4002
▁La	-4003
▁Uv	-4004
▁am	-4005
▁iw	-4006
▁kw	-4007
agis	-4008
agon	-4009
agos	-4010
akap	-4011
akin	-4012
amas	-4013
awng	-4014
buan	-4015
dala	-4016
idad	-4017
ikas	-4018
ilat	-4019
illa	-4020
ipot	-4021
iyus	-4022
king	-4023
loob	-4024
oron	-4025
rade	-4026
ramo	-4027
rist	-4028
roso	-4029
tana	-4030
ulid	-4031
umin	-4032
upil	-4033
ural	-4034
utya	-4035
wari	-4036
▁Ale	-4037
▁Hil	-4038
▁Jat	-4039
▁Kem	-4040
▁Nah	-4041
▁Pam	-4042
▁Sag	-4043
▁Tik	-4044
▁bug	-4045
▁dah	-4046
▁hik	-4047
▁ind	-4048
▁ing	-4049
▁ins	-4050
▁lab	-4051
▁win	-4052
PITAN	-4053
aalay	-4054
adali	-4055
aguan	-4056
aktan	-4057
alagi	-4058
alima	-4059
amali	-4060
andan	-4061
anggo	-4062
angin	-4063
bayad	-4064
bayat	-4065
dahan	-4066
edium	-4067
embre	-4068
ibili	-4069
iglig	-4070
imlan	-4071
ipagk	-4072
iwant	-4073
kapal	-4074
strum	-4075
ubali	-4076
ubing	-4077
ubund	-4078
ugnay	-4079
uhuli	-4080
ukang	-4081
uming	-4082
unian	-4083
uusap	-4084
uyuan	-4085
uyuko	-4086
wayen	-4087
westo	-4088
▁Ahhh	-4089
▁Awit	-4090
▁Dula	-4091
▁Flor	-4092
▁Gabi	-4093
▁Iyon	-4094
▁Rita	-4095
▁Uwak	-4096
▁alag	-4097
▁alay	-4098
▁band	-4099
▁biro	-4100
▁diin	-4101
▁huni	-4102
▁ipak	-4103
▁karn	-4104
▁mamb	-4105
▁mapa	-4106
▁pako	-4107
▁poot	-4108
▁pula	-4109
▁pusp	-4110
▁sanl	-4111
▁tama	-4112
▁taos	-4113
▁ubod	-4114
agalan	-4115
aganap	-4116
agutan	-4117
ahanga	-4118
ahanin	-4119
ahatid	-4120
akutan	-4121
alayag	-4122
alinga	-4123
angako	-4124
asinan	-4125
asyong	-4126
awngaw	-4127
emonya	-4128
endeng	-4129
halang	-4130
ibuhin	-4131
ikilos	-4132
ilihan	-4133
isyong	-4134
otoong	-4135
salita	-4136
ubukas	-4137
ubukin	-4138
ugutom	-4139
ukiran	-4140
ulutan	-4141
uwento	-4142
▁Bangk	-4143
▁Doron	-4144
▁Huwan	-4145
▁Ilian	-4146
▁Naawa	-4147
▁Napag	-4148
▁Sangk	-4149
▁Wigan	-4150
▁balit	-4151
▁batas	-4152
▁bilin	-4153
▁bilis	-4154
▁binti	-4155
▁binub	-4156
▁braso	-4157
▁busog	-4158
▁gatas	-4159
▁ginag	-4160
▁hugis	-4161
▁kalan	-4162
▁kalul	-4163
▁kinar	-4164
▁lalag	-4165
▁likha	-4166
▁magig	-4167
▁makag	-4168
▁malam	-4169
▁mapat	-4170
▁mapup	-4171
▁masus	-4172
▁nalag	-4173
▁namim	-4174
▁natit	-4175
▁nguni	-4176
▁nilil	-4177
▁palam	-4178
▁papag	-4179
▁papel	-4180
▁pinat	-4181
▁pipit	-4182
▁sadya	-4183
▁sahig	-4184
▁salat	-4185
▁sarap	-4186
▁sinis	-4187
▁sugat	-4188
▁sulok	-4189
▁tabak	-4190
▁tagpo	-4191
▁tigil	-4192
▁tiyan	-4193
agalang	-4194
ansones	-4195
hininga	-4196
iibigan	-4197
ikilala	-4198
ugnayan	-4199
uhunang	-4200
uturing	-4201
▁Bituin	-4202
▁Dinala	-4203
▁Halika	-4204
▁Kumuha	-4205
▁Ligaya	-4206
▁Maliit	-4207
▁Mangga	-4208
▁Nawala	-4209
▁Punong	-4210
▁Pusong	-4211
▁Puting	-4212
▁Uvigan	-4213
▁Yamang	-4214
▁alagad	-4215
▁alamin	-4216
▁amihan	-4217
▁baybay	-4218
▁bigkas	-4219
▁dragon	-4220
▁ibigay	-4221
▁ipinas	-4222
▁kabata	-4223
▁kawili	-4224
▁kinaka	-4225
▁lalake	-4226
▁madali	-4227
▁mahina	-4228
▁mainit	-4229
▁makain	-4230
▁mangga	-4231
▁nagpat	-4232
▁nagsus	-4233
▁naiwan	-4234
▁nanaog	-4235
▁narito	-4236
▁pagkas	-4237
▁palang	-4238
▁rarang	-4239
▁sining	-4240
▁taghoy	-4241
▁taguan	-4242
▁tamang	-4243
▁tinang	-4244
▁tumubo	-4245
ahiwatig	-4246
alahanin	-4247
alarawan	-4248
angkahoy	-4249
▁Babalik	-4250
▁Ingkong	-4251
▁Jatakas	-4252
▁KAPITAN	-4253
▁Lumakad	-4254
▁Maranao	-4255
▁Mayroon	-4256
▁Nakapag	-4257
▁Nalbuan	-4258
▁Namatay	-4259
▁Panahon	-4260
▁Pandora	-4261
▁Pangkas	-4262
▁Pinilit	-4263
▁Tinungo	-4264
▁aliping	-4265
▁bilangg	-4266
▁bubuyog	-4267
▁bunsong	-4268
▁gaanong	-4269
▁harapan	-4270
▁huminga	-4271
▁iligtas	-4272
▁kahapon	-4273
▁kalakal	-4274
▁kalapit	-4275
▁karapat	-4276
▁kukunin	-4277
▁kumalat	-4278
▁lalapit	-4279
▁layunin	-4280
▁malupit	-4281
▁minsang	-4282
▁nagdaan	-4283
▁nalaman	-4284
▁nanging	-4285
▁pahayag	-4286
▁panulat	-4287
▁pasakit	-4288
▁pinatay	-4289
▁sangkap	-4290
▁sumikat	-4291
▁torogan	-4292
▁umunlad	-4293
ahulugang	-4294
▁Binigyan	-4295
▁Handiong	-4296
▁Kayganda	-4297
▁Kembayat	-4298
▁Maaaring	-4299
▁Magbitag	-4300
▁Magwayen	-4301
▁Nagpunta	-4302
▁Nagtungo	-4303
▁Nalimbag	-4304
▁Persiyus	-4305
▁Sinapati	-4306
▁bahaging	-4307
▁balitang	-4308
▁dadalhin	-4309
▁dingding	-4310
▁gayundin	-4311
▁ginawang	-4312
▁hiniling	-4313
▁ibinigay	-4314
▁ikatlong	-4315
▁kalahati	-4316
▁kaunting	-4317
▁kuliglig	-4318
▁lipunang	-4319
▁mabisang	-4320
▁magbigay	-4321
▁marangal	-4322
▁mawawala	-4323
▁mayabang	-4324
▁paggamit	-4325
▁paggiliw	-4326
▁paghanga	-4327
▁paglakad	-4328
▁pagsinta	-4329
▁sabayang	-4330
▁sariwang	-4331
▁sinumang	-4332
▁taludtod	-4333
▁tanghali	-4334
▁Kamatayan	-4335
▁Magandang	-4336
▁Makatunao	-4337
▁Malungkot	-4338
▁Nagkaroon	-4339
▁Tenoriong	-4340
▁damdaming	-4341
▁halimuyak	-4342
▁isinilang	-4343
▁kabutihan	-4344
▁kahirapan	-4345
▁kalikasan	-4346
▁kamahalan	-4347
▁karaniwan	-4348
▁kasabikan	-4349
▁magsasaka	-4350
▁mahimbing	-4351
▁maliwanag	-4352
▁nagtanong	-4353
▁nakaharap	-4354
▁nanirahan	-4355
▁pamayanan	-4356
▁spotlight	-4357
▁tumanggap	-4358
▁Ginbitinan	-4359
▁Kaligirang	-4360
▁Pangasinan	-4361
▁kapayapaan	-4362
▁magnanakaw	-4363
▁magpakasal	-4364
▁maningning	-4365
▁masasamang	-4366
▁nagpasalin	-4367
▁nangyayari	-4368
▁pagbabalik	-4369
▁paglalaban	-4370
▁pagsintang	-4371
▁balahibuhin	-4372
▁kasangkapan	-4373
▁maglalakbay	-4374
▁mangingisda	-4375
▁nagdiriwang	-4376
▁naghahangad	-4377
▁pangungusap	-4378
▁kasalukuyang	-4379
▁kinaroroonan	-4380
▁mangyayaring	-4381
▁pagkakataong	-4382
▁pangyayaring	-4383
▁magkasintahan	-4384
▁pagsasalaysay	-4385
▁Interpretasyon	-4386
▁Pangkasaysayan	-4387
▁nagpapaliwanag	-4388
▁pananampalataya	-4389
Di	-4390
Ia	-4391
Ul	-4392
av	-4393
bl	-4394
ch	-4395
de	-4396
Mat	-4397
bgl	-4398
dim	-4399
eda	-4400
egh	-4401
ihi	-4402
ilb	-4403
ima	-4404
ion	-4405
ipi	-4406
lon	-4407
ngi	-4408
ope	-4409
pat	-4410
rop	-4411
sil	-4412
sob	-4413
ton	-4414
umi	-4415
▁Em	-4416
▁SI	-4417
▁Te	-4418
▁Ut	-4419
▁uw	-4420
AMAN	-4421
Iyan	-4422
Saan	-4423
abos	-4424
akda	-4425
aloy	-4426
amak	-4427
amao	-4428
anto	-4429
apad	-4430
apwa	-4431
aram	-4432
ariw	-4433
atal	-4434
atin	-4435
atlo	-4436
awla	-4437
bata	-4438
bers	-4439
daan	-4440
elih	-4441
esta	-4442
gabi	-4443
hhhh	-4444
ibot	-4445
ikil	-4446
ilio	-4447
impa	-4448
ipat	-4449
isap	-4450
iyab	-4451
kaya	-4452
laki	-4453
mong	-4454
oras	-4455
paro	-4456
puno	-4457
tama	-4458
taon	-4459
uban	-4460
ugay	-4461
ukad	-4462
ukaw	-4463
ukay	-4464
ular	-4465
umpo	-4466
unaw	-4467
usob	-4468
usot	-4469
usta	-4470
utla	-4471
utop	-4472
uwat	-4473
uway	-4474
uyas	-4475
uyin	-4476
wili	-4477
▁Aba	-4478
▁Apo	-4479
▁Buh	-4480
▁Hah	-4481
▁Has	-4482
▁Hes	-4483
▁Map	-4484
▁Nai	-4485
▁Rom	-4486
▁Sus	-4487
▁Tal	-4488
▁and	-4489
▁bub	-4490
▁dat	-4491
▁day	-4492
▁dos	-4493
▁etn	-4494
▁huw	-4495
▁mum	-4496
▁pir	-4497
▁puw	-4498
▁tap	-4499
▁tur	-4500
▁uli	-4501
Babae	-4502
Diyos	-4503
Epiko	-4504
abato	-4505
abola	-4506
adong	-4507
akand	-4508
ambot	-4509
among	-4510
angad	-4511
anubo	-4512
aping	-4513
arama	-4514
areal	-4515
arusa	-4516
asama	-4517
awiin	-4518
ayain	-4519
ayuan	-4520
daang	-4521
esang	-4522
handa	-4523
idlip	-4524
ihasa	-4525
ikaan	-4526
ilaan	-4527
imdim	-4528
ingas	-4529
ingit	-4530
inlok	-4531
intik	-4532
ipang	-4533
iwika	-4534
lipad	-4535
nilay	-4536
uezon	-4537
ukuha	-4538
umbas	-4539
unton	-4540
upaan	-4541
yagan	-4542
▁Bumb	-4543
▁Cora	-4544
▁Cruz	-4545
▁Gaya	-4546
▁Herm	-4547
▁Kami	-4548
▁Kamp	-4549
▁Lahi	-4550
▁Lope	-4551
▁Magt	-4552
▁Mong	-4553
▁Naka	-4554
▁Paib	-4555
▁Puno	-4556
▁Puso	-4557
▁Sabi	-4558
▁Sina	-4559
▁Unti	-4560
▁akda	-4561
▁bida	-4562
▁bote	-4563
▁buti	-4564
▁dagl	-4565
▁edad	-4566
▁emos	-4567
▁hits	-4568
▁hiya	-4569
▁idin	-4570
▁igat	-4571
▁inam	-4572
▁iyak	-4573
▁kabu	-4574
▁kayl	-4575
▁kusa	-4576
▁leeg	-4577
▁luma	-4578
▁mali	-4579
▁nami	-4580
▁pain	-4581
▁pait	-4582
▁paru	-4583
▁sist	-4584
▁suot	-4585
▁tadh	-4586
▁tugt	-4587
▁unos	-4588
Alamat	-4589
Ngayon	-4590
Ulitin	-4591
aalala	-4592
aantay	-4593
aasawa	-4594
adyang	-4595
agatin	-4596
ahamok	-4597
akbong	-4598
aklolo	-4599
alahad	-4600
alipas	-4601
aluhan	-4602
amaliw	-4603
angkat	-4604
angkin	-4605
angkop	-4606
awakas	-4607
ayaran	-4608
daling	-4609
eghorn	-4610
iganti	-4611
igipit	-4612
ikayat	-4613
ilipat	-4614
imulan	-4615
inting	-4616
ipitas	-4617
irikit	-4618
iyakap	-4619
onggon	-4620
oyagan	-4621
pantay	-4622
raming	-4623
samang	-4624
tataka	-4625
ugugol	-4626
untian	-4627
untong	-4628
upitan	-4629
utyang	-4630
▁Akala	-4631
▁Bagyo	-4632
▁Baran	-4633
▁Batid	-4634
▁Bukid	-4635
▁Bukod	-4636
▁Buong	-4637
▁Iyong	-4638
▁Jesus	-4639
▁Lalap	-4640
▁Natut	-4641
▁Nguni	-4642
▁Patay	-4643
▁Samar	-4644
▁Tunay	-4645
▁aalis	-4646
▁alang	-4647
▁along	-4648
▁bigat	-4649
▁binhi	-4650
▁binib	-4651
▁bungo	-4652
▁daloy	-4653
▁duhat	-4654
▁gulat	-4655
▁hangi	-4656
▁hawla	-4657
▁hener	-4658
▁himig	-4659
▁hinih	-4660
▁inaas	-4661
▁ingat	-4662
▁kaisa	-4663
▁kamao	-4664
▁kanal	-4665
▁karne	-4666
▁kaunl	-4667
▁lason	-4668
▁lawin	-4669
▁luwal	-4670
▁mahuh	-4671
▁malul	-4672
▁mayay	-4673
▁minsa	-4674
▁mutya	-4675
▁napan	-4676
▁narar	-4677
▁papay	-4678
▁patut	-4679
▁pauwi	-4680
▁pawis	-4681
▁payat	-4682
▁pinab	-4683
▁pinup	-4684
▁tagal	-4685
▁tatak	-4686
▁tibay	-4687
▁tinal	-4688
▁tuhod	-4689
▁tungo	-4690
▁ulang	-4691
▁ulila	-4692
Lalabas	-4693
Salamat	-4694
Uulitin	-4695
agdagan	-4696
akalang	-4697
akbuhan	-4698
anganib	-4699
apakita	-4700
arungan	-4701
atayuan	-4702
atiling	-4703
atingin	-4704
hikayat	-4705
ubulong	-4706
unggali	-4707
unguhan	-4708
▁Hasmin	-4709
▁Kayong	-4710
▁Malaki	-4711
▁Naisip	-4712
▁Natuwa	-4713
▁Paalam	-4714
▁Rogong	-4715
▁Siyang	-4716
▁Tumayo	-4717
▁Yaring	-4718
▁bagang	-4719
▁bughaw	-4720
▁butong	-4721
▁dahong	-4722
▁ikinab	-4723
▁kaakit	-4724
▁kabibe	-4725
▁kampon	-4726
▁kanang	-4727
▁kislap	-4728
▁kumuha	-4729
▁laruan	-4730
▁libong	-4731
▁magtot	-4732
▁mailap	-4733
▁mapagk	-4734
▁masdan	-4735
▁minana	-4736
▁misyon	-4737
▁naghih	-4738
▁nagpup	-4739
▁nasang	-4740
▁paalam	-4741
▁pagbib	-4742
▁paghah	-4743
▁pagkah	-4744
▁pagkal	-4745
▁pagnan	-4746
▁pataas	-4747
▁piging	-4748
▁pinagb	-4749
▁pinaka	-4750
▁pisngi	-4751
▁puring	-4752
▁regalo	-4753
▁sumama	-4754
▁sundin	-4755
▁tanang	-4756
▁tugtog	-4757
▁tulain	-4758
▁turuan	-4759
▁utusan	-4760
........	-4761
liwayway	-4762
mamalaki	-4763
▁Bandila	-4764
▁Corazon	-4765
▁Epikong	-4766
▁Filipin	-4767
▁Hagibis	-4768
▁Katulad	-4769
▁Kawayan	-4770
▁Lalabas	-4771
▁Liwanag	-4772
▁Lumatay	-4773
▁Lumikha	-4774
▁Madalas	-4775
▁Paganay	-4776
▁Pumayag	-4777
▁Sapagka	-4778
▁balaraw	-4779
▁bintana	-4780
▁busilak	-4781
▁emosyon	-4782
▁ganyang	-4783
▁hawakan	-4784
▁ibababa	-4785
▁ibabang	-4786
▁inaasam	-4787
▁instrum	-4788
▁ipinagk	-4789
▁itinuro	-4790
▁kamalig	-4791
▁kapitan	-4792
▁lalabas	-4793
▁limutin	-4794
▁lupaing	-4795
▁mababaw	-4796
▁madlang	-4797
▁magluto	-4798
▁magsabi	-4799
▁mahalin	-4800
▁mahulog	-4801
▁malawak	-4802
▁malubha	-4803
▁marupok	-4804
▁matikas	-4805
▁maunlad	-4806
▁naganap	-4807
▁nagsabi	-4808
▁namamah	-4809
▁nangags	-4810
▁natakot	-4811
▁pakasal	-4812
▁pananaw	-4813
▁puhunan	-4814
▁pumayag	-4815
▁sultana	-4816
▁sumapit	-4817
▁sumigaw	-4818
▁tadhana	-4819
▁takdang	-4820
▁umakyat	-4821
▁umiibig	-4822
▁umiiyak	-4823
▁watawat	-4824
alinghaga	-4825
iwantiwan	-4826
▁Balagtas	-4827
▁Bumbaran	-4828
▁Magulang	-4829
▁Masayang	-4830
▁Masinlok	-4831
▁Maykapal	-4832
▁Nagising	-4833
▁Narating	-4834
▁Parabula	-4835
▁Sabayang	-4836
▁Sampalok	-4837
▁dosenang	-4838
▁gunitain	-4839
▁ikinasal	-4840
▁inilagay	-4841
▁kadakila	-4842
▁karimlan	-4843
▁kasamang	-4844
▁kasuotan	-4845
▁katulong	-4846
▁kawawang	-4847
▁kawayang	-4848
▁lansones	-4849
▁mabangis	-4850
▁magarang	-4851
▁magising	-4852
▁magmahal	-4853
▁makakain	-4854
▁mamasyal	-4855
▁manggang	-4856
▁manugang	-4857
▁nahuhuli	-4858
▁naliligo	-4859
▁natutong	-4860
▁pagkakal	-4861
▁palakpak	-4862
▁palamuti	-4863
▁pantalon	-4864
▁parabola	-4865
▁paruparo	-4866
▁tinubuan	-4867
apangasawa	-4868
▁Baranugun	-4869
▁Dinoyagan	-4870
▁Maririnig	-4871
▁Nararapat	-4872
▁Naririnig	-4873
▁Paiborong	-4874
▁Tinatawag	-4875
▁gagamitin	-4876
▁gumagamit	-4877
▁ipinakita	-4878
▁kabanalan	-4879
▁kakayahan	-4880
▁karanasan	-4881
▁katuwiran	-4882
▁kaugnayan	-4883
▁magaganda	-4884
▁makabalik	-4885
▁malalakas	-4886
▁mamahalin	-4887
▁mananakop	-4888
▁mapalagay	-4889
▁matatawag	-4890
▁nagbabago	-4891
▁nagdurusa	-4892
▁naglahong	-4893
▁nagsisisi	-4894
▁namumuhay	-4895
▁pagbabago	-4896
▁pagkabata	-4897
▁palibhasa	-4898
▁pinakamah	-4899
▁seremonya	-4900
▁sumusunod	-4901
▁tanggapin	-4902
▁Kailangang	-4903
▁Karaniwang	-4904
▁Lalapindig	-4905
▁Magindanao	-4906
▁Sampaguita	-4907
▁gumagapang	-4908
▁kabutihang	-4909
▁kagustuhan	-4910
▁kalahating	-4911
▁karamdaman	-4912
▁katamtaman	-4913
▁mangangaso	-4914
▁nagbabadya	-4915
▁nagkasakit	-4916
▁pagkakaisa	-4917
▁pagsasayaw	-4918
▁pahintulot	-4919
▁pamamahala	-4920
▁pamanhikan	-4921
▁panibagong	-4922
▁sinalubong	-4923
▁ipagtanggol	-4924
▁kagandahang	-4925
▁magkakaroon	-4926
▁naglalakbay	-4927
▁nangangarap	-4928
▁pagbabagong	-4929
▁pagsasalita	-4930
▁Maniwantiwan	-4931
▁Salamangkero	-4932
▁bungangkahoy	-4933
▁kinatatayuan	-4934
▁napakalaking	-4935
▁pagmamahalan	-4936
▁pagpapahalaga	-4937
▁pakikipaglaban	-4938
):	-4939
12	-4940
AS	-4941
AY	-4942
HH	-4943
II	-4944
NI	-4945
UN	-4946
co	-4947
ke	-4948
se	-4949
sy	-4950
va	-4951
All	-4952
And	-4953
Kay	-4954
LAK	-4955
Mas	-4956
PAG	-4957
aly	-4958
anc	-4959
ani	-4960
arl	-4961
ayu	-4962
bah	-4963
emp	-4964
ibu	-4965
ice	-4966
iga	-4967
iha	-4968
ism	-4969
ket	-4970
kod	-4971
mar	-4972
nap	-4973
owa	-4974
pad	-4975
pal	-4976
ral	-4977
ril	-4978
rip	-4979
roc	-4980
ukd	-4981
ver	-4982
wid	-4983
▁Ad	-4984
▁IV	-4985
▁Oy	-4986
▁ut	-4987
ANDA	-4988
Ikaw	-4989
Kasi	-4990
abon	-4991
abut	-4992
ahok	-4993
aksi	-4994
alau	-4995
aluk	-4996
alul	-4997
amon	-4998
ampi	-4999
anit	-5000
anod	-5001
asid	-5002
avay	-5003
echo	-5004
ekto	-5005
enta	-5006
eron	-5007
eses	-5008
fina	-5009
ibit	-5010
igin	-5011
inda	-5012
inip	-5013
ipol	-5014
irio	-5015
itil	-5016
iwag	-5017
iwil	-5018
lupa	-5019
ngit	-5020
oche	-5021
oice	-5022
orin	-5023
pada	-5024
pain	-5025
puti	-5026
rado	-5027
rami	-5028
ubli	-5029
uhaw	-5030
ulas	-5031
umba	-5032
upas	-5033
usad	-5034
usal	-5035
usaw	-5036
yaya	-5037
▁Aan	-5038
▁Bah	-5039
▁DUN	-5040
▁Far	-5041
▁Kad	-5042
▁Kur	-5043
▁Med	-5044
▁Pah	-5045
▁Pul	-5046
▁Put	-5047
▁Sib	-5048
▁Sol	-5049
▁Tao	-5050
▁Tar	-5051
▁Ton	-5052
▁Uri	-5053
▁aan	-5054
▁aks	-5055
▁ala	-5056
▁ani	-5057
▁api	-5058
▁ber	-5059
▁bil	-5060
▁del	-5061
▁gar	-5062
▁gas	-5063
▁hab	-5064
▁hid	-5065
▁hit	-5066
▁hul	-5067
▁isk	-5068
▁iya	-5069
▁lil	-5070
▁pit	-5071
▁pop	-5072
▁pos	-5073
▁reh	-5074
▁sob	-5075
▁sol	-5076
Galit	-5077
Gusto	-5078
Higit	-5079
aanan	-5080
aaway	-5081
abila	-5082
aglit	-5083
agulo	-5084
ahuli	-5085
alaot	-5086
ampok	-5087
anday	-5088
angya	-5089
anhik	-5090
antog	-5091
arami	-5092
aruan	-5093
aruga	-5094
atiin	-5095
awaan	-5096
endag	-5097
engke	-5098
idlan	-5099
iguni	-5100
impal	-5101
imtim	-5102
inaas	-5103
ipapa	-5104
ipita	-5105
ipong	-5106
iring	-5107
obong	-5108
odoro	-5109
okawa	-5110
palit	-5111
saing	-5112
sunod	-5113
tuloy	-5114
ubsob	-5115
uking	-5116
ungaw	-5117
ungay	-5118
ungis	-5119
ungit	-5120
untik	-5121
unung	-5122
urusa	-5123
uulit	-5124
uwahe	-5125
uwing	-5126
▁Aila	-5127
▁Alin	-5128
▁Atis	-5129
▁Band	-5130
▁Dugo	-5131
▁Gran	-5132
▁Ibon	-5133
▁Igin	-5134
▁Ilan	-5135
▁Impo	-5136
▁Kaig	-5137
▁Kris	-5138
▁Lalo	-5139
▁Marc	-5140
▁Maru	-5141
▁Maya	-5142
▁Pagm	-5143
▁Pags	-5144
▁Pagt	-5145
▁Seus	-5146
▁Sing	-5147
▁Tubo	-5148
▁Wari	-5149
▁alim	-5150
▁bany	-5151
▁bati	-5152
▁bola	-5153
▁gabe	-5154
▁gawi	-5155
▁goby	-5156
▁ingk	-5157
▁isus	-5158
▁itak	-5159
▁kont	-5160
▁kump	-5161
▁kuta	-5162
▁lamp	-5163
▁maih	-5164
▁mais	-5165
▁mesa	-5166
▁muni	-5167
▁nagg	-5168
▁nanl	-5169
▁napa	-5170
▁over	-5171
▁paka	-5172
▁pera	-5173
▁pero	-5174
▁plan	-5175
▁pray	-5176
▁prop	-5177
▁sant	-5178
▁sari	-5179
▁sawi	-5180
▁tali	-5181
▁tema	-5182
▁tore	-5183
▁usok	-5184
▁utop	-5185
▁uwak	-5186
Ingles	-5187
Tatayo	-5188
aanong	-5189
abasag	-5190
abuhay	-5191
ahawak	-5192
aksaya	-5193
alasik	-5194
alayin	-5195
alikan	-5196
alikod	-5197
anawan	-5198
anggal	-5199
angong	-5200
apakan	-5201
arasal	-5202
atanas	-5203
atulan	-5204
awahan	-5205
awirin	-5206
bigyan	-5207
hagang	-5208
igmang	-5209
iingat	-5210
iisang	-5211
ilahin	-5212
ilalim	-5213
ilitan	-5214
imutan	-5215
inggil	-5216
inisid	-5217
ipigil	-5218
isahan	-5219
langan	-5220
nanais	-5221
orotan	-5222
ubhang	-5223
uluhod	-5224
unurin	-5225
unwari	-5226
upling	-5227
urayan	-5228
usbong	-5229
uugali	-5230
yembre	-5231
▁Cirio	-5232
▁Dahon	-5233
▁Dinar	-5234
▁Duhat	-5235
▁Epiko	-5236
▁GANDA	-5237
▁Ganda	-5238
▁Gener	-5239
▁Grupo	-5240
▁Gusto	-5241
▁Higit	-5242
▁Kalik	-5243
▁Kanya	-5244
▁Labis	-5245
▁Lamut	-5246
▁Limay	-5247
▁Luzon	-5248
▁Makan	-5249
▁Nakal	-5250
▁Natat	-5251
▁Noche	-5252
▁Pablo	-5253
▁Padre	-5254
▁Palay	-5255
▁Pinoy	-5256
▁Rabut	-5257
▁SIPAG	-5258
▁Sarid	-5259
▁Siyam	-5260
▁Tanag	-5261
▁Timog	-5262
▁Tungk	-5263
▁YAMAN	-5264
▁Yaman	-5265
▁alila	-5266
▁anino	-5267
▁anito	-5268
▁antas	-5269
▁asong	-5270
▁babas	-5271
▁balae	-5272
▁bangg	-5273
▁banig	-5274
▁baong	-5275
▁beses	-5276
▁biyas	-5277
▁dagta	-5278
▁digma	-5279
▁estud	-5280
▁gaano	-5281
▁galaw	-5282
▁gilid	-5283
▁gulay	-5284
▁hamon	-5285
▁hapag	-5286
▁hinag	-5287
▁hipan	-5288
▁hukbo	-5289
▁ingay	-5290
▁kakah	-5291
▁kakan	-5292
▁kapan	-5293
▁kapus	-5294
▁karak	-5295
▁katat	-5296
▁kawan	-5297
▁kinak	-5298
▁kiwil	-5299
▁kumot	-5300
▁luksa	-5301
▁lunas	-5302
▁magug	-5303
▁mahin	-5304
▁makap	-5305
▁malig	-5306
▁mandi	-5307
▁mapam	-5308
▁matit	-5309
▁matul	-5310
▁minum	-5311
▁nahih	-5312
▁nakay	-5313
▁namam	-5314
▁ngiti	-5315
▁nilal	-5316
▁nimpa	-5317
▁niyog	-5318
▁pamah	-5319
▁pamim	-5320
▁paris	-5321
▁pinas	-5322
▁saang	-5323
▁sakay	-5324
▁salin	-5325
▁samyo	-5326
▁sipag	-5327
▁taluk	-5328
▁tanik	-5329
▁tapis	-5330
▁tigib	-5331
▁tinik	-5332
▁titig	-5333
Andrade	-5334
Sabihin	-5335
abaihan	-5336
abangan	-5337
akailan	-5338
akainin	-5339
akilang	-5340
akitang	-5341
aksihan	-5342
amangka	-5343
amdamin	-5344
ampakan	-5345
anganak	-5346
angging	-5347
apitong	-5348
arinlan	-5349
atanong	-5350
awaglit	-5351
babawal	-5352
higanti	-5353
ibingan	-5354
ilingon	-5355
imagsik	-5356
indihan	-5357
iyahang	-5358
labanan	-5359
otabato	-5360
ubungin	-5361
uhangin	-5362
uluhang	-5363
utulong	-5364
▁Aanhin	-5365
▁Androm	-5366
▁Baysay	-5367
▁DUNONG	-5368
▁Farida	-5369
▁Flores	-5370
▁Impong	-5371
▁Iskong	-5372
▁Magtat	-5373
▁Nagsas	-5374
▁Naiwan	-5375
▁Pangan	-5376
▁Romano	-5377
▁Silang	-5378
▁Taglay	-5379
▁Waring	-5380
▁baging	-5381
▁bantay	-5382
▁bubong	-5383
▁dulang	-5384
▁humina	-5385
▁ibigin	-5386
▁inibig	-5387
▁inumin	-5388
▁ipinak	-5389
▁isipin	-5390
▁kaming	-5391
▁kinain	-5392
▁labing	-5393
▁lalung	-5394
▁lambak	-5395
▁langis	-5396
▁lanubo	-5397
▁layang	-5398
▁linggo	-5399
▁luhang	-5400
▁madula	-5401
▁mahaba	-5402
▁maingg	-5403
▁maipag	-5404
▁manang	-5405
▁mapili	-5406
▁maubos	-5407
▁naghah	-5408
▁nakaka	-5409
▁nangas	-5410
▁napili	-5411
▁natuto	-5412
▁ngipin	-5413
▁orasan	-5414
▁pagpup	-5415
▁pantay	-5416
▁pastol	-5417
▁pating	-5418
▁patpat	-5419
▁patula	-5420
▁paulit	-5421
▁punung	-5422
▁sansin	-5423
▁sindak	-5424
▁sinong	-5425
▁sumuko	-5426
▁suyuan	-5427
▁trumpo	-5428
▁tumira	-5429
▁tumpak	-5430
▁umaasa	-5431
▁umawit	-5432
▁unahan	-5433
ahiwalay	-5434
alimuyak	-5435
alinhaga	-5436
anggulan	-5437
apatayin	-5438
apaunlad	-5439
aysayang	-5440
elihiyon	-5441
iligawan	-5442
ilingkod	-5443
ingganda	-5444
lalakbay	-5445
ulantang	-5446
urusahan	-5447
▁Abuhing	-5448
▁Basahin	-5449
▁Bulusan	-5450
▁Bumalik	-5451
▁Bungang	-5452
▁Datapwa	-5453
▁Donggon	-5454
▁Elenang	-5455
▁Ginamit	-5456
▁Ikalawa	-5457
▁Ilianon	-5458
▁Ipinagt	-5459
▁Kapitan	-5460
▁Larawan	-5461
▁Marahil	-5462
▁Matanda	-5463
▁Munting	-5464
▁Natakot	-5465
▁Ngayong	-5466
▁Pablito	-5467
▁Patuloy	-5468
▁Pumunta	-5469
▁Sampung	-5470
▁Satanas	-5471
▁Sicavay	-5472
▁Sumpain	-5473
▁Teodoro	-5474
▁Toniong	-5475
▁Tumawag	-5476
▁Walayin	-5477
▁alapaap	-5478
▁bagamat	-5479
▁basahin	-5480
▁bituing	-5481
▁diumano	-5482
▁dumalaw	-5483
▁ginamit	-5484
▁gitnang	-5485
▁hanggan	-5486
▁hiniram	-5487
▁hinubog	-5488
▁hitsura	-5489
▁humarap	-5490
▁hustong	-5491
▁igalang	-5492
▁inaawit	-5493
▁ingkong	-5494
▁kabuuan	-5495
▁kadilim	-5496
▁langgam	-5497
▁luntian	-5498
▁maingat	-5499
▁makisig	-5500
▁malalag	-5501
▁malasin	-5502
▁mamunga	-5503
▁mapatay	-5504
▁matakot	-5505
▁matapat	-5506
▁matigas	-5507
▁matipid	-5508
▁matsing	-5509
▁minahal	-5510
▁mundong	-5511
▁nabihag	-5512
▁nagbago	-5513
▁nagdala	-5514
▁naglaho	-5515
▁nagturo	-5516
▁nakakat	-5517
▁napakat	-5518
▁niyakap	-5519
▁pabango	-5520
▁pagpili	-5521
▁palabas	-5522
▁panging	-5523
▁papaano	-5524
▁papayag	-5525
▁pinagka	-5526
▁sayawan	-5527
▁sinagot	-5528
▁sintang	-5529
▁sistema	-5530
▁tanglaw	-5531
▁taniman	-5532
▁tinipon	-5533
▁totoong	-5534
▁tungkod	-5535
alagtasan	-5536
anggalang	-5537
anggunian	-5538
ihimagsik	-5539
intakutan	-5540
▁Doronoon	-5541
▁Gayundin	-5542
▁Halamang	-5543
▁Kalabasa	-5544
▁Kalayaan	-5545
▁Kampupot	-5546
▁Karaniwa	-5547
▁Kristong	-5548
▁Mangyari	-5549
▁Naalaala	-5550
▁Naghanda	-5551
▁Tanagyaw	-5552
▁Tumulong	-5553
▁balangay	-5554
▁binibini	-5555
▁binuksan	-5556
▁buhangin	-5557
▁bulubund	-5558
▁bunganga	-5559
▁daraanan	-5560
▁gobyerno	-5561
▁guniguni	-5562
▁halakhak	-5563
▁hinagkan	-5564
▁hinagpis	-5565
▁iniaalay	-5566
▁inihanda	-5567
▁inutusan	-5568
▁kabaitan	-5569
▁kampilan	-5570
▁karuwahe	-5571
▁katauhan	-5572
▁katumbas	-5573
▁kawikaan	-5574
▁liwayway	-5575
▁lumangoy	-5576
▁mababang	-5577
▁mababasa	-5578
▁maibigan	-5579
▁makapags	-5580
▁malamlam	-5581
▁mapayapa	-5582
▁masaklap	-5583
▁maybahay	-5584
▁minokawa	-5585
▁nagagawa	-5586
▁nagbalik	-5587
▁nagdulot	-5588
▁naglilip	-5589
▁nagpapas	-5590
▁nagpasya	-5591
▁nakitang	-5592
▁natirang	-5593
▁pabareal	-5594
▁pabigkas	-5595
▁pagkakat	-5596
▁pagsikat	-5597
▁pagtupad	-5598
▁palengke	-5599
▁pampanit	-5600
▁panganay	-5601
▁panghabi	-5602
▁piyesang	-5603
▁pulubing	-5604
▁sakaling	-5605
▁sinabing	-5606
▁sinasabi	-5607
▁talangka	-5608
▁talipapa	-5609
▁tanungin	-5610
▁tinangay	-5611
▁tugtugin	-5612
▁tumutubo	-5613
apastangan	-5614
atutunayan	-5615
▁Amburayan	-5616
▁Edukasyon	-5617
▁Inalagaan	-5618
▁Karamihan	-5619
▁Nagpaalam	-5620
▁Nagtanong	-5621
▁Pagkaraan	-5622
▁Pakinggan	-5623
▁bahagyang	-5624
▁banggitin	-5625
▁hangganan	-5626
▁humihingi	-5627
▁ibinalita	-5628
▁ikalawang	-5629
▁kabukiran	-5630
▁kailanman	-5631
▁kalawakan	-5632
▁kasagutan	-5633
▁kaunlaran	-5634
▁lumalapit	-5635
▁magdamdam	-5636
▁maginhawa	-5637
▁magkaanak	-5638
▁magkasama	-5639
▁maririkit	-5640
▁masilayan	-5641
▁matagpuan	-5642
▁nababatid	-5643
▁nagigipit	-5644
▁nakalaban	-5645
▁nasilayan	-5646
▁pagsasabi	-5647
▁pagsasama	-5648
▁pagsilang	-5649
▁pakasalan	-5650
▁pakinggan	-5651
▁pangalang	-5652
▁pasalamat	-5653
▁patawarin	-5654
▁tinutukoy	-5655
▁tradisyon	-5656
▁tumutukoy	-5657
aniniwalaan	-5658
▁Kaigorotan	-5659
▁Kalahating	-5660
▁Nagpatuloy	-5661
▁Pagmamahal	-5662
▁Panganiban	-5663
▁Saridandan	-5664
▁alalahanin	-5665
▁estudyante	-5666
▁kababaihan	-5667
▁kaparangan	-5668
▁katunggali	-5669
▁magbabalik	-5670
▁magbibigay	-5671
▁magtotroso	-5672
▁masasabing	-5673
▁matalinong	-5674
▁nagduruyan	-5675
▁nalilimbag	-5676
▁naramdaman	-5677
▁paghahanda	-5678
▁pagtitipon	-5679
▁pamamaraan	-5680
▁pangangaso	-5681
▁panitikang	-5682
▁pinangalan	-5683
▁talampakan	-5684
▁tinulungan	-5685
▁tradisyong	-5686
▁Kahalagahan	-5687
▁iginagalang	-5688
▁karunungang	-5689
▁katungkulan	-5690
▁kinabukasan	-5691
▁mainggiting	-5692
▁mapangasawa	-5693
▁nagkakaroon	-5694
▁nagtataglay	-5695
▁napakaganda	-5696
▁pakakasalan	-5697
▁pangalawang	-5698
▁panghikayat	-5699
▁pinarusahan	-5700
▁mandirigmang	-5701
▁nagpapahayag	-5702
▁Lalapindigowa	-5703
▁instrumentong	-5704
▁pinagkautangan	-5705
▁pangangailangan	-5706
GA	-5707
In	-5708
ez	-5709
ll	-5710
uu	-5711
▁,	-5712
!!!	-5713
Low	-5714
Opo	-5715
Sas	-5716
Tut	-5717
aal	-5718
aon	-5719
apl	-5720
arp	-5721
ate	-5722
bib	-5723
def	-5724
ekt	-5725
him	-5726
ido	-5727
irh	-5728
isk	-5729
ite	-5730
iyo	-5731
kam	-5732
lod	-5733
mah	-5734
mat	-5735
may	-5736
ond	-5737
ook	-5738
ort	-5739
osa	-5740
pin	-5741
sar	-5742
sel	-5743
ser	-5744
sip	-5745
tad	-5746
til	-5747
tog	-5748
uda	-5749
udh	-5750
udy	-5751
uer	-5752
uma	-5753
uos	-5754
urg	-5755
was	-5756
yol	-5757
▁Ch	-5758
▁En	-5759
▁Hi	-5760
▁Ku	-5761
▁Le	-5762
▁Pr	-5763
▁To	-5764
▁ad	-5765
▁ek	-5766
▁ir	-5767
▁oy	-5768
▁pi	-5769
▁ug	-5770
!...	-5771
Ilog	-5772
Mags	-5773
Mbgl	-5774
Miya	-5775
Pero	-5776
Taga	-5777
abab	-5778
adag	-5779
ahid	-5780
ahis	-5781
akip	-5782
alop	-5783
alos	-5784
angi	-5785
ansa	-5786
aong	-5787
apup	-5788
aray	-5789
aris	-5790
arto	-5791
asak	-5792
asim	-5793
asta	-5794
atao	-5795
atil	-5796
atub	-5797
ayom	-5798
elan	-5799
elas	-5800
enan	-5801
ersa	-5802
ethe	-5803
gawa	-5804
ibak	-5805
ikaw	-5806
ikip	-5807
ikli	-5808
iksi	-5809
ilbi	-5810
ildo	-5811
imat	-5812
ipis	-5813
isit	-5814
leng	-5815
nais	-5816
onso	-5817
oses	-5818
puso	-5819
rang	-5820
reto	-5821
ribo	-5822
sari	-5823
sura	-5824
ubin	-5825
uela	-5826
ugaw	-5827
ugma	-5828
ugto	-5829
uhog	-5830
uipo	-5831
ukas	-5832
ukat	-5833
ukod	-5834
ulag	-5835
umon	-5836
ungh	-5837
ungs	-5838
upin	-5839
urno	-5840
uyot	-5841
yoso	-5842
yuan	-5843
▁Aya	-5844
▁Bai	-5845
▁Bak	-5846
▁Bar	-5847
▁Bub	-5848
▁Cag	-5849
▁Eto	-5850
▁Huh	-5851
▁Iya	-5852
▁Kaw	-5853
▁Mac	-5854
▁Mel	-5855
▁Mom	-5856
▁Noo	-5857
▁Per	-5858
▁Rec	-5859
▁Rep	-5860
▁Sis	-5861
▁Sur	-5862
▁Tom	-5863
▁Umi	-5864
▁Vic	-5865
▁aba	-5866
▁abo	-5867
▁amp	-5868
▁doo	-5869
▁gig	-5870
▁gug	-5871
▁hil	-5872
▁hiw	-5873
▁iis	-5874
▁iwi	-5875
▁law	-5876
▁lus	-5877
▁nir	-5878
▁pig	-5879
▁rad	-5880
▁sos	-5881
▁tub	-5882
▁yao	-5883
Bayan	-5884
Dahan	-5885
Iiyak	-5886
Lahat	-5887
Mahal	-5888
aalab	-5889
aanim	-5890
abago	-5891
abata	-5892
abaya	-5893
abuti	-5894
adlad	-5895
adlak	-5896
adpad	-5897
aglag	-5898
agpak	-5899
agtas	-5900
agupa	-5901
ainit	-5902
aligo	-5903
amand	-5904
ambog	-5905
amnan	-5906
anaag	-5907
anaig	-5908
andro	-5909
angka	-5910
antas	-5911
apako	-5912
arhan	-5913
arpio	-5914
aslas	-5915
ataon	-5916
awagi	-5917
awian	-5918
ayani	-5919
ayari	-5920
bagay	-5921
bisig	-5922
eksto	-5923
giliw	-5924
hindi	-5925
ibigo	-5926
iglas	-5927
ihina	-5928
iklab	-5929
imbar	-5930
imlim	-5931
impok	-5932
indol	-5933
indra	-5934
inggo	-5935
ingon	-5936
intal	-5937
ipana	-5938
iskis	-5939
kamay	-5940
kasan	-5941
labis	-5942
lilis	-5943
linga	-5944
lipat	-5945
luran	-5946
nayon	-5947
oloko	-5948
opiya	-5949
ormal	-5950
sanga	-5951
talan	-5952
tapat	-5953
ubang	-5954
ubdan	-5955
ukano	-5956
uklas	-5957
uklay	-5958
ulain	-5959
ulano	-5960
umpak	-5961
umpas	-5962
unday	-5963
unita	-5964
upong	-5965
usyon	-5966
uutos	-5967
uyasu	-5968
yaman	-5969
ythag	-5970
▁Abot	-5971
▁Alim	-5972
▁Asya	-5973
▁Gamb	-5974
▁Hari	-5975
▁Ilaw	-5976
▁Kano	-5977
▁Kasi	-5978
▁Kast	-5979
▁Kina	-5980
▁Lamb	-5981
▁Lola	-5982
▁Lolo	-5983
▁Magu	-5984
▁Nagd	-5985
▁Pagb	-5986
▁Pagp	-5987
▁Paru	-5988
▁Poon	-5989
▁Sakb	-5990
▁Sama	-5991
▁Samb	-5992
▁Sige	-5993
▁Tama	-5994
▁Tata	-5995
▁Utos	-5996
▁Yamb	-5997
▁amoy	-5998
▁asin	-5999
▁baha	-6000
▁baro	-6001
▁basa	-6002
▁base	-6003
▁daig	-6004
▁dili	-6005
▁ihip	-6006
▁ikab	-6007
▁ikag	-6008
▁inis	-6009
▁itso	-6010
▁itut	-6011
▁kaan	-6012
▁kapa	-6013
▁liku	-6014
▁magw	-6015
▁maip	-6016
▁mist	-6017
▁myth	-6018
▁naip	-6019
▁nand	-6020
▁nati	-6021
▁nawa	-6022
▁nuno	-6023
▁pano	-6024
▁pusa	-6025
▁ramo	-6026
▁samb	-6027
▁sige	-6028
▁sira	-6029
▁solo	-6030
▁susi	-6031
▁tamb	-6032
▁tant	-6033
▁tawa	-6034
▁tuka	-6035
▁tunt	-6036
▁ubos	-6037
▁uhay	-6038
Iaayon	-6039
Lalaki	-6040
Parang	-6041
abagin	-6042
abulan	-6043
abusaw	-6044
abutan	-6045
agawan	-6046
aginan	-6047
agisag	-6048
agusto	-6049
ahaman	-6050
ahamon	-6051
ahunan	-6052
akdang	-6053
alagos	-6054
alakal	-6055
alanin	-6056
alapad	-6057
alasin	-6058
alaueg	-6059
alawak	-6060
alayas	-6061
alikha	-6062
alimot	-6063
amahin	-6064
amanan	-6065
amitan	-6066
araang	-6067
arapin	-6068
ariang	-6069
asaing	-6070
asalin	-6071
atangi	-6072
atanim	-6073
awasan	-6074
ayakap	-6075
ayanig	-6076
dalang	-6077
eksyon	-6078
etheus	-6079
hating	-6080
ibabaw	-6081
igawan	-6082
ikaing	-6083
ikulan	-6084
ilaban	-6085
ilbing	-6086
ilimot	-6087
ingang	-6088
iwasan	-6089
kislap	-6090
lutang	-6091
masaya	-6092
parong	-6093
rabida	-6094
ubukan	-6095
ugatan	-6096
ulatan	-6097
uluwal	-6098
umihan	-6099
ungkal	-6100
unugin	-6101
upiter	-6102
utlang	-6103
uunlad	-6104
uwagan	-6105
wiling	-6106
▁Adlaw	-6107
▁Anupa	-6108
▁Asong	-6109
▁Ating	-6110
▁Ayoko	-6111
▁Bikol	-6112
▁Bukal	-6113
▁Gawin	-6114
▁Handa	-6115
▁Hayop	-6116
▁Hirap	-6117
▁Ibang	-6118
▁Ildef	-6119
▁Kapwa	-6120
▁Kayum	-6121
▁Lubos	-6122
▁Lumul	-6123
▁Luson	-6124
▁Maawa	-6125
▁Malin	-6126
▁Mapat	-6127
▁Masas	-6128
▁Nanay	-6129
▁Odang	-6130
▁Panga	-6131
▁Pasko	-6132
▁Pilar	-6133
▁Reyna	-6134
▁Sabay	-6135
▁Sagot	-6136
▁Santo	-6137
▁Sinis	-6138
▁Tuloy	-6139
▁Waray	-6140
▁animo	-6141
▁baliw	-6142
▁balon	-6143
▁batay	-6144
▁bisyo	-6145
▁bitui	-6146
▁dapit	-6147
▁datap	-6148
▁dinad	-6149
▁dukha	-6150
▁dulot	-6151
▁gapos	-6152
▁gayun	-6153
▁hatid	-6154
▁hitik	-6155
▁humih	-6156
▁iiwan	-6157
▁ipagl	-6158
▁ispir	-6159
▁kahon	-6160
▁kaita	-6161
▁kakat	-6162
▁kapup	-6163
▁kasam	-6164
▁kasoy	-6165
▁kinab	-6166
▁kinam	-6167
▁kolon	-6168
▁lakad	-6169
▁lalaw	-6170
▁lawak	-6171
▁layon	-6172
▁lente	-6173
▁libis	-6174
▁liyag	-6175
▁lulan	-6176
▁lumal	-6177
▁lumil	-6178
▁madad	-6179
▁magpa	-6180
▁mahah	-6181
▁malag	-6182
▁matim	-6183
▁nabig	-6184
▁nakah	-6185
▁nakar	-6186
▁nanay	-6187
▁nanun	-6188
▁napat	-6189
▁ngala	-6190
▁niyon	-6191
▁nuong	-6192
▁pader	-6193
▁palag	-6194
▁panay	-6195
▁panun	-6196
▁panyo	-6197
▁paral	-6198
▁pares	-6199
▁pinal	-6200
▁pinan	-6201
▁plasa	-6202
▁pulos	-6203
▁pumup	-6204
▁saksi	-6205
▁salop	-6206
▁sampu	-6207
▁suson	-6208
▁tanod	-6209
▁tanso	-6210
▁tatay	-6211
▁tinit	-6212
▁torso	-6213
▁tumit	-6214
▁wasto	-6215
▁yagit	-6216
▁yakap	-6217
Ituturo	-6218
Papasok	-6219
Pupunta	-6220
abangon	-6221
abasang	-6222
abihing	-6223
agmulan	-6224
agulang	-6225
ahihiya	-6226
alagyan	-6227
alakpak	-6228
aligtas	-6229
amanang	-6230
amandag	-6231
amasdan	-6232
ambitan	-6233
andaang	-6234
andugan	-6235
apakpak	-6236
apanhik	-6237
apiling	-6238
apusang	-6239
araming	-6240
arangal	-6241
ariwara	-6242
awangis	-6243
bibigay	-6244
igdigan	-6245
ikitang	-6246
ilalang	-6247
indahan	-6248
intasan	-6249
irasong	-6250
isilang	-6251
isipang	-6252
isipsip	-6253
lawigan	-6254
ukadkad	-6255
ukulang	-6256
umbalik	-6257
umiglas	-6258
upwesto	-6259
ustuhin	-6260
▁Anding	-6261
▁Apollo	-6262
▁Banlak	-6263
▁Buhong	-6264
▁Carpio	-6265
▁Dakila	-6266
▁Dumaan	-6267
▁Ganito	-6268
▁Ganoon	-6269
▁Hangin	-6270
▁Ikatlo	-6271
▁Ilongo	-6272
▁Iniwan	-6273
▁Ipinas	-6274
▁Ipugaw	-6275
▁Kagand	-6276
▁Kidlat	-6277
▁Kikong	-6278
▁Kilala	-6279
▁Kinain	-6280
▁Kristo	-6281
▁Kuaman	-6282
▁Kuyasu	-6283
▁Lakand	-6284
▁Layang	-6285
▁Linggo	-6286
▁Lunsod	-6287
▁Mabini	-6288
▁Malaya	-6289
▁Masdan	-6290
▁Mataas	-6291
▁Medusa	-6292
▁Nagsis	-6293
▁Nagtat	-6294
▁Niyong	-6295
▁Pabula	-6296
▁Pagsas	-6297
▁Perlas	-6298
▁Pythag	-6299
▁Republ	-6300
▁Sariwa	-6301
▁Toyang	-6302
▁Umiyak	-6303
▁Victor	-6304
▁Yuyuko	-6305
▁agawin	-6306
▁agimat	-6307
▁anghel	-6308
▁balana	-6309
▁balite	-6310
▁balong	-6311
▁bilhin	-6312
▁bisita	-6313
▁bumuka	-6314
▁daanan	-6315
▁datung	-6316
▁dumalo	-6317
▁dumami	-6318
▁eksena	-6319
▁espada	-6320
▁estilo	-6321
▁ganang	-6322
▁garuda	-6323
▁giting	-6324
▁hahang	-6325
▁halama	-6326
▁halong	-6327
▁hangga	-6328
▁hapong	-6329
▁hating	-6330
▁higaan	-6331
▁himala	-6332
▁ibalik	-6333
▁ihanda	-6334
▁ihatid	-6335
▁ikmong	-6336
▁imahin	-6337
▁imbing	-6338
▁inagaw	-6339
▁inspir	-6340
▁inuuna	-6341
▁ipuipo	-6342
▁isinas	-6343
▁itinat	-6344
▁itsura	-6345
▁kaginh	-6346
▁kagyat	-6347
▁kahima	-6348
▁kalahi	-6349
▁kaunti	-6350
▁kumpas	-6351
▁ligtas	-6352
▁lusong	-6353
▁maaliw	-6354
▁mabisa	-6355
▁madugo	-6356
▁magbub	-6357
▁magpak	-6358
▁magpap	-6359
▁mapagp	-6360
▁mapait	-6361
▁mapaso	-6362
▁masabi	-6363
▁masawi	-6364
▁matuto	-6365
▁mulala	-6366
▁naakit	-6367
▁nagnin	-6368
▁nagtut	-6369
▁nahati	-6370
▁nakang	-6371
▁nakuha	-6372
▁naluto	-6373
▁nangag	-6374
▁nangak	-6375
▁nasaan	-6376
▁natuwa	-6377
▁nayong	-6378
▁pagdar	-6379
▁pagkad	-6380
▁pagsus	-6381
▁palalo	-6382
▁palong	-6383
▁pamana	-6384
▁panaho	-6385
▁papuri	-6386
▁pasiya	-6387
▁pinags	-6388
▁pinili	-6389
▁putong	-6390
▁saklap	-6391
▁sakong	-6392
▁sariwa	-6393
▁saysay	-6394
▁siguro	-6395
▁silong	-6396
▁singaw	-6397
▁subali	-6398
▁sumang	-6399
▁tagdan	-6400
▁tainga	-6401
▁tatayo	-6402
▁tiyaga	-6403
▁tumama	-6404
▁tuwina	-6405
▁tuyong	-6406
▁umisip	-6407
▁usbong	-6408
▁utopia	-6409
akatawan	-6410
alambing	-6411
aligtaan	-6412
alinuhan	-6413
amakaawa	-6414
ansangan	-6415
apakinig	-6416
asalamin	-6417
atanghal	-6418
awakawak	-6419
bersyong	-6420
ikitungo	-6421
ilanlang	-6422
ingkuran	-6423
ipaglaro	-6424
ipitagan	-6425
pirasong	-6426
sarimbar	-6427
ugaliang	-6428
ugtungan	-6429
ukuwento	-6430
umingiti	-6431
▁Bandina	-6432
▁Bantong	-6433
▁Bitiwan	-6434
▁Cagayan	-6435
▁Dinggin	-6436
▁Gagamba	-6437
▁Gintong	-6438
▁Granada	-6439
▁Haharap	-6440
▁Hinugot	-6441
▁Humanda	-6442
▁Humingi	-6443
▁Ikaapat	-6444
▁Ikalima	-6445
▁Ilukano	-6446
▁Itinuro	-6447
▁Kulaman	-6448
▁Mabuhay	-6449
▁Magmula	-6450
▁Mahalin	-6451
▁Malapit	-6452
▁Masakit	-6453
▁Masarap	-6454
▁Naalala	-6455
▁Nabuhay	-6456
▁Nanging	-6457
▁Napatay	-6458
▁Palayok	-6459
▁Pinakam	-6460
▁Pupunta	-6461
▁Sabihin	-6462
▁Tinipon	-6463
▁Tumango	-6464
▁alagaan	-6465
▁angking	-6466
▁bagoong	-6467
▁bagyong	-6468
▁balabal	-6469
▁batayan	-6470
▁batisan	-6471
▁bayaang	-6472
▁baywang	-6473
▁binuhay	-6474
▁biyenan	-6475
▁buntong	-6476
▁dagling	-6477
▁dinggin	-6478
▁dumatal	-6479
▁gamitin	-6480
▁gandang	-6481
▁gasatan	-6482
▁gumamit	-6483
▁gumugol	-6484
▁handaan	-6485
▁hatulan	-6486
▁himutok	-6487
▁hinango	-6488
▁hinggil	-6489
▁humanap	-6490
▁humanga	-6491
▁huminto	-6492
▁huwaran	-6493
▁iisipin	-6494
▁ikaapat	-6495
▁ilibing	-6496
▁indayog	-6497
▁iniisip	-6498
▁ipinagd	-6499
▁isilang	-6500
▁isipang	-6501
▁kadahil	-6502
▁kahanga	-6503
▁kalahok	-6504
▁kanayon	-6505
▁kandila	-6506
▁karamay	-6507
▁karayom	-6508
▁kinapap	-6509
▁kuwarto	-6510
▁leghorn	-6511
▁ligalig	-6512
▁lilipad	-6513
▁linyang	-6514
▁lumaban	-6515
▁lumukso	-6516
▁lunting	-6517
▁maaring	-6518
▁mabagal	-6519
▁mabango	-6520
▁magbago	-6521
▁magiliw	-6522
▁magsing	-6523
▁makamit	-6524
▁makapan	-6525
▁malapad	-6526
▁malusog	-6527
▁maluwag	-6528
▁maluwat	-6529
▁mamuhay	-6530
▁mangung	-6531
▁matinik	-6532
▁musikal	-6533
▁nabuwal	-6534
▁nagkita	-6535
▁nagsama	-6536
▁nagwika	-6537
▁nahabag	-6538
▁namunga	-6539
▁nangagl	-6540
▁natapos	-6541
▁natupad	-6542
▁naulila	-6543
▁paanong	-6544
▁paglaya	-6545
▁pagtula	-6546
▁paharap	-6547
▁palihim	-6548
▁palitan	-6549
▁pamagat	-6550
▁pambata	-6551
▁panangh	-6552
▁pangang	-6553
▁pangkas	-6554
▁panitik	-6555
▁papunta	-6556
▁paraang	-6557
▁pautang	-6558
▁pinakas	-6559
▁pinamum	-6560
▁pumatay	-6561
▁pumitas	-6562
▁pumutol	-6563
▁putulin	-6564
▁rehiyon	-6565
▁sikreto	-6566
▁sinulid	-6567
▁sinuman	-6568
▁sisikat	-6569
▁sumayaw	-6570
▁sumpaan	-6571
▁sumulat	-6572
▁tirahan	-6573
▁tumakbo	-6574
▁tumigil	-6575
▁ulilang	-6576
alamutian	-6577
amadaling	-6578
anggaling	-6579
ihinagpis	-6580
▁Bantawan	-6581
▁Bikulano	-6582
▁Bukidnon	-6583
▁Darangan	-6584
▁Espanyol	-6585
▁Gayunman	-6586
▁Hilagang	-6587
▁Hinampas	-6588
▁Hiniling	-6589
▁Isinulat	-6590
▁Josefina	-6591
▁Kaluluwa	-6592
▁Kasopiya	-6593
▁Katauhan	-6594
▁Macarang	-6595
▁Magbuhat	-6596
▁Mahalaga	-6597
▁Makikita	-6598
▁Malaking	-6599
▁Mayroong	-6600
▁Nagbalik	-6601
▁Nagyakap	-6602
▁Naisipan	-6603
▁Namangha	-6604
▁Palayain	-6605
▁Sakbawan	-6606
▁adhikain	-6607
▁alimango	-6608
▁bigkasan	-6609
▁dahilang	-6610
▁dalangin	-6611
▁engkanto	-6612
▁etnikong	-6613
▁gagapang	-6614
▁gumising	-6615
▁gumulang	-6616
▁hangarin	-6617
▁isinabit	-6618
▁isinabog	-6619
▁ispiritu	-6620
▁itinanim	-6621
▁kabiguan	-6622
▁kahapong	-6623
▁kalakhan	-6624
▁kalayuan	-6625
▁kamataya	-6626
▁kapiling	-6627
▁karakter	-6628
▁katagang	-6629
▁kwentong	-6630
▁libangan	-6631
▁lulutang	-6632
▁lumalaki	-6633
▁lumalang	-6634
▁lumingap	-6635
▁mabilang	-6636
▁magbayad	-6637
▁magbunga	-6638
▁maghanap	-6639
▁magkakap	-6640
▁magsikap	-6641
▁magtuloy	-6642
▁makaalis	-6643
▁makakuha	-6644
▁makitang	-6645
▁malalaki	-6646
▁malambot	-6647
▁malayang	-6648
▁maliligo	-6649
▁manatili	-6650
▁manligaw	-6651
▁mapansin	-6652
▁mapapasa	-6653
▁masisira	-6654
▁matulain	-6655
▁matuling	-6656
▁musikang	-6657
▁nabahala	-6658
▁nagbuhat	-6659
▁naggayak	-6660
▁naghirap	-6661
▁nagkaisa	-6662
▁nagtampo	-6663
▁naisipan	-6664
▁nakadapo	-6665
▁nalalabi	-6666
▁namumuno	-6667
▁nanatili	-6668
▁nanganak	-6669
▁napiling	-6670
▁nasabing	-6671
▁ninanais	-6672
▁paaralan	-6673
▁paggalaw	-6674
▁pagkakah	-6675
▁pagkatao	-6676
▁paglipas	-6677
▁pagliyag	-6678
▁pagpunta	-6679
▁pagtulog	-6680
▁panimdim	-6681
▁pinakain	-6682
▁puhunang	-6683
▁puntahan	-6684
▁sabihing	-6685
▁saganang	-6686
▁sampalok	-6687
▁sisidlan	-6688
▁soloista	-6689
▁tinatang	-6690
▁titingin	-6691
▁tulisang	-6692
▁tumindig	-6693
▁tumulong	-6694
▁Andromeda	-6695
▁Bathalang	-6696
▁Filipinas	-6697
▁Ibinalita	-6698
▁Ildefonso	-6699
▁Kabikulan	-6700
▁Kailangan	-6701
▁Lumilitaw	-6702
▁Magbangon	-6703
▁Mongindra	-6704
▁Nabanggit	-6705
▁Sinimulan	-6706
▁Tarabusaw	-6707
▁balangkas	-6708
▁gumaganap	-6709
▁hinaharap	-6710
▁hinihingi	-6711
▁kababalag	-6712
▁kabataang	-6713
▁kadiliman	-6714
▁kaitaasan	-6715
▁kakahuyan	-6716
▁kalinisan	-6717
▁kalupitan	-6718
▁kasabihan	-6719
▁katunayan	-6720
▁kumikilos	-6721
▁lambingan	-6722
▁lansangan	-6723
▁lilimutin	-6724
▁mabalasik	-6725
▁mabangong	-6726
▁magkabila	-6727
▁mahabagin	-6728
▁makalipad	-6729
▁mananakaw	-6730
▁maninisid	-6731
▁manirahan	-6732
▁matatanaw	-6733
▁maunawaan	-6734
▁mistulang	-6735
▁mumunting	-6736
▁nagaganap	-6737
▁nagkulang	-6738
▁nagugutom	-6739
▁nakahanda	-6740
▁nakarinig	-6741
▁nakasabit	-6742
▁nakasakay	-6743
▁nakatikom	-6744
▁nakikipag	-6745
▁nalilikha	-6746
▁nalulunod	-6747
▁namamatay	-6748
▁nasusulat	-6749
▁nasusunog	-6750
▁natatanaw	-6751
▁nilalaman	-6752
▁pagbabayo	-6753
▁pagdaraan	-6754
▁pagkikita	-6755
▁paglililo	-6756
▁pagluluto	-6757
▁pagmasdan	-6758
▁pagnanais	-6759
▁pagnanasa	-6760
▁pagpipita	-6761
▁pagtingin	-6762
▁pakakasal	-6763
▁pampangin	-6764
▁pandanggo	-6765
▁pangalawa	-6766
▁parusahan	-6767
▁patungong	-6768
▁pinagpala	-6769
▁pinipitas	-6770
▁pinuhunan	-6771
▁relihiyon	-6772
▁sinasamba	-6773
▁talinhaga	-6774
▁titingnan	-6775
▁tumandang	-6776
▁tumututol	-6777
alingawngaw	-6778
▁Makanungan	-6779
▁Nabalitaan	-6780
▁Pambansang	-6781
▁Pinagmulan	-6782
▁Pinuntahan	-6783
▁Pythagoras	-6784
▁Silanganan	-6785
▁balagtasan	-6786
▁bibigkasin	-6787
▁bilangguan	-6788
▁binubuksan	-6789
▁dumarating	-6790
▁hinihintay	-6791
▁inaasahang	-6792
▁kadakilaan	-6793
▁kahulugang	-6794
▁kalinangan	-6795
▁kayamanang	-6796
▁kinikilala	-6797
▁konsensiya	-6798
▁lawlawigan	-6799
▁maaliwalas	-6800
▁mabubuting	-6801
▁mabulaklak	-6802
▁maghiwalay	-6803
▁magigiting	-6804
▁magmamaliw	-6805
▁magtrabaho	-6806
▁makamandag	-6807
▁makikilala	-6808
▁maligayang	-6809
▁mamahaling	-6810
▁mapagmahal	-6811
▁mararating	-6812
▁matulungan	-6813
▁matulungin	-6814
▁nabalitaan	-6815
▁nabibilang	-6816
▁naghihirap	-6817
▁naglalahad	-6818
▁naglalaman	-6819
▁nagliliyab	-6820
▁nagmakaawa	-6821
▁nagpahinga	-6822
▁nakikiusap	-6823
▁napapaloob	-6824
▁nasasaklaw	-6825
▁natuklasan	-6826
▁pagbanggit	-6827
▁pagbibigay	-6828
▁pagbibilog	-6829
▁paghahamok	-6830
▁paghakbang	-6831
▁pagkabuhay	-6832
▁pagkamatay	-6833
▁paglalayag	-6834
▁pagtanggap	-6835
▁pananalita	-6836
▁pangatlong	-6837
▁pangunguha	-6838
▁pangunguna	-6839
▁papayagang	-6840
▁paroroonan	-6841
▁pormasyong	-6842
▁sansinukob	-6843
▁tinangkang	-6844
▁tutulungan	-6845
▁Inanyayahan	-6846
▁Ipinagtapat	-6847
▁Maguindanao	-6848
▁Pinampangan	-6849
▁imahinasyon	-6850
▁inspirasyon	-6851
▁itinuturing	-6852
▁kapaligiran	-6853
▁kasingganda	-6854
▁katalinuhan	-6855
▁kumakatawan	-6856
▁madamdaming	-6857
▁magpakailan	-6858
▁magsasalita	-6859
▁mambibigkas	-6860
▁mangingibig	-6861
▁naglalayong	-6862
▁nagulantang	-6863
▁nakatatanda	-6864
▁nalulungkot	-6865
▁nangungusap	-6866
▁pagmamalaki	-6867
▁pakikitungo	-6868
▁pamamalakad	-6869
▁pasasalamat	-6870
▁pinakasalan	-6871
▁Bungangsakit	-6872
▁Mitolohiyang	-6873
▁Nagpasalamat	-6874
▁Sangkatauhan	-6875
▁ikinabubuhay	-6876
▁inilalarawan	-6877
▁ipinagkaloob	-6878
▁kaginhawahan	-6879
▁makipaglaban	-6880
▁mitolohiyang	-6881
▁nagmamahalan	-6882
▁nagngangalit	-6883
▁napakaraming	-6884
▁nararamdaman	-6885
▁paghihiganti	-6886
▁paglingkuran	-6887
▁pagtatanggol	-6888
▁pananghalian	-6889
▁patutunguhan	-6890
▁sandaigdigan	-6891
▁talasalitaan	-6892
▁bulubunduking	-6893
▁humahalimuyak	-6894
▁ipinagbabawal	-6895
▁ipinagpatuloy	-6896
▁kinakailangan	-6897
▁mapapangasawa	-6898
▁pinagtataguan	-6899
▁pinakamaganda	-6900
▁ipinagmamalaki	-6901
▁kapangyarihang	-6902
▁kinapapalooban	-6903
▁nangangailangan	-6904
▁pinakamagandang	-6905
2)	-6906
??	-6907
AH	-6908
Ah	-6909
Ar	-6910
BI	-6911
LA	-6912
OT	-6913
Si	-6914
US	-6915
ew	-6916
iv	-6917
li	-6918
mp	-6919
pi	-6920
sh	-6921
ua	-6922
-12	-6923
Bal	-6924
Dum	-6925
Hoy	-6926
Hum	-6927
ING	-6928
Isa	-6929
Mak	-6930
Mam	-6931
Man	-6932
NIS	-6933
Nag	-6934
Nap	-6935
Pag	-6936
Pat	-6937
Pil	-6938
Sig	-6939
Sus	-6940
ais	-6941
ast	-6942
ayd	-6943
ayi	-6944
bas	-6945
bid	-6946
bit	-6947
bls	-6948
enc	-6949
eny	-6950
hih	-6951
hod	-6952
iik	-6953
ill	-6954
imm	-6955
iph	-6956
ipk	-6957
irt	-6958
isl	-6959
itn	-6960
kab	-6961
kal	-6962
lin	-6963
low	-6964
luw	-6965
mad	-6966
mok	-6967
obl	-6968
oel	-6969
ont	-6970
orc	-6971
pap	-6972
pay	-6973
rap	-6974
rim	-6975
rod	-6976
rog	-6977
ron	-6978
sul	-6979
sus	-6980
tid	-6981
tis	-6982
uod	-6983
uoy	-6984
uum	-6985
wag	-6986
wat	-6987
yal	-6988
▁1]	-6989
▁20	-6990
▁Iw	-6991
▁Ts	-6992
▁el	-6993
▁hu	-6994
▁ok	-6995
▁op	-6996
▁pw	-6997
▁ti	-6998
▁up	-6999
bos	-7000
iil	-7001
tak	-7002
yed	-7003
...?	-7004
?...	-7005
AKAS	-7006
Anak	-7007
High	-7008
Kaya	-7009
MPUP	-7010
Magh	-7011
Mula	-7012
Naku	-7013
Sana	-7014
Sige	-7015
Tama	-7016
Tayo	-7017
agip	-7018
agiw	-7019
ahen	-7020
akam	-7021
alac	-7022
alib	-7023
alye	-7024
amoy	-7025
anyo	-7026
apaw	-7027
arim	-7028
aron	-7029
aros	-7030
atsa	-7031
buti	-7032
dila	-7033
ende	-7034
endi	-7035
eneg	-7036
enig	-7037
enio	-7038
eryo	-7039
fuer	-7040
haya	-7041
hele	-7042
hiya	-7043
ibin	-7044
ibok	-7045
ibug	-7046
idik	-7047
igay	-7048
ihas	-7049
ihaw	-7050
ikim	-7051
ikin	-7052
ilad	-7053
inio	-7054
iral	-7055
isal	-7056
isle	-7057
itna	-7058
iyuh	-7059
lalo	-7060
luko	-7061
napu	-7062
oilo	-7063
okus	-7064
orya	-7065
oryo	-7066
osyo	-7067
otan	-7068
pala	-7069
saan	-7070
tayo	-7071
tiis	-7072
ting	-7073
uano	-7074
udhi	-7075
ueva	-7076
ugal	-7077
unoy	-7078
unyi	-7079
upig	-7080
urak	-7081
uray	-7082
urok	-7083
wita	-7084
▁...	-7085
▁Bay	-7086
▁Bib	-7087
▁Bol	-7088
▁Bun	-7089
▁Cap	-7090
▁Ceb	-7091
▁Day	-7092
▁Dom	-7093
▁Gay	-7094
▁Hab	-7095
▁Ing	-7096
▁Iyo	-7097
▁KAS	-7098
▁LAH	-7099
Gag	-7100
eme	-7101
▁Ol	-7102
Ayaw	-7103
LING	-7104
aapi	-7105
ahos	-7106
kain	-7107
▁Dis	-7108
▁Int	-7109
▁Lip	-7110
▁Liv	-7111
▁Los	-7112
▁MGA	-7113
▁Nin	-7114
▁Rin	-7115
▁Sto	-7116
▁Tok	-7117
▁Tup	-7118
▁alo	-7119
▁bel	-7120
▁bol	-7121
▁der	-7122
▁det	-7123
▁dir	-7124
▁dur	-7125
▁duw	-7126
▁gul	-7127
▁guw	-7128
▁ibo	-7129
▁ist	-7130
▁kom	-7131
▁lak	-7132
▁lol	-7133
▁lut	-7134
▁pih	-7135
▁pip	-7136
▁sib	-7137
▁siy	-7138
▁tah	-7139
▁tel	-7140
Anong	-7141
Hahag	-7142
LINIS	-7143
aalin	-7144
aalok	-7145
adang	-7146
agaan	-7147
aghoy	-7148
aguyo	-7149
aklaw	-7150
akulo	-7151
alata	-7152
alint	-7153
alsik	-7154
alung	-7155
ampon	-7156
amuno	-7157
ancis	-7158
angko	-7159
angla	-7160
antap	-7161
antsa	-7162
anzon	-7163
apuan	-7164
ariin	-7165
aydor	-7166
dulan	-7167
egend	-7168
entaw	-7169
erola	-7170
erong	-7171
hapon	-7172
ibiro	-7173
igong	-7174
iinam	-7175
iinom	-7176
ilaok	-7177
imbag	-7178
inata	-7179
indoy	-7180
ipagt	-7181
ipkip	-7182
irhen	-7183
isong	-7184
itain	-7185
itano	-7186
iyong	-7187
kabit	-7188
lagas	-7189
lahat	-7190
lawan	-7191
nakaw	-7192
nubay	-7193
ortal	-7194
oteng	-7195
paman	-7196
raban	-7197
rimon	-7198
sahan	-7199
abo	-7200
ete	-7201
ons	-7202
Ibab	-7203
apoy	-7204
rile	-7205
sino	-7206
▁Aso	-7207
▁Jac	-7208
▁Jer	-7209
▁bur	-7210
agpag	-7211
ernat	-7212
hanga	-7213
irapa	-7214
shirt	-7215
sibol	-7216
silim	-7217
silip	-7218
sulok	-7219
tanaw	-7220
tanto	-7221
tidos	-7222
tugan	-7223
ubuka	-7224
ugmok	-7225
ukain	-7226
ulpot	-7227
umbay	-7228
umpok	-7229
ungal	-7230
unyag	-7231
upkop	-7232
uriin	-7233
usisa	-7234
uugat	-7235
yahan	-7236
yawan	-7237
▁Ahas	-7238
▁Apoy	-7239
▁Asin	-7240
▁Bata	-7241
▁Baut	-7242
▁Bawa	-7243
▁Bitu	-7244
▁Buns	-7245
▁Buto	-7246
▁Gand	-7247
▁Glor	-7248
▁Haba	-7249
▁Hala	-7250
▁Hayo	-7251
▁Iloc	-7252
▁Indo	-7253
▁Inih	-7254
▁Ipak	-7255
▁Irog	-7256
▁Itat	-7257
▁Joel	-7258
▁Kaka	-7259
▁Kiko	-7260
▁Kult	-7261
▁Leon	-7262
▁Magg	-7263
▁Mand	-7264
▁Mata	-7265
▁Meme	-7266
▁Moro	-7267
▁Nagu	-7268
▁Nanl	-7269
▁Napa	-7270
▁Nawa	-7271
▁Orak	-7272
▁Pagl	-7273
▁Sana	-7274
▁Simb	-7275
▁Tala	-7276
▁Ulap	-7277
▁adel	-7278
▁alab	-7279
▁alis	-7280
▁bend	-7281
▁bulo	-7282
▁daho	-7283
▁daya	-7284
▁dayo	-7285
▁diya	-7286
▁dula	-7287
▁dung	-7288
▁eduk	-7289
▁elem	-7290
▁estr	-7291
▁giba	-7292
▁gras	-7293
▁heto	-7294
▁hina	-7295
▁ikuk	-7296
▁imik	-7297
▁isas	-7298
▁itat	-7299
▁v	-7300
Nin	-7301
mak	-7302
inom	-7303
ipid	-7304
uuin	-7305
uump	-7306
▁Doo	-7307
▁Kod	-7308
▁Lun	-7309
Kaawa	-7310
asing	-7311
danan	-7312
turan	-7313
uhian	-7314
uunan	-7315
▁Ulan	-7316
▁kaay	-7317
▁kati	-7318
▁kawa	-7319
▁kayg	-7320
▁kays	-7321
▁kumb	-7322
▁kwak	-7323
▁laot	-7324
▁laro	-7325
▁laso	-7326
▁lola	-7327
▁lolo	-7328
▁loro	-7329
▁maid	-7330
▁mana	-7331
▁masy	-7332
▁misa	-7333
▁mito	-7334
▁nail	-7335
▁pagw	-7336
▁palo	-7337
▁pans	-7338
▁papa	-7339
▁pare	-7340
▁pind	-7341
▁pios	-7342
▁pira	-7343
▁puma	-7344
▁samo	-7345
▁simp	-7346
▁sint	-7347
▁tamp	-7348
▁teng	-7349
▁trah	-7350
▁tubo	-7351
▁turo	-7352
▁tuwi	-7353
▁utak	-7354
▁walo	-7355
MPUPOT	-7356
Mabuti	-7357
Medium	-7358
Walang	-7359
aabang	-7360
aalaga	-7361
abalot	-7362
abatid	-7363
abayad	-7364
abulid	-7365
adaluh	-7366
adurog	-7367
agalak	-7368
agatas	-7369
agayon	-7370
agupit	-7371
aguyod	-7372
ahanan	-7373
ahanay	-7374
ahilig	-7375
ahinto	-7376
akaisa	-7377
akapit	-7378
akilan	-7379
alahin	-7380
alakaw	-7381
alamin	-7382
alanan	-7383
alasap	-7384
alibag	-7385
aligid	-7386
alinis	-7387
aliwan	-7388
amante	-7389
amaran	-7390
andili	-7391
angang	-7392
angkal	-7393
ansala	-7394
antong	-7395
apagod	-7396
aranas	-7397
ariaan	-7398
asauli	-7399
gil	-7400
hhh	-7401
rez	-7402
▁ho	-7403
akop	-7404
▁Bac	-7405
Papal	-7406
adugo	-7407
alyas	-7408
gubat	-7409
hinan	-7410
igang	-7411
istro	-7412
malas	-7413
▁Aral	-7414
▁Igon	-7415
▁abay	-7416
▁baly	-7417
▁klas	-7418
adikit	-7419
akupan	-7420
anglaw	-7421
arlika	-7422
asigaw	-7423
aspang	-7424
ataong	-7425
atayan	-7426
atiran	-7427
awisan	-7428
bagang	-7429
bighan	-7430
dakila	-7431
darayo	-7432
endrez	-7433
entral	-7434
ernand	-7435
fuerte	-7436
hangad	-7437
idigma	-7438
idilim	-7439
igiliw	-7440
ihimig	-7441
ihinal	-7442
ikhang	-7443
iligin	-7444
ilikan	-7445
ilikot	-7446
ilugan	-7447
ilyang	-7448
imithi	-7449
ingkod	-7450
inigil	-7451
inipay	-7452
inlahi	-7453
insala	-7454
ipagka	-7455
ipitan	-7456
ipunin	-7457
isilid	-7458
isipot	-7459
itagan	-7460
itiwan	-7461
itiyak	-7462
itnaan	-7463
iyawan	-7464
kainan	-7465
kasama	-7466
libong	-7467
ligtas	-7468
mangan	-7469
mbayan	-7470
oblema	-7471
ondaya	-7472
panhik	-7473
rapura	-7474
ristal	-7475
sisisi	-7476
tulong	-7477
ubilin	-7478
ukulan	-7479
ulanan	-7480
umanga	-7481
umbong	-7482
umpaan	-7483
unaway	-7484
untang	-7485
untung	-7486
uparan	-7487
upitin	-7488
usabos	-7489
usapin	-7490
usilak	-7491
ustang	-7492
utulan	-7493
uwesto	-7494
walang	-7495
walong	-7496
▁Aklan	-7497
▁Alang	-7498
▁Amang	-7499
Aba	-7500
pok	-7501
▁Ko	-7502
mura	-7503
Ilang	-7504
Isang	-7505
ensya	-7506
▁kaaa	-7507
▁maya	-7508
isdang	-7509
minsan	-7510
ubuang	-7511
▁Asawa	-7512
▁Babae	-7513
▁Baboy	-7514
▁Basta	-7515
▁Binab	-7516
▁Bukas	-7517
▁Bunga	-7518
▁Casta	-7519
▁Claro	-7520
▁Dahan	-7521
▁Dapwa	-7522
▁Diyan	-7523
▁Diyuh	-7524
▁Embid	-7525
▁Gabay	-7526
▁Halik	-7527
▁Halos	-7528
▁Hayun	-7529
▁Hesuk	-7530
▁Hesus	-7531
▁Iabot	-7532
▁Ibong	-7533
▁Igala	-7534
▁Impah	-7535
▁Indya	-7536
▁Islaw	-7537
▁Itaas	-7538
▁Itago	-7539
▁Kabis	-7540
▁Kapit	-7541
▁Kinam	-7542
▁Krist	-7543
▁Kulay	-7544
▁Kulog	-7545
▁Kunin	-7546
▁Laban	-7547
▁Labos	-7548
▁Lanaw	-7549
▁Leron	-7550
▁Lihim	-7551
▁Lubay	-7552
▁Malay	-7553
▁Mangg	-7554
▁Manun	-7555
▁Mapal	-7556
▁Mateo	-7557
▁Minis	-7558
▁Nakak	-7559
▁Namum	-7560
▁Naupo	-7561
▁Nayon	-7562
▁Niyog	-7563
▁Paano	-7564
▁Pakik	-7565
▁Panit	-7566
▁Parup	-7567
▁Pilit	-7568
▁Pinag	-7569
▁Pinam	-7570
▁Pinya	-7571
▁Poong	-7572
▁Recto	-7573
▁Sinta	-7574
▁Sulod	-7575
▁Takot	-7576
▁Tapat	-7577
▁Tinay	-7578
▁Totoo	-7579
▁Umuwi	-7580
▁Utang	-7581
▁Villa	-7582
▁Voice	-7583
▁abala	-7584
▁aling	-7585
▁bakya	-7586
▁balot	-7587
▁balse	-7588
▁banga	-7589
▁baril	-7590
▁basag	-7591
▁basta	-7592
▁bibit	-7593
▁binur	-7594
▁boses	-7595
▁budhi	-7596
▁bumuo	-7597
▁burda	-7598
▁dahas	-7599
▁dahop	-7600
▁dalaw	-7601
▁dinig	-7602
▁doong	-7603
▁duyan	-7604
▁ginat	-7605
▁hahat	-7606
▁hango	-7607
▁hikbi	-7608
▁hilaw	-7609
▁hinig	-7610
▁hinog	-7611
▁hinto	-7612
▁hipon	-7613
▁hiram	-7614
▁hitso	-7615
▁hulog	-7616
▁hurno	-7617
▁ibayo	-7618
▁iiyak	-7619
▁iluha	-7620
▁ipagb	-7621
▁isipa	-7622
▁ituro	-7623
▁kadal	-7624
▁kagat	-7625
▁kahin	-7626
▁kalaw	-7627
▁kalus	-7628
▁kapig	-7629
▁katan	-7630
▁kawag	-7631
▁kendi	-7632
▁kinah	-7633
▁kinal	-7634
▁kisig	-7635
▁kumuk	-7636
▁kupas	-7637
▁kurus	-7638
▁lagay	-7639
▁layun	-7640
▁limot	-7641
▁lipos	-7642
▁lugod	-7643
▁lumag	-7644
▁lungg	-7645
▁lupit	-7646
▁maawa	-7647
▁makin	-7648
▁malal	-7649
▁malay	-7650
▁maliw	-7651
▁mamul	-7652
▁manin	-7653
▁manun	-7654
▁milag	-7655
▁mismo	-7656
▁multo	-7657
▁nabuo	-7658
▁nagug	-7659
▁nahan	-7660
▁nakag	-7661
▁nanga	-7662
▁napal	-7663
▁napup	-7664
▁oyayi	-7665
▁pakir	-7666
▁palat	-7667
▁palit	-7668
▁parte	-7669
▁pasan	-7670
▁patik	-7671
▁paunl	-7672
▁payag	-7673
▁payak	-7674
▁pinaa	-7675
▁pitik	-7676
▁pusod	-7677
▁putok	-7678
▁radio	-7679
▁rurok	-7680
▁sakim	-7681
▁sakop	-7682
▁sangm	-7683
▁santa	-7684
▁sigwa	-7685
▁sikap	-7686
▁sikdo	-7687
▁silya	-7688
▁sumus	-7689
▁supil	-7690
▁sutla	-7691
▁takbo	-7692
▁takda	-7693
▁talon	-7694
▁tawad	-7695
▁tibok	-7696
▁tigas	-7697
▁timog	-7698
▁tingn	-7699
▁tinud	-7700
▁tribu	-7701
▁trono	-7702
▁tutol	-7703
▁umupo	-7704
▁yumao	-7705
Ibababa	-7706
Itataas	-7707
Malakas	-7708
Pilipin	-7709
Tagalog	-7710
Tatakbo	-7711
Tingnan	-7712
aangkin	-7713
aanyong	-7714
agaslaw	-7715
agawang	-7716
agpalit	-7717
alaglag	-7718
alamlam	-7719
alangit	-7720
alasang	-7721
alayuan	-7722
aligtad	-7723
alinhan	-7724
aliping	-7725
amitang	-7726
ampanan	-7727
ancisco	-7728
anggawa	-7729
anghero	-7730
aplusin	-7731
aragdag	-7732
arangya	-7733
arawang	-7734
asayang	-7735
asikaso	-7736
atangis	-7737
atingaw	-7738
awalang	-7739
awawala	-7740
bahayan	-7741
ekalogo	-7742
entuhan	-7743
ilanggo	-7744
ingapin	-7745
inggang	-7746
intayin	-7747
irahang	-7748
istahan	-7749
iwalang	-7750
iwanang	-7751
kanyang	-7752
kendeng	-7753
lilisik	-7754
marikit	-7755
rocinio	-7756
sinelas	-7757
ubuklod	-7758
uhayang	-7759
umpisal	-7760
unayang	-7761
unyapit	-7762
usisyon	-7763
uusapan	-7764
▁Alagad	-7765
▁Anghel	-7766
▁Bagobo	-7767
▁Balita	-7768
▁Baltog	-7769
▁Baston	-7770
▁Batang	-7771
▁Batong	-7772
▁Bigyan	-7773
▁Dalaga	-7774
▁Dalhin	-7775
▁Darang	-7776
▁Emilio	-7777
▁Gayong	-7778
▁Handog	-7779
▁Hangga	-7780
▁Ibanag	-7781
▁Iisang	-7782
▁Iloilo	-7783
▁Inalis	-7784
▁Inayos	-7785
▁Ipinal	-7786
▁Kagaya	-7787
▁Katang	-7788
▁Kitang	-7789
▁Kurita	-7790
▁Lahing	-7791
▁Lalaki	-7792
▁Lintik	-7793
▁Lumaki	-7794
▁Lumayo	-7795
▁Magpak	-7796
▁Magsas	-7797
▁Mahina	-7798
▁Mainit	-7799
▁Maitim	-7800
▁Makata	-7801
▁Malayo	-7802
▁Mamang	-7803
▁Mantap	-7804
▁Mapang	-7805
▁Marcos	-7806
▁Matang	-7807
▁Nadala	-7808
▁Nagpak	-7809
▁Naroon	-7810
▁Naubos	-7811
▁Pagtat	-7812
▁Pangin	-7813
▁Pantas	-7814
▁Pawang	-7815
▁Salapi	-7816
▁Santol	-7817
▁Sining	-7818
▁Subali	-7819
▁Tamang	-7820
▁Tatayo	-7821
▁Tumaas	-7822
▁Umahon	-7823
▁alahas	-7824
▁alitan	-7825
▁aliwin	-7826
▁asahan	-7827
▁awitan	-7828
▁awitin	-7829
▁ayusin	-7830
▁bagama	-7831
▁bagwis	-7832
▁bahala	-7833
▁baling	-7834
▁basket	-7835
▁bihasa	-7836
▁bolang	-7837
▁bukana	-7838
▁bumili	-7839
▁damhin	-7840
▁dumaan	-7841
▁dumapo	-7842
▁galang	-7843
▁gating	-7844
▁gitara	-7845
▁guwang	-7846
▁haligi	-7847
▁halina	-7848
▁hangal	-7849
▁hinhin	-7850
▁hiwaga	-7851
▁ihulog	-7852
▁ilabas	-7853
▁impluw	-7854
▁inaapi	-7855
▁inabot	-7856
▁inahin	-7857
▁inggit	-7858
▁inihan	-7859
▁inilag	-7860
▁inisip	-7861
▁ipinam	-7862
▁iskrip	-7863
▁itapon	-7864
▁itulak	-7865
▁kalian	-7866
▁kamang	-7867
▁kanino	-7868
▁kaniya	-7869
▁kapara	-7870
▁kapuwa	-7871
▁kasawi	-7872
▁kastil	-7873
▁katyaw	-7874
▁kubang	-7875
▁kumita	-7876
▁kutang	-7877
▁kwento	-7878
▁lagyan	-7879
▁lalayo	-7880
▁lambat	-7881
▁lantay	-7882
▁layuni	-7883
▁lintik	-7884
▁liping	-7885
▁lobong	-7886
▁lumayo	-7887
▁lunday	-7888
▁maagap	-7889
▁maalam	-7890
▁maasim	-7891
▁magaan	-7892
▁magdad	-7893
▁magkat	-7894
▁magpah	-7895
▁magsus	-7896
▁magtut	-7897
▁magulo	-7898
▁mahuli	-7899
▁mainam	-7900
▁mamili	-7901
▁manika	-7902
▁mapasa	-7903
▁mariin	-7904
▁matang	-7905
▁matwid	-7906
▁mayama	-7907
▁medium	-7908
▁munang	-7909
▁muntik	-7910
▁musang	-7911
▁nabali	-7912
▁nagawa	-7913
▁nagkat	-7914
▁naglul	-7915
▁nagpal	-7916
▁nagsil	-7917
▁nagsip	-7918
▁naisin	-7919
▁nakiki	-7920
▁nalang	-7921
▁napang	-7922
▁nasabi	-7923
▁nasawi	-7924
▁natamo	-7925
▁natuyo	-7926
▁naubos	-7927
▁ningas	-7928
▁niring	-7929
▁normal	-7930
▁pagano	-7931
▁pagbub	-7932
▁pagkam	-7933
▁pagkap	-7934
▁pagkit	-7935
▁pahina	-7936
▁palayo	-7937
▁panday	-7938
▁pangan	-7939
▁papang	-7940
▁papaya	-7941
▁paslit	-7942
▁perang	-7943
▁piping	-7944
▁piraso	-7945
▁pumili	-7946
▁puspos	-7947
▁sadlak	-7948
▁sagang	-7949
▁sawing	-7950
▁sayang	-7951
▁sinira	-7952
▁sising	-7953
▁sumira	-7954
▁sungay	-7955
▁takpan	-7956
▁taksil	-7957
▁tamaan	-7958
▁tindig	-7959
▁tiniis	-7960
▁tinuka	-7961
▁trahed	-7962
▁tumaas	-7963
▁tumula	-7964
▁tuwang	-7965
▁umahon	-7966
▁walong	-7967
▁wikain	-7968
▁winika	-7969
Maraming	-7970
Nakalaan	-7971
aakalang	-7972
aginipan	-7973
ahagupit	-7974
ahatulan	-7975
akaawang	-7976
akasundo	-7977
akawalan	-7978
alabasan	-7979
alaganap	-7980
alipinan	-7981
amanglaw	-7982
apatuloy	-7983
apayaman	-7984
atandang	-7985
atanging	-7986
egaluhan	-7987
enegildo	-7988
ihingalo	-7989
inangang	-7990
itanghal	-7991
maligaya	-7992
manghang	-7993
ubuhayin	-7994
ulungkot	-7995
unggaban	-7996
ungkalin	-7997
ungkutin	-7998
▁Antalan	-7999
▁Bituing	-8000
▁Buhayin	-8001
▁Bunsong	-8002
▁Cebuano	-8003
▁Dianzon	-8004
▁Dinarad	-8005
▁Diumano	-8006
▁Dumalap	-8007
▁Filemon	-8008
▁Ganding	-8009
▁Heswita	-8010
▁Huminto	-8011
▁Igalang	-8012
▁Ikaanim	-8013
▁Indones	-8014
▁Iniibig	-8015
▁Iniutos	-8016
▁Ipinagb	-8017
▁Isinuot	-8018
▁Itinaas	-8019
▁Jacinto	-8020
▁Jupiter	-8021
▁Kasabay	-8022
▁Katawan	-8023
▁Kayrami	-8024
▁Lipunan	-8025
▁Lubhang	-8026
▁Lumabas	-8027
▁Lumipad	-8028
▁Mabigat	-8029
▁Magsisi	-8030
▁Mahanga	-8031
▁Mahigit	-8032
▁Malabon	-8033
▁Malasin	-8034
▁Malinaw	-8035
▁Malupit	-8036
▁Marikit	-8037
▁Martang	-8038
▁Matamis	-8039
▁Matsing	-8040
▁Mayaman	-8041
▁Mutyang	-8042
▁Nagtaka	-8043
▁Nagulat	-8044
▁Nakaupo	-8045
▁Nakinig	-8046
▁Paggawa	-8047
▁Palawan	-8048
▁Pangkat	-8049
▁Pinasan	-8050
▁Sadyang	-8051
▁Sagisag	-8052
▁Sandayo	-8053
▁Sicalac	-8054
▁Sumigaw	-8055
▁Sumisid	-8056
▁Tumalon	-8057
▁Tumigil	-8058
▁Watawat	-8059
▁aanihin	-8060
▁abangan	-8061
▁alagang	-8062
▁bahagya	-8063
▁balitaw	-8064
▁bandera	-8065
▁binalot	-8066
▁bingwit	-8067
▁buhayin	-8068
▁bumubuo	-8069
▁bunutin	-8070
▁dagitin	-8071
▁datapwa	-8072
▁detalye	-8073
▁diligin	-8074
▁dukhang	-8075
▁duluhan	-8076
▁dumakot	-8077
▁duwende	-8078
▁ganoong	-8079
▁ginugol	-8080
▁grupong	-8081
▁hangaan	-8082
▁hanguin	-8083
▁hapunan	-8084
▁hayaang	-8085
▁heneral	-8086
▁higupin	-8087
▁hulihin	-8088
▁humanda	-8089
▁ibalita	-8090
▁ibinato	-8091
▁ikalawa	-8092
▁inaakay	-8093
▁inilaan	-8094
▁ispirit	-8095
▁isusubo	-8096
▁itanong	-8097
▁itinago	-8098
▁itinayo	-8099
▁ituturo	-8100
▁kabigha	-8101
▁kahawig	-8102
▁kakampi	-8103
▁kakanin	-8104
▁kaluwal	-8105
▁kaparis	-8106
▁kapilas	-8107
▁kasunod	-8108
▁katapat	-8109
▁katwira	-8110
▁kaugnay	-8111
▁kristal	-8112
▁kulisap	-8113
▁kuratsa	-8114
▁laganap	-8115
▁lagapak	-8116
▁lalakad	-8117
▁lambong	-8118
▁laruang	-8119
▁lingkod	-8120
▁luksang	-8121
▁luluhod	-8122
▁lumakas	-8123
▁lumipat	-8124
▁lumulon	-8125
▁mabigat	-8126
▁mabunga	-8127
▁madamot	-8128
▁maganap	-8129
▁magdala	-8130
▁maghapo	-8131
▁magilas	-8132
▁magkaka	-8133
▁magsaya	-8134
▁magtiis	-8135
▁magumon	-8136
▁mahigit	-8137
▁mahinog	-8138
▁maiinam	-8139
▁makahoy	-8140
▁makipag	-8141
▁makipan	-8142
▁malagim	-8143
▁malilim	-8144
▁mangang	-8145
▁mangaso	-8146
▁mapapal	-8147
▁marahas	-8148
▁masakit	-8149
▁masapit	-8150
▁masasal	-8151
▁maselan	-8152
▁masigla	-8153
▁masukal	-8154
▁matalas	-8155
▁matulin	-8156
▁mauubos	-8157
▁mawalay	-8158
▁mistula	-8159
▁naalala	-8160
▁nagbayo	-8161
▁nagpala	-8162
▁nagtago	-8163
▁nagtamo	-8164
▁nahayag	-8165
▁nakakah	-8166
▁nakamit	-8167
▁nakasal	-8168
▁nakipag	-8169
▁nalanta	-8170
▁namalas	-8171
▁namimit	-8172
▁nangagh	-8173
▁nanguha	-8174
▁napagod	-8175
▁napakah	-8176
▁nariyan	-8177
▁natupok	-8178
▁naunang	-8179
▁nauukol	-8180
▁nililok	-8181
▁ninakaw	-8182
▁orakulo	-8183
▁pabalik	-8184
▁pagdami	-8185
▁paghabi	-8186
▁paglaki	-8187
▁pagsang	-8188
▁paitaas	-8189
▁panalok	-8190
▁panatil	-8191
▁panyong	-8192
▁pasukan	-8193
▁payagan	-8194
▁pinangh	-8195
▁planeta	-8196
▁plantsa	-8197
▁popular	-8198
▁puluhan	-8199
▁puwersa	-8200
▁sagutin	-8201
▁saklolo	-8202
▁salakay	-8203
▁salawal	-8204
▁sasagot	-8205
▁sigwang	-8206
▁silahis	-8207
▁sinapup	-8208
▁sinauna	-8209
▁sinulat	-8210
▁sobrang	-8211
▁subukin	-8212
▁sumasal	-8213
▁sumibol	-8214
▁sumilip	-8215
▁sumipot	-8216
▁taimtim	-8217
▁tanawin	-8218
▁tandaan	-8219
▁tantuin	-8220
▁tatawag	-8221
▁tigilan	-8222
▁tinuran	-8223
▁tribong	-8224
▁umaakay	-8225
▁umiikot	-8226
Lalapitan	-8227
Malungkot	-8228
Mamamatay	-8229
akasamang	-8230
akilanlan	-8231
alastasan	-8232
alinangan	-8233
alukuyang	-8234
bighaning	-8235
ernatural	-8236
ihinatnan	-8237
ihinayang	-8238
iwangwang	-8239
otohanang	-8240
rimonyong	-8241
upumiglas	-8242
uumpugang	-8243
▁Aninipay	-8244
▁Bangkaya	-8245
▁Bautista	-8246
▁Bubuksan	-8247
▁Bumaling	-8248
▁Diyuhara	-8249
▁Halikayo	-8250
▁Ibinigay	-8251
▁Inilagay	-8252
▁Isisilid	-8253
▁Isusumpa	-8254
▁KAMPUPOT	-8255
▁Katindoy	-8256
▁Kotabato	-8257
▁Kundiman	-8258
▁Magbayad	-8259
▁Makahiya	-8260
▁Maligaya	-8261
▁Marunong	-8262
▁Mindanaw	-8263
▁Nagagawa	-8264
▁Nagbigay	-8265
▁Nagdaang	-8266
▁Naglagay	-8267
▁Nakatira	-8268
▁Nakilala	-8269
▁Pagsapit	-8270
▁Pambansa	-8271
▁Sinundan	-8272
▁Talagang	-8273
▁Tinuruan	-8274
▁Titingin	-8275
▁Tumilaok	-8276
▁Tumingin	-8277
▁Victoria	-8278
▁alaalang	-8279
▁balahibo	-8280
▁bangkang	-8281
▁bantayog	-8282
▁batikang	-8283
▁batingaw	-8284
▁baybayin	-8285
▁bersyong	-8286
▁bibigyan	-8287
▁bibilang	-8288
▁biyayang	-8289
▁bubuksan	-8290
▁bumabati	-8291
▁daluyong	-8292
▁dayalogo	-8293
▁diyosang	-8294
▁dumadapo	-8295
▁gumapang	-8296
▁halatang	-8297
▁hinahang	-8298
▁ibabalik	-8299
▁inihagis	-8300
▁ipinasya	-8301
▁isinalin	-8302
▁isisigaw	-8303
▁itinakda	-8304
▁kaanyuan	-8305
▁kaayusan	-8306
▁kahirapa	-8307
▁kakainin	-8308
▁kakaunti	-8309
▁kamangha	-8310
▁kapantay	-8311
▁karaniwa	-8312
▁kasawian	-8313
▁kaserola	-8314
▁katabing	-8315
▁katuwang	-8316
▁kayarian	-8317
▁kilyawan	-8318
▁kinausap	-8319
▁kumidlat	-8320
▁labanang	-8321
▁lalagyan	-8322
▁landasin	-8323
▁layuning	-8324
▁ligayang	-8325
▁likurang	-8326
▁lingapin	-8327
▁lubusang	-8328
▁lumaking	-8329
▁lumalayo	-8330
▁lumuluha	-8331
▁lumutang	-8332
▁lunggati	-8333
▁maaalala	-8334
▁maalamat	-8335
▁mababait	-8336
▁mabining	-8337
▁magbalak	-8338
▁maghapon	-8339
▁magiting	-8340
▁magmasid	-8341
▁magtungo	-8342
▁magyakap	-8343
▁mahiwaga	-8344
▁maikling	-8345
▁malaglag	-8346
▁malagong	-8347
▁malamang	-8348
▁mamasdan	-8349
▁marahang	-8350
▁masasama	-8351
▁matimyas	-8352
▁matinong	-8353
▁matiyaga	-8354
▁mawiwika	-8355
▁mayabong	-8356
▁ministro	-8357
▁nadarama	-8358
▁nagdilim	-8359
▁naghanap	-8360
▁nagkagan	-8361
▁nagmamay	-8362
▁nagpapag	-8363
▁nagpilit	-8364
▁nagpunta	-8365
▁nagsadya	-8366
▁nagtanim	-8367
▁nagtatag	-8368
▁naisulat	-8369
▁nakulong	-8370
▁namasyal	-8371
▁nanghina	-8372
▁nangusap	-8373
▁napadaan	-8374
▁naparito	-8375
▁naririto	-8376
▁nasaktan	-8377
▁nasambit	-8378
▁nasisira	-8379
▁natatamo	-8380
▁naubusan	-8381
▁niluluto	-8382
▁niyaring	-8383
▁orihinal	-8384
▁pabulang	-8385
▁paggugol	-8386
▁paglaban	-8387
▁paglubog	-8388
▁paglutas	-8389
▁pagpapas	-8390
▁pagpatay	-8391
▁pagtanda	-8392
▁pakiusap	-8393
▁palendag	-8394
▁pamanang	-8395
▁pamaraan	-8396
▁paminsan	-8397
▁pandinig	-8398
▁pangahas	-8399
▁paniwala	-8400
▁panlabas	-8401
▁pantribo	-8402
▁papalayo	-8403
▁papanhik	-8404
▁parangal	-8405
▁parating	-8406
▁partidos	-8407
▁patibong	-8408
▁patnugot	-8409
▁payapang	-8410
▁pinagkak	-8411
▁prayleng	-8412
▁pumalaot	-8413
▁pumarito	-8414
▁sagupaan	-8415
▁salaming	-8416
▁salaping	-8417
▁sandaang	-8418
▁sinusuyo	-8419
▁sukdulan	-8420
▁susundan	-8421
▁tagapayo	-8422
▁tagsibol	-8423
▁talampas	-8424
▁taluktok	-8425
▁tanikala	-8426
▁tatsulok	-8427
▁tinalian	-8428
▁tinamaan	-8429
▁tindahan	-8430
▁tumanggi	-8431
▁tumangis	-8432
▁tumingin	-8433
▁umuunlad	-8434
Balintawak	-8435
amalasakit	-8436
amatandang	-8437
angkilikin	-8438
indalawang	-8439
▁Bahaginan	-8440
▁Capariaan	-8441
▁Damdaming	-8442
▁Disyembre	-8443
▁Embidayan	-8444
▁Francisco	-8445
▁Ginagamit	-8446
▁Hahahahah	-8447
▁Hahawakan	-8448
▁Indrapura	-8449
▁Itinanong	-8450
▁Kasulatan	-8451
▁Kayamanan	-8452
▁Kulturang	-8453
▁Lakandiwa	-8454
▁Mabubuhay	-8455
▁Macaranga	-8456
▁Magaganda	-8457
▁Magmadali	-8458
▁Makalipas	-8459
▁Mantapuli	-8460
▁Mapatubig	-8461
▁Matandang	-8462
▁Melendrez	-8463
▁Minisalaw	-8464
▁Nagkagulo	-8465
▁Naglakbay	-8466
▁Nalimutan	-8467
▁Pablitong	-8468
▁Republika	-8469
▁Tabunaway	-8470
▁Tinanggap	-8471
▁Tinawagan	-8472
▁Tiningnan	-8473
▁Titingala	-8474
▁Yambungan	-8475
▁banyagang	-8476
▁binabalik	-8477
▁binanggit	-8478
▁binitiwan	-8479
▁bubuhayin	-8480
▁daigdigan	-8481
▁direksyon	-8482
▁ginugugol	-8483
▁hagupitin	-8484
▁hardinero	-8485
▁hiningang	-8486
▁ikapitong	-8487
▁ikauunlad	-8488
▁inihandog	-8489
▁inilibing	-8490
▁ipaglihim	-8491
▁ipagpalit	-8492
▁isalaysay	-8493
▁isisilang	-8494
▁kabaliwan	-8495
▁kabatiran	-8496
▁kabilugan	-8497
▁kabuluhan	-8498
▁kagagawan	-8499
▁kagamitan	-8500
▁kagipitan	-8501
▁kaisipang	-8502
▁kandungan	-8503
▁kariktang	-8504
▁karugtong	-8505
▁kasamaang	-8506
▁katagalan	-8507
▁katamaran	-8508
▁katandaan	-8509
▁katapatan	-8510
▁katipunan	-8511
▁kilalanin	-8512
▁kinaawaan	-8513
▁kinakapos	-8514
▁kinawayan	-8515
▁kumakanta	-8516
▁lalawigan	-8517
▁luwalhati	-8518
▁mabubuhay	-8519
▁magagalit	-8520
▁magagamit	-8521
▁magbangon	-8522
▁maghapong	-8523
▁magsalita	-8524
▁magsasabi	-8525
▁magtanong	-8526
▁mahuhulog	-8527
▁maiibigan	-8528
▁mailigtas	-8529
▁makabayan	-8530
▁makakamit	-8531
▁makalabas	-8532
▁makapasok	-8533
▁makarinig	-8534
▁makasapit	-8535
▁makatagpo	-8536
▁malimutan	-8537
▁mapahamak	-8538
▁mapaparam	-8539
▁masasarap	-8540
▁masunurin	-8541
▁masusupil	-8542
▁matahimik	-8543
▁matutuhan	-8544
▁matutupad	-8545
▁nabanggit	-8546
▁nagagalit	-8547
▁nagbangon	-8548
▁nagdadala	-8549
▁nagdaraan	-8550
▁naghangad	-8551
▁nagkamali	-8552
▁naglalaro	-8553
▁nagpaalam	-8554
▁nagpakita	-8555
▁nagsabing	-8556
▁nagsasaya	-8557
▁nagtuturo	-8558
▁naiinggit	-8559
▁nakabihis	-8560
▁nakabitin	-8561
▁nakalipad	-8562
▁nakayanan	-8563
▁nalathala	-8564
▁namamahay	-8565
▁nanghiram	-8566
▁nangitlog	-8567
▁napansing	-8568
▁nasasabik	-8569
▁nasasakop	-8570
▁natatakot	-8571
▁nawawalan	-8572
▁nilikhang	-8573
▁nililiyag	-8574
▁pagbabasa	-8575
▁pagkabigo	-8576
▁pagkaraan	-8577
▁pagkawala	-8578
▁paglalaro	-8579
▁pagsuyong	-8580
▁pagtatalo	-8581
▁pagtatayo	-8582
▁pagtugtog	-8583
▁pagtulong	-8584
▁pakendeng	-8585
▁palayawin	-8586
▁palitawin	-8587
▁paliwanag	-8588
▁pamamahay	-8589
▁pambayani	-8590
▁pamilyang	-8591
▁pangitain	-8592
▁pangkaran	-8593
▁panunumpa	-8594
▁paunlarin	-8595
▁pinalayas	-8596
▁pinapatay	-8597
▁salinlahi	-8598
▁sandalyas	-8599
▁sinalakay	-8600
▁sinasadya	-8601
▁sumasayaw	-8602
▁sumisikat	-8603
▁sundalong	-8604
▁taginting	-8605
▁tangraban	-8606
▁tinigilan	-8607
▁tinikling	-8608
Papalibutan	-8609
aalinlangan	-8610
alinghagang	-8611
▁Bagombayan	-8612
▁Gayunpaman	-8613
▁Hesukristo	-8614
▁Ipinangako	-8615
▁Kalanutian	-8616
▁Kalikasang	-8617
▁Kasarinlan	-8618
▁Katapusang	-8619
▁Katarungan	-8620
▁Kayumanggi	-8621
▁Naghiyawan	-8622
▁Nagkataong	-8623
▁Nagmakaawa	-8624
▁Nagsisipan	-8625
▁Nakaramdam	-8626
▁Nanggaling	-8627
▁Napilitang	-8628
▁Pagkalipas	-8629
▁Panitikang	-8630
▁Paruparong	-8631
▁Patrocinio	-8632
▁Samaritano	-8633
▁Sinasabing	-8634
▁binantayan	-8635
▁binibigyan	-8636
▁binurdahan	-8637
▁bumubulong	-8638
▁ginagawang	-8639
▁hatinggabi	-8640
▁henerasyon	-8641
▁hinahagkan	-8642
▁hinihiling	-8643
▁ibinibigay	-8644
▁inaalagaan	-8645
▁iniingatan	-8646
▁ipaliwanag	-8647
▁itinanghal	-8648
▁kaalipinan	-8649
▁kabuhayang	-8650
▁kagamitang	-8651
▁kakayahang	-8652
▁kaluluwang	-8653
▁kapalarang	-8654
▁kapintasan	-8655
▁kapirasong	-8656
▁kapulungan	-8657
▁kapuspalad	-8658
▁katarungan	-8659
▁kaugaliang	-8660
▁kontrabida	-8661
▁kumikinang	-8662
▁linggatong	-8663
▁mabalitaan	-8664
▁magagaling	-8665
▁magkagalit	-8666
▁magkakamag	-8667
▁magkakapit	-8668
▁magkasakit	-8669
▁magkasundo	-8670
▁magmukhang	-8671
▁magpautang	-8672
▁magtanggol	-8673
▁maitanghal	-8674
▁makakamtan	-8675
▁makaramdam	-8676
▁manalangin	-8677
▁manggagawa	-8678
▁mapanganib	-8679
▁mapapansin	-8680
▁mapuputing	-8681
▁maramdaman	-8682
▁masasayang	-8683
▁matagumpay	-8684
▁matipunong	-8685
▁matuklasan	-8686
▁mawawaglit	-8687
▁mayayamang	-8688
▁nagbubuhat	-8689
▁naghahatid	-8690
▁nagkasundo	-8691
▁naglalagos	-8692
▁nagmamahal	-8693
▁nagpakasal	-8694
▁nagtatanim	-8695
▁nagwawakas	-8696
▁nakatingin	-8697
▁namamangka	-8698
▁nananariwa	-8699
▁nananatili	-8700
▁nanatiling	-8701
▁nanghihina	-8702
▁napakalaki	-8703
▁nararating	-8704
▁ngumingiti	-8705
▁paghahakot	-8706
▁paghihirap	-8707
▁pagkabigla	-8708
▁pagkakaiba	-8709
▁paglalahad	-8710
▁pakiramdam	-8711
▁palaisipan	-8712
▁pamahalaan	-8713
▁pambansang	-8714
▁panalangin	-8715
▁panambitan	-8716
▁panggabing	-8717
▁pinagagawa	-8718
▁pinangarap	-8719
▁pupuntahan	-8720
▁salubungin	-8721
▁sampaguita	-8722
▁sanggunian	-8723
▁sinasabing	-8724
▁sinilangan	-8725
▁sinisipsip	-8726
▁taludturan	-8727
▁tinataglay	-8728
▁tinatakpan	-8729
apangyarihan	-8730
ipagkaibigan	-8731
▁Impahimbang	-8732
▁Kapampangan	-8733
▁Maghimagsik	-8734
▁Tangkilikin	-8735
▁Villafuerte	-8736
▁inanyayahan	-8737
▁inihahandog	-8738
▁ipaghiganti	-8739
▁kabundukang	-8740
▁kadahilanan	-8741
▁kalagitnaan	-8742
▁kalinangang	-8743
▁kapanahunan	-8744
▁kapighatian	-8745
▁kapupulutan	-8746
▁kasanggulan	-8747
▁kasaysayang	-8748
▁luwalhating	-8749
▁magpagulang	-8750
▁magtagumpay	-8751
▁makakayanan	-8752
▁makasalanan	-8753
▁malalabasan	-8754
▁mapatunayan	-8755
▁matatanggap	-8756
▁matatapatan	-8757
▁minumutyang	-8758
▁nagkapakpak	-8759
▁nagmamalaki	-8760
▁nagsasabing	-8761
▁nagsasalita	-8762
▁nagsimulang	-8763
▁nagsisimula	-8764
▁nagtagumpay	-8765
▁nagtangkang	-8766
▁nagtatanong	-8767
▁nakahandang	-8768
▁nakatakdang	-8769
▁napangasawa	-8770
▁natatanging	-8771
▁pagdaralita	-8772
▁pagkagising	-8773
▁pagkakaluto	-8774
▁pagpupulong	-8775
▁pagsisilang	-8776
▁palatandaan	-8777
▁pamimingwit	-8778
▁pananahimik	-8779
▁panganganak	-8780
▁parurusahan	-8781
▁pasalamatan	-8782
▁pinagdarayo	-8783
▁pinaglaruan	-8784
▁sinasadyang	-8785
▁tagapakinig	-8786
▁tatanggapin	-8787
▁tinatanggap	-8788
▁Hermenegildo	-8789
▁Pinakamataas	-8790
▁kayumangging	-8791
▁nagkahiwalay	-8792
▁nagliliwanag	-8793
▁nagmistulang	-8794
▁nakakapiling	-8795
▁nanggagaling	-8796
▁paglilingkod	-8797
▁pagpapahayag	-8798
▁pagpapaunlad	-8799
▁pagpipitagan	-8800
▁pampanitikan	-8801
▁pinaghirapan	-8802
▁pinaglabanan	-8803
▁pinagsabihan	-8804
▁pinakamaliit	-8805
▁pinakamataas	-8806
▁pinalamutian	-8807
▁pinamumunuan	-8808
▁sangkatauhan	-8809
▁supernatural	-8810
▁Ipinagpatuloy	-8811
▁Nakapagtataka	-8812
▁Pinatutunayan	-8813
▁kaluwalhatian	-8814
▁magpahanggang	-8815
▁makapagsimula	-8816
▁makipanirahan	-8817
▁mangingisdang	-8818
▁nagniningning	-8819
▁nagsasalaysay	-8820
▁nakatatandang	-8821
▁paghihimagsik	-8822
▁pagkakaibigan	-8823
▁pagtatagumpay	-8824
▁pinaglibingan	-8825
▁pinakamahusay	-8826
▁pinangalanang	-8827
▁Pinaniniwalaan	-8828
▁interpretasyon	-8829
▁mangungunyapit	-8830
▁nagpapahiwatig	-8831
▁tagapagtanggol	-8832
▁nangangahulugan	-8833
,00	-8834
:00	-8835
AMA	-8836
Eee	-8837
III	-8838
eck	-8839
eco	-8840
ect	-8841
eee	-8842
eow	-8843
ric	-8844
▁2)	-8845
▁2:	-8846
,000	-8847
AMBI	-8848
Alam	-8849
Ikin	-8850
Magm	-8851
Mayr	-8852
Pagb	-8853
Patr	-8854
Tigp	-8855
akti	-8856
argo	-8857
bibi	-8858
biro	-8859
chos	-8860
cion	-8861
ebey	-8862
epto	-8863
eric	-8864
hrod	-8865
labe	-8866
lowe	-8867
mlks	-8868
ngao	-8869
otoh	-8870
riol	-8871
rona	-8872
ssss	-8873
ugho	-8874
▁Asu	-8875
▁Bic	-8876
▁Est	-8877
▁Hmm	-8878
▁INA	-8879
▁Low	-8880
▁ark	-8881
▁ire	-8882
▁udy	-8883
▁uso	-8884
Eeeek	-8885
Hayun	-8886
Malum	-8887
Matat	-8888
Matut	-8889
aksil	-8890
alogd	-8891
amsik	-8892
amtam	-8893
apora	-8894
ardar	-8895
areha	-8896
atect	-8897
chant	-8898
durog	-8899
dob	-8900
ede	-8901
esp	-8902
los	-8903
abes	-8904
angs	-8905
bali	-8906
losi	-8907
ogod	-8908
puan	-8909
wika	-8910
▁ant	-8911
▁buo	-8912
abuan	-8913
alili	-8914
eckar	-8915
edest	-8916
empsy	-8917
enido	-8918
enyor	-8919
eowul	-8920
igiik	-8921
iilaw	-8922
ikomp	-8923
iksik	-8924
ilian	-8925
ilihi	-8926
irits	-8927
kanya	-8928
ligid	-8929
lipop	-8930
liyab	-8931
mahal	-8932
masid	-8933
minsa	-8934
nugot	-8935
octor	-8936
ootan	-8937
orsel	-8938
orsis	-8939
otekt	-8940
seras	-8941
terin	-8942
tuyot	-8943
ubdob	-8944
uklam	-8945
uklok	-8946
uktot	-8947
ulwak	-8948
updin	-8949
urado	-8950
urgos	-8951
uropa	-8952
vukad	-8953
yedad	-8954
yonal	-8955
▁Abad	-8956
▁Aeta	-8957
▁Apat	-8958
▁Bien	-8959
▁Damb	-8960
▁Gatp	-8961
▁High	-8962
▁Hudh	-8963
▁Kont	-8964
▁Misk	-8965
▁Noby	-8966
▁Prom	-8967
▁Sits	-8968
▁Utak	-8969
▁Vill	-8970
▁amba	-8971
▁aria	-8972
▁bibe	-8973
▁dara	-8974
▁duon	-8975
▁hidh	-8976
▁kimm	-8977
▁kubl	-8978
▁kudy	-8979
▁laon	-8980
▁leon	-8981
▁look	-8982
▁mumo	-8983
▁oohh	-8984
▁pipi	-8985
▁seco	-8986
▁siph	-8987
▁soso	-8988
▁sugp	-8989
▁sumb	-8990
▁tayu	-8991
▁tela	-8992
▁yumi	-8993
AMBINI	-8994
Dardar	-8995
Doctor	-8996
Lalake	-8997
Magpip	-8998
Manobo	-8999
▁f	-9000
.")	-9001
Pap	-9002
▁10	-9003
Gaya	-9004
Lupa	-9005
Naka	-9006
akal	-9007
edyo	-9008
▁alp	-9009
adtad	-9010
ampal	-9011
ampis	-9012
anaul	-9013
antad	-9014
hanap	-9015
ongto	-9016
▁Baba	-9017
▁Dagl	-9018
▁Daig	-9019
▁Magd	-9020
▁Nene	-9021
▁marm	-9022
Nakang	-9023
Nakita	-9024
Pabula	-9025
Sasamb	-9026
aaaliw	-9027
aantig	-9028
abitiw	-9029
adalam	-9030
adyain	-9031
aghari	-9032
ahabol	-9033
ahasik	-9034
akawan	-9035
alabal	-9036
aliban	-9037
alupan	-9038
alyero	-9039
amasid	-9040
ambong	-9041
amhati	-9042
anakit	-9043
anting	-9044
aramay	-9045
arinaw	-9046
asamba	-9047
atawid	-9048
atoryo	-9049
ebeyew	-9050
egosyo	-9051
egrito	-9052
elismo	-9053
enuela	-9054
eowulf	-9055
esorya	-9056
eywang	-9057
hapong	-9058
ighati	-9059
ihagis	-9060
iinang	-9061
ingsel	-9062
ipilit	-9063
isihan	-9064
itikim	-9065
itikom	-9066
itnang	-9067
kawasa	-9068
kimpal	-9069
lalaki	-9070
nunuan	-9071
ogodog	-9072
ogyaya	-9073
okohan	-9074
olidik	-9075
palaya	-9076
takang	-9077
ubuhos	-9078
ugenio	-9079
ugnung	-9080
uguhit	-9081
uhubog	-9082
ukuban	-9083
ulapay	-9084
umilit	-9085
unduan	-9086
unggoy	-9087
unghay	-9088
ungkag	-9089
ungkol	-9090
unsina	-9091
unukal	-9092
unying	-9093
uwisit	-9094
▁Amado	-9095
▁Among	-9096
▁Aywan	-9097
▁BULAK	-9098
▁Bahag	-9099
Ab	-9100
ber	-9101
eri	-9102
nen	-9103
▁uy	-9104
akod	-9105
alsa	-9106
alta	-9107
hena	-9108
isen	-9109
obya	-9110
▁Usa	-9111
▁dap	-9112
▁lun	-9113
abaon	-9114
akata	-9115
alina	-9116
erial	-9117
iinit	-9118
iiwan	-9119
inaon	-9120
ingil	-9121
ipins	-9122
uhata	-9123
▁Amay	-9124
▁Bita	-9125
▁Katu	-9126
▁cari	-9127
▁mano	-9128
▁teks	-9129
ahatan	-9130
antaon	-9131
ayaman	-9132
himala	-9133
inaman	-9134
inhing	-9135
okisen	-9136
utukin	-9137
▁Benig	-9138
▁Bicol	-9139
▁Bienv	-9140
▁Bonto	-9141
▁Buuin	-9142
▁Dampa	-9143
▁Hamak	-9144
▁Iloko	-9145
▁Kakal	-9146
▁Kakur	-9147
▁Kamay	-9148
▁Kamya	-9149
▁Karun	-9150
▁Kumat	-9151
▁LAHAT	-9152
▁Latin	-9153
▁Linog	-9154
▁Lunes	-9155
▁Mapap	-9156
▁Minsa	-9157
▁Mutya	-9158
▁Nabuo	-9159
▁Nahih	-9160
▁Nueva	-9161
▁Ohhhh	-9162
▁Oriol	-9163
▁Prans	-9164
▁Rosas	-9165
▁Singk	-9166
▁Solom	-9167
▁Sumal	-9168
▁Sumus	-9169
▁Tabor	-9170
▁Tsina	-9171
▁Ulila	-9172
▁Umaga	-9173
▁Visay	-9174
▁aisle	-9175
▁aleng	-9176
▁anaki	-9177
▁arkit	-9178
▁armas	-9179
▁bihag	-9180
▁bihis	-9181
▁biniy	-9182
▁bulsa	-9183
▁buslo	-9184
▁dadag	-9185
▁dagim	-9186
▁dagli	-9187
▁durog	-9188
▁eklip	-9189
▁gusot	-9190
▁hahag	-9191
▁hihip	-9192
▁hukay	-9193
▁huwad	-9194
▁inapo	-9195
▁ipagm	-9196
▁isama	-9197
▁iskol	-9198
▁iwing	-9199
"?	-9200
eol	-9201
old	-9202
oll	-9203
ord	-9204
...)	-9205
ahaw	-9206
amim	-9207
anya	-9208
ason	-9209
idor	-9210
immo	-9211
iwis	-9212
okon	-9213
oyaw	-9214
usok	-9215
vana	-9216
▁Bur	-9217
▁Lol	-9218
▁Loy	-9219
▁gal	-9220
▁imb	-9221
abeto	-9222
alago	-9223
eolog	-9224
iibig	-9225
iitim	-9226
kahan	-9227
panib	-9228
tasin	-9229
udyat	-9230
▁Bint	-9231
▁Coll	-9232
▁Oray	-9233
▁haba	-9234
▁ikal	-9235
▁ipan	-9236
▁kali	-9237
▁kuko	-9238
▁laan	-9239
▁swak	-9240
aaabot	-9241
anggan	-9242
emanya	-9243
immoco	-9244
isilip	-9245
isipol	-9246
iyasat	-9247
orcism	-9248
▁Binti	-9249
▁Panap	-9250
▁aniya	-9251
▁hibik	-9252
▁isina	-9253
▁kabag	-9254
▁kabuh	-9255
▁kalap	-9256
▁kapon	-9257
▁kasan	-9258
▁katot	-9259
▁kayat	-9260
▁kilik	-9261
▁koles	-9262
▁layag	-9263
▁limit	-9264
▁mabuo	-9265
▁macan	-9266
▁maint	-9267
▁masay	-9268
▁medyo	-9269
▁moral	-9270
▁nalik	-9271
▁napas	-9272
▁nasam	-9273
▁pahat	-9274
▁pahih	-9275
▁palig	-9276
▁patag	-9277
▁patal	-9278
▁pawid	-9279
▁rosal	-9280
▁sisis	-9281
▁sobra	-9282
▁sulat	-9283
▁sumil	-9284
▁tibud	-9285
▁tikas	-9286
▁tipak	-9287
▁trans	-9288
▁tugma	-9289
▁tukso	-9290
▁tungg	-9291
▁tuyot	-9292
▁udyok	-9293
▁ugong	-9294
▁vinta	-9295
▁yugto	-9296
Hahagul	-9297
LINISAN	-9298
Malaueg	-9299
AA	-9300
HAN	-9301
Hul	-9302
eid	-9303
huy	-9304
vid	-9305
UHAN	-9306
alil	-9307
idas	-9308
ihon	-9309
irit	-9310
iyaw	-9311
kayo	-9312
silk	-9313
sisi	-9314
uhul	-9315
ukid	-9316
uruk	-9317
vide	-9318
▁Gar	-9319
▁ipa	-9320
alags	-9321
bukid	-9322
ingid	-9323
▁Atin	-9324
▁Payo	-9325
▁Yaon	-9326
▁kata	-9327
▁layo	-9328
▁moog	-9329
▁nait	-9330
▁naku	-9331
▁payo	-9332
▁suma	-9333
Magpap	-9334
abayan	-9335
ahayan	-9336
akahin	-9337
alisan	-9338
ibagay	-9339
ulupot	-9340
unidad	-9341
yayang	-9342
▁Gubat	-9343
▁Midas	-9344
▁babai	-9345
▁bubog	-9346
▁gangg	-9347
▁ipagk	-9348
▁kalim	-9349
▁matiy	-9350
▁pinar	-9351
Hulihin	-9352
Marahas	-9353
Mayroon	-9354
Ninakaw	-9355
Pasigaw	-9356
Saklolo	-9357
aalaala	-9358
abikang	-9359
abuting	-9360
adalhan	-9361
agawian	-9362
aghapon	-9363
aglayin	-9364
ahatang	-9365
akitaan	-9366
aksakin	-9367
alamyos	-9368
alangoy	-9369
alimuot	-9370
alogdog	-9371
alunton	-9372
amaalam	-9373
amadali	-9374
ambibig	-9375
ambuhay	-9376
ampanga	-9377
aravana	-9378
atapong	-9379
atasang	-9380
atectec	-9381
atubili	-9382
ayabong	-9383
ayagpag	-9384
ebisyon	-9385
edestal	-9386
ensuela	-9387
esyonal	-9388
etapora	-9389
gilalas	-9390
hiwalay	-9391
hrodite	-9392
ibigkis	-9393
ibisita	-9394
iikutin	-9395
ikhaing	-9396
ilanlin	-9397
ilbihan	-9398
ilimbag	-9399
Min	-9400
gol	-9401
her	-9402
ukb	-9403
▁SA	-9404
Koro	-9405
amog	-9406
eeng	-9407
ilok	-9408
pher	-9409
ubot	-9410
usod	-9411
▁Dur	-9412
▁Duw	-9413
▁Him	-9414
▁Lor	-9415
▁dad	-9416
▁dug	-9417
Malag	-9418
adama	-9419
rocio	-9420
ungot	-9421
usika	-9422
uwaya	-9423
▁halo	-9424
▁ilil	-9425
▁kaal	-9426
▁lukb	-9427
▁tatl	-9428
abanan	-9429
alakan	-9430
anteng	-9431
ibayan	-9432
iraman	-9433
itindi	-9434
lalang	-9435
musika	-9436
uruang	-9437
▁Hamog	-9438
▁Hayan	-9439
▁Ilong	-9440
▁Lalak	-9441
▁Lorna	-9442
▁Mapay	-9443
▁WAKAS	-9444
▁bulak	-9445
▁ihain	-9446
▁mabab	-9447
▁salak	-9448
▁talis	-9449
▁tanga	-9450
Malagom	-9451
alangga	-9452
imortal	-9453
inataan	-9454
ipagkas	-9455
iritsit	-9456
isingin	-9457
islapan	-9458
kabigin	-9459
kamukha	-9460
lintang	-9461
lipunan	-9462
maganda	-9463
mundong	-9464
ngingit	-9465
ongtoan	-9466
opootan	-9467
orsismo	-9468
otohana	-9469
pisahan	-9470
singhap	-9471
tikular	-9472
ugulong	-9473
ukdulan	-9474
ukipkip	-9475
umbasan	-9476
umurang	-9477
unganga	-9478
uwintas	-9479
▁Aakyat	-9480
▁Angkin	-9481
▁Asahan	-9482
▁Bacong	-9483
▁Bagwis	-9484
▁Bahagi	-9485
▁Bigong	-9486
▁Birhen	-9487
▁Bontoc	-9488
▁Buksan	-9489
▁Bumaba	-9490
▁Bumili	-9491
▁Bungal	-9492
▁Burgos	-9493
▁Buwaya	-9494
▁Dangla	-9495
▁Enrile	-9496
▁Gloria	-9497
▁Halina	-9498
▁Hermes	-9499
2,	-9500
OS	-9501
UM	-9502
])	-9503
!",	-9504
OSA	-9505
gay	-9506
ild	-9507
mam	-9508
▁BA	-9509
▁py	-9510
HHHH	-9511
adan	-9512
atim	-9513
atro	-9514
gayn	-9515
gong	-9516
ikdo	-9517
ingp	-9518
maya	-9519
paka	-9520
rong	-9521
unud	-9522
uunt	-9523
▁BAL	-9524
▁Biy	-9525
▁gam	-9526
▁gay	-9527
Amang	-9528
aliin	-9529
ingal	-9530
▁Alul	-9531
▁Kuba	-9532
▁ROSA	-9533
▁Sang	-9534
▁guho	-9535
▁ikap	-9536
▁panr	-9537
Aruman	-9538
aakala	-9539
ambang	-9540
asaulo	-9541
gaynet	-9542
ikatan	-9543
ilapon	-9544
umikap	-9545
▁Malim	-9546
▁Maman	-9547
▁Pedro	-9548
▁Pingp	-9549
▁Union	-9550
▁ayoko	-9551
▁binid	-9552
▁mahar	-9553
▁pinoy	-9554
▁sinab	-9555
Luluhod	-9556
▁Bayaan	-9557
▁Hilaga	-9558
▁Inabot	-9559
▁Inglat	-9560
▁KASAMA	-9561
▁Kagyat	-9562
▁Karamp	-9563
▁Kasukd	-9564
▁Katalo	-9565
▁Korong	-9566
▁Laking	-9567
▁Lupain	-9568
▁Maaari	-9569
▁Magpap	-9570
▁Mamili	-9571
▁Manaul	-9572
▁Mapaap	-9573
▁Marian	-9574
▁Minago	-9575
▁Minang	-9576
▁Naakit	-9577
▁Naiiba	-9578
▁Nanaog	-9579
▁Natawa	-9580
▁Neckar	-9581
▁Nenita	-9582
▁Padang	-9583
▁Pagkal	-9584
▁Pandak	-9585
▁Papaya	-9586
▁Patric	-9587
▁Pinagh	-9588
▁Pinagk	-9589
▁Pulubi	-9590
▁Punung	-9591
▁Saging	-9592
▁Sansin	-9593
▁Sayang	-9594
▁Sinagm	-9595
▁Sising	-9596
▁Susana	-9597
▁Tagyak	-9598
▁Talags	-9599
Din	-9600
Nar	-9601
Tag	-9602
edd	-9603
pag	-9604
ras	-9605
wal	-9606
▁Ac	-9607
▁TA	-9608
▁mu	-9609
Magk	-9610
alal	-9611
ampu	-9612
asap	-9613
ikol	-9614
ilot	-9615
mana	-9616
waan	-9617
walo	-9618
▁Taw	-9619
▁tiw	-9620
arayo	-9621
inamn	-9622
nggoy	-9623
pasan	-9624
ubuti	-9625
uhagi	-9626
ungas	-9627
▁Ledd	-9628
▁bags	-9629
▁gong	-9630
▁kara	-9631
▁muog	-9632
▁temp	-9633
▁yong	-9634
hambal	-9635
isahin	-9636
pangan	-9637
▁Maaga	-9638
▁Tasyo	-9639
▁kahul	-9640
▁kapur	-9641
▁lungs	-9642
▁mahad	-9643
▁mayro	-9644
▁paisa	-9645
▁solit	-9646
▁tanim	-9647
alpasan	-9648
asyalan	-9649
ibalang	-9650
inamnam	-9651
pangkat	-9652
unganen	-9653
▁Payong	-9654
▁Tapaan	-9655
▁Teksto	-9656
▁Tinuka	-9657
▁Tuwing	-9658
▁Tuyong	-9659
▁Umalis	-9660
▁Unggoy	-9661
▁abutan	-9662
▁adelpa	-9663
▁alayan	-9664
▁aragan	-9665
▁aralin	-9666
▁balbas	-9667
▁basong	-9668
▁bigkis	-9669
▁binayo	-9670
▁bisang	-9671
▁bitbit	-9672
▁boteng	-9673
▁bulkan	-9674
▁bungad	-9675
▁dakpin	-9676
▁devide	-9677
▁dungis	-9678
▁durung	-9679
▁gatong	-9680
▁ginang	-9681
▁ginuho	-9682
▁guguan	-9683
▁hagdan	-9684
▁hagkan	-9685
▁hidhid	-9686
▁hilaga	-9687
▁hudyat	-9688
▁humpay	-9689
▁ibayad	-9690
▁iganti	-9691
▁ikalul	-9692
▁imahen	-9693
▁impera	-9694
▁inasam	-9695
▁indust	-9696
▁inilul	-9697
▁inutos	-9698
▁ipukol	-9699
Ak	-9700
Da	-9701
bp	-9702
uf	-9703
ads	-9704
agn	-9705
kos	-9706
lum	-9707
sag	-9708
▁Aw	-9709
▁aw	-9710
kang	-9711
ugba	-9712
▁Dan	-9713
▁Lag	-9714
▁Ruf	-9715
▁tuh	-9716
adsad	-9717
akali	-9718
anyak	-9719
iming	-9720
lakas	-9721
▁Isas	-9722
▁atbp	-9723
▁blak	-9724
▁lima	-9725
▁maal	-9726
▁maig	-9727
▁sind	-9728
▁tuso	-9729
akaila	-9730
imbita	-9731
isinag	-9732
ubayan	-9733
▁Danum	-9734
▁Ibuan	-9735
▁Mabub	-9736
▁Sapat	-9737
▁hukom	-9738
▁sapot	-9739
▁supot	-9740
▁tikis	-9741
awanang	-9742
ilabang	-9743
torikal	-9744
▁Awitin	-9745
▁Gumawa	-9746
▁Pitong	-9747
▁Rufino	-9748
▁isahan	-9749
▁isukat	-9750
▁kabang	-9751
▁kadena	-9752
▁kahong	-9753
▁kaibig	-9754
▁kainan	-9755
▁kambal	-9756
▁kanais	-9757
▁kanina	-9758
▁katawa	-9759
▁kawali	-9760
▁kawawa	-9761
▁kimpal	-9762
▁korona	-9763
▁kukong	-9764
▁kumpol	-9765
▁kungdi	-9766
▁lampas	-9767
▁lampin	-9768
▁lasing	-9769
▁liling	-9770
▁lingid	-9771
▁lutuan	-9772
▁maatim	-9773
▁maginh	-9774
▁maikli	-9775
▁maipak	-9776
▁makaya	-9777
▁malaon	-9778
▁marmol	-9779
▁minuto	-9780
▁molabe	-9781
▁musala	-9782
▁naaani	-9783
▁nabigo	-9784
▁naisat	-9785
▁namana	-9786
▁namuno	-9787
▁nangab	-9788
▁napagk	-9789
▁napita	-9790
▁napuno	-9791
▁nauuwi	-9792
▁niling	-9793
▁padyak	-9794
▁pagkai	-9795
▁pagkuk	-9796
▁pakwan	-9797
▁palaki	-9798
▁pareho	-9799
;"	-9800
].	-9801
gg	-9802
kl	-9803
Hah	-9804
Kaw	-9805
ham	-9806
ibi	-9807
nat	-9808
uhi	-9809
▁Mo	-9810
▁Ro	-9811
Ipak	-9812
Mang	-9813
alia	-9814
bago	-9815
gang	-9816
hero	-9817
ipun	-9818
rekl	-9819
vera	-9820
▁Ate	-9821
▁Dat	-9822
▁Tur	-9823
▁rit	-9824
▁upo	-9825
aanod	-9826
alaon	-9827
amora	-9828
inong	-9829
ipili	-9830
iraan	-9831
isama	-9832
laman	-9833
uhaan	-9834
▁Bibl	-9835
▁Isip	-9836
▁Kong	-9837
▁kuro	-9838
▁lobo	-9839
▁magn	-9840
▁pili	-9841
▁umim	-9842
Kawawa	-9843
adaloy	-9844
angkok	-9845
anyong	-9846
sangan	-9847
▁Dilag	-9848
▁Ipagd	-9849
▁Papag	-9850
▁Tabak	-9851
▁aring	-9852
▁mapip	-9853
▁masil	-9854
Mabilis	-9855
alanang	-9856
reklamo	-9857
ulimlim	-9858
▁Maghah	-9859
▁Rivera	-9860
▁itigil	-9861
▁kabibi	-9862
▁lagnat	-9863
▁lugami	-9864
▁luhaan	-9865
▁panata	-9866
▁paring	-9867
▁pasint	-9868
▁pawiin	-9869
▁perdig	-9870
▁pintor	-9871
▁porsel	-9872
▁prayle	-9873
▁puwang	-9874
▁pwesto	-9875
▁pyesta	-9876
▁rangya	-9877
▁sasama	-9878
▁simple	-9879
▁sumapi	-9880
▁sumbat	-9881
▁sumuyo	-9882
▁sungit	-9883
▁suriin	-9884
▁talian	-9885
▁tangos	-9886
▁teksto	-9887
▁templo	-9888
▁tighaw	-9889
▁tiktak	-9890
▁tukain	-9891
▁tutuon	-9892
▁umagaw	-9893
▁umihip	-9894
▁umimik	-9895
▁umunat	-9896
▁umusad	-9897
▁umuuwi	-9898
▁upuang	-9899
IN	-9900
Pin	-9901
ale	-9902
day	-9903
sim	-9904
anog	-9905
anos	-9906
uyam	-9907
▁diy	-9908
▁kik	-9909
▁kun	-9910
aktik	-9911
aluin	-9912
atamb	-9913
talon	-9914
uuyam	-9915
▁gand	-9916
▁maik	-9917
▁uhaw	-9918
-12:00	-9919
angsol	-9920
atuday	-9921
ibulan	-9922
unuang	-9923
▁Mahih	-9924
▁Pawis	-9925
▁Tahan	-9926
▁Tamad	-9927
▁aping	-9928
▁gabay	-9929
▁iabot	-9930
▁katar	-9931
▁lumot	-9932
▁naawa	-9933
▁napah	-9934
aktikal	-9935
ikalang	-9936
iwagaan	-9937
ulangin	-9938
▁Athena	-9939
▁Ipinag	-9940
▁Lihang	-9941
▁Pulang	-9942
▁abutin	-9943
▁alabok	-9944
▁ikinat	-9945
▁inaliw	-9946
▁napapa	-9947
▁pababa	-9948
▁pagmum	-9949
▁pantas	-9950
▁sasamb	-9951
▁silain	-9952
▁wasaki	-9953
▁yumuko	-9954
▁yuyuko	-9955
Arumanen	-9956
Bibigkas	-9957
Dekalogo	-9958
Dumating	-9959
Iaangkop	-9960
Ibibigay	-9961
Kaibigan	-9962
Mangyari	-9963
Paulitin	-9964
Pilipino	-9965
Pupwesto	-9966
Tigpasin	-9967
abalahan	-9968
agamitin	-9969
agdagang	-9970
aginting	-9971
aguluhan	-9972
ahamakan	-9973
alungkot	-9974
amatuwid	-9975
apanatag	-9976
apatayan	-9977
asaalang	-9978
asagutin	-9979
atingkad	-9980
ayakapin	-9981
chantara	-9982
ernandez	-9983
etyembre	-9984
ibughang	-9985
iginhawa	-9986
ihinging	-9987
ilimutan	-9988
ilokohan	-9989
imetheus	-9990
ipinsala	-9991
isinalin	-9992
iwasayan	-9993
kaniyang	-9994
presyong	-9995
ubuwisit	-9996
umukhang	-9997
ungaling	-9998
unghayan	-9999
Tum	-10000
aak	-10001
iso	-10002
lib	-10003
mab	-10004
omb	-10005
pab	-10006
sum	-10007
uad	-10008
▁AT	-10009
ahum	-10010
plas	-10011
ulum	-10012
uyaw	-10013
uyos	-10014
▁Guw	-10015
▁Hih	-10016
▁amb	-10017
▁aya	-10018
Dapat	-10019
abaan	-10020
amasa	-10021
amung	-10022
apawi	-10023
galaw	-10024
oocan	-10025
sanib	-10026
▁Pari	-10027
▁anya	-10028
▁mura	-10029
▁nala	-10030
▁taun	-10031
alipad	-10032
alisin	-10033
ampung	-10034
iliyag	-10035
▁Lamok	-10036
▁Makop	-10037
▁Nakas	-10038
▁Narar	-10039
▁gahum	-10040
▁pagit	-10041
▁tangg	-10042
▁tiisi	-10043
▁uring	-10044
agkaisa	-10045
andusay	-10046
isasyon	-10047
▁Amuyaw	-10048
▁Bandan	-10049
▁Guwela	-10050
▁Makopa	-10051
▁Nasabi	-10052
▁inalis	-10053
▁liblib	-10054
▁naamis	-10055
▁nagpan	-10056
▁ninais	-10057
▁ninong	-10058
▁pantig	-10059
▁papunt	-10060
▁sundan	-10061
▁umilag	-10062
ahayagan	-10063
ikompisa	-10064
unungong	-10065
▁Alagaan	-10066
▁Andrade	-10067
▁Apolaki	-10068
▁Babaing	-10069
▁Bahagya	-10070
▁Bangkay	-10071
▁Basilio	-10072
▁Bawasan	-10073
▁Benigno	-10074
▁Beowulf	-10075
▁Bibliya	-10076
▁Binalak	-10077
▁Bubuhat	-10078
▁Bulawan	-10079
▁Dadaluh	-10080
▁Dagling	-10081
▁Dogodog	-10082
▁Dumaong	-10083
▁Gambang	-10084
▁Gatpayo	-10085
▁Gumanda	-10086
▁Gustong	-10087
▁Hagunoy	-10088
▁Hinamon	-10089
▁Ibinaba	-10090
▁Iniabot	-10091
▁Jerusal	-10092
▁Kabungs	-10093
▁Kalinga	-10094
▁Kaputol	-10095
▁Kaybuti	-10096
▁Kumapit	-10097
▁Kumatok	-10098
▁Lalapit	-10099
ayt	-10100
poc	-10101
ugb	-10102
▁1)	-10103
ario	-10104
cpoc	-10105
egas	-10106
enus	-10107
ings	-10108
riya	-10109
usig	-10110
▁Mil	-10111
▁amo	-10112
▁kut	-10113
Batay	-10114
angki	-10115
apito	-10116
buong	-10117
igkis	-10118
▁Bete	-10119
▁Laya	-10120
▁Pito	-10121
▁asim	-10122
▁bula	-10123
▁luko	-10124
▁naib	-10125
▁naih	-10126
▁saad	-10127
Tatang	-10128
agalag	-10129
alapat	-10130
anggay	-10131
apatak	-10132
cpoclo	-10133
uyurak	-10134
▁kinur	-10135
▁linaw	-10136
▁nakam	-10137
▁talos	-10138
dudulot	-10139
ilingas	-10140
panahon	-10141
▁Dayang	-10142
▁Labong	-10143
▁aakyat	-10144
▁hinang	-10145
▁ikahon	-10146
▁kakain	-10147
▁kasali	-10148
▁kukuha	-10149
▁malama	-10150
▁marang	-10151
▁Ikapito	-10152
▁Leghorn	-10153
▁Loslosi	-10154
▁Lucutan	-10155
▁Luksang	-10156
▁Lumanog	-10157
▁Lumawig	-10158
▁Lumubog	-10159
▁Lumuhod	-10160
▁Madilim	-10161
▁Magbiro	-10162
▁Magobya	-10163
▁Magtago	-10164
▁Malimit	-10165
▁Mamatay	-10166
▁Manalig	-10167
▁Maputla	-10168
▁Marcelo	-10169
▁Mariano	-10170
▁Marlowe	-10171
▁Matibay	-10172
▁Minsang	-10173
▁Nagdaan	-10174
▁Nagmula	-10175
▁Nagtayo	-10176
▁Nahulog	-10177
▁Nakalbo	-10178
▁Nakatut	-10179
▁Namuhay	-10180
▁Napakas	-10181
▁Nawalan	-10182
▁Nebeyew	-10183
▁Negrito	-10184
▁Palihim	-10185
▁Pambata	-10186
▁Pinigil	-10187
▁Polidik	-10188
▁Puhunan	-10189
▁Pumitas	-10190
▁Sentral	-10191
▁Sibuyas	-10192
▁Silayan	-10193
▁Sinauna	-10194
▁Sinikap	-10195
▁Sisilya	-10196
▁Sumadag	-10197
▁Tabagka	-10198
▁Tahimik	-10199
▁:	-10200
Gin	-10201
▁Be	-10202
▁Br	-10203
Ibig	-10204
Wika	-10205
aala	-10206
aryo	-10207
egor	-10208
laya	-10209
mata	-10210
utik	-10211
▁Bab	-10212
▁Dud	-10213
▁Ita	-10214
▁Lid	-10215
▁Peb	-10216
▁Sim	-10217
▁Tay	-10218
▁kus	-10219
Mapan	-10220
abala	-10221
aruon	-10222
atuon	-10223
isaya	-10224
lagot	-10225
sindi	-10226
umaga	-10227
using	-10228
▁Kala	-10229
▁Kanl	-10230
▁kahi	-10231
▁pito	-10232
▁sinl	-10233
▁titi	-10234
▁uuwi	-10235
Bisaya	-10236
adaong	-10237
apitas	-10238
isanto	-10239
usyoso	-10240
▁Buhok	-10241
▁anakp	-10242
▁apong	-10243
▁inapi	-10244
▁kahig	-10245
▁malun	-10246
▁sabik	-10247
ampisaw	-10248
angguni	-10249
atanyag	-10250
bayanan	-10251
risanto	-10252
ugunita	-10253
▁Alaala	-10254
▁Iliyan	-10255
▁Niyang	-10256
▁Pagsis	-10257
▁aplaya	-10258
▁hinala	-10259
▁maglal	-10260
▁ulunan	-10261
Dardarat	-10262
alikasan	-10263
▁Lidagat	-10264
▁Taimtim	-10265
▁Tumahol	-10266
▁Tungkol	-10267
▁Tupinaw	-10268
▁Umiibig	-10269
▁Visayas	-10270
▁alinman	-10271
▁amihang	-10272
▁ampunin	-10273
▁aninong	-10274
▁anitong	-10275
▁balikan	-10276
▁bandang	-10277
▁batugan	-10278
▁batuhan	-10279
▁bayaran	-10280
▁bellang	-10281
▁bendita	-10282
▁binunot	-10283
▁binuwag	-10284
▁blaking	-10285
▁bukasin	-10286
▁bukirin	-10287
▁bumbong	-10288
▁bumuhos	-10289
▁bumukal	-10290
▁busabos	-10291
▁dambana	-10292
▁dangkal	-10293
▁dantaon	-10294
▁daratal	-10295
▁dumaloy	-10296
▁dustang	-10297
▁eklipse	-10298
▁gagamba	-10299
AP	-10300
ota	-10301
pos	-10302
tub	-10303
uks	-10304
▁Hm	-10305
APAT	-10306
Sila	-10307
ilao	-10308
pula	-10309
▁ANG	-10310
▁Cat	-10311
▁Lin	-10312
▁Roy	-10313
▁Tig	-10314
▁tey	-10315
aaapi	-10316
ibayo	-10317
iwasa	-10318
▁Huli	-10319
▁Kank	-10320
▁Lumb	-10321
▁Mlks	-10322
▁lins	-10323
▁lira	-10324
▁pila	-10325
▁siit	-10326
▁teyp	-10327
▁tulo	-10328
Talaga	-10329
akayin	-10330
arimot	-10331
ipigan	-10332
madiin	-10333
ubukid	-10334
ukayan	-10335
ulanit	-10336
ungkab	-10337
▁Kaiba	-10338
▁Sabik	-10339
▁bilao	-10340
▁makuk	-10341
▁pakal	-10342
▁parir	-10343
▁tulin	-10344
alayang	-10345
asyahan	-10346
iisipin	-10347
▁Talaga	-10348
▁hinabi	-10349
▁kagaya	-10350
▁mabasa	-10351
▁sabing	-10352
▁sintas	-10353
Titingin	-10354
alapitan	-10355
ibigyang	-10356
salaysay	-10357
▁Luluhod	-10358
▁Lumbera	-10359
▁Makinig	-10360
▁Malaueg	-10361
▁bakawan	-10362
▁balyena	-10363
▁daluyan	-10364
▁gumanda	-10365
▁habagat	-10366
▁hagdang	-10367
▁haharap	-10368
▁halikan	-10369
▁hanggat	-10370
▁hilahil	-10371
▁hinabol	-10372
▁hinagod	-10373
▁hinahon	-10374
▁hinamak	-10375
▁hinamon	-10376
▁hinarap	-10377
▁hinding	-10378
▁hinugot	-10379
▁humasik	-10380
▁humihip	-10381
▁ibayong	-10382
▁ibubuka	-10383
▁ilusyon	-10384
▁inakala	-10385
▁inaping	-10386
▁ingatan	-10387
▁insekto	-10388
▁inuring	-10389
▁ipaalam	-10390
▁ipakita	-10391
▁isinuot	-10392
▁iskolar	-10393
▁itinali	-10394
▁kabaong	-10395
▁kabataa	-10396
▁kagatin	-10397
▁kagitna	-10398
▁kakaiba	-10399
ps	-10400
gal	-10401
Ayan	-10402
iwal	-10403
pulo	-10404
salo	-10405
agyan	-10406
intab	-10407
lapad	-10408
▁Esep	-10409
▁Look	-10410
▁Pulo	-10411
▁ekon	-10412
▁salu	-10413
▁trab	-10414
Pagkat	-10415
alayaw	-10416
angkad	-10417
angkot	-10418
garing	-10419
ilawan	-10420
ulinig	-10421
umulan	-10422
upasan	-10423
yaring	-10424
▁Dinig	-10425
▁Duwag	-10426
▁Hawak	-10427
▁Sinig	-10428
▁Yabes	-10429
▁bahaw	-10430
▁kaaya	-10431
▁laong	-10432
▁saliw	-10433
▁sapul	-10434
▁sasag	-10435
alimang	-10436
antihan	-10437
aralgal	-10438
awagang	-10439
subalit	-10440
tamisan	-10441
▁Pinili	-10442
▁ekonom	-10443
▁haring	-10444
▁ilawan	-10445
▁mapuno	-10446
▁naipit	-10447
▁natalo	-10448
▁tamnan	-10449
▁umulan	-10450
anggihan	-10451
ipagkita	-10452
▁Iginala	-10453
▁Pagdaan	-10454
▁ipinang	-10455
▁kalamig	-10456
▁kalasag	-10457
▁kalinga	-10458
▁kalingk	-10459
▁kaluban	-10460
▁kalulwa	-10461
▁kanyong	-10462
▁kapakan	-10463
▁kaparus	-10464
▁kapatak	-10465
▁kaskong	-10466
▁kilabot	-10467
▁kinahih	-10468
▁kinapal	-10469
▁kinikil	-10470
▁konseho	-10471
▁kudyapi	-10472
▁kumitil	-10473
▁kunwari	-10474
▁kuwalta	-10475
▁lambing	-10476
▁lamunin	-10477
▁lathala	-10478
▁lipulin	-10479
▁lulusog	-10480
▁lumagay	-10481
▁luminis	-10482
▁lumiyag	-10483
▁lungsod	-10484
▁lusubin	-10485
▁maamong	-10486
▁mabasag	-10487
▁mabatid	-10488
▁mabibig	-10489
▁mabilog	-10490
▁mabiyak	-10491
▁mabusog	-10492
▁mabutas	-10493
▁magalit	-10494
▁maghari	-10495
▁magkita	-10496
▁magtayo	-10497
▁magtika	-10498
▁mahilig	-10499
Na	-10500
ymp	-10501
▁Re	-10502
▁ri	-10503
asko	-10504
emes	-10505
igta	-10506
kaba	-10507
▁mes	-10508
▁tud	-10509
Aalis	-10510
ahuyo	-10511
akada	-10512
ekate	-10513
oloob	-10514
▁Luna	-10515
▁baar	-10516
▁kaul	-10517
▁paki	-10518
▁puto	-10519
▁tudl	-10520
abansa	-10521
alismo	-10522
asanay	-10523
chosis	-10524
emesio	-10525
igilid	-10526
iglaan	-10527
inuman	-10528
isaing	-10529
pulong	-10530
ugasan	-10531
ugunin	-10532
uliran	-10533
ulutas	-10534
▁Mapag	-10535
▁iluwa	-10536
▁ipagp	-10537
▁paroo	-10538
▁yabag	-10539
Sinuman	-10540
ihasnan	-10541
▁Hangal	-10542
▁Hekate	-10543
▁Hudhud	-10544
▁Lamang	-10545
▁Unahan	-10546
▁kaysas	-10547
▁maitan	-10548
▁nagdar	-10549
▁nagpak	-10550
▁pinagd	-10551
▁tinaga	-10552
▁tubuan	-10553
▁unggoy	-10554
ahantong	-10555
ibibigay	-10556
uwalhati	-10557
▁Digmaan	-10558
▁Lilitaw	-10559
▁Nemesio	-10560
▁Pagitan	-10561
▁Sinunod	-10562
▁bagaman	-10563
▁biniday	-10564
▁binuong	-10565
▁ginagal	-10566
▁kumagat	-10567
▁lumulan	-10568
▁maiitim	-10569
▁maiiwan	-10570
▁makakat	-10571
▁makapal	-10572
▁makatao	-10573
▁makinig	-10574
▁malaong	-10575
▁malikot	-10576
▁maliksi	-10577
▁malipol	-10578
▁maliwag	-10579
▁mamasid	-10580
▁manggas	-10581
▁mangkok	-10582
▁mapasok	-10583
▁marahan	-10584
▁marilag	-10585
▁masahol	-10586
▁masupil	-10587
▁matawag	-10588
▁matayog	-10589
▁matupad	-10590
▁mauutas	-10591
▁maykaya	-10592
▁mithiin	-10593
▁naaayon	-10594
▁nababal	-10595
▁nabatid	-10596
▁nabiyak	-10597
▁nagkait	-10598
▁nagkaka	-10599
As	-10600
▁Ep	-10601
Sino	-10602
ahop	-10603
atng	-10604
▁Win	-10605
▁Yum	-10606
tanod	-10607
umama	-10608
▁Akin	-10609
▁Idin	-10610
▁esep	-10611
alitaw	-10612
anapan	-10613
▁Gamit	-10614
▁Iling	-10615
▁Mayro	-10616
▁Pinto	-10617
▁Tapos	-10618
▁Tinat	-10619
▁bayaw	-10620
▁halay	-10621
▁kakis	-10622
▁kulot	-10623
▁lagim	-10624
▁niyan	-10625
▁punlo	-10626
▁tatan	-10627
▁tindi	-10628
abayaan	-10629
ahangga	-10630
ahangin	-10631
▁Ilocos	-10632
▁Manong	-10633
▁Pinang	-10634
▁Sinuyo	-10635
▁Tangan	-10636
▁humabi	-10637
▁inuman	-10638
▁kamtan	-10639
▁layong	-10640
▁nagkab	-10641
▁nagkik	-10642
▁nagkuk	-10643
▁natira	-10644
▁pagkar	-10645
▁tiwala	-10646
amantala	-10647
▁Christo	-10648
▁Humukay	-10649
▁Penuela	-10650
▁Pinauwi	-10651
▁dalawin	-10652
▁dumulog	-10653
▁ihandog	-10654
▁mapatid	-10655
▁masanay	-10656
▁matalin	-10657
▁naglaon	-10658
▁nagsawa	-10659
▁nagsisi	-10660
▁nagulat	-10661
▁nahagip	-10662
▁naiinis	-10663
▁naiwang	-10664
▁nakahih	-10665
▁nakalat	-10666
▁nakatan	-10667
▁nalagot	-10668
▁nalilig	-10669
▁namamat	-10670
▁napakak	-10671
▁napatid	-10672
▁nasapit	-10673
▁natabas	-10674
▁nayanig	-10675
▁negosyo	-10676
▁nilanta	-10677
▁nilason	-10678
▁nilusob	-10679
▁niyaong	-10680
▁okasyon	-10681
▁paakyat	-10682
▁pagkasi	-10683
▁pagkuha	-10684
▁pagpuri	-10685
▁pagtaas	-10686
▁paineta	-10687
▁paksang	-10688
▁palayan	-10689
▁palibot	-10690
▁pamahra	-10691
▁pamukaw	-10692
▁pandama	-10693
▁pangkal	-10694
▁papatay	-10695
▁paraiso	-10696
▁pasukin	-10697
▁patalun	-10698
▁patanaw	-10699
Nang	-10700
kibo	-10701
tago	-10702
▁Pos	-10703
▁daa	-10704
agbab	-10705
agpas	-10706
aksak	-10707
gusto	-10708
tulog	-10709
uning	-10710
▁Dami	-10711
▁Diwa	-10712
▁Paki	-10713
▁bisa	-10714
▁buku	-10715
▁daid	-10716
agalaw	-10717
agutom	-10718
sarili	-10719
utihin	-10720
▁Aniya	-10721
▁Ipina	-10722
▁Lanao	-10723
▁Rinam	-10724
▁berde	-10725
▁biyak	-10726
▁dilat	-10727
▁nauna	-10728
▁nilak	-10729
▁pipil	-10730
▁sapad	-10731
▁tanan	-10732
abantog	-10733
aluktot	-10734
tulogan	-10735
ungkahi	-10736
▁Humayo	-10737
▁Inisip	-10738
▁Nagbab	-10739
▁banaag	-10740
▁dinami	-10741
▁hampas	-10742
▁humaba	-10743
▁lumago	-10744
▁magkap	-10745
▁maiksi	-10746
▁nagnan	-10747
▁nasira	-10748
▁panhik	-10749
▁senyor	-10750
▁siwang	-10751
agalugan	-10752
alangkas	-10753
apatiran	-10754
▁Damiana	-10755
▁Natanaw	-10756
▁harding	-10757
▁ipinagp	-10758
▁pagdaka	-10759
▁pighati	-10760
▁pihikan	-10761
▁pilyong	-10762
▁pinapag	-10763
▁pinasan	-10764
▁pitasin	-10765
▁pithaya	-10766
▁piyesta	-10767
▁pumukol	-10768
▁pumutok	-10769
▁puputok	-10770
▁sabagay	-10771
▁sagamat	-10772
▁sagrado	-10773
▁sakbibi	-10774
▁salakot	-10775
▁samakat	-10776
▁santong	-10777
▁sasayad	-10778
▁sibilis	-10779
▁sikatan	-10780
▁silyang	-10781
▁simbolo	-10782
▁sinadya	-10783
▁sinamba	-10784
▁sinapit	-10785
▁sinlaki	-10786
▁sinuway	-10787
▁sisigaw	-10788
▁sisilip	-10789
▁sisisid	-10790
▁sugilan	-10791
▁sukaban	-10792
▁sukdang	-10793
▁sumaksi	-10794
▁sumpain	-10795
▁sutlang	-10796
▁tabsing	-10797
▁talukap	-10798
▁timbang	-10799
Tit	-10800
nti	-10801
udd	-10802
▁en	-10803
Unti	-10804
ence	-10805
utum	-10806
▁Uma	-10807
atiis	-10808
dasal	-10809
tumba	-10810
uddha	-10811
▁Caca	-10812
▁Hati	-10813
▁Nand	-10814
▁Ubos	-10815
▁ihin	-10816
▁kibo	-10817
abulin	-10818
aligan	-10819
arosip	-10820
atayin	-10821
atiuna	-10822
parusa	-10823
ulalas	-10824
▁Kanin	-10825
▁Makap	-10826
▁Tatay	-10827
▁Tinut	-10828
▁dasal	-10829
▁ganti	-10830
▁ginaw	-10831
▁kanun	-10832
▁latay	-10833
▁likaw	-10834
▁pitas	-10835
▁tanak	-10836
▁tanel	-10837
▁titik	-10838
ihinuha	-10839
▁Buddha	-10840
▁Gabing	-10841
▁Isipin	-10842
▁Kataka	-10843
▁Naligo	-10844
▁Pinagb	-10845
▁dagdag	-10846
▁higtan	-10847
▁ilipad	-10848
▁kanunu	-10849
▁lumiit	-10850
▁lunsod	-10851
▁malago	-10852
▁musmos	-10853
▁pagyay	-10854
▁parati	-10855
▁pinaki	-10856
▁tatawa	-10857
amaganda	-10858
inggitan	-10859
tatanong	-10860
▁Bagamat	-10861
▁Inakala	-10862
▁Lumaban	-10863
▁bulalas	-10864
▁manalig	-10865
▁maramot	-10866
▁naghari	-10867
▁nakapan	-10868
▁nangagb	-10869
▁tinapay	-10870
▁tinudla	-10871
▁trabaho	-10872
▁tudlain	-10873
▁tukuyin	-10874
▁tulutan	-10875
▁tumahol	-10876
▁tumanaw	-10877
▁tumungo	-10878
▁tumupad	-10879
▁tumutol	-10880
▁turista	-10881
▁tutunog	-10882
▁tuturan	-10883
▁ugaling	-10884
▁umaabot	-10885
▁umaayon	-10886
▁umiling	-10887
▁umugong	-10888
▁umuulan	-10889
▁wasakin	-10890
▁yumakap	-10891
▁yumaong	-10892
Kailangan	-10893
Malumanay	-10894
Mapanukso	-10895
Nararapat	-10896
Susubukin	-10897
Titingala	-10898
Titingnan	-10899
▁Sh	-10900
▁iu	-10901
engu	-10902
osam	-10903
agiik	-10904
ainom	-10905
anood	-10906
balat	-10907
imbal	-10908
layag	-10909
okano	-10910
sayaw	-10911
wiran	-10912
▁Ipah	-10913
▁Oras	-10914
▁Pusa	-10915
▁dote	-10916
▁luya	-10917
▁ngay	-10918
▁suyo	-10919
▁unan	-10920
Gagawa	-10921
abalat	-10922
asunod	-10923
awayin	-10924
ayunan	-10925
bagong	-10926
enguet	-10927
ilanga	-10928
umpong	-10929
▁Kinab	-10930
▁Panan	-10931
▁gansa	-10932
▁hinim	-10933
▁mapay	-10934
▁paimb	-10935
▁sangh	-10936
abatang	-10937
atangay	-10938
ilinang	-10939
umanhin	-10940
▁Ilipad	-10941
▁bukang	-10942
▁ibigan	-10943
▁kagila	-10944
▁kalaro	-10945
▁maabot	-10946
▁maghih	-10947
▁paalis	-10948
▁pagtul	-10949
▁uliran	-10950
lalangan	-10951
▁Benguet	-10952
▁Dahilan	-10953
▁Huminga	-10954
▁Ilokano	-10955
▁Nalunod	-10956
▁Sanggol	-10957
▁isagawa	-10958
▁kinunan	-10959
▁nabuong	-10960
▁naiisip	-10961
▁nanatak	-10962
▁ngalang	-10963
▁palakas	-10964
▁papalit	-10965
▁pinahih	-10966
▁samosam	-10967
Magandang	-10968
abilanggo	-10969
agalingan	-10970
agdudulot	-10971
ahahahaha	-10972
ahalagang	-10973
aklolohan	-10974
alakbayin	-10975
alakihang	-10976
alakpakan	-10977
alinhinan	-10978
alintulad	-10979
amungmong	-10980
angatawan	-10981
arangalan	-10982
atakutang	-10983
atangtang	-10984
awagayway	-10985
awanggawa	-10986
babayaran	-10987
bersiyong	-10988
bibilihan	-10989
ihintayin	-10990
inabangan	-10991
intulutan	-10992
ipagkapwa	-10993
ipagsayaw	-10994
itinginan	-10995
kspresyon	-10996
mamamayan	-10997
otektahan	-10998
tangkilik	-10999
alu	-11000
eni	-11001
▁NG	-11002
▁re	-11003
arit	-11004
rero	-11005
▁Sta	-11006
▁roo	-11007
Sumpa	-11008
alahi	-11009
asiwa	-11010
busan	-11011
irhan	-11012
takot	-11013
▁Ibal	-11014
▁baso	-11015
▁pros	-11016
▁pugo	-11017
alabin	-11018
amukha	-11019
angina	-11020
▁Hinto	-11021
▁Kaawa	-11022
▁Kasoy	-11023
▁Lipay	-11024
▁Mahuh	-11025
▁Sunod	-11026
▁Vigan	-11027
▁ipags	-11028
▁lundo	-11029
▁sunod	-11030
▁turan	-11031
▁walis	-11032
akaloob	-11033
alamuti	-11034
asaktan	-11035
awisang	-11036
▁Kalaro	-11037
▁Parati	-11038
▁bawiin	-11039
▁inaaba	-11040
▁mabawi	-11041
▁mapags	-11042
▁mapapa	-11043
▁tinamo	-11044
iligiran	-11045
▁Cawayan	-11046
▁Masipag	-11047
▁binuhat	-11048
▁gumiliw	-11049
▁kamates	-11050
▁maaakit	-11051
▁magsama	-11052
▁masundo	-11053
▁matulad	-11054
▁nagpapa	-11055
▁naturan	-11056
▁pinakad	-11057
▁pisikal	-11058
▁tibabal	-11059
Patraydor	-11060
ubundukin	-11061
uuntugang	-11062
▁Alemanya	-11063
▁Ambrocio	-11064
▁BULAKLAK	-11065
▁Barangay	-11066
▁Bibigyan	-11067
▁Caravana	-11068
▁Cotabato	-11069
▁Dakilang	-11070
▁Darangen	-11071
▁Darating	-11072
▁Datapuwa	-11073
▁Datapwat	-11074
▁Dayiring	-11075
▁Dinampot	-11076
▁Gumapang	-11077
▁Gustuhin	-11078
▁Haplusin	-11079
▁Ibibigay	-11080
▁Ikinasal	-11081
▁Ilalagay	-11082
▁Inihagis	-11083
▁Inilabas	-11084
▁Inilapag	-11085
▁Inilipad	-11086
▁Isasauli	-11087
▁Ispiritu	-11088
▁Itinapon	-11089
▁Kabunian	-11090
▁Kalahati	-11091
▁Kanilang	-11092
▁Kankanay	-11093
▁Kastilya	-11094
▁Kasuotan	-11095
▁Katindig	-11096
▁Kaytamis	-11097
▁Lambunao	-11098
▁Leonardo	-11099
Bac	-11100
ILA	-11101
len	-11102
opr	-11103
▁1:	-11104
▁VI	-11105
buko	-11106
inid	-11107
pero	-11108
apiit	-11109
ikman	-11110
insay	-11111
▁Ikas	-11112
▁Ulod	-11113
▁ibab	-11114
▁ikas	-11115
▁ipis	-11116
anakan	-11117
aninaw	-11118
apanaw	-11119
igilan	-11120
ilisan	-11121
pansin	-11122
▁Babay	-11123
▁Bakya	-11124
▁Ginto	-11125
▁Lalaw	-11126
▁aawit	-11127
▁dumag	-11128
▁ganid	-11129
▁kisap	-11130
▁madre	-11131
▁nalig	-11132
▁pahim	-11133
▁yapak	-11134
▁Gulong	-11135
▁Kailan	-11136
▁hingin	-11137
▁hinuli	-11138
▁isinis	-11139
▁matuwa	-11140
▁nagapi	-11141
▁sandok	-11142
amahinga	-11143
▁Dinalaw	-11144
▁Sumakay	-11145
▁barilin	-11146
▁dinalaw	-11147
▁hikahos	-11148
▁kagiliw	-11149
▁kastila	-11150
▁katamis	-11151
▁mabulas	-11152
▁magtago	-11153
▁makasal	-11154
▁napapal	-11155
▁napapan	-11156
▁nilisan	-11157
▁orasyon	-11158
▁sinaing	-11159
▁tagisan	-11160
▁ulirang	-11161
alakhakan	-11162
apakilala	-11163
apanganak	-11164
▁Lihangin	-11165
▁Lilingon	-11166
▁Liwayway	-11167
▁Maalaala	-11168
▁Mababaya	-11169
▁Mabuting	-11170
▁Magaling	-11171
▁Magiging	-11172
▁Magkaisa	-11173
▁Mahabang	-11174
▁Mahinang	-11175
▁Malayang	-11176
▁Maliliit	-11177
▁Mapaapoy	-11178
▁Maragtas	-11179
▁Masaklap	-11180
▁Masamang	-11181
▁Miskoyaw	-11182
▁Momoocan	-11183
▁Naaalala	-11184
▁Nabalita	-11185
▁Nagbihis	-11186
▁Naghanap	-11187
▁Nagkalat	-11188
▁Naglaban	-11189
▁Naglikha	-11190
▁Nagluksa	-11191
▁Nagsayaw	-11192
▁Nagsilid	-11193
▁Nagtanim	-11194
▁Nakatuon	-11195
▁Nakikita	-11196
▁Nakiusap	-11197
▁Namasyal	-11198
▁Nanaisin	-11199
▁De	-11200
igsi	-11201
iiba	-11202
▁Eba	-11203
Buong	-11204
Iyang	-11205
agand	-11206
ahibo	-11207
aklan	-11208
igiba	-11209
▁Itim	-11210
astila	-11211
igatig	-11212
istang	-11213
kingan	-11214
manong	-11215
tumpok	-11216
yayaan	-11217
▁Aming	-11218
▁Dinad	-11219
▁Lakad	-11220
▁Nanan	-11221
▁Pipit	-11222
▁bingi	-11223
▁bitag	-11224
▁lipat	-11225
▁nagpa	-11226
▁pinay	-11227
▁rikit	-11228
▁sanay	-11229
▁tumba	-11230
▁unawa	-11231
ahampas	-11232
ahasang	-11233
amahagi	-11234
upuring	-11235
▁Dalawa	-11236
▁Kaning	-11237
▁Limang	-11238
▁Nagkak	-11239
▁Nagpap	-11240
▁balisa	-11241
▁bayaan	-11242
▁binawi	-11243
▁iniuwi	-11244
▁naipas	-11245
▁pagasa	-11246
▁patayo	-11247
▁sinisi	-11248
▁umabot	-11249
akanlong	-11250
▁Dumagat	-11251
▁Itataas	-11252
▁Kumulat	-11253
▁Marahas	-11254
▁Narinig	-11255
▁Natapos	-11256
▁humubog	-11257
▁iniiwan	-11258
▁kasawia	-11259
▁kumanta	-11260
▁magdusa	-11261
▁mapagod	-11262
▁matiyak	-11263
▁naaakit	-11264
▁nalagas	-11265
▁saligan	-11266
▁Intempsy	-11267
▁Kabataan	-11268
▁Kinalong	-11269
▁Kinausap	-11270
▁Nanatili	-11271
▁Napaiyak	-11272
▁Naroroon	-11273
▁Paglipas	-11274
▁Panapana	-11275
▁Pilipina	-11276
▁Pinakain	-11277
▁Pinatubo	-11278
▁Puhunang	-11279
▁Pumanaog	-11280
▁Pupwesto	-11281
▁Rinayong	-11282
▁Rogongan	-11283
▁Sagamant	-11284
▁Sariling	-11285
▁Simbahan	-11286
▁Singsing	-11287
▁Taglayin	-11288
▁Tinampal	-11289
▁Tinanong	-11290
▁Tinubuan	-11291
▁Tumanggi	-11292
▁abalahin	-11293
▁alinmang	-11294
▁babagsak	-11295
▁babatiin	-11296
▁babayaan	-11297
▁balasang	-11298
▁batayang	-11299
Tek	-11300
tin	-11301
Nagd	-11302
habag	-11303
iliti	-11304
untok	-11305
▁Dili	-11306
▁Lobo	-11307
▁plat	-11308
napung	-11309
▁Ginap	-11310
▁Itlog	-11311
▁Kabat	-11312
▁Narra	-11313
▁Pugad	-11314
▁Tigil	-11315
▁riyan	-11316
Gagawin	-11317
abagtas	-11318
umulang	-11319
▁Bayani	-11320
▁Momong	-11321
▁Sasaba	-11322
▁Sigaan	-11323
▁Turuan	-11324
▁barong	-11325
▁hibang	-11326
▁itanim	-11327
▁kasuyo	-11328
▁parami	-11329
▁susuko	-11330
▁turing	-11331
▁Eugenio	-11332
▁Libiran	-11333
▁Makapag	-11334
▁Nangako	-11335
▁Sinulat	-11336
▁Ulahing	-11337
▁ihampas	-11338
▁ipinagb	-11339
▁kahabag	-11340
▁mapigil	-11341
▁masunog	-11342
▁matanaw	-11343
▁natanaw	-11344
▁natipon	-11345
▁pulutin	-11346
▁tumindi	-11347
ilanganin	-11348
▁Hinintay	-11349
▁Magbigay	-11350
▁Pangalan	-11351
▁batisang	-11352
▁berkahan	-11353
▁bigkasin	-11354
▁bilanggo	-11355
▁binabayo	-11356
▁bubungan	-11357
▁bulagsak	-11358
▁bumalong	-11359
▁bumangon	-11360
▁bumigtas	-11361
▁buwayang	-11362
▁dagdagan	-11363
▁daratnan	-11364
▁digmaang	-11365
▁dinaanan	-11366
▁dinadala	-11367
▁dinapuan	-11368
▁dumalaga	-11369
▁edukasyo	-11370
▁eksenang	-11371
▁espiritu	-11372
▁gamiting	-11373
▁gumaling	-11374
▁hahagkan	-11375
▁haharang	-11376
▁hahatiin	-11377
▁halagang	-11378
▁haliging	-11379
▁hinampas	-11380
▁hinangad	-11381
▁hinipang	-11382
▁hintayin	-11383
▁ibinenta	-11384
▁iginayak	-11385
▁ihaharap	-11386
▁iingatan	-11387
▁ikamatay	-11388
▁ikinalat	-11389
▁ilalagay	-11390
▁ilalapat	-11391
▁inaakala	-11392
▁inaaring	-11393
▁inihanay	-11394
▁inilabas	-11395
▁inilagak	-11396
▁inilawan	-11397
▁ipamalas	-11398
▁ipapasok	-11399
▁isaalang	-11400
▁isinilid	-11401
▁isinulat	-11402
▁isusunod	-11403
▁itanghal	-11404
▁itatangi	-11405
▁itatanim	-11406
▁itinangi	-11407
▁itinapon	-11408
▁itinuloy	-11409
▁kagaling	-11410
▁kahambal	-11411
▁kahinaan	-11412
▁kahuluga	-11413
▁kailalim	-11414
▁kakamtan	-11415
▁kalabang	-11416
▁kalahing	-11417
▁kalaking	-11418
▁kalansay	-11419
▁kalapati	-11420
▁kalawaka	-11421
▁kaliitan	-11422
▁kaliskis	-11423
▁kaliwang	-11424
▁kamagong	-11425
▁kamalian	-11426
▁kanluran	-11427
▁kapaitan	-11428
▁kapalara	-11429
▁karakang	-11430
▁karangya	-11431
▁katalong	-11432
▁katambal	-11433
▁katotong	-11434
▁kaulayaw	-11435
▁kausapin	-11436
▁kawangis	-11437
▁kayamana	-11438
▁kaytamis	-11439
▁kinikita	-11440
▁kolonyal	-11441
▁konsepto	-11442
▁kublihan	-11443
▁kultural	-11444
▁kumbento	-11445
▁kumikibo	-11446
▁lagaslas	-11447
▁lagingan	-11448
▁lagusang	-11449
▁lalagpak	-11450
▁lampadan	-11451
▁linangin	-11452
▁linggong	-11453
▁lumagpak	-11454
▁lumigaya	-11455
▁lumindol	-11456
▁lumipana	-11457
▁lumusong	-11458
▁luntiang	-11459
▁maalaala	-11460
▁mababago	-11461
▁mabagsik	-11462
▁madadala	-11463
▁madarama	-11464
▁madugong	-11465
▁madungis	-11466
▁magbuhat	-11467
▁magdasal	-11468
▁magdilim	-11469
▁maghirap	-11470
▁magkaisa	-11471
▁maglinis	-11472
▁magpakat	-11473
▁magpapas	-11474
▁magsaing	-11475
▁magtampo	-11476
▁magtanim	-11477
▁magtipid	-11478
▁magugupo	-11479
▁magugust	-11480
▁mahinhin	-11481
▁maisakat	-11482
▁makababa	-11483
▁makagawa	-11484
▁makaiwas	-11485
▁makakaya	-11486
▁makasira	-11487
▁makatayo	-11488
▁makatula	-11489
▁makausap	-11490
▁makilala	-11491
▁makiring	-11492
▁malamyos	-11493
▁maluwang	-11494
▁mamalagi	-11495
▁mananaig	-11496
▁mangahas	-11497
▁mangarap	-11498
▁mangusap	-11499
▁mapahiya	-11500
▁mapalaki	-11501
▁mariwasa	-11502
▁masasaya	-11503
▁masusing	-11504
▁matabang	-11505
▁matataas	-11506
▁material	-11507
▁matining	-11508
▁matipuno	-11509
▁matutong	-11510
▁maubusan	-11511
▁metapora	-11512
▁nadatnan	-11513
▁naganyak	-11514
▁nagbihis	-11515
▁nagdaang	-11516
▁nagdasal	-11517
▁nagising	-11518
▁nagkalat	-11519
▁naglagay	-11520
▁nagmahal	-11521
▁nagnakaw	-11522
▁nagsaing	-11523
▁nagsayaw	-11524
▁nagsisip	-11525
▁nagsisis	-11526
▁nahihiya	-11527
▁nakaalis	-11528
▁nakaiwas	-11529
▁nakapiit	-11530
▁nakaraan	-11531
▁nakasama	-11532
▁nakataas	-11533
▁nakawala	-11534
▁nakayuko	-11535
▁nakipags	-11536
▁nakiusap	-11537
▁nalakbay	-11538
▁nalamang	-11539
▁namamana	-11540
▁namataan	-11541
▁namayapa	-11542
▁nanariwa	-11543
▁nangakas	-11544
▁naniwala	-11545
▁nanunuot	-11546
▁napaaapi	-11547
▁napadpad	-11548
▁napahiya	-11549
▁napapako	-11550
▁napapala	-11551
▁napapawi	-11552
▁naritong	-11553
▁natauhan	-11554
▁naturang	-11555
▁nawaglit	-11556
▁ngayunin	-11557
▁ngumanga	-11558
▁niladlad	-11559
▁nilagyan	-11560
▁nilusong	-11561
▁ningning	-11562
▁ninunong	-11563
▁pabayaan	-11564
▁pabulong	-11565
▁padadala	-11566
▁pagbalik	-11567
▁pagbilog	-11568
▁pagbuhat	-11569
▁pagdalaw	-11570
▁pagdaloy	-11571
▁pagdamay	-11572
▁paggapas	-11573
▁paghanap	-11574
▁paghatol	-11575
▁paghawak	-11576
▁paghinga	-11577
▁paghinto	-11578
▁pagkaawa	-11579
▁pagkamal	-11580
▁pagkilos	-11581
▁pagkunan	-11582
▁paglikha	-11583
▁paglusob	-11584
▁pagpanaw	-11585
▁pagpapag	-11586
▁pagpapan	-11587
▁pagsapit	-11588
▁pagsubok	-11589
▁pagsulat	-11590
▁pagsunod	-11591
▁pagtakas	-11592
▁pagtungo	-11593
▁pagyaman	-11594
▁painumin	-11595
▁pakaunti	-11596
▁palalong	-11597
▁pambayad	-11598
▁pamimili	-11599
▁pamuling	-11600
▁pandikit	-11601
▁paninira	-11602
▁panlaban	-11603
▁panlunas	-11604
▁pansinin	-11605
▁panuunan	-11606
▁pasaklaw	-11607
▁pasubsob	-11608
▁pasulong	-11609
▁payagang	-11610
▁pedestal	-11611
▁pigingan	-11612
▁pinagsas	-11613
▁pinagsis	-11614
▁pinakama	-11615
▁pinalaya	-11616
▁pinangko	-11617
▁pinansin	-11618
▁pinapalo	-11619
▁pinapang	-11620
▁pinasahi	-11621
▁pinggang	-11622
▁pirasong	-11623
▁pocpoclo	-11624
▁posisyon	-11625
▁problema	-11626
▁pulseras	-11627
▁pulutong	-11628
▁puspusan	-11629
▁sagingan	-11630
▁sanghaya	-11631
▁sanglang	-11632
▁sigurado	-11633
▁sinusukl	-11634
▁solusyon	-11635
▁sosyedad	-11636
▁sugatang	-11637
▁sumaisip	-11638
▁sumiklab	-11639
▁sumilang	-11640
▁sumilong	-11641
▁sumulpot	-11642
▁tagaroon	-11643
▁tagtuyot	-11644
▁talastas	-11645
▁talisman	-11646
▁tampuhan	-11647
▁tangkang	-11648
▁tatakpan	-11649
▁tawanang	-11650
▁tekstong	-11651
▁tinangka	-11652
▁tinatago	-11653
▁tingnang	-11654
▁tinitiis	-11655
▁torongan	-11656
▁trahedya	-11657
▁tsinelas	-11658
▁tultugan	-11659
▁tulutang	-11660
▁tumatawa	-11661
▁tumitira	-11662
▁tumubong	-11663
▁tumugtog	-11664
▁tumuklas	-11665
▁umusbong	-11666
▁yumabong	-11667
..........	-11668
Hahagulgol	-11669
Kailangang	-11670
Pagkatapos	-11671
Pasalubong	-11672
Sasambitin	-11673
Tutulungan	-11674
adalamhati	-11675
akasalanan	-11676
alamhatian	-11677
alulungkot	-11678
ampalataya	-11679
atatanghal	-11680
▁Amongabon	-11681
▁Aphrodite	-11682
▁Babalikan	-11683
▁Binanggit	-11684
▁Boholanos	-11685
▁Bubuhatin	-11686
▁Datimbang	-11687
▁Domingsel	-11688
▁Gaygaynet	-11689
▁Hernandez	-11690
▁Hinahanap	-11691
▁Ikalawang	-11692
▁Inglatera	-11693
▁Ipagdasal	-11694
▁Ipagpalit	-11695
▁Ipinaalam	-11696
▁Itinuring	-11697
▁Jerusalem	-11698
▁Kabalyero	-11699
▁Kabukiran	-11700
▁Kadugnung	-11701
▁Kakagatin	-11702
▁Kalawitan	-11703
▁Kalikasan	-11704
▁Karaniwan	-11705
▁Kasabihan	-11706
▁Kastilang	-11707
▁Katangian	-11708
▁Kayraming	-11709
▁Kinastila	-11710
▁Kinawayan	-11711
▁Leddangan	-11712
▁Lumilipad	-11713
▁Madogyaya	-11714
▁Magsasaka	-11715
▁Magsisisi	-11716
▁Makabuhay	-11717
▁Mapalawak	-11718
▁Masusunod	-11719
▁Minalisin	-11720
▁Mistulang	-11721
▁Nagkasama	-11722
▁Nagsasama	-11723
▁Nagsimula	-11724
▁Nagsisisi	-11725
▁Naguilian	-11726
▁Nakahanda	-11727
▁Nakatungo	-11728
▁Nalalanta	-11729
▁Natagpuan	-11730
▁Natutulog	-11731
▁Nobyembre	-11732
▁Pabulanan	-11733
▁Pagbagsak	-11734
▁Pagkaalis	-11735
▁Pakawalan	-11736
▁Pandanggo	-11737
▁Pangaiwan	-11738
▁Papatayin	-11739
▁Paraisong	-11740
▁Parusahan	-11741
▁Patawarin	-11742
▁Sambangki	-11743
▁Sandaling	-11744
▁Setyembre	-11745
▁Singkamas	-11746
▁Sinisinta	-11747
▁Sumalunga	-11748
▁Sumarinaw	-11749
▁Tanggapin	-11750
▁Tinalupan	-11751
▁Tinitiyak	-11752
▁Titingnan	-11753
▁Tominaman	-11754
▁Tumahimik	-11755
▁Tungkulin	-11756
▁Yayakapin	-11757
▁aksesorya	-11758
▁anakpawis	-11759
▁bahaghari	-11760
▁bangungot	-11761
▁baranggay	-11762
▁bathalang	-11763
▁bibitiwan	-11764
▁binabalot	-11765
▁binubunot	-11766
▁bugtungan	-11767
▁bulalakaw	-11768
▁bungkalin	-11769
▁dadagitin	-11770
▁dadalawin	-11771
▁dalamhati	-11772
▁dinadagit	-11773
▁dinaranas	-11774
▁dinumihan	-11775
▁diyamante	-11776
▁dumadalaw	-11777
▁dumadaloy	-11778
▁ekonomiya	-11779
▁gandingan	-11780
▁ginhawang	-11781
▁grasiyang	-11782
▁gumagalaw	-11783
▁gumaganda	-11784
▁gumigiliw	-11785
▁hahanguin	-11786
▁higanteng	-11787
▁hihilahin	-11788
▁hinahamak	-11789
▁hinahamon	-11790
▁hinanakit	-11791
▁hinigupan	-11792
▁hinugasan	-11793
▁hinukayan	-11794
▁humagupit	-11795
▁humahalik	-11796
▁humahanga	-11797
▁humakbang	-11798
▁humantong	-11799
▁idalangin	-11800
▁ihahandog	-11801
▁ikabubuti	-11802
▁ikinulong	-11803
▁ikukumpas	-11804
▁ililigtas	-11805
▁impuwesto	-11806
▁inaasahan	-11807
▁inaawitan	-11808
▁iniligtas	-11809
▁ipagtapat	-11810
▁ipakikita	-11811
▁ipakilala	-11812
▁ipinadala	-11813
▁isinaayos	-11814
▁itinanong	-11815
▁itinatago	-11816
▁kabaitang	-11817
▁kabakahin	-11818
▁kadalasan	-11819
▁kagalakan	-11820
▁kaganapan	-11821
▁kaguluhan	-11822
▁kahatulan	-11823
▁kakatwang	-11824
▁kakisigan	-11825
▁kalabanin	-11826
▁kalakaran	-11827
▁kaligatan	-11828
▁kalimutan	-11829
▁kalusugan	-11830
▁kaluwagan	-11831
▁kamukhang	-11832
▁kapaguran	-11833
▁kapakanan	-11834
▁karaingan	-11835
▁kasamahan	-11836
▁kasanayan	-11837
▁katatagan	-11838
▁katuturan	-11839
▁kaukulang	-11840
▁kayariang	-11841
▁kaysasaya	-11842
▁kinakanta	-11843
▁kinalaman	-11844
▁kinurutan	-11845
▁kolintang	-11846
▁komunidad	-11847
▁kulintang	-11848
▁kulturang	-11849
▁kumakalat	-11850
▁kumandili	-11851
▁lambuting	-11852
▁lolokisen	-11853
▁lumaganap	-11854
▁lumalabas	-11855
▁lumalakas	-11856
▁mababango	-11857
▁mabubusog	-11858
▁magaganap	-11859
▁magaspang	-11860
▁magbabait	-11861
▁magbinata	-11862
▁magdiwang	-11863
▁magdurusa	-11864
▁maghangad	-11865
▁magkaaway	-11866
▁magkaisip	-11867
▁maglakbay	-11868
▁maglalaon	-11869
▁magluluto	-11870
▁magmadali	-11871
▁magsilang	-11872
▁magsisisi	-11873
▁magtitiis	-11874
▁magugutom	-11875
▁mahahayag	-11876
▁maharlika	-11877
▁mahawakan	-11878
▁mahinahon	-11879
▁mahinhing	-11880
▁makabansa	-11881
▁makahinga	-11882
▁makalapit	-11883
▁makalipas	-11884
▁makapitas	-11885
▁makukulay	-11886
▁malalapad	-11887
▁malambing	-11888
▁maliligaw	-11889
▁malilikot	-11890
▁malubhang	-11891
▁malulupit	-11892
▁mambabasa	-11893
▁mamighati	-11894
▁mangitlog	-11895
▁mapipigil	-11896
▁mapitagan	-11897
▁mapupunta	-11898
▁maputlang	-11899
▁masakupan	-11900
▁masansala	-11901
▁masiglang	-11902
▁masisigla	-11903
▁masiyahan	-11904
▁masyadong	-11905
▁matagalan	-11906
▁matanggap	-11907
▁matangkad	-11908
▁matatakot	-11909
▁matitigas	-11910
▁matutuloy	-11911
▁mayayaman	-11912
▁minimithi	-11913
▁naatasang	-11914
▁nababasag	-11915
▁nagbabala	-11916
▁nagbibiro	-11917
▁nagdiwang	-11918
▁naghandog	-11919
▁nagkaanak	-11920
▁nagkagulo	-11921
▁nagkaloob	-11922
▁nagpasiya	-11923
▁nagpulong	-11924
▁nagpupuno	-11925
▁nagsasabi	-11926
▁nagsasama	-11927
▁nagsilaho	-11928
▁nagtaguan	-11929
▁nagtatago	-11930
▁nagtatamo	-11931
▁nagwawagi	-11932
▁nagwiwika	-11933
▁naiibigan	-11934
▁nakaaaliw	-11935
▁nakaakyat	-11936
▁nakabalik	-11937
▁nakabulag	-11938
▁nakahasik	-11939
▁nakakamit	-11940
▁nakalatag	-11941
▁nakalipas	-11942
▁nakalugay	-11943
▁nakaluhod	-11944
▁nakangiti	-11945
▁nakapulot	-11946
▁nakasabay	-11947
▁nakasagot	-11948
▁nakasaksi	-11949
▁nakatanod	-11950
▁nakikiapi	-11951
▁nalalanta	-11952
▁nalanghap	-11953
▁nalikhang	-11954
▁nalilimot	-11955
▁nalimutan	-11956
▁nalungkot	-11957
▁namamalas	-11958
▁namimitas	-11959
▁nanawagan	-11960
▁nangakong	-11961
▁nangasawi	-11962
▁napahinto	-11963
▁napapatay	-11964
▁napilitan	-11965
▁nasalanta	-11966
▁nasugatan	-11967
▁natanawan	-11968
▁natanggal	-11969
▁natapakan	-11970
▁natitipon	-11971
▁natutuloy	-11972
▁nilapitan	-11973
▁nilawayan	-11974
▁nilulutas	-11975
▁nunungong	-11976
▁pagbigyan	-11977
▁pagdurusa	-11978
▁paggalang	-11979
▁paghatiin	-11980
▁pagitawin	-11981
▁pagkahari	-11982
▁pagkakain	-11983
▁paglalaho	-11984
▁paglinang	-11985
▁paglingon	-11986
▁pagpanhik	-11987
▁pagpapala	-11988
▁pagparito	-11989
▁pagtaliin	-11990
▁pagtataka	-11991
▁pagtitiis	-11992
▁pagtutuos	-11993
▁pahayagan	-11994
▁pahimakas	-11995
▁paimbulog	-11996
▁pakikinig	-11997
▁pakikipag	-11998
▁pambihira	-11999
▁pamilihan	-12000
▁pamumulot	-12001
▁pananabik	-12002
▁pananamit	-12003
▁pandulaan	-12004
▁panginoon	-12005
▁pangkatan	-12006
▁pangmasid	-12007
▁panibugho	-12008
▁papaanong	-12009
▁papatayin	-12010
▁paraluman	-12011
▁pasintabi	-12012
▁patotoong	-12013
▁patunugin	-12014
▁pinangang	-12015
▁pinayuhan	-12016
▁pinuputol	-12017
▁pinutulan	-12018
▁pipitasin	-12019
▁praktikal	-12020
▁prusisyon	-12021
▁puspusang	-12022
▁salakayin	-12023
▁sandipang	-12024
▁sanlibong	-12025
▁sasadyain	-12026
▁sasagutin	-12027
▁sasakyang	-12028
▁sinalanta	-12029
▁sinimulan	-12030
▁sinisinta	-12031
▁sinubukan	-12032
▁sisinghap	-12033
▁siyamnapu	-12034
▁solitaryo	-12035
▁sugilanon	-12036
▁sumalakay	-12037
▁sumasamba	-12038
▁sumasapit	-12039
▁tanghalin	-12040
▁tangkilik	-12041
▁tatandaan	-12042
▁tinalupan	-12043
▁tinatapos	-12044
▁tinubuang	-12045
▁tumakbong	-12046
▁tumalikod	-12047
▁tumatabas	-12048
▁tumatakas	-12049
▁tumitibok	-12050
▁winalisan	-12051
ahalukipkip	-12052
atanikalang	-12053
ihinayangan	-12054
ngingitngit	-12055
▁Balensuela	-12056
▁Bienvenido	-12057
▁Binongtoan	-12058
▁Dinaradiya	-12059
▁Dumalaplap	-12060
▁Dumalogdog	-12061
▁Ekspresyon	-12062
▁Epimetheus	-12063
▁Humadapnen	-12064
▁Kabisayaan	-12065
▁Kagandahan	-12066
▁Kagitingan	-12067
▁Kailokohan	-12068
▁Kapampanga	-12069
▁Karunungan	-12070
▁Kasaysayan	-12071
▁Katamtaman	-12072
▁Livunganen	-12073
▁Lumulutang	-12074
▁Magbabalik	-12075
▁Magbibigay	-12076
▁Maggagatas	-12077
▁Magkakapit	-12078
▁Mahalagang	-12079
▁Makarating	-12080
▁Maningning	-12081
▁Mapayapang	-12082
▁Maratectec	-12083
▁Nabilanggo	-12084
▁Naghahanap	-12085
▁Nagkakaisa	-12086
▁Nagpumilit	-12087
▁Nagtawanan	-12088
▁Nahihiyang	-12089
▁Nakarating	-12090
▁Namayagpag	-12091
▁Naramdaman	-12092
▁Pagsasalin	-12093
▁Pangavukad	-12094
▁Panginoong	-12095
▁Pinalangga	-12096
▁Pinamunuan	-12097
▁Polidiktis	-12098
▁Prometheus	-12099
▁Rinamentaw	-12100
▁Sansinukob	-12101
▁Sapilitang	-12102
▁Sasabihing	-12103
▁Silanganin	-12104
▁Sinimulang	-12105
▁Talagsahon	-12106
▁babasaging	-12107
▁bibilangin	-12108
▁biniyayaan	-12109
▁bukambibig	-12110
▁bumabagsak	-12111
▁bumabalong	-12112
▁dinaraanan	-12113
▁dinaramdam	-12114
▁dumalagang	-12115
▁durungawan	-12116
▁eksorsismo	-12117
▁elementong	-12118
▁engkantong	-12119
▁episodyong	-12120
▁gugustuhin	-12121
▁hahahahaha	-12122
▁hahalakhak	-12123
▁hanapbuhay	-12124
▁ibinabalik	-12125
▁ibinalibag	-12126
▁ikabubuhay	-12127
▁ikinagalit	-12128
▁ikinamatay	-12129
▁ikinuwento	-12130
▁inaakalang	-12131
▁industriya	-12132
▁inihahatid	-12133
▁inilalagay	-12134
▁ipahiwatig	-12135
▁ipinaghele	-12136
▁ipinahayag	-12137
▁ipinakasal	-12138
▁ipinamalas	-12139
▁ipinangako	-12140
▁ispiritung	-12141
▁kababayang	-12142
▁kabinataan	-12143
▁kagalingan	-12144
▁kahihintay	-12145
▁kahiwagaan	-12146
▁kakanyahan	-12147
▁kakaunting	-12148
▁kalabasang	-12149
▁kaligtasan	-12150
▁kalimitang	-12151
▁kamatayang	-12152
▁kasabihang	-12153
▁kasarinlan	-12154
▁kasiyahang	-12155
▁kastilaloy	-12156
▁kasukdulan	-12157
▁katangahan	-12158
▁katanyagan	-12159
▁katapatang	-12160
▁katapusang	-12161
▁katatayong	-12162
▁katotohana	-12163
▁katunayang	-12164
▁kimmatuday	-12165
▁kinakitaan	-12166
▁lalakbayin	-12167
▁lumalayong	-12168
▁lumilingon	-12169
▁lumulutang	-12170
▁mababangis	-12171
▁madagdagan	-12172
▁madamdamin	-12173
▁magbubukas	-12174
▁magbungkal	-12175
▁magdudulot	-12176
▁maghahanap	-12177
▁magigising	-12178
▁magkalapit	-12179
▁maglalahad	-12180
▁maglambing	-12181
▁magluluwal	-12182
▁magpahayag	-12183
▁magpatanda	-12184
▁magtatagal	-12185
▁mahahabang	-12186
▁makakakita	-12187
▁makakasama	-12188
▁makasarili	-12189
▁makatitiis	-12190
▁makatulong	-12191
▁makikitang	-12192
▁makikiusap	-12193
▁makinabang	-12194
▁malalagong	-12195
▁malikhaing	-12196
▁malinamnam	-12197
▁maliwanang	-12198
▁mananatili	-12199
▁manibalang	-12200
▁mapagtanto	-12201
▁mapayapang	-12202
▁marangyang	-12203
▁mararangal	-12204
▁mararangya	-12205
▁masasaktan	-12206
▁masilungan	-12207
▁matiyagang	-12208
▁mauunawaan	-12209
▁minamasdan	-12210
▁nagbubunga	-12211
▁nagbuntung	-12212
▁nagdarahop	-12213
▁nagdarasal	-12214
▁naghahanda	-12215
▁naghahayag	-12216
▁nagkadurog	-12217
▁nagkagayon	-12218
▁nagkakalat	-12219
▁nagkatotoo	-12220
▁naglalaban	-12221
▁naglathala	-12222
▁nagliwanag	-12223
▁nagmamaliw	-12224
▁nagpahayag	-12225
▁nagpamalas	-12226
▁nagpapalit	-12227
▁nagpatiuna	-12228
▁nagpupugay	-12229
▁nagsasayaw	-12230
▁nagsigawan	-12231
▁nagsipunta	-12232
▁nagsisipag	-12233
▁nagsisipan	-12234
▁nagtatagpo	-12235
▁nagtatanod	-12236
▁nagtutulog	-12237
▁nailathala	-12238
▁naisatitik	-12239
▁nakababata	-12240
▁nakabigkis	-12241
▁nakakaalam	-12242
▁nakaligtas	-12243
▁nakapanhik	-12244
▁nakaramdam	-12245
▁nakikilala	-12246
▁nakipagkas	-12247
▁nalalaglag	-12248
▁nalalamang	-12249
▁namamahala	-12250
▁namamayong	-12251
▁nanalangin	-12252
▁nandayuhan	-12253
▁nangabuhay	-12254
▁nangamatay	-12255
▁nangangako	-12256
▁naniningil	-12257
▁napakasama	-12258
▁nararahuyo	-12259
▁nasaksihan	-12260
▁natatakpan	-12261
▁pagbubukas	-12262
▁pagkagalit	-12263
▁pagkaganda	-12264
▁pagkagiliw	-12265
▁pagkalimot	-12266
▁pagkukunan	-12267
▁paglalakad	-12268
▁paglilinis	-12269
▁pagluluwal	-12270
▁pagmumukha	-12271
▁pagsasaing	-12272
▁pagsasanay	-12273
▁palakpakan	-12274
▁pamamasyal	-12275
▁panganorin	-12276
▁panggatong	-12277
▁paninirang	-12278
▁panliligaw	-12279
▁panlipunan	-12280
▁papanhikin	-12281
▁paparating	-12282
▁partikular	-12283
▁pasalaysay	-12284
▁patnubayan	-12285
▁perdigones	-12286
▁pinakaloob	-12287
▁pinapansin	-12288
▁sambayanan	-12289
▁sambuntong	-12290
▁sanlibutan	-12291
▁sapilitang	-12292
▁sasambahin	-12293
▁sinasambit	-12294
▁sinindihan	-12295
▁sinusundan	-12296
▁sumalangit	-12297
▁sumalubong	-12298
▁tagapamuno	-12299
▁takipsilim	-12300
▁talinghaga	-12301
▁tanggulang	-12302
▁tanghaling	-12303
▁tanikalang	-12304
▁tataglayin	-12305
▁telebisyon	-12306
▁tinalunton	-12307
▁tiwangwang	-12308
▁tumangging	-12309
▁tumatangis	-12310
▁tumutugtog	-12311
▁tumutulong	-12312
▁tunggalian	-12313
▁tungkuling	-12314
............	-12315
aniniwalaang	-12316
▁Christopher	-12317
▁Dambuhalang	-12318
▁Ipahintulot	-12319
▁Ipinagbilin	-12320
▁Itinatanong	-12321
▁Kabayanihan	-12322
▁Kabungsuwan	-12323
▁Kasukdulang	-12324
▁Katagalugan	-12325
▁Katotohanan	-12326
▁Katungkulan	-12327
▁Maglalakbay	-12328
▁Magpapakita	-12329
▁Magtatanong	-12330
▁Mahihikayat	-12331
▁Makasalanan	-12332
▁Naghihintay	-12333
▁Nagmumurang	-12334
▁Nagpakilala	-12335
▁Nagtakbuhan	-12336
▁Nananawagan	-12337
▁Natatandaan	-12338
▁Panchantara	-12339
▁Pingpinggan	-12340
▁Sagamantika	-12341
▁Sinagmaling	-12342
▁Sinasalamin	-12343
▁Sitsiritsit	-12344
▁Tinatawagan	-12345
▁alingawngaw	-12346
▁bilangguang	-12347
▁ekspresyong	-12348
▁estranghero	-12349
▁ginagalawan	-12350
▁ginatipigan	-12351
▁hinahagupit	-12352
▁hinahangaan	-12353
▁ikaliligtas	-12354
▁ikinabahala	-12355
▁ikinahihiya	-12356
▁ipinakilala	-12357
▁isinalaysay	-12358
▁kapahamakan	-12359
▁karagdagang	-12360
▁katiwasayan	-12361
▁kaygagaslaw	-12362
▁kaylalamyos	-12363
▁lapastangan	-12364
▁maginhawang	-12365
▁magkakadugo	-12366
▁magkakasama	-12367
▁maitutulong	-12368
▁makababalik	-12369
▁makagulapay	-12370
▁makakalaban	-12371
▁makalimutan	-12372
▁makapagsabi	-12373
▁mananalamin	-12374
▁manghihimig	-12375
▁maninirahan	-12376
▁manlalakbay	-12377
▁mapagpalang	-12378
▁mapapalapit	-12379
▁mapapasaiyo	-12380
▁maparusahan	-12381
▁masisilayan	-12382
▁mataginting	-12383
▁misyonerong	-12384
▁nagkaganoon	-12385
▁nagkaibigan	-12386
▁naglilingas	-12387
▁nagmamadali	-12388
▁nagngangang	-12389
▁nagpapakita	-12390
▁nagpatulong	-12391
▁nagsusuklay	-12392
▁nagtatampok	-12393
▁nakahihigit	-12394
▁nakalilimot	-12395
▁nakapagtago	-12396
▁nalilimutan	-12397
▁namamanglaw	-12398
▁namimingwit	-12399
▁namiminsala	-12400
▁namumungang	-12401
▁nangangamba	-12402
▁nangingibig	-12403
▁napakakisig	-12404
▁napakatanda	-12405
▁napaligiran	-12406
▁nasisiyahan	-12407
▁nilalanghap	-12408
▁pagbabahagi	-12409
▁paghihintay	-12410
▁pagkadakila	-12411
▁pagkakasara	-12412
▁pagkakayari	-12413
▁pagkamangha	-12414
▁paglilibang	-12415
▁paglilibing	-12416
▁paglilinang	-12417
▁pagmamasdan	-12418
▁pagnanasang	-12419
▁pagsasamang	-12420
▁pagsasarili	-12421
▁pagtitipong	-12422
▁pagtitiyaga	-12423
▁pakaiisipin	-12424
▁pakikidigma	-12425
▁pananagutan	-12426
▁pananalakay	-12427
▁paralelismo	-12428
▁pinagbigyan	-12429
▁pinagbuhata	-12430
▁pinagtaling	-12431
▁pinakaunang	-12432
▁pinakawalan	-12433
▁pinaligiran	-12434
▁pinangalang	-12435
▁pinapalitan	-12436
▁propesyonal	-12437
▁sinapupunan	-12438
▁sinasagisag	-12439
▁sinunggaban	-12440
▁sumasagisag	-12441
▁tagapagmana	-12442
▁tangkilikan	-12443
▁tatangkilik	-12444
▁tinatahanan	-12445
▁tinatalakay	-12446
▁tumatanggap	-12447
Magpupumiglas	-12448
▁Binabantayan	-12449
▁Bulubundukin	-12450
▁Ikinikompisa	-12451
▁Ipinalalagay	-12452
▁Ipinaliwanag	-12453
▁Kakalahating	-12454
▁Maghahabulan	-12455
▁Magmamakaawa	-12456
▁Mapangarapin	-12457
▁Mapapabilang	-12458
▁Matrimonyong	-12459
▁Minangondaya	-12460
▁Nararamdaman	-12461
▁Pinangpangan	-12462
▁engkantadong	-12463
▁himpapawirin	-12464
▁humahalakhak	-12465
▁ikagiginhawa	-12466
▁impluwensiya	-12467
▁ipakahulugan	-12468
▁ipinaliwanag	-12469
▁kababalaghan	-12470
▁kalalakihang	-12471
▁kalingkingan	-12472
▁kamangmangan	-12473
▁kaparusahang	-12474
▁kasangkapang	-12475
▁labingwalong	-12476
▁magkakabalat	-12477
▁magkasupling	-12478
▁magmamahalan	-12479
▁magpakasakit	-12480
▁magsusupling	-12481
▁mahahalagang	-12482
▁maintindihan	-12483
▁makabuluhang	-12484
▁makagagaling	-12485
▁makahulugang	-12486
▁makakarating	-12487
▁makapaniwala	-12488
▁mamamanhikan	-12489
▁manggagaling	-12490
▁mapaglabanan	-12491
▁mapapantayan	-12492
▁maratangtang	-12493
▁matatalinong	-12494
▁naghihiwalay	-12495
▁nagkakanlong	-12496
▁nagkakasundo	-12497
▁naglalarawan	-12498
▁nagliliparan	-12499
▁nagmakaawang	-12500
▁nagpapasigla	-12501
▁nagpasalamat	-12502
▁nagpatingkad	-12503
▁nagsusumpaan	-12504
▁nagtatrabaho	-12505
▁nahintakutan	-12506
▁nakababatang	-12507
▁nakabaligtad	-12508
▁nakakatulong	-12509
▁nakasalubong	-12510
▁nakatutulong	-12511
▁nananalangin	-12512
▁nangakaraang	-12513
▁nangangasiwa	-12514
▁nanginginain	-12515
▁nasisiyahang	-12516
▁pagkabusabos	-12517
▁pagkakahawig	-12518
▁pagkakasundo	-12519
▁pagkakatulog	-12520
▁pagliligawan	-12521
▁pagmamakaawa	-12522
▁pagpapakasal	-12523
▁pagpapatuloy	-12524
▁pagsasamahin	-12525
▁pananaliksik	-12526
▁pananalitang	-12527
▁panatilihing	-12528
▁pangangalaga	-12529
▁pangingitlog	-12530
▁paniniwalang	-12531
▁patalinghaga	-12532
▁pinaghiwalay	-12533
▁pinagmumulan	-12534
▁pinagtawanan	-12535
▁sibilisasyon	-12536
▁tinatangisan	-12537
ipagtalastasan	-12538
▁Hahahahahahah	-12539
▁Magtatampisaw	-12540
▁Mapapangasawa	-12541
▁Nagmamadaling	-12542
▁Pinakamaganda	-12543
▁kababalaghang	-12544
▁kakailanganin	-12545
▁labindalawang	-12546
▁magkakapantay	-12547
▁maipaghiganti	-12548
▁makapagsalita	-12549
▁mangangalakal	-12550
▁matalinhagang	-12551
▁naghalinhinan	-12552
▁naghihinagpis	-12553
▁nagkikislapan	-12554
▁naglalakihang	-12555
▁nagpapagunita	-12556
▁nagpapakilala	-12557
▁nagtatakbuhan	-12558
▁nakapagsalita	-12559
▁nakapagtataka	-12560
▁napanaginipan	-12561
▁paghihinagpis	-12562
▁pagkakatapong	-12563
▁pagsasaliksik	-12564
▁pampanitikang	-12565
▁pangangatawan	-12566
▁pinagmamasdan	-12567
▁pinakamalakas	-12568
▁pinarurusahan	-12569
▁pinatutunayan	-12570
▁sangmaliwanag	-12571
▁tagapagparusa	-12572
▁tagapamagitan	-12573
▁umalingawngaw	-12574
▁Intempsychosis	-12575
▁Nagmamatandang	-12576
▁ipagsanggalang	-12577
▁kinahihinatnan	-12578
▁kinatatakutang	-12579
▁magpakailanman	-12580
▁mahihintakutan	-12581
▁maisakatuparan	-12582
▁makatotohanang	-12583
▁mapagbibilihan	-12584
▁nagngingitngit	-12585
▁nagsisipaglaro	-12586
▁pagmamalasakit	-12587
▁pagpapakasakit	-12588
▁pagpapasalamat	-12589
▁pahihintulutan	-12590
▁pangkalinangan	-12591
▁pinakamagaling	-12592
▁pinaniniwalaan	-12593
▁umaalingawngaw	-12594
▁Makapangyarihan	-12595
▁Nagsisipanlagas	-12596
▁karakterisasyon	-12597
▁makipagkaibigan	-12598
▁pagkakakilanlan	-12599
▁pagkakawanggawa	-12600
▁pagpapahalagang	-12601
▁pinaniniwalaang	-12602
ggg	-12603
Asal	-12604
Bacn	-12605
Daig	-12606
Isus	-12607
aakl	-12608
berg	-12609
ctis	-12610
dyed	-12611
iagn	-12612
ildr	-12613
kals	-12614
luoy	-12615
susi	-12616
trod	-12617
▁10:	-12618
▁12,	-12619
▁AAA	-12620
▁Bea	-12621
▁TAO	-12622
▁TUM	-12623
▁awd	-12624
▁for	-12625
▁tie	-12626
0,000	-12627
AHHHH	-12628
AKILA	-12629
ARILA	-12630
Abril	-12631
Asawa	-12632
Barit	-12633
Bikol	-12634
Daing	-12635
Ginoo	-12636
Kakal	-12637
Ninik	-12638
Pinup	-12639
Pokus	-12640
ULING	-12641
UMANG	-12642
Ugang	-12643
amuhi	-12644
atras	-12645
aytay	-12646
bunyi	-12647
eengg	-12648
eidel	-12649
eings	-12650
erico	-12651
ibugh	-12652
idikd	-12653
iipun	-12654
ispos	-12655
kiwal	-12656
okras	-12657
older	-12658
ombra	-12659
onale	-12660
onsib	-12661
pigta	-12662
senio	-12663
simin	-12664
splas	-12665
sumas	-12666
tubre	-12667
uksok	-12668
uskos	-12669
uumit	-12670
ymple	-12671
▁Bunb	-12672
▁Cuad	-12673
▁Deat	-12674
▁Font	-12675
▁Garc	-12676
▁Ingg	-12677
▁Lomb	-12678
▁Lost	-12679
▁Shar	-12680
▁Shed	-12681
▁Slow	-12682
▁Tsok	-12683
▁VIII	-12684
▁buod	-12685
▁epos	-12686
▁gaml	-12687
▁hwag	-12688
▁imbi	-12689
▁ipau	-12690
▁istr	-12691
▁wild	-12692
Dinast	-12693
Halina	-12694
Introd	-12695
Isplas	-12696
LINGAN	-12697
Magkuk	-12698
Sumama	-12699
AUS	-12700
TUS	-12701
mpl	-12702
Araw	-12703
East	-12704
Mbls	-12705
USAN	-12706
ulpi	-12707
▁ULA	-12708
PUSAN	-12709
Pagod	-12710
encia	-12711
mpley	-12712
piing	-12713
ungua	-12714
▁Cast	-12715
▁FAUS	-12716
▁ULAP	-12717
Dumaan	-12718
Humayo	-12719
Tagist	-12720
YUMANG	-12721
aampon	-12722
ackals	-12723
adence	-12724
alungi	-12725
anhero	-12726
atngat	-12727
basket	-12728
ecargo	-12729
egends	-12730
egorio	-12731
ehidor	-12732
ekargo	-12733
enigst	-12734
eologo	-12735
erhero	-12736
geolog	-12737
ibilad	-12738
ibinhi	-12739
iburuk	-12740
iibayo	-12741
ikings	-12742
imarim	-12743
inhold	-12744
iphayo	-12745
iruray	-12746
itipid	-12747
iwisik	-12748
lalata	-12749
legend	-12750
lument	-12751
okonsy	-12752
onseho	-12753
oprano	-12754
ordill	-12755
pungas	-12756
sagwan	-12757
unguhi	-12758
urukya	-12759
yerong	-12760
▁Agham	-12761
▁BALAG	-12762
▁Beata	-12763
▁Bigay	-12764
▁Braso	-12765
▁Burig	-12766
▁Death	-12767
▁Ellen	-12768
▁Ester	-12769
▁Gutum	-12770
▁Hihig	-12771
▁ILING	-12772
▁Iluad	-12773
▁Kodla	-12774
▁Legas	-12775
▁Livet	-12776
▁Mileg	-12777
▁Mlkss	-12778
▁Paete	-12779
▁Pokus	-12780
▁Sakop	-12781
▁Simal	-12782
▁Tsino	-12783
▁Ugang	-12784
▁Venus	-12785
▁aalsa	-12786
▁agham	-12787
▁ambon	-12788
▁awdia	-12789
▁beles	-12790
▁bikol	-12791
▁dapyo	-12792
▁derib	-12793
▁eeeng	-12794
▁gulod	-12795
▁iigsi	-12796
▁imbit	-12797
▁kunwa	-12798
▁kusim	-12799
BIG	-12800
IBIG	-12801
Venus	-12802
IBIGAN	-12803
susing	-12804
▁Bunso	-12805
▁laksa	-12806
▁opini	-12807
▁optim	-12808
▁prosp	-12809
▁ritmo	-12810
▁siyud	-12811
▁sukli	-12812
▁tahip	-12813
▁tenga	-12814
▁upuan	-12815
▁voice	-12816
▁yakal	-12817
Eastern	-12818
Ginanap	-12819
Humanda	-12820
Iniibig	-12821
Ipakita	-12822
Jackals	-12823
Konseho	-12824
Magkukw	-12825
Magmula	-12826
Makinig	-12827
Makulay	-12828
Nakaupo	-12829
Papaano	-12830
Patayin	-12831
Sisilip	-12832
Soprano	-12833
Tatango	-12834
YUMANGG	-12835
aakayin	-12836
alimsim	-12837
amimili	-12838
apareha	-12839
apusing	-12840
arlisle	-12841
busilak	-12842
dangkal	-12843
dionale	-12844
endulum	-12845
enteryo	-12846
ericano	-12847
ernando	-12848
gagatas	-12849
garinga	-12850
giliwan	-12851
hanggan	-12852
idikdik	-12853
iimbita	-12854
intidor	-12855
lanueva	-12856
makinis	-12857
okrasya	-12858
otensya	-12859
pawisan	-12860
ubunyag	-12861
udencia	-12862
ugbugin	-12863
utukain	-12864
uumapaw	-12865
yalismo	-12866
ymplega	-12867
▁Aaluin	-12868
▁Aatras	-12869
▁Acacio	-12870
▁Alulod	-12871
▁BALAGT	-12872
▁Brahos	-12873
▁Bunbut	-12874
▁DAKILA	-12875
▁Duryan	-12876
▁Estilo	-12877
▁Glorya	-12878
▁Heidel	-12879
▁Imahen	-12880
▁Inggit	-12881
▁Intsik	-12882
▁Isplas	-12883
▁Iwalay	-12884
▁Iwasan	-12885
▁Jeriko	-12886
▁Kiming	-12887
▁LAHING	-12888
▁Laguna	-12889
▁Madale	-12890
▁Maigsi	-12891
▁Naguas	-12892
▁Nanlil	-12893
▁Pebong	-12894
▁Posaka	-12895
▁Poseid	-12896
▁Shedlo	-12897
▁Sinigw	-12898
▁TAUHAN	-12899
▁Burub	-12900
Jupiter	-12901
hikaing	-12902
▁TUMING	-12903
▁Taghuy	-12904
▁Turina	-12905
▁Umirit	-12906
▁Utasin	-12907
▁abubot	-12908
▁ambato	-12909
▁anting	-12910
▁bagsak	-12911
▁bansag	-12912
▁bantad	-12913
▁beings	-12914
▁daidid	-12915
▁daidig	-12916
▁dispos	-12917
▁doonga	-12918
▁empley	-12919
▁folder	-12920
▁gayuma	-12921
▁gimbal	-12922
▁ikasus	-12923
▁ikukuw	-12924
▁ipauub	-12925
▁istamb	-12926
▁iuukol	-12927
▁kuneho	-12928
▁kusina	-12929
▁limbag	-12930
▁linsil	-12931
▁maapoy	-12932
▁magiik	-12933
▁mahadl	-12934
▁maiden	-12935
▁matimt	-12936
▁naaagn	-12937
▁nasams	-12938
▁pamugb	-12939
▁pitasi	-12940
▁proses	-12941
▁siniil	-12942
▁sintur	-12943
▁suntok	-12944
▁tahian	-12945
▁telang	-12946
▁tingal	-12947
▁transp	-12948
▁umapaw	-12949
▁umiral	-12950
ATAPUSAN	-12951
Bacnotan	-12952
Baritono	-12953
Crisanto	-12954
GALINGAN	-12955
Garalgal	-12956
Humihing	-12957
Makikita	-12958
Nakaamoy	-12959
Nangalau	-12960
Pagbukas	-12961
Papanhik	-12962
Saksakin	-12963
Susundin	-12964
Titindig	-12965
agbabago	-12966
agubilin	-12967
akamalan	-12968
alagpaka	-12969
asunduan	-12970
atngatin	-12971
enerhiya	-12972
esponsib	-12973
garalgal	-12974
ibughuin	-12975
ihasnang	-12976
ikakaila	-12977
ikinikin	-12978
immortal	-12979
inatngat	-12980
ipithaya	-12981
irimarim	-12982
isisihan	-12983
itigatig	-12984
iwisikan	-12985
kumulang	-12986
legendus	-12987
makalawa	-12988
malayang	-12989
marangal	-12990
orehidor	-12991
pabigkas	-12992
pabulang	-12993
papakain	-12994
salimuot	-12995
sandaang	-12996
sinlapad	-12997
tahasang	-12998
uhulihan	-12999
oops	-13000
oooops	-13001
tumpak	-13002
Ooooops	-13003
aagawan	-13004
▁Kumpas	-13005
▁kapait	-13006
▁lingon	-13007
▁simpok	-13008
▁tambol	-13009
urukyaan	-13010
uumanhin	-13011
wentuhan	-13012
▁Amtalan	-13013
▁Arsenio	-13014
▁Beywang	-13015
▁Binakod	-13016
▁Blument	-13017
▁Bunutin	-13018
▁Cordill	-13019
▁Didilim	-13020
▁Dudulog	-13021
▁Duwindi	-13022
▁Gambong	-13023
▁Gamitin	-13024
▁Garugay	-13025
▁Gitnang	-13026
▁Gulanit	-13027
▁Harapin	-13028
▁Himutok	-13029
▁Hungkag	-13030
▁Hutukin	-13031
▁Idinumi	-13032
▁Ilimbag	-13033
▁Ilocano	-13034
▁Ilonggo	-13035
▁Itatayo	-13036
▁Kakuris	-13037
▁Kalaing	-13038
▁Kamalia	-13039
▁Kodaran	-13040
▁Kulubot	-13041
▁Lambayo	-13042
▁Legaspi	-13043
▁Linayag	-13044
▁Linusob	-13045
▁Manggob	-13046
▁Manggub	-13047
▁Masanay	-13048
▁Matutum	-13049
▁Mauugat	-13050
▁Nadikit	-13051
▁Nagdamp	-13052
▁Nagkisl	-13053
▁Nakasis	-13054
▁Nanduon	-13055
▁Nanghih	-13056
▁Natanim	-13057
▁Nililok	-13058
▁Nunukal	-13059
▁Pagpili	-13060
▁Pagwika	-13061
▁Palahaw	-13062
▁Pebrero	-13063
▁Pistang	-13064
▁Pulangi	-13065
▁Solomon	-13066
▁Sumikdo	-13067
▁Talaand	-13068
▁Tapatin	-13069
▁Tibayan	-13070
▁Tiruray	-13071
▁Titindi	-13072
▁Umaawit	-13073
▁Yumukod	-13074
▁antayan	-13075
▁atungal	-13076
▁bagting	-13077
▁basehan	-13078
▁biglaan	-13079
▁bubuuin	-13080
▁bulaang	-13081
▁bumigay	-13082
▁dadalaw	-13083
▁dadanak	-13084
▁daididg	-13085
▁damasko	-13086
▁daraing	-13087
▁dinihon	-13088
▁duguang	-13089
▁dumagsa	-13090
▁durugin	-13091
▁gamitan	-13092
▁gamutin	-13093
▁ganggab	-13094
▁ganggak	-13095
▁gayakan	-13096
▁gulanit	-13097
▁hahagik	-13098
▁heologo	-13099
bukas	-13100
tuhog	-13101
▁Barb	-13102
▁Melu	-13103
Babago	-13104
abayaa	-13105
abulag	-13106
apyuan	-13107
awasak	-13108
eryoso	-13109
ipisil	-13110
mabuti	-13111
uhurno	-13112
uyukod	-13113
▁Baror	-13114
▁Kelan	-13115
▁Sisiw	-13116
▁Sukat	-13117
▁Surot	-13118
▁Tribo	-13119
▁radyo	-13120
▁tubis	-13121
Seryoso	-13122
abanaag	-13123
adlakan	-13124
akataon	-13125
ilagpak	-13126
impleng	-13127
▁Hambog	-13128
▁Kawawa	-13129
▁Langka	-13130
Maragtas	-13131
asakupan	-13132
atilihin	-13133
atubalan	-13134
naisalin	-13135
▁Barbero	-13136
▁Baroraw	-13137
▁Manipis	-13138
▁Umiiyak	-13139
▁binulag	-13140
▁gigante	-13141
▁hidwaan	-13142
▁hinaing	-13143
▁hinigop	-13144
▁hinimok	-13145
▁hiraman	-13146
▁iipunin	-13147
▁ikaanim	-13148
▁ikintal	-13149
▁inampon	-13150
▁iniusod	-13151
▁inusisa	-13152
▁inuusig	-13153
▁ipaagaw	-13154
▁ipaghih	-13155
▁ipanalo	-13156
▁istakat	-13157
▁kapaita	-13158
▁kasosyo	-13159
▁kaybuti	-13160
▁kaypala	-13161
▁kinabib	-13162
▁kinalug	-13163
▁kinamum	-13164
▁lalawig	-13165
▁librong	-13166
▁lilinga	-13167
▁lumagok	-13168
▁maalwan	-13169
▁magwika	-13170
▁malagak	-13171
▁mamulam	-13172
▁manipis	-13173
▁manunuk	-13174
▁mapipig	-13175
▁mapugto	-13176
▁masyado	-13177
▁maysusi	-13178
▁mesiyas	-13179
▁milagro	-13180
▁nagnais	-13181
▁naitala	-13182
▁nalangk	-13183
▁nandoon	-13184
▁napugto	-13185
▁napupus	-13186
▁nilakha	-13187
▁nunukal	-13188
▁opinion	-13189
▁palasak	-13190
▁paliguy	-13191
▁pangmad	-13192
▁paparon	-13193
▁parasko	-13194
▁pigilan	-13195
▁pigtang	-13196
▁pinaaas	-13197
▁pindong	-13198
▁pistang	-13199
eze	-13200
bate	-13201
llll	-13202
rite	-13203
tuos	-13204
yido	-13205
aalma	-13206
aplos	-13207
avite	-13208
ctuos	-13209
himig	-13210
ihuma	-13211
iskap	-13212
lllll	-13213
matat	-13214
reeze	-13215
uport	-13216
wasto	-13217
▁Birh	-13218
▁Budh	-13219
▁Stad	-13220
▁Wond	-13221
▁adob	-13222
▁budh	-13223
▁late	-13224
▁purg	-13225
▁ugoy	-13226
arison	-13227
ctuoso	-13228
elyido	-13229
mahina	-13230
urrite	-13231
▁Barun	-13232
▁adobe	-13233
▁aturg	-13234
▁ayaon	-13235
▁gahis	-13236
▁tahid	-13237
Sasayaw	-13238
Tutungo	-13239
Tutunog	-13240
abuklod	-13241
iskisan	-13242
▁Cavite	-13243
▁Freeze	-13244
▁Itangi	-13245
▁Wonder	-13246
▁nabaon	-13247
▁panser	-13248
▁piitin	-13249
ababatid	-13250
aglilihi	-13251
apanghim	-13252
ektibong	-13253
mahabang	-13254
mahalang	-13255
matalino	-13256
matatamo	-13257
ructuoso	-13258
▁Birheng	-13259
▁Budhist	-13260
▁Garison	-13261
▁Makapup	-13262
▁Masbate	-13263
▁Palaris	-13264
▁Stadium	-13265
▁budhing	-13266
▁currite	-13267
▁kinalos	-13268
▁matalos	-13269
▁palabab	-13270
▁platero	-13271
▁popokus	-13272
▁putakti	-13273
▁recargo	-13274
▁rekargo	-13275
▁sintaha	-13276
▁sisipot	-13277
▁sisirit	-13278
▁sugpuin	-13279
▁sumakop	-13280
▁sumikdo	-13281
▁sumunud	-13282
▁tahakin	-13283
▁tatlump	-13284
▁tatlung	-13285
▁tipunin	-13286
▁tubuhan	-13287
▁tugunin	-13288
▁tutupin	-13289
▁umiikli	-13290
▁unawain	-13291
▁yumurak	-13292
Bugtungan	-13293
Hahagurin	-13294
Ipakikita	-13295
LAKAMBINI	-13296
Magsikain	-13297
Nagdadala	-13298
Nakalitaw	-13299
usli	-13300
ayber	-13301
Dakilang	-13302
libingan	-13303
▁Silanga	-13304
▁Umiikot	-13305
▁drayber	-13306
▁nakayay	-13307
▁pasanin	-13308
▁pinasis	-13309
Nakangiti	-13310
Pinuputol	-13311
Sasabayan	-13312
Sasagutin	-13313
Tagalogan	-13314
aanyayang	-13315
ababahala	-13316
adaluhong	-13317
agampanan	-13318
agandahin	-13319
agkamukha	-13320
agkandili	-13321
agtitikim	-13322
ahandusay	-13323
ahinhinan	-13324
akasakali	-13325
akipsilim	-13326
aligsahan	-13327
aliligaya	-13328
alipadpad	-13329
alubungin	-13330
amasyalan	-13331
amayagpag	-13332
ambabalot	-13333
anlilisik	-13334
apamimili	-13335
arituhing	-13336
asadlakan	-13337
atambakan	-13338
atubiling	-13339
bubuwisit	-13340
eengganyo	-13341
ementeryo	-13342
gagamitin	-13343
geologist	-13344
hihilahin	-13345
hinyerong	-13346
ibinyagan	-13347
igantihan	-13348
iinggitan	-13349
illanueva	-13350
inirahang	-13351
inungkahi	-13352
isitindig	-13353
istorikal	-13354
itilamsik	-13355
lilingkod	-13356
lumilitaw	-13357
maharlika	-13358
matagpuan	-13359
matandang	-13360
nagbabago	-13361
papayaman	-13362
talinhaga	-13363
tinatawag	-13364
ulastugan	-13365
utingting	-13366
uwentuhan	-13367
yonalismo	-13368
▁Aabangan	-13369
▁Abadilla	-13370
▁Alulusan	-13371
▁Alunsina	-13372
▁Audencia	-13373
▁BALAGTAS	-13374
▁Balahibo	-13375
▁Bicolano	-13376
▁Biyayang	-13377
▁Catindig	-13378
▁Crisanto	-13379
▁Cuadrado	-13380
▁Dayalogo	-13381
▁Dekalogo	-13382
▁Fernando	-13383
▁Gambatut	-13384
▁Gapusing	-13385
▁Hinaplos	-13386
▁Idionale	-13387
▁Ikasiyam	-13388
▁Inaninaw	-13389
▁Inihanda	-13390
▁Inihatid	-13391
▁Inimbita	-13392
▁Itatapon	-13393
▁Itinigil	-13394
▁Kababata	-13395
▁Kahubdan	-13396
▁Kailanga	-13397
▁Katwiran	-13398
▁Kawlaman	-13399
▁props	-13400
kunwari	-13401
▁kawani	-13402
▁maihah	-13403
▁nanlum	-13404
▁santak	-13405
▁utopya	-13406
ipigilin	-13407
panibago	-13408
▁Pakiwal	-13409
▁Pranses	-13410
▁Tawirin	-13411
▁Tungkod	-13412
▁balasik	-13413
▁karakar	-13414
▁konting	-13415
▁lamping	-13416
▁lunurin	-13417
▁maanong	-13418
▁naggala	-13419
▁nagging	-13420
▁nanlata	-13421
▁nanlumo	-13422
▁napaaga	-13423
▁napaupo	-13424
▁santakr	-13425
▁uusbong	-13426
Tatalikod	-13427
▁Itinusok	-13428
▁Kayumian	-13429
▁Kilanlin	-13430
▁Kinamkam	-13431
▁Koenigst	-13432
▁Kristyan	-13433
▁Kulimlim	-13434
▁Kumpisal	-13435
▁Lagabaan	-13436
▁Limagpas	-13437
▁Lolitang	-13438
▁Lollipop	-13439
▁Lumindol	-13440
▁Lumipana	-13441
▁Mabibigo	-13442
▁Magigiba	-13443
▁Malamlam	-13444
▁Malayari	-13445
▁Mandayan	-13446
▁Matanong	-13447
▁Naabutan	-13448
▁Nabigong	-13449
▁Nahihiya	-13450
▁Nakintal	-13451
▁Natangay	-13452
▁Ngumanga	-13453
▁Ninitang	-13454
▁Pagbalik	-13455
▁Paglabas	-13456
▁Pakikuha	-13457
▁Palamuti	-13458
▁Panghele	-13459
▁Panginay	-13460
▁Pasyahan	-13461
▁Pinabago	-13462
▁Pinagmas	-13463
▁Pinagsas	-13464
▁Pinamili	-13465
▁Pinipili	-13466
▁Problema	-13467
▁Reinhold	-13468
▁Sabihing	-13469
▁Sambahin	-13470
▁Siblawan	-13471
▁Simpleng	-13472
▁Solomong	-13473
▁Sumulpot	-13474
▁TUMINGIN	-13475
▁Tagbusan	-13476
▁Tahanang	-13477
▁Tinikman	-13478
▁Tsinelas	-13479
▁Turingan	-13480
▁Villalon	-13481
▁alpabeto	-13482
▁alpombra	-13483
▁anyayang	-13484
▁babangon	-13485
▁bagsakan	-13486
▁baluktot	-13487
▁bibitaya	-13488
▁bikolano	-13489
▁bumulwak	-13490
▁dinadaya	-13491
▁dungawan	-13492
▁gaaanong	-13493
▁gamlayan	-13494
▁ginigiba	-13495
▁ginigiik	-13496
▁gisingin	-13497
▁gumigiik	-13498
▁guwapong	-13499
▁Pulu	-13500
▁hidi	-13501
▁posp	-13502
▁post	-13503
Panday	-13504
▁Putot	-13505
▁Sibil	-13506
▁lilib	-13507
alungit	-13508
apuwing	-13509
▁Kadera	-13510
▁Muntik	-13511
▁Sungay	-13512
▁aanhin	-13513
▁aankin	-13514
▁aaruga	-13515
▁bantog	-13516
▁garote	-13517
▁habaan	-13518
▁hatiin	-13519
▁hitana	-13520
▁nanday	-13521
aglaruan	-13522
iglaanan	-13523
▁Iginawa	-13524
▁Lombayo	-13525
▁Pahirin	-13526
▁Putukan	-13527
▁Putulan	-13528
▁Sibulan	-13529
▁Taraban	-13530
▁Umuwing	-13531
▁aksyong	-13532
▁banyaga	-13533
▁hititin	-13534
▁hulihan	-13535
▁ilalaot	-13536
▁inaruga	-13537
▁inipong	-13538
▁isusuot	-13539
▁itampok	-13540
▁itinaas	-13541
▁lilihis	-13542
▁lilikot	-13543
▁posporo	-13544
▁posteng	-13545
▁Bahaging	-13546
▁Bukiring	-13547
▁Gampanan	-13548
▁Malanday	-13549
▁Manobong	-13550
▁Nakahuli	-13551
▁Pagsipot	-13552
▁Palendag	-13553
▁Sumungaw	-13554
▁aankinin	-13555
▁alimasag	-13556
▁banyusan	-13557
▁bilugang	-13558
▁dinungaw	-13559
▁dumungaw	-13560
▁hagdanan	-13561
▁hihigang	-13562
▁himuking	-13563
▁hulihang	-13564
▁ibibilad	-13565
▁ihinagis	-13566
▁ikukuwit	-13567
▁inaninaw	-13568
▁inihalal	-13569
▁inihanap	-13570
▁ipagbans	-13571
▁ipalasap	-13572
▁ipinagpa	-13573
▁ipinakuk	-13574
▁ipininid	-13575
▁isasagot	-13576
▁isasaing	-13577
▁isasangk	-13578
▁isisipot	-13579
▁istakato	-13580
▁itatapon	-13581
▁ititikom	-13582
▁itutulad	-13583
▁itutulak	-13584
▁itutuloy	-13585
▁iwiwisik	-13586
▁kabinata	-13587
▁kabuhuan	-13588
▁kahabaan	-13589
▁kailanga	-13590
▁kaisahan	-13591
▁kaluskos	-13592
▁kamoteng	-13593
▁kapareha	-13594
▁kapuriha	-13595
▁kasuklam	-13596
▁kayayari	-13597
▁kaysarap	-13598
▁kilikili	-13599
AYS	-13600
AYAN	-13601
ance	-13602
ancy	-13603
ayua	-13604
erva	-13605
krip	-13606
orsy	-13607
ribu	-13608
▁112	-13609
▁DAY	-13610
▁VII	-13611
aharl	-13612
empre	-13613
pekto	-13614
pinda	-13615
ripis	-13616
ukdok	-13617
uusad	-13618
▁iism	-13619
▁nota	-13620
▁utal	-13621
abigin	-13622
agrado	-13623
apinda	-13624
enancy	-13625
espada	-13626
itinda	-13627
upasay	-13628
utumba	-13629
▁Saksi	-13630
▁Titil	-13631
▁Umism	-13632
▁dampi	-13633
▁dance	-13634
▁meron	-13635
▁pinda	-13636
▁umani	-13637
AYSAYAN	-13638
Masarap	-13639
Minerva	-13640
aharlik	-13641
akripis	-13642
ayukdok	-13643
busabos	-13644
iyempre	-13645
mabilis	-13646
palahil	-13647
palawak	-13648
paninda	-13649
umbrado	-13650
▁Humiga	-13651
▁Iskrip	-13652
▁Liveti	-13653
▁Nainip	-13654
▁datiha	-13655
▁epekto	-13656
▁ibenta	-13657
▁kakibu	-13658
▁pasiga	-13659
▁patani	-13660
▁trenta	-13661
Kayganda	-13662
ibitawan	-13663
marahang	-13664
orsyuhin	-13665
siyempre	-13666
▁DAYUHAN	-13667
▁Umismid	-13668
▁beywang	-13669
▁bulkang	-13670
▁kalayua	-13671
▁nagngit	-13672
▁naiinip	-13673
▁nalipol	-13674
▁tatanod	-13675
▁tenancy	-13676
▁tuhugin	-13677
Tatabigin	-13678
akripisyo	-13679
▁Bayaniha	-13680
▁Filipino	-13681
▁ampunang	-13682
▁iismiran	-13683
▁isinisiw	-13684
▁kulimlim	-13685
▁lalamlam	-13686
▁lalayuan	-13687
▁lilingon	-13688
▁limitado	-13689
▁lukbutan	-13690
▁lumingon	-13691
▁lusubing	-13692
▁maaanong	-13693
▁maabutan	-13694
▁madaanan	-13695
▁madapuan	-13696
▁magbilot	-13697
▁magkabab	-13698
▁maglayag	-13699
▁Huuu	-13700
espeto	-13701
iagnte	-13702
▁Huuuu	-13703
▁uusad	-13704
▁Europa	-13705
▁karosa	-13706
▁Binilot	-13707
▁Natutut	-13708
▁Niyakap	-13709
▁Patayin	-13710
▁dirikit	-13711
▁gulaman	-13712
▁hiagnte	-13713
▁pinabub	-13714
▁pinupug	-13715
▁respeto	-13716
▁Bubulong	-13717
▁hinihila	-13718
▁kaunlara	-13719
▁magtanaw	-13720
▁magtangi	-13721
▁maihinga	-13722
▁maiimpok	-13723
▁maikubli	-13724
▁maisaing	-13725
▁maisampa	-13726
▁maiwasan	-13727
▁makadama	-13728
▁makagiik	-13729
▁makarami	-13730
▁makatiis	-13731
▁makinahi	-13732
▁makintab	-13733
▁malasing	-13734
▁malayung	-13735
▁malumbay	-13736
▁mamangka	-13737
▁mamulaga	-13738
▁mapagpat	-13739
▁mapamili	-13740
▁mapamins	-13741
▁mapipigt	-13742
▁maringal	-13743
▁masungit	-13744
▁maulinig	-13745
▁mesitang	-13746
▁minabuti	-13747
▁naaagnas	-13748
▁nabibigo	-13749
▁nabigong	-13750
▁nabigyan	-13751
▁nagbunyi	-13752
▁nagkabuh	-13753
▁nagkubli	-13754
▁naglunoy	-13755
▁naguguan	-13756
▁nahalata	-13757
▁nahubdan	-13758
▁naipasya	-13759
▁naiwasan	-13760
▁nakahiga	-13761
▁nakatiis	-13762
▁nalaunan	-13763
▁naluluma	-13764
▁naluluoy	-13765
▁nanunuya	-13766
▁napahiga	-13767
▁napahuli	-13768
▁napatdan	-13769
▁napipita	-13770
▁napuputi	-13771
▁nasadlak	-13772
▁nasadsad	-13773
▁natuklas	-13774
▁nilakbay	-13775
▁nilalamb	-13776
▁nilalaro	-13777
▁nilaslas	-13778
▁nilingap	-13779
▁niloloko	-13780
▁pagawaan	-13781
▁pagwawag	-13782
▁paibabaw	-13783
▁pakainin	-13784
▁pakaliwa	-13785
▁palagian	-13786
▁palaging	-13787
▁palalaot	-13788
▁palihuma	-13789
▁pambansa	-13790
▁paniniil	-13791
▁panunuyo	-13792
▁papaalis	-13793
▁papangit	-13794
▁parirala	-13795
▁pataksil	-13796
▁patutung	-13797
▁pendulum	-13798
▁pinaluha	-13799
▁Tals	-13800
▁oper	-13801
▁turb	-13802
Manubo	-13803
Sasama	-13804
bingit	-13805
damong	-13806
radong	-13807
wadong	-13808
▁Naiiw	-13809
▁Talun	-13810
▁ilaan	-13811
▁maliv	-13812
abihasa	-13813
adarama	-13814
alupaan	-13815
asasama	-13816
ikaanim	-13817
uerrero	-13818
▁Ihanda	-13819
▁Mapagk	-13820
▁Sinait	-13821
▁Talaba	-13822
▁bingit	-13823
▁bubuga	-13824
▁dayuha	-13825
▁etnolo	-13826
▁iidlip	-13827
▁lakand	-13828
▁lumaon	-13829
▁sambal	-13830
▁turban	-13831
adwadong	-13832
▁Kagatin	-13833
▁Naiinis	-13834
▁Naiiwan	-13835
▁datnang	-13836
▁etnoloh	-13837
▁hitsong	-13838
▁idinara	-13839
▁maidlip	-13840
▁malivut	-13841
▁ngingit	-13842
▁operang	-13843
▁turuang	-13844
▁yuyukod	-13845
▁Bagobong	-13846
▁Guerrero	-13847
▁Herminig	-13848
▁Kinukuha	-13849
▁Magtigil	-13850
▁Mamihasa	-13851
▁Milegwas	-13852
▁Nakaabot	-13853
▁Nakausap	-13854
▁Natunton	-13855
▁Pinasama	-13856
▁Susundan	-13857
▁Talabang	-13858
▁hahawiin	-13859
▁idinilig	-13860
▁inaantay	-13861
▁kabuuang	-13862
▁katayuan	-13863
▁kumukuha	-13864
▁malivutu	-13865
▁nakukuha	-13866
▁papawiin	-13867
▁pinanday	-13868
▁pinupuri	-13869
▁pistahan	-13870
▁pumupuri	-13871
▁santaong	-13872
▁santribu	-13873
▁sasagupa	-13874
▁sayangin	-13875
▁simpanin	-13876
▁simsimin	-13877
▁sinarhan	-13878
▁sindilim	-13879
▁sinturon	-13880
▁sisinsay	-13881
▁siyensya	-13882
▁sumingit	-13883
▁sumubsob	-13884
▁tagaytay	-13885
▁taglagas	-13886
▁tampulan	-13887
▁tatlumpu	-13888
▁tinayuan	-13889
▁titiktak	-13890
▁tubugang	-13891
▁tunggali	-13892
▁turingan	-13893
▁umaantig	-13894
▁unawaing	-13895
▁winaglit	-13896
Bibigkasin	-13897
Hihintayin	-13898
Humihingal	-13899
pbl	-13900
Pbgl	-13901
chil	-13902
loni	-13903
abihi	-13904
alipi	-13905
chile	-13906
gusot	-13907
otion	-13908
sobis	-13909
tonio	-13910
▁trop	-13911
abosaw	-13912
aparam	-13913
atunaw	-13914
daanan	-13915
ecilio	-13916
impait	-13917
iyesta	-13918
lonius	-13919
uhukay	-13920
ukayin	-13921
▁Anion	-13922
▁Suban	-13923
▁Tunaw	-13924
▁alipi	-13925
▁kikil	-13926
▁latin	-13927
▁trope	-13928
Matamis	-13929
apagpat	-13930
asaatin	-13931
asterin	-13932
sobispo	-13933
ukluban	-13934
▁Lipdin	-13935
▁Napipi	-13936
▁Pineda	-13937
▁amuyin	-13938
▁baston	-13939
▁ikatlo	-13940
▁marumi	-13941
▁motion	-13942
▁sisihi	-13943
▁tingni	-13944
Matalino	-13945
Tagistis	-13946
arabosaw	-13947
atitiyak	-13948
ipiyesta	-13949
sasaatin	-13950
▁Antonio	-13951
▁Cecilio	-13952
▁Hinukay	-13953
▁Hukayin	-13954
▁Kamusta	-13955
▁Kulisap	-13956
▁Nilusob	-13957
▁Pinukaw	-13958
▁Tipunin	-13959
▁dinusta	-13960
▁humamak	-13961
▁kasariw	-13962
▁kinusot	-13963
▁lumapad	-13964
▁lumusot	-13965
▁matanto	-13966
▁naglihi	-13967
▁naparam	-13968
▁nasikil	-13969
▁sasariw	-13970
▁simpait	-13971
Natitiyak	-13972
amanchile	-13973
sisilbing	-13974
▁daantaon	-13975
▁hukluban	-13976
▁magluwat	-13977
▁nabantog	-13978
▁pagsuway	-13979
▁sasabihi	-13980
▁tropeong	-13981
Kakalungin	-13982
Magdudulot	-13983
Maghahamok	-13984
Magpipingk	-13985
Nakatingin	-13986
Nanlilisik	-13987
Napakasama	-13988
Pagbabalik	-13989
Pagbutihin	-13990
aatubiling	-13991
agtakbuhan	-13992
ahiningang	-13993
akamamahal	-13994
alilibutan	-13995
alinsangan	-13996
amasunurin	-13997
apagpalaya	-13998
apangdanan	-13999
▁Tigy	-14000
otesta	-14001
▁Hipong	-14002
▁napipi	-14003
kabataan	-14004
▁bigkasi	-14005
▁binubun	-14006
▁ginagar	-14007
▁namimil	-14008
▁palangg	-14009
▁pinatat	-14010
▁ugnayan	-14011
▁Ikasampu	-14012
▁Lansones	-14013
▁ginagaya	-14014
▁lalaging	-14015
▁mapuputi	-14016
▁masusump	-14017
▁nalaglag	-14018
▁namihasa	-14019
▁natitira	-14020
▁pinatubo	-14021
▁protesta	-14022
▁sinisimp	-14023
Papalakpak	-14024
aresponsib	-14025
geologists	-14026
inaasahang	-14027
ipitaganan	-14028
iregaluhan	-14029
isinasalin	-14030
kalahating	-14031
magkamukha	-14032
mangmangan	-14033
nagdudulot	-14034
onggaringa	-14035
papahalaga	-14036
unghininga	-14037
ustentuhan	-14038
uwalhating	-14039
▁Americano	-14040
▁Andromada	-14041
▁Anggaring	-14042
▁Bacayawan	-14043
▁Bagumbong	-14044
▁Bandilang	-14045
▁Barunugun	-14046
▁Binayaran	-14047
▁Binungkal	-14048
▁Bulalakaw	-14049
▁Castilang	-14050
▁Fructuoso	-14051
▁Gagamitin	-14052
▁Gambatutu	-14053
▁Ginantong	-14054
▁Ginugugol	-14055
▁Granadang	-14056
▁Habagatan	-14057
▁Hahabulin	-14058
▁Hihigitin	-14059
▁Hihilahin	-14060
▁Hinagupit	-14061
▁Hinahabol	-14062
▁Ibubulong	-14063
▁Ikinintal	-14064
▁Inalpasan	-14065
▁Inihampas	-14066
▁Ipakikita	-14067
▁Ipinagtab	-14068
▁Ipinasiya	-14069
▁Itatanong	-14070
▁KAYUMANGG	-14071
▁Kagandaha	-14072
▁Kalupitan	-14073
▁Kanlurang	-14074
▁Karamping	-14075
▁Koenigsth	-14076
▁Kristiyan	-14077
▁Kumulatey	-14078
▁LAKAMBINI	-14079
▁Lalawigan	-14080
▁Lambingan	-14081
▁Linayagon	-14082
▁Lumiliyag	-14083
▁Luwalhati	-14084
▁Magtiyaga	-14085
▁Makatunaw	-14086
▁Makokonsy	-14087
▁Mamahinga	-14088
▁Manlalaki	-14089
▁Manunubuk	-14090
▁Mapagtiis	-14091
▁Mapaunlad	-14092
▁Masasarap	-14093
▁Matutumba	-14094
▁Momongara	-14095
▁Nababatid	-14096
▁Nagbibiro	-14097
▁Nagdiwang	-14098
▁Nagdurusa	-14099
▁Pams	-14100
▁Sagr	-14101
Isauli	-14102
bibili	-14103
madali	-14104
▁Tikis	-14105
▁indul	-14106
▁labak	-14107
▁labor	-14108
Tumulad	-14109
bilihan	-14110
▁Bangka	-14111
▁Diwant	-14112
▁Tiktik	-14113
▁labinl	-14114
▁mambab	-14115
▁ranggo	-14116
alagiing	-14117
ananggal	-14118
athalang	-14119
salitain	-14120
▁Florent	-14121
▁Ibibili	-14122
▁Pahatid	-14123
▁Sagrada	-14124
▁Sangkap	-14125
▁bandana	-14126
▁banding	-14127
▁bilihan	-14128
▁bubukas	-14129
▁hikayat	-14130
▁induluh	-14131
▁nguming	-14132
▁sanlahi	-14133
angangako	-14134
▁Florante	-14135
▁Namalagi	-14136
▁Napagpas	-14137
▁Pamsagan	-14138
▁binagtas	-14139
▁dayuhang	-14140
▁kalupaan	-14141
▁labuyong	-14142
▁makipagk	-14143
▁maykapal	-14144
▁mayuming	-14145
▁nagguhit	-14146
▁paglipol	-14147
▁sanligan	-14148
▁sarukang	-14149
▁tatalima	-14150
▁tutubing	-14151
▁yumuyuko	-14152
abathalang	-14153
▁Dinulutan	-14154
▁Doronilla	-14155
▁Humahanga	-14156
▁Nagbukang	-14157
▁Nagkataon	-14158
▁Nagmakata	-14159
▁Nagsiklab	-14160
▁Nagtatamp	-14161
▁Nahikayat	-14162
▁Nakalahad	-14163
▁Nakaluhod	-14164
▁Nakalulan	-14165
▁Nalilipat	-14166
▁Namumuhay	-14167
▁Nanluwang	-14168
▁Napaparam	-14169
▁Natatakot	-14170
▁Natatangi	-14171
▁Natutunan	-14172
▁Ohhhhhhhh	-14173
▁Pagkaluns	-14174
▁Pagkapawi	-14175
▁Pagsasama	-14176
▁Pagsisisi	-14177
▁Pagtingin	-14178
▁Pagtuturo	-14179
▁Paiikutin	-14180
▁Panaligan	-14181
▁Pasakayin	-14182
▁Patitindi	-14183
▁Pinagbili	-14184
▁Pinaiinit	-14185
▁Pinakikin	-14186
▁Pinangang	-14187
▁Pinipilit	-14188
▁Prusisyon	-14189
▁Sasagutin	-14190
▁Sasawayin	-14191
▁Simalubay	-14192
▁Simbahang	-14193
▁Sinumbong	-14194
▁Siyamnapu	-14195
▁Sumusulak	-14196
▁Tagubilin	-14197
[...]
