<unk>	0
<s>	0
</s>	0
ng	-0
ang	-1
an	-2
▁n	-3
▁s	-4
ag	-5
▁m	-6
at	-7
al	-8
ay	-9
in	-10
▁k	-11
▁p	-12
ak	-13
▁ng	-14
▁sa	-15
▁ang	-16
▁na	-17
it	-18
am	-19
ing	-20
il	-21
as	-22
▁b	-23
ong	-24
aw	-25
ar	-26
ap	-27
ah	-28
▁t	-29
▁l	-30
iy	-31
ab	-32
▁d	-33
▁at	-34
▁A	-35
ul	-36
is	-37
ig	-38
▁ay	-39
um	-40
ga	-41
▁h	-42
un	-43
on	-44
▁mga	-45
▁N	-46
▁S	-47
ik	-48
▁pag	-49
▁M	-50
ib	-51
ung	-52
iya	-53
▁P	-54
▁I	-55
▁K	-56
▁nag	-57
▁mag	-58
ip	-59
▁Ang	-60
▁kan	-61
▁g	-62
ad	-63
▁D	-64
ut	-65
▁B	-66
us	-67
ito	-68
uh	-69
▁si	-70
▁ni	-71
▁is	-72
ala	-73
and	-74
im	-75
yang	-76
ind	-77
▁L	-78
up	-79
..	-80
ilang	-81
uw	-82
ila	-83
▁T	-84
os	-85
ub	-86
▁ak	-87
▁Sa	-88
▁H	-89
▁nang	-90
▁"	-91
awa	-92
uk	-93
iw	-94
ot	-95
aya	-96
indi	-97
alak	-98
▁kanyang	-99
▁ka	-100
▁isang	-101
alang	-102
og	-103
ari	-104
▁may	-105
ug	-106
iyang	-107
▁ko	-108
▁ito	-109
ita	-110
▁w	-111
▁niya	-112
▁mo	-113
▁mat	-114
ayan	-115
ih	-116
ir	-117
▁siya	-118
id	-119
ayo	-120
▁in	-121
▁At	-122
▁nak	-123
ya	-124
▁ib	-125
ok	-126
▁pin	-127
▁(	-128
amang	-129
ro	-130
▁pa	-131
▁hindi	-132
▁pan	-133
▁ta	-134
apat	-135
▁nam	-136
▁mak	-137
▁mal	-138
▁iy	-139
ahan	-140
▁an	-141
angg	-142
to	-143
alag	-144
▁r	-145
oy	-146
aan	-147
uhay	-148
ol	-149
▁pang	-150
▁kung	-151
▁Nag	-152
en	-153
▁sin	-154
yo	-155
ur	-156
...	-157
ibig	-158
▁pagk	-159
ula	-160
ata	-161
ahat	-162
sa	-163
aman	-164
er	-165
od	-166
ama	-167
▁ma	-168
▁kas	-169
uan	-170
▁kat	-171
▁ako	-172
abi	-173
▁kay	-174
▁man	-175
agk	-176
anda	-177
araw	-178
und	-179
ating	-180
aba	-181
▁di	-182
aka	-183
ant	-184
▁mas	-185
▁kah	-186
oon	-187
▁Ng	-188
▁dal	-189
awang	-190
ipin	-191
▁kal	-192
▁o	-193
▁lum	-194
▁lamang	-195
▁par	-196
▁tin	-197
▁tao	-198
▁mah	-199
."	-200
▁G	-201
▁it	-202
▁kap	-203
ahil	-204
▁lahat	-205
▁Kung	-206
andang	-207
unit	-208
upang	-209
▁niyang	-210
▁mab	-211
ana	-212
▁kanilang	-213
ayon	-214
unt	-215
▁kab	-216
alit	-217
▁sila	-218
▁siyang	-219
▁In	-220
amat	-221
▁Don	-222
▁anak	-223
▁buhay	-224
▁aking	-225
akas	-226
▁upang	-227
▁ik	-228
▁din	-229
▁mar	-230
▁naman	-231
▁al	-232
▁araw	-233
▁kong	-234
alan	-235
ulang	-236
▁rin	-237
▁um	-238
▁pal	-239
or	-240
▁iyong	-241
▁bag	-242
▁J	-243
sang	-244
▁map	-245
amp	-246
▁bin	-247
▁Nang	-248
▁e	-249
▁nap	-250
▁walang	-251
▁gin	-252
▁nat	-253
▁Na	-254
ili	-255
aling	-256
ali	-257
akit	-258
▁bat	-259
ob	-260
upa	-261
alaki	-262
amb	-263
ika	-264
▁pat	-265
aring	-266
▁lang	-267
▁nila	-268
ins	-269
▁W	-270
▁Ay	-271
▁Mag	-272
▁sum	-273
ina	-274
es	-275
ungk	-276
▁baba	-277
alik	-278
▁hin	-279
▁tag	-280
asawa	-281
▁magk	-282
▁C	-283
iwan	-284
▁pun	-285
▁il	-286
asa	-287
apit	-288
▁May	-289
ayang	-290
ahon	-291
▁tul	-292
atu	-293
▁kar	-294
iling	-295
yan	-296
▁Hindi	-297
abang	-298
alaga	-299
.)	-300
int	-301
alim	-302
▁bah	-303
▁kam	-304
▁U	-305
▁tum	-306
tong	-307
agkat	-308
yong	-309
▁wala	-310
▁Lam	-311
▁kaya	-312
awan	-313
uwag	-314
aming	-315
▁lupa	-316
na	-317
alo	-318
uti	-319
▁pus	-320
awag	-321
▁Pag	-322
▁nito	-323
ha	-324
▁dahil	-325
lak	-326
▁Isang	-327
apag	-328
▁Pil	-329
▁pam	-330
▁bayan	-331
angk	-332
ulan	-333
anggang	-334
agat	-335
inig	-336
▁nin	-337
alaking	-338
uha	-339
▁babae	-340
el	-341
iyos	-342
▁dum	-343
▁mong	-344
▁nga	-345
▁Pilipin	-346
▁Juan	-347
uhan	-348
▁mang	-349
ulo	-350
▁nagp	-351
▁sal	-352
▁Ag	-353
itan	-354
uto	-355
▁dalawang	-356
▁Ib	-357
asal	-358
▁sar	-359
uli	-360
uwa	-361
yon	-362
▁pinag	-363
arap	-364
▁pak	-365
ipag	-366
apatid	-367
asan	-368
▁R	-369
▁nags	-370
▁Ngunit	-371
▁pagl	-372
▁ngunit	-373
▁lalaki	-374
arang	-375
tat	-376
ko	-377
▁y	-378
▁Sin	-379
▁bul	-380
▁ina	-381
▁ikaw	-382
em	-383
ain	-384
▁hal	-385
▁Al	-386
▁kum	-387
▁tat	-388
unang	-389
▁pags	-390
aran	-391
▁itong	-392
▁kanya	-393
▁bu	-394
▁langit	-395
▁po	-396
aban	-397
anap	-398
▁kin	-399
▁kuw	-400
ungan	-401
▁Ito	-402
▁sab	-403
▁F	-404
aga	-405
▁Si	-406
irap	-407
▁puso	-408
rins	-409
▁iba	-410
▁ating	-411
,"	-412
amah	-413
▁E	-414
amit	-415
▁lag	-416
apang	-417
apos	-418
▁nas	-419
▁panahon	-420
ulog	-421
ta	-422
ihan	-423
▁Y	-424
unga	-425
▁nagk	-426
▁hanggang	-427
abas	-428
itong	-429
▁ama	-430
▁O	-431
igl	-432
alin	-433
oong	-434
▁Pin	-435
aklak	-436
ayong	-437
▁dito	-438
▁naging	-439
▁kag	-440
ahang	-441
▁hang	-442
▁para	-443
▁Nak	-444
▁iyo	-445
arian	-446
tan	-447
▁Il	-448
ugan	-449
▁sag	-450
▁nagb	-451
▁wika	-452
oob	-453
una	-454
▁pagh	-455
amd	-456
▁ba	-457
▁isa	-458
▁mad	-459
▁sap	-460
uling	-461
awat	-462
▁kang	-463
▁bahay	-464
dar	-465
isip	-466
ulay	-467
▁hum	-468
▁Kaya	-469
▁Di	-470
▁asawa	-471
▁ninyo	-472
▁dalaga	-473
awit	-474
▁hari	-475
yari	-476
▁bal	-477
▁buong	-478
han	-479
pik	-480
agal	-481
awin	-482
▁buw	-483
▁nab	-484
▁nan	-485
▁ngayon	-486
▁silang	-487
oro	-488
▁tang	-489
bay	-490
▁gum	-491
▁nil	-492
ulong	-493
undok	-494
agp	-495
▁Bat	-496
▁Datu	-497
▁nagl	-498
▁pagb	-499
▁bum	-500
▁Agat	-501
▁Mari	-502
atan	-503
utan	-504
▁ipin	-505
▁kapatid	-506
sing	-507
ubig	-508
usap	-509
iwanag	-510
▁Pagkat	-511
wa	-512
ago	-513
ust	-514
▁Ik	-515
▁da	-516
▁nal	-517
uting	-518
ed	-519
▁ag	-520
▁puno	-521
isa	-522
▁An	-523
abaw	-524
hala	-525
▁Mga	-526
▁nar	-527
▁pum	-528
▁pagp	-529
ibigan	-530
▁unang	-531
iyak	-532
▁Ako	-533
▁Mar	-534
▁kaw	-535
▁Donya	-536
▁nilang	-537
ami	-538
iwa	-539
awak	-540
along	-541
anga	-542
long	-543
▁Sum	-544
▁akin	-545
▁iyon	-546
▁noon	-547
▁kuwen	-548
uy	-549
sin	-550
ihin	-551
▁bulaklak	-552
▁kaharian	-553
ays	-554
kas	-555
▁Lum	-556
▁hig	-557
▁nagh	-558
▁nasa	-559
▁Diyos	-560
▁Pilipino	-561
ayop	-562
igaw	-563
unod	-564
▁tun	-565
iging	-566
eg	-567
ati	-568
eng	-569
tas	-570
ilim	-571
ungo	-572
ahing	-573
▁taong	-574
dig	-575
anong	-576
▁kahit	-577
▁parang	-578
atay	-579
▁kayo	-580
▁bawat	-581
▁dagat	-582
▁prins	-583
▁Walang	-584
!"	-585
AN	-586
uno	-587
iwang	-588
▁Siya	-589
▁mata	-590
▁tayo	-591
▁tubig	-592
▁pagkak	-593
esa	-594
yay	-595
▁Tin	-596
▁mam	-597
igdig	-598
▁Dahil	-599
alig	-600
▁Mak	-601
abing	-602
▁Maria	-603
▁hayop	-604
▁kamay	-605
▁sinabi	-606
lay	-607
uri	-608
▁Ip	-609
▁Man	-610
▁buk	-611
▁sam	-612
▁ibig	-613
▁nagt	-614
▁pagt	-615
▁lakas	-616
▁Kas	-617
agang	-618
alakas	-619
ud	-620
ump	-621
ingg	-622
▁maging	-623
lo	-624
aal	-625
ano	-626
alas	-627
ipad	-628
▁bunga	-629
agi	-630
angan	-631
▁magp	-632
▁bagay	-633
▁bundok	-634
▁magandang	-635
?"	-636
▁–	-637
aki	-638
unan	-639
▁epik	-640
▁ibon	-641
▁maraming	-642
da	-643
...!	-644
▁Bin	-645
▁datu	-646
alagang	-647
▁dalawa	-648
▁magulang	-649
lad	-650
▁ya	-651
ango	-652
roon	-653
▁magb	-654
amatay	-655
▁tunay	-656
▁Nagong	-657
ras	-658
▁ap	-659
ikan	-660
▁pap	-661
agawa	-662
atang	-663
unong	-664
▁Koro	-665
▁loob	-666
usa	-667
▁ban	-668
▁mags	-669
unting	-670
▁dapat	-671
▁ibang	-672
▁ilang	-673
arating	-674
ann	-675
ayaw	-676
ulad	-677
▁Mal	-678
▁gan	-679
▁Huwag	-680
▁matat	-681
",	-682
ako	-683
▁Fa	-684
oyan	-685
unta	-686
▁lug	-687
▁naw	-688
aroon	-689
▁panan	-690
annoyan	-691
▁i	-692
insan	-693
▁bato	-694
▁Faust	-695
▁natin	-696
▁Cannoyan	-697
▁dumating	-698
nan	-699
ubo	-700
usan	-701
▁muli	-702
ungkot	-703
▁daigdig	-704
ern	-705
ira	-706
iran	-707
uloy	-708
▁min	-709
▁gabi	-710
▁akong	-711
▁tungk	-712
▁nakita	-713
▁Faustus	-714
aro	-715
uro	-716
▁Ya	-717
agan	-718
apon	-719
▁kita	-720
anggol	-721
▁tinig	-722
ilangan	-723
▁inyong	-724
▁sarili	-725
▁Bathala	-726
undi	-727
▁sabi	-728
▁nakat	-729
▁katawan	-730
so	-731
amag	-732
amin	-733
ikita	-734
isang	-735
▁ilog	-736
amahal	-737
▁pinak	-738
▁punong	-739
▁lalaking	-740
ara	-741
ilig	-742
uhat	-743
uran	-744
▁Mat	-745
▁ulo	-746
▁pagm	-747
▁buwan	-748
▁mahal	-749
▁Haring	-750
Ay	-751
ma	-752
▁ul	-753
akot	-754
▁lik	-755
alita	-756
▁lugar	-757
▁laging	-758
om	-759
uin	-760
hang	-761
ilis	-762
▁Mah	-763
▁sak	-764
▁sina	-765
▁huwag	-766
▁kulay	-767
▁tulad	-768
▁makita	-769
▁nitong	-770
ags	-771
ent	-772
ero	-773
pak	-774
ingin	-775
▁Wala	-776
▁koro	-777
▁matandang	-778
ahi	-779
olo	-780
ayag	-781
ukha	-782
ulat	-783
unti	-784
▁pab	-785
▁itin	-786
ahanap	-787
ks	-788
amo	-789
imp	-790
alis	-791
▁bak	-792
among	-793
igaya	-794
ilala	-795
▁bata	-796
▁yaong	-797
▁magkak	-798
itin	-799
▁maa	-800
▁nah	-801
▁isip	-802
▁mula	-803
▁pagd	-804
▁habang	-805
▁muling	-806
oo	-807
ipe	-808
igay	-809
▁Hin	-810
▁sas	-811
▁ring	-812
▁saan	-813
▁diyos	-814
apa	-815
imb	-816
▁tr	-817
agka	-818
▁Mab	-819
▁ano	-820
▁Tula	-821
▁gawa	-822
▁nagm	-823
▁tahan	-824
▁kuwento	-825
▁pagkain	-826
▁Ka	-827
apak	-828
isig	-829
undo	-830
▁Mas	-831
▁gag	-832
▁pas	-833
▁sim	-834
▁doon	-835
▁nais	-836
ubalit	-837
▁sapagkat	-838
ilag	-839
ubos	-840
▁git	-841
igkas	-842
itang	-843
▁nagd	-844
▁kundi	-845
▁Sinabi	-846
▁binata	-847
▁kasama	-848
api	-849
apan	-850
▁Kal	-851
▁magt	-852
▁oras	-853
▁Inang	-854
▁Yaong	-855
▁malaking	-856
hin	-857
ugo	-858
▁ip	-859
apal	-860
aral	-861
ulot	-862
▁Kay	-863
darna	-864
irang	-865
▁agad	-866
▁sand	-867
▁Adarna	-868
▁hangin	-869
la	-870
Ang	-871
akb	-872
ahim	-873
inga	-874
▁dak	-875
ahong	-876
akain	-877
aysay	-878
utang	-879
▁awit	-880
anggap	-881
atawag	-882
▁higit	-883
▁pagka	-884
▁Pilipinas	-885
▁Ar	-886
alat	-887
▁Mad	-888
iwala	-889
▁isin	-890
▁sino	-891
abalik	-892
ibigay	-893
iglang	-894
irahan	-895
▁napak	-896
▁noong	-897
▁kanila	-898
aso	-899
ian	-900
ist	-901
upo	-902
alaw	-903
ingan	-904
▁Ibong	-905
▁tatlong	-906
▁prinsesa	-907
do	-908
dib	-909
yat	-910
abay	-911
akan	-912
alay	-913
amis	-914
igat	-915
ilan	-916
▁dib	-917
▁lib	-918
▁sul	-919
▁sus	-920
agong	-921
awala	-922
▁Ikaw	-923
alaman	-924
▁palak	-925
alakbay	-926
uga	-927
abis	-928
ahin	-929
igan	-930
ikha	-931
▁Tum	-932
▁pil	-933
▁kapag	-934
▁mukha	-935
▁dibdib	-936
▁halaman	-937
▁liwanag	-938
▁kaibigan	-939
uwi	-940
asak	-941
ibang	-942
▁epiko	-943
▁sariling	-944
▁1	-945
erm	-946
iba	-947
agot	-948
anay	-949
iliw	-950
▁Kin	-951
▁tal	-952
▁ding	-953
▁ginawa	-954
▁lalong	-955
▁mabuti	-956
law	-957
isan	-958
unin	-959
iwata	-960
ubong	-961
▁Ipin	-962
▁Nagp	-963
▁diwa	-964
▁pala	-965
▁pagtat	-966
AR	-967
ey	-968
man	-969
ilos	-970
▁Kat	-971
asyon	-972
igyan	-973
ising	-974
▁pagg	-975
▁saka	-976
▁kapwa	-977
▁bagong	-978
▁maganda	-979
▁tungkol	-980
lan	-981
san	-982
ahoy	-983
away	-984
ilya	-985
ukot	-986
▁tan	-987
ikang	-988
uluwa	-989
▁pook	-990
▁nakak	-991
ulungan	-992
▁Pagkatapos	-993
io	-994
▁[	-995
dan	-996
pan	-997
ubat	-998
▁Par	-999
▁Ped	-1000
▁ini	-1001
▁suk	-1002
▁apoy	-1003
▁kami	-1004
▁gitna	-1005
▁magag	-1006
amongan	-1007
angyari	-1008
▁Binukot	-1009
▁malakas	-1010
▁Namongan	-1011
et	-1012
ipas	-1013
pang	-1014
utos	-1015
▁Jos	-1016
▁Kah	-1017
imang	-1018
▁luha	-1019
▁sing	-1020
▁taga	-1021
▁tila	-1022
agalog	-1023
yayari	-1024
▁kamat	-1025
▁alamat	-1026
▁bahagi	-1027
▁matsing	-1028
▁sanggol	-1029
▁a	-1030
emb	-1031
emon	-1032
ipit	-1033
▁bit	-1034
▁bun	-1035
▁lip	-1036
▁sad	-1037
▁iyan	-1038
▁magl	-1039
▁taon	-1040
agpuan	-1041
▁Kapag	-1042
▁hirap	-1043
▁manok	-1044
▁tauhan	-1045
▁tahanan	-1046
ac	-1047
hh	-1048
▁It	-1049
▁Un	-1050
abot	-1051
akay	-1052
ante	-1053
asyo	-1054
ihim	-1055
ikit	-1056
ilin	-1057
uman	-1058
▁Sal	-1059
▁san	-1060
ayaan	-1061
ugali	-1062
umang	-1063
▁Bant	-1064
▁buto	-1065
▁tula	-1066
ahimik	-1067
alapit	-1068
▁galit	-1069
▁mapag	-1070
▁palad	-1071
▁bilang	-1072
▁dating	-1073
▁salita	-1074
amagitan	-1075
▁matanda	-1076
ba	-1077
iz	-1078
isi	-1079
▁Am	-1080
agin	-1081
alam	-1082
utin	-1083
▁pul	-1084
akyat	-1085
uhang	-1086
▁Jose	-1087
▁bago	-1088
▁ikin	-1089
▁magm	-1090
▁sana	-1091
▁Noong	-1092
▁bakit	-1093
▁inang	-1094
▁kahoy	-1095
▁karan	-1096
▁nayon	-1097
▁nagtat	-1098
▁tulang	-1099
▁Tagalog	-1100
▁katulad	-1101
▁tanging	-1102
▁maaaring	-1103
re	-1104
▁=	-1105
▁V	-1106
▁Ig	-1107
akad	-1108
anak	-1109
igla	-1110
ilid	-1111
ingi	-1112
ubuk	-1113
utom	-1114
uyan	-1115
▁tuw	-1116
▁uri	-1117
amant	-1118
ataas	-1119
▁mand	-1120
▁nina	-1121
▁Lahat	-1122
▁Prins	-1123
▁aming	-1124
▁gubat	-1125
alawang	-1126
▁pagkat	-1127
▁pagong	-1128
▁babaing	-1129
▁mabuting	-1130
▁pamamagitan	-1131
ra	-1132
yu	-1133
lap	-1134
anta	-1135
apas	-1136
ikat	-1137
lado	-1138
▁Hum	-1139
▁muna	-1140
▁pamp	-1141
▁ginto	-1142
▁taglay	-1143
▁tulong	-1144
ilangang	-1145
▁kawayan	-1146
▁kaluluwa	-1147
ibo	-1148
iit	-1149
ngk	-1150
ora	-1151
amot	-1152
dang	-1153
ibat	-1154
igid	-1155
tila	-1156
uhin	-1157
usto	-1158
▁Dum	-1159
▁Kan	-1160
▁Nat	-1161
▁lin	-1162
ampas	-1163
imula	-1164
iting	-1165
nayan	-1166
▁Agyu	-1167
▁Pang	-1168
▁magd	-1169
▁pati	-1170
akasal	-1171
▁ganda	-1172
▁ibong	-1173
▁katut	-1174
▁mundo	-1175
▁nanin	-1176
▁patay	-1177
op	-1178
awi	-1179
las	-1180
log	-1181
uni	-1182
uyo	-1183
▁Is	-1184
agad	-1185
ahas	-1186
anan	-1187
arir	-1188
▁Isa	-1189
▁ent	-1190
intay	-1191
▁ipag	-1192
▁magh	-1193
ablado	-1194
uwaang	-1195
▁bangk	-1196
▁labis	-1197
▁tapat	-1198
▁Nakita	-1199
▁namang	-1200
▁biglang	-1201
▁palasyo	-1202
▁kaniyang	-1203
▁panahong	-1204
▁entablado	-1205
▁kapangyari	-1206
ek	-1207
iti	-1208
ono	-1209
izal	-1210
▁Din	-1211
▁ham	-1212
asama	-1213
▁Ines	-1214
▁alam	-1215
▁damd	-1216
arawan	-1217
▁Rizal	-1218
▁gayon	-1219
▁iyang	-1220
▁laban	-1221
▁makak	-1222
▁pakik	-1223
▁palay	-1224
▁marami	-1225
▁tanong	-1226
▁Tuwaang	-1227
▁malapit	-1228
▁masamang	-1229
▁-	-1230
ura	-1231
▁Um	-1232
abag	-1233
anao	-1234
iyan	-1235
uang	-1236
▁Bis	-1237
▁Nal	-1238
▁Tul	-1239
antay	-1240
araan	-1241
▁Ayon	-1242
▁Nagk	-1243
▁Sila	-1244
▁anyo	-1245
▁ibin	-1246
▁kamp	-1247
▁lalo	-1248
iyahan	-1249
▁Bakit	-1250
▁Kahit	-1251
▁Pedro	-1252
▁sibat	-1253
alangin	-1254
alitang	-1255
▁kamatayan	-1256
▁kuwentong	-1257
▁pagmamahal	-1258
hi	-1259
ego	-1260
lat	-1261
res	-1262
ugt	-1263
▁Ak	-1264
abal	-1265
anaw	-1266
igil	-1267
▁but	-1268
▁paa	-1269
alimb	-1270
unlad	-1271
▁Ibig	-1272
▁Mula	-1273
ugtong	-1274
▁bansa	-1275
▁kasal	-1276
▁sagot	-1277
▁batang	-1278
▁pinagm	-1279
▁paligid	-1280
▁Hanggang	-1281
▁pangalan	-1282
▁singsing	-1283
loh	-1284
obo	-1285
tik	-1286
▁Lu	-1287
▁as	-1288
▁ih	-1289
ahay	-1290
alon	-1291
apay	-1292
igas	-1293
inis	-1294
ipon	-1295
ista	-1296
lang	-1297
ulin	-1298
▁tak	-1299
Hindi	-1300
uring	-1301
▁Araw	-1302
▁Saka	-1303
▁kasi	-1304
anggam	-1305
itoloh	-1306
ungang	-1307
▁Bayan	-1308
▁bibig	-1309
▁kaysa	-1310
▁sakit	-1311
aysayan	-1312
▁ligaya	-1313
▁gintong	-1314
▁munting	-1315
NG	-1316
agd	-1317
ens	-1318
▁Ma	-1319
abuk	-1320
arin	-1321
ugat	-1322
▁Ano	-1323
▁Kap	-1324
▁Lab	-1325
▁kak	-1326
▁uma	-1327
▁Doon	-1328
▁baka	-1329
▁ilaw	-1330
▁inil	-1331
▁lagi	-1332
▁pamb	-1333
▁pulo	-1334
▁Upang	-1335
▁makat	-1336
▁talim	-1337
amdaman	-1338
▁Bisaya	-1339
▁Minsan	-1340
▁malayo	-1341
▁minsan	-1342
▁Kastila	-1343
▁Bantugan	-1344
▁nagiging	-1345
▁nangyari	-1346
▁prinsipe	-1347
uko	-1348
▁Dr	-1349
▁Ha	-1350
ahal	-1351
angh	-1352
uwal	-1353
▁Gin	-1354
▁Nab	-1355
▁pay	-1356
▁raw	-1357
▁tut	-1358
aging	-1359
andog	-1360
▁Mind	-1361
▁daan	-1362
▁dugo	-1363
arapat	-1364
atuloy	-1365
emonyo	-1366
▁dahon	-1367
▁ngang	-1368
▁pilak	-1369
▁Alamat	-1370
▁diwata	-1371
▁kagand	-1372
▁lupain	-1373
▁pakpak	-1374
▁mamatay	-1375
▁tandang	-1376
▁magiging	-1377
▁pangarap	-1378
▁tinatawag	-1379
▁kapangyarihan	-1380
AT	-1381
aho	-1382
umb	-1383
▁de	-1384
apah	-1385
orot	-1386
unog	-1387
upit	-1388
uwan	-1389
▁Ina	-1390
▁Tag	-1391
▁biy	-1392
▁kul	-1393
▁pah	-1394
aloob	-1395
amdam	-1396
onood	-1397
usang	-1398
▁inih	-1399
▁manl	-1400
▁pana	-1401
abayan	-1402
abigat	-1403
▁bukid	-1404
▁dilag	-1405
▁natut	-1406
▁pamum	-1407
▁pangk	-1408
ahangad	-1409
▁puting	-1410
▁epikong	-1411
▁malaman	-1412
▁pampang	-1413
▁sadyang	-1414
▁Tulalang	-1415
po	-1416
agl	-1417
erp	-1418
ros	-1419
ilog	-1420
upan	-1421
▁Bid	-1422
▁him	-1423
▁kad	-1424
abasa	-1425
angal	-1426
uparo	-1427
▁Pagk	-1428
▁apat	-1429
▁engk	-1430
▁inyo	-1431
▁naka	-1432
▁rito	-1433
▁samp	-1434
▁tabi	-1435
alaala	-1436
alabas	-1437
ilipad	-1438
▁hanap	-1439
▁mahiw	-1440
▁ngayo	-1441
▁tangh	-1442
▁umaga	-1443
▁Samant	-1444
▁ilalim	-1445
▁naming	-1446
▁nating	-1447
▁piling	-1448
▁Subalit	-1449
▁mahirap	-1450
pa	-1451
end	-1452
ers	-1453
ahah	-1454
anti	-1455
ardo	-1456
atid	-1457
ilaw	-1458
ukol	-1459
ulit	-1460
▁Gan	-1461
▁Nar	-1462
▁Pal	-1463
▁eks	-1464
▁sis	-1465
awing	-1466
▁Ilog	-1467
▁Nags	-1468
▁bang	-1469
▁dala	-1470
isipan	-1471
ubuhay	-1472
▁amang	-1473
▁harap	-1474
▁hawak	-1475
▁panin	-1476
▁sinas	-1477
▁tawag	-1478
ihintay	-1479
▁bayang	-1480
▁lumaki	-1481
▁malaki	-1482
▁maliit	-1483
▁paglal	-1484
▁pusong	-1485
▁Cabigat	-1486
▁kasalan	-1487
▁mabuhay	-1488
▁namatay	-1489
▁tinawag	-1490
▁Prinsipe	-1491
▁manonood	-1492
no	-1493
uo	-1494
agb	-1495
▁Bi	-1496
amig	-1497
asin	-1498
itik	-1499
iwat	-1500
mang	-1501
utol	-1502
▁Kam	-1503
▁Nen	-1504
▁bab	-1505
▁buh	-1506
▁niy	-1507
alino	-1508
antad	-1509
umpay	-1510
urang	-1511
uyang	-1512
▁Pagb	-1513
▁Puti	-1514
▁Solo	-1515
▁gaya	-1516
▁halos	-1517
embaran	-1518
▁Malana	-1519
▁gumawa	-1520
▁paraan	-1521
▁Langgam	-1522
▁pinakam	-1523
▁subalit	-1524
▁dalagang	-1525
▁damdamin	-1526
▁kailangan	-1527
▁pagkakata	-1528
ep	-1529
if	-1530
ti	-1531
dal	-1532
din	-1533
eon	-1534
hik	-1535
pis	-1536
uot	-1537
ayos	-1538
hati	-1539
igma	-1540
ilip	-1541
iyam	-1542
▁Ros	-1543
▁bay	-1544
▁mus	-1545
▁put	-1546
▁tuk	-1547
ansin	-1548
asang	-1549
asari	-1550
ugang	-1551
▁Bern	-1552
▁Nagm	-1553
▁alim	-1554
▁ayaw	-1555
▁lahi	-1556
▁sund	-1557
alagay	-1558
utusan	-1559
▁Manok	-1560
▁bunso	-1561
▁gawin	-1562
▁masas	-1563
▁nakal	-1564
▁yaman	-1565
abayang	-1566
▁Labtik	-1567
▁bituin	-1568
▁buwaya	-1569
▁nagbab	-1570
▁pagbab	-1571
▁nangang	-1572
▁tahimik	-1573
▁Bembaran	-1574
▁Bernardo	-1575
▁Bidasari	-1576
▁makikita	-1577
▁mahiwagang	-1578
▁pinagmulan	-1579
▁paglalakbay	-1580
▁u	-1581
ena	-1582
era	-1583
ubi	-1584
▁Oh	-1585
eyna	-1586
ilit	-1587
tang	-1588
▁Kab	-1589
▁imp	-1590
tasan	-1591
usong	-1592
uwang	-1593
▁aral	-1594
agamit	-1595
aharap	-1596
inggan	-1597
ulugan	-1598
▁Sulay	-1599
▁gutom	-1600
▁nakab	-1601
▁sanga	-1602
▁Igorot	-1603
▁Naging	-1604
▁bayani	-1605
▁dunong	-1606
▁kaaway	-1607
▁katang	-1608
▁palaka	-1609
▁yaring	-1610
▁gagawin	-1611
▁higante	-1612
itolohiya	-1613
▁Sulayman	-1614
▁alimango	-1615
▁pagdating	-1616
AK	-1617
st	-1618
ATA	-1619
aks	-1620
apo	-1621
way	-1622
▁ig	-1623
amba	-1624
ayak	-1625
uhod	-1626
▁Bal	-1627
▁Ban	-1628
▁Buk	-1629
▁Bul	-1630
▁Del	-1631
▁Min	-1632
▁Nap	-1633
▁Sar	-1634
▁Tat	-1635
▁lub	-1636
▁nai	-1637
indig	-1638
ingat	-1639
unduk	-1640
▁Magb	-1641
▁Nagb	-1642
▁Pagd	-1643
▁Ting	-1644
▁laki	-1645
▁lamb	-1646
▁lawa	-1647
▁nama	-1648
▁ulan	-1649
abihin	-1650
aginip	-1651
amayan	-1652
apatay	-1653
▁Ilang	-1654
▁balat	-1655
▁buhok	-1656
▁laman	-1657
▁sigaw	-1658
▁tumut	-1659
arangan	-1660
▁Habang	-1661
▁Madali	-1662
▁Ngayon	-1663
▁batong	-1664
▁gabing	-1665
▁galing	-1666
▁kaloob	-1667
▁nagsis	-1668
▁pabula	-1669
alimbawa	-1670
▁kayaman	-1671
▁mabilis	-1672
▁makapag	-1673
▁mayroon	-1674
▁tagapag	-1675
▁dakilang	-1676
▁kabilang	-1677
▁kailangang	-1678
▁pangyayari	-1679
▁magkakapatid	-1680
sik	-1681
uag	-1682
▁Ni	-1683
agas	-1684
amas	-1685
anim	-1686
erno	-1687
igit	-1688
ling	-1689
uong	-1690
wang	-1691
▁Aga	-1692
▁Pab	-1693
▁Sap	-1694
▁kil	-1695
▁piy	-1696
amaan	-1697
anggi	-1698
laban	-1699
pisod	-1700
▁Dito	-1701
▁Itin	-1702
▁Leon	-1703
▁TATA	-1704
▁land	-1705
▁simb	-1706
alakad	-1707
usahan	-1708
usapan	-1709
▁Biuag	-1710
▁Diego	-1711
▁Itong	-1712
▁batis	-1713
▁likod	-1714
▁linya	-1715
▁lubos	-1716
▁magka	-1717
▁nakik	-1718
▁namin	-1719
▁tiyak	-1720
▁Maging	-1721
▁Neneng	-1722
▁episod	-1723
▁mataas	-1724
▁pagsas	-1725
▁bakuran	-1726
▁bumalik	-1727
▁nasasak	-1728
▁sabihin	-1729
▁Paruparo	-1730
▁tulungan	-1731
▁kagandahan	-1732
▁naninirahan	-1733
ONG	-1734
ahe	-1735
uel	-1736
▁Ab	-1737
▁Gr	-1738
abit	-1739
adya	-1740
amay	-1741
asok	-1742
ibay	-1743
ingn	-1744
itim	-1745
pres	-1746
ubog	-1747
upad	-1748
▁Ama	-1749
▁bas	-1750
abait	-1751
adala	-1752
akila	-1753
akita	-1754
alian	-1755
ihang	-1756
isyon	-1757
▁Dama	-1758
▁Miya	-1759
▁Nagt	-1760
▁init	-1761
▁isda	-1762
▁kina	-1763
▁ulap	-1764
amihan	-1765
▁anong	-1766
▁bango	-1767
▁buhat	-1768
▁damit	-1769
▁kapal	-1770
▁napag	-1771
▁silid	-1772
▁tinat	-1773
▁Kalabaw	-1774
▁dahilan	-1775
▁lumabas	-1776
▁lumakad	-1777
▁narinig	-1778
apangyari	-1779
▁masayang	-1780
▁Pagbigkas	-1781
▁engkantad	-1782
▁karaniwang	-1783
▁kasaysayan	-1784
),	-1785
Ip	-1786
ec	-1787
eh	-1788
iin	-1789
ino	-1790
kan	-1791
pir	-1792
tok	-1793
uon	-1794
▁ab	-1795
Kung	-1796
adal	-1797
alad	-1798
ihis	-1799
song	-1800
ugon	-1801
umpa	-1802
usay	-1803
usog	-1804
utok	-1805
▁Pan	-1806
▁sig	-1807
▁tot	-1808
▁usa	-1809
agsak	-1810
bayan	-1811
ikain	-1812
ugtog	-1813
ungin	-1814
▁Agad	-1815
▁Isin	-1816
▁Para	-1817
▁dusa	-1818
▁tuwa	-1819
aganda	-1820
anggit	-1821
uhayan	-1822
▁Aling	-1823
▁bisig	-1824
▁itlog	-1825
▁kagub	-1826
▁kawal	-1827
▁matut	-1828
▁namum	-1829
▁panig	-1830
▁panit	-1831
▁Bundok	-1832
▁Parang	-1833
▁gawain	-1834
▁ibabaw	-1835
▁kumain	-1836
▁lupang	-1837
▁naglal	-1838
▁ninuno	-1839
▁pitong	-1840
▁salapi	-1841
▁tayong	-1842
▁tuwing	-1843
▁umalis	-1844
▁anumang	-1845
▁binigyan	-1846
▁episodyo	-1847
▁halamang	-1848
▁kalooban	-1849
▁marunong	-1850
▁nakikita	-1851
▁salitang	-1852
▁Pagdating	-1853
▁Samantala	-1854
▁kababayan	-1855
▁magagandang	-1856
).	-1857
MP	-1858
ia	-1859
akw	-1860
ban	-1861
igp	-1862
lit	-1863
lks	-1864
ola	-1865
▁Ap	-1866
▁Es	-1867
▁II	-1868
....	-1869
agay	-1870
aham	-1871
akaw	-1872
alok	-1873
amad	-1874
ayun	-1875
ermo	-1876
isag	-1877
ohan	-1878
rito	-1879
ubuy	-1880
▁Bum	-1881
▁Dul	-1882
▁Kum	-1883
▁Luc	-1884
▁gun	-1885
▁har	-1886
▁una	-1887
▁yum	-1888
aalam	-1889
igtas	-1890
ihing	-1891
kahoy	-1892
roong	-1893
utian	-1894
▁Bago	-1895
▁Sari	-1896
▁atin	-1897
▁roon	-1898
▁sala	-1899
▁utos	-1900
amangk	-1901
andaan	-1902
iligaw	-1903
inding	-1904
ubuyog	-1905
▁Balag	-1906
▁Bugan	-1907
▁Buhay	-1908
▁Gayon	-1909
▁giliw	-1910
▁kalag	-1911
▁lunti	-1912
▁nawaw	-1913
▁takot	-1914
▁tribo	-1915
atauhan	-1916
presyon	-1917
▁nawala	-1918
▁pagkab	-1919
abukasan	-1920
akasalan	-1921
▁Leonora	-1922
▁Maganda	-1923
▁Salermo	-1924
▁simbahan	-1925
▁kagubatan	-1926
▁nagbibigay	-1927
▁pagkakataon	-1928
aa	-1929
agh	-1930
apt	-1931
duk	-1932
iri	-1933
mas	-1934
uso	-1935
yal	-1936
zon	-1937
▁Cr	-1938
akbo	-1939
awid	-1940
iman	-1941
iyon	-1942
uwid	-1943
▁And	-1944
▁Dal	-1945
▁Pum	-1946
▁Tab	-1947
▁day	-1948
▁erm	-1949
▁ika	-1950
▁maw	-1951
▁per	-1952
▁tig	-1953
aalis	-1954
aptap	-1955
inang	-1956
islap	-1957
itaas	-1958
▁Nasa	-1959
▁Pina	-1960
▁kaka	-1961
▁pand	-1962
▁pant	-1963
▁tupa	-1964
itanyo	-1965
iwalay	-1966
orilya	-1967
upunta	-1968
▁Labaw	-1969
▁bigas	-1970
▁karun	-1971
▁kilos	-1972
▁lihim	-1973
▁mangg	-1974
▁paano	-1975
alagaan	-1976
asalita	-1977
asawang	-1978
ibigang	-1979
iriwang	-1980
untahan	-1981
▁Manobo	-1982
▁dangal	-1983
▁kaagad	-1984
▁landas	-1985
▁limang	-1986
▁mandir	-1987
▁pawang	-1988
▁pulubi	-1989
▁Mabilis	-1990
▁marahil	-1991
▁masipag	-1992
▁patungo	-1993
▁sapagka	-1994
▁suliran	-1995
▁Dalawang	-1996
▁Maraming	-1997
▁ginagawa	-1998
▁madaling	-1999
▁maligaya	-2000
▁nagtagal	-2001
▁nilalang	-2002
▁mamamayan	-2003
▁nararapat	-2004
▁pagbigkas	-2005
IA	-2006
▁2	-2007
ANG	-2008
adh	-2009
ans	-2010
igo	-2011
inh	-2012
lim	-2013
ris	-2014
uba	-2015
akat	-2016
aliw	-2017
anib	-2018
ento	-2019
ibon	-2020
ikal	-2021
imit	-2022
ingk	-2023
inta	-2024
iong	-2025
ungg	-2026
▁tor	-2027
▁umi	-2028
aking	-2029
akwel	-2030
alayo	-2031
andaw	-2032
bahay	-2033
ipags	-2034
ngang	-2035
▁Nagh	-2036
▁Noon	-2037
▁Samp	-2038
▁baya	-2039
▁dako	-2040
▁damo	-2041
▁pint	-2042
ahanda	-2043
apatan	-2044
lakbay	-2045
tanong	-2046
▁bagyo	-2047
▁bukas	-2048
▁kabut	-2049
▁mapan	-2050
▁nakas	-2051
▁pagod	-2052
▁sumas	-2053
▁tangk	-2054
agumpay	-2055
apansin	-2056
ingning	-2057
intahan	-2058
▁Pagong	-2059
▁alipin	-2060
▁kabayo	-2061
▁kayong	-2062
▁pinagk	-2063
▁saging	-2064
▁tingin	-2065
asalamat	-2066
▁Kanyang	-2067
▁Makisig	-2068
▁Tandang	-2069
▁bangkay	-2070
▁gorilya	-2071
▁kasaluk	-2072
▁lungkot	-2073
▁matamis	-2074
▁nilikha	-2075
▁sandali	-2076
▁sumunod	-2077
▁katutubo	-2078
▁ermitanyo	-2079
▁malungkot	-2080
▁minamahal	-2081
▁nagkaroon	-2082
▁panaginip	-2083
▁suliranin	-2084
▁ekspresyon	-2085
▁matatagpuan	-2086
eo	-2087
▁'	-2088
▁c	-2089
AND	-2090
igm	-2091
ilo	-2092
iro	-2093
iwi	-2094
les	-2095
ukl	-2096
▁KA	-2097
ARIA	-2098
Iput	-2099
ahad	-2100
bong	-2101
hasa	-2102
iban	-2103
ifer	-2104
ikot	-2105
irog	-2106
isin	-2107
iyag	-2108
upot	-2109
▁Bag	-2110
▁Hal	-2111
▁IMP	-2112
▁apo	-2113
▁hap	-2114
▁kon	-2115
▁lul	-2116
▁mut	-2117
▁por	-2118
ababa	-2119
atili	-2120
enang	-2121
iliit	-2122
ining	-2123
sakit	-2124
ugong	-2125
▁Iput	-2126
▁angk	-2127
▁baga	-2128
▁dulo	-2129
▁sama	-2130
alakay	-2131
ambing	-2132
apatra	-2133
iyerno	-2134
▁Diwat	-2135
▁Gibon	-2136
▁Hapon	-2137
▁Indar	-2138
▁MARIA	-2139
▁banal	-2140
▁gusto	-2141
▁sasak	-2142
▁sukat	-2143
▁sumis	-2144
▁ugali	-2145
angalan	-2146
arangay	-2147
▁IMPONG	-2148
▁Manuel	-2149
▁balang	-2150
▁dakila	-2151
▁diyosa	-2152
▁ganito	-2153
▁hangad	-2154
▁hardin	-2155
▁magkas	-2156
▁makata	-2157
▁masama	-2158
▁masaya	-2159
▁pagpap	-2160
▁sanang	-2161
▁waring	-2162
▁Demonyo	-2163
▁Inahing	-2164
▁Lucifer	-2165
▁nakapag	-2166
▁pagkaka	-2167
▁pamilya	-2168
asalaysay	-2169
▁Dumating	-2170
▁Sumakwel	-2171
▁mahabang	-2172
▁napansin	-2173
▁hinahanap	-2174
▁kayamanan	-2175
▁lumilipad	-2176
▁Diwatandaw	-2177
▁paniniwala	-2178
▁Indarapatra	-2179
▁makapangyari	-2180
".	-2181
ic	-2182
mo	-2183
mp	-2184
ANA	-2185
ada	-2186
ado	-2187
rol	-2188
tod	-2189
yak	-2190
▁Ah	-2191
▁Da	-2192
▁ha	-2193
▁id	-2194
abog	-2195
akop	-2196
atap	-2197
ibik	-2198
iisa	-2199
into	-2200
ipan	-2201
itaw	-2202
iyas	-2203
nong	-2204
ugol	-2205
▁Ber	-2206
▁Gag	-2207
▁hat	-2208
Bakit	-2209
agana	-2210
aglay	-2211
alaan	-2212
alala	-2213
angon	-2214
asong	-2215
ataan	-2216
awaan	-2217
idlat	-2218
igpit	-2219
intas	-2220
uluan	-2221
uturo	-2222
▁aliw	-2223
▁anim	-2224
▁bunt	-2225
▁damb	-2226
▁itim	-2227
ahinga	-2228
akbang	-2229
alitan	-2230
andila	-2231
ernand	-2232
igmaan	-2233
imbing	-2234
otohan	-2235
unayan	-2236
usunod	-2237
▁balak	-2238
▁binub	-2239
▁burol	-2240
▁dilim	-2241
▁gamit	-2242
▁ganap	-2243
▁hamog	-2244
▁handa	-2245
▁kalak	-2246
▁mapap	-2247
▁napap	-2248
▁reyna	-2249
▁sabay	-2250
▁siyam	-2251
▁wakas	-2252
alingan	-2253
unahing	-2254
▁Berban	-2255
▁Diwata	-2256
▁Ibalon	-2257
▁Lalong	-2258
▁balita	-2259
▁biyaya	-2260
▁ganoon	-2261
▁huling	-2262
▁iisang	-2263
▁lahing	-2264
▁libing	-2265
▁mabait	-2266
▁pambih	-2267
▁pinuno	-2268
▁piyesa	-2269
▁samant	-2270
▁simula	-2271
▁sultan	-2272
Sabayang	-2273
alagahan	-2274
aririnig	-2275
▁Mahirap	-2276
▁Nagalit	-2277
▁Unnayan	-2278
▁kabayan	-2279
▁palakol	-2280
▁kabunduk	-2281
▁malayong	-2282
▁nagtungo	-2283
▁panauhin	-2284
▁impiyerno	-2285
▁kabuhayan	-2286
▁kaibigang	-2287
▁pamumuhay	-2288
▁tanghalan	-2289
▁katutubong	-2290
▁pagkatapos	-2291
▁nasasakupan	-2292
NA	-2293
UP	-2294
eb	-2295
aca	-2296
agt	-2297
ato	-2298
eba	-2299
igu	-2300
lip	-2301
non	-2302
oko	-2303
orn	-2304
pas	-2305
wit	-2306
▁Pa	-2307
▁ar	-2308
▁gr	-2309
anin	-2310
atut	-2311
ayat	-2312
ikap	-2313
ipak	-2314
nang	-2315
ubay	-2316
ubok	-2317
ugad	-2318
ugin	-2319
uwek	-2320
▁Nas	-2321
▁Pat	-2322
▁San	-2323
▁aso	-2324
▁daw	-2325
▁kuk	-2326
▁ros	-2327
▁sup	-2328
▁tit	-2329
ahati	-2330
alakh	-2331
ayway	-2332
istal	-2333
iusap	-2334
▁NANA	-2335
▁Nagl	-2336
▁Pros	-2337
▁Sino	-2338
▁alin	-2339
▁ayon	-2340
▁bung	-2341
▁maka	-2342
▁wari	-2343
amalas	-2344
amaraw	-2345
awayan	-2346
entong	-2347
erpina	-2348
ibhasa	-2349
ibutan	-2350
iguyon	-2351
ihingi	-2352
ingnan	-2353
pikong	-2354
ustong	-2355
▁Espan	-2356
▁Pagka	-2357
▁baboy	-2358
▁galak	-2359
▁kaawa	-2360
▁kasab	-2361
▁katap	-2362
▁layaw	-2363
▁likas	-2364
▁nangg	-2365
▁sikat	-2366
▁tatlo	-2367
▁tuloy	-2368
▁umuwi	-2369
iligtas	-2370
▁Bagong	-2371
▁Marami	-2372
▁alaala	-2373
▁bulong	-2374
▁kailan	-2375
▁kinuha	-2376
▁pinagt	-2377
▁tabing	-2378
aliwanag	-2379
yayaring	-2380
▁bathala	-2381
▁bugtong	-2382
▁kalungk	-2383
▁lumipad	-2384
▁marinig	-2385
▁matapos	-2386
▁nahulog	-2387
▁ninyong	-2388
▁pananim	-2389
▁pangung	-2390
▁pintuan	-2391
amangkero	-2392
▁Aliguyon	-2393
▁Berbanya	-2394
▁Mindanao	-2395
▁Sumarang	-2396
▁barangay	-2397
▁maliliit	-2398
▁nagbigay	-2399
▁nagngang	-2400
▁nakakita	-2401
▁talagang	-2402
▁magkaroon	-2403
▁matinding	-2404
▁nagsimula	-2405
▁panitikan	-2406
▁sandaling	-2407
▁tungkulin	-2408
▁Proserpina	-2409
▁manliligaw	-2410
▁mitolohiya	-2411
▁nawawalang	-2412
▁kabayanihan	-2413
▁samantalang	-2414
Sa	-2415
he	-2416
Tat	-2417
agm	-2418
wak	-2419
▁BU	-2420
▁ga	-2421
▁or	-2422
..."	-2423
aano	-2424
asam	-2425
atas	-2426
utas	-2427
yayi	-2428
▁Bah	-2429
▁Bas	-2430
▁Lib	-2431
▁Mus	-2432
▁Sul	-2433
▁lam	-2434
▁lun	-2435
▁mai	-2436
▁nad	-2437
▁neg	-2438
▁noo	-2439
▁sil	-2440
▁was	-2441
agkan	-2442
agsik	-2443
angga	-2444
angis	-2445
atong	-2446
iisip	-2447
iligo	-2448
ingap	-2449
oroon	-2450
undin	-2451
uruan	-2452
▁Saan	-2453
▁Tayo	-2454
▁kain	-2455
▁kult	-2456
▁labi	-2457
▁ulit	-2458
agalit	-2459
agamot	-2460
agatan	-2461
akaawa	-2462
anghal	-2463
asalin	-2464
awakan	-2465
iganti	-2466
ilayan	-2467
intang	-2468
irapan	-2469
uhunan	-2470
▁Aking	-2471
▁Oyayi	-2472
▁Puwek	-2473
▁Sarag	-2474
▁bakod	-2475
▁halik	-2476
▁halim	-2477
▁itaas	-2478
▁makal	-2479
▁makas	-2480
▁makik	-2481
▁manan	-2482
▁masis	-2483
▁nalul	-2484
▁nanan	-2485
▁tunog	-2486
ernando	-2487
ibigkas	-2488
ingatan	-2489
ugalian	-2490
uhalang	-2491
utangan	-2492
▁Tingal	-2493
▁bangka	-2494
▁daliri	-2495
▁dinala	-2496
▁gawing	-2497
▁gunita	-2498
▁kabila	-2499
▁kuweba	-2500
▁maling	-2501
▁sakdal	-2502
apalaran	-2503
dukasyon	-2504
▁Malakas	-2505
▁Tamaraw	-2506
▁Tinawag	-2507
▁digmaan	-2508
▁hanapin	-2509
▁kampana	-2510
▁lumapit	-2511
▁lumipas	-2512
▁lumisan	-2513
▁madilim	-2514
▁malalim	-2515
▁matuwid	-2516
▁mayaman	-2517
▁nagmula	-2518
▁paggawa	-2519
alanutian	-2520
▁Fernando	-2521
▁Sapagkat	-2522
▁bayaning	-2523
▁dalampas	-2524
▁kalayaan	-2525
▁kuwintas	-2526
▁nawawala	-2527
▁pagiging	-2528
▁panganib	-2529
▁halimbawa	-2530
▁kapalaran	-2531
▁mamamatay	-2532
▁natagpuan	-2533
▁karamdaman	-2534
▁karunungan	-2535
▁mandirigma	-2536
▁nakarating	-2537
▁pambihirang	-2538
▁pangunahing	-2539
▁punongkahoy	-2540
AB	-2541
IW	-2542
OY	-2543
ARO	-2544
Ano	-2545
itu	-2546
kop	-2547
rab	-2548
ril	-2549
udo	-2550
uka	-2551
uny	-2552
▁Ba	-2553
▁Ta	-2554
▁im	-2555
▁pl	-2556
agaw	-2557
alog	-2558
ayok	-2559
ikas	-2560
isay	-2561
ongo	-2562
ugot	-2563
▁LAK	-2564
▁TOY	-2565
▁bar	-2566
▁lim	-2567
▁tab	-2568
aanak	-2569
aaral	-2570
ambal	-2571
atnan	-2572
gayak	-2573
ibing	-2574
ibong	-2575
ikudo	-2576
iping	-2577
ngles	-2578
ulaan	-2579
uyong	-2580
▁Daga	-2581
▁Iyan	-2582
▁Mags	-2583
▁Mens	-2584
▁Nais	-2585
▁Pamb	-2586
▁Pand	-2587
▁Rosa	-2588
▁dati	-2589
▁ilan	-2590
▁kani	-2591
▁patn	-2592
▁pong	-2593
▁puri	-2594
▁sang	-2595
▁ugat	-2596
aalala	-2597
apasok	-2598
atlong	-2599
ayaang	-2600
dahang	-2601
imbang	-2602
▁Anong	-2603
▁Dagat	-2604
▁Mahal	-2605
▁abang	-2606
▁dilaw	-2607
▁gumag	-2608
▁karik	-2609
▁kayum	-2610
▁kinat	-2611
▁labas	-2612
▁lilim	-2613
▁natat	-2614
▁patak	-2615
▁totoo	-2616
▁tumat	-2617
▁utang	-2618
ahating	-2619
alaysay	-2620
amangha	-2621
ampalat	-2622
arangaw	-2623
iwayway	-2624
▁Kaagad	-2625
▁Kaptan	-2626
▁Kinuha	-2627
▁Mabuti	-2628
▁Muling	-2629
▁Simang	-2630
▁TOYANG	-2631
▁gawang	-2632
▁iniwan	-2633
▁kulang	-2634
▁magtat	-2635
▁makuha	-2636
▁malaya	-2637
▁musika	-2638
▁nagpap	-2639
▁pangit	-2640
▁pulong	-2641
▁tapang	-2642
ungkahoy	-2643
▁bungang	-2644
▁demonyo	-2645
▁gawaing	-2646
▁hanging	-2647
▁hinanap	-2648
▁kalaban	-2649
▁kalabaw	-2650
▁lumitaw	-2651
▁manging	-2652
▁matagal	-2653
▁pangkat	-2654
▁pinangg	-2655
▁pumanaw	-2656
▁sagisag	-2657
▁sampung	-2658
▁sundalo	-2659
▁Barangaw	-2660
▁Marikudo	-2661
▁Silangan	-2662
▁binatang	-2663
▁darating	-2664
▁kumakain	-2665
▁magagawa	-2666
▁magaling	-2667
▁magbalik	-2668
▁mahigpit	-2669
▁matapang	-2670
▁narating	-2671
▁sasakyan	-2672
▁sinumang	-2673
▁tuluyang	-2674
▁ginagamit	-2675
▁kalagayan	-2676
▁karagatan	-2677
▁pananalig	-2678
▁Balagtasan	-2679
▁Saragnayan	-2680
▁kabundukan	-2681
▁makarating	-2682
▁kalungkutan	-2683
▁naghihintay	-2684
▁punungkahoy	-2685
▁dalampasigan	-2686
Al	-2687
LE	-2688
LO	-2689
OG	-2690
oh	-2691
si	-2692
IWA	-2693
Nak	-2694
UAN	-2695
ema	-2696
igh	-2697
ubl	-2698
▁pr	-2699
▁un	-2700
ABLO	-2701
ARUP	-2702
LENA	-2703
Mlks	-2704
adap	-2705
ahih	-2706
alap	-2707
ihag	-2708
ilay	-2709
inaw	-2710
init	-2711
iram	-2712
tana	-2713
uksa	-2714
ukso	-2715
upok	-2716
uyak	-2717
▁Nam	-2718
▁Pak	-2719
▁awa	-2720
▁est	-2721
▁hah	-2722
▁uod	-2723
akpan	-2724
alawa	-2725
amanh	-2726
arito	-2727
buhay	-2728
inoon	-2729
ipagk	-2730
ungib	-2731
urong	-2732
yante	-2733
▁Bato	-2734
▁JUAN	-2735
▁Niya	-2736
▁Pags	-2737
▁agos	-2738
▁asal	-2739
▁caca	-2740
▁igin	-2741
▁kuba	-2742
▁laya	-2743
▁nagw	-2744
▁panl	-2745
▁puti	-2746
▁sawa	-2747
▁unti	-2748
ANDIWA	-2749
ahayag	-2750
ansang	-2751
apitan	-2752
ayanan	-2753
inigay	-2754
ukhang	-2755
usumpa	-2756
▁Buhat	-2757
▁ELENA	-2758
▁Galit	-2759
▁Karan	-2760
▁PABLO	-2761
▁PARUP	-2762
▁Panay	-2763
▁butil	-2764
▁halip	-2765
▁hamak	-2766
▁hangg	-2767
▁kapit	-2768
▁kumik	-2769
▁lamok	-2770
▁nangh	-2771
▁narir	-2772
▁paksa	-2773
▁pamam	-2774
▁pilit	-2775
▁pinto	-2776
▁rosas	-2777
▁salaw	-2778
▁sinta	-2779
▁tamis	-2780
▁tinut	-2781
abilang	-2782
agaling	-2783
alakhak	-2784
alitaan	-2785
amalaki	-2786
aramdam	-2787
oroonan	-2788
ulugang	-2789
▁Bilang	-2790
▁Muslim	-2791
▁gulang	-2792
▁hirang	-2793
▁lusong	-2794
▁magsas	-2795
▁maitim	-2796
▁mandin	-2797
▁nagkak	-2798
▁nagkas	-2799
▁nagsas	-2800
▁naroon	-2801
▁paghih	-2802
▁pinagh	-2803
▁suklay	-2804
▁tuktok	-2805
▁yungib	-2806
ahulugan	-2807
amahalan	-2808
anggapin	-2809
igayahan	-2810
otohanan	-2811
▁Biglang	-2812
▁Bugtong	-2813
▁Humadap	-2814
▁Mensahe	-2815
▁babaeng	-2816
▁bunsong	-2817
▁hahanap	-2818
▁iniibig	-2819
▁kalalak	-2820
▁labanan	-2821
▁lipunan	-2822
▁maagang	-2823
▁mahusay	-2824
▁masarap	-2825
▁ngayong	-2826
▁patayin	-2827
▁pumasok	-2828
▁pumunta	-2829
▁saknong	-2830
▁sandata	-2831
▁tawagin	-2832
▁Bulaklak	-2833
▁PARUPARO	-2834
▁libingan	-2835
▁matalino	-2836
▁mayroong	-2837
▁salaysay	-2838
▁tinanong	-2839
▁LAKANDIWA	-2840
▁kahulugan	-2841
▁katangian	-2842
▁katapusan	-2843
▁nakatulog	-2844
▁sasabihin	-2845
▁magkapatid	-2846
▁paghahanap	-2847
▁Kinabukasan	-2848
▁dambuhalang	-2849
ipagsapalaran	-2850
!!	-2851
At	-2852
BU	-2853
ND	-2854
go	-2855
ho	-2856
le	-2857
te	-2858
ue	-2859
Ako	-2860
BUY	-2861
Ito	-2862
agu	-2863
fin	-2864
hap	-2865
ida	-2866
iko	-2867
its	-2868
ote	-2869
tar	-2870
tol	-2871
uns	-2872
▁--	-2873
▁As	-2874
agit	-2875
asik	-2876
awig	-2877
ayog	-2878
ener	-2879
iang	-2880
ilak	-2881
ilik	-2882
imog	-2883
irin	-2884
isil	-2885
itas	-2886
ones	-2887
ukal	-2888
ukoy	-2889
▁Ati	-2890
▁Gum	-2891
▁III	-2892
▁Ini	-2893
▁Kak	-2894
▁Nan	-2895
▁Pas	-2896
▁adh	-2897
▁aki	-2898
▁ari	-2899
▁bus	-2900
▁dag	-2901
▁pad	-2902
▁umu	-2903
BUYOG	-2904
aawit	-2905
aliit	-2906
anaog	-2907
itiis	-2908
lakad	-2909
umula	-2910
undan	-2911
▁Anak	-2912
▁Kayo	-2913
▁Lagi	-2914
▁Lawa	-2915
▁Lena	-2916
▁Pati	-2917
▁Tang	-2918
▁alit	-2919
▁alon	-2920
▁bait	-2921
▁kaki	-2922
▁katw	-2923
▁lipi	-2924
▁porm	-2925
▁ukol	-2926
▁yaon	-2927
abango	-2928
aralan	-2929
atanaw	-2930
athala	-2931
ilikha	-2932
uluhan	-2933
▁Binig	-2934
▁Buwan	-2935
▁Dapat	-2936
▁Dulaw	-2937
▁Kundi	-2938
▁Lawin	-2939
▁Pangk	-2940
▁Papay	-2941
▁Tabor	-2942
▁Tipak	-2943
▁Unang	-2944
▁bakal	-2945
▁balon	-2946
▁hapon	-2947
▁hilig	-2948
▁hiyas	-2949
▁kalin	-2950
▁kanin	-2951
▁kapat	-2952
▁kunin	-2953
▁makab	-2954
▁mamah	-2955
▁mamas	-2956
▁pangg	-2957
▁pangh	-2958
▁sapat	-2959
▁sinus	-2960
▁sumpa	-2961
▁tanda	-2962
▁wagas	-2963
alitong	-2964
alubong	-2965
ayundin	-2966
▁Ayonan	-2967
▁Delfin	-2968
▁bumaba	-2969
▁halaga	-2970
▁hiling	-2971
▁kalang	-2972
▁kayang	-2973
▁laking	-2974
▁mapang	-2975
▁nagdur	-2976
▁payapa	-2977
▁pulang	-2978
▁sagana	-2979
▁talaga	-2980
▁tatuan	-2981
arusahan	-2982
▁BUBUYOG	-2983
▁Cristal	-2984
▁Hinanap	-2985
▁Lumipas	-2986
▁dalisay	-2987
▁lubhang	-2988
▁pagitan	-2989
▁pamamah	-2990
▁patuloy	-2991
▁sumagot	-2992
▁susunod	-2993
amanhikan	-2994
▁Prinsesa	-2995
▁ganitong	-2996
▁kalabasa	-2997
▁kapuluan	-2998
▁kilalang	-2999
▁larangan	-3000
▁marating	-3001
▁nakilala	-3002
▁paningin	-3003
▁Tipaklong	-3004
▁kasalanan	-3005
▁kasiyahan	-3006
▁kaugalian	-3007
▁nabubuhay	-3008
▁nasiyahan	-3009
▁natutulog	-3010
▁pinakamag	-3011
▁pormasyon	-3012
▁tinanggap	-3013
▁Calanutian	-3014
▁mahalagang	-3015
▁malalaking	-3016
▁naghahanap	-3017
▁nanggaling	-3018
▁Nagmalitong	-3019
▁kaligayahan	-3020
▁kasalukuyan	-3021
▁pananampalat	-3022
▁pinanggalingan	-3023
AM	-3024
Oo	-3025
bi	-3026
bo	-3027
ka	-3028
pu	-3029
ri	-3030
ss	-3031
Mga	-3032
NDO	-3033
aha	-3034
amt	-3035
goy	-3036
ikl	-3037
ini	-3038
inl	-3039
kis	-3040
lor	-3041
pot	-3042
ugn	-3043
uta	-3044
▁If	-3045
▁la	-3046
▁ub	-3047
▁us	-3048
agpo	-3049
ampa	-3050
asya	-3051
esto	-3052
haga	-3053
isda	-3054
ismo	-3055
iwas	-3056
kong	-3057
piko	-3058
tuwa	-3059
ugao	-3060
uhos	-3061
ukin	-3062
urin	-3063
▁Ahh	-3064
▁Bit	-3065
▁Bon	-3066
▁Dem	-3067
▁Gat	-3068
▁Ind	-3069
▁Int	-3070
▁Kar	-3071
▁Kul	-3072
▁Lim	-3073
▁Lus	-3074
▁hih	-3075
▁lar	-3076
▁lay	-3077
▁mau	-3078
▁naa	-3079
▁pis	-3080
▁sik	-3081
Huwag	-3082
agpis	-3083
ahala	-3084
alaka	-3085
amali	-3086
apaan	-3087
arili	-3088
dagat	-3089
iyego	-3090
uluto	-3091
▁Dala	-3092
▁INDO	-3093
▁Ikin	-3094
▁Inil	-3095
▁Magk	-3096
▁Muli	-3097
▁Sant	-3098
▁Tila	-3099
▁Tiwi	-3100
▁Yawa	-3101
▁amin	-3102
▁bers	-3103
▁dali	-3104
▁guro	-3105
▁himp	-3106
▁irog	-3107
▁kaba	-3108
▁naro	-3109
▁pina	-3110
▁suso	-3111
alanta	-3112
alikat	-3113
angaso	-3114
atanda	-3115
ayawan	-3116
ibigin	-3117
inggit	-3118
tasyon	-3119
undong	-3120
▁Delos	-3121
▁Lakan	-3122
▁Minda	-3123
▁Ngayo	-3124
▁Sipag	-3125
▁Tagak	-3126
▁Tulad	-3127
▁bigla	-3128
▁bilog	-3129
▁binab	-3130
▁butas	-3131
▁dadal	-3132
▁dahan	-3133
▁duwag	-3134
▁grupo	-3135
▁habag	-3136
▁hatol	-3137
▁humah	-3138
▁ilong	-3139
▁kamag	-3140
▁lingg	-3141
▁mahih	-3142
▁nakap	-3143
▁nasus	-3144
▁pinap	-3145
▁pista	-3146
▁pugad	-3147
▁putik	-3148
▁sangk	-3149
▁tugon	-3150
antayan	-3151
ibilang	-3152
intawak	-3153
tanggol	-3154
ubuksan	-3155
ulaklak	-3156
unawaan	-3157
undiman	-3158
ustuhan	-3159
▁Ifugao	-3160
▁Narito	-3161
▁Simula	-3162
▁Sultan	-3163
▁angkop	-3164
▁dalita	-3165
▁ganyan	-3166
▁handog	-3167
▁isdang	-3168
▁kasing	-3169
▁kilala	-3170
▁maaari	-3171
▁magawa	-3172
▁naiiba	-3173
▁nganga	-3174
▁pagdar	-3175
▁pagtut	-3176
▁perlas	-3177
▁pinagb	-3178
▁saglit	-3179
▁tumubo	-3180
▁wikang	-3181
agandang	-3182
ahahahah	-3183
akasakit	-3184
alimutan	-3185
andangan	-3186
istulang	-3187
▁Griyego	-3188
▁Matapos	-3189
▁Sumunod	-3190
▁bansang	-3191
▁bubuyog	-3192
▁dayuhan	-3193
▁humingi	-3194
▁madalas	-3195
▁magmula	-3196
▁malamig	-3197
▁mutyang	-3198
▁nabuhay	-3199
▁namuhay	-3200
▁nawalan	-3201
▁tangkay	-3202
▁tinapay	-3203
▁umakyat	-3204
ipaglaban	-3205
▁Binigyan	-3206
▁nakatira	-3207
▁naroroon	-3208
▁pagpapah	-3209
▁pamumuno	-3210
▁panganay	-3211
▁alitaptap	-3212
▁matatanda	-3213
▁pinagkaka	-3214
▁Gagalangin	-3215
▁Humadapnon	-3216
▁kapitbahay	-3217
▁karangalan	-3218
▁kasintahan	-3219
▁kayumanggi	-3220
▁Nalandangan	-3221
▁kalalakihan	-3222
▁manggagamot	-3223
▁pagdiriwang	-3224
▁paghahangad	-3225
▁pagkakaroon	-3226
Ka	-3227
Ng	-3228
ca	-3229
oc	-3230
Mab	-3231
abe	-3232
are	-3233
eho	-3234
eks	-3235
iis	-3236
kep	-3237
liy	-3238
ron	-3239
tad	-3240
tay	-3241
unl	-3242
wan	-3243
yas	-3244
▁Ed	-3245
▁El	-3246
▁Pl	-3247
▁Ul	-3248
▁es	-3249
aari	-3250
abae	-3251
abik	-3252
ahag	-3253
akda	-3254
alab	-3255
ampo	-3256
awad	-3257
awis	-3258
dali	-3259
ding	-3260
edur	-3261
enor	-3262
esus	-3263
eter	-3264
gabi	-3265
ikom	-3266
inam	-3267
kita	-3268
loob	-3269
ohol	-3270
seng	-3271
ugis	-3272
ugod	-3273
ukan	-3274
ulak	-3275
unay	-3276
usin	-3277
▁Amb	-3278
▁Edo	-3279
▁Imp	-3280
▁Kag	-3281
▁Nah	-3282
▁Pad	-3283
▁Una	-3284
▁anu	-3285
▁hag	-3286
▁lal	-3287
▁las	-3288
▁saw	-3289
▁tib	-3290
abong	-3291
adlaw	-3292
agdag	-3293
akang	-3294
alake	-3295
amtan	-3296
anais	-3297
angat	-3298
apati	-3299
arong	-3300
ayapa	-3301
dapat	-3302
egalo	-3303
erpre	-3304
iglap	-3305
ikong	-3306
iyaga	-3307
orneo	-3308
orong	-3309
palad	-3310
sabay	-3311
ubuan	-3312
▁Amom	-3313
▁Baka	-3314
▁Lila	-3315
▁Magh	-3316
▁Magm	-3317
▁Magp	-3318
▁Mayo	-3319
▁Pero	-3320
▁Pers	-3321
▁Taga	-3322
▁ginh	-3323
▁huli	-3324
▁iwan	-3325
▁kand	-3326
▁kubo	-3327
▁lung	-3328
▁mala	-3329
▁trad	-3330
▁yari	-3331
▁yata	-3332
abihan	-3333
aguita	-3334
alamat	-3335
antang	-3336
antimp	-3337
arinig	-3338
ayahan	-3339
ikling	-3340
ipunan	-3341
udulot	-3342
ulitin	-3343
▁Bawat	-3344
▁Bohol	-3345
▁Gansa	-3346
▁Hibik	-3347
▁Kaysa	-3348
▁Likal	-3349
▁Pinak	-3350
▁Sinas	-3351
▁Tinig	-3352
▁agong	-3353
▁balah	-3354
▁daang	-3355
▁dalag	-3356
▁hapis	-3357
▁kaban	-3358
▁kabig	-3359
▁kagit	-3360
▁kakay	-3361
▁kauna	-3362
▁kumak	-3363
▁lamig	-3364
▁lumul	-3365
▁mabub	-3366
▁mapat	-3367
▁matip	-3368
▁nakad	-3369
▁nasas	-3370
▁nasis	-3371
▁pakay	-3372
▁sadya	-3373
▁sayaw	-3374
▁simoy	-3375
▁sunog	-3376
▁tagap	-3377
▁talud	-3378
▁tamad	-3379
▁tangi	-3380
▁tulog	-3381
Lalapit	-3382
akasama	-3383
alagyan	-3384
alinong	-3385
apangan	-3386
ilingan	-3387
ilitang	-3388
imulang	-3389
indanao	-3390
uklasan	-3391
unahang	-3392
▁Daldal	-3393
▁Ganyan	-3394
▁Laging	-3395
▁Palaka	-3396
▁Santos	-3397
▁Wikang	-3398
▁angkin	-3399
▁buntot	-3400
▁dakong	-3401
▁damong	-3402
▁gayong	-3403
▁himpap	-3404
▁isipan	-3405
▁kainin	-3406
▁lumbay	-3407
▁mahuli	-3408
▁mawala	-3409
▁murang	-3410
▁ngalan	-3411
▁pagkag	-3412
▁paglil	-3413
▁pagtit	-3414
▁pinana	-3415
▁puntod	-3416
▁talino	-3417
▁umawit	-3418
▁usapan	-3419
▁yamang	-3420
▁Bubuyog	-3421
▁Daigdig	-3422
▁Demeter	-3423
▁Espanya	-3424
▁Mariang	-3425
▁Pedrito	-3426
▁Sumagot	-3427
▁Tatlong	-3428
▁asawang	-3429
▁hininga	-3430
▁iibigin	-3431
▁inahing	-3432
▁kabiyak	-3433
▁kasangk	-3434
▁kultura	-3435
▁kumilos	-3436
▁malimit	-3437
▁malinis	-3438
▁nagalit	-3439
▁nalilim	-3440
▁napatay	-3441
▁palagay	-3442
▁palayok	-3443
▁pangako	-3444
▁patalim	-3445
▁pinggan	-3446
▁Amomongo	-3447
▁Kaibigan	-3448
▁Madaling	-3449
▁Makiling	-3450
▁Soloista	-3451
▁bahaging	-3452
▁dalagita	-3453
▁gagawing	-3454
▁kaalaman	-3455
▁kabataan	-3456
▁kaisipan	-3457
▁kariktan	-3458
▁kasamaan	-3459
▁makatang	-3460
▁mayamang	-3461
▁maysakit	-3462
▁nagbalik	-3463
▁nakatayo	-3464
▁pinagtat	-3465
▁Halimbawa	-3466
▁Panginoon	-3467
▁kabutihan	-3468
▁kakaibang	-3469
▁karapatan	-3470
▁maririnig	-3471
▁naglakbay	-3472
▁nagmumula	-3473
▁nagsalita	-3474
▁naririnig	-3475
angailangan	-3476
erpretasyon	-3477
▁Mitolohiya	-3478
▁Pilipinong	-3479
▁hinahangad	-3480
▁kalangitan	-3481
▁katangiang	-3482
▁mangyayari	-3483
▁naniniwala	-3484
▁katotohanan	-3485
▁salamangkero	-3486
▁nagngangalang	-3487
'-	-3488
An	-3489
Ik	-3490
bl	-3491
di	-3492
mm	-3493
ow	-3494
Mal	-3495
aas	-3496
dad	-3497
dla	-3498
eta	-3499
hal	-3500
haw	-3501
ibe	-3502
kad	-3503
lam	-3504
min	-3505
mos	-3506
rum	-3507
tim	-3508
tor	-3509
uho	-3510
uod	-3511
yaw	-3512
yos	-3513
▁(1	-3514
▁(2	-3515
▁1.	-3516
▁2.	-3517
▁oh	-3518
Magp	-3519
Solo	-3520
aani	-3521
abol	-3522
acio	-3523
amak	-3524
anag	-3525
asag	-3526
atag	-3527
atak	-3528
ayad	-3529
ente	-3530
ilap	-3531
isid	-3532
kepu	-3533
laro	-3534
lolo	-3535
taas	-3536
ubad	-3537
ugun	-3538
unao	-3539
unat	-3540
unot	-3541
unpu	-3542
urog	-3543
▁Buy	-3544
▁Fil	-3545
▁Hag	-3546
▁Iba	-3547
▁Ika	-3548
▁Lis	-3549
▁Mam	-3550
▁Rog	-3551
▁Sam	-3552
▁haw	-3553
▁huk	-3554
▁kur	-3555
▁lig	-3556
▁mit	-3557
▁nau	-3558
▁pip	-3559
▁pup	-3560
▁ser	-3561
aanan	-3562
ahiya	-3563
ampot	-3564
anang	-3565
anday	-3566
angit	-3567
apong	-3568
ariwa	-3569
buwan	-3570
embro	-3571
ganda	-3572
iikan	-3573
ingit	-3574
risto	-3575
salin	-3576
tanim	-3577
ulila	-3578
uotan	-3579
▁Alam	-3580
▁Alit	-3581
▁Duri	-3582
▁Edna	-3583
▁Hari	-3584
▁Kina	-3585
▁Naku	-3586
▁Nana	-3587
▁Pabl	-3588
▁Wika	-3589
▁ahas	-3590
▁alak	-3591
▁bitu	-3592
▁bril	-3593
▁dami	-3594
▁dila	-3595
▁gayo	-3596
▁kons	-3597
▁mait	-3598
▁pari	-3599
▁taas	-3600
▁tala	-3601
▁tama	-3602
abatid	-3603
angako	-3604
atawat	-3605
awagan	-3606
awalan	-3607
awanan	-3608
awitan	-3609
edurug	-3610
ikasan	-3611
ilagay	-3612
indaya	-3613
ingwit	-3614
inhawa	-3615
isigaw	-3616
iwatig	-3617
piritu	-3618
rabaho	-3619
ubusan	-3620
umanon	-3621
uwiran	-3622
▁Bahay	-3623
▁Banal	-3624
▁Datap	-3625
▁Iyang	-3626
▁Juana	-3627
▁Lakas	-3628
▁Nakat	-3629
▁Napag	-3630
▁Narir	-3631
▁Pinat	-3632
▁Pluto	-3633
▁Reyna	-3634
▁Salaw	-3635
▁Tiyak	-3636
▁Tubig	-3637
▁akala	-3638
▁aklat	-3639
▁altar	-3640
▁bakas	-3641
▁bilin	-3642
▁bukal	-3643
▁bulag	-3644
▁daing	-3645
▁diyan	-3646
▁gamot	-3647
▁ibaba	-3648
▁iglap	-3649
▁kanan	-3650
▁kinar	-3651
▁kodla	-3652
▁ligaw	-3653
▁magig	-3654
▁mangh	-3655
▁masak	-3656
▁munti	-3657
▁nagka	-3658
▁namim	-3659
▁punta	-3660
▁sanhi	-3661
▁sigla	-3662
▁sugat	-3663
▁tapos	-3664
▁tuwid	-3665
Epikong	-3666
aganaan	-3667
alagtas	-3668
alooban	-3669
arungan	-3670
ilalang	-3671
intuang	-3672
irasong	-3673
yayahan	-3674
▁Andres	-3675
▁Anggoy	-3676
▁Bayang	-3677
▁Binata	-3678
▁Borneo	-3679
▁Ingles	-3680
▁Kasama	-3681
▁Ladlaw	-3682
▁Lisuga	-3683
▁Masaya	-3684
▁Nitong	-3685
▁Rosita	-3686
▁Tuwang	-3687
▁anuman	-3688
▁anyong	-3689
▁bangin	-3690
▁bigyan	-3691
▁buwang	-3692
▁dalang	-3693
▁diwang	-3694
▁ibigay	-3695
▁katalo	-3696
▁kidlat	-3697
▁kitang	-3698
▁maayos	-3699
▁maputi	-3700
▁nagbub	-3701
▁nagdar	-3702
▁naiwan	-3703
▁pansin	-3704
▁pinagl	-3705
▁pinagp	-3706
▁pinsan	-3707
▁tumayo	-3708
▁utusan	-3709
kanilang	-3710
uwalhati	-3711
▁Hayaang	-3712
▁Libulan	-3713
▁Lumapit	-3714
▁Matagal	-3715
▁Minango	-3716
▁Nalaman	-3717
▁Tanging	-3718
▁Tingnan	-3719
▁balikat	-3720
▁bayabas	-3721
▁binubuo	-3722
▁gantimp	-3723
▁handang	-3724
▁karapat	-3725
▁kasipag	-3726
▁larawan	-3727
▁likuran	-3728
▁maliban	-3729
▁malinaw	-3730
▁marapat	-3731
▁marikit	-3732
▁matatag	-3733
▁matibay	-3734
▁maunlad	-3735
▁nakaupo	-3736
▁pagsuyo	-3737
▁pupunta	-3738
▁salamin	-3739
▁talulot	-3740
▁tauhang	-3741
▁tingnan	-3742
▁umaawit	-3743
▁wastong	-3744
agpatuloy	-3745
aniniwala	-3746
▁Inutusan	-3747
▁Naggayak	-3748
▁Nagtungo	-3749
▁Naririto	-3750
▁Tinagong	-3751
▁giniikan	-3752
▁gumagawa	-3753
▁ibinigay	-3754
▁kaunting	-3755
▁kulungan	-3756
▁mahalaga	-3757
▁masagana	-3758
▁naghanda	-3759
▁nagpapah	-3760
▁nagpapak	-3761
▁patnubay	-3762
▁tagumpay	-3763
▁tahanang	-3764
apaliwanag	-3765
sengedurug	-3766
▁Alitaptap	-3767
▁Nalungkot	-3768
▁Palibhasa	-3769
▁edukasyon	-3770
▁hahanapin	-3771
▁halamanan	-3772
▁karamihan	-3773
▁nalalaman	-3774
▁pagbabago	-3775
▁sinaunang	-3776
▁sumusunod	-3777
▁Kailangang	-3778
▁Pangumanon	-3779
▁engkantado	-3780
▁kahilingan	-3781
▁katapangan	-3782
▁matatapang	-3783
▁pinanaugan	-3784
▁Likalibutan	-3785
▁kinaroroonan	-3786
▁pagtatanghal	-3787
▁pinakamalaking	-3788
Di	-3789
IT	-3790
Ib	-3791
LI	-3792
ao	-3793
de	-3794
ee	-3795
th	-3796
uz	-3797
▁:	-3798
Kas	-3799
Mar	-3800
May	-3801
aak	-3802
ade	-3803
bag	-3804
est	-3805
eus	-3806
hel	-3807
hoy	-3808
igi	-3809
ium	-3810
lag	-3811
ter	-3812
til	-3813
tot	-3814
umi	-3815
yth	-3816
▁Hu	-3817
▁Oo	-3818
▁dr	-3819
▁et	-3820
▁oo	-3821
Wala	-3822
aboy	-3823
agap	-3824
ahol	-3825
akap	-3826
apap	-3827
ibis	-3828
ibol	-3829
ight	-3830
ihas	-3831
ihip	-3832
ilas	-3833
inog	-3834
ipot	-3835
itag	-3836
mana	-3837
nila	-3838
ogan	-3839
ongg	-3840
potl	-3841
raso	-3842
rona	-3843
roso	-3844
sama	-3845
ubha	-3846
uhit	-3847
ukob	-3848
▁Bik	-3849
▁Hil	-3850
▁Maa	-3851
▁Nil	-3852
▁Niy	-3853
▁Pap	-3854
▁Pul	-3855
▁Sig	-3856
▁Tal	-3857
▁Yao	-3858
▁bis	-3859
▁bub	-3860
▁bug	-3861
▁dah	-3862
▁dar	-3863
▁inu	-3864
▁miy	-3865
▁mul	-3866
▁pro	-3867
▁sah	-3868
▁sug	-3869
▁win	-3870
aayos	-3871
abula	-3872
adaan	-3873
ahagi	-3874
ahuli	-3875
akong	-3876
alogo	-3877
amana	-3878
ambit	-3879
apaap	-3880
bitin	-3881
dahan	-3882
indak	-3883
isisi	-3884
liyaw	-3885
strum	-3886
tamis	-3887
uhing	-3888
uhuli	-3889
uksan	-3890
umano	-3891
undag	-3892
unuan	-3893
utong	-3894
uwing	-3895
yakap	-3896
▁Agio	-3897
▁Alin	-3898
▁Apol	-3899
▁Ayaw	-3900
▁Dali	-3901
▁Hand	-3902
▁Ibin	-3903
▁Luis	-3904
▁Lupa	-3905
▁Mang	-3906
▁Sand	-3907
▁abot	-3908
▁ayos	-3909
▁bala	-3910
▁daga	-3911
▁huni	-3912
▁iisa	-3913
▁inam	-3914
▁mamb	-3915
▁mapa	-3916
▁nagn	-3917
▁nuon	-3918
▁pula	-3919
▁sapa	-3920
▁saya	-3921
▁sulo	-3922
▁ubod	-3923
▁ulam	-3924
ahalan	-3925
ahamak	-3926
alaban	-3927
antong	-3928
awarin	-3929
ensiya	-3930
ifacio	-3931
ikayat	-3932
ilitaw	-3933
imulan	-3934
inggin	-3935
ngkong	-3936
saring	-3937
tangan	-3938
uksang	-3939
uwento	-3940
▁Akong	-3941
▁Atlas	-3942
▁Banna	-3943
▁Bulan	-3944
▁Gayun	-3945
▁Kalig	-3946
▁Makat	-3947
▁Napak	-3948
▁Talis	-3949
▁Tenor	-3950
▁Timog	-3951
▁alaga	-3952
▁bahag	-3953
▁batid	-3954
▁batok	-3955
▁bigay	-3956
▁binti	-3957
▁bumab	-3958
▁dampa	-3959
▁dumad	-3960
▁hinah	-3961
▁hinih	-3962
▁hubad	-3963
▁inaas	-3964
▁kabuk	-3965
▁kapar	-3966
▁kapay	-3967
▁kulog	-3968
▁lipad	-3969
▁lunas	-3970
▁maaga	-3971
▁madla	-3972
▁malam	-3973
▁masus	-3974
▁matin	-3975
▁mithi	-3976
▁nalal	-3977
▁panib	-3978
▁papel	-3979
▁pinam	-3980
▁pinat	-3981
▁pugon	-3982
▁sanda	-3983
▁sarap	-3984
▁sinag	-3985
▁sisiw	-3986
▁takip	-3987
agalang	-3988
aganang	-3989
agsikan	-3990
ahandog	-3991
aligaya	-3992
aliksik	-3993
alimbag	-3994
amasyal	-3995
amtaman	-3996
angkang	-3997
araanan	-3998
ibigyan	-3999
intulot	-4000
itingin	-4001
nanakaw	-4002
ugnayan	-4003
uturing	-4004
▁Abyang	-4005
▁Batooy	-4006
▁Buyung	-4007
▁Diyosa	-4008
▁Dunong	-4009
▁Ibigin	-4010
▁Langit	-4011
▁Nasaan	-4012
▁Rogong	-4013
▁adhika	-4014
▁buksan	-4015
▁dalhin	-4016
▁dugong	-4017
▁gising	-4018
▁hating	-4019
▁ipinag	-4020
▁kaakit	-4021
▁kaliwa	-4022
▁kawili	-4023
▁korona	-4024
▁kumuha	-4025
▁kusang	-4026
▁lumang	-4027
▁lungga	-4028
▁mainit	-4029
▁naglil	-4030
▁nagpat	-4031
▁naisip	-4032
▁nanaog	-4033
▁niyong	-4034
▁paanan	-4035
▁pagsus	-4036
▁patung	-4037
▁pinags	-4038
▁pinang	-4039
▁tahana	-4040
▁talang	-4041
▁tangan	-4042
▁umibig	-4043
▁umiyak	-4044
ahimikan	-4045
aligiran	-4046
amatayan	-4047
amdaming	-4048
ampangan	-4049
angkilik	-4050
itingala	-4051
itingnan	-4052
potlight	-4053
ungkulan	-4054
▁Lalabas	-4055
▁Matulog	-4056
▁Maynila	-4057
▁Mayroon	-4058
▁Salamat	-4059
▁babalik	-4060
▁bandila	-4061
▁gagamit	-4062
▁ginhawa	-4063
▁gustong	-4064
▁hakbang	-4065
▁halimaw	-4066
▁itataas	-4067
▁kapalit	-4068
▁kasabay	-4069
▁lalapit	-4070
▁lumikha	-4071
▁magsisi	-4072
▁maingat	-4073
▁mapalad	-4074
▁naganap	-4075
▁nakasal	-4076
▁nangung	-4077
▁negrito	-4078
▁salamat	-4079
▁sumakay	-4080
▁sumapit	-4081
▁sumisid	-4082
▁supling	-4083
▁tuluyan	-4084
▁tumanda	-4085
▁umagang	-4086
anyayahan	-4087
▁Alindaya	-4088
▁Dulliyaw	-4089
▁Nagpunta	-4090
▁Napansin	-4091
▁Narating	-4092
▁Talisain	-4093
▁Tulungan	-4094
▁bersiyon	-4095
▁bibigkas	-4096
▁bumagsak	-4097
▁dingding	-4098
▁ginawang	-4099
▁hiniling	-4100
▁ibibigay	-4101
▁kampupot	-4102
▁katwiran	-4103
▁kinakain	-4104
▁kundiman	-4105
▁mabigyan	-4106
▁magalang	-4107
▁magdamag	-4108
▁magising	-4109
▁makakain	-4110
▁mangmang	-4111
▁mangyari	-4112
▁masining	-4113
▁miyembro	-4114
▁pagkaing	-4115
▁pagkakas	-4116
▁pagpapak	-4117
▁pagsubok	-4118
▁silangan	-4119
▁Bonifacio	-4120
▁Nagkaroon	-4121
▁Pagkaraan	-4122
▁brilyante	-4123
▁kalikasan	-4124
▁kapatagan	-4125
▁karaniwan	-4126
▁kasayahan	-4127
▁kasipagan	-4128
▁mahimbing	-4129
▁naglahong	-4130
▁namumuhay	-4131
▁nanirahan	-4132
▁paglingap	-4133
▁papalapit	-4134
▁tanggapin	-4135
itolohiyang	-4136
▁Balintawak	-4137
▁Isinusumpa	-4138
▁Salawikain	-4139
▁binibigkas	-4140
▁engkantada	-4141
▁gantimpala	-4142
▁ginintuang	-4143
▁himagsikan	-4144
▁himpapawid	-4145
▁kabalagtas	-4146
▁kabutihang	-4147
▁kagitingan	-4148
▁kagustuhan	-4149
▁kapayapaan	-4150
▁kasaganaan	-4151
▁masaganang	-4152
▁naglalakad	-4153
▁nagpatuloy	-4154
▁nangyayari	-4155
▁pagtatanim	-4156
▁pamamahala	-4157
▁pinuntahan	-4158
▁salawikain	-4159
▁Samantalang	-4160
▁kahalagahan	-4161
▁kasangkapan	-4162
▁katahimikan	-4163
▁kinabukasan	-4164
▁magkabilang	-4165
▁magkaibigan	-4166
▁maglalakbay	-4167
▁matatandang	-4168
▁tagapagmana	-4169
▁paglalarawan	-4170
▁pangyayaring	-4171
▁napakagandang	-4172
▁pagsasalaysay	-4173
▁makapangyarihan	-4174
AG	-4175
It	-4176
Pa	-4177
dr	-4178
gl	-4179
iv	-4180
Ina	-4181
PIT	-4182
can	-4183
ela	-4184
elo	-4185
eto	-4186
ipo	-4187
ngi	-4188
oby	-4189
pat	-4190
rom	-4191
sil	-4192
tao	-4193
uya	-4194
wis	-4195
yag	-4196
▁Fr	-4197
▁La	-4198
▁Or	-4199
▁Uv	-4200
▁am	-4201
▁iw	-4202
▁kw	-4203
agis	-4204
agon	-4205
agos	-4206
anto	-4207
apad	-4208
awng	-4209
buan	-4210
daan	-4211
dala	-4212
eses	-4213
illa	-4214
ilok	-4215
ipat	-4216
iyab	-4217
iyus	-4218
laki	-4219
oron	-4220
otoo	-4221
pada	-4222
pain	-4223
ramo	-4224
ulid	-4225
umin	-4226
unaw	-4227
upil	-4228
ural	-4229
usob	-4230
usta	-4231
utya	-4232
wari	-4233
wili	-4234
▁Ale	-4235
▁Jat	-4236
▁Kem	-4237
▁Pam	-4238
▁Sag	-4239
▁Tik	-4240
▁hul	-4241
▁ind	-4242
▁ing	-4243
▁ins	-4244
▁lab	-4245
▁tik	-4246
▁tur	-4247
PITAN	-4248
aalay	-4249
adali	-4250
aguan	-4251
alagi	-4252
alima	-4253
andan	-4254
anggo	-4255
asdan	-4256
bayad	-4257
bayat	-4258
daang	-4259
edium	-4260
embre	-4261
esang	-4262
ibili	-4263
iglig	-4264
ihasa	-4265
imlan	-4266
itlog	-4267
iwant	-4268
kapal	-4269
ubali	-4270
ubing	-4271
ugnay	-4272
ukuha	-4273
uming	-4274
ungit	-4275
unian	-4276
uusap	-4277
uyuan	-4278
uyuko	-4279
wayen	-4280
westo	-4281
▁Ahhh	-4282
▁Awit	-4283
▁Buod	-4284
▁Cruz	-4285
▁Dula	-4286
▁Flor	-4287
▁Gabi	-4288
▁Herm	-4289
▁Iyon	-4290
▁Pagt	-4291
▁Rita	-4292
▁Sina	-4293
▁Ulan	-4294
▁Unti	-4295
▁Uwak	-4296
▁akda	-4297
▁alag	-4298
▁alay	-4299
▁band	-4300
▁biro	-4301
▁diin	-4302
▁dili	-4303
▁idin	-4304
▁ipak	-4305
▁karn	-4306
▁pako	-4307
▁poot	-4308
▁pusp	-4309
▁sanl	-4310
▁taos	-4311
agalan	-4312
aganap	-4313
agutan	-4314
ahanga	-4315
ahanin	-4316
ahatid	-4317
akutan	-4318
alinga	-4319
alipin	-4320
asinan	-4321
awakas	-4322
awngaw	-4323
emonya	-4324
endeng	-4325
halang	-4326
ibuhin	-4327
ighati	-4328
ikilos	-4329
ilihan	-4330
ipitas	-4331
isyong	-4332
salita	-4333
ubukas	-4334
ubukin	-4335
ugatan	-4336
ugutom	-4337
ulutan	-4338
uparan	-4339
▁Akala	-4340
▁Bagyo	-4341
▁Bangk	-4342
▁Buong	-4343
▁Doron	-4344
▁Huwan	-4345
▁Ilian	-4346
▁Naawa	-4347
▁Sangk	-4348
▁Siyam	-4349
▁Tunay	-4350
▁Wigan	-4351
▁aalis	-4352
▁agila	-4353
▁balit	-4354
▁batas	-4355
▁beses	-4356
▁bilis	-4357
▁braso	-4358
▁bumub	-4359
▁busog	-4360
▁gatas	-4361
▁ginag	-4362
▁gulat	-4363
▁hawla	-4364
▁hugis	-4365
▁kakah	-4366
▁kalul	-4367
▁kaunl	-4368
▁likha	-4369
▁makag	-4370
▁makap	-4371
▁mapup	-4372
▁nalag	-4373
▁natit	-4374
▁nguni	-4375
▁palam	-4376
▁pamim	-4377
▁papag	-4378
▁patut	-4379
▁pinab	-4380
▁pipit	-4381
▁sahig	-4382
▁salat	-4383
▁sinis	-4384
▁sulok	-4385
▁tabak	-4386
▁tagal	-4387
▁tagpo	-4388
▁tigil	-4389
▁tiyan	-4390
▁tuhod	-4391
agdagan	-4392
amasdan	-4393
ansones	-4394
apitong	-4395
atiling	-4396
bitinan	-4397
higanti	-4398
hininga	-4399
iibigan	-4400
ikilala	-4401
isilang	-4402
ubunduk	-4403
uhunang	-4404
unguhan	-4405
▁Bahagi	-4406
▁Bituin	-4407
▁Dinala	-4408
▁Halika	-4409
▁Kumuha	-4410
▁Ligaya	-4411
▁Maliit	-4412
▁Mangga	-4413
▁Nawala	-4414
▁Punong	-4415
▁Pusong	-4416
▁Puting	-4417
▁Siyang	-4418
▁Uvigan	-4419
▁Yamang	-4420
▁alagad	-4421
▁alamin	-4422
▁amihan	-4423
▁baybay	-4424
▁bigkas	-4425
▁butong	-4426
▁dahong	-4427
▁dragon	-4428
▁ikinab	-4429
▁kabata	-4430
▁kastil	-4431
▁kinaka	-4432
▁kislap	-4433
▁lalake	-4434
▁madali	-4435
▁mahina	-4436
▁makain	-4437
▁mangga	-4438
▁mapagm	-4439
▁minana	-4440
▁nagsus	-4441
▁narito	-4442
▁pagpup	-4443
▁palang	-4444
▁pantay	-4445
▁pataas	-4446
▁pinaka	-4447
▁pisngi	-4448
▁rarang	-4449
▁sining	-4450
▁sundin	-4451
▁taghoy	-4452
▁taguan	-4453
▁tamang	-4454
▁tinang	-4455
agkaloob	-4456
alahanin	-4457
angkahoy	-4458
▁Babalik	-4459
▁Ingkong	-4460
▁Jatakas	-4461
▁KAPITAN	-4462
▁Lumakad	-4463
▁Marahil	-4464
▁Maranao	-4465
▁Matsing	-4466
▁Nakapag	-4467
▁Nalbuan	-4468
▁Namatay	-4469
▁Panahon	-4470
▁Pandora	-4471
▁Pangkas	-4472
▁Pinilit	-4473
▁Tinungo	-4474
▁alagang	-4475
▁aliping	-4476
▁angking	-4477
▁bilangg	-4478
▁busilak	-4479
▁gaanong	-4480
▁harapan	-4481
▁huminga	-4482
▁ibabang	-4483
▁iligtas	-4484
▁instrum	-4485
▁ipinagb	-4486
▁kahapon	-4487
▁kalakal	-4488
▁kalapit	-4489
▁kukunin	-4490
▁kumalat	-4491
▁layunin	-4492
▁limutin	-4493
▁malupit	-4494
▁matikas	-4495
▁minsang	-4496
▁nagdaan	-4497
▁nagsabi	-4498
▁nalaman	-4499
▁namamah	-4500
▁nanging	-4501
▁natakot	-4502
▁pahayag	-4503
▁palabas	-4504
▁panulat	-4505
▁pasakit	-4506
▁pinatay	-4507
▁sangkap	-4508
▁sinuman	-4509
▁sumikat	-4510
▁takdang	-4511
▁torogan	-4512
▁umunlad	-4513
ahulugang	-4514
aramdaman	-4515
▁Handiong	-4516
▁Kayganda	-4517
▁Kembayat	-4518
▁Maaaring	-4519
▁Magbitag	-4520
▁Magwayen	-4521
▁Nalimbag	-4522
▁Namangha	-4523
▁Persiyus	-4524
▁Sinapati	-4525
▁balitang	-4526
▁dadalhin	-4527
▁gayundin	-4528
▁ikatlong	-4529
▁kalahati	-4530
▁kasamang	-4531
▁kuliglig	-4532
▁lipunang	-4533
▁mabisang	-4534
▁magbigay	-4535
▁marangal	-4536
▁mawawala	-4537
▁mayabang	-4538
▁nagdulot	-4539
▁naliligo	-4540
▁pabulang	-4541
▁paggamit	-4542
▁paggiliw	-4543
▁paghanga	-4544
▁paglakad	-4545
▁pagsinta	-4546
▁sabayang	-4547
▁sariwang	-4548
▁taludtod	-4549
▁tanghali	-4550
▁Kamatayan	-4551
▁Magandang	-4552
▁Makatunao	-4553
▁Malungkot	-4554
▁Tenoriong	-4555
▁damdaming	-4556
▁halimuyak	-4557
▁ikalawang	-4558
▁isinilang	-4559
▁kahirapan	-4560
▁kakayahan	-4561
▁kamahalan	-4562
▁kasabikan	-4563
▁kaugnayan	-4564
▁magaganda	-4565
▁magsasaka	-4566
▁malalakas	-4567
▁maliwanag	-4568
▁nagtanong	-4569
▁nakaharap	-4570
▁pamayanan	-4571
▁spotlight	-4572
▁tumanggap	-4573
▁Ginbitinan	-4574
▁Kaligirang	-4575
▁Pangasinan	-4576
▁hatinggabi	-4577
▁magnanakaw	-4578
▁magpakasal	-4579
▁maningning	-4580
▁masasamang	-4581
▁nagkasakit	-4582
▁nagpasalin	-4583
▁pagbabalik	-4584
▁paglalaban	-4585
▁pagsintang	-4586
▁pamamaraan	-4587
▁balahibuhin	-4588
▁kagandahang	-4589
▁magkakaroon	-4590
▁mangingisda	-4591
▁nagdiriwang	-4592
▁naghahangad	-4593
▁naglalakbay	-4594
▁nagtataglay	-4595
▁pagbabagong	-4596
▁pangungusap	-4597
▁kasalukuyang	-4598
▁mangyayaring	-4599
▁napakalaking	-4600
▁pagkakataong	-4601
▁pagmamahalan	-4602
▁magkasintahan	-4603
▁Interpretasyon	-4604
▁Pangkasaysayan	-4605
▁nagpapaliwanag	-4606
▁pananampalataya	-4607
Ia	-4608
Ul	-4609
ch	-4610
Mag	-4611
Mat	-4612
atr	-4613
bgl	-4614
dim	-4615
eda	-4616
eeg	-4617
egh	-4618
eri	-4619
iga	-4620
ihi	-4621
ima	-4622
ion	-4623
lal	-4624
lon	-4625
mah	-4626
mal	-4627
mat	-4628
ope	-4629
roc	-4630
sob	-4631
ton	-4632
▁Em	-4633
▁SI	-4634
▁Te	-4635
▁Ut	-4636
▁uw	-4637
AMAN	-4638
Ikaw	-4639
Iyan	-4640
Saan	-4641
abos	-4642
akin	-4643
alot	-4644
aloy	-4645
amao	-4646
aram	-4647
aray	-4648
ariw	-4649
atal	-4650
atin	-4651
atlo	-4652
bata	-4653
bers	-4654
elih	-4655
engk	-4656
esta	-4657
hhhh	-4658
ibot	-4659
idad	-4660
iiba	-4661
ilat	-4662
ilio	-4663
irit	-4664
isap	-4665
isit	-4666
kaya	-4667
mong	-4668
oras	-4669
paro	-4670
puno	-4671
tama	-4672
taon	-4673
uban	-4674
ugay	-4675
ukad	-4676
ukaw	-4677
ukay	-4678
ulum	-4679
umpo	-4680
unos	-4681
usot	-4682
utak	-4683
utla	-4684
utop	-4685
uwat	-4686
uway	-4687
uyas	-4688
uyin	-4689
▁Aba	-4690
▁Apo	-4691
▁Bub	-4692
▁Buh	-4693
▁Bun	-4694
▁Hah	-4695
▁Has	-4696
▁Hes	-4697
▁Map	-4698
▁Rom	-4699
▁Sas	-4700
▁Sus	-4701
▁aan	-4702
▁abo	-4703
▁ala	-4704
▁and	-4705
▁big	-4706
▁dam	-4707
▁dat	-4708
▁diy	-4709
▁dos	-4710
▁etn	-4711
▁hab	-4712
▁hik	-4713
▁hit	-4714
▁huw	-4715
▁mum	-4716
▁puw	-4717
▁sob	-4718
▁tap	-4719
▁uli	-4720
Babae	-4721
Diyos	-4722
Epiko	-4723
abago	-4724
abato	-4725
abola	-4726
agtas	-4727
akala	-4728
akand	-4729
ambot	-4730
ampok	-4731
angad	-4732
angin	-4733
anubo	-4734
areal	-4735
arusa	-4736
asiya	-4737
atiin	-4738
awiin	-4739
ayain	-4740
ayuan	-4741
bigay	-4742
handa	-4743
idlip	-4744
ikaan	-4745
ilaan	-4746
imdim	-4747
imtim	-4748
ingas	-4749
inlok	-4750
intik	-4751
ipang	-4752
iwaga	-4753
iwika	-4754
lipad	-4755
nilay	-4756
oloko	-4757
palit	-4758
rinig	-4759
saing	-4760
uezon	-4761
umbas	-4762
unsod	-4763
untik	-4764
unton	-4765
upaan	-4766
yagan	-4767
▁Bumb	-4768
▁Cora	-4769
▁Gaya	-4770
▁Kami	-4771
▁Kamp	-4772
▁Lahi	-4773
▁Lalo	-4774
▁Lope	-4775
▁Magt	-4776
▁Mong	-4777
▁Naka	-4778
▁Paib	-4779
▁Puno	-4780
▁Puso	-4781
▁Sabi	-4782
▁bida	-4783
▁bote	-4784
▁buti	-4785
▁dagl	-4786
▁edad	-4787
▁emos	-4788
▁hiya	-4789
▁igat	-4790
▁iyak	-4791
▁kabu	-4792
▁kusa	-4793
▁leeg	-4794
▁luma	-4795
▁maip	-4796
▁mesa	-4797
▁naip	-4798
▁nami	-4799
▁pain	-4800
▁pait	-4801
▁paru	-4802
▁pera	-4803
▁pero	-4804
▁sist	-4805
▁suot	-4806
▁tadh	-4807
▁tali	-4808
▁tawa	-4809
▁tugt	-4810
▁unos	-4811
Alamat	-4812
Ngayon	-4813
Ulitin	-4814
aanong	-4815
aantay	-4816
aasawa	-4817
abalot	-4818
abasag	-4819
adyang	-4820
agatin	-4821
agusto	-4822
ahamok	-4823
akbong	-4824
aksaya	-4825
alahad	-4826
alipas	-4827
amaliw	-4828
amante	-4829
anawan	-4830
angkat	-4831
angkin	-4832
angkop	-4833
ariang	-4834
asakay	-4835
daling	-4836
eghorn	-4837
igipit	-4838
iisang	-4839
ilahin	-4840
ilipat	-4841
ilitan	-4842
iliyag	-4843
imutan	-4844
inting	-4845
intong	-4846
isahan	-4847
iyakap	-4848
langan	-4849
onggon	-4850
oyagan	-4851
pantay	-4852
raming	-4853
samang	-4854
tataka	-4855
ugugol	-4856
untong	-4857
upitan	-4858
utyang	-4859
uugali	-4860
▁Baran	-4861
▁Batid	-4862
▁Bukid	-4863
▁Bukod	-4864
▁Gusto	-4865
▁Higit	-4866
▁Iyong	-4867
▁Jesus	-4868
▁Lalap	-4869
▁Natat	-4870
▁Natut	-4871
▁Nguni	-4872
▁Patay	-4873
▁Samar	-4874
▁alang	-4875
▁along	-4876
▁bigat	-4877
▁binhi	-4878
▁binib	-4879
▁bungo	-4880
▁daloy	-4881
▁digma	-4882
▁duhat	-4883
▁hangi	-4884
▁hener	-4885
▁himig	-4886
▁ingat	-4887
▁kaisa	-4888
▁kalan	-4889
▁kalig	-4890
▁kamao	-4891
▁kanal	-4892
▁karne	-4893
▁lason	-4894
▁lawin	-4895
▁mahah	-4896
▁mahuh	-4897
▁malig	-4898
▁mayay	-4899
▁minsa	-4900
▁mutya	-4901
▁nahih	-4902
▁napan	-4903
▁napip	-4904
▁niyog	-4905
▁papay	-4906
▁pauwi	-4907
▁pawis	-4908
▁payat	-4909
▁pinas	-4910
▁pinup	-4911
▁taluk	-4912
▁tatak	-4913
▁tibay	-4914
▁tinal	-4915
▁tungo	-4916
▁ulang	-4917
▁ulila	-4918
Lalabas	-4919
Salamat	-4920
Uulitin	-4921
agtapat	-4922
akbuhan	-4923
anganib	-4924
atayuan	-4925
atingin	-4926
hikayat	-4927
itikang	-4928
iyahang	-4929
umbalik	-4930
unggali	-4931
▁Hasmin	-4932
▁Iniwan	-4933
▁Kayong	-4934
▁Malaki	-4935
▁Malaya	-4936
▁Naisip	-4937
▁Natuwa	-4938
▁Paalam	-4939
▁Pantay	-4940
▁Taglay	-4941
▁Tumayo	-4942
▁Waring	-4943
▁Yaring	-4944
▁awitin	-4945
▁bagang	-4946
▁bubong	-4947
▁bughaw	-4948
▁daanan	-4949
▁espada	-4950
▁inggit	-4951
▁kabibe	-4952
▁kaming	-4953
▁kampon	-4954
▁kanang	-4955
▁kinain	-4956
▁laruan	-4957
▁libong	-4958
▁magtot	-4959
▁mailap	-4960
▁mapagk	-4961
▁masdan	-4962
▁misyon	-4963
▁naghih	-4964
▁nagpup	-4965
▁nakaka	-4966
▁nasang	-4967
▁paalam	-4968
▁pagbib	-4969
▁paghah	-4970
▁pagkah	-4971
▁pagkal	-4972
▁pagkas	-4973
▁pagmam	-4974
▁pagnan	-4975
▁patpat	-4976
▁piging	-4977
▁puring	-4978
▁regalo	-4979
▁sumama	-4980
▁tanang	-4981
▁tugtog	-4982
▁tulain	-4983
▁turuan	-4984
........	-4985
alarawan	-4986
liwayway	-4987
▁Bandila	-4988
▁Corazon	-4989
▁Epikong	-4990
▁Filipin	-4991
▁Hagibis	-4992
▁Katulad	-4993
▁Kawayan	-4994
▁Liwanag	-4995
▁Lumatay	-4996
▁Lumikha	-4997
▁Madalas	-4998
▁Natakot	-4999
▁Paganay	-5000
▁Pumayag	-5001
▁Sapagka	-5002
▁Tumawag	-5003
▁balaraw	-5004
▁bintana	-5005
▁dumalaw	-5006
▁emosyon	-5007
▁ganyang	-5008
▁ginamit	-5009
▁hawakan	-5010
▁ibababa	-5011
▁igalang	-5012
▁inaasam	-5013
▁itinuro	-5014
▁kabihas	-5015
▁kadilim	-5016
▁kamalig	-5017
▁kapitan	-5018
▁lalabas	-5019
▁lambing	-5020
▁lupaing	-5021
▁mababaw	-5022
▁madlang	-5023
▁magluto	-5024
▁magsabi	-5025
▁mahalin	-5026
▁mahulog	-5027
▁malawak	-5028
▁malubha	-5029
▁mamunga	-5030
▁mapatay	-5031
▁marupok	-5032
▁matulog	-5033
▁minahal	-5034
▁nakakat	-5035
▁nangags	-5036
▁pagpili	-5037
▁pakasal	-5038
▁pananaw	-5039
▁paraang	-5040
▁puhunan	-5041
▁pumayag	-5042
▁sultana	-5043
▁sumigaw	-5044
▁tadhana	-5045
▁totoong	-5046
▁umiibig	-5047
▁umiiyak	-5048
▁watawat	-5049
alinghaga	-5050
amadaling	-5051
asalubong	-5052
iwantiwan	-5053
▁Balagtas	-5054
▁Bumbaran	-5055
▁Magulang	-5056
▁Masayang	-5057
▁Masinlok	-5058
▁Maykapal	-5059
▁Mayroong	-5060
▁Nagising	-5061
▁Parabula	-5062
▁Sabayang	-5063
▁Sampalok	-5064
▁dosenang	-5065
▁gunitain	-5066
▁ikinasal	-5067
▁inilagay	-5068
▁kadakila	-5069
▁karimlan	-5070
▁kasuotan	-5071
▁katulong	-5072
▁kawawang	-5073
▁kawayang	-5074
▁lansones	-5075
▁liwayway	-5076
▁mababang	-5077
▁mabangis	-5078
▁magarang	-5079
▁magmahal	-5080
▁makitang	-5081
▁malalaki	-5082
▁mamasyal	-5083
▁manggang	-5084
▁manugang	-5085
▁mapayapa	-5086
▁matuling	-5087
▁maybahay	-5088
▁nahuhuli	-5089
▁nasabing	-5090
▁natutong	-5091
▁pagkakah	-5092
▁pagkakal	-5093
▁palakpak	-5094
▁palamuti	-5095
▁pantalon	-5096
▁parabola	-5097
▁paruparo	-5098
▁sakaling	-5099
▁tinubuan	-5100
apangasawa	-5101
▁Baranugun	-5102
▁Dinoyagan	-5103
▁Edukasyon	-5104
▁Maririnig	-5105
▁Nararapat	-5106
▁Naririnig	-5107
▁Paiborong	-5108
▁Tinatawag	-5109
▁gagamitin	-5110
▁gumagamit	-5111
▁humihingi	-5112
▁ipinakita	-5113
▁kabanalan	-5114
▁kakahuyan	-5115
▁karanasan	-5116
▁katuwiran	-5117
▁magkasama	-5118
▁makabalik	-5119
▁mamahalin	-5120
▁mananakop	-5121
▁manirahan	-5122
▁mapalagay	-5123
▁matatawag	-5124
▁mistulang	-5125
▁nagbabago	-5126
▁nagdurusa	-5127
▁nagsisisi	-5128
▁pagkabata	-5129
▁pakasalan	-5130
▁palibhasa	-5131
▁pinakamah	-5132
▁seremonya	-5133
▁Karaniwang	-5134
▁Lalapindig	-5135
▁Magindanao	-5136
▁Nagpatuloy	-5137
▁Sampaguita	-5138
▁gumagapang	-5139
▁kalahating	-5140
▁katamtaman	-5141
▁mangangaso	-5142
▁masasabing	-5143
▁matalinong	-5144
▁nagbabadya	-5145
▁nagpakasal	-5146
▁pagkakaisa	-5147
▁pagsasayaw	-5148
▁pahintulot	-5149
▁pamanhikan	-5150
▁panibagong	-5151
▁panitikang	-5152
▁sinalubong	-5153
▁ipagtanggol	-5154
▁nangangarap	-5155
▁pagsasalita	-5156
▁pamamalakad	-5157
▁pangalawang	-5158
▁Maniwantiwan	-5159
▁Salamangkero	-5160
▁bungangkahoy	-5161
▁kinatatayuan	-5162
▁paghihiganti	-5163
▁pagpapahalaga	-5164
▁pakikipaglaban	-5165
):	-5166
12	-5167
AS	-5168
AY	-5169
HH	-5170
II	-5171
NI	-5172
UN	-5173
co	-5174
ps	-5175
se	-5176
All	-5177
Kay	-5178
LAK	-5179
Mam	-5180
Mas	-5181
PAG	-5182
abo	-5183
aly	-5184
anc	-5185
ani	-5186
arl	-5187
ast	-5188
ayu	-5189
bah	-5190
cav	-5191
ibu	-5192
ice	-5193
ido	-5194
irh	-5195
ism	-5196
ket	-5197
kin	-5198
kod	-5199
mag	-5200
mar	-5201
may	-5202
mpa	-5203
mpo	-5204
nap	-5205
owa	-5206
pad	-5207
pal	-5208
pok	-5209
ral	-5210
rip	-5211
ser	-5212
tal	-5213
udy	-5214
ukd	-5215
ver	-5216
wid	-5217
yol	-5218
▁Ad	-5219
▁En	-5220
▁IV	-5221
▁Oy	-5222
ANDA	-5223
Andr	-5224
Kasi	-5225
Mags	-5226
abon	-5227
abut	-5228
ahok	-5229
alau	-5230
alop	-5231
alul	-5232
amon	-5233
ampi	-5234
anod	-5235
aong	-5236
apwa	-5237
atol	-5238
atub	-5239
awal	-5240
bing	-5241
echo	-5242
ekto	-5243
enta	-5244
eron	-5245
eyno	-5246
fina	-5247
ibit	-5248
igin	-5249
ikip	-5250
inda	-5251
inip	-5252
ipol	-5253
irio	-5254
itil	-5255
iwag	-5256
iwil	-5257
lupa	-5258
ngit	-5259
oche	-5260
oice	-5261
orin	-5262
puso	-5263
puti	-5264
rado	-5265
rami	-5266
rang	-5267
rita	-5268
ubli	-5269
ugma	-5270
uhaw	-5271
uhog	-5272
ular	-5273
umba	-5274
upas	-5275
usad	-5276
usal	-5277
usaw	-5278
yaya	-5279
▁Aan	-5280
▁DUN	-5281
▁Kad	-5282
▁Kur	-5283
▁Med	-5284
▁Pah	-5285
▁Sib	-5286
▁Sis	-5287
▁Sol	-5288
▁Tao	-5289
▁Tar	-5290
▁Tok	-5291
▁Ton	-5292
▁Uri	-5293
▁aks	-5294
▁ani	-5295
▁api	-5296
▁ber	-5297
▁bil	-5298
▁del	-5299
▁doo	-5300
▁emp	-5301
▁gar	-5302
▁gas	-5303
▁hid	-5304
▁isk	-5305
▁iya	-5306
▁kun	-5307
▁pit	-5308
▁pos	-5309
▁reh	-5310
▁sol	-5311
Galit	-5312
Gusto	-5313
Higit	-5314
aalab	-5315
aaliw	-5316
aaway	-5317
abila	-5318
abuti	-5319
adtad	-5320
aglit	-5321
agulo	-5322
agupa	-5323
aksil	-5324
alaot	-5325
aligt	-5326
angya	-5327
anhik	-5328
antog	-5329
aping	-5330
arami	-5331
arida	-5332
aruan	-5333
aruga	-5334
ayari	-5335
cavay	-5336
endag	-5337
engke	-5338
idlan	-5339
ighan	-5340
iguni	-5341
impal	-5342
inaas	-5343
ipapa	-5344
ipong	-5345
iring	-5346
obong	-5347
odoro	-5348
okawa	-5349
sunod	-5350
tuloy	-5351
ubang	-5352
ubsob	-5353
ukang	-5354
ungaw	-5355
ungay	-5356
ungis	-5357
unung	-5358
urusa	-5359
uulit	-5360
uutos	-5361
uwahe	-5362
yahan	-5363
▁Abot	-5364
▁Aila	-5365
▁Atis	-5366
▁Band	-5367
▁Bata	-5368
▁Dugo	-5369
▁Gran	-5370
▁Haba	-5371
▁Ibon	-5372
▁Igin	-5373
▁Ilan	-5374
▁Impo	-5375
▁Kaig	-5376
▁Kris	-5377
▁Marc	-5378
▁Maru	-5379
▁Maya	-5380
▁Pagm	-5381
▁Seus	-5382
▁Sing	-5383
▁Tubo	-5384
▁Wari	-5385
▁asin	-5386
▁bany	-5387
▁baro	-5388
▁bati	-5389
▁bola	-5390
▁dula	-5391
▁gabe	-5392
▁gawi	-5393
▁goby	-5394
▁halo	-5395
▁hits	-5396
▁ingk	-5397
▁isus	-5398
▁itak	-5399
▁kayl	-5400
▁kays	-5401
▁kont	-5402
▁kump	-5403
▁kuta	-5404
▁lamp	-5405
▁lobo	-5406
▁magw	-5407
▁maih	-5408
▁mais	-5409
▁mali	-5410
▁maya	-5411
▁muni	-5412
▁nagg	-5413
▁nanl	-5414
▁nawa	-5415
▁over	-5416
▁pagn	-5417
▁paka	-5418
▁plan	-5419
▁pray	-5420
▁samb	-5421
▁sari	-5422
▁sawi	-5423
▁sump	-5424
▁tema	-5425
▁tore	-5426
▁usok	-5427
▁utop	-5428
▁uwak	-5429
Ingles	-5430
Tatayo	-5431
abalag	-5432
abawal	-5433
abuhay	-5434
ahunan	-5435
akdang	-5436
alayin	-5437
alikod	-5438
alimot	-5439
aluhan	-5440
amahan	-5441
ambang	-5442
anakaw	-5443
anggal	-5444
angong	-5445
apakan	-5446
asanay	-5447
atanas	-5448
atanim	-5449
awahan	-5450
awirin	-5451
ayaran	-5452
dandan	-5453
hagang	-5454
igmang	-5455
iingat	-5456
ilaban	-5457
ilalim	-5458
ilikot	-5459
inggil	-5460
inisid	-5461
orotan	-5462
ubhang	-5463
ulatan	-5464
ulinig	-5465
uluhod	-5466
unurin	-5467
upling	-5468
urayan	-5469
usbong	-5470
yembre	-5471
▁Cirio	-5472
▁Dahon	-5473
▁Dinar	-5474
▁Duhat	-5475
▁Epiko	-5476
▁GANDA	-5477
▁Ganda	-5478
▁Gener	-5479
▁Grupo	-5480
▁Kalik	-5481
▁Kanya	-5482
▁Labis	-5483
▁Lamut	-5484
▁Limay	-5485
▁Luzon	-5486
▁Makan	-5487
▁Malin	-5488
▁Masas	-5489
▁Nakal	-5490
▁Noche	-5491
▁Pablo	-5492
▁Padre	-5493
▁Palay	-5494
▁Pinoy	-5495
▁Rabut	-5496
▁SIPAG	-5497
▁Sabay	-5498
▁Tanag	-5499
▁Tungk	-5500
▁YAMAN	-5501
▁Yaman	-5502
▁alila	-5503
▁animo	-5504
▁anino	-5505
▁anito	-5506
▁antas	-5507
▁asong	-5508
▁babas	-5509
▁balae	-5510
▁bangg	-5511
▁banig	-5512
▁baong	-5513
▁biyas	-5514
▁dagta	-5515
▁datap	-5516
▁estud	-5517
▁gaano	-5518
▁galaw	-5519
▁gayun	-5520
▁gilid	-5521
▁gulay	-5522
▁hamon	-5523
▁hapag	-5524
▁hinag	-5525
▁hinog	-5526
▁hipan	-5527
▁hukbo	-5528
▁humih	-5529
▁ingay	-5530
▁kakan	-5531
▁kapan	-5532
▁kapup	-5533
▁kapus	-5534
▁karak	-5535
▁katat	-5536
▁kawan	-5537
▁kinab	-5538
▁kinak	-5539
▁kinal	-5540
▁kiwil	-5541
▁kumot	-5542
▁kuwar	-5543
▁lalaw	-5544
▁lugod	-5545
▁luksa	-5546
▁magug	-5547
▁mahin	-5548
▁malag	-5549
▁malul	-5550
▁mandi	-5551
▁mapam	-5552
▁marir	-5553
▁matit	-5554
▁matul	-5555
▁minum	-5556
▁nadar	-5557
▁nakay	-5558
▁napat	-5559
▁ngiti	-5560
▁nilal	-5561
▁nimpa	-5562
▁palat	-5563
▁pamah	-5564
▁parir	-5565
▁paris	-5566
▁pinal	-5567
▁pinay	-5568
▁saang	-5569
▁sakay	-5570
▁salin	-5571
▁salop	-5572
▁sampu	-5573
▁samyo	-5574
▁sipag	-5575
▁tanik	-5576
▁tapis	-5577
▁tatay	-5578
▁tigib	-5579
▁tinik	-5580
▁titig	-5581
▁trono	-5582
Andrade	-5583
Sabihin	-5584
abaihan	-5585
abangan	-5586
abangon	-5587
akailan	-5588
akainin	-5589
akilala	-5590
akilang	-5591
akitang	-5592
aligtas	-5593
amangka	-5594
amdamin	-5595
ampakan	-5596
anganak	-5597
angging	-5598
apakita	-5599
arinlan	-5600
atanong	-5601
awaglit	-5602
ibingan	-5603
ilinang	-5604
ilingon	-5605
imagsik	-5606
indihan	-5607
ipagkas	-5608
isipang	-5609
labanan	-5610
masyong	-5611
otabato	-5612
ubungin	-5613
uhangin	-5614
ukulang	-5615
uluhang	-5616
utulong	-5617
▁Aanhin	-5618
▁Androm	-5619
▁Baysay	-5620
▁DUNONG	-5621
▁Farida	-5622
▁Flores	-5623
▁Impong	-5624
▁Iskong	-5625
▁Magtat	-5626
▁Naiwan	-5627
▁Pangan	-5628
▁Romano	-5629
▁Silang	-5630
▁baging	-5631
▁bahala	-5632
▁bantay	-5633
▁dulang	-5634
▁dumaan	-5635
▁dumalo	-5636
▁humina	-5637
▁ibigin	-5638
▁ihatid	-5639
▁inibig	-5640
▁inumin	-5641
▁isipin	-5642
▁kaunti	-5643
▁labing	-5644
▁lalung	-5645
▁lambak	-5646
▁langis	-5647
▁lanubo	-5648
▁layang	-5649
▁linggo	-5650
▁luhang	-5651
▁mabisa	-5652
▁madula	-5653
▁magbub	-5654
▁magpak	-5655
▁mahaba	-5656
▁mahika	-5657
▁maingg	-5658
▁maipag	-5659
▁manang	-5660
▁mapili	-5661
▁maubos	-5662
▁nabigo	-5663
▁naghah	-5664
▁nagkat	-5665
▁nagsil	-5666
▁nangag	-5667
▁nangas	-5668
▁napili	-5669
▁natuto	-5670
▁ngipin	-5671
▁orasan	-5672
▁pagpip	-5673
▁pampan	-5674
▁pastol	-5675
▁pating	-5676
▁patula	-5677
▁paulit	-5678
▁pinili	-5679
▁punung	-5680
▁sansin	-5681
▁sayang	-5682
▁silong	-5683
▁sindak	-5684
▁sinong	-5685
▁sumuko	-5686
▁suyuan	-5687
▁trumpo	-5688
▁tumira	-5689
▁tumpak	-5690
▁umaasa	-5691
▁umahon	-5692
▁unahan	-5693
alamhati	-5694
alimuyak	-5695
alinhaga	-5696
alinuhan	-5697
anggulan	-5698
ansangan	-5699
apatayin	-5700
apaunlad	-5701
aysayang	-5702
elihiyon	-5703
iligawan	-5704
ilingkod	-5705
imangong	-5706
ingganda	-5707
lalakbay	-5708
ukuwento	-5709
ulantang	-5710
urusahan	-5711
▁Abuhing	-5712
▁Basahin	-5713
▁Bulusan	-5714
▁Bumalik	-5715
▁Bungang	-5716
▁Datapwa	-5717
▁Donggon	-5718
▁Elenang	-5719
▁Ginamit	-5720
▁Ikaapat	-5721
▁Ikalawa	-5722
▁Ilianon	-5723
▁Ipinagb	-5724
▁Kapitan	-5725
▁Larawan	-5726
▁Masarap	-5727
▁Matanda	-5728
▁Munting	-5729
▁Nagulat	-5730
▁Ngayong	-5731
▁Pablito	-5732
▁Patuloy	-5733
▁Pumunta	-5734
▁Sabihin	-5735
▁Sampung	-5736
▁Satanas	-5737
▁Sicavay	-5738
▁Sumpain	-5739
▁Teodoro	-5740
▁Toniong	-5741
▁Tumango	-5742
▁Walayin	-5743
▁alapaap	-5744
▁bagamat	-5745
▁basahin	-5746
▁baywang	-5747
▁bituing	-5748
▁diumano	-5749
▁gitnang	-5750
▁hanggan	-5751
▁hatulan	-5752
▁himutok	-5753
▁hiniram	-5754
▁hinubog	-5755
▁hitsura	-5756
▁humanga	-5757
▁humarap	-5758
▁hustong	-5759
▁inaawit	-5760
▁ingkong	-5761
▁kabuuan	-5762
▁kadahil	-5763
▁kahanga	-5764
▁langgam	-5765
▁ligalig	-5766
▁luntian	-5767
▁maaring	-5768
▁mabagal	-5769
▁magiliw	-5770
▁makisig	-5771
▁malalag	-5772
▁malasin	-5773
▁matakot	-5774
▁matapat	-5775
▁matigas	-5776
▁matipid	-5777
▁matulin	-5778
▁mundong	-5779
▁nabihag	-5780
▁nagbago	-5781
▁nagdala	-5782
▁naglaho	-5783
▁nagturo	-5784
▁nagwika	-5785
▁napakat	-5786
▁natapos	-5787
▁natupad	-5788
▁niyakap	-5789
▁pabango	-5790
▁pamagat	-5791
▁papaano	-5792
▁papayag	-5793
▁pinagka	-5794
▁sayawan	-5795
▁sinagot	-5796
▁sintang	-5797
▁sistema	-5798
▁tanglaw	-5799
▁taniman	-5800
▁tinipon	-5801
▁tumakbo	-5802
▁tungkod	-5803
alagtasan	-5804
anggalang	-5805
anggunian	-5806
asalitaan	-5807
ihimagsik	-5808
ihinagpis	-5809
intakutan	-5810
▁Doronoon	-5811
▁Espanyol	-5812
▁Gayundin	-5813
▁Halamang	-5814
▁Hiniling	-5815
▁Kalabasa	-5816
▁Kalayaan	-5817
▁Kampupot	-5818
▁Karaniwa	-5819
▁Kristong	-5820
▁Mahalaga	-5821
▁Mangyari	-5822
▁Naalaala	-5823
▁Nagbalik	-5824
▁Naghanda	-5825
▁Tanagyaw	-5826
▁Tumulong	-5827
▁balangay	-5828
▁binibini	-5829
▁binuksan	-5830
▁buhangin	-5831
▁bunganga	-5832
▁dahilang	-5833
▁dalangin	-5834
▁daraanan	-5835
▁engkanto	-5836
▁gobyerno	-5837
▁guniguni	-5838
▁halakhak	-5839
▁hangarin	-5840
▁hinagkan	-5841
▁hinagpis	-5842
▁iniaalay	-5843
▁inihanda	-5844
▁inutusan	-5845
▁itinakda	-5846
▁itinanim	-5847
▁kabaitan	-5848
▁kampilan	-5849
▁karuwahe	-5850
▁katauhan	-5851
▁katumbas	-5852
▁kawikaan	-5853
▁lumalang	-5854
▁lumangoy	-5855
▁luntiang	-5856
▁mababasa	-5857
▁maibigan	-5858
▁makapags	-5859
▁malamlam	-5860
▁malayang	-5861
▁maliligo	-5862
▁masaklap	-5863
▁minokawa	-5864
▁nagagawa	-5865
▁naglilip	-5866
▁nagpasya	-5867
▁nagpunta	-5868
▁nakitang	-5869
▁natirang	-5870
▁paaralan	-5871
▁pabareal	-5872
▁pabigkas	-5873
▁pagkakat	-5874
▁pagsikat	-5875
▁pagtulog	-5876
▁pagtupad	-5877
▁palengke	-5878
▁panghabi	-5879
▁pinakain	-5880
▁piyesang	-5881
▁pulubing	-5882
▁sinabing	-5883
▁sinasabi	-5884
▁talangka	-5885
▁talipapa	-5886
▁tanungin	-5887
▁tinangay	-5888
▁tinatang	-5889
▁titingin	-5890
▁tugtugin	-5891
▁tumanggi	-5892
▁tumutubo	-5893
apastangan	-5894
atutunayan	-5895
▁Amburayan	-5896
▁Inalagaan	-5897
▁Karamihan	-5898
▁Nabanggit	-5899
▁Nagpaalam	-5900
▁Nagtanong	-5901
▁Pakinggan	-5902
▁bahagyang	-5903
▁banggitin	-5904
▁diyamante	-5905
▁gumaganap	-5906
▁hangganan	-5907
▁ibinalita	-5908
▁kabukiran	-5909
▁kadiliman	-5910
▁kailanman	-5911
▁kalawakan	-5912
▁kasabihan	-5913
▁kasagutan	-5914
▁kasamaang	-5915
▁kaunlaran	-5916
▁kumikilos	-5917
▁lansangan	-5918
▁lumalapit	-5919
▁magdamdam	-5920
▁maginhawa	-5921
▁magkaanak	-5922
▁makalipad	-5923
▁makatulog	-5924
▁maririkit	-5925
▁masilayan	-5926
▁matagpuan	-5927
▁nababatid	-5928
▁nagigipit	-5929
▁nakahanda	-5930
▁nakalaban	-5931
▁nasilayan	-5932
▁pagkaraan	-5933
▁pagkikita	-5934
▁pagsasabi	-5935
▁pagsasama	-5936
▁pagsilang	-5937
▁pagtulong	-5938
▁pakakasal	-5939
▁pakinggan	-5940
▁pangalang	-5941
▁parusahan	-5942
▁pasalamat	-5943
▁patawarin	-5944
▁pinipitas	-5945
▁tinutukoy	-5946
▁tradisyon	-5947
▁tumutukoy	-5948
aniniwalaan	-5949
▁Kaigorotan	-5950
▁Kalahating	-5951
▁Pagmamahal	-5952
▁Panganiban	-5953
▁Pinuntahan	-5954
▁Saridandan	-5955
▁alalahanin	-5956
▁alimangong	-5957
▁bulubunduk	-5958
▁dumarating	-5959
▁estudyante	-5960
▁hinihiling	-5961
▁kababaihan	-5962
▁kaparangan	-5963
▁katunggali	-5964
▁magbabalik	-5965
▁magbibigay	-5966
▁magigiting	-5967
▁magtotroso	-5968
▁maligayang	-5969
▁mapapansin	-5970
▁matulungan	-5971
▁nagduruyan	-5972
▁naglalahad	-5973
▁nalilimbag	-5974
▁naramdaman	-5975
▁natuklasan	-5976
▁pagbibigay	-5977
▁paghahanda	-5978
▁pagkakaiba	-5979
▁pagkamatay	-5980
▁pagtitipon	-5981
▁pangangaso	-5982
▁pinangalan	-5983
▁talampakan	-5984
▁tinulungan	-5985
▁tradisyong	-5986
▁Ipinagtapat	-5987
▁Kahalagahan	-5988
▁iginagalang	-5989
▁karunungang	-5990
▁katalinuhan	-5991
▁katungkulan	-5992
▁mainggiting	-5993
▁mapangasawa	-5994
▁nagkakaroon	-5995
▁napakaganda	-5996
▁pakakasalan	-5997
▁panghikayat	-5998
▁pinarusahan	-5999
▁Ipinaliwanag	-6000
▁engkantadong	-6001
▁ipinagkaloob	-6002
▁mandirigmang	-6003
▁nagpapahayag	-6004
▁patutunguhan	-6005
▁Lalapindigowa	-6006
▁instrumentong	-6007
▁ipinagpatuloy	-6008
▁nagpapakilala	-6009
▁kapangyarihang	-6010
▁pinagkautangan	-6011
▁pangangailangan	-6012
GA	-6013
In	-6014
Is	-6015
ez	-6016
ll	-6017
uu	-6018
va	-6019
▁,	-6020
!!!	-6021
Low	-6022
Opo	-6023
Sas	-6024
Tut	-6025
aon	-6026
apl	-6027
arp	-6028
ate	-6029
bas	-6030
bib	-6031
bit	-6032
def	-6033
ekt	-6034
gil	-6035
him	-6036
iha	-6037
ipa	-6038
isk	-6039
ite	-6040
iyo	-6041
kam	-6042
lin	-6043
lod	-6044
mak	-6045
ons	-6046
ook	-6047
osa	-6048
pin	-6049
sar	-6050
sel	-6051
sip	-6052
sod	-6053
tog	-6054
uda	-6055
uer	-6056
ugb	-6057
uma	-6058
uos	-6059
urg	-6060
uum	-6061
was	-6062
▁Ch	-6063
▁Hi	-6064
▁Iw	-6065
▁Kr	-6066
▁Ku	-6067
▁Pr	-6068
▁Re	-6069
▁To	-6070
▁ad	-6071
▁ek	-6072
▁ir	-6073
▁oy	-6074
▁pi	-6075
▁ug	-6076
!...	-6077
Ilog	-6078
Mbgl	-6079
Miya	-6080
Naku	-6081
Pero	-6082
Taga	-6083
adag	-6084
ahis	-6085
akip	-6086
angi	-6087
ansa	-6088
apup	-6089
aris	-6090
asim	-6091
asta	-6092
atao	-6093
atil	-6094
ayom	-6095
elan	-6096
elas	-6097
enan	-6098
ersa	-6099
ethe	-6100
etro	-6101
gawa	-6102
hiya	-6103
ibak	-6104
ibok	-6105
ikaw	-6106
ikil	-6107
ikli	-6108
iksi	-6109
ildo	-6110
imat	-6111
imot	-6112
leng	-6113
nais	-6114
onso	-6115
oses	-6116
rero	-6117
reto	-6118
ribo	-6119
rong	-6120
sari	-6121
sura	-6122
ubin	-6123
uela	-6124
ugaw	-6125
ugto	-6126
uipo	-6127
ukat	-6128
ukod	-6129
ulag	-6130
ulas	-6131
umon	-6132
unas	-6133
ungh	-6134
unud	-6135
unyi	-6136
upin	-6137
urak	-6138
urno	-6139
uyot	-6140
yoso	-6141
yuan	-6142
▁Aya	-6143
▁Bai	-6144
▁Bak	-6145
▁Bar	-6146
▁Cag	-6147
▁Day	-6148
▁Eto	-6149
▁Huh	-6150
▁Ing	-6151
▁Iya	-6152
▁Kaw	-6153
▁Mac	-6154
▁Mel	-6155
▁Mom	-6156
▁Nai	-6157
▁Noo	-6158
▁Per	-6159
▁Pup	-6160
▁Put	-6161
▁Rec	-6162
▁Rep	-6163
▁Sur	-6164
▁Tom	-6165
▁Umi	-6166
▁Val	-6167
▁Vic	-6168
▁aba	-6169
▁amp	-6170
▁bud	-6171
▁dir	-6172
▁gam	-6173
▁gig	-6174
▁gug	-6175
▁hil	-6176
▁hud	-6177
▁iis	-6178
▁int	-6179
▁iwi	-6180
▁law	-6181
▁lus	-6182
▁lut	-6183
▁nir	-6184
▁pig	-6185
▁pir	-6186
▁pop	-6187
▁rad	-6188
▁sos	-6189
▁tir	-6190
▁tub	-6191
▁yao	-6192
Bayan	-6193
Dahan	-6194
Iiyak	-6195
Lahat	-6196
Mahal	-6197
aalin	-6198
aanim	-6199
abata	-6200
abaya	-6201
adlad	-6202
adlak	-6203
adong	-6204
adpad	-6205
aghoy	-6206
aglag	-6207
agpak	-6208
ainan	-6209
ainit	-6210
aligo	-6211
alsik	-6212
amand	-6213
ambog	-6214
amnan	-6215
anaag	-6216
anaig	-6217
andro	-6218
angka	-6219
antas	-6220
apuan	-6221
arhan	-6222
arpio	-6223
aslas	-6224
ataon	-6225
atriz	-6226
awagi	-6227
awian	-6228
ayani	-6229
bagay	-6230
bisig	-6231
eksto	-6232
giliw	-6233
hanga	-6234
hindi	-6235
ibigo	-6236
iglas	-6237
igong	-6238
ihina	-6239
iklab	-6240
imbar	-6241
imlim	-6242
inain	-6243
indol	-6244
indra	-6245
inggo	-6246
ingon	-6247
intal	-6248
ipana	-6249
ipeng	-6250
iskis	-6251
isong	-6252
itain	-6253
kamay	-6254
kasan	-6255
labis	-6256
lanca	-6257
lilis	-6258
linga	-6259
lipat	-6260
luran	-6261
nayon	-6262
ongan	-6263
opiya	-6264
ormal	-6265
sanga	-6266
talan	-6267
ubdan	-6268
ukano	-6269
uklas	-6270
uklay	-6271
uktot	-6272
ulain	-6273
ulano	-6274
umahe	-6275
umpak	-6276
umpas	-6277
unawa	-6278
unday	-6279
ungal	-6280
unita	-6281
unyag	-6282
upong	-6283
usyon	-6284
uwalh	-6285
uyasu	-6286
yaman	-6287
ythag	-6288
▁Alim	-6289
▁Apat	-6290
▁Asya	-6291
▁Birh	-6292
▁Ilaw	-6293
▁Kano	-6294
▁Kasi	-6295
▁Kast	-6296
▁Lamb	-6297
▁Lola	-6298
▁Lolo	-6299
▁Magu	-6300
▁Nagd	-6301
▁Napa	-6302
▁Pagp	-6303
▁Paru	-6304
▁Poon	-6305
▁Pulo	-6306
▁Sakb	-6307
▁Sama	-6308
▁Samb	-6309
▁Sige	-6310
▁Tama	-6311
▁Tata	-6312
▁Utos	-6313
▁Yamb	-6314
▁amoy	-6315
▁baha	-6316
▁basa	-6317
▁base	-6318
▁bend	-6319
▁daig	-6320
▁dumi	-6321
▁ihip	-6322
▁ikab	-6323
▁ikag	-6324
▁inis	-6325
▁itat	-6326
▁itso	-6327
▁itut	-6328
▁kaan	-6329
▁kaay	-6330
▁kapa	-6331
▁liku	-6332
▁magn	-6333
▁mist	-6334
▁myth	-6335
▁napa	-6336
▁nati	-6337
▁nuno	-6338
▁pano	-6339
▁pans	-6340
▁prop	-6341
▁puma	-6342
▁pusa	-6343
▁ramo	-6344
▁sige	-6345
▁sira	-6346
▁solo	-6347
▁susi	-6348
▁tamb	-6349
▁tant	-6350
▁tuka	-6351
▁tunt	-6352
▁ubos	-6353
▁uhay	-6354
▁walo	-6355
Iaayon	-6356
Lalaki	-6357
Mabuti	-6358
Parang	-6359
abagin	-6360
abayad	-6361
abulan	-6362
abusaw	-6363
abutan	-6364
agawan	-6365
aginan	-6366
agisag	-6367
ahaman	-6368
ahamon	-6369
aklolo	-6370
alagos	-6371
alakal	-6372
alamin	-6373
alanin	-6374
alapad	-6375
alasik	-6376
alasin	-6377
alaueg	-6378
alawak	-6379
alayas	-6380
alikan	-6381
alikha	-6382
amahin	-6383
amanan	-6384
anteng	-6385
araang	-6386
arapin	-6387
asaing	-6388
asaluk	-6389
aspang	-6390
atangi	-6391
ayakap	-6392
ayanig	-6393
dalang	-6394
darayo	-6395
eksyon	-6396
eriana	-6397
etheus	-6398
ibabaw	-6399
idigma	-6400
igawan	-6401
ikaing	-6402
ikulan	-6403
ilimot	-6404
ingang	-6405
ipigil	-6406
iwasan	-6407
kislap	-6408
lutang	-6409
masaya	-6410
parong	-6411
rabida	-6412
ubukan	-6413
uluwal	-6414
umihan	-6415
ungkal	-6416
unugin	-6417
upiter	-6418
utlang	-6419
uunlad	-6420
uwagan	-6421
wiling	-6422
▁Adlaw	-6423
▁Anupa	-6424
▁Asong	-6425
▁Ating	-6426
▁Ayoko	-6427
▁Bikol	-6428
▁Binab	-6429
▁Bukal	-6430
▁Dahan	-6431
▁Gawin	-6432
▁Handa	-6433
▁Hayop	-6434
▁Hirap	-6435
▁Ibang	-6436
▁Ildef	-6437
▁Kabal	-6438
▁Kapwa	-6439
▁Kayum	-6440
▁Likas	-6441
▁Lubos	-6442
▁Lumul	-6443
▁Luson	-6444
▁Maawa	-6445
▁Mapat	-6446
▁Nanay	-6447
▁Odang	-6448
▁Panga	-6449
▁Pasko	-6450
▁Pilar	-6451
▁Sagot	-6452
▁Santo	-6453
▁Sinis	-6454
▁Tatlo	-6455
▁Tuloy	-6456
▁Waray	-6457
▁baliw	-6458
▁batay	-6459
▁binit	-6460
▁bisyo	-6461
▁bitui	-6462
▁dapit	-6463
▁dayap	-6464
▁dinad	-6465
▁dukha	-6466
▁dulot	-6467
▁emper	-6468
▁gapos	-6469
▁hatid	-6470
▁hilaw	-6471
▁hitik	-6472
▁iiwan	-6473
▁ipagl	-6474
▁ispir	-6475
▁kahin	-6476
▁kahon	-6477
▁kaita	-6478
▁kakat	-6479
▁kasoy	-6480
▁katan	-6481
▁katot	-6482
▁kinam	-6483
▁kolon	-6484
▁lakad	-6485
▁lalag	-6486
▁lawak	-6487
▁layon	-6488
▁lente	-6489
▁libis	-6490
▁liyag	-6491
▁lubid	-6492
▁lulan	-6493
▁lumal	-6494
▁lupit	-6495
▁madad	-6496
▁magpa	-6497
▁malay	-6498
▁matim	-6499
▁multo	-6500
▁nabab	-6501
▁nakah	-6502
▁namam	-6503
▁nanay	-6504
▁nanun	-6505
▁ngala	-6506
▁niyon	-6507
▁nuong	-6508
▁pader	-6509
▁pakir	-6510
▁palag	-6511
▁panay	-6512
▁panun	-6513
▁panyo	-6514
▁paral	-6515
▁pares	-6516
▁parte	-6517
▁pinan	-6518
▁plasa	-6519
▁pulos	-6520
▁pumup	-6521
▁reyno	-6522
▁sakop	-6523
▁saksi	-6524
▁sikap	-6525
▁suson	-6526
▁talas	-6527
▁tanod	-6528
▁tanso	-6529
▁tinit	-6530
▁torso	-6531
▁tumit	-6532
▁wasto	-6533
▁yagit	-6534
▁yakap	-6535
Ituturo	-6536
Papasok	-6537
Pupunta	-6538
abasang	-6539
abayaan	-6540
abihing	-6541
agmulan	-6542
agpalit	-6543
agulang	-6544
ahihiya	-6545
alakpak	-6546
amanang	-6547
amandag	-6548
ambitan	-6549
andaang	-6550
andugan	-6551
apakpak	-6552
apanhik	-6553
apiling	-6554
apusang	-6555
araming	-6556
arangal	-6557
ariwara	-6558
asaktan	-6559
awalang	-6560
awangis	-6561
igdigan	-6562
ikitang	-6563
indahan	-6564
intasan	-6565
isipsip	-6566
iwalang	-6567
lawigan	-6568
ukadkad	-6569
umiglas	-6570
ustuhin	-6571
▁Anding	-6572
▁Apollo	-6573
▁Banlak	-6574
▁Batang	-6575
▁Blanca	-6576
▁Buhong	-6577
▁Carpio	-6578
▁Dakila	-6579
▁Dalawa	-6580
▁Dumaan	-6581
▁Ganito	-6582
▁Ganoon	-6583
▁Hangin	-6584
▁Ikatlo	-6585
▁Ilongo	-6586
▁Ipugaw	-6587
▁Kagand	-6588
▁Kidlat	-6589
▁Kikong	-6590
▁Kilala	-6591
▁Kinain	-6592
▁Kristo	-6593
▁Kuaman	-6594
▁Kuyasu	-6595
▁Lakand	-6596
▁Laking	-6597
▁Layang	-6598
▁Linggo	-6599
▁Lunsod	-6600
▁Mabini	-6601
▁Malayo	-6602
▁Masdan	-6603
▁Mataas	-6604
▁Medusa	-6605
▁Nagtat	-6606
▁Niyong	-6607
▁Pabula	-6608
▁Perlas	-6609
▁Pythag	-6610
▁Republ	-6611
▁Sariwa	-6612
▁Toyang	-6613
▁Umahon	-6614
▁Umiyak	-6615
▁Victor	-6616
▁Yuyuko	-6617
▁agawin	-6618
▁agimat	-6619
▁anghel	-6620
▁bagama	-6621
▁balana	-6622
▁balite	-6623
▁balong	-6624
▁bihasa	-6625
▁bilhin	-6626
▁bisita	-6627
▁bumuka	-6628
▁datung	-6629
▁dumami	-6630
▁dumapo	-6631
▁eksena	-6632
▁estilo	-6633
▁ganang	-6634
▁garuda	-6635
▁giting	-6636
▁hahang	-6637
▁halama	-6638
▁halong	-6639
▁hangga	-6640
▁hapong	-6641
▁higaan	-6642
▁himala	-6643
▁hingin	-6644
▁hudyat	-6645
▁ibalik	-6646
▁ihanda	-6647
▁ikmong	-6648
▁imahin	-6649
▁imbing	-6650
▁inagaw	-6651
▁inspir	-6652
▁inutos	-6653
▁inuuna	-6654
▁ipuipo	-6655
▁itinat	-6656
▁itsura	-6657
▁kaginh	-6658
▁kagyat	-6659
▁kahima	-6660
▁kalahi	-6661
▁kapuwa	-6662
▁kumpas	-6663
▁lagyan	-6664
▁ligtas	-6665
▁maaliw	-6666
▁madugo	-6667
▁magkah	-6668
▁magpah	-6669
▁mamili	-6670
▁mapagp	-6671
▁mapait	-6672
▁mapaso	-6673
▁masabi	-6674
▁masawi	-6675
▁matuto	-6676
▁mulala	-6677
▁naakit	-6678
▁nagnin	-6679
▁nagpak	-6680
▁nagtut	-6681
▁nahati	-6682
▁nakang	-6683
▁nakuha	-6684
▁naluto	-6685
▁nangak	-6686
▁nasaan	-6687
▁natamo	-6688
▁natuwa	-6689
▁nayong	-6690
▁pagkad	-6691
▁palalo	-6692
▁palong	-6693
▁pamana	-6694
▁panaho	-6695
▁papuri	-6696
▁pasiya	-6697
▁perang	-6698
▁putong	-6699
▁saklap	-6700
▁sakong	-6701
▁sariwa	-6702
▁saysay	-6703
▁siguro	-6704
▁singaw	-6705
▁subali	-6706
▁sumang	-6707
▁tagdan	-6708
▁tainga	-6709
▁tatayo	-6710
▁tiyaga	-6711
▁tumama	-6712
▁tuwina	-6713
▁tuyong	-6714
▁umisip	-6715
▁usbong	-6716
▁utopia	-6717
aakalang	-6718
akatawan	-6719
akawalan	-6720
aligtaan	-6721
amakaawa	-6722
apakinig	-6723
apatuloy	-6724
asalamin	-6725
atanghal	-6726
atanging	-6727
awakawak	-6728
bersyong	-6729
ikitungo	-6730
ilanlang	-6731
ingkuran	-6732
ipagkita	-6733
ipaglaro	-6734
ipitagan	-6735
pirasong	-6736
sarimbar	-6737
ugaliang	-6738
ugtungan	-6739
umingiti	-6740
▁Bandina	-6741
▁Bantong	-6742
▁Bitiwan	-6743
▁Cagayan	-6744
▁Dinggin	-6745
▁Gagamba	-6746
▁Gintong	-6747
▁Granada	-6748
▁Haharap	-6749
▁Hinugot	-6750
▁Humanda	-6751
▁Humingi	-6752
▁Ikalima	-6753
▁Ilukano	-6754
▁Itinuro	-6755
▁Kulaman	-6756
▁Lumipad	-6757
▁Mabuhay	-6758
▁Magmula	-6759
▁Mahalin	-6760
▁Malapit	-6761
▁Malinaw	-6762
▁Masakit	-6763
▁Naalala	-6764
▁Nabuhay	-6765
▁Nakinig	-6766
▁Nanging	-6767
▁Napatay	-6768
▁Palayok	-6769
▁Pinakam	-6770
▁Pinasan	-6771
▁Pupunta	-6772
▁Tinipon	-6773
▁Tumalon	-6774
▁alagaan	-6775
▁bagoong	-6776
▁bagyong	-6777
▁balabal	-6778
▁batayan	-6779
▁batisan	-6780
▁bayaang	-6781
▁binuhay	-6782
▁biyenan	-6783
▁buntong	-6784
▁dagling	-6785
▁dinggin	-6786
▁dumatal	-6787
▁gamitin	-6788
▁gandang	-6789
▁gasatan	-6790
▁gumamit	-6791
▁gumugol	-6792
▁handaan	-6793
▁hangaan	-6794
▁hinango	-6795
▁hinggil	-6796
▁hulihin	-6797
▁humanap	-6798
▁humanda	-6799
▁huminto	-6800
▁huwaran	-6801
▁iisipin	-6802
▁ikaapat	-6803
▁ilibing	-6804
▁indayog	-6805
▁iniisip	-6806
▁ipinagm	-6807
▁isilang	-6808
▁isipang	-6809
▁kahawig	-6810
▁kalahok	-6811
▁kanayon	-6812
▁kandila	-6813
▁karamay	-6814
▁karayom	-6815
▁kinapap	-6816
▁kuwarto	-6817
▁leghorn	-6818
▁lilipad	-6819
▁linyang	-6820
▁lumaban	-6821
▁lumipat	-6822
▁lumukso	-6823
▁lunting	-6824
▁mabango	-6825
▁mabigat	-6826
▁magbago	-6827
▁magsing	-6828
▁magtago	-6829
▁makamit	-6830
▁makapan	-6831
▁malagim	-6832
▁malapad	-6833
▁malusog	-6834
▁maluwag	-6835
▁maluwat	-6836
▁mamuhay	-6837
▁mangung	-6838
▁masakit	-6839
▁matalas	-6840
▁matinik	-6841
▁musikal	-6842
▁nabuwal	-6843
▁nagkita	-6844
▁nagsama	-6845
▁nagtago	-6846
▁nahabag	-6847
▁nakamit	-6848
▁namunga	-6849
▁nangagl	-6850
▁nanguha	-6851
▁napagod	-6852
▁nariyan	-6853
▁naulila	-6854
▁nauukol	-6855
▁negrita	-6856
▁paanong	-6857
▁pabalik	-6858
▁paglaya	-6859
▁pagtula	-6860
▁paharap	-6861
▁paitaas	-6862
▁palihim	-6863
▁palitan	-6864
▁pambata	-6865
▁panangh	-6866
▁pangang	-6867
▁panitik	-6868
▁papunta	-6869
▁pautang	-6870
▁pinamum	-6871
▁plumahe	-6872
▁pumatay	-6873
▁pumitas	-6874
▁pumutok	-6875
▁pumutol	-6876
▁putulin	-6877
▁rehiyon	-6878
▁sapitin	-6879
▁sikreto	-6880
▁sinapit	-6881
▁sinulid	-6882
▁sisikat	-6883
▁sobrang	-6884
▁sumayaw	-6885
▁sumpaan	-6886
▁sumulat	-6887
▁tirahan	-6888
▁tumigil	-6889
▁ulilang	-6890
andayuhan	-6891
anggaling	-6892
apagaling	-6893
otohanang	-6894
▁Bantawan	-6895
▁Bikulano	-6896
▁Bukidnon	-6897
▁Darangan	-6898
▁Gayunman	-6899
▁Hilagang	-6900
▁Hinampas	-6901
▁Isinulat	-6902
▁Josefina	-6903
▁Kaluluwa	-6904
▁Kasopiya	-6905
▁Katauhan	-6906
▁Macarang	-6907
▁Magbuhat	-6908
▁Makikita	-6909
▁Malaking	-6910
▁Mindanaw	-6911
▁Nagyakap	-6912
▁Naisipan	-6913
▁Palayain	-6914
▁Sakbawan	-6915
▁Tinanong	-6916
▁adhikain	-6917
▁alaalang	-6918
▁bibigyan	-6919
▁bigkasan	-6920
▁etnikong	-6921
▁gagapang	-6922
▁gumaling	-6923
▁gumising	-6924
▁gumulang	-6925
▁isinabit	-6926
▁isinabog	-6927
▁ispiritu	-6928
▁itinapon	-6929
▁kaayusan	-6930
▁kabiguan	-6931
▁kahapong	-6932
▁kakaunti	-6933
▁kalakhan	-6934
▁kalayuan	-6935
▁kamataya	-6936
▁kapiling	-6937
▁karakter	-6938
▁katagang	-6939
▁kwentong	-6940
▁lalagyan	-6941
▁libangan	-6942
▁lulutang	-6943
▁lumalaki	-6944
▁lumingap	-6945
▁mabagsik	-6946
▁mabilang	-6947
▁magbayad	-6948
▁magbunga	-6949
▁maghanap	-6950
▁magiting	-6951
▁magkakap	-6952
▁magsikap	-6953
▁magsisil	-6954
▁magtuloy	-6955
▁magtungo	-6956
▁maikling	-6957
▁makaalis	-6958
▁makakuha	-6959
▁malambot	-6960
▁manatili	-6961
▁manligaw	-6962
▁mapansin	-6963
▁mapapasa	-6964
▁marahang	-6965
▁masisira	-6966
▁matulain	-6967
▁musikang	-6968
▁nabahala	-6969
▁nagbuhat	-6970
▁naggayak	-6971
▁naghirap	-6972
▁nagkaisa	-6973
▁nagpapas	-6974
▁nagtampo	-6975
▁naisipan	-6976
▁nakadapo	-6977
▁nalalabi	-6978
▁namumuno	-6979
▁nanatili	-6980
▁nanganak	-6981
▁napiling	-6982
▁ninanais	-6983
▁paggalaw	-6984
▁paghawak	-6985
▁pagkatao	-6986
▁paglipas	-6987
▁pagliyag	-6988
▁pagpunta	-6989
▁pagsasal	-6990
▁pamimili	-6991
▁pangahas	-6992
▁panimdim	-6993
▁paniwala	-6994
▁panlabas	-6995
▁papalayo	-6996
▁payapang	-6997
▁pirasong	-6998
▁puhunang	-6999
▁puntahan	-7000
▁sabihing	-7001
▁saganang	-7002
▁sampalok	-7003
▁sisidlan	-7004
▁soloista	-7005
▁tinalian	-7006
▁tulisang	-7007
▁tumindig	-7008
▁tumulong	-7009
akatuparan	-7010
uwalhating	-7011
▁Andromeda	-7012
▁Bathalang	-7013
▁Filipinas	-7014
▁Ibinalita	-7015
▁Ildefonso	-7016
▁Kabikulan	-7017
▁Kailangan	-7018
▁Lumilitaw	-7019
▁Magbangon	-7020
▁Matandang	-7021
▁Mongindra	-7022
▁Naglakbay	-7023
▁Sinimulan	-7024
▁Tarabusaw	-7025
▁balangkas	-7026
▁binanggit	-7027
▁higanteng	-7028
▁hinaharap	-7029
▁hinihingi	-7030
▁ikapitong	-7031
▁inaasahan	-7032
▁iniligtas	-7033
▁isalaysay	-7034
▁kababalag	-7035
▁kabataang	-7036
▁kaisipang	-7037
▁kaitaasan	-7038
▁kalinisan	-7039
▁kalupitan	-7040
▁katandaan	-7041
▁katapatan	-7042
▁katunayan	-7043
▁kumakanta	-7044
▁lalawigan	-7045
▁lambingan	-7046
▁lilimutin	-7047
▁mabalasik	-7048
▁mabangong	-7049
▁magkabila	-7050
▁magtanong	-7051
▁mahabagin	-7052
▁malambing	-7053
▁malimutan	-7054
▁mananakaw	-7055
▁maninisid	-7056
▁matatanaw	-7057
▁maunawaan	-7058
▁mumunting	-7059
▁nagaganap	-7060
▁nagkamali	-7061
▁nagkulang	-7062
▁nagpaalam	-7063
▁nagugutom	-7064
▁nakarinig	-7065
▁nakasabit	-7066
▁nakasakay	-7067
▁nakatikom	-7068
▁nakikipag	-7069
▁nalilikha	-7070
▁nalulunod	-7071
▁namamatay	-7072
▁nasusulat	-7073
▁nasusunog	-7074
▁natatanaw	-7075
▁nilalaman	-7076
▁pagbabayo	-7077
▁pagdaraan	-7078
▁pagkawala	-7079
▁paglililo	-7080
▁pagluluto	-7081
▁pagmasdan	-7082
▁pagnanais	-7083
▁pagnanasa	-7084
▁pagpipita	-7085
▁pagsusuri	-7086
▁pagtataka	-7087
▁pagtingin	-7088
▁pampangin	-7089
▁pandanggo	-7090
▁pangalawa	-7091
▁pangitain	-7092
▁patungong	-7093
▁pinagpala	-7094
▁pinuhunan	-7095
▁relihiyon	-7096
▁sinasamba	-7097
▁sinimulan	-7098
▁sumasapit	-7099
▁talinhaga	-7100
▁titingnan	-7101
▁tumandang	-7102
▁tumututol	-7103
aalinlangan	-7104
alingawngaw	-7105
asalukuyang	-7106
ipagkasundo	-7107
▁Ipinatawag	-7108
▁Makanungan	-7109
▁Nabalitaan	-7110
▁Nakarating	-7111
▁Pambansang	-7112
▁Panitikang	-7113
▁Pinagmulan	-7114
▁Pythagoras	-7115
▁Silanganan	-7116
▁balagtasan	-7117
▁bibigkasin	-7118
▁bilangguan	-7119
▁binubuksan	-7120
▁emperatriz	-7121
▁hinihintay	-7122
▁inaasahang	-7123
▁ipinatawag	-7124
▁kadakilaan	-7125
▁kahulugang	-7126
▁kalinangan	-7127
▁kapirasong	-7128
▁kayamanang	-7129
▁kinikilala	-7130
▁konsensiya	-7131
▁lawlawigan	-7132
▁maaliwalas	-7133
▁mabubuting	-7134
▁mabulaklak	-7135
▁magagaling	-7136
▁maghiwalay	-7137
▁magmamaliw	-7138
▁magtrabaho	-7139
▁makamandag	-7140
▁makikilala	-7141
▁mamahaling	-7142
▁mapagmahal	-7143
▁mararating	-7144
▁matuklasan	-7145
▁matulungin	-7146
▁nabalitaan	-7147
▁nabibilang	-7148
▁naghihirap	-7149
▁naglalaman	-7150
▁nagliliyab	-7151
▁nagmakaawa	-7152
▁nagpahinga	-7153
▁nakikiusap	-7154
▁napapaloob	-7155
▁nasasaklaw	-7156
▁pagbanggit	-7157
▁pagbibilog	-7158
▁paghahamok	-7159
▁paghakbang	-7160
▁pagkabuhay	-7161
▁paglalayag	-7162
▁pagtanggap	-7163
▁pagtutulad	-7164
▁pakiramdam	-7165
▁panalangin	-7166
▁pananalita	-7167
▁pangatlong	-7168
▁pangunguha	-7169
▁pangunguna	-7170
▁papayagang	-7171
▁paroroonan	-7172
▁pormasyong	-7173
▁sansinukob	-7174
▁tinangkang	-7175
▁tutulungan	-7176
▁Inanyayahan	-7177
▁Maguindanao	-7178
▁Pinampangan	-7179
▁imahinasyon	-7180
▁inspirasyon	-7181
▁itinuturing	-7182
▁kapaligiran	-7183
▁kasingganda	-7184
▁kumakatawan	-7185
▁madamdaming	-7186
▁magpakailan	-7187
▁magsasalita	-7188
▁mambibigkas	-7189
▁mangingibig	-7190
▁nagbabantay	-7191
▁naglalayong	-7192
▁nagsimulang	-7193
▁nagtagumpay	-7194
▁nagulantang	-7195
▁nakatakdang	-7196
▁nakatatanda	-7197
▁nalulungkot	-7198
▁nangungusap	-7199
▁paghihintay	-7200
▁pagmamalaki	-7201
▁pagpupulong	-7202
▁pakikitungo	-7203
▁palatandaan	-7204
▁pasasalamat	-7205
▁pinakasalan	-7206
▁Bungangsakit	-7207
▁Mitolohiyang	-7208
▁Nagpasalamat	-7209
▁Sangkatauhan	-7210
▁ikinabubuhay	-7211
▁inilalarawan	-7212
▁kaginhawahan	-7213
▁makipaglaban	-7214
▁mitolohiyang	-7215
▁nagmamahalan	-7216
▁nagngangalit	-7217
▁napakaraming	-7218
▁nararamdaman	-7219
▁paglingkuran	-7220
▁pagtatanggol	-7221
▁pananghalian	-7222
▁sandaigdigan	-7223
▁talasalitaan	-7224
▁bulubunduking	-7225
▁humahalimuyak	-7226
▁ipinagbabawal	-7227
▁kinakailangan	-7228
▁mapapangasawa	-7229
▁pinagtataguan	-7230
▁pinakamaganda	-7231
▁ipinagmamalaki	-7232
▁kinapapalooban	-7233
▁nangangailangan	-7234
▁pinakamagandang	-7235
2)	-7236
??	-7237
AH	-7238
Ah	-7239
Ak	-7240
Ar	-7241
As	-7242
BI	-7243
LA	-7244
OT	-7245
Si	-7246
US	-7247
ew	-7248
ki	-7249
li	-7250
pi	-7251
sh	-7252
ua	-7253
-12	-7254
Bal	-7255
Dum	-7256
Hoy	-7257
Hum	-7258
ING	-7259
Mak	-7260
Man	-7261
NIS	-7262
Nap	-7263
Nin	-7264
Pil	-7265
Sig	-7266
Sus	-7267
ais	-7268
ayi	-7269
bid	-7270
bls	-7271
ele	-7272
emp	-7273
enc	-7274
hat	-7275
hih	-7276
iik	-7277
ill	-7278
imm	-7279
iph	-7280
ipi	-7281
ipk	-7282
irt	-7283
isl	-7284
itn	-7285
kab	-7286
kal	-7287
low	-7288
lum	-7289
luw	-7290
mad	-7291
mok	-7292
nat	-7293
oel	-7294
oli	-7295
ont	-7296
oot	-7297
ors	-7298
pay	-7299
Isa	-7300
ayd	-7301
bos	-7302
iil	-7303
rap	-7304
rim	-7305
rog	-7306
sul	-7307
tak	-7308
tid	-7309
tig	-7310
tis	-7311
udh	-7312
uoy	-7313
wag	-7314
wat	-7315
▁1]	-7316
▁He	-7317
▁Mo	-7318
▁Ro	-7319
▁Ts	-7320
▁el	-7321
▁ho	-7322
▁hu	-7323
▁kr	-7324
▁ok	-7325
▁op	-7326
▁pw	-7327
▁ro	-7328
▁ti	-7329
▁up	-7330
...?	-7331
?...	-7332
AKAS	-7333
Anak	-7334
High	-7335
Kaya	-7336
MPUP	-7337
Magh	-7338
Mula	-7339
Pagb	-7340
Sana	-7341
Sige	-7342
Tama	-7343
Tayo	-7344
agip	-7345
agiw	-7346
akam	-7347
akod	-7348
aksi	-7349
alac	-7350
alos	-7351
alye	-7352
amog	-7353
amoy	-7354
anik	-7355
anyo	-7356
apaw	-7357
aron	-7358
aros	-7359
asid	-7360
atok	-7361
atsa	-7362
dila	-7363
ende	-7364
endi	-7365
eneg	-7366
enig	-7367
enio	-7368
enyo	-7369
eric	-7370
eryo	-7371
fuer	-7372
haya	-7373
ibag	-7374
ibin	-7375
ibug	-7376
idik	-7377
ihaw	-7378
ikim	-7379
ikin	-7380
ilad	-7381
inio	-7382
ipis	-7383
iral	-7384
isal	-7385
isle	-7386
iyuh	-7387
luko	-7388
napu	-7389
oilo	-7390
orya	-7391
oryo	-7392
osyo	-7393
pala	-7394
saan	-7395
tayo	-7396
tiis	-7397
ting	-7398
uano	-7399
Gag	-7400
eme	-7401
yed	-7402
LING	-7403
aapi	-7404
buti	-7405
irot	-7406
itna	-7407
lalo	-7408
ueva	-7409
ugal	-7410
ukas	-7411
ulis	-7412
unoy	-7413
upig	-7414
uray	-7415
urok	-7416
urol	-7417
usok	-7418
wita	-7419
▁...	-7420
▁Aso	-7421
▁Bay	-7422
▁Bib	-7423
▁Bol	-7424
▁Cap	-7425
▁Ceb	-7426
▁Dis	-7427
▁Dom	-7428
▁Gay	-7429
▁Hab	-7430
▁Iyo	-7431
▁Jer	-7432
▁KAS	-7433
▁LAH	-7434
▁Lip	-7435
▁Liv	-7436
▁Los	-7437
▁MGA	-7438
▁Nin	-7439
▁Pen	-7440
▁Rin	-7441
▁Sic	-7442
▁Sto	-7443
▁Tup	-7444
▁alo	-7445
▁amb	-7446
▁bel	-7447
▁bol	-7448
▁der	-7449
▁det	-7450
▁dur	-7451
▁duw	-7452
▁gul	-7453
▁guw	-7454
▁ibo	-7455
▁ist	-7456
▁kom	-7457
▁kut	-7458
▁lak	-7459
▁lil	-7460
▁lol	-7461
▁pih	-7462
▁pot	-7463
▁sib	-7464
▁siy	-7465
▁tah	-7466
▁tel	-7467
Anong	-7468
Ilang	-7469
LINIS	-7470
aalok	-7471
agaan	-7472
aguyo	-7473
aklap	-7474
aktan	-7475
akulo	-7476
alung	-7477
alyas	-7478
ampon	-7479
amuno	-7480
ancis	-7481
angko	-7482
angla	-7483
antap	-7484
antsa	-7485
anzon	-7486
apagp	-7487
arama	-7488
ariin	-7489
asyal	-7490
aydor	-7491
blema	-7492
dulan	-7493
edras	-7494
egend	-7495
entaw	-7496
erola	-7497
erong	-7498
gagat	-7499
▁Ol	-7500
Ayaw	-7501
ahos	-7502
daya	-7503
rile	-7504
▁Lor	-7505
Hahag	-7506
agpag	-7507
agpas	-7508
ernat	-7509
hapon	-7510
ibiro	-7511
iinam	-7512
iinom	-7513
ilaok	-7514
imbag	-7515
inata	-7516
indoy	-7517
ingal	-7518
ipagt	-7519
ipkip	-7520
irapa	-7521
irits	-7522
itano	-7523
iyong	-7524
kabit	-7525
lagas	-7526
lahat	-7527
latas	-7528
lawan	-7529
nubay	-7530
opoot	-7531
ortal	-7532
oteng	-7533
paman	-7534
raban	-7535
rangh	-7536
rimon	-7537
shirt	-7538
sibol	-7539
sihan	-7540
silip	-7541
sulok	-7542
tanaw	-7543
tapat	-7544
tidos	-7545
ubuka	-7546
udyok	-7547
ugmok	-7548
ukain	-7549
ulpot	-7550
umpok	-7551
uning	-7552
upkop	-7553
using	-7554
uugat	-7555
uwaan	-7556
yawan	-7557
▁Ahas	-7558
▁Apoy	-7559
▁Aray	-7560
▁Baut	-7561
▁Bawa	-7562
▁Bitu	-7563
▁Buto	-7564
▁Daig	-7565
▁Gand	-7566
▁Glor	-7567
▁Hala	-7568
▁Hayo	-7569
▁Iloc	-7570
▁Indo	-7571
▁Inih	-7572
▁Irog	-7573
▁Itat	-7574
▁Joel	-7575
▁Kaka	-7576
▁Kiko	-7577
▁Kult	-7578
▁Mand	-7579
▁Mata	-7580
▁Meme	-7581
▁Moro	-7582
▁Nagu	-7583
▁Nanl	-7584
▁Nawa	-7585
▁Orak	-7586
▁Pagl	-7587
▁Pito	-7588
▁Sits	-7589
▁Tala	-7590
▁Ulap	-7591
▁adel	-7592
▁alab	-7593
▁alis	-7594
▁asim	-7595
▁baly	-7596
▁bula	-7597
▁bulo	-7598
▁daho	-7599
ete	-7600
▁en	-7601
ahed	-7602
apoy	-7603
daos	-7604
inom	-7605
sino	-7606
uump	-7607
▁Jac	-7608
▁Kod	-7609
▁Uma	-7610
▁bur	-7611
anood	-7612
atiis	-7613
silim	-7614
tanto	-7615
uriin	-7616
usisa	-7617
uunan	-7618
▁Asin	-7619
▁Sana	-7620
▁daya	-7621
▁dayo	-7622
▁dipa	-7623
▁diya	-7624
▁dung	-7625
▁eduk	-7626
▁elem	-7627
▁giba	-7628
▁gras	-7629
▁heto	-7630
▁hina	-7631
▁ikuk	-7632
▁imik	-7633
▁kati	-7634
▁kawa	-7635
▁kayg	-7636
▁kumb	-7637
▁kwak	-7638
▁laot	-7639
▁laro	-7640
▁laso	-7641
▁leon	-7642
▁lola	-7643
▁maid	-7644
▁mana	-7645
▁misa	-7646
▁mito	-7647
▁moog	-7648
▁naib	-7649
▁nail	-7650
▁ngum	-7651
▁pagw	-7652
▁palo	-7653
▁pare	-7654
▁payo	-7655
▁pios	-7656
▁pira	-7657
▁puto	-7658
▁samo	-7659
▁serp	-7660
▁sint	-7661
▁suka	-7662
▁tamp	-7663
▁teng	-7664
▁tubo	-7665
▁unan	-7666
▁ungg	-7667
▁utak	-7668
MPUPOT	-7669
Medium	-7670
Pagkat	-7671
Walang	-7672
aabang	-7673
aalaga	-7674
aantok	-7675
abakas	-7676
abulid	-7677
adaluh	-7678
adurog	-7679
agalak	-7680
agayon	-7681
agupit	-7682
aguyod	-7683
ahanan	-7684
ahanay	-7685
ahilig	-7686
ahinto	-7687
akaisa	-7688
akapit	-7689
akilan	-7690
alahat	-7691
alakaw	-7692
alanan	-7693
alasan	-7694
alasap	-7695
alinis	-7696
alisan	-7697
alisin	-7698
aliwan	-7699
▁v	-7700
uki	-7701
▁12	-7702
▁Sh	-7703
iimb	-7704
ipid	-7705
uuin	-7706
▁Doo	-7707
▁Lun	-7708
▁hib	-7709
Isang	-7710
Kaawa	-7711
Papal	-7712
adugo	-7713
alatk	-7714
asing	-7715
danan	-7716
hinan	-7717
igaan	-7718
igang	-7719
impok	-7720
turan	-7721
▁Aral	-7722
▁Simb	-7723
▁klas	-7724
▁lolo	-7725
▁turo	-7726
aligid	-7727
amaran	-7728
amasid	-7729
ambong	-7730
amhati	-7731
amitan	-7732
andili	-7733
angang	-7734
anggan	-7735
angkal	-7736
ansala	-7737
apagod	-7738
aranas	-7739
ariaan	-7740
arlika	-7741
asabog	-7742
asauli	-7743
asigaw	-7744
asyong	-7745
ataong	-7746
atayan	-7747
atiran	-7748
awasan	-7749
awisan	-7750
bagang	-7751
bighan	-7752
dakila	-7753
enteng	-7754
entral	-7755
fuerte	-7756
hangad	-7757
idilim	-7758
iedras	-7759
igiliw	-7760
ihimig	-7761
ihinal	-7762
ikhang	-7763
ilibak	-7764
iligid	-7765
iligin	-7766
ilikan	-7767
ilugan	-7768
ilyang	-7769
imitas	-7770
imithi	-7771
ingkod	-7772
inigil	-7773
inipay	-7774
inlahi	-7775
insala	-7776
ipagka	-7777
ipitan	-7778
ipunin	-7779
isihan	-7780
isipot	-7781
itagan	-7782
itikan	-7783
itnaan	-7784
iyawan	-7785
kainan	-7786
kasama	-7787
libong	-7788
ligtas	-7789
mangan	-7790
mbayan	-7791
panhik	-7792
rapura	-7793
tulong	-7794
ubilin	-7795
ukulan	-7796
ulanan	-7797
ulupot	-7798
umbong	-7799
Aba	-7800
hhh	-7801
rez	-7802
▁Bac	-7803
ensya	-7804
gubat	-7805
istro	-7806
malas	-7807
ugbog	-7808
uhian	-7809
▁Igon	-7810
▁Isis	-7811
▁abay	-7812
▁kaaa	-7813
▁loro	-7814
▁pind	-7815
▁pipi	-7816
▁tuwi	-7817
adikit	-7818
anglaw	-7819
endrez	-7820
isdang	-7821
itiyak	-7822
latera	-7823
minsan	-7824
umpaan	-7825
unahan	-7826
unaway	-7827
untang	-7828
untung	-7829
unuran	-7830
unwari	-7831
unying	-7832
upitin	-7833
usabos	-7834
usapin	-7835
usilak	-7836
ustang	-7837
utulan	-7838
uwesto	-7839
uwisit	-7840
walang	-7841
walong	-7842
▁Aklan	-7843
▁Alang	-7844
▁Amang	-7845
▁Asawa	-7846
▁Babae	-7847
▁Babay	-7848
▁Baboy	-7849
▁Basta	-7850
▁Bukas	-7851
▁Bunga	-7852
▁Casta	-7853
▁Claro	-7854
▁Dapwa	-7855
▁Diyan	-7856
▁Diyuh	-7857
▁Embid	-7858
▁Gabay	-7859
▁Halik	-7860
▁Halos	-7861
▁Hamog	-7862
▁Hawak	-7863
▁Hayun	-7864
▁Hesuk	-7865
▁Hesus	-7866
▁Iabot	-7867
▁Igala	-7868
▁Impah	-7869
▁Indya	-7870
▁Islaw	-7871
▁Itaas	-7872
▁Itago	-7873
▁Kabis	-7874
▁Kabuk	-7875
▁Kapit	-7876
▁Kinam	-7877
▁Krist	-7878
▁Kulay	-7879
▁Kulog	-7880
▁Kunin	-7881
▁Laban	-7882
▁Labos	-7883
▁Lanaw	-7884
▁Leron	-7885
▁Lihim	-7886
▁Lubay	-7887
▁Mangg	-7888
▁Manun	-7889
▁Mapal	-7890
▁Mateo	-7891
▁Minis	-7892
▁Nakak	-7893
▁Namum	-7894
▁Naupo	-7895
▁Nayon	-7896
▁Niyog	-7897
▁Paano	-7898
▁Pakik	-7899
▁Ko	-7900
mura	-7901
▁masy	-7902
ubuang	-7903
▁Parup	-7904
▁Pilit	-7905
▁Pinam	-7906
▁Pinya	-7907
▁Poong	-7908
▁Pulis	-7909
▁Recto	-7910
▁Sinta	-7911
▁Sulod	-7912
▁Takot	-7913
▁Tapat	-7914
▁Tinat	-7915
▁Tinay	-7916
▁Totoo	-7917
▁Umuwi	-7918
▁Utang	-7919
▁Villa	-7920
▁Voice	-7921
▁aawit	-7922
▁abala	-7923
▁aling	-7924
▁armas	-7925
▁bakya	-7926
▁balot	-7927
▁balse	-7928
▁banga	-7929
▁baril	-7930
▁basag	-7931
▁basta	-7932
▁bibit	-7933
▁bingi	-7934
▁binur	-7935
▁boses	-7936
▁budhi	-7937
▁bumuo	-7938
▁burda	-7939
▁dahas	-7940
▁dahop	-7941
▁dalaw	-7942
▁dinig	-7943
▁doong	-7944
▁duyan	-7945
▁ginat	-7946
▁hahat	-7947
▁hango	-7948
▁hikbi	-7949
▁hinig	-7950
▁hinto	-7951
▁hipon	-7952
▁hiram	-7953
▁hitso	-7954
▁hulog	-7955
▁hurno	-7956
▁ibayo	-7957
▁iiyak	-7958
▁iluha	-7959
▁isipa	-7960
▁ituro	-7961
▁kagat	-7962
▁kalaw	-7963
▁kalus	-7964
▁kawag	-7965
▁kendi	-7966
▁kinag	-7967
▁kinah	-7968
▁kisig	-7969
▁kumuk	-7970
▁kupas	-7971
▁kurus	-7972
▁lagay	-7973
▁layun	-7974
▁limot	-7975
▁lipos	-7976
▁lubha	-7977
▁lumag	-7978
▁lungg	-7979
▁maawa	-7980
▁makad	-7981
▁makin	-7982
▁malal	-7983
▁maliw	-7984
▁mamul	-7985
▁manin	-7986
▁manun	-7987
▁milag	-7988
▁mismo	-7989
▁nabuo	-7990
▁nagug	-7991
▁nahan	-7992
▁nakag	-7993
▁nakar	-7994
▁nanga	-7995
▁napal	-7996
▁napup	-7997
▁oyayi	-7998
▁palit	-7999
▁pasan	-8000
▁patik	-8001
▁paunl	-8002
▁payag	-8003
▁payak	-8004
▁pinaa	-8005
▁pitik	-8006
▁pusod	-8007
▁putok	-8008
▁radio	-8009
▁rurok	-8010
▁sabik	-8011
▁sakim	-8012
▁salag	-8013
▁sangm	-8014
▁santa	-8015
▁setro	-8016
▁sigwa	-8017
▁sikdo	-8018
▁silya	-8019
▁sumus	-8020
▁supil	-8021
▁sutla	-8022
▁takbo	-8023
▁takda	-8024
▁talon	-8025
▁tawad	-8026
▁tibok	-8027
▁tigas	-8028
▁timog	-8029
▁tingn	-8030
▁tinud	-8031
▁tribu	-8032
▁trigo	-8033
▁tugma	-8034
▁tutol	-8035
▁umupo	-8036
▁yumao	-8037
Ibababa	-8038
Itataas	-8039
Malakas	-8040
Pilipin	-8041
Tagalog	-8042
Tatakbo	-8043
Tingnan	-8044
aangkin	-8045
aanyong	-8046
agaslaw	-8047
agawang	-8048
agdasal	-8049
akalang	-8050
aksihan	-8051
alaglag	-8052
alangit	-8053
alayuan	-8054
aligtad	-8055
alimang	-8056
alinhan	-8057
aliping	-8058
amadali	-8059
amitang	-8060
ampanan	-8061
ancisco	-8062
anggawa	-8063
apahiya	-8064
aplusin	-8065
arangya	-8066
arawang	-8067
asayang	-8068
asikaso	-8069
atangis	-8070
atingaw	-8071
atubili	-8072
awawala	-8073
bahayan	-8074
bibigay	-8075
ekalogo	-8076
entuhan	-8077
gagatas	-8078
gilalas	-8079
hiwalay	-8080
igpasin	-8081
ilanggo	-8082
iligaya	-8083
ingapin	-8084
inggang	-8085
intulad	-8086
irahang	-8087
iritsit	-8088
istahan	-8089
iwagang	-8090
iwanang	-8091
kanyang	-8092
kendeng	-8093
lilisik	-8094
lolohan	-8095
marikit	-8096
rocinio	-8097
sinelas	-8098
ubuklod	-8099
uhayang	-8100
umpisal	-8101
unayang	-8102
unyapit	-8103
usisyon	-8104
uusapan	-8105
▁Alagad	-8106
▁Anghel	-8107
▁Bagobo	-8108
▁Balita	-8109
▁Baltog	-8110
▁Baston	-8111
▁Batong	-8112
▁Bigyan	-8113
▁Buksan	-8114
▁Dalaga	-8115
▁Dalhin	-8116
▁Darang	-8117
▁Emilio	-8118
▁Gayong	-8119
▁Handog	-8120
▁Hangga	-8121
▁Hilaga	-8122
▁Ibanag	-8123
▁Iisang	-8124
▁Iloilo	-8125
▁Inabot	-8126
▁Inalis	-8127
▁Inayos	-8128
▁Ipinal	-8129
▁Kagaya	-8130
▁Katang	-8131
▁Kitang	-8132
▁Kurita	-8133
▁Lahing	-8134
▁Lalaki	-8135
▁Lintik	-8136
▁Lumaki	-8137
▁Lumayo	-8138
▁Magpak	-8139
▁Magsas	-8140
▁Mahina	-8141
▁Mainit	-8142
▁Maitim	-8143
▁Makata	-8144
▁Mamang	-8145
▁Mantap	-8146
▁Mapang	-8147
▁Marcos	-8148
▁Marian	-8149
▁Matang	-8150
▁Nadala	-8151
▁Nagpak	-8152
▁Nagpap	-8153
▁Naroon	-8154
▁Naubos	-8155
▁Pagtat	-8156
▁Pangin	-8157
▁Pantas	-8158
▁Pawang	-8159
▁Pitong	-8160
▁Platas	-8161
▁Salapi	-8162
▁Santol	-8163
▁Sining	-8164
▁Subali	-8165
▁Tamang	-8166
▁Tatayo	-8167
▁Tumaas	-8168
▁Tuwing	-8169
▁aakyat	-8170
▁alahas	-8171
▁alitan	-8172
▁aliwin	-8173
▁asahan	-8174
▁awitan	-8175
▁ayusin	-8176
▁bagwis	-8177
▁balbas	-8178
▁baling	-8179
▁basket	-8180
▁bolang	-8181
▁bukana	-8182
▁bumili	-8183
▁damhin	-8184
▁dumumi	-8185
▁galang	-8186
▁gating	-8187
▁gitara	-8188
▁guwang	-8189
▁haligi	-8190
▁halina	-8191
▁hangal	-8192
▁haring	-8193
▁hinhin	-8194
▁hintay	-8195
▁hiwaga	-8196
▁ibuhos	-8197
▁ihulog	-8198
▁ilabas	-8199
▁impluw	-8200
▁inaapi	-8201
▁inabot	-8202
▁inahin	-8203
▁inihal	-8204
▁inilag	-8205
▁inisip	-8206
▁ipinak	-8207
▁ipinam	-8208
▁ipinas	-8209
▁iskrip	-8210
▁itanim	-8211
▁itapon	-8212
▁itulak	-8213
▁kagila	-8214
▁kalian	-8215
▁kamang	-8216
▁kanino	-8217
▁kaniya	-8218
▁kapang	-8219
▁kapara	-8220
▁karagd	-8221
▁kasawi	-8222
▁katyaw	-8223
▁kubang	-8224
▁kumita	-8225
▁kutang	-8226
▁kwento	-8227
▁lagnat	-8228
▁lalayo	-8229
▁lambat	-8230
▁lantay	-8231
▁layuni	-8232
▁lintik	-8233
▁liping	-8234
▁lobong	-8235
▁lumayo	-8236
▁lunday	-8237
▁lutuan	-8238
▁maabot	-8239
▁maagap	-8240
▁maalam	-8241
▁maasim	-8242
▁magaan	-8243
▁magdad	-8244
▁magdar	-8245
▁magkap	-8246
▁magkat	-8247
▁magpap	-8248
▁magsil	-8249
▁magsus	-8250
▁magtut	-8251
▁magulo	-8252
▁mainam	-8253
▁malaon	-8254
▁manika	-8255
▁mapapa	-8256
▁mapasa	-8257
▁mariin	-8258
▁matang	-8259
▁matwid	-8260
▁mayama	-8261
▁medium	-8262
▁munang	-8263
▁muntik	-8264
▁musang	-8265
▁nabali	-8266
▁nagawa	-8267
▁nagdad	-8268
▁nagkah	-8269
▁naglul	-8270
▁nagpal	-8271
▁nagpas	-8272
▁nagsip	-8273
▁naisin	-8274
▁nakiki	-8275
▁nalang	-8276
▁nangab	-8277
▁napang	-8278
▁napuno	-8279
▁nasabi	-8280
▁nasawi	-8281
▁natalo	-8282
▁natuyo	-8283
▁naubos	-8284
▁ningas	-8285
▁niring	-8286
▁normal	-8287
▁pagano	-8288
▁pagbub	-8289
▁pagkam	-8290
▁pagkit	-8291
▁pagsis	-8292
▁pahina	-8293
▁palayo	-8294
▁pamahi	-8295
▁panday	-8296
▁pangan	-8297
▁pantas	-8298
▁papang	-8299
▁papaya	-8300
▁paslit	-8301
▁pinagd	-8302
▁piping	-8303
▁piraso	-8304
▁pumili	-8305
▁puspos	-8306
▁sadlak	-8307
▁sagang	-8308
▁sandok	-8309
▁sawing	-8310
▁sinira	-8311
▁sising	-8312
▁sumira	-8313
▁sungay	-8314
▁takpan	-8315
▁taksil	-8316
▁talian	-8317
▁tamaan	-8318
▁tindig	-8319
▁tiniis	-8320
▁tinuka	-8321
▁trahed	-8322
▁tumaas	-8323
▁tumula	-8324
▁tuwang	-8325
▁unggoy	-8326
▁walong	-8327
▁wikain	-8328
▁winika	-8329
Maraming	-8330
Nakalaan	-8331
abayaran	-8332
aginipan	-8333
ahagupit	-8334
ahangaan	-8335
ahatulan	-8336
akaawang	-8337
akasundo	-8338
alabasan	-8339
alaganap	-8340
alipinan	-8341
amanglaw	-8342
apayaman	-8343
atandang	-8344
egaluhan	-8345
enegildo	-8346
ighatian	-8347
ihingalo	-8348
inangang	-8349
itanghal	-8350
maligaya	-8351
manghang	-8352
ranghero	-8353
ubuhayin	-8354
ulinigan	-8355
ulungkot	-8356
unggaban	-8357
ungkalin	-8358
ungkutin	-8359
▁Antalan	-8360
▁Bituing	-8361
▁Buhayin	-8362
▁Bunsong	-8363
▁Cebuano	-8364
▁Dianzon	-8365
▁Dinarad	-8366
▁Diumano	-8367
▁Dumalap	-8368
▁Filemon	-8369
▁Ganding	-8370
▁Heswita	-8371
▁Huminto	-8372
▁Igalang	-8373
▁Ikaanim	-8374
▁Indones	-8375
▁Iniibig	-8376
▁Iniutos	-8377
▁Isinuot	-8378
▁Itinaas	-8379
▁Jacinto	-8380
▁Jupiter	-8381
▁Kasabay	-8382
▁Katawan	-8383
▁Kayrami	-8384
▁Lipunan	-8385
▁Lubhang	-8386
▁Lumabas	-8387
▁Mabigat	-8388
▁Magsisi	-8389
▁Mahanga	-8390
▁Mahigit	-8391
▁Malabon	-8392
▁Malasin	-8393
▁Malupit	-8394
▁Marikit	-8395
▁Martang	-8396
▁Matamis	-8397
▁Mayaman	-8398
▁Mutyang	-8399
▁Nagtaka	-8400
▁Nahulog	-8401
▁Nakaupo	-8402
▁Paggawa	-8403
▁Palawan	-8404
▁Pangkat	-8405
▁Sadyang	-8406
▁Sagisag	-8407
▁Sandayo	-8408
▁Sicalac	-8409
▁Sumakay	-8410
▁Sumigaw	-8411
▁Sumisid	-8412
▁Tumigil	-8413
▁Watawat	-8414
▁aanihin	-8415
▁abangan	-8416
▁bagaman	-8417
▁bahagya	-8418
▁balitaw	-8419
▁bandera	-8420
▁binalot	-8421
▁bingwit	-8422
▁buhayin	-8423
▁bumabag	-8424
▁bumubuo	-8425
▁bunutin	-8426
▁dagitin	-8427
▁dalawin	-8428
▁datapwa	-8429
▁detalye	-8430
▁diligin	-8431
▁dukhang	-8432
▁duluhan	-8433
▁dumakot	-8434
▁dumulog	-8435
▁duwende	-8436
▁ganoong	-8437
▁ginamot	-8438
▁ginugol	-8439
▁grupong	-8440
▁haharap	-8441
▁hanguin	-8442
▁hapunan	-8443
▁hayaang	-8444
▁heneral	-8445
▁higupin	-8446
▁ibalita	-8447
▁ibayong	-8448
▁ibinato	-8449
▁ikalawa	-8450
▁inaakay	-8451
▁inilaan	-8452
▁ispirit	-8453
▁isusubo	-8454
▁itanong	-8455
▁itinago	-8456
▁itinayo	-8457
▁ituturo	-8458
▁kabigha	-8459
▁kakampi	-8460
▁kakanin	-8461
▁kapaham	-8462
▁kaparis	-8463
▁kapilas	-8464
▁kasunod	-8465
▁katapat	-8466
▁katwira	-8467
▁kaugnay	-8468
▁konseho	-8469
▁kristal	-8470
▁kulisap	-8471
▁kumanta	-8472
▁kuratsa	-8473
▁laganap	-8474
▁lagapak	-8475
▁lalakad	-8476
▁lambong	-8477
▁laruang	-8478
▁lingkod	-8479
▁luksang	-8480
▁luluhod	-8481
▁lumakas	-8482
▁lumulon	-8483
▁maamong	-8484
▁mabunga	-8485
▁madamot	-8486
▁maganap	-8487
▁magdala	-8488
▁maghapo	-8489
▁magilas	-8490
▁magkaka	-8491
▁magsaya	-8492
▁magtiis	-8493
▁magumon	-8494
▁mahigit	-8495
▁mahinog	-8496
▁maiinam	-8497
▁maiiwan	-8498
▁makahoy	-8499
▁makipag	-8500
▁makipan	-8501
▁malilim	-8502
▁malunod	-8503
▁mangang	-8504
▁mangaso	-8505
▁mapapal	-8506
▁marahas	-8507
▁masapit	-8508
▁masasal	-8509
▁maselan	-8510
▁masigla	-8511
▁masukal	-8512
▁matiyak	-8513
▁mauubos	-8514
▁mawalay	-8515
▁mistula	-8516
▁naalala	-8517
▁nababal	-8518
▁nabatid	-8519
▁nagbayo	-8520
▁nagpala	-8521
▁nagtamo	-8522
▁nahayag	-8523
▁nakahih	-8524
▁nakakah	-8525
▁nakipag	-8526
▁nalanta	-8527
▁namalas	-8528
▁nangagb	-8529
▁nangagh	-8530
▁napakah	-8531
▁napapal	-8532
▁natulog	-8533
▁natupok	-8534
▁naunang	-8535
▁nililok	-8536
▁nilusob	-8537
▁ninakaw	-8538
▁orakulo	-8539
▁pagdami	-8540
▁paghabi	-8541
▁pagkuha	-8542
▁paglaki	-8543
▁pagsang	-8544
▁panalok	-8545
▁panatil	-8546
▁panging	-8547
▁panyong	-8548
▁pasukan	-8549
▁payagan	-8550
▁pinakas	-8551
▁pinalam	-8552
▁pinangh	-8553
▁planeta	-8554
▁plantsa	-8555
▁puluhan	-8556
▁puwersa	-8557
▁sagutin	-8558
▁salakay	-8559
▁salawal	-8560
▁sasagot	-8561
▁sigwang	-8562
▁silahis	-8563
▁sinapup	-8564
▁sinauna	-8565
▁sinulat	-8566
▁subukin	-8567
▁sumasal	-8568
▁sumibol	-8569
▁sumilip	-8570
▁sumipot	-8571
▁taimtim	-8572
▁talukap	-8573
▁tanawin	-8574
▁tandaan	-8575
▁tantuin	-8576
▁tatawag	-8577
▁tigilan	-8578
▁tinuran	-8579
▁tiririt	-8580
▁tribong	-8581
▁umaakay	-8582
▁umiikot	-8583
▁yumaong	-8584
Lalapitan	-8585
Malungkot	-8586
Mamamatay	-8587
akasamang	-8588
akilanlan	-8589
akiusapan	-8590
alastasan	-8591
alinangan	-8592
amayagpag	-8593
angondaya	-8594
bighaning	-8595
ernatural	-8596
ihinatnan	-8597
ihinayang	-8598
ikilalang	-8599
iwangwang	-8600
rimonyong	-8601
upumiglas	-8602
uumpugang	-8603
▁Aninipay	-8604
▁Bangkaya	-8605
▁Bautista	-8606
▁Bubuksan	-8607
▁Bumaling	-8608
▁Diyuhara	-8609
▁Halikayo	-8610
▁Hinintay	-8611
▁Ibinigay	-8612
▁Ikinasal	-8613
▁Inilagay	-8614
▁Isisilid	-8615
▁Isusumpa	-8616
▁KAMPUPOT	-8617
▁Kapuluan	-8618
▁Katindoy	-8619
▁Kotabato	-8620
▁Kundiman	-8621
▁Magaling	-8622
▁Magbayad	-8623
▁Makahiya	-8624
▁Maligaya	-8625
▁Marunong	-8626
▁Nagagawa	-8627
▁Nagbigay	-8628
▁Nagdaang	-8629
▁Naglagay	-8630
▁Nagsayaw	-8631
▁Nakatira	-8632
▁Nakilala	-8633
▁Nakiusap	-8634
▁Pagsapit	-8635
▁Pambansa	-8636
▁Sinundan	-8637
▁Talagang	-8638
▁Tinuruan	-8639
▁Titingin	-8640
▁Tumilaok	-8641
▁Tumingin	-8642
▁Victoria	-8643
▁balahibo	-8644
▁bangkang	-8645
▁bantayog	-8646
▁batikang	-8647
▁batingaw	-8648
▁baybayin	-8649
▁bersyong	-8650
▁bibilang	-8651
▁binabayo	-8652
▁binagtas	-8653
▁biyayang	-8654
▁bubuksan	-8655
▁bumabati	-8656
▁daluyong	-8657
▁dayalogo	-8658
▁dinapuan	-8659
▁diyosang	-8660
▁dumadapo	-8661
▁gumapang	-8662
▁halatang	-8663
▁ibabalik	-8664
▁ibinilin	-8665
▁ikinalat	-8666
▁inihagis	-8667
▁ipinasya	-8668
▁isinalin	-8669
▁isinulat	-8670
▁isisigaw	-8671
▁kaanyuan	-8672
▁kabayong	-8673
▁kahirapa	-8674
▁kakainin	-8675
▁kalapati	-8676
▁kamangha	-8677
▁kapantay	-8678
▁karaniwa	-8679
▁kasawian	-8680
▁kaserola	-8681
▁kastilyo	-8682
▁katabing	-8683
▁katuwang	-8684
▁kayarian	-8685
▁kilyawan	-8686
▁kinausap	-8687
▁kumidlat	-8688
▁labanang	-8689
▁landasin	-8690
▁layuning	-8691
▁ligayang	-8692
▁likurang	-8693
▁lingapin	-8694
▁lubusang	-8695
▁lumaking	-8696
▁lumalayo	-8697
▁lumuluha	-8698
▁lumutang	-8699
▁lunggati	-8700
▁maaalala	-8701
▁maalamat	-8702
▁mababait	-8703
▁mabining	-8704
▁magbalak	-8705
▁magbuhat	-8706
▁maghapon	-8707
▁magmasid	-8708
▁magyakap	-8709
▁mahiwaga	-8710
▁makatayo	-8711
▁malaglag	-8712
▁malagong	-8713
▁malamang	-8714
▁malamyos	-8715
▁mamasdan	-8716
▁masasama	-8717
▁masungit	-8718
▁masusing	-8719
▁matimyas	-8720
▁matinong	-8721
▁matiyaga	-8722
▁mawiwika	-8723
▁mayabong	-8724
▁ministro	-8725
▁nadarama	-8726
▁nagawang	-8727
▁nagdilim	-8728
▁naghanap	-8729
▁nagising	-8730
▁nagkagan	-8731
▁nagmamay	-8732
▁nagpapag	-8733
▁nagpapat	-8734
▁nagpilit	-8735
▁nagsadya	-8736
▁nagtanim	-8737
▁nagtatag	-8738
▁naisulat	-8739
▁nakapagp	-8740
▁nakulong	-8741
▁namasyal	-8742
▁nanghina	-8743
▁nangusap	-8744
▁napadaan	-8745
▁naparito	-8746
▁naririto	-8747
▁nasaktan	-8748
▁nasambit	-8749
▁nasisira	-8750
▁natatamo	-8751
▁naubusan	-8752
▁niluluto	-8753
▁niyaring	-8754
▁orihinal	-8755
▁pagbalik	-8756
▁paggugol	-8757
▁paglaban	-8758
▁paglubog	-8759
▁paglutas	-8760
▁pagpapas	-8761
▁pagpatay	-8762
▁pagtanda	-8763
▁pakiusap	-8764
▁palendag	-8765
▁pamanang	-8766
▁pamaraan	-8767
▁paminsan	-8768
▁pandinig	-8769
▁pantribo	-8770
▁papanhik	-8771
▁parangal	-8772
▁parating	-8773
▁partidos	-8774
▁patibong	-8775
▁patnugot	-8776
▁pinagkak	-8777
▁prayleng	-8778
▁pumalaot	-8779
▁pumarito	-8780
▁sagupaan	-8781
▁salaming	-8782
▁salaping	-8783
▁sandaang	-8784
▁sinusuyo	-8785
▁sukdulan	-8786
▁susundan	-8787
▁tagapagb	-8788
▁tagapags	-8789
▁tagapayo	-8790
▁tagsibol	-8791
▁talampas	-8792
▁taluktok	-8793
▁tanikala	-8794
▁tatsulok	-8795
▁tinamaan	-8796
▁tindahan	-8797
▁tumangis	-8798
▁tumingin	-8799
▁umuunlad	-8800
Balintawak	-8801
Pagkatapos	-8802
abayanihan	-8803
amalasakit	-8804
amatandang	-8805
angkilikin	-8806
indalawang	-8807
uwalhatian	-8808
▁Bahaginan	-8809
▁Capariaan	-8810
▁Damdaming	-8811
▁Disyembre	-8812
▁Embidayan	-8813
▁Francisco	-8814
▁Ginagamit	-8815
▁Hahahahah	-8816
▁Hahawakan	-8817
▁Ikalawang	-8818
▁Indrapura	-8819
▁Inglatera	-8820
▁Itinanong	-8821
▁Kasulatan	-8822
▁Kayamanan	-8823
▁Kulturang	-8824
▁Lakandiwa	-8825
▁Mabubuhay	-8826
▁Macaranga	-8827
▁Magaganda	-8828
▁Magmadali	-8829
▁Makalipas	-8830
▁Mantapuli	-8831
▁Mapatubig	-8832
▁Melendrez	-8833
▁Minisalaw	-8834
▁Nagkagulo	-8835
▁Nalimutan	-8836
▁Pablitong	-8837
▁Pagkaalis	-8838
▁Republika	-8839
▁Tabunaway	-8840
▁Tinanggap	-8841
▁Tinawagan	-8842
▁Tiningnan	-8843
▁Titingala	-8844
▁Valeriana	-8845
▁Yambungan	-8846
▁banyagang	-8847
▁binabalik	-8848
▁binitiwan	-8849
▁binubunot	-8850
▁bubuhayin	-8851
▁daigdigan	-8852
▁dalamhati	-8853
▁direksyon	-8854
▁ginugugol	-8855
▁hagupitin	-8856
▁hardinero	-8857
▁hiningang	-8858
▁ikauunlad	-8859
▁inihandog	-8860
▁inilibing	-8861
▁ipaglihim	-8862
▁ipagpalit	-8863
▁isisilang	-8864
▁kabaitang	-8865
▁kabaliwan	-8866
▁kabatiran	-8867
▁kabilugan	-8868
▁kabuluhan	-8869
▁kagagawan	-8870
▁kagamitan	-8871
▁kagipitan	-8872
▁kandungan	-8873
▁kariktang	-8874
▁karugtong	-8875
▁katagalan	-8876
▁katamaran	-8877
▁katipunan	-8878
▁katuparan	-8879
▁kilalanin	-8880
▁kinaawaan	-8881
▁kinakapos	-8882
▁kinalaman	-8883
▁kinawayan	-8884
▁luwalhati	-8885
▁mabubuhay	-8886
▁magagalit	-8887
▁magagamit	-8888
▁magaspang	-8889
▁magbangon	-8890
▁maghapong	-8891
▁magsalita	-8892
▁magsasabi	-8893
▁mahuhulog	-8894
▁maiibigan	-8895
▁mailigtas	-8896
▁makabayan	-8897
▁makakamit	-8898
▁makalabas	-8899
▁makapasok	-8900
▁makarinig	-8901
▁makasapit	-8902
▁makatagpo	-8903
▁malilikot	-8904
▁mambabasa	-8905
▁mapahamak	-8906
▁mapaparam	-8907
▁mapatakan	-8908
▁masasarap	-8909
▁masunurin	-8910
▁masusupil	-8911
▁matahimik	-8912
▁matutuhan	-8913
▁matutulis	-8914
▁matutupad	-8915
▁nabanggit	-8916
▁nagagalit	-8917
▁nagbangon	-8918
▁nagdadala	-8919
▁nagdaraan	-8920
▁naghangad	-8921
▁naglalaro	-8922
▁nagpakita	-8923
▁nagsabing	-8924
▁nagsasaya	-8925
▁nagtuturo	-8926
▁naiinggit	-8927
▁nakabihis	-8928
▁nakabitin	-8929
▁nakalipad	-8930
▁nakayanan	-8931
▁nalathala	-8932
▁namamahay	-8933
▁nanghiram	-8934
▁nangitlog	-8935
▁napansing	-8936
▁napilitan	-8937
▁nasasabik	-8938
▁nasasakop	-8939
▁nasugatan	-8940
▁natatakot	-8941
▁nawawalan	-8942
▁nilikhang	-8943
▁nililiyag	-8944
▁pagbabasa	-8945
▁pagkabigo	-8946
▁pagkakita	-8947
▁paglalaro	-8948
▁pagsuyong	-8949
▁pagtatalo	-8950
▁pagtatayo	-8951
▁pagtugtog	-8952
▁pakendeng	-8953
▁pakikipag	-8954
▁palayawin	-8955
▁palitawin	-8956
▁paliwanag	-8957
▁pamamahay	-8958
▁pambayani	-8959
▁pamilyang	-8960
▁pangkaran	-8961
▁panunumpa	-8962
▁paunlarin	-8963
▁pinalayas	-8964
▁pinapatay	-8965
▁salinlahi	-8966
▁sandalyas	-8967
▁sinalakay	-8968
▁sinasadya	-8969
▁sumasayaw	-8970
▁sumisikat	-8971
▁sundalong	-8972
▁taginting	-8973
▁tangraban	-8974
▁tinigilan	-8975
▁tinikling	-8976
Papalibutan	-8977
alinghagang	-8978
▁Bagombayan	-8979
▁Gayunpaman	-8980
▁Hesukristo	-8981
▁Ipinangako	-8982
▁Kalanutian	-8983
▁Kalikasang	-8984
▁Kasarinlan	-8985
▁Katapusang	-8986
▁Katarungan	-8987
▁Kayumanggi	-8988
▁Naghiyawan	-8989
▁Nagkataong	-8990
▁Nagmakaawa	-8991
▁Nagsisipan	-8992
▁Nakaramdam	-8993
▁Nanggaling	-8994
▁Napilitang	-8995
▁Pagkalipas	-8996
▁Paruparong	-8997
▁Patrocinio	-8998
▁Samaritano	-8999
▁Silanganin	-9000
▁Sinasabing	-9001
▁binantayan	-9002
▁binibigyan	-9003
▁binurdahan	-9004
▁bumubulong	-9005
▁ginagawang	-9006
▁henerasyon	-9007
▁hinahagkan	-9008
▁ibinibigay	-9009
▁inaalagaan	-9010
▁iniingatan	-9011
▁ipaliwanag	-9012
▁ipinangako	-9013
▁itinanghal	-9014
▁kaalipinan	-9015
▁kabihasnan	-9016
▁kabuhayang	-9017
▁kagamitang	-9018
▁kakayahang	-9019
▁kaligtasan	-9020
▁kaluluwang	-9021
▁kapalarang	-9022
▁kapintasan	-9023
▁kapulungan	-9024
▁kapuspalad	-9025
▁katapusang	-9026
▁katarungan	-9027
▁kaugaliang	-9028
▁kontrabida	-9029
▁kumikinang	-9030
▁linggatong	-9031
▁lumulutang	-9032
▁mabalitaan	-9033
▁magdudulot	-9034
▁magigising	-9035
▁magkagalit	-9036
▁magkakamag	-9037
▁magkakapit	-9038
▁magkasakit	-9039
▁magkasundo	-9040
▁magmukhang	-9041
▁magpautang	-9042
▁magtanggol	-9043
▁maitanghal	-9044
▁makakamtan	-9045
▁makaramdam	-9046
▁manalangin	-9047
▁manggagawa	-9048
▁mapanganib	-9049
▁mapuputing	-9050
▁maramdaman	-9051
▁masasayang	-9052
▁matagumpay	-9053
▁matipunong	-9054
▁mawawaglit	-9055
▁mayayamang	-9056
▁nagbubuhat	-9057
▁naghahatid	-9058
▁nagkasundo	-9059
▁naglalagos	-9060
▁nagmamahal	-9061
▁nagtatanim	-9062
▁nagwawakas	-9063
▁nakakaalam	-9064
▁nakaligtas	-9065
▁nakatingin	-9066
▁namamangka	-9067
▁nanalangin	-9068
▁nananariwa	-9069
▁nananatili	-9070
▁nanatiling	-9071
▁nanghihina	-9072
▁napakalaki	-9073
▁nararating	-9074
▁naulinigan	-9075
▁ngumingiti	-9076
▁paghahakot	-9077
▁paghihirap	-9078
▁pagkabigla	-9079
▁pagkaganda	-9080
▁paglalahad	-9081
▁paglalakad	-9082
▁pagsasanay	-9083
▁palaisipan	-9084
▁pamahalaan	-9085
▁pamamasyal	-9086
▁pambansang	-9087
▁panambitan	-9088
▁panggabing	-9089
▁pariralang	-9090
▁pasalaysay	-9091
▁pinagagawa	-9092
▁pinangarap	-9093
▁pinapansin	-9094
▁prinsipeng	-9095
▁pupuntahan	-9096
▁salubungin	-9097
▁sampaguita	-9098
▁sanggunian	-9099
▁sinasabing	-9100
▁sinilangan	-9101
▁sinisipsip	-9102
▁taludturan	-9103
▁tanghaling	-9104
▁tinataglay	-9105
▁tinatakpan	-9106
apangyarihan	-9107
ipagkaibigan	-9108
▁Impahimbang	-9109
▁Kapampangan	-9110
▁Maghimagsik	-9111
▁Sitsiritsit	-9112
▁Tangkilikin	-9113
▁Villafuerte	-9114
▁ikinabahala	-9115
▁inanyayahan	-9116
▁inihahandog	-9117
▁ipaghiganti	-9118
▁isinalaysay	-9119
▁kabihasnang	-9120
▁kabundukang	-9121
▁kadahilanan	-9122
▁kalagitnaan	-9123
▁kalinangang	-9124
▁kapanahunan	-9125
▁kapighatian	-9126
▁kapupulutan	-9127
▁karagdagang	-9128
▁kasanggulan	-9129
▁kasaysayang	-9130
▁luwalhating	-9131
▁magpagulang	-9132
▁magtagumpay	-9133
▁makakayanan	-9134
▁makasalanan	-9135
▁makatuwiran	-9136
▁makipagkita	-9137
▁malalabasan	-9138
▁maparusahan	-9139
▁mapatunayan	-9140
▁matatanggap	-9141
▁matatapatan	-9142
▁minumutyang	-9143
▁nagkapakpak	-9144
▁nagmamalaki	-9145
▁nagsasabing	-9146
▁nagsasalita	-9147
▁nagsisimula	-9148
▁nagtangkang	-9149
▁nagtatanong	-9150
▁nakahandang	-9151
▁nakasalalay	-9152
▁nangangamba	-9153
▁napangasawa	-9154
▁natatanging	-9155
▁pagdaralita	-9156
▁pagkagising	-9157
▁pagkakaluto	-9158
▁pagkakamali	-9159
▁pagsisilang	-9160
▁pakikidigma	-9161
▁pamimingwit	-9162
▁pananahimik	-9163
▁panganganak	-9164
▁parurusahan	-9165
▁pasalamatan	-9166
▁pinagdarayo	-9167
▁pinaglaruan	-9168
▁pinakawalan	-9169
▁sinasadyang	-9170
▁tagapakinig	-9171
▁tatanggapin	-9172
▁tinatanggap	-9173
▁Binabantayan	-9174
▁Hermenegildo	-9175
▁Pinakamataas	-9176
▁kayumangging	-9177
▁mahahalagang	-9178
▁makatarungan	-9179
▁nagkahiwalay	-9180
▁naglalarawan	-9181
▁nagliliwanag	-9182
▁nagmistulang	-9183
▁nagtatrabaho	-9184
▁nakakapiling	-9185
▁nanggagaling	-9186
▁nasisiyahang	-9187
▁pagkakahawig	-9188
▁pagkakasakit	-9189
▁paglilingkod	-9190
▁pagpapahayag	-9191
▁pagpapakasal	-9192
▁pagpapaunlad	-9193
▁pagpipitagan	-9194
▁pampanitikan	-9195
▁paniniwalang	-9196
▁pinaghirapan	-9197
▁pinaglabanan	-9198
▁pinagsabihan	-9199
▁pinakamaliit	-9200
▁pinakamataas	-9201
▁pinalamutian	-9202
▁pinamumunuan	-9203
▁sangkatauhan	-9204
▁supernatural	-9205
▁Ipinagpatuloy	-9206
▁Nakapagtataka	-9207
▁Pinatutunayan	-9208
▁kaluwalhatian	-9209
▁magpahanggang	-9210
▁makapagsimula	-9211
▁makipanirahan	-9212
▁mangingisdang	-9213
▁nagniningning	-9214
▁nagsasalaysay	-9215
▁nakatatandang	-9216
▁paghihimagsik	-9217
▁paghihinagpis	-9218
▁pagkakaibigan	-9219
▁pagtatagumpay	-9220
▁pinaglibingan	-9221
▁pinagmamasdan	-9222
▁pinakamahusay	-9223
▁pinangalanang	-9224
▁Pinaniniwalaan	-9225
▁interpretasyon	-9226
▁mangungunyapit	-9227
▁nagpapahiwatig	-9228
▁tagapagtanggol	-9229
▁nangangahulugan	-9230
AMA	-9231
Eee	-9232
III	-9233
eck	-9234
eco	-9235
ect	-9236
eee	-9237
eow	-9238
ple	-9239
poc	-9240
psy	-9241
ric	-9242
▁2)	-9243
▁2:	-9244
-12:	-9245
AMBI	-9246
Alam	-9247
Ibig	-9248
Ikin	-9249
Magm	-9250
Patr	-9251
argo	-9252
bibi	-9253
biro	-9254
chos	-9255
cion	-9256
cism	-9257
cpoc	-9258
dite	-9259
ebey	-9260
epto	-9261
labe	-9262
lowe	-9263
magb	-9264
mlks	-9265
ngao	-9266
rade	-9267
riol	-9268
ssss	-9269
ugho	-9270
▁Asu	-9271
▁Bic	-9272
▁Est	-9273
▁Hmm	-9274
▁INA	-9275
▁Low	-9276
▁ark	-9277
▁ire	-9278
▁roo	-9279
▁uso	-9280
Eeeek	-9281
Hayun	-9282
Malum	-9283
Matat	-9284
Matut	-9285
aaapi	-9286
alogd	-9287
amsik	-9288
amtam	-9289
ansay	-9290
areha	-9291
aspas	-9292
atect	-9293
buong	-9294
chant	-9295
durog	-9296
eckar	-9297
edest	-9298
empsy	-9299
PAT	-9300
APAT	-9301
Nagd	-9302
abaho	-9303
enido	-9304
eowul	-9305
erico	-9306
igiik	-9307
iilaw	-9308
iinog	-9309
ikomp	-9310
iksik	-9311
ilihi	-9312
ivera	-9313
kanya	-9314
lipop	-9315
liyab	-9316
mahal	-9317
minsa	-9318
nugot	-9319
octor	-9320
ohana	-9321
otekt	-9322
seras	-9323
suwan	-9324
talon	-9325
tarin	-9326
terin	-9327
tuyot	-9328
uklam	-9329
uklok	-9330
ulwak	-9331
urado	-9332
urgos	-9333
vukad	-9334
yedad	-9335
▁Abad	-9336
▁Aeta	-9337
▁Bien	-9338
▁Dagl	-9339
▁Gatp	-9340
▁Gayg	-9341
▁High	-9342
▁Hudh	-9343
▁Kont	-9344
▁Losl	-9345
▁Misk	-9346
▁Noby	-9347
▁Prom	-9348
▁Shar	-9349
▁Utak	-9350
▁Vill	-9351
▁amba	-9352
▁aria	-9353
▁bibe	-9354
▁duon	-9355
▁hidh	-9356
▁himl	-9357
▁ihal	-9358
▁imah	-9359
▁kimm	-9360
▁kubl	-9361
▁kudy	-9362
▁kuko	-9363
▁laon	-9364
▁look	-9365
▁luko	-9366
▁mumo	-9367
▁oohh	-9368
▁prak	-9369
▁seco	-9370
▁siph	-9371
▁soso	-9372
▁sugp	-9373
▁tayu	-9374
▁yumi	-9375
AMBINI	-9376
Aruman	-9377
Doctor	-9378
Lalake	-9379
Magpip	-9380
Manobo	-9381
Nakita	-9382
Narito	-9383
Ngunit	-9384
Sasamb	-9385
aaabot	-9386
aakala	-9387
aantig	-9388
abitiw	-9389
adyain	-9390
aghari	-9391
aghele	-9392
ahabol	-9393
alibag	-9394
alismo	-9395
alupan	-9396
alyero	-9397
aramay	-9398
arimot	-9399
▁f	-9400
dob	-9401
ede	-9402
ord	-9403
sol	-9404
Lupa	-9405
akal	-9406
ashi	-9407
bali	-9408
edyo	-9409
inse	-9410
ogod	-9411
wika	-9412
ampal	-9413
ampis	-9414
asamp	-9415
ilian	-9416
masid	-9417
ubdob	-9418
yonal	-9419
▁Baba	-9420
▁Damb	-9421
▁sumb	-9422
Pabula	-9423
ahasik	-9424
alabal	-9425
anakit	-9426
arinaw	-9427
asaksi	-9428
asamba	-9429
atawid	-9430
atoryo	-9431
bibili	-9432
cpoclo	-9433
ebeyew	-9434
egrito	-9435
elismo	-9436
engkan	-9437
eowulf	-9438
esorya	-9439
eywang	-9440
hapong	-9441
ighani	-9442
ihagis	-9443
iimbot	-9444
iinang	-9445
ingsel	-9446
isipol	-9447
itigil	-9448
itikim	-9449
itikom	-9450
itnang	-9451
iwasay	-9452
lalaki	-9453
lalata	-9454
masdan	-9455
nunuan	-9456
ogodog	-9457
ogyaya	-9458
olidik	-9459
orcism	-9460
palaya	-9461
rodite	-9462
takang	-9463
ubhasa	-9464
ubuhos	-9465
ugenio	-9466
ugnung	-9467
uhubog	-9468
ukuban	-9469
umilit	-9470
unghay	-9471
unsina	-9472
unukal	-9473
▁Among	-9474
▁Aywan	-9475
▁BULAK	-9476
▁Bahag	-9477
▁Benig	-9478
▁Bicol	-9479
▁Bienv	-9480
▁Bonto	-9481
▁Buuin	-9482
▁Dampa	-9483
▁Hamak	-9484
▁Iloko	-9485
▁Kabat	-9486
▁Kagit	-9487
▁Kakal	-9488
▁Kamay	-9489
▁Kamya	-9490
▁Karun	-9491
▁LAHAT	-9492
▁Latin	-9493
▁Linog	-9494
▁Lunes	-9495
▁Mapap	-9496
▁Minsa	-9497
▁Mutya	-9498
▁Nabuo	-9499
Ab	-9500
.")	-9501
Pap	-9502
Gaya	-9503
Naka	-9504
alta	-9505
onar	-9506
▁alp	-9507
akuha	-9508
anaul	-9509
apant	-9510
ongto	-9511
untok	-9512
yalan	-9513
▁Nene	-9514
▁ikal	-9515
▁marm	-9516
agkaka	-9517
akawan	-9518
antaon	-9519
anting	-9520
dulaan	-9521
inhing	-9522
kimpal	-9523
uguhit	-9524
ulapay	-9525
unduan	-9526
▁Nahih	-9527
▁Narra	-9528
▁Nueva	-9529
▁Ohhhh	-9530
▁Pista	-9531
▁Prans	-9532
▁Putak	-9533
▁Rosas	-9534
▁Singk	-9535
▁Solom	-9536
▁Sumal	-9537
▁Tigil	-9538
▁Tomin	-9539
▁Tsina	-9540
▁Ulila	-9541
▁Umaga	-9542
▁Visay	-9543
▁aisle	-9544
▁alins	-9545
▁ambon	-9546
▁anaki	-9547
▁antok	-9548
▁arkit	-9549
▁bihag	-9550
▁bihis	-9551
▁biniy	-9552
▁bulsa	-9553
▁bungi	-9554
▁buslo	-9555
▁dadag	-9556
▁dagim	-9557
▁dagli	-9558
▁durog	-9559
▁eklip	-9560
▁gayak	-9561
▁gusot	-9562
▁hahag	-9563
▁hihip	-9564
▁hukay	-9565
▁huwad	-9566
▁idina	-9567
▁ihain	-9568
▁inapo	-9569
▁iskol	-9570
▁iwing	-9571
▁kabuh	-9572
▁kalap	-9573
▁kapas	-9574
▁kapon	-9575
▁kilik	-9576
▁kinaa	-9577
▁kirot	-9578
▁koles	-9579
▁konde	-9580
▁kunwa	-9581
▁limit	-9582
▁lolok	-9583
▁mabig	-9584
▁mabuo	-9585
▁macan	-9586
▁masay	-9587
▁medyo	-9588
▁moral	-9589
▁nalik	-9590
▁napas	-9591
▁nasam	-9592
▁pahay	-9593
▁palab	-9594
▁palig	-9595
▁patal	-9596
▁patot	-9597
▁pawid	-9598
▁pipig	-9599
ber	-9600
nen	-9601
▁uy	-9602
buko	-9603
hena	-9604
isen	-9605
mula	-9606
obya	-9607
puan	-9608
uris	-9609
▁Bur	-9610
▁Usa	-9611
▁ant	-9612
▁dap	-9613
abaon	-9614
abuan	-9615
akata	-9616
alina	-9617
iibig	-9618
iinit	-9619
iiwan	-9620
inaon	-9621
ingil	-9622
ipins	-9623
uhata	-9624
▁Amay	-9625
▁Bint	-9626
▁Bita	-9627
▁cari	-9628
▁haba	-9629
▁ipat	-9630
▁laan	-9631
▁lata	-9632
▁mano	-9633
ayaman	-9634
himala	-9635
isilip	-9636
iyasat	-9637
utukin	-9638
▁Binti	-9639
▁aleng	-9640
▁ipagm	-9641
▁isama	-9642
▁isina	-9643
▁kabag	-9644
▁kasan	-9645
▁kasuk	-9646
▁putak	-9647
▁rosal	-9648
▁senyo	-9649
▁silbi	-9650
▁sisis	-9651
▁sumil	-9652
▁sunud	-9653
▁supot	-9654
▁tibud	-9655
▁tikas	-9656
▁tipak	-9657
▁trans	-9658
▁tukso	-9659
▁tungg	-9660
▁tutup	-9661
▁tuyot	-9662
▁ugong	-9663
▁unawa	-9664
▁vinta	-9665
▁yugto	-9666
Hahagul	-9667
LINISAN	-9668
Luluhod	-9669
Malaueg	-9670
Marahas	-9671
Ninakaw	-9672
Saklolo	-9673
aalaala	-9674
abikang	-9675
abuting	-9676
adalhan	-9677
agasang	-9678
agawian	-9679
aghapon	-9680
aglayin	-9681
akitaan	-9682
alamlam	-9683
alamyos	-9684
alimuot	-9685
alingon	-9686
alogdog	-9687
alunton	-9688
amaalam	-9689
ambahay	-9690
ambibig	-9691
ambuhay	-9692
ampanga	-9693
anghaya	-9694
arining	-9695
atapong	-9696
atasang	-9697
atectec	-9698
ayabong	-9699
"?	-9700
eol	-9701
hod	-9702
huy	-9703
old	-9704
oll	-9705
...)	-9706
ahop	-9707
amim	-9708
anya	-9709
ason	-9710
immo	-9711
iwis	-9712
kibo	-9713
oyaw	-9714
silk	-9715
uhul	-9716
ulto	-9717
vana	-9718
▁Hoy	-9719
▁Loy	-9720
▁gal	-9721
▁imb	-9722
▁rum	-9723
abeto	-9724
alago	-9725
eolog	-9726
iitim	-9727
kahan	-9728
sahan	-9729
tasin	-9730
undat	-9731
▁Atin	-9732
▁Coll	-9733
▁Oray	-9734
▁Tabi	-9735
▁anin	-9736
▁ipan	-9737
▁kali	-9738
▁naku	-9739
▁suma	-9740
▁swak	-9741
▁tela	-9742
abahan	-9743
akahin	-9744
alamig	-9745
emanya	-9746
immoco	-9747
unidad	-9748
▁Kaawa	-9749
▁Kalak	-9750
▁Panap	-9751
▁Sumus	-9752
▁aniya	-9753
▁aring	-9754
▁gangg	-9755
▁hibik	-9756
▁kayat	-9757
▁malum	-9758
▁matar	-9759
▁pahih	-9760
▁pinar	-9761
▁rumar	-9762
aharian	-9763
aravana	-9764
ebisyon	-9765
edestal	-9766
ensuela	-9767
esisyon	-9768
esyonal	-9769
gandang	-9770
hanggan	-9771
ibigkis	-9772
ibisita	-9773
ihangin	-9774
iikutin	-9775
ikhaing	-9776
ilanlin	-9777
ilimbag	-9778
imitang	-9779
imortal	-9780
inataan	-9781
isingin	-9782
kabigin	-9783
kamukha	-9784
lintang	-9785
lipunan	-9786
maganda	-9787
mundong	-9788
ngingit	-9789
ongtoan	-9790
opootan	-9791
pisahan	-9792
singhap	-9793
sunuran	-9794
tikular	-9795
ukdulan	-9796
ukipkip	-9797
umbasan	-9798
umurang	-9799
AA	-9800
HAN	-9801
Hul	-9802
sum	-9803
vid	-9804
▁AT	-9805
UHAN	-9806
atro	-9807
idas	-9808
ihon	-9809
iyaw	-9810
king	-9811
sisi	-9812
ukid	-9813
uruk	-9814
usod	-9815
vide	-9816
▁Duw	-9817
▁Gar	-9818
▁dug	-9819
▁ipa	-9820
▁kor	-9821
Malag	-9822
alags	-9823
bukid	-9824
erman	-9825
hanap	-9826
ingid	-9827
▁Payo	-9828
▁Yaon	-9829
▁kaal	-9830
▁kata	-9831
▁nait	-9832
Magpap	-9833
ahawak	-9834
ahayan	-9835
ibagay	-9836
ibayan	-9837
ipilit	-9838
lalang	-9839
ungkol	-9840
▁Gubat	-9841
▁Mapay	-9842
▁Midas	-9843
▁bubog	-9844
▁matiy	-9845
▁sulat	-9846
Hulihin	-9847
Malagom	-9848
ahalaga	-9849
apaapoy	-9850
ugulong	-9851
upuring	-9852
uwintas	-9853
▁Ambroc	-9854
▁Angkin	-9855
▁Asahan	-9856
▁Bacong	-9857
▁Bagwis	-9858
▁Bigong	-9859
▁Bontoc	-9860
▁Bumaba	-9861
▁Bumili	-9862
▁Bungal	-9863
▁Burgos	-9864
▁Dangla	-9865
▁Dumapo	-9866
▁Enrile	-9867
▁Gloria	-9868
▁Halina	-9869
▁Hermes	-9870
▁Iwasan	-9871
▁KASAMA	-9872
▁Kabaly	-9873
▁Kagyat	-9874
▁Kailok	-9875
▁Karamp	-9876
▁Kinaum	-9877
▁Korong	-9878
▁Labong	-9879
▁Loslos	-9880
▁Lupain	-9881
▁Maaari	-9882
▁Mamili	-9883
▁Manaul	-9884
▁Manong	-9885
▁Minago	-9886
▁Muntik	-9887
▁Naakit	-9888
▁Nagbab	-9889
▁Nagsis	-9890
▁Naiiba	-9891
▁Nanaog	-9892
▁Nanood	-9893
▁Nasabi	-9894
▁Neckar	-9895
▁Nenita	-9896
▁Padang	-9897
▁Pagkag	-9898
▁Pagkal	-9899
UM	-9900
!",	-9901
Min	-9902
eka	-9903
her	-9904
▁BA	-9905
▁SA	-9906
Siya	-9907
abes	-9908
eeng	-9909
gong	-9910
ikdo	-9911
paka	-9912
pher	-9913
ubot	-9914
▁BAL	-9915
▁Tut	-9916
▁dad	-9917
▁gay	-9918
aliin	-9919
galaw	-9920
ligid	-9921
ungot	-9922
usika	-9923
uwaya	-9924
▁Alul	-9925
▁Lumb	-9926
▁Oras	-9927
▁ikap	-9928
▁lins	-9929
▁paam	-9930
▁panr	-9931
▁tatl	-9932
abanan	-9933
alakan	-9934
andata	-9935
asaulo	-9936
isigan	-9937
itindi	-9938
musika	-9939
uruang	-9940
▁Lalak	-9941
▁Lorna	-9942
▁Maman	-9943
▁Union	-9944
▁WAKAS	-9945
▁Yabes	-9946
▁bulak	-9947
▁mabab	-9948
▁maint	-9949
▁manib	-9950
▁salak	-9951
▁sipit	-9952
▁talis	-9953
▁tanga	-9954
alangga	-9955
orsismo	-9956
upwesto	-9957
▁Athena	-9958
▁Bayaan	-9959
▁Buwaya	-9960
▁Pagkap	-9961
▁Pandak	-9962
▁Papaya	-9963
▁Patric	-9964
▁Pinagh	-9965
▁Pinagk	-9966
▁Pulubi	-9967
▁Punung	-9968
▁Rivera	-9969
▁Saging	-9970
▁Sansin	-9971
▁Sasaba	-9972
▁Sinagm	-9973
▁Sising	-9974
▁Susana	-9975
▁Tagyak	-9976
▁Talags	-9977
▁Tapaan	-9978
▁Teksto	-9979
▁Tinuka	-9980
▁Turuan	-9981
▁Tuyong	-9982
▁abutan	-9983
▁aragan	-9984
▁aralin	-9985
▁basong	-9986
▁bigkis	-9987
▁bisang	-9988
▁bitbit	-9989
▁boteng	-9990
▁bulkan	-9991
▁bungad	-9992
▁dakpin	-9993
▁devide	-9994
▁dungis	-9995
▁durung	-9996
▁gatong	-9997
▁ginang	-9998
▁ginuho	-9999
OS	-10000
])	-10001
Din	-10002
OSA	-10003
edd	-10004
mam	-10005
pag	-10006
▁TA	-10007
▁py	-10008
HHHH	-10009
adan	-10010
atim	-10011
bang	-10012
ikol	-10013
ingp	-10014
maya	-10015
uunt	-10016
▁Biy	-10017
▁Dur	-10018
Amang	-10019
pasan	-10020
ungas	-10021
▁Kuba	-10022
▁Ledd	-10023
▁ROSA	-10024
▁Sang	-10025
▁abal	-10026
▁yong	-10027
Bayaan	-10028
hambal	-10029
ikatan	-10030
ilapon	-10031
umikap	-10032
▁Malim	-10033
▁Pingp	-10034
▁Sapat	-10035
▁ayoko	-10036
▁binid	-10037
▁kasam	-10038
▁mahad	-10039
▁mahar	-10040
▁mayro	-10041
▁paisa	-10042
▁pinoy	-10043
▁sinab	-10044
▁tikis	-10045
alpasan	-10046
▁Birhen	-10047
▁Payong	-10048
▁Sayang	-10049
▁Umalis	-10050
▁adelpa	-10051
▁alayan	-10052
▁guguan	-10053
▁gumiri	-10054
▁hagdan	-10055
▁hagkan	-10056
▁hatiin	-10057
▁hidhid	-10058
▁hilaga	-10059
▁humpay	-10060
▁ibayad	-10061
▁iganti	-10062
▁ikabub	-10063
▁ikalul	-10064
▁imahen	-10065
▁impera	-10066
▁inasam	-10067
▁indust	-10068
▁inihab	-10069
▁inihan	-10070
▁inilul	-10071
▁inulit	-10072
▁ipukol	-10073
▁isahan	-10074
▁isukat	-10075
▁itigil	-10076
▁iwanan	-10077
▁kabang	-10078
▁kabukt	-10079
▁kadena	-10080
▁kahong	-10081
▁kaibig	-10082
▁kainan	-10083
▁kambal	-10084
▁kanais	-10085
▁kawali	-10086
▁kawawa	-10087
▁kaysas	-10088
▁kimpal	-10089
▁kukong	-10090
▁kumpol	-10091
▁kungdi	-10092
▁lampas	-10093
▁lampin	-10094
▁lasing	-10095
▁liling	-10096
▁lingid	-10097
▁lunsod	-10098
▁maatim	-10099
bp	-10100
uf	-10101
Nag	-10102
Nar	-10103
Nat	-10104
Tag	-10105
gal	-10106
iki	-10107
kos	-10108
wal	-10109
▁Ac	-10110
▁Aw	-10111
▁mu	-10112
Magk	-10113
asap	-10114
hing	-10115
ilot	-10116
waan	-10117
walo	-10118
▁Dan	-10119
▁Lag	-10120
▁Ruf	-10121
▁Taw	-10122
▁tiw	-10123
anyak	-10124
ibayo	-10125
inamn	-10126
uhagi	-10127
▁atbp	-10128
▁bags	-10129
▁gong	-10130
▁kara	-10131
▁muog	-10132
▁tuso	-10133
akaila	-10134
isahin	-10135
isinag	-10136
▁Danum	-10137
▁Maaga	-10138
▁Tasyo	-10139
▁kahul	-10140
▁kapur	-10141
▁mapip	-10142
▁solit	-10143
aralgal	-10144
ilabang	-10145
inamnam	-10146
unganen	-10147
▁Awitin	-10148
▁Rufino	-10149
▁kanina	-10150
▁maginh	-10151
▁mahiya	-10152
▁maikli	-10153
▁maipak	-10154
▁makaya	-10155
▁marmol	-10156
▁materi	-10157
▁molabe	-10158
▁musala	-10159
▁naaani	-10160
▁nadala	-10161
▁naisat	-10162
▁naligo	-10163
▁namana	-10164
▁namuno	-10165
▁napagk	-10166
▁napita	-10167
▁nauuwi	-10168
▁niling	-10169
▁niyaya	-10170
▁padyak	-10171
▁pagkuk	-10172
▁pakwan	-10173
▁palaki	-10174
▁pansit	-10175
▁pareho	-10176
▁paring	-10177
▁pasint	-10178
▁patnub	-10179
▁pawiin	-10180
▁perdig	-10181
▁pintor	-10182
▁porsel	-10183
▁prayle	-10184
▁puwang	-10185
▁pwesto	-10186
▁pyesta	-10187
▁rangya	-10188
▁sasama	-10189
▁serpiy	-10190
▁simple	-10191
▁sumapi	-10192
▁sumbat	-10193
▁sungit	-10194
▁suriin	-10195
▁susuko	-10196
▁teksto	-10197
▁tiktak	-10198
▁tukain	-10199
].	-10200
pe	-10201
Gan	-10202
Kaw	-10203
Pag	-10204
ads	-10205
agn	-10206
kuw	-10207
sag	-10208
▁aw	-10209
bago	-10210
ipun	-10211
ugba	-10212
▁Aph	-10213
▁Arm	-10214
▁rit	-10215
▁tuh	-10216
▁upo	-10217
adsad	-10218
amasa	-10219
asara	-10220
emplo	-10221
iming	-10222
ipili	-10223
iraan	-10224
lakas	-10225
▁Mlks	-10226
▁blak	-10227
▁lima	-10228
▁maig	-10229
Kawawa	-10230
adaloy	-10231
andoon	-10232
lungan	-10233
sangan	-10234
▁Armen	-10235
▁Ibuan	-10236
▁hukom	-10237
▁masil	-10238
alanang	-10239
alangoy	-10240
amahagi	-10241
islapan	-10242
torikal	-10243
▁Gumawa	-10244
▁pagmum	-10245
▁panata	-10246
▁templo	-10247
▁turing	-10248
▁tutuon	-10249
▁umagaw	-10250
▁umihip	-10251
▁umunat	-10252
▁umusad	-10253
▁umuuwi	-10254
▁upuang	-10255
▁wasaki	-10256
▁yumuko	-10257
▁yuyuko	-10258
Arumanen	-10259
Bibigkas	-10260
Dekalogo	-10261
Dumating	-10262
Hahagulg	-10263
Iaangkop	-10264
Ibibigay	-10265
Kaibigan	-10266
Mamayang	-10267
Paulitin	-10268
Pilipino	-10269
Pupwesto	-10270
Titingin	-10271
abalahan	-10272
agamitin	-10273
aginting	-10274
ahiwatig	-10275
alambing	-10276
alungkot	-10277
amatuwid	-10278
andingan	-10279
apanatag	-10280
arungang	-10281
asaalang	-10282
asagutin	-10283
asakupan	-10284
atingkad	-10285
ayakapin	-10286
chantara	-10287
engkanto	-10288
ernandez	-10289
etyembre	-10290
ibigyang	-10291
ibughang	-10292
iginhawa	-10293
ihikayat	-10294
ihinging	-10295
ikakaila	-10296
imetheus	-10297
ingitlog	-10298
ipinsala	-10299
;"	-10300
IN	-10301
gg	-10302
kl	-10303
Dar	-10304
Hah	-10305
ham	-10306
ibi	-10307
mab	-10308
ran	-10309
Ipak	-10310
alia	-10311
engu	-10312
gang	-10313
idor	-10314
lugo	-10315
rekl	-10316
▁Ate	-10317
▁Dat	-10318
▁Tur	-10319
aanod	-10320
akali	-10321
alaon	-10322
atamb	-10323
isama	-10324
laman	-10325
nggoy	-10326
uhaan	-10327
▁Bibl	-10328
▁Isda	-10329
▁Kong	-10330
▁maal	-10331
▁pili	-10332
▁teks	-10333
Dardar	-10334
akiman	-10335
angkok	-10336
anyong	-10337
enguet	-10338
▁Dilag	-10339
▁Papag	-10340
▁Tabak	-10341
▁Tamad	-10342
▁tanim	-10343
▁uring	-10344
Mabilis	-10345
aksilan	-10346
awanang	-10347
iwagaan	-10348
reklamo	-10349
ulangin	-10350
ulimlim	-10351
▁Intsik	-10352
▁Maghah	-10353
▁Unggoy	-10354
▁abutin	-10355
▁kabibi	-10356
▁lugami	-10357
▁luhaan	-10358
▁silain	-10359
▁tangos	-10360
Dardarat	-10361
isinalin	-10362
isisihan	-10363
iwasayan	-10364
presyong	-10365
ubuwisit	-10366
ukdulang	-10367
umukhang	-10368
ungaling	-10369
unghayan	-10370
unungong	-10371
▁Alagaan	-10372
▁Andrade	-10373
▁Apolaki	-10374
▁Armenia	-10375
▁Babaing	-10376
▁Bahagya	-10377
▁Bangkay	-10378
▁Basilio	-10379
▁Bawasan	-10380
▁Benguet	-10381
▁Benigno	-10382
▁Bibliya	-10383
▁Binalak	-10384
▁Birheng	-10385
▁Boholan	-10386
▁Bubuhat	-10387
▁Bulawan	-10388
▁Dadaluh	-10389
▁Dagling	-10390
▁Dogodog	-10391
▁Dumaong	-10392
▁Gambang	-10393
▁Gatpayo	-10394
▁Gumanda	-10395
▁Gustong	-10396
▁Hagunoy	-10397
▁Hinamon	-10398
▁Ibinaba	-10399
Pin	-10400
ale	-10401
ayn	-10402
day	-10403
ily	-10404
lib	-10405
pen	-10406
anog	-10407
imik	-10408
itir	-10409
uyam	-10410
▁Hih	-10411
▁kik	-10412
adang	-10413
aluin	-10414
amung	-10415
aynet	-10416
uuyam	-10417
▁Ipak	-10418
▁Paki	-10419
▁guho	-10420
▁isas	-10421
▁uhaw	-10422
aanang	-10423
abagay	-10424
abukas	-10425
atuday	-10426
ibulan	-10427
pangan	-10428
ukulay	-10429
unuang	-10430
▁Hayan	-10431
▁Pawis	-10432
▁Tahan	-10433
▁awang	-10434
▁gabay	-10435
▁iabot	-10436
▁naawa	-10437
▁napah	-10438
▁patag	-10439
▁pulis	-10440
ikalang	-10441
ilyuhan	-10442
unganga	-10443
▁Ipinag	-10444
▁Pulang	-10445
▁alabok	-10446
▁binayo	-10447
▁ikinat	-10448
▁inaliw	-10449
▁liblib	-10450
▁mapagb	-10451
▁napapa	-10452
▁pababa	-10453
▁pagkap	-10454
▁umimik	-10455
ilimutan	-10456
itirikan	-10457
▁Iniabot	-10458
▁Jerusal	-10459
▁Kalakip	-10460
▁Kalinga	-10461
▁Kaputol	-10462
▁Kumapit	-10463
▁Kumatok	-10464
▁Lalapit	-10465
▁Libiran	-10466
▁Loslosi	-10467
▁Lucutan	-10468
▁Luksang	-10469
▁Lumanog	-10470
▁Lumawig	-10471
▁Lumbera	-10472
▁Lumubog	-10473
▁Mabango	-10474
▁Madilim	-10475
▁Magbiro	-10476
▁Magobya	-10477
▁Magtago	-10478
▁Malimit	-10479
▁Mamatay	-10480
▁Manalig	-10481
▁Maputla	-10482
▁Marcelo	-10483
▁Mariano	-10484
▁Matibay	-10485
▁Minsang	-10486
▁Nagdaan	-10487
▁Nagtayo	-10488
▁Nakalbo	-10489
▁Nakatut	-10490
▁Namuhay	-10491
▁Napagka	-10492
▁Napakas	-10493
▁Nawalan	-10494
▁Nebeyew	-10495
▁Negrito	-10496
▁Palihim	-10497
▁Pambata	-10498
▁Pambili	-10499
Tum	-10500
iso	-10501
kaw	-10502
kum	-10503
omb	-10504
pab	-10505
uad	-10506
uhi	-10507
ahum	-10508
plas	-10509
toro	-10510
ulaw	-10511
uyaw	-10512
uyos	-10513
▁Guw	-10514
▁Win	-10515
▁aya	-10516
Dapat	-10517
abaan	-10518
agkak	-10519
oocan	-10520
rasko	-10521
sanib	-10522
uropa	-10523
▁Isip	-10524
▁Pari	-10525
▁anya	-10526
▁mura	-10527
▁nala	-10528
▁plat	-10529
▁taun	-10530
Nakang	-10531
alipad	-10532
kawasa	-10533
▁Lamok	-10534
▁Makop	-10535
▁Nakas	-10536
▁Sisiw	-10537
▁gahum	-10538
▁lumot	-10539
▁pagit	-10540
▁tangg	-10541
▁tiisi	-10542
agkaisa	-10543
andusay	-10544
isasyon	-10545
ubulong	-10546
▁Amuyaw	-10547
▁Bandan	-10548
▁Guwela	-10549
▁Makopa	-10550
▁inalis	-10551
▁naamis	-10552
▁nagpan	-10553
▁ninais	-10554
▁ninong	-10555
▁pantig	-10556
▁papunt	-10557
▁prasko	-10558
▁sundan	-10559
▁umilag	-10560
ikompisa	-10561
▁Beowulf	-10562
▁Leghorn	-10563
▁Nagmula	-10564
▁Penuela	-10565
▁Piedras	-10566
▁Pinigil	-10567
▁Pinutol	-10568
▁Polidik	-10569
▁Puhunan	-10570
▁Pumitas	-10571
▁Sentral	-10572
▁Sibuyas	-10573
▁Silayan	-10574
▁Sinauna	-10575
▁Sinikap	-10576
▁Sinulat	-10577
▁Sisilya	-10578
▁Sumadag	-10579
▁Tabagka	-10580
▁Tahimik	-10581
▁Taimtim	-10582
▁Tumahol	-10583
▁Tungkol	-10584
▁Tupinaw	-10585
▁Umaawit	-10586
▁Umiibig	-10587
▁Visayas	-10588
▁alinman	-10589
▁amihang	-10590
▁ampunin	-10591
▁aninong	-10592
▁balikan	-10593
▁bandang	-10594
▁barangg	-10595
▁batugan	-10596
▁batuhan	-10597
▁bayaran	-10598
▁bellang	-10599
▁1)	-10600
▁NG	-10601
▁ut	-10602
ario	-10603
egas	-10604
enus	-10605
etap	-10606
ings	-10607
mata	-10608
riya	-10609
usig	-10610
▁Lid	-10611
▁Mil	-10612
▁Tir	-10613
▁sit	-10614
Batay	-10615
apito	-10616
aruon	-10617
bihan	-10618
igkis	-10619
isaya	-10620
▁Bete	-10621
▁Laya	-10622
▁naih	-10623
Bisaya	-10624
alapat	-10625
apatak	-10626
diwang	-10627
uyurak	-10628
yaring	-10629
▁babai	-10630
▁kanun	-10631
▁kinur	-10632
▁malun	-10633
▁metap	-10634
▁nakam	-10635
▁narar	-10636
▁sobra	-10637
▁talos	-10638
ilingas	-10639
pangkat	-10640
▁Dayang	-10641
▁Katalo	-10642
▁kakain	-10643
▁kanunu	-10644
▁kasali	-10645
▁katawa	-10646
▁kukuha	-10647
▁malama	-10648
▁marang	-10649
▁sabing	-10650
▁Ikapito	-10651
▁Lidagat	-10652
▁Pinasok	-10653
▁bendita	-10654
▁biniday	-10655
▁binunot	-10656
▁binuong	-10657
▁binuwag	-10658
▁blaking	-10659
▁bukasin	-10660
▁bukirin	-10661
▁bumbong	-10662
▁bumuhos	-10663
▁bumukal	-10664
▁busabos	-10665
▁dambana	-10666
▁dangkal	-10667
▁dantaon	-10668
▁daratal	-10669
▁dumaloy	-10670
▁dustang	-10671
▁eklipse	-10672
▁gagamba	-10673
▁gamutin	-10674
▁ginatip	-10675
▁gumalaw	-10676
▁gumanda	-10677
▁gumayak	-10678
▁habagat	-10679
▁hagdang	-10680
▁halikan	-10681
▁hanggat	-10682
▁hilahil	-10683
▁hinabol	-10684
▁hinagod	-10685
▁hinahon	-10686
▁hinamak	-10687
▁hinamon	-10688
▁hinarap	-10689
▁hinding	-10690
▁hinugot	-10691
▁humasik	-10692
▁humihip	-10693
▁ibubuka	-10694
▁idinaos	-10695
▁ihampas	-10696
▁ihandog	-10697
▁ilusyon	-10698
▁inakala	-10699
Gin	-10700
usi	-10701
▁Be	-10702
▁Br	-10703
Koro	-10704
Wika	-10705
aala	-10706
aryo	-10707
egor	-10708
koro	-10709
laya	-10710
utik	-10711
▁Bab	-10712
▁Dud	-10713
▁Ita	-10714
▁Lin	-10715
▁Sim	-10716
▁Tay	-10717
▁amo	-10718
▁kus	-10719
Mapan	-10720
abala	-10721
angki	-10722
atuon	-10723
lagot	-10724
umaga	-10725
▁Huli	-10726
▁Kala	-10727
▁kahi	-10728
▁pito	-10729
▁saad	-10730
▁siit	-10731
▁titi	-10732
▁uuwi	-10733
adaong	-10734
apitas	-10735
isanto	-10736
usyoso	-10737
▁anakp	-10738
▁apong	-10739
▁inapi	-10740
▁kahig	-10741
▁kulot	-10742
▁udyok	-10743
Mayroon	-10744
ampisaw	-10745
angguni	-10746
atanyag	-10747
bayanan	-10748
panahon	-10749
ugunita	-10750
▁Alaala	-10751
▁Iliyan	-10752
▁Niyang	-10753
▁aplaya	-10754
▁hinala	-10755
▁hinang	-10756
▁ikahon	-10757
▁sintas	-10758
▁ulunan	-10759
alikasan	-10760
▁Kapatid	-10761
▁Makinig	-10762
▁habilin	-10763
▁inaping	-10764
▁ingatan	-10765
▁inihain	-10766
▁insekto	-10767
▁inuring	-10768
▁ipaalam	-10769
▁ipakita	-10770
▁isinuot	-10771
▁iskolar	-10772
▁itampok	-10773
▁itinali	-10774
▁kabaong	-10775
▁kabataa	-10776
▁kagatin	-10777
▁kagitna	-10778
▁kakaiba	-10779
▁kalalim	-10780
▁kalamig	-10781
▁kalasag	-10782
▁kalinga	-10783
▁kalingk	-10784
▁kaluban	-10785
▁kalulwa	-10786
▁kanyong	-10787
▁kapakan	-10788
▁kaparus	-10789
▁kapatak	-10790
▁kaskong	-10791
▁kilabot	-10792
▁kinahih	-10793
▁kinalag	-10794
▁kinapal	-10795
▁kudyapi	-10796
▁kumitil	-10797
▁kunwari	-10798
▁kuwalta	-10799
Cr	-10800
des	-10801
esp	-10802
ota	-10803
pos	-10804
sim	-10805
tub	-10806
▁Hm	-10807
Sila	-10808
ahaw	-10809
enda	-10810
ilao	-10811
lima	-10812
pula	-10813
▁ANG	-10814
▁Him	-10815
▁Roy	-10816
▁Tig	-10817
▁lup	-10818
▁tey	-10819
Ibong	-10820
iwasa	-10821
▁Kank	-10822
▁Kanl	-10823
▁Katu	-10824
▁dara	-10825
▁lira	-10826
▁pila	-10827
▁sind	-10828
▁sinl	-10829
▁tago	-10830
▁teyp	-10831
ilinan	-10832
ilipit	-10833
iraman	-10834
ubukid	-10835
ulanit	-10836
ungkab	-10837
ungkag	-10838
▁Buhok	-10839
▁Kaiba	-10840
▁bilao	-10841
▁hinuk	-10842
▁linaw	-10843
▁pakal	-10844
dudulot	-10845
iisipin	-10846
▁Natawa	-10847
▁hinabi	-10848
▁kagaya	-10849
▁magkam	-10850
▁maglal	-10851
▁sasamb	-10852
▁sumuyo	-10853
▁tighaw	-10854
Tigpasin	-10855
alapitan	-10856
▁Luluhod	-10857
▁Narinig	-10858
▁anitong	-10859
▁bakawan	-10860
▁balyena	-10861
▁lamunin	-10862
▁lathala	-10863
▁lipulin	-10864
▁lulusog	-10865
▁lumagay	-10866
▁luminis	-10867
▁lumiyag	-10868
▁lumuhod	-10869
▁lungsod	-10870
▁lunurin	-10871
▁lusubin	-10872
▁maalala	-10873
▁maalong	-10874
▁mabasag	-10875
▁mabibig	-10876
▁mabilog	-10877
▁mabiyak	-10878
▁mabusog	-10879
▁mabutas	-10880
▁magalit	-10881
▁magkita	-10882
▁magmana	-10883
▁magtayo	-10884
▁magtika	-10885
▁mahilig	-10886
▁makapal	-10887
▁makatao	-10888
▁malaong	-10889
▁malikot	-10890
▁maliksi	-10891
▁malipol	-10892
▁maliwag	-10893
▁mamasid	-10894
▁manggas	-10895
▁mangkok	-10896
▁mapapah	-10897
▁mapasok	-10898
▁mapigil	-10899
Da	-10900
Ayan	-10901
hain	-10902
okus	-10903
salo	-10904
▁Cat	-10905
agyan	-10906
intab	-10907
lapad	-10908
▁Esep	-10909
▁Ngum	-10910
▁What	-10911
▁tulo	-10912
▁tult	-10913
Talaga	-10914
angkad	-10915
angkap	-10916
angkot	-10917
ilawan	-10918
inuman	-10919
madiin	-10920
ubuwal	-10921
umulan	-10922
upasan	-10923
▁Amado	-10924
▁Duwag	-10925
▁Lulan	-10926
▁Mapag	-10927
▁Mayro	-10928
▁Sabik	-10929
▁bahaw	-10930
▁kaaya	-10931
▁lalim	-10932
▁sapul	-10933
▁sasag	-10934
▁tulin	-10935
Sinuman	-10936
abagsak	-10937
alayang	-10938
awagang	-10939
▁Lamang	-10940
▁Pinili	-10941
▁Talaga	-10942
▁ilawan	-10943
▁mabasa	-10944
▁pusang	-10945
▁tamnan	-10946
▁umulan	-10947
ahantong	-10948
▁Iginala	-10949
▁Malaueg	-10950
▁Pagdaan	-10951
▁daluyan	-10952
▁humapon	-10953
▁ipinang	-10954
▁maghari	-10955
▁marahan	-10956
▁marilag	-10957
▁masahol	-10958
▁masunog	-10959
▁masupil	-10960
▁matanaw	-10961
▁matawag	-10962
▁matayog	-10963
▁matupad	-10964
▁mauutas	-10965
▁maykaya	-10966
▁mithiin	-10967
▁nabiyak	-10968
▁nabuong	-10969
▁nagdaos	-10970
▁nagkait	-10971
▁nagkaka	-10972
▁naglaon	-10973
▁nagsawa	-10974
▁nagsisi	-10975
▁nagulat	-10976
▁nahagip	-10977
▁naiinis	-10978
▁naiwang	-10979
▁nakabab	-10980
▁nalagot	-10981
▁namamat	-10982
▁napagig	-10983
▁napatid	-10984
▁napulot	-10985
▁nararah	-10986
▁nasapit	-10987
▁natabas	-10988
▁natanaw	-10989
▁natipon	-10990
▁nayanig	-10991
▁nilanta	-10992
▁nilason	-10993
▁niyaong	-10994
▁okasyon	-10995
▁paakyat	-10996
▁pagkasi	-10997
▁pagpuri	-10998
▁pagtaas	-10999
Ha	-11000
▁ri	-11001
igta	-11002
iwal	-11003
kaba	-11004
pulo	-11005
utum	-11006
▁hoy	-11007
▁mes	-11008
▁pen	-11009
▁tud	-11010
aklaw	-11011
amuha	-11012
dasal	-11013
ekate	-11014
silyo	-11015
tikal	-11016
▁Ibal	-11017
▁Lobo	-11018
▁Look	-11019
▁Luna	-11020
▁Ulod	-11021
▁baar	-11022
▁buod	-11023
▁ekon	-11024
▁esep	-11025
▁paki	-11026
▁salu	-11027
▁tudl	-11028
asanib	-11029
asuhan	-11030
isaing	-11031
pulong	-11032
saging	-11033
ugasan	-11034
ugunin	-11035
uliran	-11036
▁Dinig	-11037
▁Sinig	-11038
▁iluwa	-11039
▁laong	-11040
▁latay	-11041
▁minam	-11042
▁paroo	-11043
▁punlo	-11044
▁saliw	-11045
▁sapot	-11046
▁yabag	-11047
Pasigaw	-11048
tamisan	-11049
▁Hekate	-11050
▁Kataka	-11051
▁Sinong	-11052
▁Sinuyo	-11053
▁ekonom	-11054
▁hinuli	-11055
▁isinas	-11056
▁maitan	-11057
▁tubuan	-11058
▁Bagamat	-11059
▁Digmaan	-11060
▁Lilitaw	-11061
▁Pagitan	-11062
▁Sinunod	-11063
▁lumulan	-11064
▁mabatid	-11065
▁makakat	-11066
▁makinig	-11067
▁mangagb	-11068
▁mapatid	-11069
▁masanay	-11070
▁negosyo	-11071
▁paineta	-11072
▁paksang	-11073
▁palayan	-11074
▁palibot	-11075
▁pamahra	-11076
▁pamukaw	-11077
▁pandama	-11078
▁paraiso	-11079
▁pasukin	-11080
▁patagin	-11081
▁patalun	-11082
▁patanaw	-11083
▁pighati	-11084
▁pigilin	-11085
▁pilyong	-11086
▁pinahih	-11087
▁pinapag	-11088
▁pinasan	-11089
▁pinauwi	-11090
▁pinilit	-11091
▁pintong	-11092
▁pinutol	-11093
▁pitasin	-11094
▁pithaya	-11095
▁piyesta	-11096
▁popular	-11097
▁potrero	-11098
▁sabagay	-11099
Na	-11100
ymp	-11101
▁Ep	-11102
emes	-11103
▁Fed	-11104
▁Yum	-11105
▁buo	-11106
Aalis	-11107
akada	-11108
bihis	-11109
gusto	-11110
oloob	-11111
tulog	-11112
tumba	-11113
▁Akin	-11114
▁Idin	-11115
abansa	-11116
alitaw	-11117
amitas	-11118
anapan	-11119
chosis	-11120
emesio	-11121
iglaan	-11122
napung	-11123
ulutas	-11124
▁Gamit	-11125
▁Oriol	-11126
▁Tapos	-11127
▁bayaw	-11128
▁bukod	-11129
▁halay	-11130
▁kanta	-11131
▁lagim	-11132
▁niyan	-11133
▁tatan	-11134
▁tindi	-11135
antihan	-11136
subalit	-11137
tulogan	-11138
▁Hangal	-11139
▁Hudhud	-11140
▁Tangan	-11141
▁Unahan	-11142
▁inuman	-11143
▁nagkab	-11144
▁nagkik	-11145
▁nagkuk	-11146
▁natira	-11147
▁tinaga	-11148
anggihan	-11149
ibibigay	-11150
▁Christo	-11151
▁Eugenio	-11152
▁Nemesio	-11153
▁Pinauwi	-11154
▁ginagal	-11155
▁ginanap	-11156
▁kumagat	-11157
▁masasak	-11158
▁matalin	-11159
▁naaayon	-11160
▁nakalat	-11161
▁papatay	-11162
▁pumukol	-11163
▁puputok	-11164
▁sakbibi	-11165
▁saklolo	-11166
▁salakot	-11167
▁samakat	-11168
▁santong	-11169
▁sasayad	-11170
▁sibilis	-11171
▁sikatan	-11172
▁silyang	-11173
▁simbolo	-11174
▁sinadya	-11175
▁sinamba	-11176
▁sisigaw	-11177
▁sisilip	-11178
▁sisisid	-11179
▁sugilan	-11180
▁sukaban	-11181
▁sukdang	-11182
▁sumaksi	-11183
▁sumbong	-11184
▁sumpain	-11185
▁sumubok	-11186
▁sutlang	-11187
▁tabsing	-11188
▁timbang	-11189
▁tinudla	-11190
▁tinungo	-11191
▁tiwasay	-11192
▁trabaho	-11193
▁tudlain	-11194
▁tukuyin	-11195
▁tulutan	-11196
▁tumahol	-11197
▁tumakas	-11198
▁tumanaw	-11199
eni	-11200
Sino	-11201
atng	-11202
▁Pos	-11203
▁Sit	-11204
▁bao	-11205
irhan	-11206
tanod	-11207
▁buku	-11208
▁layo	-11209
▁ngay	-11210
▁suyo	-11211
agalaw	-11212
alalim	-11213
atanod	-11214
sarili	-11215
ulayaw	-11216
▁Iling	-11217
▁Ipina	-11218
▁Lanao	-11219
▁Pinto	-11220
▁Tangi	-11221
▁berde	-11222
▁dilat	-11223
▁kawit	-11224
▁nauna	-11225
▁nilak	-11226
▁popul	-11227
▁sapad	-11228
▁tanan	-11229
abantog	-11230
ahangga	-11231
ahangin	-11232
▁Gulong	-11233
▁Humayo	-11234
▁Ilocos	-11235
▁Inisip	-11236
▁Pinags	-11237
▁Pinang	-11238
▁banaag	-11239
▁dagdag	-11240
▁duling	-11241
▁hampas	-11242
▁humaba	-11243
▁humabi	-11244
▁kamtan	-11245
▁kuting	-11246
▁layong	-11247
▁mamula	-11248
▁pagkar	-11249
▁siwang	-11250
▁tiwala	-11251
Mangyari	-11252
agalugan	-11253
amantala	-11254
▁Humukay	-11255
▁Kumulat	-11256
▁harding	-11257
▁napakak	-11258
▁naratay	-11259
▁pagdaka	-11260
▁sagamat	-11261
▁sinlaki	-11262
▁tumindi	-11263
▁tumupad	-11264
▁tumutol	-11265
▁turista	-11266
▁tutungo	-11267
▁tutunog	-11268
▁tuturan	-11269
▁ugaling	-11270
▁umaayon	-11271
▁umiling	-11272
▁umugong	-11273
▁umuulan	-11274
▁yumakap	-11275
Kailangan	-11276
Magandang	-11277
Malumanay	-11278
Mapanukso	-11279
Nararapat	-11280
Patraydor	-11281
Susubukin	-11282
Titingala	-11283
Titingnan	-11284
abaluktot	-11285
abilanggo	-11286
agalingan	-11287
agdudulot	-11288
agtanggol	-11289
ahahahaha	-11290
ahintulot	-11291
alahatang	-11292
alakbayin	-11293
alakihang	-11294
alakpakan	-11295
alinhinan	-11296
amungmong	-11297
angatawan	-11298
arangalan	-11299
Pal	-11300
▁re	-11301
ence	-11302
tago	-11303
▁Eks	-11304
▁Lol	-11305
▁daa	-11306
▁luk	-11307
aksak	-11308
arapo	-11309
okano	-11310
▁Dami	-11311
▁Diwa	-11312
▁Hati	-11313
▁Ubos	-11314
▁bisa	-11315
▁daid	-11316
▁ihin	-11317
abawas	-11318
agutom	-11319
alabin	-11320
atiuna	-11321
utihin	-11322
▁Aniya	-11323
▁Ginap	-11324
▁Makap	-11325
▁Sumat	-11326
▁biyak	-11327
▁ganti	-11328
▁likaw	-11329
▁mapal	-11330
▁pipil	-11331
ihinuha	-11332
ungkahi	-11333
▁Isipin	-11334
▁Pinagb	-11335
▁agahan	-11336
▁balisa	-11337
▁bukang	-11338
▁dinami	-11339
▁higtan	-11340
▁lumago	-11341
▁lumiit	-11342
▁magsis	-11343
▁maiksi	-11344
▁malago	-11345
▁nasira	-11346
▁parami	-11347
▁parati	-11348
▁tatawa	-11349
alangkas	-11350
apatiran	-11351
▁Damiana	-11352
▁Ilokano	-11353
▁Kaybuti	-11354
▁Lumaban	-11355
▁Natanaw	-11356
▁Sumapit	-11357
▁Sumatra	-11358
▁binalak	-11359
▁ipinagp	-11360
▁maramot	-11361
▁naghari	-11362
▁nakapan	-11363
▁pumanik	-11364
▁sinuway	-11365
▁umaabot	-11366
atakutang	-11367
atangtang	-11368
awagayway	-11369
awanggawa	-11370
bersiyong	-11371
bibilihan	-11372
ibangbang	-11373
ihintayin	-11374
ilanganin	-11375
inabangan	-11376
inamentaw	-11377
intulutan	-11378
ipagkapwa	-11379
ipagsayaw	-11380
itinginan	-11381
lalambing	-11382
mamamayan	-11383
otektahan	-11384
tangkilik	-11385
ubundukin	-11386
uuntugang	-11387
▁Alemanya	-11388
▁Ambrocio	-11389
▁BULAKLAK	-11390
▁Barangay	-11391
▁Bibigyan	-11392
▁Caravana	-11393
▁Cotabato	-11394
▁Dakilang	-11395
▁Darangen	-11396
▁Darating	-11397
▁Datapuwa	-11398
▁Datapwat	-11399
atn	-11400
nti	-11401
udd	-11402
Unti	-11403
▁aal	-11404
agiik	-11405
asiwa	-11406
layag	-11407
uddha	-11408
▁Caca	-11409
▁dote	-11410
▁luya	-11411
▁pros	-11412
aalpas	-11413
abulin	-11414
ahango	-11415
aligan	-11416
arosip	-11417
asakin	-11418
asunod	-11419
atayin	-11420
ayunan	-11421
ilanga	-11422
parusa	-11423
ulalas	-11424
umpong	-11425
▁Binub	-11426
▁Kanin	-11427
▁Kasoy	-11428
▁Lipay	-11429
▁Panan	-11430
▁Tatay	-11431
▁Tinut	-11432
▁ginaw	-11433
▁hinim	-11434
▁iutos	-11435
▁layag	-11436
▁mapah	-11437
▁pitas	-11438
▁samos	-11439
▁titik	-11440
▁umano	-11441
▁Bayani	-11442
▁Buddha	-11443
▁Gabing	-11444
▁Ilipad	-11445
▁Kabung	-11446
▁Kaning	-11447
▁Naligo	-11448
▁Umawit	-11449
▁ibigan	-11450
▁ilipad	-11451
▁magpal	-11452
▁magpat	-11453
▁mapuno	-11454
▁musmos	-11455
▁pagtul	-11456
▁pagyay	-11457
▁panhik	-11458
amaganda	-11459
inggitan	-11460
tatanong	-11461
▁Dahilan	-11462
▁Huminga	-11463
▁Inakala	-11464
▁Lumuhod	-11465
▁Nalunod	-11466
▁bulalas	-11467
▁isagawa	-11468
▁kinunan	-11469
▁manalig	-11470
▁mapagod	-11471
▁palakas	-11472
▁samosam	-11473
▁tumungo	-11474
▁wasakin	-11475
▁Dayiring	-11476
▁Dinampot	-11477
▁Dinatnan	-11478
▁Federico	-11479
▁Gumapang	-11480
▁Gustuhin	-11481
▁Haplusin	-11482
▁Ibibigay	-11483
▁Ilalagay	-11484
▁Inihagis	-11485
▁Inilabas	-11486
▁Inilapag	-11487
▁Inilipad	-11488
▁Intempsy	-11489
▁Ipinasya	-11490
▁Isasauli	-11491
▁Ispiritu	-11492
▁Itinapon	-11493
▁Itinusok	-11494
▁Kabataan	-11495
▁Kabayong	-11496
▁Kabunian	-11497
▁Kalahati	-11498
▁Kanilang	-11499
alu	-11500
▁iu	-11501
arit	-11502
enso	-11503
hero	-11504
pero	-11505
▁Sta	-11506
Buong	-11507
aakay	-11508
ainom	-11509
balat	-11510
busan	-11511
imbal	-11512
sagan	-11513
sayaw	-11514
takot	-11515
umama	-11516
wiran	-11517
▁Peng	-11518
▁Pusa	-11519
▁kuro	-11520
▁papa	-11521
Gagawa	-11522
angina	-11523
astern	-11524
atakot	-11525
awayin	-11526
bagong	-11527
▁Mahuh	-11528
▁Malay	-11529
▁Pangg	-11530
▁gansa	-11531
▁ipagp	-11532
▁ipags	-11533
▁mapay	-11534
▁sunod	-11535
▁turan	-11536
ahampas	-11537
atangay	-11538
awisang	-11539
umanhin	-11540
▁Aakyat	-11541
▁Natalo	-11542
▁kalaro	-11543
▁mabawi	-11544
▁mapags	-11545
▁naipit	-11546
▁uliran	-11547
iligiran	-11548
kaniyang	-11549
▁Nangako	-11550
▁Pengeng	-11551
▁Sanggol	-11552
▁binuhat	-11553
▁kamates	-11554
▁magsama	-11555
▁maiitim	-11556
▁matulad	-11557
▁nagpapa	-11558
▁naiisip	-11559
▁nanatak	-11560
▁naturan	-11561
▁ngalang	-11562
▁palayaw	-11563
▁papalit	-11564
▁pihikan	-11565
▁pinakad	-11566
▁tibabal	-11567
▁Kankanay	-11568
▁Kastilya	-11569
▁Kasuotan	-11570
▁Katindig	-11571
▁Kaytamis	-11572
▁Kinaumag	-11573
▁Kinausap	-11574
▁Lambunao	-11575
▁Leonardo	-11576
▁Lihangin	-11577
▁Lilingon	-11578
▁Maalaala	-11579
▁Mababaya	-11580
▁Magbigay	-11581
▁Magiging	-11582
▁Magkaisa	-11583
▁Mahabang	-11584
▁Mahinang	-11585
▁Mahiwaga	-11586
▁Makatang	-11587
▁Malayang	-11588
▁Maliliit	-11589
▁Mapaapoy	-11590
▁Maragtas	-11591
▁Marahang	-11592
▁Masaklap	-11593
▁Masamang	-11594
▁Matapang	-11595
▁Miskoyaw	-11596
▁Momoocan	-11597
▁Naaalala	-11598
▁Nabalita	-11599
Bac	-11600
len	-11601
▁De	-11602
Sumpa	-11603
alahi	-11604
apiit	-11605
aturo	-11606
▁baso	-11607
▁ipis	-11608
▁pugo	-11609
▁sant	-11610
abalat	-11611
amukha	-11612
apanaw	-11613
istang	-11614
manong	-11615
yayang	-11616
▁Hinto	-11617
▁Mabub	-11618
▁Sunod	-11619
▁Vigan	-11620
▁dasal	-11621
▁ganid	-11622
▁kisap	-11623
▁lundo	-11624
▁pahim	-11625
▁paimb	-11626
▁walis	-11627
▁yapak	-11628
agsakan	-11629
alamuti	-11630
▁Kalaro	-11631
▁bawiin	-11632
▁maalis	-11633
▁maghih	-11634
▁nagapi	-11635
▁paalis	-11636
▁pagkai	-11637
▁patayo	-11638
▁tinamo	-11639
amahinga	-11640
amantika	-11641
lalangan	-11642
▁Cawayan	-11643
▁Masipag	-11644
▁gumiliw	-11645
▁hikahos	-11646
▁inamuki	-11647
▁maaakit	-11648
▁makasal	-11649
▁masundo	-11650
▁nagmana	-11651
▁napapan	-11652
▁orasyon	-11653
▁pisikal	-11654
▁sagrado	-11655
▁sinaing	-11656
▁tinupad	-11657
▁ulirang	-11658
alakhakan	-11659
▁Liwayway	-11660
▁Mabuting	-11661
▁Nagbihis	-11662
▁Naghanap	-11663
▁Nagkalat	-11664
▁Naglaban	-11665
▁Naglikha	-11666
▁Nagluksa	-11667
▁Nagsilid	-11668
▁Nagtanim	-11669
▁Nakatuon	-11670
▁Nakikita	-11671
▁Namasyal	-11672
▁Nanaisin	-11673
▁Nanatili	-11674
▁Napagpas	-11675
▁Napaiyak	-11676
▁Naroroon	-11677
▁Paglipas	-11678
▁Panapana	-11679
▁Pilipina	-11680
▁Pinakain	-11681
▁Pinatubo	-11682
▁Puhunang	-11683
▁Pumanaog	-11684
▁Pupwesto	-11685
▁Rinayong	-11686
▁Rogongan	-11687
▁Sariling	-11688
▁Simbahan	-11689
▁Singsing	-11690
▁Taglayin	-11691
▁Tinampal	-11692
▁Tinubuan	-11693
▁Tumanggi	-11694
▁abalahin	-11695
▁alinmang	-11696
▁babagsak	-11697
▁babatiin	-11698
▁babayaan	-11699
▁1:	-11700
Bago	-11701
inid	-11702
aklan	-11703
alasa	-11704
igiba	-11705
ikman	-11706
insay	-11707
▁Itim	-11708
agalag	-11709
anakan	-11710
aninaw	-11711
igatig	-11712
igilan	-11713
ilisan	-11714
kingan	-11715
pansin	-11716
tumpok	-11717
▁Bakya	-11718
▁Dinad	-11719
▁Ginto	-11720
▁Kinas	-11721
▁Lalaw	-11722
▁Pinag	-11723
▁Pipit	-11724
▁Sasak	-11725
▁aping	-11726
▁bitag	-11727
▁bitak	-11728
▁dumag	-11729
▁lipat	-11730
▁pahat	-11731
▁pilay	-11732
▁sanay	-11733
▁tanak	-11734
▁tanel	-11735
Gagawin	-11736
▁Ipinas	-11737
▁Kailan	-11738
▁Limang	-11739
▁Parati	-11740
▁inaaba	-11741
▁iniuwi	-11742
▁matuwa	-11743
▁minuto	-11744
▁naipas	-11745
▁singko	-11746
▁umabot	-11747
akanlong	-11748
▁Kinagat	-11749
▁Malugod	-11750
▁Marlowe	-11751
▁barilin	-11752
▁dinalaw	-11753
▁iniiwan	-11754
▁kagiliw	-11755
▁kapisan	-11756
▁kasawia	-11757
▁kastila	-11758
▁katamis	-11759
▁mabulas	-11760
▁naaakit	-11761
▁nalagas	-11762
▁nilisan	-11763
▁saligan	-11764
▁tagisan	-11765
▁Kinalong	-11766
▁balasang	-11767
▁balisang	-11768
▁batayang	-11769
▁batisang	-11770
▁berkahan	-11771
▁bigkasin	-11772
▁bilanggo	-11773
▁bubungan	-11774
▁bulagsak	-11775
▁bumababa	-11776
▁bumalong	-11777
▁bumangon	-11778
▁bumigtas	-11779
▁butihing	-11780
▁buwayang	-11781
▁dagdagan	-11782
▁dalawamp	-11783
▁daratnan	-11784
▁desisyon	-11785
▁digmaang	-11786
▁dinaanan	-11787
▁dinadala	-11788
▁edukasyo	-11789
▁eksenang	-11790
▁espiritu	-11791
▁gagaling	-11792
▁gamiting	-11793
▁hahagkan	-11794
▁haharang	-11795
▁hahatiin	-11796
▁halagang	-11797
▁haliging	-11798
▁hinangad	-11799
ILA	-11800
opr	-11801
tin	-11802
▁VI	-11803
Nang	-11804
igsi	-11805
▁Eba	-11806
▁kot	-11807
Iyang	-11808
agand	-11809
ahibo	-11810
amora	-11811
habag	-11812
iliti	-11813
▁Dili	-11814
▁ilap	-11815
▁kibo	-11816
ilinis	-11817
yayaan	-11818
▁Aming	-11819
▁Gitna	-11820
▁Itlog	-11821
▁Lakad	-11822
▁Nanan	-11823
▁Pugad	-11824
▁madre	-11825
▁nagpa	-11826
▁rikit	-11827
▁riyan	-11828
▁tumba	-11829
ahasang	-11830
▁Momong	-11831
▁Sigaan	-11832
▁barong	-11833
▁bayaan	-11834
▁binawi	-11835
▁hibang	-11836
▁kasuyo	-11837
▁nagnan	-11838
▁pagasa	-11839
▁sinisi	-11840
mamalaki	-11841
▁Dinalaw	-11842
▁Dumagat	-11843
▁Itataas	-11844
▁Makapag	-11845
▁Marahas	-11846
▁Natapos	-11847
▁Ulahing	-11848
▁Umakyat	-11849
▁hibashi	-11850
▁humubog	-11851
▁ipagawa	-11852
▁kahabag	-11853
▁magdusa	-11854
▁pulutin	-11855
apanganak	-11856
▁Pangalan	-11857
▁dumalaga	-11858
▁hinampas	-11859
▁hinipang	-11860
▁hintayin	-11861
▁hiwagang	-11862
▁ibinenta	-11863
▁iginayak	-11864
▁ihaharap	-11865
▁iingatan	-11866
▁ikamatay	-11867
▁ilalagay	-11868
▁ilalapat	-11869
▁inaakala	-11870
▁inaaring	-11871
▁inihanay	-11872
▁inilabas	-11873
▁inilagak	-11874
▁inilawan	-11875
▁ipakasal	-11876
▁ipamalas	-11877
▁ipapasok	-11878
▁isaalang	-11879
▁isinagot	-11880
▁isinilid	-11881
▁isusunod	-11882
▁itanghal	-11883
▁itatangi	-11884
▁itatanim	-11885
▁itatapon	-11886
▁itinangi	-11887
▁itinuloy	-11888
▁kagaling	-11889
▁kahambal	-11890
▁kahinaan	-11891
▁kahuluga	-11892
▁kailalim	-11893
▁kakamtan	-11894
▁kalabang	-11895
▁kalaguyo	-11896
▁kalahing	-11897
▁kalaking	-11898
▁kalansay	-11899
▁kalawaka	-11900
▁kaliitan	-11901
▁kaliskis	-11902
▁kaliwang	-11903
▁kamagong	-11904
▁kamalian	-11905
▁kanluran	-11906
▁kapaitan	-11907
▁kapalara	-11908
▁karakang	-11909
▁karangya	-11910
▁katalong	-11911
▁katambal	-11912
▁katotong	-11913
▁kaulayaw	-11914
▁kaunlara	-11915
▁kausapin	-11916
▁kawalang	-11917
▁kawangis	-11918
▁kayamana	-11919
▁kaytamis	-11920
▁kinikita	-11921
▁kinukuha	-11922
▁kolonyal	-11923
▁konsepto	-11924
▁kublihan	-11925
▁kultural	-11926
▁kumbento	-11927
▁kumikibo	-11928
▁lagaslas	-11929
▁lagingan	-11930
▁lagusang	-11931
▁lalagpak	-11932
▁lampadan	-11933
▁linangin	-11934
▁linggong	-11935
▁lumagpak	-11936
▁lumigaya	-11937
▁lumindol	-11938
▁lumipana	-11939
▁lumusong	-11940
▁maalaala	-11941
▁mababago	-11942
▁mabubuti	-11943
▁madadala	-11944
▁madarama	-11945
▁madugong	-11946
▁madungis	-11947
▁magawang	-11948
▁magdasal	-11949
▁magdilim	-11950
▁maghirap	-11951
▁magkaisa	-11952
▁magkakat	-11953
▁maglakad	-11954
▁maglinis	-11955
▁magpakat	-11956
▁magpapas	-11957
▁magpapat	-11958
▁magpunta	-11959
▁magsaing	-11960
▁magtampo	-11961
▁magtanim	-11962
▁magtipid	-11963
▁magugupo	-11964
▁magugust	-11965
▁mahinhin	-11966
▁mahuhuli	-11967
▁makababa	-11968
▁makagawa	-11969
▁makaiwas	-11970
▁makakaya	-11971
▁makapagp	-11972
▁makasama	-11973
▁makasira	-11974
▁makatula	-11975
▁makausap	-11976
▁makilala	-11977
▁makiring	-11978
▁maluwang	-11979
▁mamalagi	-11980
▁mananaig	-11981
▁mangahas	-11982
▁mangarap	-11983
▁mangusap	-11984
▁mapahiya	-11985
▁mapalaki	-11986
▁mariwasa	-11987
▁masasabi	-11988
▁masasaya	-11989
▁matabang	-11990
▁matataas	-11991
▁material	-11992
▁matining	-11993
▁matipuno	-11994
▁matitiis	-11995
▁matutong	-11996
▁maubusan	-11997
▁metapora	-11998
▁naaalala	-11999
▁nadatnan	-12000
▁naganyak	-12001
▁nagbihis	-12002
▁nagbilin	-12003
▁nagdaang	-12004
▁nagdasal	-12005
▁nagkalat	-12006
▁naglagay	-12007
▁nagmahal	-12008
▁nagnakaw	-12009
▁nagsaing	-12010
▁nagsayaw	-12011
▁nagsikap	-12012
▁nagsisil	-12013
▁nagsisip	-12014
▁nagsisis	-12015
▁nahihiya	-12016
▁naibalik	-12017
▁nakaalis	-12018
▁nakahuli	-12019
▁nakaiwas	-12020
▁nakapags	-12021
▁nakapiit	-12022
▁nakaraan	-12023
▁nakasama	-12024
▁nakataas	-12025
▁nakatago	-12026
▁nakatiis	-12027
▁nakawala	-12028
▁nakayuko	-12029
▁nakipags	-12030
▁nakiusap	-12031
▁nakuhang	-12032
▁nalakbay	-12033
▁nalamang	-12034
▁namamana	-12035
▁namataan	-12036
▁namayapa	-12037
▁nanariwa	-12038
▁nangakas	-12039
▁naniwala	-12040
▁nanunuot	-12041
▁napaaapi	-12042
▁napadpad	-12043
▁napahiya	-12044
▁napapako	-12045
▁napapala	-12046
▁napapawi	-12047
▁naritong	-12048
▁natauhan	-12049
▁naturang	-12050
▁nawaglit	-12051
▁ngayunin	-12052
▁ngumanga	-12053
▁niladlad	-12054
▁nilagyan	-12055
▁nilusong	-12056
▁ningning	-12057
▁ninunong	-12058
▁paamuhin	-12059
▁pabayaan	-12060
▁pabulong	-12061
▁padadala	-12062
▁pagaspas	-12063
▁pagbilog	-12064
▁pagbuhat	-12065
▁pagdalaw	-12066
▁pagdaloy	-12067
▁pagdamay	-12068
▁paggapas	-12069
▁paghahal	-12070
▁paghanap	-12071
▁paghatol	-12072
▁paghihin	-12073
▁paghinga	-12074
▁paghinto	-12075
▁pagkaawa	-12076
▁pagkamal	-12077
▁pagkilos	-12078
▁pagkunan	-12079
▁paglikha	-12080
▁paglusob	-12081
▁pagpanaw	-12082
▁pagpapan	-12083
▁pagsapit	-12084
▁pagsulat	-12085
▁pagsunod	-12086
▁pagtakas	-12087
▁pagtungo	-12088
▁pagyaman	-12089
▁painumin	-12090
▁pakaunti	-12091
▁palalong	-12092
▁paliligo	-12093
▁pamahiin	-12094
▁pambayad	-12095
▁pamuling	-12096
▁panaghoy	-12097
▁pandikit	-12098
▁paninira	-12099
▁panlaban	-12100
▁panlunas	-12101
▁pansinin	-12102
▁panuunan	-12103
▁parirala	-12104
▁pasaklaw	-12105
▁pasubsob	-12106
▁pasulong	-12107
▁payagang	-12108
▁pedestal	-12109
▁pigingan	-12110
▁pinagsas	-12111
▁pinakama	-12112
▁pinalaya	-12113
▁pinangko	-12114
▁pinansin	-12115
▁pinapalo	-12116
▁pinapang	-12117
▁pinasahi	-12118
▁pinggang	-12119
▁pocpoclo	-12120
▁posisyon	-12121
▁problema	-12122
▁pulseras	-12123
▁pulutong	-12124
▁puspusan	-12125
▁sagingan	-12126
▁sanghaya	-12127
▁sanglang	-12128
▁sigurado	-12129
▁sinusukl	-12130
▁solusyon	-12131
▁sosyedad	-12132
▁sugatang	-12133
▁sumaisip	-12134
▁sumiklab	-12135
▁sumilang	-12136
▁sumilong	-12137
▁sumulpot	-12138
▁tagaroon	-12139
▁tagtuyot	-12140
▁talastas	-12141
▁talisman	-12142
▁tampuhan	-12143
▁tangkang	-12144
▁tatakpan	-12145
▁tawanang	-12146
▁tekstong	-12147
▁tinangka	-12148
▁tinapang	-12149
▁tinatago	-12150
▁tingnang	-12151
▁tinitiis	-12152
▁tinuruan	-12153
▁torongan	-12154
▁trahedya	-12155
▁tsinelas	-12156
▁tultugan	-12157
▁tulutang	-12158
▁tumatawa	-12159
▁tumitira	-12160
▁tumubong	-12161
▁tumugtog	-12162
▁tumuklas	-12163
▁turingan	-12164
▁umusbong	-12165
▁yumabong	-12166
..........	-12167
Hahagulgol	-12168
Kailangang	-12169
Pasalubong	-12170
Sasambitin	-12171
Tutulungan	-12172
agkakaloob	-12173
akasalanan	-12174
alamhatian	-12175
alatkayong	-12176
alulungkot	-12177
ampalataya	-12178
▁Amongabon	-12179
▁Aphrodite	-12180
▁Babalikan	-12181
▁Binanggit	-12182
▁Boholanos	-12183
▁Bubuhatin	-12184
▁Datimbang	-12185
▁Domingsel	-12186
▁Gaygaynet	-12187
▁Hernandez	-12188
▁Hinahanap	-12189
▁Ikalimang	-12190
▁Iniligtas	-12191
▁Ipagdasal	-12192
▁Ipagpalit	-12193
▁Ipinaalam	-12194
▁Itinuring	-12195
▁Jerusalem	-12196
▁Kabalyero	-12197
▁Kabukiran	-12198
▁Kadugnung	-12199
▁Kakagatin	-12200
▁Kalawitan	-12201
▁Kalikasan	-12202
▁Karaniwan	-12203
▁Kasabihan	-12204
▁Kastilang	-12205
▁Katangian	-12206
▁Kayraming	-12207
▁Kinastila	-12208
▁Kinawayan	-12209
▁Leddangan	-12210
▁Lumilipad	-12211
▁Madogyaya	-12212
▁Magsasaka	-12213
▁Magsisisi	-12214
▁Makabuhay	-12215
▁Mapalawak	-12216
▁Masusunod	-12217
▁Minalisin	-12218
▁Mistulang	-12219
▁Nagkasama	-12220
▁Nagsasama	-12221
▁Nagsimula	-12222
▁Nagsisisi	-12223
▁Naguilian	-12224
▁Nakahanda	-12225
▁Nakatungo	-12226
▁Nalalanta	-12227
▁Natagpuan	-12228
▁Natatakot	-12229
▁Natutulog	-12230
▁Nobyembre	-12231
▁Pabulanan	-12232
▁Pagbagsak	-12233
▁Pagtugtog	-12234
▁Pakawalan	-12235
▁Pandanggo	-12236
▁Pangaiwan	-12237
▁Papatayin	-12238
▁Paraisong	-12239
▁Parusahan	-12240
▁Patawarin	-12241
▁Sambangki	-12242
▁Sandaling	-12243
▁Setyembre	-12244
▁Singkamas	-12245
▁Sinisinta	-12246
▁Sumalunga	-12247
▁Sumarinaw	-12248
▁Tanggapin	-12249
▁Tinalupan	-12250
▁Tinitiyak	-12251
▁Titingnan	-12252
▁Tominaman	-12253
▁Tumahimik	-12254
▁Tungkulin	-12255
▁Yayakapin	-12256
▁aksesorya	-12257
▁alinsunod	-12258
▁anakpawis	-12259
▁bahaghari	-12260
▁bangungot	-12261
▁baranggay	-12262
▁bathalang	-12263
▁bendisyon	-12264
▁bibitiwan	-12265
▁binabalot	-12266
▁bugtungan	-12267
▁bulalakaw	-12268
▁bumabalik	-12269
▁bungkalin	-12270
▁dadagitin	-12271
▁dadalawin	-12272
▁dinadagit	-12273
▁dinaranas	-12274
▁dinumihan	-12275
▁dumadalaw	-12276
▁dumadaloy	-12277
▁ekonomiya	-12278
▁gandingan	-12279
▁ginhawang	-12280
▁grasiyang	-12281
▁gumagalaw	-12282
▁gumaganda	-12283
▁gumigiliw	-12284
▁hahanguin	-12285
▁haharapin	-12286
▁hihilahin	-12287
▁hinahamak	-12288
▁hinahamon	-12289
▁hinanakit	-12290
▁hinigupan	-12291
▁hinugasan	-12292
▁hinukayan	-12293
▁humagupit	-12294
▁humahalik	-12295
▁humahanga	-12296
▁humakbang	-12297
▁humantong	-12298
▁humihinga	-12299
▁idalangin	-12300
▁ihahandog	-12301
▁ikabubuti	-12302
▁ikinulong	-12303
▁ikukumpas	-12304
▁ililigtas	-12305
▁impuwesto	-12306
▁inaawitan	-12307
▁inilantad	-12308
▁ipagtapat	-12309
▁ipakikita	-12310
▁ipakilala	-12311
▁ipinadala	-12312
▁isinaayos	-12313
▁itinanong	-12314
▁itinatago	-12315
▁kabakahin	-12316
▁kabalyero	-12317
▁kadalasan	-12318
▁kagalakan	-12319
▁kaganapan	-12320
▁kaguluhan	-12321
▁kahariang	-12322
▁kahatulan	-12323
▁kakatwang	-12324
▁kakisigan	-12325
▁kalabanin	-12326
▁kalakaran	-12327
▁kalaliman	-12328
▁kaligatan	-12329
▁kalimutan	-12330
▁kalusugan	-12331
▁kaluwagan	-12332
▁kamukhang	-12333
▁kapaguran	-12334
▁kapakanan	-12335
▁karaingan	-12336
▁kasakiman	-12337
▁kasamahan	-12338
▁kasanayan	-12339
▁kasukalan	-12340
▁katatagan	-12341
▁katuturan	-12342
▁kaukulang	-12343
▁kayariang	-12344
▁kaysasaya	-12345
▁kinabahan	-12346
▁kinakanta	-12347
▁kinurutan	-12348
▁kolintang	-12349
▁komunidad	-12350
▁kulintang	-12351
▁kulturang	-12352
▁kumakalat	-12353
▁kumandili	-12354
▁lambuting	-12355
▁lolokisen	-12356
▁lumaganap	-12357
▁lumalabas	-12358
▁lumalakas	-12359
▁mababango	-12360
▁mabigyang	-12361
▁mabubusog	-12362
▁magaganap	-12363
▁magbabait	-12364
▁magbinata	-12365
▁magdadala	-12366
▁magdiwang	-12367
▁magdurusa	-12368
▁maghangad	-12369
▁magkaaway	-12370
▁magkaisip	-12371
▁maglakbay	-12372
▁maglalaon	-12373
▁magluluto	-12374
▁magmadali	-12375
▁magpaalam	-12376
▁magsilang	-12377
▁magsisisi	-12378
▁magtitiis	-12379
▁magugutom	-12380
▁mahahayag	-12381
▁maharlika	-12382
▁mahawakan	-12383
▁mahinahon	-12384
▁mahinhing	-12385
▁makaakyat	-12386
▁makabansa	-12387
▁makahinga	-12388
▁makalapit	-12389
▁makalipas	-12390
▁makapitas	-12391
▁makukulay	-12392
▁malalaman	-12393
▁malalapad	-12394
▁maliligaw	-12395
▁malubhang	-12396
▁malulupit	-12397
▁mamahinga	-12398
▁mamighati	-12399
▁mangitlog	-12400
▁manloloko	-12401
▁mapipigil	-12402
▁mapitagan	-12403
▁mapupunta	-12404
▁maputlang	-12405
▁masakupan	-12406
▁masansala	-12407
▁masiglang	-12408
▁masisigla	-12409
▁masiyahan	-12410
▁masyadong	-12411
▁matagalan	-12412
▁matanggap	-12413
▁matangkad	-12414
▁matatakot	-12415
▁matitigas	-12416
▁matutuloy	-12417
▁mayayaman	-12418
▁minimithi	-12419
▁naatasang	-12420
▁nababasag	-12421
▁nababatay	-12422
▁nagbabala	-12423
▁nagbibiro	-12424
▁nagdiwang	-12425
▁naghandog	-12426
▁nagkaanak	-12427
▁nagkagulo	-12428
▁nagkaloob	-12429
▁nagligtas	-12430
▁nagnanais	-12431
▁nagpasiya	-12432
▁nagpulong	-12433
▁nagpupuno	-12434
▁nagsasabi	-12435
▁nagsasama	-12436
▁nagsilaho	-12437
▁nagtaguan	-12438
▁nagtatago	-12439
▁nagtatamo	-12440
▁nagtatawa	-12441
▁nagwawagi	-12442
▁nagwiwika	-12443
▁naiibigan	-12444
▁nakaaaliw	-12445
▁nakaakyat	-12446
▁nakabalik	-12447
▁nakabalot	-12448
▁nakabulag	-12449
▁nakadamit	-12450
▁nakahasik	-12451
▁nakakamit	-12452
▁nakalatag	-12453
▁nakalipas	-12454
▁nakalugay	-12455
▁nakaluhod	-12456
▁nakangiti	-12457
▁nakapasok	-12458
▁nakapulot	-12459
▁nakasabay	-12460
▁nakasagot	-12461
▁nakasaksi	-12462
▁nakatanod	-12463
▁nakikiapi	-12464
▁nalalanta	-12465
▁nalanghap	-12466
▁nalikhang	-12467
▁nalilimot	-12468
▁nalimutan	-12469
▁nalungkot	-12470
▁namamalas	-12471
▁namimitas	-12472
▁nanawagan	-12473
▁nangakong	-12474
▁nangasawi	-12475
▁napahinto	-12476
▁napapatay	-12477
▁nasalanta	-12478
▁natanawan	-12479
▁natanggal	-12480
▁natapakan	-12481
▁natitipon	-12482
▁natutuloy	-12483
▁nilapitan	-12484
▁nilawayan	-12485
▁nilulutas	-12486
▁nunungong	-12487
▁pagbigyan	-12488
▁pagdurusa	-12489
▁paggalang	-12490
▁pagharian	-12491
▁paghatiin	-12492
▁pagitawin	-12493
▁pagkahari	-12494
▁pagkakain	-12495
▁paglalaho	-12496
▁paglinang	-12497
▁paglingon	-12498
▁pagpanhik	-12499
▁pagpapala	-12500
▁pagparito	-12501
▁pagtadtad	-12502
▁pagtaliin	-12503
▁pagtitiis	-12504
▁pagtutuos	-12505
▁pahayagan	-12506
▁pahimakas	-12507
▁paimbulog	-12508
▁pakikinig	-12509
▁pambihira	-12510
▁pamilihan	-12511
▁pamumulot	-12512
▁pananabik	-12513
▁pananamit	-12514
▁pandulaan	-12515
▁panginoon	-12516
▁pangkatan	-12517
▁pangmasid	-12518
▁panibugho	-12519
▁panloloko	-12520
▁papaanong	-12521
▁papatayin	-12522
▁paraluman	-12523
▁pasintabi	-12524
▁patotoong	-12525
▁patunugin	-12526
▁pinakamab	-12527
▁pinangang	-12528
▁pinayuhan	-12529
▁pinuputol	-12530
▁pinutulan	-12531
▁pipitasin	-12532
▁praktikal	-12533
▁prusisyon	-12534
▁puspusang	-12535
▁salakayin	-12536
▁sandipang	-12537
▁sanlibong	-12538
▁sasadyain	-12539
▁sasagutin	-12540
▁sasakyang	-12541
▁sinalanta	-12542
▁sinisinta	-12543
▁sinubukan	-12544
▁sinugatan	-12545
▁sisinghap	-12546
▁siyamnapu	-12547
▁solitaryo	-12548
▁sugilanon	-12549
▁sumalakay	-12550
▁sumasamba	-12551
▁tanghalin	-12552
▁tangkilik	-12553
▁tatandaan	-12554
▁tinalupan	-12555
▁tinatapos	-12556
▁tinubuang	-12557
▁tumakbong	-12558
▁tumalikod	-12559
▁tumatabas	-12560
▁tumatakas	-12561
▁tumitibok	-12562
▁winalisan	-12563
ahalukipkip	-12564
atanikalang	-12565
ihinayangan	-12566
ngingitngit	-12567
▁Balensuela	-12568
▁Bienvenido	-12569
▁Binongtoan	-12570
▁Dinaradiya	-12571
▁Dumalaplap	-12572
▁Dumalogdog	-12573
▁Ekspresyon	-12574
▁Epimetheus	-12575
▁Humadapnen	-12576
▁Kabisayaan	-12577
▁Kagandahan	-12578
▁Kagitingan	-12579
▁Kailokohan	-12580
▁Kapampanga	-12581
▁Karunungan	-12582
▁Kasaysayan	-12583
▁Katamtaman	-12584
▁Livunganen	-12585
▁Lumulutang	-12586
▁Magbabalik	-12587
▁Magbibigay	-12588
▁Maggagatas	-12589
▁Magkakapit	-12590
▁Mahalagang	-12591
▁Makapitong	-12592
▁Makarating	-12593
▁Maningning	-12594
▁Mapayapang	-12595
▁Maratectec	-12596
▁Nabilanggo	-12597
▁Naghahanap	-12598
▁Nagkagusto	-12599
▁Nagkakaisa	-12600
▁Nagpahinga	-12601
▁Nagpatawag	-12602
▁Nagpumilit	-12603
▁Nagtawanan	-12604
▁Nahihiyang	-12605
▁Namayagpag	-12606
▁Naramdaman	-12607
▁Pagsasalin	-12608
▁Pangavukad	-12609
▁Panginoong	-12610
▁Pinalangga	-12611
▁Pinamunuan	-12612
▁Polidiktis	-12613
▁Prometheus	-12614
▁Rinamentaw	-12615
▁Sansinukob	-12616
▁Sapilitang	-12617
▁Sasabihing	-12618
▁Sinimulang	-12619
▁Talagsahon	-12620
▁babasaging	-12621
▁bibilangin	-12622
▁biniyayaan	-12623
▁bukambibig	-12624
▁bumabagsak	-12625
▁bumabalong	-12626
▁dinaraanan	-12627
▁dinaramdam	-12628
▁dumalagang	-12629
▁durungawan	-12630
▁eksorsismo	-12631
▁elementong	-12632
▁engkantong	-12633
▁episodyong	-12634
▁gugustuhin	-12635
▁hahahahaha	-12636
▁hahalakhak	-12637
▁hanapbuhay	-12638
▁ibinabalik	-12639
▁ibinalibag	-12640
▁ikabubuhay	-12641
▁ikinagalit	-12642
▁ikinamatay	-12643
▁ikinuwento	-12644
▁inaakalang	-12645
▁industriya	-12646
▁inihabilin	-12647
▁inihahatid	-12648
▁inilalagay	-12649
▁ipagkaloob	-12650
▁ipahiwatig	-12651
▁ipinaghele	-12652
▁ipinahayag	-12653
▁ipinakasal	-12654
▁ipinamalas	-12655
▁ispiritung	-12656
▁kababayang	-12657
▁kabinataan	-12658
▁kabuktutan	-12659
▁kagalingan	-12660
▁kahihintay	-12661
▁kahiwagaan	-12662
▁kakanyahan	-12663
▁kakaunting	-12664
▁kalabasang	-12665
▁kalimitang	-12666
▁kamatayang	-12667
▁kapilyuhan	-12668
▁kasabihang	-12669
▁kasambahay	-12670
▁kasarinlan	-12671
▁kasiyahang	-12672
▁kastilaloy	-12673
▁kastilyong	-12674
▁kasukdulan	-12675
▁katangahan	-12676
▁katanyagan	-12677
▁katapatang	-12678
▁katatayong	-12679
▁katotohana	-12680
▁katunayang	-12681
▁kimmatuday	-12682
▁kinakitaan	-12683
▁lalakbayin	-12684
▁lumalangoy	-12685
▁lumalayong	-12686
▁lumilingon	-12687
▁mababangis	-12688
▁madagdagan	-12689
▁madamdamin	-12690
▁magbabawas	-12691
▁magbubuhat	-12692
▁magbubukas	-12693
▁magbungkal	-12694
▁maghahanap	-12695
▁magkalapit	-12696
▁maglalahad	-12697
▁maglambing	-12698
▁magluluwal	-12699
▁magpahayag	-12700
▁magpatanda	-12701
▁magtatagal	-12702
▁mahahabang	-12703
▁makabangon	-12704
▁makakakita	-12705
▁makakasama	-12706
▁makasarili	-12707
▁makatitiis	-12708
▁makatulong	-12709
▁makikitang	-12710
▁makikiusap	-12711
▁makinabang	-12712
▁malalagong	-12713
▁malikhaing	-12714
▁malinamnam	-12715
▁maliwanang	-12716
▁mananatili	-12717
▁manibalang	-12718
▁mapagbigay	-12719
▁mapagtanto	-12720
▁mapayapang	-12721
▁marangyang	-12722
▁mararangal	-12723
▁mararangya	-12724
▁masasaktan	-12725
▁masilungan	-12726
▁matiyagang	-12727
▁mauunawaan	-12728
▁minamasdan	-12729
▁nagbubunga	-12730
▁nagbuntung	-12731
▁nagdarahop	-12732
▁nagdarasal	-12733
▁naghahanda	-12734
▁naghahayag	-12735
▁nagkadurog	-12736
▁nagkagayon	-12737
▁nagkakalat	-12738
▁nagkatotoo	-12739
▁naglalaban	-12740
▁naglathala	-12741
▁nagliwanag	-12742
▁nagmamaliw	-12743
▁nagpahayag	-12744
▁nagpamalas	-12745
▁nagpanggap	-12746
▁nagpapalit	-12747
▁nagpatiuna	-12748
▁nagpupugay	-12749
▁nagsasayaw	-12750
▁nagsigawan	-12751
▁nagsilabas	-12752
▁nagsipunta	-12753
▁nagsisipag	-12754
▁nagsisipan	-12755
▁nagtatagpo	-12756
▁nagtatanod	-12757
▁nagtutulog	-12758
▁nailathala	-12759
▁naisatitik	-12760
▁nakababata	-12761
▁nakabigkis	-12762
▁nakapanhik	-12763
▁nakaramdam	-12764
▁nakikilala	-12765
▁nalalaglag	-12766
▁nalalamang	-12767
▁namamahala	-12768
▁namamasyal	-12769
▁namamayong	-12770
▁nandayuhan	-12771
▁nangabuhay	-12772
▁nangamatay	-12773
▁nangangako	-12774
▁naniningil	-12775
▁napakasama	-12776
▁nararahuyo	-12777
▁nasaksihan	-12778
▁nasasaktan	-12779
▁natatakpan	-12780
▁pababayaan	-12781
▁pagbubukas	-12782
▁pagkagalit	-12783
▁pagkagiliw	-12784
▁pagkalimot	-12785
▁pagkarinig	-12786
▁pagkukunan	-12787
▁paglilinis	-12788
▁pagluluwal	-12789
▁pagmumukha	-12790
▁pagsasaing	-12791
▁palakpakan	-12792
▁pamimiliin	-12793
▁panganorin	-12794
▁panggatong	-12795
▁paninirang	-12796
▁panliligaw	-12797
▁panlipunan	-12798
▁papanhikin	-12799
▁paparating	-12800
▁partikular	-12801
▁patnubayan	-12802
▁perdigones	-12803
▁pinakaloob	-12804
▁pinayuhang	-12805
▁prinsesang	-12806
▁salagubang	-12807
▁sambayanan	-12808
▁sambuntong	-12809
▁sanlibutan	-12810
▁sapilitang	-12811
▁sasambahin	-12812
▁sinasambit	-12813
▁sinindihan	-12814
▁sinusundan	-12815
▁sumalangit	-12816
▁sumalubong	-12817
▁tagapamuno	-12818
▁takipsilim	-12819
▁talinghaga	-12820
▁tanggulang	-12821
▁tanikalang	-12822
▁tataglayin	-12823
▁telebisyon	-12824
▁tinalunton	-12825
▁tinatangay	-12826
▁tiwangwang	-12827
▁tumangging	-12828
▁tumatangis	-12829
▁tumutugtog	-12830
▁tumutulong	-12831
▁tunggalian	-12832
▁tungkuling	-12833
............	-12834
aniniwalaang	-12835
apagpagaling	-12836
▁Christopher	-12837
▁Dambuhalang	-12838
▁Ipahintulot	-12839
▁Ipinagbilin	-12840
▁Itinatanong	-12841
▁Kabayanihan	-12842
▁Kabungsuwan	-12843
▁Kasukdulang	-12844
▁Katagalugan	-12845
▁Katotohanan	-12846
▁Katungkulan	-12847
▁Maglalakbay	-12848
▁Magpapakita	-12849
▁Magtatanong	-12850
▁Mahihikayat	-12851
▁Makasalanan	-12852
▁Naghahangad	-12853
▁Naghihintay	-12854
▁Nagmumurang	-12855
▁Nagpakilala	-12856
▁Nagtakbuhan	-12857
▁Nananawagan	-12858
▁Natatandaan	-12859
▁Pagkagising	-12860
▁Panchantara	-12861
▁Pangunahing	-12862
▁Pingpinggan	-12863
▁Sagamantika	-12864
▁Sinagmaling	-12865
▁Sinasalamin	-12866
▁Tinatawagan	-12867
▁alibangbang	-12868
▁alingawngaw	-12869
▁bilangguang	-12870
▁binabanggit	-12871
▁ekspresyong	-12872
▁estranghero	-12873
▁ginagalawan	-12874
▁ginatipigan	-12875
▁hinahagupit	-12876
▁hinahangaan	-12877
▁ikaliligtas	-12878
▁ikinahihiya	-12879
▁instrumento	-12880
▁ipinakilala	-12881
▁kadalagahan	-12882
▁kapahamakan	-12883
▁katiwasayan	-12884
▁kaygagaslaw	-12885
▁kaylalamyos	-12886
▁lapastangan	-12887
▁maginhawang	-12888
▁magkakadugo	-12889
▁magkakasama	-12890
▁magpapakita	-12891
▁magtataksil	-12892
▁mahihirapan	-12893
▁maitutulong	-12894
▁maituturing	-12895
▁makababalik	-12896
▁makagulapay	-12897
▁makakalaban	-12898
▁makalimutan	-12899
▁makapagsabi	-12900
▁mananalamin	-12901
▁manghihimig	-12902
▁maninirahan	-12903
▁manlalakbay	-12904
▁mapagpalang	-12905
▁mapapalapit	-12906
▁mapapasaiyo	-12907
▁masisilayan	-12908
▁masisiyahan	-12909
▁mataginting	-12910
▁misyonerong	-12911
▁nagkaganoon	-12912
▁nagkaibigan	-12913
▁naglilingas	-12914
▁nagmamadali	-12915
▁nagngangang	-12916
▁nagpapakita	-12917
▁nagpatulong	-12918
▁nagsusuklay	-12919
▁nagtatampok	-12920
▁nahihimbing	-12921
▁nakahihigit	-12922
▁nakalilimot	-12923
▁nakapagtago	-12924
▁nalilimutan	-12925
▁namamahinga	-12926
▁namamanglaw	-12927
▁namimilipit	-12928
▁namimingwit	-12929
▁namiminsala	-12930
▁namumungang	-12931
▁nangingibig	-12932
▁napakakisig	-12933
▁napakatanda	-12934
▁napaligiran	-12935
▁nasisiyahan	-12936
▁nilalanghap	-12937
▁pagbabahagi	-12938
▁pagkadakila	-12939
▁pagkakasara	-12940
▁pagkakayari	-12941
▁pagkamangha	-12942
▁paglilibang	-12943
▁paglilibing	-12944
▁paglilinang	-12945
▁pagmamasdan	-12946
▁pagnanasang	-12947
▁pagsalubong	-12948
▁pagsasamang	-12949
▁pagsasarili	-12950
▁pagtitipong	-12951
▁pagtitiyaga	-12952
▁pakaiisipin	-12953
▁pakikilaban	-12954
▁pananagutan	-12955
▁pananalakay	-12956
▁paralelismo	-12957
▁pinaaasuhan	-12958
▁pinagbigyan	-12959
▁pinagbuhata	-12960
▁pinagmulang	-12961
▁pinagtaling	-12962
▁pinakaunang	-12963
▁pinaligiran	-12964
▁pinangalang	-12965
▁pinapalitan	-12966
▁propesyonal	-12967
▁sinapupunan	-12968
▁sinasagisag	-12969
▁sinunggaban	-12970
▁sumasagisag	-12971
▁tangkilikan	-12972
▁tatangkilik	-12973
▁tinatahanan	-12974
▁tinatalakay	-12975
▁tumatanggap	-12976
Magpupumiglas	-12977
▁Bulubundukin	-12978
▁Ikinikompisa	-12979
▁Ipinalalagay	-12980
▁Kakalahating	-12981
▁Kinaumagahan	-12982
▁Maghahabulan	-12983
▁Magmamakaawa	-12984
▁Mapangarapin	-12985
▁Mapapabilang	-12986
▁Matrimonyong	-12987
▁Minangondaya	-12988
▁Nararamdaman	-12989
▁Pinakiusapan	-12990
▁Pinangpangan	-12991
▁himpapawirin	-12992
▁humahalakhak	-12993
▁ikagiginhawa	-12994
▁impluwensiya	-12995
▁ipakahulugan	-12996
▁ipinaliwanag	-12997
▁kababalaghan	-12998
▁kadahilanang	-12999
▁kalalakihang	-13000
▁kalingkingan	-13001
▁kamangmangan	-13002
▁kaparusahang	-13003
▁kasangkapang	-13004
▁katotohanang	-13005
▁kinalalagyan	-13006
▁labingwalong	-13007
▁magkakabalat	-13008
▁magkasupling	-13009
▁magmamahalan	-13010
▁magpakasakit	-13011
▁magpapatuloy	-13012
▁magsisilbing	-13013
▁magsusupling	-13014
▁maintindihan	-13015
▁makabuluhang	-13016
▁makagagaling	-13017
▁makahulugang	-13018
▁makakarating	-13019
▁makapaniwala	-13020
▁mamamanhikan	-13021
▁manggagaling	-13022
▁mapaglabanan	-13023
▁mapapantayan	-13024
▁maratangtang	-13025
▁matatalinong	-13026
▁naghihiwalay	-13027
▁nagkakanlong	-13028
▁nagkakasundo	-13029
▁nagliliparan	-13030
▁nagmakaawang	-13031
▁nagpapahinga	-13032
▁nagpapasigla	-13033
▁nagpasalamat	-13034
▁nagpatingkad	-13035
▁nagsusumpaan	-13036
▁nahintakutan	-13037
▁nakababatang	-13038
▁nakabaligtad	-13039
▁nakakatulong	-13040
▁nakasalamuha	-13041
▁nakasalubong	-13042
▁nakatutulong	-13043
▁namumulaklak	-13044
▁nananalangin	-13045
▁nananatiling	-13046
▁nangakaraang	-13047
▁nangangasiwa	-13048
▁nanginginain	-13049
▁napipilitang	-13050
▁pagkabusabos	-13051
▁pagkakasundo	-13052
▁pagkakatulad	-13053
▁pagkakatulog	-13054
▁pagliligawan	-13055
▁pagmamakaawa	-13056
▁pagpapatuloy	-13057
▁pagsasamahin	-13058
▁pananaliksik	-13059
▁pananalitang	-13060
▁panatilihing	-13061
▁pangangalaga	-13062
▁pangingitlog	-13063
▁patalinghaga	-13064
▁pinagbilinan	-13065
▁pinaghiwalay	-13066
▁pinagmumulan	-13067
▁pinagtawanan	-13068
▁rumaragasang	-13069
▁sibilisasyon	-13070
▁tinatangisan	-13071
ipagtalastasan	-13072
▁Hahahahahahah	-13073
▁Magtatampisaw	-13074
▁Mapapangasawa	-13075
▁Nagmamadaling	-13076
▁Napagkaisahan	-13077
▁Pinakamaganda	-13078
▁kababalaghang	-13079
▁kakailanganin	-13080
▁kinatitirikan	-13081
▁labindalawang	-13082
▁magkakapantay	-13083
▁magtatagumpay	-13084
▁maipaghiganti	-13085
▁makapagsalita	-13086
▁mangangalakal	-13087
▁mapaparusahan	-13088
▁matalinhagang	-13089
▁naghalinhinan	-13090
▁naghihinagpis	-13091
▁nagkikislapan	-13092
▁naglalakihang	-13093
▁nagpapagunita	-13094
▁nagtatakbuhan	-13095
▁nakapagsalita	-13096
▁nakapagtataka	-13097
▁napanaginipan	-13098
▁pagkakatapong	-13099
▁pagmamadaling	-13100
▁pagsasaliksik	-13101
▁pampanitikang	-13102
▁pangangatawan	-13103
▁pinakamalakas	-13104
▁pinarurusahan	-13105
▁pinatutunayan	-13106
▁sangmaliwanag	-13107
▁tagapagparusa	-13108
▁tagapamagitan	-13109
▁umalingawngaw	-13110
▁Intempsychosis	-13111
▁Nagmamatandang	-13112
▁Napagpasiyahan	-13113
▁ipagsanggalang	-13114
▁kinahihinatnan	-13115
▁kinatatakutang	-13116
▁magpakailanman	-13117
▁mahihintakutan	-13118
▁maisakatuparan	-13119
▁makapagbibigay	-13120
▁makatotohanang	-13121
▁mapagbibilihan	-13122
▁nagdadalamhati	-13123
▁nagngingitngit	-13124
▁nagsisipaglaro	-13125
▁naisakatuparan	-13126
▁pagmamalasakit	-13127
▁pagpapakasakit	-13128
▁pagpapasalamat	-13129
▁pahihintulutan	-13130
▁pangkalinangan	-13131
▁pinakamagaling	-13132
▁pinaniniwalaan	-13133
▁umaalingawngaw	-13134
▁Makapangyarihan	-13135
▁Nagsisipanlagas	-13136
▁karakterisasyon	-13137
▁makipagkaibigan	-13138
▁nagpapakilalang	-13139
▁pagkakakilanlan	-13140
▁pagkakawanggawa	-13141
▁pagpapahalagang	-13142
▁pinaniniwalaang	-13143
ggg	-13144
Bacn	-13145
Cruz	-13146
Daig	-13147
berg	-13148
ctis	-13149
dyed	-13150
iagn	-13151
luoy	-13152
orsy	-13153
susi	-13154
▁AAA	-13155
▁Bea	-13156
▁TAO	-13157
▁TUM	-13158
▁for	-13159
▁tie	-13160
AHHHH	-13161
ARILA	-13162
Abril	-13163
Bacch	-13164
Barit	-13165
Bikol	-13166
Daing	-13167
Ginoo	-13168
Kakal	-13169
Pagod	-13170
Palil	-13171
Paluh	-13172
Pinup	-13173
Pokus	-13174
ULING	-13175
UMANG	-13176
Ugang	-13177
Venus	-13178
atnig	-13179
bukas	-13180
eengg	-13181
eings	-13182
ibugh	-13183
ispos	-13184
kinse	-13185
kiwal	-13186
multo	-13187
older	-13188
ombra	-13189
onale	-13190
pensa	-13191
ranes	-13192
senio	-13193
simin	-13194
uskos	-13195
yenda	-13196
ymple	-13197
▁Budh	-13198
▁Cord	-13199
AUS	-13200
kiu	-13201
AUST	-13202
Araw	-13203
Asal	-13204
Mbls	-13205
USAN	-13206
kals	-13207
soli	-13208
▁awd	-13209
AKILA	-13210
Aking	-13211
Asawa	-13212
Ninik	-13213
PUSAN	-13214
alipi	-13215
empre	-13216
encia	-13217
iipun	-13218
piing	-13219
ungua	-13220
▁Cuad	-13221
▁Deat	-13222
▁Font	-13223
▁Garc	-13224
▁Hepa	-13225
▁Lomb	-13226
▁Lost	-13227
▁Pose	-13228
▁Shed	-13229
▁Slow	-13230
▁Tsok	-13231
▁VIII	-13232
▁epos	-13233
▁hwag	-13234
▁imbi	-13235
▁ipau	-13236
▁iuug	-13237
▁utal	-13238
AUSTUS	-13239
Bacnot	-13240
Dinast	-13241
Dumaan	-13242
Ganito	-13243
Halina	-13244
Humayo	-13245
Isplas	-13246
LINGAN	-13247
Magkuk	-13248
Sumama	-13249
Tagist	-13250
YUMANG	-13251
aampon	-13252
ackals	-13253
adence	-13254
alungi	-13255
angsol	-13256
asampu	-13257
asenso	-13258
ecargo	-13259
egends	-13260
egorio	-13261
ehidor	-13262
ekargo	-13263
elberg	-13264
enigst	-13265
enyora	-13266
eologo	-13267
erodes	-13268
espeto	-13269
espons	-13270
franes	-13271
geolog	-13272
iagnte	-13273
ibilad	-13274
ibinhi	-13275
iburuk	-13276
iibayo	-13277
ikings	-13278
inhold	-13279
iphayo	-13280
iwisik	-13281
kuweba	-13282
legend	-13283
lument	-13284
ontoro	-13285
oprano	-13286
sagwan	-13287
suklam	-13288
susing	-13289
unguhi	-13290
urukya	-13291
uudyok	-13292
yensya	-13293
yerong	-13294
▁Agham	-13295
▁BALAG	-13296
▁Beata	-13297
▁Bruum	-13298
▁Burig	-13299
▁Death	-13300
▁Ellen	-13301
▁Ester	-13302
▁Gutum	-13303
▁Hihig	-13304
▁ILING	-13305
▁Iluad	-13306
▁Kodla	-13307
▁Legas	-13308
▁Livet	-13309
▁Lorca	-13310
▁Mileg	-13311
▁Mlkss	-13312
▁Paete	-13313
▁Pokus	-13314
▁Saksi	-13315
▁Simal	-13316
▁Tsino	-13317
▁Ugang	-13318
▁Venus	-13319
▁aalsa	-13320
▁agham	-13321
▁alipi	-13322
▁awdia	-13323
▁beles	-13324
▁bikol	-13325
▁dapyo	-13326
▁derib	-13327
▁eeeng	-13328
▁gulod	-13329
▁imbit	-13330
▁klima	-13331
▁korid	-13332
▁kusim	-13333
▁laksa	-13334
▁lilib	-13335
▁lupon	-13336
▁opini	-13337
▁optim	-13338
▁peneh	-13339
▁prosp	-13340
▁renda	-13341
▁ritmo	-13342
▁roman	-13343
▁sukli	-13344
▁tahip	-13345
▁tenga	-13346
▁torpe	-13347
▁upuan	-13348
▁voice	-13349
▁yakal	-13350
Ginanap	-13351
Humanda	-13352
Iniibig	-13353
Ipakita	-13354
Jackals	-13355
Magkukw	-13356
Magmula	-13357
Makinig	-13358
Makulay	-13359
Nakaupo	-13360
Nandoon	-13361
Papaano	-13362
Patayin	-13363
Sisilip	-13364
Soprano	-13365
Titigil	-13366
YUMANGG	-13367
aakayin	-13368
alimsim	-13369
alungat	-13370
amimili	-13371
anikala	-13372
apareha	-13373
apusing	-13374
arlisle	-13375
awangki	-13376
busilak	-13377
dangkal	-13378
dionale	-13379
enteryo	-13380
igtarin	-13381
insulto	-13382
intidor	-13383
kunwari	-13384
lanueva	-13385
lumentr	-13386
ranhero	-13387
torohan	-13388
ubugbog	-13389
udencia	-13390
umbinse	-13391
uperman	-13392
urisman	-13393
usuntok	-13394
utukain	-13395
uumapaw	-13396
yalismo	-13397
ymplega	-13398
▁Aaluin	-13399
▁Burub	-13400
Jupiter	-13401
hikaing	-13402
▁Acacio	-13403
▁Alulod	-13404
▁BALAGT	-13405
▁Brahos	-13406
▁Bruumm	-13407
▁Collec	-13408
▁DAKILA	-13409
▁Duryan	-13410
▁Estilo	-13411
▁Glorya	-13412
▁Higaan	-13413
▁Isplas	-13414
▁Jeriko	-13415
▁Kiming	-13416
▁LAHING	-13417
▁Laguna	-13418
▁Liveti	-13419
▁Madale	-13420
▁Maigsi	-13421
▁Naguas	-13422
▁Paniki	-13423
▁Posaka	-13424
▁Sasaks	-13425
▁Sharki	-13426
▁Sinigw	-13427
▁TAUHAN	-13428
▁TUMING	-13429
▁Taghuy	-13430
▁Turina	-13431
▁Tutubi	-13432
▁Utasin	-13433
▁ambato	-13434
▁anting	-13435
▁bagsak	-13436
▁bansag	-13437
▁beings	-13438
▁bundat	-13439
▁daidid	-13440
▁daidig	-13441
▁daratn	-13442
▁doonga	-13443
▁folder	-13444
▁gayuma	-13445
▁gimbal	-13446
▁ihalal	-13447
▁ikukuw	-13448
▁ipauub	-13449
▁istamb	-13450
▁iuugoy	-13451
▁korido	-13452
▁kusina	-13453
▁limbag	-13454
▁linsil	-13455
▁maapoy	-13456
▁magiik	-13457
▁mahadl	-13458
▁maiden	-13459
▁matimt	-13460
▁muning	-13461
▁naaagn	-13462
▁nasams	-13463
▁pasoli	-13464
▁perman	-13465
▁pitasi	-13466
▁proses	-13467
▁santak	-13468
▁siniil	-13469
▁sintur	-13470
▁suntok	-13471
▁telang	-13472
▁tingal	-13473
▁transp	-13474
▁umapaw	-13475
▁umiral	-13476
ATAPUSAN	-13477
Bacnotan	-13478
Baritono	-13479
GALINGAN	-13480
Garalgal	-13481
Humihing	-13482
Makikita	-13483
Nagdidik	-13484
Nakaamoy	-13485
Nangalau	-13486
Pagbukas	-13487
Papanhik	-13488
Susundin	-13489
aasikaso	-13490
abalibag	-13491
abatayan	-13492
agkakait	-13493
agubilin	-13494
akamalan	-13495
alahatan	-13496
alatkayo	-13497
antsilyo	-13498
asunduan	-13499
cipeng	-13500
hambog	-13501
tumpak	-13502
Piedras	-13503
abanaag	-13504
akataon	-13505
aluktot	-13506
ubunyag	-13507
▁Hambog	-13508
▁Kumpas	-13509
▁Langka	-13510
▁Normal	-13511
▁kapait	-13512
▁lingon	-13513
▁magnin	-13514
▁tambol	-13515
araisong	-13516
atngatin	-13517
ayuyurak	-13518
bansagan	-13519
garalgal	-13520
ibughuin	-13521
idelberg	-13522
immortal	-13523
incipeng	-13524
ipithaya	-13525
itigatig	-13526
iwisikan	-13527
kumulang	-13528
legendus	-13529
marangal	-13530
orehidor	-13531
orsyuhin	-13532
pabigkas	-13533
pabulang	-13534
sandaang	-13535
sinlapad	-13536
sumasara	-13537
tahasang	-13538
uhulihan	-13539
urukyaan	-13540
uumanhin	-13541
wentuhan	-13542
▁Amtalan	-13543
▁Arsenio	-13544
▁Bayabas	-13545
▁Beywang	-13546
▁Binakod	-13547
▁Budhist	-13548
▁Cordill	-13549
▁Didilim	-13550
▁Dudulog	-13551
▁FAUSTUS	-13552
▁Gambong	-13553
▁Gamitin	-13554
▁Garugay	-13555
▁Gitnang	-13556
▁Gulanit	-13557
▁Harapin	-13558
▁Hepaest	-13559
▁Himutok	-13560
▁Hungkag	-13561
▁Hutukin	-13562
▁Idinumi	-13563
▁Ilocano	-13564
▁Isasara	-13565
▁Itatayo	-13566
▁Itinaon	-13567
▁Kalaing	-13568
▁Kamalia	-13569
▁Kodaran	-13570
▁Kristiy	-13571
▁Kulubot	-13572
▁Lambayo	-13573
▁Legaspi	-13574
▁Linayag	-13575
▁Linusob	-13576
▁Lombayo	-13577
▁Manggob	-13578
▁Manggub	-13579
▁Manipis	-13580
▁Matutum	-13581
▁Mauugat	-13582
▁Nadikit	-13583
▁Nagdamp	-13584
▁Nagkisl	-13585
▁Naiinog	-13586
▁Nakasis	-13587
▁Nakikin	-13588
▁Nanghih	-13589
▁Napigta	-13590
▁Ngumiti	-13591
▁Nunukal	-13592
▁Pagwika	-13593
▁Palahaw	-13594
▁Pamulaw	-13595
▁Pistang	-13596
▁Pulangi	-13597
▁Solomon	-13598
▁Sumikdo	-13599
▁Barb	-13600
▁Ingg	-13601
▁Kawd	-13602
▁Melu	-13603
▁gaml	-13604
abulag	-13605
apyuan	-13606
ebrero	-13607
eryoso	-13608
imoten	-13609
ometro	-13610
radong	-13611
uhurno	-13612
uyukod	-13613
wadong	-13614
▁Baror	-13615
▁Kelan	-13616
▁Lunas	-13617
▁Naiiw	-13618
▁Pupuk	-13619
▁Putot	-13620
▁Surot	-13621
▁Tomas	-13622
▁kikil	-13623
▁radyo	-13624
▁tubis	-13625
Seryoso	-13626
adlakan	-13627
impleng	-13628
uerrero	-13629
▁Inggit	-13630
▁Kawawa	-13631
▁Pupukp	-13632
▁intrum	-13633
▁tirano	-13634
adwadong	-13635
agkainan	-13636
atilihin	-13637
enerhiya	-13638
imotenho	-13639
naisalin	-13640
▁Bakawan	-13641
▁Barbero	-13642
▁Baroraw	-13643
▁Dayuhan	-13644
▁Mayrong	-13645
▁Naiinis	-13646
▁Naiiwan	-13647
▁Pagpili	-13648
▁Pebrero	-13649
▁Putukan	-13650
▁Putulan	-13651
▁Talaand	-13652
▁Tapatin	-13653
▁Tibayan	-13654
▁Tipunin	-13655
▁Tiririt	-13656
▁Tiruray	-13657
▁Titindi	-13658
▁Umiiyak	-13659
▁Yumukod	-13660
▁antayan	-13661
▁atungal	-13662
▁bagting	-13663
▁bakulaw	-13664
▁basehan	-13665
▁biglaan	-13666
▁binulag	-13667
▁bubuuin	-13668
▁bulaang	-13669
▁dadalaw	-13670
▁dadanak	-13671
▁daididg	-13672
▁daraing	-13673
▁depensa	-13674
▁dinihon	-13675
▁dirikit	-13676
▁duguang	-13677
▁dumagsa	-13678
▁durugin	-13679
▁gamitan	-13680
▁ganggab	-13681
▁gayakan	-13682
▁gigante	-13683
▁gulanit	-13684
▁hahagik	-13685
▁halayin	-13686
▁heologo	-13687
▁hidwaan	-13688
▁hinaing	-13689
▁hinigop	-13690
▁hinimok	-13691
▁hiraman	-13692
▁iipunin	-13693
▁iiwanan	-13694
▁ikaanim	-13695
▁ikasamp	-13696
▁ikintal	-13697
▁imperyo	-13698
▁inampon	-13699
Int	-13700
eze	-13701
bate	-13702
erva	-13703
llll	-13704
rite	-13705
tuos	-13706
▁Chr	-13707
Intro	-13708
aplos	-13709
ctuos	-13710
himig	-13711
ihuma	-13712
iskap	-13713
lllll	-13714
okons	-13715
reeze	-13716
ubugb	-13717
uumit	-13718
wasto	-13719
▁Chil	-13720
▁adob	-13721
▁late	-13722
▁purg	-13723
▁ugoy	-13724
Bubugb	-13725
arison	-13726
basket	-13727
ctuoso	-13728
onseho	-13729
urrite	-13730
▁Barun	-13731
▁adobe	-13732
▁aturg	-13733
Isasama	-13734
Konseho	-13735
Minerva	-13736
Sasayaw	-13737
Tutungo	-13738
Tutunog	-13739
abuklod	-13740
giliwan	-13741
iskisan	-13742
linlang	-13743
uctuoso	-13744
▁Childr	-13745
▁Christ	-13746
▁Freeze	-13747
▁Itangi	-13748
▁Iwalay	-13749
▁datiha	-13750
▁nabaon	-13751
▁piitin	-13752
▁tigmak	-13753
Introduk	-13754
Isisigaw	-13755
apanghim	-13756
ektibong	-13757
makalawa	-13758
▁Christi	-13759
▁Garison	-13760
▁Kristal	-13761
▁Makapup	-13762
▁Masbate	-13763
▁Palaris	-13764
▁currite	-13765
▁iniusod	-13766
▁inusisa	-13767
▁inuusig	-13768
▁ipaagaw	-13769
▁ipanalo	-13770
▁istakat	-13771
▁kapaita	-13772
▁kasosyo	-13773
▁kaybuti	-13774
▁kaypala	-13775
▁kinagug	-13776
▁kotseng	-13777
▁kumatok	-13778
▁kumukur	-13779
▁lilihis	-13780
▁lilinga	-13781
▁lumimot	-13782
▁maalwan	-13783
▁malumay	-13784
▁mamitas	-13785
▁mamulam	-13786
▁manipis	-13787
▁manunuk	-13788
▁mapipig	-13789
▁mapugto	-13790
▁masyado	-13791
▁matalos	-13792
▁matarik	-13793
▁matarok	-13794
▁maunawa	-13795
▁maysusi	-13796
▁mesiyas	-13797
▁milagro	-13798
▁nagnais	-13799
usli	-13800
ayber	-13801
▁Tribo	-13802
Dakilang	-13803
libingan	-13804
▁Silanga	-13805
▁Umiikot	-13806
▁drayber	-13807
▁lumagok	-13808
▁naitala	-13809
▁nakarar	-13810
▁nalangk	-13811
▁nandoon	-13812
▁napaaga	-13813
▁napaupo	-13814
▁napugto	-13815
▁napupus	-13816
▁nasikil	-13817
▁ngumiti	-13818
▁nilakha	-13819
▁nunukal	-13820
▁opinion	-13821
▁paliguy	-13822
▁pangmad	-13823
▁paturol	-13824
▁pigilan	-13825
▁pigtang	-13826
▁pindong	-13827
▁pistang	-13828
▁platero	-13829
▁recargo	-13830
▁rekargo	-13831
▁respeto	-13832
▁sintaha	-13833
▁sisipot	-13834
▁sugpuin	-13835
▁sumikdo	-13836
▁sumunud	-13837
▁tahakin	-13838
▁tatlump	-13839
▁tatlung	-13840
▁tipunin	-13841
▁tubuhan	-13842
▁tugunin	-13843
▁tutupin	-13844
▁umunawa	-13845
▁yumurak	-13846
Bugtungan	-13847
Introduks	-13848
Ipagpalit	-13849
Ipakikita	-13850
Isusuntok	-13851
Mababakas	-13852
Nakalitaw	-13853
Nakangiti	-13854
Natatakot	-13855
Paluhurin	-13856
Pinuputol	-13857
Sasabayan	-13858
Sasagutin	-13859
Tagalogan	-13860
aanyayang	-13861
adaluhong	-13862
agampanan	-13863
agandahin	-13864
agkamukha	-13865
agkandili	-13866
agtitikim	-13867
ahinhinan	-13868
akipsilim	-13869
aligsahan	-13870
alipadpad	-13871
alubungin	-13872
amasyalan	-13873
anlilisik	-13874
apamimili	-13875
arituhing	-13876
asadlakan	-13877
asaksihan	-13878
atambakan	-13879
bubuwisit	-13880
ementeryo	-13881
gagamitin	-13882
geologist	-13883
hinyerong	-13884
ibinyagan	-13885
iinggitan	-13886
illanueva	-13887
inirahang	-13888
ipanalasa	-13889
istorikal	-13890
itilamsik	-13891
lilingkod	-13892
lumentrit	-13893
lumilitaw	-13894
maharlika	-13895
papayaman	-13896
talinhaga	-13897
tinatawag	-13898
uwentuhan	-13899
▁burak	-13900
▁kawani	-13901
▁nanlum	-13902
▁sambal	-13903
▁utopya	-13904
ulunurin	-13905
▁Masanay	-13906
▁Natanim	-13907
▁Pranses	-13908
▁Tawirin	-13909
▁Tungkod	-13910
▁karakar	-13911
▁kinabib	-13912
▁kinalos	-13913
▁kinalug	-13914
▁lalawig	-13915
▁malagak	-13916
▁naggala	-13917
▁nakayay	-13918
▁nanlata	-13919
▁nanlumo	-13920
Tatalikod	-13921
mananakaw	-13922
yonalismo	-13923
▁Aabangan	-13924
▁Abadilla	-13925
▁Alulusan	-13926
▁Alunsina	-13927
▁Audencia	-13928
▁BALAGTAS	-13929
▁Balahibo	-13930
▁Bayaniha	-13931
▁Bicolano	-13932
▁Biyayang	-13933
▁Catindig	-13934
▁Children	-13935
▁Cuadrado	-13936
▁Dayalogo	-13937
▁Dekalogo	-13938
▁Hinaplos	-13939
▁Idionale	-13940
▁Ikasampu	-13941
▁Inaninaw	-13942
▁Inihanda	-13943
▁Inihatid	-13944
▁Isasabog	-13945
▁Itatapon	-13946
▁Itinigil	-13947
▁Kababata	-13948
▁Kabalint	-13949
▁Kahubdan	-13950
▁Kailanga	-13951
▁Katwiran	-13952
▁Kawlaman	-13953
▁Kayumian	-13954
▁Kilanlin	-13955
▁Kinamkam	-13956
▁Koenigst	-13957
▁Kulimlim	-13958
▁Kumpisal	-13959
▁Lagabaan	-13960
▁Libongan	-13961
▁Limagpas	-13962
▁Lolitang	-13963
▁Lollipop	-13964
▁Lumindol	-13965
▁Lumipana	-13966
▁Mabibigo	-13967
▁Magigiba	-13968
▁Makokons	-13969
▁Mandayan	-13970
▁Matanong	-13971
▁Naabutan	-13972
▁Nabigong	-13973
▁Nagdulot	-13974
▁Nahihiya	-13975
▁Nakintal	-13976
▁Napahiya	-13977
▁Napaibig	-13978
▁Natangay	-13979
▁Naunahan	-13980
▁Ngumanga	-13981
▁Ninitang	-13982
▁Paglabas	-13983
▁Pakikuha	-13984
▁Palamuti	-13985
▁Pamsagan	-13986
▁Panginay	-13987
▁Patnugot	-13988
▁Pinagmas	-13989
▁Pinamili	-13990
▁Pinipili	-13991
▁Reinhold	-13992
▁Sabihing	-13993
▁Siblawan	-13994
▁Simpleng	-13995
▁Sinapant	-13996
▁Solomong	-13997
▁Sumulpot	-13998
▁Superman	-13999
tuhog	-14000
uusad	-14001
▁hidi	-14002
▁posp	-14003
▁post	-14004
▁uhog	-14005
Isauli	-14006
mabuti	-14007
upasay	-14008
utumba	-14009
▁Kurib	-14010
▁Sibil	-14011
▁aaliw	-14012
▁Kadera	-14013
▁Sungay	-14014
▁aaruga	-14015
▁bantog	-14016
▁garote	-14017
▁kuneho	-14018
▁maihah	-14019
aglaruan	-14020
▁Iginawa	-14021
▁Kuribar	-14022
▁Pahirin	-14023
▁Sibulan	-14024
▁Soliman	-14025
▁Taraban	-14026
▁aksyong	-14027
▁banyaga	-14028
▁beywang	-14029
▁ilalaot	-14030
▁inaruga	-14031
▁inipong	-14032
▁itinaas	-14033
▁konting	-14034
▁lamping	-14035
▁magwika	-14036
▁naaaliw	-14037
▁posporo	-14038
▁posteng	-14039
▁tuhugin	-14040
▁umaaliw	-14041
▁uusbong	-14042
▁yuyukod	-14043
Nagdadala	-14044
aligtaran	-14045
▁Bagobong	-14046
▁Gampanan	-14047
▁Malayari	-14048
▁Manobong	-14049
▁Palendag	-14050
▁Pasyahan	-14051
▁Sambahin	-14052
▁Sumungaw	-14053
▁TUMINGIN	-14054
▁Tagbusan	-14055
▁Tahanang	-14056
▁Tinikman	-14057
▁Tsinelas	-14058
▁Turingan	-14059
▁Villalon	-14060
▁aaliwing	-14061
▁alpabeto	-14062
▁alpombra	-14063
▁anyayang	-14064
▁babangon	-14065
▁bagsakan	-14066
▁banyusan	-14067
▁bibitaya	-14068
▁bikolano	-14069
▁bilugang	-14070
▁binugbog	-14071
▁bumulwak	-14072
▁daratnin	-14073
▁datapuwa	-14074
▁dinadaya	-14075
▁dinungaw	-14076
▁dumarapo	-14077
▁dumungaw	-14078
▁dungawan	-14079
▁gamlayan	-14080
▁ginigiba	-14081
▁ginigiik	-14082
▁gisingin	-14083
▁gumigiik	-14084
▁guwapong	-14085
▁hihigang	-14086
▁himlayan	-14087
▁humihimp	-14088
▁ihinagis	-14089
▁ikukuwit	-14090
▁inaninaw	-14091
▁ipaaabot	-14092
▁ipalasap	-14093
▁ipinagpa	-14094
▁ipinakuk	-14095
▁ipininid	-14096
▁isasagot	-14097
▁isisipot	-14098
▁istakato	-14099
AYS	-14100
AYAN	-14101
Kayb	-14102
ance	-14103
ancy	-14104
ayua	-14105
krip	-14106
ribu	-14107
yido	-14108
▁112	-14109
▁DAY	-14110
▁Enk	-14111
▁VII	-14112
aharl	-14113
kinak	-14114
kubli	-14115
pekto	-14116
pinda	-14117
pokus	-14118
ripis	-14119
ukdok	-14120
ulast	-14121
wawal	-14122
▁Cast	-14123
▁Hayu	-14124
▁birh	-14125
▁iism	-14126
▁nota	-14127
Iwawal	-14128
abigin	-14129
agrado	-14130
apinda	-14131
elyido	-14132
enancy	-14133
ikipus	-14134
ikubli	-14135
itinda	-14136
itngit	-14137
magtat	-14138
rocket	-14139
▁Enero	-14140
▁Reyno	-14141
▁Titil	-14142
▁Umism	-14143
▁dampi	-14144
▁dance	-14145
▁gatol	-14146
▁meron	-14147
▁pinda	-14148
▁umani	-14149
▁wawal	-14150
AYSAYAN	-14151
Masarap	-14152
aharlik	-14153
akripis	-14154
ayukdok	-14155
busabos	-14156
lumakad	-14157
palahil	-14158
paninda	-14159
talahin	-14160
umbrado	-14161
▁Iskrip	-14162
▁Nainip	-14163
▁Napipi	-14164
▁aankin	-14165
▁birhen	-14166
▁epekto	-14167
▁ibenta	-14168
▁kakibu	-14169
▁panser	-14170
▁patani	-14171
▁rocket	-14172
▁simpok	-14173
▁titser	-14174
▁trenta	-14175
Kaybigat	-14176
Kayganda	-14177
atubalan	-14178
ibitawan	-14179
ikipusag	-14180
isilbing	-14181
marahang	-14182
▁DAYUHAN	-14183
▁Umismid	-14184
▁humatol	-14185
▁kalayua	-14186
▁nagngit	-14187
▁naiinip	-14188
▁popokus	-14189
▁tatanod	-14190
▁tenancy	-14191
Iwawalsik	-14192
Magsikain	-14193
Tatabigin	-14194
akripisyo	-14195
atubalani	-14196
atubiling	-14197
kinakapos	-14198
ulastugan	-14199
uklasang	-14200
▁mahahar	-14201
▁pasanin	-14202
▁pinasis	-14203
▁pinupug	-14204
umbalikan	-14205
▁Filipina	-14206
▁Filipino	-14207
▁aankinin	-14208
▁ampunang	-14209
▁ibinawal	-14210
▁ititigil	-14211
▁ititikom	-14212
▁itutulad	-14213
▁itutulak	-14214
▁itutuloy	-14215
▁iwiwisik	-14216
▁kabinata	-14217
▁kabuhuan	-14218
▁kadaklan	-14219
▁kadalasa	-14220
[...]
