<unk>	0
<s>	0
</s>	0
ng	-0
ang	-1
an	-2
▁n	-3
▁s	-4
ag	-5
▁m	-6
at	-7
al	-8
ay	-9
in	-10
▁k	-11
▁p	-12
ak	-13
▁ng	-14
▁sa	-15
▁ang	-16
▁na	-17
it	-18
am	-19
il	-20
ing	-21
as	-22
▁b	-23
aw	-24
ong	-25
ah	-26
ap	-27
ar	-28
▁t	-29
▁l	-30
iy	-31
ab	-32
▁A	-33
▁d	-34
▁at	-35
ul	-36
is	-37
ig	-38
ga	-39
▁ay	-40
um	-41
▁mga	-42
▁h	-43
un	-44
on	-45
▁N	-46
▁S	-47
ik	-48
▁M	-49
▁pag	-50
ib	-51
iya	-52
ung	-53
▁I	-54
▁P	-55
▁K	-56
▁Ang	-57
▁nag	-58
▁g	-59
▁kan	-60
ip	-61
ad	-62
▁mag	-63
ut	-64
▁B	-65
us	-66
ito	-67
uh	-68
▁si	-69
▁ni	-70
ala	-71
▁D	-72
▁is	-73
and	-74
im	-75
..	-76
▁L	-77
yang	-78
ilang	-79
▁T	-80
ila	-81
ind	-82
uw	-83
up	-84
▁"	-85
▁Sa	-86
os	-87
ub	-88
alak	-89
▁ak	-90
iw	-91
uk	-92
▁nang	-93
awa	-94
▁H	-95
ot	-96
▁kanyang	-97
▁ka	-98
aya	-99
indi	-100
▁isang	-101
alang	-102
ug	-103
og	-104
▁may	-105
ita	-106
ayan	-107
▁ito	-108
ir	-109
ih	-110
▁niya	-111
iyang	-112
▁ko	-113
▁w	-114
▁mo	-115
▁At	-116
▁siya	-117
id	-118
▁(	-119
ayo	-120
▁nak	-121
▁in	-122
▁pin	-123
ok	-124
▁ta	-125
▁mat	-126
amang	-127
▁ib	-128
ur	-129
▁pan	-130
▁iy	-131
▁pa	-132
▁mal	-133
▁an	-134
ahan	-135
to	-136
ari	-137
apat	-138
▁hindi	-139
ya	-140
▁mak	-141
▁r	-142
▁nam	-143
angg	-144
oy	-145
▁dal	-146
▁Nag	-147
ol	-148
aan	-149
uhay	-150
or	-151
...	-152
▁pang	-153
oon	-154
ibig	-155
ahat	-156
▁sin	-157
en	-158
er	-159
aga	-160
ata	-161
ula	-162
yo	-163
▁pagk	-164
ama	-165
od	-166
▁kung	-167
aman	-168
sa	-169
araw	-170
▁kas	-171
aba	-172
▁man	-173
▁kal	-174
ating	-175
▁ma	-176
und	-177
anda	-178
abi	-179
▁kay	-180
▁ako	-181
▁kat	-182
ipin	-183
aka	-184
agk	-185
▁mas	-186
▁Ng	-187
."	-188
ant	-189
▁lum	-190
▁tao	-191
▁G	-192
▁par	-193
▁di	-194
▁lamang	-195
▁lahat	-196
▁kah	-197
▁kanilang	-198
awang	-199
andang	-200
▁tin	-201
▁In	-202
ahil	-203
alan	-204
alit	-205
amat	-206
unt	-207
▁mah	-208
▁sila	-209
▁niyang	-210
▁siyang	-211
ayon	-212
▁kap	-213
▁it	-214
▁mab	-215
upang	-216
▁buhay	-217
▁mar	-218
unit	-219
▁anak	-220
▁araw	-221
▁al	-222
▁kab	-223
▁pal	-224
▁Kung	-225
▁aking	-226
▁e	-227
▁kong	-228
ika	-229
akas	-230
▁iyong	-231
▁upang	-232
▁o	-233
sang	-234
▁din	-235
▁lalak	-236
ana	-237
upa	-238
▁rin	-239
▁um	-240
▁Nang	-241
uan	-242
▁Na	-243
▁gin	-244
▁nat	-245
▁tul	-246
amp	-247
▁naman	-248
akit	-249
▁bin	-250
▁nap	-251
ob	-252
ili	-253
▁walang	-254
▁map	-255
▁nila	-256
▁W	-257
▁Ay	-258
▁bat	-259
▁lang	-260
amb	-261
▁ik	-262
▁pat	-263
es	-264
▁baba	-265
atu	-266
ina	-267
ali	-268
ungk	-269
▁Mag	-270
▁bag	-271
.)	-272
aling	-273
▁C	-274
▁sum	-275
ayang	-276
alik	-277
▁magk	-278
ins	-279
▁May	-280
iwan	-281
▁Lam	-282
asa	-283
▁il	-284
▁bah	-285
ahon	-286
abang	-287
▁hin	-288
▁kam	-289
apit	-290
uno	-291
alim	-292
iling	-293
yan	-294
asawa	-295
▁lupa	-296
▁Pag	-297
▁kar	-298
int	-299
aring	-300
▁U	-301
aming	-302
▁Hindi	-303
uti	-304
uwag	-305
▁bayan	-306
awan	-307
▁babae	-308
alag	-309
yong	-310
ulang	-311
▁Isang	-312
ha	-313
▁Ag	-314
agat	-315
ulan	-316
▁Pil	-317
ihan	-318
iyos	-319
▁pus	-320
agkat	-321
▁sal	-322
angk	-323
tong	-324
▁dahil	-325
▁nito	-326
▁wala	-327
awag	-328
▁pam	-329
▁tum	-330
inig	-331
yon	-332
▁nin	-333
▁kaya	-334
anggang	-335
ulo	-336
▁Pilipin	-337
el	-338
uhan	-339
lak	-340
▁mong	-341
apag	-342
uha	-343
uwa	-344
▁lalaki	-345
em	-346
▁sar	-347
▁dum	-348
▁hal	-349
arang	-350
asal	-351
uto	-352
▁nagp	-353
▁R	-354
arap	-355
▁Al	-356
▁mang	-357
▁tag	-358
▁pinag	-359
,"	-360
▁nags	-361
▁pagl	-362
oob	-363
ahal	-364
▁mul	-365
▁ating	-366
▁langit	-367
aban	-368
itan	-369
▁Ngunit	-370
ko	-371
big	-372
▁Sin	-373
▁dalawang	-374
▁y	-375
▁kum	-376
▁ngunit	-377
ain	-378
aran	-379
▁malak	-380
ro	-381
atan	-382
unang	-383
ipag	-384
▁nga	-385
apatid	-386
▁Si	-387
▁Ito	-388
apang	-389
▁kanya	-390
▁pak	-391
▁panahon	-392
▁O	-393
irap	-394
ungan	-395
▁Il	-396
anap	-397
▁pags	-398
▁itong	-399
uong	-400
▁ina	-401
▁kin	-402
▁nagt	-403
▁F	-404
bay	-405
▁po	-406
▁iba	-407
▁Y	-408
ugan	-409
▁puso	-410
ulay	-411
▁bul	-412
▁tat	-413
▁wika	-414
abas	-415
▁nagk	-416
▁Pin	-417
▁iyo	-418
▁lag	-419
▁nar	-420
ta	-421
▁nas	-422
▁dalaga	-423
igl	-424
pik	-425
▁Nak	-426
▁bahay	-427
▁naging	-428
apos	-429
▁hang	-430
▁pagt	-431
oong	-432
unga	-433
▁ama	-434
▁buw	-435
unong	-436
▁Datu	-437
▁asawa	-438
agang	-439
▁Agat	-440
▁hanggang	-441
atag	-442
▁dito	-443
▁para	-444
▁E	-445
mam	-446
na	-447
▁mad	-448
▁ikaw	-449
alo	-450
amit	-451
asan	-452
awin	-453
ulog	-454
▁hum	-455
▁nil	-456
▁silang	-457
tan	-458
ust	-459
isip	-460
rins	-461
▁sag	-462
ulong	-463
▁J	-464
▁ba	-465
▁Bat	-466
▁kuw	-467
▁sab	-468
▁sap	-469
utan	-470
▁isa	-471
▁kag	-472
amd	-473
▁Mar	-474
▁Mga	-475
▁bum	-476
▁kang	-477
ibigan	-478
▁ninyo	-479
isa	-480
▁nan	-481
ayong	-482
uting	-483
▁nagl	-484
anga	-485
awat	-486
hala	-487
usap	-488
▁ipin	-489
oro	-490
una	-491
▁An	-492
ubig	-493
aklak	-494
▁gum	-495
▁pagh	-496
▁buong	-497
bab	-498
alin	-499
itong	-500
iwanag	-501
▁ngayon	-502
ami	-503
kas	-504
awak	-505
▁Lum	-506
▁pagp	-507
iwa	-508
▁da	-509
ayop	-510
igaw	-511
▁Ako	-512
▁nal	-513
ahing	-514
sin	-515
▁bal	-516
▁kaw	-517
ahang	-518
undok	-519
▁noon	-520
▁tang	-521
▁nilang	-522
!"	-523
▁Sum	-524
▁akin	-525
▁unang	-526
▁parang	-527
iyak	-528
▁Man	-529
arian	-530
atay	-531
ilim	-532
▁Mak	-533
▁nagh	-534
▁Diyos	-535
▁taong	-536
ays	-537
▁Ik	-538
▁Tin	-539
▁Siya	-540
▁hayop	-541
wa	-542
abaw	-543
▁pum	-544
▁tun	-545
▁nasa	-546
▁puno	-547
▁dagat	-548
▁kamay	-549
▁Walang	-550
▁Pilipino	-551
awit	-552
ihin	-553
iging	-554
▁lakas	-555
dig	-556
▁tan	-557
iwang	-558
▁sinabi	-559
ud	-560
alig	-561
▁tubig	-562
▁Pagkat	-563
▁–	-564
yay	-565
ungo	-566
▁hig	-567
abing	-568
▁datu	-569
▁epik	-570
▁mata	-571
▁Dahil	-572
▁kapatid	-573
...!	-574
ingg	-575
unod	-576
▁Kas	-577
▁mam	-578
igdig	-579
▁iyon	-580
▁Nagong	-581
?"	-582
ati	-583
long	-584
along	-585
angan	-586
▁Koro	-587
uri	-588
▁Bin	-589
▁kayo	-590
▁bundok	-591
agi	-592
ann	-593
esa	-594
▁Di	-595
ikan	-596
▁magandang	-597
lo	-598
ma	-599
uy	-600
aal	-601
▁Fa	-602
agad	-603
agal	-604
oyan	-605
▁bawat	-606
annoyan	-607
▁maging	-608
ago	-609
ump	-610
▁buk	-611
▁nab	-612
atang	-613
▁tayo	-614
▁Faust	-615
▁pagkak	-616
▁Cannoyan	-617
▁bulaklak	-618
eng	-619
lad	-620
▁Ip	-621
alas	-622
ipad	-623
insan	-624
▁loob	-625
▁bagay	-626
▁mahal	-627
ano	-628
usa	-629
ayaw	-630
▁pap	-631
▁Huwag	-632
▁panan	-633
▁Faustus	-634
▁Ya	-635
▁gan	-636
▁lug	-637
▁Kaya	-638
unting	-639
▁maraming	-640
da	-641
▁ap	-642
unta	-643
agawa	-644
▁bunga	-645
▁kahit	-646
▁kaharian	-647
lay	-648
unan	-649
ungkot	-650
▁ibang	-651
▁tunay	-652
tas	-653
▁or	-654
▁ban	-655
▁mags	-656
amatay	-657
▁natin	-658
▁tinig	-659
▁lalaking	-660
Ay	-661
agan	-662
▁sarili	-663
▁Bathala	-664
▁dumating	-665
▁i	-666
ubo	-667
▁ya	-668
akam	-669
▁naw	-670
aroon	-671
▁ibon	-672
▁pagd	-673
▁ilang	-674
▁kuwen	-675
▁nakita	-676
agp	-677
ako	-678
nan	-679
▁bato	-680
▁koro	-681
▁muli	-682
▁buwan	-683
▁kulay	-684
▁lugar	-685
arating	-686
ilis	-687
uloy	-688
usan	-689
▁ulo	-690
ilangan	-691
▁dalawa	-692
▁daigdig	-693
",	-694
AN	-695
ira	-696
olo	-697
uro	-698
▁ul	-699
uran	-700
▁Nam	-701
▁min	-702
▁tungk	-703
om	-704
▁Ib	-705
akot	-706
alita	-707
isang	-708
▁hari	-709
▁kita	-710
▁nagd	-711
▁sabi	-712
▁prins	-713
▁tulad	-714
▁inyong	-715
aki	-716
amin	-717
apal	-718
uhat	-719
iting	-720
▁Wala	-721
▁ilog	-722
▁akong	-723
ks	-724
oo	-725
ahi	-726
ent	-727
imp	-728
uin	-729
ahay	-730
iran	-731
▁lik	-732
ikita	-733
▁Tula	-734
▁ibig	-735
▁nagb	-736
▁diyos	-737
ukha	-738
ulad	-739
ulat	-740
▁nah	-741
agong	-742
▁magulang	-743
undi	-744
▁Kal	-745
▁gabi	-746
▁katawan	-747
mp	-748
ern	-749
ian	-750
pak	-751
▁Mas	-752
▁sak	-753
▁Yaong	-754
▁huwag	-755
ed	-756
eg	-757
ags	-758
ara	-759
aso	-760
imb	-761
ilag	-762
▁maa	-763
▁Inang	-764
▁dapat	-765
▁nakat	-766
▁tahan	-767
▁laging	-768
▁makita	-769
han	-770
itin	-771
▁Mab	-772
▁bak	-773
ilala	-774
▁doon	-775
▁mula	-776
ahanap	-777
▁pamam	-778
▁binata	-779
▁magkak	-780
▁nitong	-781
▁malaking	-782
▁sapagkat	-783
▁matandang	-784
so	-785
akb	-786
amo	-787
apa	-788
ero	-789
yar	-790
alay	-791
▁Hin	-792
▁sas	-793
▁magb	-794
▁magt	-795
▁sina	-796
▁habang	-797
▁hangin	-798
▁kasama	-799
▁muling	-800
▁tr	-801
agka	-802
undo	-803
▁Kay	-804
▁Mad	-805
▁pab	-806
▁pas	-807
igaya	-808
irang	-809
▁gawa	-810
▁oras	-811
▁pagmam	-812
do	-813
api	-814
aro	-815
hin	-816
ahim	-817
alis	-818
isig	-819
▁ano	-820
alaki	-821
▁itin	-822
anggol	-823
ubalit	-824
unti	-825
▁Mat	-826
▁git	-827
▁lib	-828
▁sim	-829
akain	-830
itang	-831
ongan	-832
iglang	-833
▁napak	-834
▁yaong	-835
ugo	-836
uli	-837
▁Ka	-838
apak	-839
▁tal	-840
iwala	-841
▁epiko	-842
▁palak	-843
▁pagkain	-844
la	-845
upo	-846
alat	-847
apan	-848
igan	-849
ikha	-850
utang	-851
irahan	-852
▁kundi	-853
▁kanila	-854
▁kaibigan	-855
▁Pilipinas	-856
man	-857
▁Ar	-858
ahin	-859
alaw	-860
hang	-861
igat	-862
▁Tum	-863
▁dak	-864
Ang	-865
ango	-866
asak	-867
▁sul	-868
▁sus	-869
aysay	-870
iwata	-871
▁bata	-872
▁ring	-873
▁mukha	-874
▁pagka	-875
▁Sinabi	-876
▁halaman	-877
▁kuwento	-878
▁liwanag	-879
uga	-880
ilya	-881
ubos	-882
▁gag	-883
asyon	-884
▁diwa	-885
▁isip	-886
▁sand	-887
alaman	-888
arapat	-889
atawag	-890
ibigay	-891
▁Binuk	-892
▁1	-893
▁[	-894
dib	-895
ipe	-896
law	-897
agot	-898
aral	-899
ilan	-900
▁dib	-901
ahong	-902
ingin	-903
alakbay	-904
▁Binukot	-905
▁Namongan	-906
uwi	-907
▁ip	-908
abay	-909
apon	-910
away	-911
inga	-912
ubat	-913
uluwa	-914
▁apoy	-915
▁isin	-916
▁magp	-917
▁nais	-918
anggap	-919
▁alamat	-920
▁dibdib	-921
▁ginawa	-922
▁punong	-923
▁pinakam	-924
▁sariling	-925
io	-926
emb	-927
▁It	-928
emon	-929
ilig	-930
ilos	-931
sing	-932
▁Tul	-933
uling	-934
▁Ikaw	-935
▁pagb	-936
▁taga	-937
alapit	-938
▁higit	-939
▁manok	-940
▁noong	-941
▁mabuti	-942
▁tungkol	-943
▁prinsesa	-944
hh	-945
pan	-946
san	-947
abis	-948
ante	-949
iliw	-950
▁Kat	-951
▁Nar	-952
▁bit	-953
▁lip	-954
ising	-955
▁kami	-956
▁pook	-957
▁saan	-958
▁gitna	-959
▁bagong	-960
▁bahagi	-961
▁tatlong	-962
ac	-963
iba	-964
akad	-965
amis	-966
ikit	-967
ipas	-968
isan	-969
ulot	-970
unin	-971
▁Jos	-972
▁ini	-973
▁pil	-974
ibang	-975
▁Bant	-976
▁Mari	-977
▁Nagp	-978
▁pagg	-979
bigkas	-980
▁magag	-981
▁bilang	-982
▁maganda	-983
▁tahanan	-984
et	-985
dan	-986
▁Ig	-987
anay	-988
yari	-989
▁Hum	-990
▁Kin	-991
▁suk	-992
awala	-993
ubong	-994
▁awit	-995
▁iyan	-996
▁nagm	-997
▁pala	-998
▁Noong	-999
▁bakit	-1000
▁galit	-1001
▁kamat	-1002
alagang	-1003
▁malakas	-1004
▁Pagkatapos	-1005
yu	-1006
akan	-1007
ikat	-1008
▁Dal	-1009
▁Don	-1010
▁Kah	-1011
▁big	-1012
anong	-1013
ataas	-1014
ayaan	-1015
ikang	-1016
ingan	-1017
▁ding	-1018
▁luha	-1019
▁taon	-1020
ahimik	-1021
▁Lahat	-1022
▁gubat	-1023
▁kapag	-1024
▁karan	-1025
▁tauhan	-1026
re	-1027
▁a	-1028
ibo	-1029
▁Un	-1030
apas	-1031
lado	-1032
pang	-1033
▁Kan	-1034
ampas	-1035
▁Agyu	-1036
▁Jose	-1037
yayari	-1038
▁hirap	-1039
▁ibong	-1040
▁nayon	-1041
yarihan	-1042
▁salita	-1043
▁tulang	-1044
▁kaluluwa	-1045
ba	-1046
las	-1047
▁Am	-1048
▁Ri	-1049
akay	-1050
anak	-1051
anta	-1052
ibat	-1053
ilid	-1054
uman	-1055
utom	-1056
▁ent	-1057
▁san	-1058
▁uri	-1059
araan	-1060
imang	-1061
nayan	-1062
uhang	-1063
▁ikin	-1064
▁mand	-1065
▁sino	-1066
▁tila	-1067
ablado	-1068
uwaang	-1069
▁Prins	-1070
▁aming	-1071
▁palad	-1072
alaking	-1073
▁tulong	-1074
▁kawayan	-1075
▁entablado	-1076
iit	-1077
lan	-1078
lap	-1079
yat	-1080
ahas	-1081
alam	-1082
ihim	-1083
tila	-1084
▁Dum	-1085
▁bab	-1086
▁tuw	-1087
ugali	-1088
▁Ines	-1089
▁Ipin	-1090
▁sana	-1091
agitan	-1092
▁Kapag	-1093
▁bangk	-1094
▁matat	-1095
▁palay	-1096
▁dating	-1097
▁lalong	-1098
▁pagkat	-1099
▁tanong	-1100
▁Tuwaang	-1101
▁biglang	-1102
▁maaaring	-1103
▁mabuting	-1104
ek	-1105
op	-1106
ra	-1107
▁=	-1108
▁V	-1109
ist	-1110
zal	-1111
ahoy	-1112
anao	-1113
dang	-1114
igid	-1115
ingi	-1116
utos	-1117
▁Mah	-1118
▁Mal	-1119
▁kul	-1120
▁lin	-1121
▁Pang	-1122
▁damd	-1123
▁ipag	-1124
▁magl	-1125
agalog	-1126
▁Rizal	-1127
▁gayon	-1128
▁ginto	-1129
▁kahoy	-1130
▁katut	-1131
▁mundo	-1132
▁nakak	-1133
▁-	-1134
isi	-1135
ngk	-1136
ono	-1137
▁Is	-1138
abot	-1139
agin	-1140
ubuk	-1141
uyan	-1142
▁Bis	-1143
▁Nal	-1144
▁pul	-1145
▁sad	-1146
bigay	-1147
ihang	-1148
imula	-1149
▁Sila	-1150
▁agad	-1151
▁magd	-1152
arawan	-1153
▁kapwa	-1154
▁laban	-1155
▁nanin	-1156
▁sibat	-1157
▁tapat	-1158
alitang	-1159
▁Nakita	-1160
▁kapang	-1161
▁marami	-1162
▁katulad	-1163
▁pamamagitan	-1164
agl	-1165
iti	-1166
loh	-1167
res	-1168
tik	-1169
uyo	-1170
▁Lu	-1171
igla	-1172
inis	-1173
uhin	-1174
▁Din	-1175
▁Nat	-1176
alana	-1177
▁Ayon	-1178
▁Mula	-1179
▁buto	-1180
▁pamp	-1181
alakas	-1182
anggam	-1183
itoloh	-1184
ugtong	-1185
▁ganda	-1186
▁pagbab	-1187
▁matanda	-1188
▁pangalan	-1189
log	-1190
ugt	-1191
alon	-1192
igil	-1193
uang	-1194
usto	-1195
utin	-1196
▁Kab	-1197
▁Lab	-1198
▁paa	-1199
▁pun	-1200
alimb	-1201
angal	-1202
▁Araw	-1203
▁Nagk	-1204
▁ilaw	-1205
▁kasi	-1206
▁nina	-1207
▁saka	-1208
▁Bayan	-1209
▁patay	-1210
▁talim	-1211
▁Haring	-1212
▁Minsan	-1213
▁Tagalog	-1214
▁babaing	-1215
▁paligid	-1216
▁Bantugan	-1217
▁pagmamahal	-1218
ey	-1219
agd	-1220
ens	-1221
uko	-1222
ura	-1223
▁Ha	-1224
▁ih	-1225
agay	-1226
anan	-1227
asyo	-1228
iyan	-1229
▁ham	-1230
▁uma	-1231
Hindi	-1232
amant	-1233
▁Ibig	-1234
▁magh	-1235
▁pati	-1236
▁pulo	-1237
▁sing	-1238
emonyo	-1239
irinig	-1240
▁sagot	-1241
alangin	-1242
aysayan	-1243
▁Alamat	-1244
▁Bisaya	-1245
▁minsan	-1246
▁gintong	-1247
▁malapit	-1248
▁munting	-1249
▁tanging	-1250
▁Hanggang	-1251
▁masamang	-1252
▁panahong	-1253
▁kamatayan	-1254
lat	-1255
obo	-1256
uni	-1257
▁Dr	-1258
▁Ma	-1259
▁Um	-1260
ipon	-1261
orot	-1262
uwan	-1263
▁Ano	-1264
▁Gin	-1265
▁Ina	-1266
▁Isa	-1267
▁Par	-1268
▁pay	-1269
▁raw	-1270
andog	-1271
onood	-1272
▁Doon	-1273
▁Mind	-1274
▁Saka	-1275
▁anyo	-1276
▁tula	-1277
abigat	-1278
▁Maria	-1279
▁bibig	-1280
▁inang	-1281
▁pangk	-1282
▁sakit	-1283
▁diwata	-1284
▁lupain	-1285
▁namang	-1286
▁Kastila	-1287
▁tandang	-1288
▁Tulalang	-1289
po	-1290
▁Ak	-1291
amot	-1292
anaw	-1293
ipit	-1294
ista	-1295
lang	-1296
upan	-1297
upit	-1298
▁Bid	-1299
▁Kap	-1300
▁Nab	-1301
asama	-1302
igyan	-1303
intay	-1304
unlad	-1305
uring	-1306
▁dugo	-1307
▁ibin	-1308
▁lalo	-1309
▁manl	-1310
alaala	-1311
alabas	-1312
atuloy	-1313
▁Bakit	-1314
▁Kahit	-1315
▁dilag	-1316
▁kasal	-1317
▁labis	-1318
▁makak	-1319
▁natut	-1320
▁puting	-1321
▁epikong	-1322
ros	-1323
▁as	-1324
abag	-1325
ahah	-1326
ardo	-1327
arin	-1328
ilog	-1329
unog	-1330
▁Kam	-1331
▁eks	-1332
▁mus	-1333
▁Ilog	-1334
▁alam	-1335
▁baka	-1336
▁inyo	-1337
▁pamb	-1338
▁pana	-1339
▁Upang	-1340
▁kabab	-1341
▁bayang	-1342
▁malayo	-1343
▁Cabigat	-1344
▁mahirap	-1345
▁manonood	-1346
▁pangarap	-1347
AT	-1348
ep	-1349
hi	-1350
uo	-1351
ado	-1352
aho	-1353
end	-1354
▁Bi	-1355
iwat	-1356
roon	-1357
ugat	-1358
▁Gan	-1359
▁Ind	-1360
▁Nen	-1361
▁Tag	-1362
▁buh	-1363
▁but	-1364
▁him	-1365
▁tak	-1366
akyat	-1367
mulan	-1368
▁Nags	-1369
▁Puti	-1370
▁Solo	-1371
▁bago	-1372
▁daan	-1373
▁lagi	-1374
▁magm	-1375
▁naka	-1376
▁rito	-1377
▁samp	-1378
iyahan	-1379
ungang	-1380
▁bansa	-1381
▁mahiw	-1382
▁nakab	-1383
▁pakik	-1384
▁pamum	-1385
▁umaga	-1386
embaran	-1387
▁Malana	-1388
▁batang	-1389
▁maliit	-1390
ilangang	-1391
▁Langgam	-1392
▁mamatay	-1393
▁namatay	-1394
▁pampang	-1395
▁Prinsipe	-1396
▁magiging	-1397
▁nagiging	-1398
NG	-1399
if	-1400
awi	-1401
erp	-1402
ers	-1403
hik	-1404
amig	-1405
ilin	-1406
ilip	-1407
ulit	-1408
▁Bum	-1409
▁Sar	-1410
▁biy	-1411
▁kad	-1412
▁sam	-1413
▁sis	-1414
▁tut	-1415
ansin	-1416
asari	-1417
umang	-1418
▁Bern	-1419
▁dala	-1420
▁inil	-1421
▁kamp	-1422
▁lahi	-1423
▁muna	-1424
▁tabi	-1425
aganda	-1426
aharap	-1427
ilipad	-1428
isipan	-1429
▁Manok	-1430
▁gawin	-1431
▁nakal	-1432
▁panin	-1433
▁Labtik	-1434
▁bituin	-1435
▁buwaya	-1436
▁gumawa	-1437
▁ligaya	-1438
▁malaki	-1439
▁nating	-1440
▁piling	-1441
▁taglay	-1442
▁Subalit	-1443
▁palasyo	-1444
▁sanggol	-1445
▁tinawag	-1446
▁Bembaran	-1447
▁Bernardo	-1448
▁Bidasari	-1449
▁damdamin	-1450
▁nangyari	-1451
▁tinatawag	-1452
▁kapangyarihan	-1453
An	-1454
dal	-1455
pis	-1456
uot	-1457
▁Oh	-1458
ayos	-1459
ilaw	-1460
uwal	-1461
▁Ros	-1462
▁bay	-1463
▁imp	-1464
▁kak	-1465
▁niy	-1466
aging	-1467
antay	-1468
uwang	-1469
▁bang	-1470
▁engk	-1471
▁sund	-1472
ubuhay	-1473
▁Donya	-1474
▁Sulay	-1475
▁bukid	-1476
▁mapag	-1477
▁sinas	-1478
ulungan	-1479
▁Igorot	-1480
▁bayani	-1481
▁naming	-1482
▁pagpap	-1483
▁paraan	-1484
▁higante	-1485
▁malaman	-1486
itolohiya	-1487
▁Sulayman	-1488
▁dalagang	-1489
▁ag	-1490
atid	-1491
iyam	-1492
ulin	-1493
▁Pal	-1494
▁per	-1495
▁put	-1496
▁tuk	-1497
amdam	-1498
ooban	-1499
ugang	-1500
unduk	-1501
▁Nagm	-1502
▁Ting	-1503
▁lawa	-1504
abalik	-1505
inggan	-1506
ulugan	-1507
▁Ilang	-1508
▁buhok	-1509
▁harap	-1510
▁hawak	-1511
▁sigaw	-1512
▁tawag	-1513
abayang	-1514
▁Madali	-1515
▁Samant	-1516
▁kaaway	-1517
▁palaka	-1518
▁kasalan	-1519
▁matatag	-1520
▁sadyang	-1521
▁tahimik	-1522
▁singsing	-1523
▁kailangan	-1524
▁pagkakata	-1525
▁mahiwagang	-1526
ti	-1527
ATA	-1528
ada	-1529
uag	-1530
way	-1531
anti	-1532
asin	-1533
erno	-1534
ilit	-1535
itik	-1536
mang	-1537
tang	-1538
▁Ban	-1539
▁Buk	-1540
▁Min	-1541
▁Nap	-1542
▁Sap	-1543
▁piy	-1544
abasa	-1545
oroon	-1546
pisod	-1547
▁TATA	-1548
▁apat	-1549
▁aral	-1550
▁ayaw	-1551
▁inih	-1552
▁laki	-1553
▁simb	-1554
agamit	-1555
ahayag	-1556
▁Biuag	-1557
▁gutom	-1558
▁halos	-1559
▁linya	-1560
▁tangh	-1561
▁tumut	-1562
▁Naging	-1563
▁Neneng	-1564
▁episod	-1565
▁katang	-1566
▁pagsas	-1567
▁pusong	-1568
alimbawa	-1569
▁bakuran	-1570
▁kayaman	-1571
▁nangang	-1572
▁subalit	-1573
▁pinagmulan	-1574
▁paglalakbay	-1575
st	-1576
ola	-1577
uel	-1578
▁Gr	-1579
▁Ni	-1580
adya	-1581
amba	-1582
apay	-1583
ayag	-1584
igin	-1585
igma	-1586
pres	-1587
uhod	-1588
wang	-1589
▁Ama	-1590
▁Bal	-1591
▁bas	-1592
ahala	-1593
akila	-1594
ining	-1595
umpay	-1596
usang	-1597
▁Dama	-1598
▁Miya	-1599
▁Nagt	-1600
▁Pagd	-1601
▁ulap	-1602
abihin	-1603
ayahan	-1604
▁balat	-1605
▁hanap	-1606
▁kaysa	-1607
▁pilak	-1608
▁Habang	-1609
▁batong	-1610
▁ilalim	-1611
▁lumaki	-1612
▁pabula	-1613
▁pakpak	-1614
▁Kalabaw	-1615
▁bumalik	-1616
▁gagawin	-1617
▁mabilis	-1618
▁kabilang	-1619
▁kaniyang	-1620
▁Pagbigkas	-1621
▁pagdating	-1622
▁magkakapatid	-1623
AR	-1624
ec	-1625
din	-1626
ena	-1627
hal	-1628
pir	-1629
uon	-1630
▁de	-1631
Kung	-1632
aham	-1633
atak	-1634
ayak	-1635
itim	-1636
puan	-1637
ukol	-1638
▁Bul	-1639
▁nai	-1640
▁sig	-1641
▁usa	-1642
abait	-1643
alino	-1644
amaan	-1645
anggi	-1646
bayan	-1647
ikain	-1648
indig	-1649
ingat	-1650
▁Itin	-1651
▁Pagk	-1652
▁isda	-1653
amihan	-1654
apatay	-1655
▁Aling	-1656
▁Itong	-1657
▁anong	-1658
▁buhat	-1659
▁kapal	-1660
▁likod	-1661
▁magka	-1662
▁masas	-1663
▁nakik	-1664
▁sanga	-1665
amdaman	-1666
ihintay	-1667
▁gabing	-1668
▁nagpap	-1669
▁nagsis	-1670
▁ninuno	-1671
▁paglal	-1672
▁pinagt	-1673
▁engkant	-1674
▁lumakad	-1675
▁narinig	-1676
▁episodyo	-1677
▁masayang	-1678
▁salitang	-1679
▁kababayan	-1680
▁karaniwang	-1681
▁pangyayari	-1682
▁naninirahan	-1683
),	-1684
Ip	-1685
lks	-1686
mas	-1687
sik	-1688
wel	-1689
▁II	-1690
....	-1691
abit	-1692
adal	-1693
adap	-1694
akaw	-1695
alad	-1696
hati	-1697
igit	-1698
isag	-1699
ugon	-1700
umpa	-1701
usog	-1702
▁Dul	-1703
▁Luc	-1704
▁Pan	-1705
▁Pum	-1706
▁tig	-1707
akita	-1708
awing	-1709
laban	-1710
ungin	-1711
urang	-1712
utian	-1713
uyang	-1714
▁Isin	-1715
▁Magb	-1716
▁dusa	-1717
▁kina	-1718
▁ulan	-1719
akasal	-1720
amangk	-1721
amayan	-1722
atlong	-1723
iligaw	-1724
uhayan	-1725
usapan	-1726
utusan	-1727
▁Bugan	-1728
▁Mahal	-1729
▁batis	-1730
▁dahon	-1731
▁kawal	-1732
▁laman	-1733
▁namin	-1734
▁pulub	-1735
▁silid	-1736
▁tribo	-1737
▁yaman	-1738
arangan	-1739
presyon	-1740
▁dunong	-1741
▁mataas	-1742
▁nagbab	-1743
▁yaring	-1744
▁mabuhay	-1745
▁nasasak	-1746
▁dakilang	-1747
▁halamang	-1748
▁nakikita	-1749
▁simbahan	-1750
▁tulungan	-1751
▁Pagdating	-1752
▁kasaysayan	-1753
▁magagandang	-1754
aa	-1755
eh	-1756
▁u	-1757
ahe	-1758
apt	-1759
uns	-1760
▁Ab	-1761
▁Es	-1762
▁ab	-1763
abuk	-1764
alok	-1765
ibay	-1766
urol	-1767
▁Aga	-1768
▁And	-1769
▁Kum	-1770
▁kil	-1771
▁yum	-1772
adala	-1773
aptap	-1774
asang	-1775
igtas	-1776
isyon	-1777
ugtog	-1778
▁Dito	-1779
▁Pina	-1780
▁pand	-1781
▁roon	-1782
▁tupa	-1783
aginip	-1784
ahalan	-1785
orilya	-1786
upunta	-1787
▁Labaw	-1788
▁kagub	-1789
▁kilos	-1790
▁ngang	-1791
▁panit	-1792
▁takot	-1793
▁tiyak	-1794
atauhan	-1795
ibigang	-1796
iriwang	-1797
▁Maging	-1798
▁Manobo	-1799
▁Ngayon	-1800
▁Parang	-1801
▁dangal	-1802
▁galing	-1803
▁ipinag	-1804
▁kagand	-1805
▁lupang	-1806
▁tuwing	-1807
▁Mabilis	-1808
▁makapag	-1809
▁sabihin	-1810
▁makikita	-1811
▁marunong	-1812
IA	-1813
ANG	-1814
ikl	-1815
kan	-1816
ris	-1817
zon	-1818
▁Ap	-1819
▁gr	-1820
agas	-1821
akbo	-1822
aliw	-1823
ibon	-1824
ikal	-1825
iman	-1826
iong	-1827
otoo	-1828
usay	-1829
utok	-1830
▁Sal	-1831
▁gun	-1832
▁tor	-1833
▁umi	-1834
aalam	-1835
agsak	-1836
akwel	-1837
alian	-1838
andaw	-1839
itaas	-1840
▁Nasa	-1841
▁Para	-1842
▁Samp	-1843
▁baya	-1844
▁damo	-1845
▁init	-1846
▁lamb	-1847
▁land	-1848
▁pint	-1849
▁sala	-1850
andaan	-1851
usahan	-1852
▁Gayon	-1853
▁giliw	-1854
▁nawaw	-1855
▁pagod	-1856
ahangad	-1857
asalita	-1858
▁alipin	-1859
▁gawain	-1860
▁kaagad	-1861
▁kayong	-1862
▁limang	-1863
▁mandir	-1864
▁nawala	-1865
▁pagkab	-1866
▁salapi	-1867
▁tayong	-1868
ayanihan	-1869
▁Kanyang	-1870
▁Makisig	-1871
▁Tandang	-1872
▁dahilan	-1873
▁gorilya	-1874
▁mayroon	-1875
▁Dalawang	-1876
▁Maraming	-1877
▁binigyan	-1878
▁nilalang	-1879
▁kagubatan	-1880
▁pagbigkas	-1881
▁ekspresyon	-1882
).	-1883
MP	-1884
pa	-1885
▁'	-1886
▁2	-1887
▁c	-1888
MPO	-1889
aks	-1890
asy	-1891
era	-1892
iwi	-1893
lit	-1894
ora	-1895
uba	-1896
ARIA	-1897
Iput	-1898
abal	-1899
awid	-1900
ayun	-1901
ifer	-1902
iyon	-1903
ubog	-1904
utol	-1905
▁ika	-1906
▁lub	-1907
▁por	-1908
MPONG	-1909
atili	-1910
bahay	-1911
iliit	-1912
inang	-1913
islap	-1914
ngang	-1915
sakit	-1916
ugong	-1917
▁Agad	-1918
▁Bago	-1919
▁Iput	-1920
▁Mang	-1921
▁Nagb	-1922
▁Nagh	-1923
▁atin	-1924
▁gaya	-1925
▁kaka	-1926
▁pant	-1927
▁tuwa	-1928
▁utos	-1929
agpuan	-1930
ahinga	-1931
alakad	-1932
alakay	-1933
ayuhan	-1934
iyerno	-1935
▁Diwat	-1936
▁Gibon	-1937
▁MARIA	-1938
▁bigas	-1939
▁kalag	-1940
▁kalig	-1941
▁karun	-1942
▁lubos	-1943
▁minam	-1944
▁nakas	-1945
▁namum	-1946
▁sasak	-1947
▁sumis	-1948
angalan	-1949
arangay	-1950
asawang	-1951
untahan	-1952
▁IMPONG	-1953
▁Manuel	-1954
▁balang	-1955
▁diyosa	-1956
▁kumain	-1957
▁masama	-1958
▁masaya	-1959
▁naglal	-1960
▁pinagk	-1961
akasalan	-1962
arapatra	-1963
asalamat	-1964
▁Demonyo	-1965
▁Inahing	-1966
▁Lucifer	-1967
▁Maganda	-1968
▁bangkay	-1969
▁lumabas	-1970
▁nilikha	-1971
▁pamilya	-1972
▁Sumakwel	-1973
▁katutubo	-1974
▁makapang	-1975
▁maligaya	-1976
▁nagtagal	-1977
▁napansin	-1978
▁prinsipe	-1979
▁kayamanan	-1980
▁kuwentong	-1981
▁lumilipad	-1982
▁malungkot	-1983
▁Diwatandaw	-1984
▁kailangang	-1985
▁Indarapatra	-1986
▁pagkakataon	-1987
eo	-1988
mo	-1989
ANA	-1990
adh	-1991
duk	-1992
ida	-1993
iri	-1994
tod	-1995
tok	-1996
umb	-1997
uso	-1998
▁Ah	-1999
anib	-2000
anin	-2001
asok	-2002
ento	-2003
iisa	-2004
ikot	-2005
ingn	-2006
isin	-2007
iyas	-2008
▁Gag	-2009
▁Hal	-2010
▁Tam	-2011
▁dam	-2012
▁hap	-2013
▁lul	-2014
▁pah	-2015
▁una	-2016
Bakit	-2017
idlat	-2018
intas	-2019
▁aliw	-2020
▁nama	-2021
▁sama	-2022
ahanda	-2023
akbang	-2024
alagay	-2025
alitan	-2026
anggit	-2027
apatan	-2028
lakbay	-2029
▁Buhay	-2030
▁banal	-2031
▁bukas	-2032
▁burol	-2033
▁dilim	-2034
▁itlog	-2035
▁kalak	-2036
▁mangg	-2037
▁napag	-2038
▁ngayo	-2039
▁siyam	-2040
▁sumas	-2041
▁Diwata	-2042
▁Ibalon	-2043
▁ganoon	-2044
▁huling	-2045
▁landas	-2046
▁nagmam	-2047
▁pagtat	-2048
▁pinuno	-2049
▁piyesa	-2050
▁sultan	-2051
▁tingin	-2052
▁umalis	-2053
Sabayang	-2054
▁Unnayan	-2055
▁lungkot	-2056
▁palakol	-2057
▁patungo	-2058
▁sapagka	-2059
▁suliran	-2060
▁tagapag	-2061
▁ginagawa	-2062
▁kabunduk	-2063
▁mahabang	-2064
▁Samantala	-2065
▁impiyerno	-2066
▁kaibigang	-2067
▁nararapat	-2068
▁nagbibigay	-2069
▁paniniwala	-2070
▁nasasakupan	-2071
".	-2072
ia	-2073
aca	-2074
ans	-2075
igm	-2076
igu	-2077
ilo	-2078
ino	-2079
les	-2080
lim	-2081
lip	-2082
non	-2083
orn	-2084
wit	-2085
yak	-2086
▁Da	-2087
▁Pa	-2088
▁br	-2089
▁ha	-2090
▁pr	-2091
abog	-2092
atap	-2093
hawa	-2094
iban	-2095
ibik	-2096
ihis	-2097
imit	-2098
ingk	-2099
inta	-2100
into	-2101
ipak	-2102
ipan	-2103
irog	-2104
ohan	-2105
ubay	-2106
ugol	-2107
upad	-2108
uwek	-2109
▁Nas	-2110
▁Pat	-2111
▁aso	-2112
▁bun	-2113
▁ros	-2114
▁sik	-2115
aalis	-2116
ahati	-2117
aking	-2118
alala	-2119
alayo	-2120
ambuh	-2121
angon	-2122
ipags	-2123
usong	-2124
▁Juan	-2125
▁NANA	-2126
▁Nagl	-2127
▁Pros	-2128
▁Sari	-2129
▁baga	-2130
▁dulo	-2131
ambing	-2132
andila	-2133
awayan	-2134
erpina	-2135
ibutan	-2136
iguyon	-2137
inding	-2138
iwalay	-2139
pikong	-2140
▁amang	-2141
▁baboy	-2142
▁bisig	-2143
▁gusto	-2144
▁handa	-2145
▁makab	-2146
▁makat	-2147
▁mapan	-2148
▁pinak	-2149
▁sikat	-2150
▁sukat	-2151
alagaan	-2152
apansin	-2153
intahan	-2154
unahing	-2155
▁Bagong	-2156
▁Pagong	-2157
▁alaala	-2158
▁balita	-2159
▁ganito	-2160
▁ibabaw	-2161
▁libing	-2162
▁mabait	-2163
▁pulubi	-2164
▁sanang	-2165
alagahan	-2166
▁Nagalit	-2167
▁anumang	-2168
▁bathala	-2169
▁bugtong	-2170
▁kasaluk	-2171
▁matamis	-2172
▁nakapag	-2173
▁pananim	-2174
▁pangung	-2175
▁pintuan	-2176
▁sumunod	-2177
amangkero	-2178
▁Aliguyon	-2179
▁Dumating	-2180
▁Mindanao	-2181
▁Sumarang	-2182
▁barangay	-2183
▁kalooban	-2184
▁maliliit	-2185
▁panauhin	-2186
▁kabuhayan	-2187
▁magkaroon	-2188
▁mamamayan	-2189
▁pamumuhay	-2190
▁suliranin	-2191
▁Proserpina	-2192
▁katutubong	-2193
▁manliligaw	-2194
▁mitolohiya	-2195
▁kabayanihan	-2196
eb	-2197
he	-2198
ic	-2199
Mag	-2200
ato	-2201
iin	-2202
uka	-2203
wak	-2204
▁ar	-2205
▁ga	-2206
..."	-2207
aano	-2208
akop	-2209
amay	-2210
angh	-2211
ayat	-2212
eyna	-2213
ubuo	-2214
ugin	-2215
yayi	-2216
▁Bag	-2217
▁Bas	-2218
▁Imp	-2219
▁Mus	-2220
▁San	-2221
▁Sul	-2222
▁har	-2223
▁kon	-2224
▁kuk	-2225
▁lam	-2226
▁nad	-2227
agana	-2228
alakh	-2229
ataan	-2230
awaan	-2231
ayway	-2232
ingap	-2233
uluan	-2234
uparo	-2235
uturo	-2236
▁Saan	-2237
▁anim	-2238
▁ayon	-2239
▁bung	-2240
▁bunt	-2241
▁dako	-2242
akaawa	-2243
asalin	-2244
awakan	-2245
entong	-2246
igmaan	-2247
ilayan	-2248
utyang	-2249
▁Espan	-2250
▁Oyayi	-2251
▁Puwek	-2252
▁Sarag	-2253
▁bagyo	-2254
▁bango	-2255
▁damit	-2256
▁galak	-2257
▁gamit	-2258
▁ganap	-2259
▁halim	-2260
▁itaas	-2261
▁layaw	-2262
▁lihim	-2263
▁mapap	-2264
▁nangg	-2265
▁sabay	-2266
▁tunog	-2267
▁ugali	-2268
agaling	-2269
alawang	-2270
utangan	-2271
▁Lalong	-2272
▁Marami	-2273
▁Tingal	-2274
▁bangka	-2275
▁biyaya	-2276
▁dakila	-2277
▁magkas	-2278
▁maling	-2279
▁simula	-2280
▁tabing	-2281
abukasan	-2282
ungkutan	-2283
yarihang	-2284
▁Tamaraw	-2285
▁Tinawag	-2286
▁lumisan	-2287
▁masipag	-2288
▁nahulog	-2289
▁pagkaka	-2290
▁sandali	-2291
alanutian	-2292
anggaling	-2293
asalaysay	-2294
▁Sapagkat	-2295
▁dalampas	-2296
▁kalayaan	-2297
▁kuwintas	-2298
▁malayong	-2299
▁nagbigay	-2300
▁nagngang	-2301
▁nagtungo	-2302
ambuhalang	-2303
▁kapalaran	-2304
▁panaginip	-2305
▁panitikan	-2306
▁nakarating	-2307
▁nawawalang	-2308
▁matatagpuan	-2309
▁pangunahing	-2310
OY	-2311
Sa	-2312
Ano	-2313
iro	-2314
itu	-2315
kin	-2316
kop	-2317
udo	-2318
ukl	-2319
▁As	-2320
▁Ba	-2321
ahag	-2322
asam	-2323
atut	-2324
ilay	-2325
isay	-2326
itaw	-2327
iyag	-2328
ongo	-2329
▁Del	-2330
▁TOY	-2331
▁apo	-2332
▁daw	-2333
▁noo	-2334
aloob	-2335
angis	-2336
asyal	-2337
gayak	-2338
ibing	-2339
ibong	-2340
ihing	-2341
ikudo	-2342
iping	-2343
iusap	-2344
kahoy	-2345
roong	-2346
uyong	-2347
▁Daga	-2348
▁Mens	-2349
▁Nais	-2350
▁Pand	-2351
▁Sino	-2352
▁dati	-2353
▁kain	-2354
▁labi	-2355
▁maka	-2356
▁patn	-2357
▁wari	-2358
agalit	-2359
agatan	-2360
ansang	-2361
atagal	-2362
atanim	-2363
ayanan	-2364
dahang	-2365
imbang	-2366
imbing	-2367
intang	-2368
irapan	-2369
unayan	-2370
▁Aking	-2371
▁Dagat	-2372
▁Pagka	-2373
▁balak	-2374
▁dilaw	-2375
▁kasab	-2376
▁katap	-2377
▁kayum	-2378
▁labas	-2379
▁lilim	-2380
▁makik	-2381
▁matut	-2382
▁namam	-2383
▁nanan	-2384
▁tangk	-2385
ahating	-2386
ampalat	-2387
aramdam	-2388
arangaw	-2389
atanong	-2390
ibigkas	-2391
ingatan	-2392
▁Kaptan	-2393
▁TOYANG	-2394
▁dinala	-2395
▁iisang	-2396
▁iniwan	-2397
▁lahing	-2398
▁makata	-2399
▁malaya	-2400
▁musika	-2401
▁nagtat	-2402
▁pambih	-2403
▁pawang	-2404
▁waring	-2405
dukasyon	-2406
yayaring	-2407
▁demonyo	-2408
▁hanging	-2409
▁kampana	-2410
▁lumipad	-2411
▁lumipas	-2412
▁madilim	-2413
▁malalim	-2414
▁manging	-2415
▁marahil	-2416
▁marinig	-2417
▁matapos	-2418
▁nagmula	-2419
▁paggawa	-2420
▁pangkat	-2421
▁sagisag	-2422
▁sundalo	-2423
▁Barangaw	-2424
▁Marikudo	-2425
▁kumakain	-2426
▁matapang	-2427
▁nakakita	-2428
▁narating	-2429
▁nawawala	-2430
▁panganib	-2431
▁sasakyan	-2432
▁halimbawa	-2433
▁hinahanap	-2434
▁Saragnayan	-2435
▁kabundukan	-2436
▁kagandahan	-2437
▁mandirigma	-2438
▁pagkatapos	-2439
▁kalungkutan	-2440
▁dalampasigan	-2441
Al	-2442
Nak	-2443
UAN	-2444
ema	-2445
goy	-2446
haw	-2447
igh	-2448
oko	-2449
rab	-2450
▁KA	-2451
▁Ta	-2452
▁im	-2453
Mlks	-2454
ahad	-2455
alap	-2456
ayok	-2457
hasa	-2458
iram	-2459
nang	-2460
nong	-2461
rito	-2462
ugad	-2463
ugot	-2464
ukso	-2465
upok	-2466
utas	-2467
uwid	-2468
uyak	-2469
▁Lib	-2470
▁Pab	-2471
▁bar	-2472
▁est	-2473
▁maw	-2474
agkan	-2475
alawa	-2476
amanh	-2477
asong	-2478
iisip	-2479
ngles	-2480
ungib	-2481
uruan	-2482
yante	-2483
▁Bato	-2484
▁Iyan	-2485
▁JUAN	-2486
▁Niya	-2487
▁Noon	-2488
▁Pags	-2489
▁Rosa	-2490
▁caca	-2491
▁igin	-2492
▁itim	-2493
▁laya	-2494
▁puri	-2495
apasok	-2496
apitan	-2497
ayaang	-2498
iganti	-2499
ingnan	-2500
otohan	-2501
ustong	-2502
usumpa	-2503
▁Galit	-2504
▁Panay	-2505
▁abang	-2506
▁bunso	-2507
▁butil	-2508
▁hamog	-2509
▁kapit	-2510
▁lamok	-2511
▁lunti	-2512
▁manan	-2513
▁masis	-2514
▁nalul	-2515
▁nangh	-2516
▁napap	-2517
▁paano	-2518
▁pilit	-2519
▁pinto	-2520
▁rosas	-2521
▁salaw	-2522
▁tumat	-2523
▁wakas	-2524
abilang	-2525
alitaan	-2526
ingning	-2527
iwayway	-2528
tanggol	-2529
ugalian	-2530
▁Muling	-2531
▁Muslim	-2532
▁Simang	-2533
▁daliri	-2534
▁gunita	-2535
▁hardin	-2536
▁hirang	-2537
▁kabayo	-2538
▁kailan	-2539
▁kinuha	-2540
▁kulang	-2541
▁maitim	-2542
▁nagsas	-2543
▁pulong	-2544
▁sakdal	-2545
▁suklay	-2546
▁tapang	-2547
▁yungib	-2548
agandang	-2549
apalaran	-2550
▁Bugtong	-2551
▁Humadap	-2552
▁Mahirap	-2553
▁Malakas	-2554
▁Mensahe	-2555
▁babaeng	-2556
▁digmaan	-2557
▁kalabaw	-2558
▁kalalak	-2559
▁ninyong	-2560
▁sampung	-2561
▁sandata	-2562
▁darating	-2563
▁libingan	-2564
▁magaling	-2565
▁magbalik	-2566
▁pagiging	-2567
▁talagang	-2568
▁ginagamit	-2569
▁kahulugan	-2570
▁karagatan	-2571
▁katangian	-2572
▁minamahal	-2573
▁nagkaroon	-2574
▁nagsimula	-2575
▁natagpuan	-2576
▁pananalig	-2577
▁tanghalan	-2578
▁tungkulin	-2579
▁karunungan	-2580
▁dambuhalang	-2581
▁pambihirang	-2582
!!	-2583
ND	-2584
go	-2585
si	-2586
Tat	-2587
agb	-2588
agh	-2589
agu	-2590
apo	-2591
eba	-2592
ego	-2593
fin	-2594
inl	-2595
its	-2596
tol	-2597
ubl	-2598
agaw	-2599
akat	-2600
anim	-2601
ener	-2602
ihag	-2603
irin	-2604
ones	-2605
tana	-2606
ukal	-2607
ukoy	-2608
unos	-2609
▁Ati	-2610
▁Gum	-2611
▁III	-2612
▁Nan	-2613
▁Ped	-2614
▁adh	-2615
▁awa	-2616
▁sil	-2617
▁sup	-2618
▁tab	-2619
▁was	-2620
aawit	-2621
agsik	-2622
ahagi	-2623
ahiya	-2624
alaan	-2625
alaga	-2626
ambal	-2627
apaan	-2628
atnan	-2629
atong	-2630
buhay	-2631
enang	-2632
inoon	-2633
ulaan	-2634
umula	-2635
undan	-2636
undin	-2637
▁Kayo	-2638
▁Lagi	-2639
▁Lawa	-2640
▁Mags	-2641
▁Magt	-2642
▁Pamb	-2643
▁Tayo	-2644
▁agos	-2645
▁alit	-2646
▁alon	-2647
▁bait	-2648
▁ilan	-2649
▁kuba	-2650
▁kult	-2651
▁lipi	-2652
▁porm	-2653
▁sang	-2654
▁sawa	-2655
▁ugat	-2656
▁unti	-2657
agamot	-2658
atanaw	-2659
ibhasa	-2660
ihingi	-2661
ukhang	-2662
uluhan	-2663
usunod	-2664
▁Anong	-2665
▁Buwan	-2666
▁Dulaw	-2667
▁Lawin	-2668
▁Papay	-2669
▁Tipak	-2670
▁gumag	-2671
▁halik	-2672
▁halip	-2673
▁hangg	-2674
▁hapon	-2675
▁hiyas	-2676
▁iyang	-2677
▁kaawa	-2678
▁kabut	-2679
▁kumik	-2680
▁likas	-2681
▁makas	-2682
▁nabab	-2683
▁pangh	-2684
▁reyna	-2685
▁sinta	-2686
▁sinus	-2687
▁tatlo	-2688
▁tinat	-2689
▁tinut	-2690
▁totoo	-2691
▁umuwi	-2692
ahalaga	-2693
alakhak	-2694
alitong	-2695
ulugang	-2696
▁Ayonan	-2697
▁Delfin	-2698
▁hangad	-2699
▁kalang	-2700
▁magsas	-2701
▁mandin	-2702
▁nagkak	-2703
▁paglil	-2704
▁pagong	-2705
▁pulang	-2706
▁tatuan	-2707
ahulugan	-2708
atanghal	-2709
ungkahoy	-2710
▁Biglang	-2711
▁Hinanap	-2712
▁dalisay	-2713
▁gawaing	-2714
▁hanapin	-2715
▁hinanap	-2716
▁iniibig	-2717
▁kalaban	-2718
▁lipunan	-2719
▁lubhang	-2720
▁lumapit	-2721
▁lumitaw	-2722
▁masarap	-2723
▁mayaman	-2724
▁patayin	-2725
▁pumanaw	-2726
▁pumunta	-2727
▁saknong	-2728
amanhikan	-2729
▁Paruparo	-2730
▁Silangan	-2731
▁bayaning	-2732
▁binatang	-2733
▁kalabasa	-2734
▁kapuluan	-2735
▁madaling	-2736
▁magagawa	-2737
▁marating	-2738
▁paningin	-2739
▁salaysay	-2740
▁Tipaklong	-2741
▁kalagayan	-2742
▁katapusan	-2743
▁nabubuhay	-2744
▁pormasyon	-2745
▁sandaling	-2746
▁sasabihin	-2747
▁Calanutian	-2748
▁magkapatid	-2749
▁mahalagang	-2750
▁naghahanap	-2751
▁Nagmalitong	-2752
▁kaligayahan	-2753
▁punungkahoy	-2754
▁pananampalat	-2755
At	-2756
Oo	-2757
le	-2758
oc	-2759
oh	-2760
ss	-2761
te	-2762
Ako	-2763
NDO	-2764
aas	-2765
agt	-2766
hap	-2767
igp	-2768
kis	-2769
ote	-2770
pas	-2771
pot	-2772
tar	-2773
tay	-2774
ugn	-2775
▁--	-2776
▁If	-2777
▁Or	-2778
▁id	-2779
ahih	-2780
alog	-2781
ampa	-2782
asya	-2783
atas	-2784
bong	-2785
esto	-2786
ikom	-2787
ilak	-2788
isda	-2789
ismo	-2790
kong	-2791
piko	-2792
tuwa	-2793
ugao	-2794
uksa	-2795
ungg	-2796
utya	-2797
▁Ahh	-2798
▁Bit	-2799
▁Bon	-2800
▁Dem	-2801
▁Ini	-2802
▁Kul	-2803
▁Lus	-2804
▁Pak	-2805
▁Pas	-2806
▁ari	-2807
▁bus	-2808
▁hah	-2809
▁mai	-2810
▁pad	-2811
▁pis	-2812
▁umu	-2813
Huwag	-2814
ababa	-2815
alaka	-2816
aliit	-2817
anaog	-2818
arito	-2819
aruan	-2820
asdan	-2821
atago	-2822
iligo	-2823
irito	-2824
iyego	-2825
lakad	-2826
▁Anak	-2827
▁Dala	-2828
▁INDO	-2829
▁Inil	-2830
▁Pati	-2831
▁Taga	-2832
▁Tang	-2833
▁Tiwi	-2834
▁Yawa	-2835
▁alin	-2836
▁asal	-2837
▁dali	-2838
▁guro	-2839
▁nagw	-2840
▁panl	-2841
▁pong	-2842
▁puti	-2843
▁yaon	-2844
abango	-2845
alanta	-2846
alikat	-2847
angaso	-2848
athala	-2849
ayawan	-2850
ilikha	-2851
inigay	-2852
tanong	-2853
tasyon	-2854
uhunan	-2855
▁Buhat	-2856
▁Karan	-2857
▁Minda	-2858
▁Ngayo	-2859
▁Pangk	-2860
▁Tagak	-2861
▁bakal	-2862
▁bakod	-2863
▁bilog	-2864
▁dadal	-2865
▁dahan	-2866
▁grupo	-2867
▁hamak	-2868
▁humah	-2869
▁kalin	-2870
▁karik	-2871
▁kinat	-2872
▁panig	-2873
▁putik	-2874
▁sangk	-2875
▁tugon	-2876
▁tuloy	-2877
▁utang	-2878
amangha	-2879
ataglay	-2880
intawak	-2881
itingin	-2882
oroonan	-2883
undiman	-2884
▁Bilang	-2885
▁Ifugao	-2886
▁Kaagad	-2887
▁Kinuha	-2888
▁Mabuti	-2889
▁Simula	-2890
▁Sultan	-2891
▁angkop	-2892
▁gawang	-2893
▁handog	-2894
▁isdang	-2895
▁kabila	-2896
▁kuweba	-2897
▁laking	-2898
▁maaari	-2899
▁mapang	-2900
▁nagkas	-2901
▁naroon	-2902
▁nganga	-2903
▁paghih	-2904
▁pagkag	-2905
▁payapa	-2906
▁perlas	-2907
▁pitong	-2908
▁sagana	-2909
▁saglit	-2910
▁tuktok	-2911
ahahahah	-2912
andangan	-2913
otohanan	-2914
▁Griyego	-2915
▁Lumipas	-2916
▁hahanap	-2917
▁humingi	-2918
▁labanan	-2919
▁mahusay	-2920
▁pagitan	-2921
▁patuloy	-2922
▁sumagot	-2923
▁susunod	-2924
▁kilalang	-2925
▁nakatira	-2926
▁naroroon	-2927
▁alitaptap	-2928
▁matatanda	-2929
▁matinding	-2930
▁nasiyahan	-2931
▁natutulog	-2932
▁pinagkaka	-2933
▁Gagalangin	-2934
▁Humadapnon	-2935
▁kapitbahay	-2936
▁karangalan	-2937
▁kayumanggi	-2938
▁makarating	-2939
▁malalaking	-2940
▁nanggaling	-2941
▁paghahanap	-2942
▁Nalandangan	-2943
▁kalalakihan	-2944
▁pagdiriwang	-2945
▁pagkakaroon	-2946
ipagsapalaran	-2947
▁pinanggaling	-2948
Ka	-2949
bo	-2950
ho	-2951
pu	-2952
ru	-2953
ue	-2954
Ito	-2955
Mga	-2956
abe	-2957
are	-2958
hel	-2959
iko	-2960
kep	-2961
lor	-2962
min	-2963
tor	-2964
uny	-2965
wan	-2966
▁Ed	-2967
▁Pl	-2968
▁Ul	-2969
▁pl	-2970
aari	-2971
abae	-2972
asik	-2973
awad	-2974
ayog	-2975
dali	-2976
edur	-2977
eter	-2978
haga	-2979
ihip	-2980
ikap	-2981
ikas	-2982
inaw	-2983
init	-2984
iwas	-2985
iyaw	-2986
kita	-2987
ohol	-2988
terp	-2989
ugis	-2990
ukin	-2991
ulak	-2992
▁Edo	-2993
▁Kak	-2994
▁Lim	-2995
▁Mam	-2996
▁Pad	-2997
▁Tab	-2998
▁aki	-2999
▁anu	-3000
▁hag	-3001
▁lay	-3002
▁naa	-3003
adlaw	-3004
agita	-3005
angat	-3006
dagat	-3007
egalo	-3008
ikong	-3009
impap	-3010
itiis	-3011
iyaga	-3012
orneo	-3013
orong	-3014
ubuan	-3015
uluto	-3016
urong	-3017
▁Amom	-3018
▁Ikin	-3019
▁Lena	-3020
▁Lila	-3021
▁Magh	-3022
▁Mayo	-3023
▁Pers	-3024
▁Sant	-3025
▁bers	-3026
▁irog	-3027
▁kani	-3028
▁ukol	-3029
▁yari	-3030
aguita	-3031
alamat	-3032
antimp	-3033
ibigin	-3034
ipunan	-3035
terpre	-3036
ulitin	-3037
undong	-3038
▁Bohol	-3039
▁Dapat	-3040
▁Gansa	-3041
▁Hibik	-3042
▁Lakan	-3043
▁Likal	-3044
▁Tinig	-3045
▁Tulad	-3046
▁agong	-3047
▁balah	-3048
▁daang	-3049
▁duwag	-3050
▁habag	-3051
▁hapis	-3052
▁ilong	-3053
▁kaban	-3054
▁kamag	-3055
▁kapat	-3056
▁kauna	-3057
▁lamig	-3058
▁makal	-3059
▁matip	-3060
▁nasus	-3061
▁pangg	-3062
▁patak	-3063
▁pinap	-3064
▁pugad	-3065
▁sapat	-3066
▁sayaw	-3067
▁simoy	-3068
▁talud	-3069
▁tulog	-3070
Lalapit	-3071
agumpay	-3072
alaysay	-3073
engedur	-3074
ibilang	-3075
iligtas	-3076
ilingan	-3077
indanao	-3078
itingan	-3079
ulaklak	-3080
unahang	-3081
unawaan	-3082
▁Bundok	-3083
▁Daldal	-3084
▁Laging	-3085
▁Narito	-3086
▁Palaka	-3087
▁Wikang	-3088
▁bulong	-3089
▁dakong	-3090
▁dalita	-3091
▁ganyan	-3092
▁gawing	-3093
▁halaga	-3094
▁himpap	-3095
▁kainin	-3096
▁kasing	-3097
▁kilala	-3098
▁magawa	-3099
▁makuha	-3100
▁nagdur	-3101
▁naiiba	-3102
▁pinana	-3103
▁puntod	-3104
▁talaga	-3105
▁usapan	-3106
▁wikang	-3107
alimutan	-3108
aliwanag	-3109
▁Daigdig	-3110
▁Demeter	-3111
▁Espanya	-3112
▁Mariang	-3113
▁Matapos	-3114
▁Pedrito	-3115
▁Sumagot	-3116
▁bansang	-3117
▁dayuhan	-3118
▁inahing	-3119
▁magmula	-3120
▁malamig	-3121
▁namuhay	-3122
▁napatay	-3123
▁pinggan	-3124
▁tawagin	-3125
ipaglaban	-3126
▁Amomongo	-3127
▁Bulaklak	-3128
▁Kaibigan	-3129
▁Makiling	-3130
▁Prinsesa	-3131
▁Soloista	-3132
▁dalagita	-3133
▁ganitong	-3134
▁kaalaman	-3135
▁matalino	-3136
▁mayamang	-3137
▁maysakit	-3138
▁nakatayo	-3139
▁nakilala	-3140
▁tuluyang	-3141
▁Halimbawa	-3142
▁kaugalian	-3143
▁mamamatay	-3144
▁maririnig	-3145
▁naglakbay	-3146
▁nagmumula	-3147
▁nagsalita	-3148
▁tinanggap	-3149
▁Mitolohiya	-3150
▁Pilipinong	-3151
▁kalangitan	-3152
▁kasintahan	-3153
terpretasyon	-3154
▁Kinabukasan	-3155
▁naghihintay	-3156
▁salamangkero	-3157
▁pinanggalingan	-3158
'-	-3159
00	-3160
Ng	-3161
ka	-3162
mm	-3163
no	-3164
ow	-3165
Mab	-3166
Mar	-3167
aha	-3168
amt	-3169
dla	-3170
eho	-3171
eta	-3172
ibe	-3173
iis	-3174
lam	-3175
tat	-3176
uho	-3177
unl	-3178
yas	-3179
yaw	-3180
▁(1	-3181
▁(2	-3182
▁1.	-3183
▁2.	-3184
▁oh	-3185
▁us	-3186
Magp	-3187
Solo	-3188
aani	-3189
abik	-3190
acio	-3191
asag	-3192
awal	-3193
awig	-3194
awis	-3195
ayad	-3196
enor	-3197
iang	-3198
igas	-3199
ilap	-3200
imog	-3201
inam	-3202
isid	-3203
isil	-3204
itas	-3205
kepu	-3206
lolo	-3207
ubad	-3208
ugod	-3209
ugun	-3210
uhos	-3211
ukan	-3212
unao	-3213
unpu	-3214
urin	-3215
urog	-3216
usin	-3217
▁Amb	-3218
▁Buy	-3219
▁Fil	-3220
▁Gat	-3221
▁Kar	-3222
▁Lis	-3223
▁Nil	-3224
▁Rog	-3225
▁Tat	-3226
▁dag	-3227
▁lim	-3228
▁tam	-3229
▁tit	-3230
aaral	-3231
agdag	-3232
agpis	-3233
ampot	-3234
angit	-3235
apati	-3236
ariwa	-3237
bitin	-3238
buwan	-3239
embro	-3240
ganda	-3241
iglap	-3242
iikan	-3243
inggo	-3244
itlog	-3245
palad	-3246
risto	-3247
sabay	-3248
salin	-3249
uotan	-3250
▁Alam	-3251
▁Alit	-3252
▁Duri	-3253
▁Edna	-3254
▁Magk	-3255
▁Magp	-3256
▁Muli	-3257
▁Naku	-3258
▁Nana	-3259
▁Pero	-3260
▁ahas	-3261
▁alak	-3262
▁bitu	-3263
▁bril	-3264
▁gayo	-3265
▁kaba	-3266
▁kand	-3267
▁kubo	-3268
▁pari	-3269
▁pina	-3270
▁tala	-3271
▁trad	-3272
▁yata	-3273
aalala	-3274
ahamak	-3275
alaban	-3276
antang	-3277
arinig	-3278
atanda	-3279
atawat	-3280
awanan	-3281
awitan	-3282
ikling	-3283
ilagay	-3284
indaya	-3285
ingwit	-3286
isigaw	-3287
iwatig	-3288
piritu	-3289
ubusan	-3290
udulot	-3291
umanon	-3292
▁Bahay	-3293
▁Bawat	-3294
▁Datap	-3295
▁Kundi	-3296
▁Lakas	-3297
▁Pluto	-3298
▁Salaw	-3299
▁Sinas	-3300
▁Tubig	-3301
▁Unang	-3302
▁aklat	-3303
▁altar	-3304
▁bigla	-3305
▁binab	-3306
▁gamot	-3307
▁ibaba	-3308
▁kabig	-3309
▁kakay	-3310
▁kanan	-3311
▁kanin	-3312
▁kodla	-3313
▁ligaw	-3314
▁lumul	-3315
▁mangh	-3316
▁nagka	-3317
▁nakap	-3318
▁pista	-3319
▁punta	-3320
▁sunog	-3321
▁tagap	-3322
▁tamis	-3323
▁tanda	-3324
▁tangi	-3325
▁wagas	-3326
Epikong	-3327
aganaan	-3328
akasama	-3329
alubong	-3330
antayan	-3331
apangan	-3332
araanan	-3333
ayundin	-3334
imulang	-3335
intuang	-3336
ustuhan	-3337
yayahan	-3338
▁Andres	-3339
▁Anggoy	-3340
▁Bayang	-3341
▁Binata	-3342
▁Borneo	-3343
▁Ganyan	-3344
▁Kasama	-3345
▁Ladlaw	-3346
▁Lisuga	-3347
▁Masaya	-3348
▁Nitong	-3349
▁Rosita	-3350
▁Santos	-3351
▁Tuwang	-3352
▁bangin	-3353
▁bumaba	-3354
▁buntot	-3355
▁buwang	-3356
▁damong	-3357
▁gayong	-3358
▁hiling	-3359
▁isipan	-3360
▁kayang	-3361
▁kidlat	-3362
▁kitang	-3363
▁lumbay	-3364
▁magmam	-3365
▁maputi	-3366
▁ngalan	-3367
▁pagtit	-3368
▁pansin	-3369
▁pinagl	-3370
▁pinagp	-3371
▁pinsan	-3372
▁saging	-3373
▁samant	-3374
▁tumayo	-3375
anggapin	-3376
sengedur	-3377
▁Hayaang	-3378
▁Libulan	-3379
▁Lumapit	-3380
▁Matagal	-3381
▁Minango	-3382
▁Sumunod	-3383
▁Tanging	-3384
▁Tingnan	-3385
▁asawang	-3386
▁balikat	-3387
▁bayabas	-3388
▁bungang	-3389
▁gantimp	-3390
▁hininga	-3391
▁iibigin	-3392
▁kultura	-3393
▁larawan	-3394
▁likuran	-3395
▁madalas	-3396
▁malinis	-3397
▁marikit	-3398
▁mutyang	-3399
▁nabuhay	-3400
▁nagalit	-3401
▁nakaupo	-3402
▁nalilim	-3403
▁nawalan	-3404
▁palagay	-3405
▁palayok	-3406
▁pangako	-3407
▁patalim	-3408
▁pumasok	-3409
▁pupunta	-3410
▁salamin	-3411
▁tauhang	-3412
▁umaawit	-3413
aniniwala	-3414
▁Madaling	-3415
▁Naggayak	-3416
▁Tinagong	-3417
▁giniikan	-3418
▁kariktan	-3419
▁kasamaan	-3420
▁kulungan	-3421
▁masagana	-3422
▁mayroong	-3423
▁naghanda	-3424
▁pamumuno	-3425
▁patnubay	-3426
▁tahanang	-3427
▁tinanong	-3428
apaliwanag	-3429
sengedurug	-3430
▁Alitaptap	-3431
▁Panginoon	-3432
▁edukasyon	-3433
▁halamanan	-3434
▁karamihan	-3435
▁karapatan	-3436
▁kasalanan	-3437
▁kasiyahan	-3438
▁nakatulog	-3439
▁naririnig	-3440
▁sinaunang	-3441
▁Pangumanon	-3442
▁engkantado	-3443
▁kahilingan	-3444
▁katangiang	-3445
▁pinanaugan	-3446
▁Likalibutan	-3447
▁kasalukuyan	-3448
▁katotohanan	-3449
▁manggagamot	-3450
▁pagtatanghal	-3451
▁nagngangalang	-3452
▁pinakamalaking	-3453
IT	-3454
ao	-3455
bi	-3456
di	-3457
ee	-3458
th	-3459
Kas	-3460
Mal	-3461
May	-3462
ade	-3463
bag	-3464
est	-3465
eus	-3466
hoy	-3467
igi	-3468
mos	-3469
rum	-3470
tak	-3471
ter	-3472
tim	-3473
uta	-3474
yos	-3475
yth	-3476
▁Hu	-3477
▁Oo	-3478
▁dr	-3479
▁es	-3480
▁et	-3481
▁le	-3482
Wala	-3483
alot	-3484
anag	-3485
atol	-3486
ding	-3487
ente	-3488
ibis	-3489
ight	-3490
itag	-3491
ithi	-3492
iyab	-3493
laro	-3494
ogan	-3495
ongg	-3496
potl	-3497
sama	-3498
ubok	-3499
unas	-3500
unat	-3501
unot	-3502
▁Bik	-3503
▁Iba	-3504
▁Ika	-3505
▁Kag	-3506
▁Maa	-3507
▁Map	-3508
▁Niy	-3509
▁Pam	-3510
▁Sam	-3511
▁Sic	-3512
▁Sig	-3513
▁Yao	-3514
▁bub	-3515
▁hih	-3516
▁huk	-3517
▁inu	-3518
▁kur	-3519
▁mau	-3520
▁miy	-3521
▁saw	-3522
▁ser	-3523
▁tib	-3524
▁uod	-3525
aayos	-3526
abong	-3527
abula	-3528
adaan	-3529
adapo	-3530
agaan	-3531
aklap	-3532
akong	-3533
alogo	-3534
amana	-3535
ambit	-3536
anais	-3537
anang	-3538
apaap	-3539
apong	-3540
arili	-3541
dapat	-3542
igkas	-3543
igpit	-3544
inain	-3545
indak	-3546
liyaw	-3547
uhing	-3548
uksan	-3549
umano	-3550
undag	-3551
unsod	-3552
unuan	-3553
utong	-3554
yakap	-3555
▁Agio	-3556
▁Apol	-3557
▁Ayaw	-3558
▁Dali	-3559
▁Hand	-3560
▁Ibin	-3561
▁Luis	-3562
▁Lupa	-3563
▁Sand	-3564
▁Tila	-3565
▁Wika	-3566
▁ayos	-3567
▁bala	-3568
▁daga	-3569
▁dami	-3570
▁dila	-3571
▁huli	-3572
▁iisa	-3573
▁kons	-3574
▁mala	-3575
▁nuon	-3576
▁sapa	-3577
▁sulo	-3578
▁sump	-3579
▁suso	-3580
▁taas	-3581
▁ulit	-3582
amalas	-3583
angkil	-3584
aralan	-3585
atakas	-3586
awagan	-3587
awarin	-3588
ensiya	-3589
ifacio	-3590
ikasan	-3591
ilitaw	-3592
inggin	-3593
inggit	-3594
ngkong	-3595
rabaho	-3596
saring	-3597
tangan	-3598
unahan	-3599
▁Atlas	-3600
▁Banal	-3601
▁Banna	-3602
▁Binig	-3603
▁Bulan	-3604
▁Gayun	-3605
▁Iyang	-3606
▁Kalig	-3607
▁Kaysa	-3608
▁Makat	-3609
▁Napak	-3610
▁Pinat	-3611
▁Talis	-3612
▁Tenor	-3613
▁Tiyak	-3614
▁bahag	-3615
▁batok	-3616
▁bulag	-3617
▁bumab	-3618
▁butas	-3619
▁dampa	-3620
▁diyan	-3621
▁hilig	-3622
▁hinah	-3623
▁hubad	-3624
▁iglap	-3625
▁kapar	-3626
▁kulog	-3627
▁kumak	-3628
▁kunin	-3629
▁lipad	-3630
▁mabub	-3631
▁madla	-3632
▁matin	-3633
▁mithi	-3634
▁munti	-3635
▁nalal	-3636
▁pakay	-3637
▁pinam	-3638
▁pugon	-3639
▁sanda	-3640
▁sinag	-3641
▁sisiw	-3642
▁sumpa	-3643
▁tatak	-3644
▁tuwid	-3645
aganang	-3646
agsikan	-3647
aligaya	-3648
aliksik	-3649
angkang	-3650
atakpan	-3651
ayapaan	-3652
babalik	-3653
bitinan	-3654
ibagong	-3655
ibigyan	-3656
ilitang	-3657
nanakaw	-3658
ubuksan	-3659
▁Abyang	-3660
▁Batooy	-3661
▁Buyung	-3662
▁Diyosa	-3663
▁Ibigin	-3664
▁Ingles	-3665
▁Langit	-3666
▁Nasaan	-3667
▁adhika	-3668
▁angkin	-3669
▁anuman	-3670
▁dalang	-3671
▁dalhin	-3672
▁dugong	-3673
▁gising	-3674
▁kaliwa	-3675
▁lumang	-3676
▁maayos	-3677
▁nagbub	-3678
▁naisip	-3679
▁niyong	-3680
▁paanan	-3681
▁pangit	-3682
▁patung	-3683
▁pinagh	-3684
▁pinags	-3685
▁pinang	-3686
▁talang	-3687
▁tangan	-3688
▁umibig	-3689
▁umiyak	-3690
ahimikan	-3691
akasakit	-3692
aligiran	-3693
amatayan	-3694
amdaming	-3695
ampangan	-3696
arusahan	-3697
itingala	-3698
itingnan	-3699
potlight	-3700
ungkulan	-3701
uwalhati	-3702
▁Matulog	-3703
▁Nalaman	-3704
▁Salamat	-3705
▁Tatlong	-3706
▁babalik	-3707
▁bandila	-3708
▁binubuo	-3709
▁ginhawa	-3710
▁gustong	-3711
▁hakbang	-3712
▁halimaw	-3713
▁handang	-3714
▁itataas	-3715
▁lumikha	-3716
▁maliban	-3717
▁malimit	-3718
▁mapalad	-3719
▁matagal	-3720
▁matuwid	-3721
▁ngayong	-3722
▁pagsuyo	-3723
▁salamat	-3724
▁sumakay	-3725
▁sumisid	-3726
▁tuluyan	-3727
▁umagang	-3728
agpatuloy	-3729
anyayahan	-3730
▁Alindaya	-3731
▁Dulliyaw	-3732
▁Inutusan	-3733
▁Napansin	-3734
▁Naririto	-3735
▁Talisain	-3736
▁Tulungan	-3737
▁bumagsak	-3738
▁gumagawa	-3739
▁kabataan	-3740
▁kaisipan	-3741
▁kinakain	-3742
▁kundiman	-3743
▁larangan	-3744
▁mabigyan	-3745
▁magalang	-3746
▁masining	-3747
▁miyembro	-3748
▁pagkaing	-3749
▁pagkakas	-3750
▁pagpapak	-3751
▁silangan	-3752
▁tagumpay	-3753
▁Bonifacio	-3754
▁Nalungkot	-3755
▁brilyante	-3756
▁hahanapin	-3757
▁kakaibang	-3758
▁kapatagan	-3759
▁kasayahan	-3760
▁paglingap	-3761
angailangan	-3762
itolohiyang	-3763
▁Balintawak	-3764
▁Isinusumpa	-3765
▁Salawikain	-3766
▁binibigkas	-3767
▁engkantada	-3768
▁gantimpala	-3769
▁ginintuang	-3770
▁himagsikan	-3771
▁himpapawid	-3772
▁kagitingan	-3773
▁kasaganaan	-3774
▁katapangan	-3775
▁mangyayari	-3776
▁masaganang	-3777
▁matatapang	-3778
▁naglalakad	-3779
▁nagpatuloy	-3780
▁naniniwala	-3781
▁pagtatanim	-3782
▁pinuntahan	-3783
▁salawikain	-3784
▁Samantalang	-3785
▁kahalagahan	-3786
▁katahimikan	-3787
▁magkabilang	-3788
▁magkaibigan	-3789
▁punongkahoy	-3790
▁samantalang	-3791
▁paglalarawan	-3792
▁napakagandang	-3793
▁makapangyarihan	-3794
It	-3795
Pa	-3796
gl	-3797
ri	-3798
Ina	-3799
PIT	-3800
aak	-3801
can	-3802
dar	-3803
edi	-3804
eks	-3805
elo	-3806
eto	-3807
hig	-3808
ipo	-3809
kaw	-3810
lag	-3811
oby	-3812
rom	-3813
ruz	-3814
uya	-3815
wis	-3816
yag	-3817
▁La	-3818
▁Uv	-3819
▁am	-3820
▁ig	-3821
▁kw	-3822
▁la	-3823
▁oo	-3824
▁ub	-3825
aboy	-3826
adag	-3827
agap	-3828
agis	-3829
agon	-3830
ahab	-3831
ahol	-3832
akap	-3833
alab	-3834
amag	-3835
ampo	-3836
asid	-3837
awng	-3838
buan	-3839
dala	-3840
ibol	-3841
ilok	-3842
ipot	-3843
iyus	-3844
loob	-3845
mula	-3846
nila	-3847
oron	-3848
rade	-3849
ramo	-3850
rist	-3851
roso	-3852
taas	-3853
ubha	-3854
uhit	-3855
ukob	-3856
ulid	-3857
umin	-3858
unay	-3859
upil	-3860
▁Ale	-3861
▁Hag	-3862
▁Her	-3863
▁Hes	-3864
▁Hil	-3865
▁Kem	-3866
▁Nah	-3867
▁Pap	-3868
▁Sag	-3869
▁Tal	-3870
▁Tik	-3871
▁Una	-3872
▁bis	-3873
▁bug	-3874
▁ing	-3875
▁ins	-3876
▁las	-3877
▁nau	-3878
▁pup	-3879
▁sug	-3880
▁tik	-3881
PITAN	-3882
aalay	-3883
aanak	-3884
adali	-3885
alagi	-3886
aligt	-3887
alima	-3888
alung	-3889
andan	-3890
anggo	-3891
arong	-3892
awiin	-3893
ayapa	-3894
bayat	-3895
dahan	-3896
edium	-3897
embre	-3898
ibili	-3899
iglig	-3900
imlan	-3901
ipagk	-3902
iwant	-3903
strum	-3904
ugnay	-3905
ulila	-3906
uming	-3907
uyuko	-3908
wayen	-3909
westo	-3910
▁Ahhh	-3911
▁Awit	-3912
▁Dula	-3913
▁Gabi	-3914
▁Iyon	-3915
▁Rita	-3916
▁Uwak	-3917
▁abot	-3918
▁alay	-3919
▁amin	-3920
▁band	-3921
▁diin	-3922
▁huni	-3923
▁iwan	-3924
▁karn	-3925
▁nagn	-3926
▁pako	-3927
▁poot	-3928
▁pula	-3929
▁pusp	-3930
▁sanl	-3931
▁saya	-3932
▁tama	-3933
▁ulam	-3934
abihan	-3935
aganap	-3936
agutan	-3937
ahanin	-3938
ahatid	-3939
alayag	-3940
alipin	-3941
angako	-3942
asinan	-3943
awngaw	-3944
emonya	-3945
endeng	-3946
ibuhin	-3947
ikayat	-3948
ikilos	-3949
ilihan	-3950
ukiran	-3951
ulutan	-3952
unsong	-3953
uwento	-3954
▁Doron	-3955
▁Huwan	-3956
▁Ilian	-3957
▁Naawa	-3958
▁Nakat	-3959
▁Napag	-3960
▁Sangk	-3961
▁Wigan	-3962
▁alaga	-3963
▁bakas	-3964
▁balit	-3965
▁bigay	-3966
▁bilin	-3967
▁bilis	-3968
▁binti	-3969
▁braso	-3970
▁bukal	-3971
▁daing	-3972
▁gatas	-3973
▁ginag	-3974
▁hugis	-3975
▁kinar	-3976
▁magig	-3977
▁mahih	-3978
▁mahin	-3979
▁makag	-3980
▁malam	-3981
▁mapat	-3982
▁masus	-3983
▁nagug	-3984
▁nalag	-3985
▁namim	-3986
▁natat	-3987
▁paksa	-3988
▁palam	-3989
▁parab	-3990
▁pinat	-3991
▁sadya	-3992
▁sahig	-3993
▁sanhi	-3994
▁sigla	-3995
▁sugat	-3996
▁tabak	-3997
▁tagpo	-3998
▁takip	-3999
▁tapos	-4000
ahandog	-4001
alagyan	-4002
alimbag	-4003
alinong	-4004
amtaman	-4005
ansones	-4006
hininga	-4007
iibigan	-4008
ikilala	-4009
ubunduk	-4010
ugnayan	-4011
uklasan	-4012
▁Bituin	-4013
▁Dinala	-4014
▁Halika	-4015
▁Mangga	-4016
▁Punong	-4017
▁Puting	-4018
▁Uvigan	-4019
▁alagad	-4020
▁amihan	-4021
▁baybay	-4022
▁bigyan	-4023
▁buksan	-4024
▁diwang	-4025
▁dragon	-4026
▁gulang	-4027
▁kawili	-4028
▁kinaka	-4029
▁kusang	-4030
▁lalake	-4031
▁madali	-4032
▁magpak	-4033
▁mahina	-4034
▁makain	-4035
▁mapagl	-4036
▁mapagm	-4037
▁mawala	-4038
▁naglil	-4039
▁nagpat	-4040
▁nagsus	-4041
▁nanaog	-4042
▁pagkal	-4043
▁pagtut	-4044
▁rarang	-4045
▁sining	-4046
▁talino	-4047
▁tamang	-4048
▁tinang	-4049
▁tumubo	-4050
▁yamang	-4051
ahiwatig	-4052
alahanin	-4053
istulang	-4054
kanilang	-4055
▁Babalik	-4056
▁Ingkong	-4057
▁Jatakas	-4058
▁KAPITAN	-4059
▁Lumakad	-4060
▁Maranao	-4061
▁Maynila	-4062
▁Mayroon	-4063
▁Nakapag	-4064
▁Nalbuan	-4065
▁Namatay	-4066
▁Panahon	-4067
▁Pandora	-4068
▁Pangkas	-4069
▁Pinakam	-4070
▁Pinilit	-4071
▁Tinungo	-4072
▁aliping	-4073
▁bilangg	-4074
▁gaanong	-4075
▁harapan	-4076
▁huminga	-4077
▁iligtas	-4078
▁kahapon	-4079
▁kalakal	-4080
▁kalapit	-4081
▁karapat	-4082
▁kasabay	-4083
▁kumalat	-4084
▁kumilos	-4085
▁layunin	-4086
▁malinaw	-4087
▁malupit	-4088
▁matibay	-4089
▁nagdaan	-4090
▁nalaman	-4091
▁nanging	-4092
▁napapal	-4093
▁pahayag	-4094
▁panulat	-4095
▁pasakit	-4096
▁pinatay	-4097
▁sangkap	-4098
▁sumikat	-4099
▁tangkay	-4100
▁tingnan	-4101
▁torogan	-4102
▁wastong	-4103
ahulugang	-4104
▁Binigyan	-4105
▁Handiong	-4106
▁Kayganda	-4107
▁Kembayat	-4108
▁Maaaring	-4109
▁Magbitag	-4110
▁Magwayen	-4111
▁Nagpunta	-4112
▁Nagtungo	-4113
▁Nalimbag	-4114
▁Persiyus	-4115
▁Sinapati	-4116
▁bahaging	-4117
▁balitang	-4118
▁bersiyon	-4119
▁bibigkas	-4120
▁dadalhin	-4121
▁dingding	-4122
▁gagawing	-4123
▁ginawang	-4124
▁ibinigay	-4125
▁ikatlong	-4126
▁kalahati	-4127
▁kuliglig	-4128
▁lipunang	-4129
▁mabisang	-4130
▁magbigay	-4131
▁magdamag	-4132
▁mahalaga	-4133
▁mahigpit	-4134
▁mangyari	-4135
▁marangal	-4136
▁mayabang	-4137
▁paggamit	-4138
▁paghanga	-4139
▁paglakad	-4140
▁sabayang	-4141
▁sariwang	-4142
▁sinumang	-4143
▁taludtod	-4144
▁tanghali	-4145
▁Kamatayan	-4146
▁Makatunao	-4147
▁Malungkot	-4148
▁Nagkaroon	-4149
▁Tenoriong	-4150
▁damdaming	-4151
▁halimuyak	-4152
▁kahirapan	-4153
▁kalikasan	-4154
▁kamahalan	-4155
▁karaniwan	-4156
▁kasabikan	-4157
▁magsasaka	-4158
▁mahimbing	-4159
▁maliwanag	-4160
▁nagtanong	-4161
▁nakaharap	-4162
▁nalalaman	-4163
▁nanirahan	-4164
▁pamayanan	-4165
▁papalapit	-4166
▁spotlight	-4167
▁Ginbitinan	-4168
▁Kaligirang	-4169
▁Pangasinan	-4170
▁kapayapaan	-4171
▁magnanakaw	-4172
▁maningning	-4173
▁masasamang	-4174
▁nagpasalin	-4175
▁nangyayari	-4176
▁pagbabalik	-4177
▁pagsintang	-4178
▁balahibuhin	-4179
▁maglalakbay	-4180
▁mangingisda	-4181
▁matatandang	-4182
▁nagdiriwang	-4183
▁naghahangad	-4184
▁paghahangad	-4185
▁pangungusap	-4186
▁kasalukuyang	-4187
▁kinaroroonan	-4188
▁pagkakataong	-4189
▁pangyayaring	-4190
▁Interpretasyon	-4191
▁Pangkasaysayan	-4192
▁nagpapaliwanag	-4193
▁pananampalataya	-4194
AK	-4195
Di	-4196
Ia	-4197
SA	-4198
Ul	-4199
av	-4200
bl	-4201
ch	-4202
de	-4203
Mat	-4204
ait	-4205
bgl	-4206
dim	-4207
eda	-4208
egh	-4209
ela	-4210
ion	-4211
ipi	-4212
kad	-4213
lon	-4214
mal	-4215
ngi	-4216
pat	-4217
rop	-4218
sob	-4219
ton	-4220
tot	-4221
unw	-4222
▁Em	-4223
▁Fr	-4224
▁iw	-4225
▁uw	-4226
Iyan	-4227
Saan	-4228
abos	-4229
agos	-4230
akda	-4231
aloy	-4232
amao	-4233
anto	-4234
apad	-4235
aram	-4236
atal	-4237
atlo	-4238
awla	-4239
bers	-4240
daan	-4241
elih	-4242
esta	-4243
hhhh	-4244
ibot	-4245
ikin	-4246
ilio	-4247
ipat	-4248
isap	-4249
kaya	-4250
king	-4251
laki	-4252
mong	-4253
oras	-4254
puno	-4255
tama	-4256
taon	-4257
ukaw	-4258
umpo	-4259
unaw	-4260
usob	-4261
usot	-4262
usta	-4263
usub	-4264
utla	-4265
utop	-4266
uway	-4267
uyas	-4268
wili	-4269
▁Aba	-4270
▁Apo	-4271
▁Bub	-4272
▁Buh	-4273
▁Has	-4274
▁Rom	-4275
▁Vil	-4276
▁and	-4277
▁dah	-4278
▁dar	-4279
▁day	-4280
▁dos	-4281
▁etn	-4282
▁huw	-4283
▁ind	-4284
▁lab	-4285
▁lig	-4286
▁mum	-4287
▁pir	-4288
▁puw	-4289
▁tap	-4290
▁tot	-4291
▁uli	-4292
▁win	-4293
Babae	-4294
Epiko	-4295
abato	-4296
adong	-4297
ambot	-4298
angad	-4299
anubo	-4300
aping	-4301
areal	-4302
arusa	-4303
ayuan	-4304
baran	-4305
daang	-4306
esang	-4307
handa	-4308
idlip	-4309
ihasa	-4310
ilaan	-4311
imdim	-4312
ingas	-4313
inlok	-4314
intik	-4315
ipang	-4316
isisi	-4317
kapal	-4318
nilay	-4319
tamis	-4320
uezon	-4321
uhuli	-4322
ukuha	-4323
unian	-4324
upaan	-4325
uusap	-4326
wiran	-4327
yagan	-4328
▁Baka	-4329
▁Cruz	-4330
▁Flor	-4331
▁Gaya	-4332
▁Herm	-4333
▁Kami	-4334
▁Lahi	-4335
▁Mong	-4336
▁Naka	-4337
▁Pagt	-4338
▁Paib	-4339
▁Puno	-4340
▁Puso	-4341
▁Sabi	-4342
▁Sina	-4343
▁Unti	-4344
▁akda	-4345
▁bida	-4346
▁bote	-4347
▁buti	-4348
▁dagl	-4349
▁emos	-4350
▁hits	-4351
▁igat	-4352
▁inam	-4353
▁ipak	-4354
▁iyak	-4355
▁kabu	-4356
▁kayl	-4357
▁leeg	-4358
▁mait	-4359
▁mamb	-4360
▁pain	-4361
▁sist	-4362
▁taos	-4363
▁tugt	-4364
▁unos	-4365
Alamat	-4366
Ngayon	-4367
Ulitin	-4368
aantay	-4369
aasawa	-4370
adyang	-4371
agalan	-4372
agatin	-4373
ahamok	-4374
akbong	-4375
akutan	-4376
alinga	-4377
alipas	-4378
angkat	-4379
angkop	-4380
asakay	-4381
atagpo	-4382
awakas	-4383
awalan	-4384
ayaran	-4385
daling	-4386
eghorn	-4387
ilipat	-4388
imulan	-4389
intong	-4390
ipagan	-4391
irikit	-4392
isahan	-4393
isyong	-4394
iyakap	-4395
masdan	-4396
onggon	-4397
otroso	-4398
oyagan	-4399
pantay	-4400
raming	-4401
salita	-4402
samang	-4403
tataka	-4404
ubukas	-4405
ubukin	-4406
ugugol	-4407
untian	-4408
untong	-4409
upitan	-4410
uwiran	-4411
▁Akala	-4412
▁Bagyo	-4413
▁Bangk	-4414
▁Baran	-4415
▁Batid	-4416
▁Bukid	-4417
▁Bukod	-4418
▁Buong	-4419
▁Iyong	-4420
▁Lalap	-4421
▁Nakal	-4422
▁Natut	-4423
▁Pinag	-4424
▁Samar	-4425
▁Tunay	-4426
▁aalis	-4427
▁alang	-4428
▁along	-4429
▁batas	-4430
▁batid	-4431
▁bigat	-4432
▁binub	-4433
▁bungo	-4434
▁busog	-4435
▁daloy	-4436
▁duhat	-4437
▁gulat	-4438
▁hangi	-4439
▁hatol	-4440
▁hawla	-4441
▁hener	-4442
▁himig	-4443
▁hinih	-4444
▁inaas	-4445
▁ingat	-4446
▁kaisa	-4447
▁kalul	-4448
▁kamao	-4449
▁kanal	-4450
▁karne	-4451
▁kaunl	-4452
▁lawin	-4453
▁likha	-4454
▁magin	-4455
▁magug	-4456
▁malul	-4457
▁mapup	-4458
▁mayay	-4459
▁minsa	-4460
▁narar	-4461
▁nasas	-4462
▁nasis	-4463
▁papel	-4464
▁patut	-4465
▁pauwi	-4466
▁payat	-4467
▁pinab	-4468
▁pipit	-4469
▁salat	-4470
▁sarap	-4471
▁sinis	-4472
▁tamad	-4473
▁tibay	-4474
▁tigil	-4475
▁tuhod	-4476
▁ulang	-4477
▁ulila	-4478
Lalabas	-4479
Salamat	-4480
Uulitin	-4481
agalang	-4482
agdagan	-4483
akamtan	-4484
akbuhan	-4485
apakita	-4486
arungan	-4487
atayuan	-4488
atingin	-4489
hikayat	-4490
ilalang	-4491
unguhan	-4492
▁Hasmin	-4493
▁Kumuha	-4494
▁Malaki	-4495
▁Maliit	-4496
▁Naisip	-4497
▁Natuwa	-4498
▁Paalam	-4499
▁Pusong	-4500
▁Rogong	-4501
▁Siyang	-4502
▁Tumayo	-4503
▁Yaring	-4504
▁anyong	-4505
▁bughaw	-4506
▁butong	-4507
▁dahong	-4508
▁ikinab	-4509
▁kabibe	-4510
▁kampon	-4511
▁kanang	-4512
▁kumuha	-4513
▁laruan	-4514
▁libong	-4515
▁mailap	-4516
▁mangga	-4517
▁minana	-4518
▁misyon	-4519
▁naghih	-4520
▁naiwan	-4521
▁nasang	-4522
▁paalam	-4523
▁pagkah	-4524
▁pagnan	-4525
▁pahint	-4526
▁palang	-4527
▁pataas	-4528
▁piging	-4529
▁pinagb	-4530
▁pisngi	-4531
▁puring	-4532
▁regalo	-4533
▁sundin	-4534
▁taghoy	-4535
▁taguan	-4536
▁tahana	-4537
▁tanang	-4538
▁tugtog	-4539
........	-4540
alarawan	-4541
angkahoy	-4542
angkapan	-4543
liwayway	-4544
mamalaki	-4545
▁Bandila	-4546
▁Epikong	-4547
▁Filipin	-4548
▁Hagibis	-4549
▁Kawayan	-4550
▁Lalabas	-4551
▁Liwanag	-4552
▁Lumatay	-4553
▁Lumikha	-4554
▁Madalas	-4555
▁Paganay	-4556
▁Pumayag	-4557
▁Sapagka	-4558
▁balaraw	-4559
▁busilak	-4560
▁emosyon	-4561
▁ganyang	-4562
▁hawakan	-4563
▁ibababa	-4564
▁ibabang	-4565
▁instrum	-4566
▁ipinagk	-4567
▁itinuro	-4568
▁kamalig	-4569
▁kapitan	-4570
▁kukunin	-4571
▁lalabas	-4572
▁lalapit	-4573
▁lupaing	-4574
▁mababaw	-4575
▁madlang	-4576
▁magsabi	-4577
▁magsisi	-4578
▁mahalin	-4579
▁mahulog	-4580
▁malawak	-4581
▁mamahal	-4582
▁marupok	-4583
▁matikas	-4584
▁maunlad	-4585
▁minsang	-4586
▁naganap	-4587
▁nagsabi	-4588
▁nangags	-4589
▁nangung	-4590
▁natakot	-4591
▁sultana	-4592
▁sumigaw	-4593
▁takdang	-4594
▁umakyat	-4595
▁umiibig	-4596
▁umiiyak	-4597
▁watawat	-4598
ahalagang	-4599
asalubong	-4600
iwantiwan	-4601
▁Bumbaran	-4602
▁Masayang	-4603
▁Masinlok	-4604
▁Nagising	-4605
▁Narating	-4606
▁Parabula	-4607
▁Sabayang	-4608
▁Sampalok	-4609
▁dosenang	-4610
▁hiniling	-4611
▁ibibigay	-4612
▁ikinasal	-4613
▁inilagay	-4614
▁kadakila	-4615
▁karimlan	-4616
▁kasamang	-4617
▁kasuotan	-4618
▁katulong	-4619
▁kaunting	-4620
▁kawawang	-4621
▁lansones	-4622
▁mabangis	-4623
▁magarang	-4624
▁magising	-4625
▁makakain	-4626
▁makatang	-4627
▁mamasyal	-4628
▁manggang	-4629
▁naliligo	-4630
▁natutong	-4631
▁pagkakal	-4632
▁palamuti	-4633
▁pantalon	-4634
▁parabola	-4635
▁tinubuan	-4636
apangasawa	-4637
▁Baranugun	-4638
▁Dinoyagan	-4639
▁Magandang	-4640
▁Maririnig	-4641
▁Nararapat	-4642
▁Naririnig	-4643
▁Paiborong	-4644
▁gumagamit	-4645
▁ipinakita	-4646
▁kabanalan	-4647
▁kakayahan	-4648
▁karanasan	-4649
▁kasipagan	-4650
▁kaugnayan	-4651
▁magaganda	-4652
▁makabalik	-4653
▁malalakas	-4654
▁mananakop	-4655
▁mapalagay	-4656
▁namumuhay	-4657
▁pagbabago	-4658
▁pagkabata	-4659
▁palibhasa	-4660
▁seremonya	-4661
▁tumanggap	-4662
▁Lalapindig	-4663
▁Magindanao	-4664
▁Sampaguita	-4665
▁gumagapang	-4666
▁kabutihang	-4667
▁kagustuhan	-4668
▁kalahating	-4669
▁mangangaso	-4670
▁nagbabadya	-4671
▁nagkasakit	-4672
▁pagkakaisa	-4673
▁paglalaban	-4674
▁pagsasayaw	-4675
▁pamamahala	-4676
▁pamanhikan	-4677
▁panibagong	-4678
▁sinalubong	-4679
▁ipagtanggol	-4680
▁kagandahang	-4681
▁magkakaroon	-4682
▁naglalakbay	-4683
▁nangangarap	-4684
▁pagbabagong	-4685
▁pagsasalita	-4686
▁Maniwantiwan	-4687
▁Salamangkero	-4688
▁bungangkahoy	-4689
▁kinatatayuan	-4690
▁mangyayaring	-4691
▁napakalaking	-4692
▁pagmamahalan	-4693
▁magkasintahan	-4694
▁pagpapahalaga	-4695
▁pagsasalaysay	-4696
▁pakikipaglaban	-4697
12	-4698
HH	-4699
II	-4700
LI	-4701
iv	-4702
ke	-4703
ll	-4704
se	-4705
sy	-4706
All	-4707
And	-4708
Kay	-4709
Mas	-4710
aly	-4711
ani	-4712
aon	-4713
arl	-4714
ayu	-4715
bah	-4716
eod	-4717
ibu	-4718
ice	-4719
iga	-4720
igo	-4721
ima	-4722
ini	-4723
ket	-4724
kod	-4725
mah	-4726
mpa	-4727
nap	-4728
ope	-4729
owa	-4730
pad	-4731
ral	-4732
rip	-4733
roc	-4734
sil	-4735
tal	-4736
umi	-4737
ver	-4738
wid	-4739
▁Ad	-4740
▁IV	-4741
▁Oy	-4742
Ikaw	-4743
Kasi	-4744
Mags	-4745
abon	-4746
abut	-4747
ahok	-4748
akin	-4749
alau	-4750
amak	-4751
amon	-4752
ampi	-4753
apwa	-4754
atin	-4755
avay	-4756
echo	-4757
ekto	-4758
enan	-4759
eron	-4760
eses	-4761
esus	-4762
fina	-4763
ibit	-4764
idad	-4765
ikaw	-4766
ilat	-4767
inda	-4768
inip	-4769
inog	-4770
irio	-4771
itil	-4772
iwil	-4773
lupa	-4774
ngit	-4775
oche	-4776
oice	-4777
pada	-4778
pain	-4779
paro	-4780
puti	-4781
rado	-4782
rami	-4783
uban	-4784
ubli	-4785
uhaw	-4786
ukay	-4787
ulas	-4788
umba	-4789
ural	-4790
usad	-4791
usal	-4792
usaw	-4793
utak	-4794
uwat	-4795
uyin	-4796
yaya	-4797
▁Aan	-4798
▁Bah	-4799
▁Far	-4800
▁Hah	-4801
▁Kad	-4802
▁Kur	-4803
▁Med	-4804
▁Nai	-4805
▁Pah	-4806
▁Pul	-4807
▁Sib	-4808
▁Sus	-4809
▁Tar	-4810
▁Ton	-4811
▁Uri	-4812
▁aan	-4813
▁aks	-4814
▁ala	-4815
▁ani	-4816
▁api	-4817
▁ber	-4818
▁dat	-4819
▁gar	-4820
▁gas	-4821
▁hab	-4822
▁hid	-4823
▁hit	-4824
▁hul	-4825
▁iis	-4826
▁isk	-4827
▁pit	-4828
▁pos	-4829
▁sob	-4830
▁sol	-4831
▁tur	-4832
Diyos	-4833
Galit	-4834
Gusto	-4835
Higit	-4836
aalab	-4837
aanan	-4838
aanim	-4839
aaway	-4840
abila	-4841
agulo	-4842
ahuli	-4843
akang	-4844
among	-4845
anday	-4846
angga	-4847
angin	-4848
angya	-4849
anhik	-4850
arama	-4851
asiya	-4852
ayain	-4853
bayad	-4854
dulan	-4855
endag	-4856
engke	-4857
idlan	-4858
iguni	-4859
impal	-4860
imtim	-4861
inaas	-4862
ingit	-4863
ipapa	-4864
ipita	-4865
iring	-4866
obong	-4867
okawa	-4868
palit	-4869
saing	-4870
sunod	-4871
tanim	-4872
tuloy	-4873
ubali	-4874
ungaw	-4875
ungay	-4876
untik	-4877
unung	-4878
uulit	-4879
uwahe	-4880
uwing	-4881
uyuan	-4882
▁Aila	-4883
▁Atis	-4884
▁Band	-4885
▁Cora	-4886
▁Gran	-4887
▁Ibon	-4888
▁Igin	-4889
▁Ilan	-4890
▁Impo	-4891
▁Kaig	-4892
▁Kris	-4893
▁Lalo	-4894
▁Lope	-4895
▁Marc	-4896
▁Maru	-4897
▁Maya	-4898
▁Seus	-4899
▁Sing	-4900
▁Teod	-4901
▁Tubo	-4902
▁Wari	-4903
▁alim	-4904
▁bany	-4905
▁bati	-4906
▁bola	-4907
▁gabe	-4908
▁gawi	-4909
▁goby	-4910
▁ingk	-4911
▁itak	-4912
▁kays	-4913
▁kont	-4914
▁kump	-4915
▁kusa	-4916
▁kuta	-4917
▁maih	-4918
▁mais	-4919
▁mesa	-4920
▁muni	-4921
▁nagg	-4922
▁nami	-4923
▁nanl	-4924
▁over	-4925
▁pagn	-4926
▁pait	-4927
▁paka	-4928
▁pera	-4929
▁pero	-4930
▁plan	-4931
▁pray	-4932
▁prop	-4933
▁sari	-4934
▁simp	-4935
▁suot	-4936
▁tema	-4937
▁tore	-4938
▁utop	-4939
▁uwak	-4940
Ingles	-4941
Tatayo	-4942
aanong	-4943
abasag	-4944
ahawak	-4945
ahilig	-4946
aklolo	-4947
aksaya	-4948
alawak	-4949
alayin	-4950
alikan	-4951
alikod	-4952
aluhan	-4953
anggal	-4954
antong	-4955
apakan	-4956
arasal	-4957
atanas	-4958
atanod	-4959
awirin	-4960
bigyan	-4961
hagang	-4962
halang	-4963
ibilog	-4964
igmang	-4965
iingat	-4966
iisang	-4967
ilahin	-4968
ilalim	-4969
ilitan	-4970
imutan	-4971
inggil	-4972
inisid	-4973
inting	-4974
ipitas	-4975
orotan	-4976
uluhod	-4977
unurin	-4978
unwari	-4979
urayan	-4980
usbong	-4981
uugali	-4982
yembre	-4983
▁Akong	-4984
▁Cirio	-4985
▁Dahon	-4986
▁Dinar	-4987
▁Duhat	-4988
▁Epiko	-4989
▁Gener	-4990
▁Grupo	-4991
▁Jesus	-4992
▁Kalik	-4993
▁Kanya	-4994
▁Labis	-4995
▁Lamut	-4996
▁Limay	-4997
▁Luzon	-4998
▁Makan	-4999
▁Natat	-5000
▁Noche	-5001
▁Padre	-5002
▁Palay	-5003
▁Patay	-5004
▁Pinoy	-5005
▁Rabut	-5006
▁Sarid	-5007
▁Siyam	-5008
▁Tanag	-5009
▁Timog	-5010
▁Tungk	-5011
▁akala	-5012
▁anito	-5013
▁antas	-5014
▁asong	-5015
▁balae	-5016
▁bangg	-5017
▁banig	-5018
▁baong	-5019
▁beses	-5020
▁binhi	-5021
▁biyas	-5022
▁digma	-5023
▁dumad	-5024
▁estud	-5025
▁gaano	-5026
▁galaw	-5027
▁gilid	-5028
▁gulay	-5029
▁hamon	-5030
▁hapag	-5031
▁hinag	-5032
▁hipan	-5033
▁hukbo	-5034
▁ingay	-5035
▁ipagh	-5036
▁kakah	-5037
▁kapan	-5038
▁kapus	-5039
▁karak	-5040
▁kawan	-5041
▁kinak	-5042
▁kinap	-5043
▁kiwil	-5044
▁kumot	-5045
▁makam	-5046
▁malig	-5047
▁maliw	-5048
▁mandi	-5049
▁mapam	-5050
▁minum	-5051
▁mutya	-5052
▁nahih	-5053
▁nakad	-5054
▁napan	-5055
▁ngiti	-5056
▁nguni	-5057
▁nilal	-5058
▁nimpa	-5059
▁niyog	-5060
▁papag	-5061
▁papay	-5062
▁pawis	-5063
▁pinal	-5064
▁pinas	-5065
▁sakay	-5066
▁salin	-5067
▁sulok	-5068
▁tagal	-5069
▁taluk	-5070
▁tanik	-5071
▁tapis	-5072
▁tinik	-5073
▁titig	-5074
▁tiyan	-5075
▁tungo	-5076
Andrade	-5077
Sabihin	-5078
abaihan	-5079
abangan	-5080
akailan	-5081
akainin	-5082
akilang	-5083
akitang	-5084
amangka	-5085
amdamin	-5086
ampakan	-5087
anganak	-5088
angging	-5089
arinlan	-5090
atiling	-5091
babawal	-5092
ibingan	-5093
ilinang	-5094
ilingon	-5095
imagsik	-5096
indihan	-5097
mamahal	-5098
masyong	-5099
otabato	-5100
ubulong	-5101
uhangin	-5102
uhunang	-5103
uluhang	-5104
ulungin	-5105
utulong	-5106
uturing	-5107
▁Aanhin	-5108
▁Androm	-5109
▁Baysay	-5110
▁Farida	-5111
▁Flores	-5112
▁Impong	-5113
▁Iskong	-5114
▁Kayong	-5115
▁Naiwan	-5116
▁Nawala	-5117
▁Pangan	-5118
▁Romano	-5119
▁Silang	-5120
▁Waring	-5121
▁alamin	-5122
▁bagang	-5123
▁baging	-5124
▁bantay	-5125
▁bigkas	-5126
▁bubong	-5127
▁dulang	-5128
▁ibigay	-5129
▁ibigin	-5130
▁inumin	-5131
▁ipinak	-5132
▁isipin	-5133
▁kaakit	-5134
▁kabata	-5135
▁kinain	-5136
▁kislap	-5137
▁labing	-5138
▁lambak	-5139
▁langis	-5140
▁lanubo	-5141
▁layang	-5142
▁linggo	-5143
▁madula	-5144
▁mahaba	-5145
▁maingg	-5146
▁mainit	-5147
▁maipag	-5148
▁manang	-5149
▁mapagk	-5150
▁masdan	-5151
▁maubos	-5152
▁nakaka	-5153
▁nangag	-5154
▁natuto	-5155
▁ngipin	-5156
▁orasan	-5157
▁paghah	-5158
▁pagkam	-5159
▁pagkas	-5160
▁pagpup	-5161
▁pantay	-5162
▁pastol	-5163
▁pating	-5164
▁patpat	-5165
▁paulit	-5166
▁pinaka	-5167
▁punung	-5168
▁sindak	-5169
▁sumama	-5170
▁sumuko	-5171
▁trumpo	-5172
▁tumira	-5173
▁turuan	-5174
▁umaasa	-5175
▁umawit	-5176
▁unahan	-5177
▁utusan	-5178
akawalan	-5179
alimuyak	-5180
alinhaga	-5181
anggulan	-5182
apaunlad	-5183
atagpuan	-5184
aysayang	-5185
elihiyon	-5186
ilingkod	-5187
ingganda	-5188
lalakbay	-5189
ulantang	-5190
ulungkot	-5191
urusahan	-5192
▁Abuhing	-5193
▁Basahin	-5194
▁Bulusan	-5195
▁Bumalik	-5196
▁Bungang	-5197
▁Corazon	-5198
▁Datapwa	-5199
▁Donggon	-5200
▁Ginamit	-5201
▁Ikalawa	-5202
▁Ilianon	-5203
▁Ipinagt	-5204
▁Kapitan	-5205
▁Katulad	-5206
▁Larawan	-5207
▁Matanda	-5208
▁Munting	-5209
▁Natakot	-5210
▁Patuloy	-5211
▁Pumunta	-5212
▁Sampung	-5213
▁Satanas	-5214
▁Sicavay	-5215
▁Sumpain	-5216
▁Teodoro	-5217
▁Toniong	-5218
▁Tumawag	-5219
▁Walayin	-5220
▁alapaap	-5221
▁bagamat	-5222
▁basahin	-5223
▁bintana	-5224
▁bituing	-5225
▁diumano	-5226
▁dumalaw	-5227
▁gagamit	-5228
▁gitnang	-5229
▁hanggan	-5230
▁hiniram	-5231
▁hinubog	-5232
▁hitsura	-5233
▁igalang	-5234
▁inaasam	-5235
▁inaawit	-5236
▁ingkong	-5237
▁kabiyak	-5238
▁kabuuan	-5239
▁kadilim	-5240
▁kapalit	-5241
▁luntian	-5242
▁maagang	-5243
▁magluto	-5244
▁maingat	-5245
▁makisig	-5246
▁malalag	-5247
▁malasin	-5248
▁malubha	-5249
▁mapatay	-5250
▁marapat	-5251
▁matakot	-5252
▁matipid	-5253
▁matsing	-5254
▁minahal	-5255
▁nabihag	-5256
▁nagbago	-5257
▁nagdala	-5258
▁naglaho	-5259
▁nagturo	-5260
▁napakar	-5261
▁niyakap	-5262
▁pabango	-5263
▁pagpili	-5264
▁pakasal	-5265
▁palabas	-5266
▁pananaw	-5267
▁panging	-5268
▁papaano	-5269
▁pinagka	-5270
▁pumayag	-5271
▁sayawan	-5272
▁sintang	-5273
▁sistema	-5274
▁tanglaw	-5275
▁taniman	-5276
▁tinipon	-5277
▁totoong	-5278
▁tungkod	-5279
▁umunlad	-5280
alinghaga	-5281
anggalang	-5282
intakutan	-5283
▁Doronoon	-5284
▁Gayundin	-5285
▁Halamang	-5286
▁Kalabasa	-5287
▁Kalayaan	-5288
▁Karaniwa	-5289
▁Kristong	-5290
▁Maykapal	-5291
▁Naalaala	-5292
▁Naghanda	-5293
▁Tanagyaw	-5294
▁Tumulong	-5295
▁balangay	-5296
▁binuksan	-5297
▁buhangin	-5298
▁bunganga	-5299
▁gobyerno	-5300
▁guniguni	-5301
▁gunitain	-5302
▁iniaalay	-5303
▁inihanda	-5304
▁inutusan	-5305
▁kabaitan	-5306
▁kampilan	-5307
▁karuwahe	-5308
▁katauhan	-5309
▁liwayway	-5310
▁lumangoy	-5311
▁mababang	-5312
▁mababasa	-5313
▁magmahal	-5314
▁maibigan	-5315
▁makapags	-5316
▁malamlam	-5317
▁manugang	-5318
▁mapayapa	-5319
▁masaklap	-5320
▁mawawala	-5321
▁maybahay	-5322
▁minokawa	-5323
▁nagbalik	-5324
▁nagdulot	-5325
▁naglilip	-5326
▁nagpasya	-5327
▁nahuhuli	-5328
▁natirang	-5329
▁pabareal	-5330
▁pagkakat	-5331
▁pagsikat	-5332
▁pagsinta	-5333
▁pagtatag	-5334
▁pagtupad	-5335
▁palengke	-5336
▁panghabi	-5337
▁piyesang	-5338
▁pulubing	-5339
▁sinabing	-5340
▁talangka	-5341
▁talipapa	-5342
▁tanungin	-5343
▁tinangay	-5344
▁tugtugin	-5345
▁tumutubo	-5346
apastangan	-5347
atutunayan	-5348
▁Amburayan	-5349
▁Edukasyon	-5350
▁Inalagaan	-5351
▁Nagpaalam	-5352
▁Nagtanong	-5353
▁Pagkaraan	-5354
▁Palibhasa	-5355
▁Tinatawag	-5356
▁bahagyang	-5357
▁banggitin	-5358
▁humihingi	-5359
▁ibinalita	-5360
▁ikalawang	-5361
▁kabukiran	-5362
▁kabutihan	-5363
▁kalawakan	-5364
▁kasagutan	-5365
▁katuwiran	-5366
▁kaunlaran	-5367
▁lumalapit	-5368
▁magkasama	-5369
▁mamahalin	-5370
▁maririkit	-5371
▁masilayan	-5372
▁matagpuan	-5373
▁matatawag	-5374
▁nagbabago	-5375
▁nagdurusa	-5376
▁naglahong	-5377
▁nagsisisi	-5378
▁nasilayan	-5379
▁pagsasabi	-5380
▁pagsilang	-5381
▁pakinggan	-5382
▁pangalang	-5383
▁pasalamat	-5384
▁patawarin	-5385
▁sumusunod	-5386
▁tinutukoy	-5387
▁tradisyon	-5388
▁tumutukoy	-5389
aniniwalaan	-5390
▁Kaigorotan	-5391
▁Kailangang	-5392
▁Kalahating	-5393
▁Karaniwang	-5394
▁Nagpatuloy	-5395
▁Pagmamahal	-5396
▁Panganiban	-5397
▁Saridandan	-5398
▁alalahanin	-5399
▁bulubunduk	-5400
▁estudyante	-5401
▁kababaihan	-5402
▁kaparangan	-5403
▁karamdaman	-5404
▁katamtaman	-5405
▁magbibigay	-5406
▁magtotroso	-5407
▁masasabing	-5408
▁nalilimbag	-5409
▁naramdaman	-5410
▁paghahanda	-5411
▁pahintulot	-5412
▁pamamaraan	-5413
▁pangangaso	-5414
▁panitikang	-5415
▁pinangalan	-5416
▁talampakan	-5417
▁tinulungan	-5418
▁Kahalagahan	-5419
▁iginagalang	-5420
▁karunungang	-5421
▁kasangkapan	-5422
▁katungkulan	-5423
▁kinabukasan	-5424
▁mainggiting	-5425
▁mapangasawa	-5426
▁nagkakaroon	-5427
▁nagtataglay	-5428
▁napakaganda	-5429
▁pakakasalan	-5430
▁pangalawang	-5431
▁panghikayat	-5432
▁pinarusahan	-5433
▁mandirigmang	-5434
▁nagpapahayag	-5435
▁Lalapindigowa	-5436
▁instrumentong	-5437
▁pinagkautangan	-5438
AS	-5439
GA	-5440
In	-5441
Is	-5442
co	-5443
ez	-5444
uu	-5445
va	-5446
▁,	-5447
!!!	-5448
Low	-5449
Opo	-5450
Sas	-5451
Tut	-5452
agm	-5453
apl	-5454
arp	-5455
ate	-5456
bib	-5457
cis	-5458
dad	-5459
def	-5460
ekt	-5461
emp	-5462
him	-5463
ihi	-5464
ile	-5465
irh	-5466
isk	-5467
ite	-5468
iyo	-5469
kam	-5470
mag	-5471
mar	-5472
may	-5473
mum	-5474
ook	-5475
osa	-5476
pin	-5477
pok	-5478
sar	-5479
sel	-5480
ser	-5481
sip	-5482
tao	-5483
til	-5484
tog	-5485
tos	-5486
ubi	-5487
uda	-5488
udh	-5489
udy	-5490
uer	-5491
uos	-5492
was	-5493
yol	-5494
▁Ch	-5495
▁Hi	-5496
▁Ku	-5497
▁Le	-5498
▁Pr	-5499
▁To	-5500
▁ad	-5501
▁ek	-5502
▁ir	-5503
▁oy	-5504
▁pi	-5505
!...	-5506
Ilog	-5507
Mbgl	-5508
Miya	-5509
Pero	-5510
Taga	-5511
abab	-5512
agit	-5513
ahid	-5514
ahis	-5515
akal	-5516
ansa	-5517
aong	-5518
apar	-5519
apup	-5520
aray	-5521
arto	-5522
asta	-5523
atao	-5524
atil	-5525
atub	-5526
bata	-5527
enta	-5528
ersa	-5529
ethe	-5530
gabi	-5531
gawa	-5532
ibug	-5533
ihaw	-5534
ikbi	-5535
ikip	-5536
ikli	-5537
iksi	-5538
ilas	-5539
ildo	-5540
imat	-5541
ipol	-5542
isit	-5543
leng	-5544
nais	-5545
ning	-5546
onso	-5547
orin	-5548
oses	-5549
rang	-5550
reto	-5551
ribo	-5552
sari	-5553
sura	-5554
uela	-5555
ugaw	-5556
ugay	-5557
ugto	-5558
uhog	-5559
uipo	-5560
ukas	-5561
ukod	-5562
ulag	-5563
ular	-5564
umon	-5565
ungh	-5566
ungs	-5567
upas	-5568
upum	-5569
urno	-5570
uyot	-5571
yoso	-5572
yuan	-5573
▁Aya	-5574
▁Bai	-5575
▁Bar	-5576
▁Bur	-5577
▁Cag	-5578
▁Eto	-5579
▁Hab	-5580
▁Huh	-5581
▁Iya	-5582
▁Kaw	-5583
▁Lub	-5584
▁Mac	-5585
▁Mel	-5586
▁Mom	-5587
▁Noo	-5588
▁Per	-5589
▁Put	-5590
▁Rec	-5591
▁Rep	-5592
▁Sas	-5593
▁Sis	-5594
▁Sur	-5595
▁Tao	-5596
▁Tom	-5597
▁Umi	-5598
▁Vic	-5599
▁aba	-5600
▁abo	-5601
▁amp	-5602
▁del	-5603
▁doo	-5604
▁gug	-5605
▁hiw	-5606
▁iwi	-5607
▁iya	-5608
▁law	-5609
▁lil	-5610
▁pig	-5611
▁reh	-5612
▁sos	-5613
▁tub	-5614
▁yao	-5615
Bayan	-5616
Dahan	-5617
Iiyak	-5618
Lahat	-5619
Mahal	-5620
aaliw	-5621
abago	-5622
abata	-5623
adlad	-5624
adpad	-5625
aglag	-5626
aglit	-5627
agpak	-5628
agtas	-5629
agupa	-5630
ainit	-5631
akala	-5632
aligo	-5633
amali	-5634
ambog	-5635
anaag	-5636
anaig	-5637
andag	-5638
andro	-5639
angka	-5640
antas	-5641
antog	-5642
arhan	-5643
arpio	-5644
aruga	-5645
aslas	-5646
ataon	-5647
awagi	-5648
ayani	-5649
bagay	-5650
bisig	-5651
giliw	-5652
hindi	-5653
ibiro	-5654
iglas	-5655
ihina	-5656
imbar	-5657
indol	-5658
indra	-5659
ingon	-5660
inhaw	-5661
intal	-5662
ipana	-5663
ipong	-5664
iskis	-5665
kamay	-5666
labis	-5667
lilis	-5668
linga	-5669
lipad	-5670
lipat	-5671
luran	-5672
nayon	-5673
oloko	-5674
opiya	-5675
ormal	-5676
sanga	-5677
talan	-5678
tasan	-5679
ubang	-5680
ukang	-5681
ukano	-5682
uklay	-5683
uktot	-5684
ulain	-5685
ulano	-5686
umbas	-5687
umpas	-5688
unday	-5689
ungis	-5690
ungit	-5691
unita	-5692
upong	-5693
urusa	-5694
usubo	-5695
usyon	-5696
uutos	-5697
uwalh	-5698
uyasu	-5699
yaman	-5700
ythag	-5701
▁Abot	-5702
▁Alim	-5703
▁Alin	-5704
▁Asya	-5705
▁Dugo	-5706
▁Gamb	-5707
▁Ilaw	-5708
▁Kano	-5709
▁Kasi	-5710
▁Kast	-5711
▁Kina	-5712
▁Lamb	-5713
▁Lola	-5714
▁Lolo	-5715
▁Magu	-5716
▁Nagd	-5717
▁Pagb	-5718
▁Pagp	-5719
▁Paru	-5720
▁Poon	-5721
▁Sakb	-5722
▁Sama	-5723
▁Samb	-5724
▁Sige	-5725
▁Tama	-5726
▁Tata	-5727
▁Utos	-5728
▁Yamb	-5729
▁amoy	-5730
▁baha	-5731
▁baro	-5732
▁basa	-5733
▁base	-5734
▁biro	-5735
▁dili	-5736
▁hiya	-5737
▁idin	-5738
▁ihip	-5739
▁ikab	-5740
▁ikag	-5741
▁inis	-5742
▁itso	-5743
▁kaan	-5744
▁lamp	-5745
▁liku	-5746
▁magw	-5747
▁maip	-5748
▁myth	-5749
▁nand	-5750
▁napa	-5751
▁nati	-5752
▁nawa	-5753
▁nuno	-5754
▁paru	-5755
▁pusa	-5756
▁ramo	-5757
▁samb	-5758
▁sawi	-5759
▁sige	-5760
▁sira	-5761
▁solo	-5762
▁susi	-5763
▁tadh	-5764
▁tali	-5765
▁tamb	-5766
▁tuka	-5767
▁ubod	-5768
▁uhay	-5769
▁usok	-5770
Iaayon	-5771
Lalaki	-5772
Parang	-5773
abanan	-5774
abuhay	-5775
abusaw	-5776
abutan	-5777
aginan	-5778
agisag	-5779
agusan	-5780
agusto	-5781
ahamon	-5782
ahunan	-5783
akdang	-5784
alagos	-5785
alahad	-5786
alakal	-5787
alanin	-5788
alapad	-5789
alasin	-5790
alaueg	-5791
alayas	-5792
alikha	-5793
alupan	-5794
amitan	-5795
anawan	-5796
anghal	-5797
angkin	-5798
angong	-5799
araang	-5800
arapin	-5801
ariang	-5802
asanay	-5803
awasan	-5804
ayakap	-5805
ayanig	-5806
dalang	-5807
eksyon	-5808
etheus	-5809
hatian	-5810
hawang	-5811
ibabaw	-5812
igawan	-5813
ikaing	-5814
ikulan	-5815
ilaban	-5816
ilimot	-5817
iliyag	-5818
ipigil	-5819
itiyak	-5820
iwasan	-5821
kislap	-5822
lutang	-5823
masaya	-5824
rabida	-5825
ubukan	-5826
ugatan	-5827
uksang	-5828
ulatan	-5829
ungkal	-5830
unugin	-5831
upiter	-5832
utlang	-5833
uunlad	-5834
uwagan	-5835
wiling	-5836
▁Adlaw	-5837
▁Asong	-5838
▁Ayoko	-5839
▁Bikol	-5840
▁Bukal	-5841
▁Gawin	-5842
▁Gusto	-5843
▁Handa	-5844
▁Hirap	-5845
▁Ibang	-5846
▁Ildef	-5847
▁Kapwa	-5848
▁Kayum	-5849
▁Lubos	-5850
▁Lumul	-5851
▁Luson	-5852
▁Maawa	-5853
▁Mapat	-5854
▁Masas	-5855
▁Nanay	-5856
▁Odang	-5857
▁Panga	-5858
▁Pasko	-5859
▁Pilar	-5860
▁Sabay	-5861
▁Sagot	-5862
▁Santo	-5863
▁Sinis	-5864
▁Waray	-5865
▁alila	-5866
▁animo	-5867
▁anino	-5868
▁babas	-5869
▁balon	-5870
▁bitui	-5871
▁datap	-5872
▁dukha	-5873
▁dulot	-5874
▁gapos	-5875
▁gayun	-5876
▁hatid	-5877
▁hitik	-5878
▁humih	-5879
▁ipagl	-5880
▁isasa	-5881
▁ispir	-5882
▁kahon	-5883
▁kaita	-5884
▁kakan	-5885
▁kalan	-5886
▁kapup	-5887
▁kasam	-5888
▁kasoy	-5889
▁kinam	-5890
▁kolon	-5891
▁lakad	-5892
▁lalaw	-5893
▁lason	-5894
▁lawak	-5895
▁layon	-5896
▁lente	-5897
▁libis	-5898
▁lingg	-5899
▁lulan	-5900
▁lumal	-5901
▁lunas	-5902
▁madad	-5903
▁magpa	-5904
▁mahuh	-5905
▁malag	-5906
▁mamah	-5907
▁matim	-5908
▁matit	-5909
▁nabig	-5910
▁nakam	-5911
▁nakar	-5912
▁nakay	-5913
▁nanun	-5914
▁napat	-5915
▁ngala	-5916
▁niyon	-5917
▁nuong	-5918
▁pader	-5919
▁pamim	-5920
▁panay	-5921
▁panun	-5922
▁paral	-5923
▁pares	-5924
▁paris	-5925
▁pinup	-5926
▁plasa	-5927
▁pulos	-5928
▁pumup	-5929
▁saksi	-5930
▁salop	-5931
▁samyo	-5932
▁suson	-5933
▁tanod	-5934
▁tanso	-5935
▁tigib	-5936
▁tinit	-5937
▁torso	-5938
▁tumit	-5939
▁yakap	-5940
Ituturo	-5941
Papasok	-5942
Pupunta	-5943
abangon	-5944
abasang	-5945
adaling	-5946
ahalaan	-5947
ahihiya	-5948
alakpak	-5949
alastas	-5950
amanang	-5951
andaang	-5952
andugan	-5953
anganib	-5954
apakpak	-5955
apanhik	-5956
apiling	-5957
apitong	-5958
apusang	-5959
arangal	-5960
asaktan	-5961
ataguan	-5962
atulong	-5963
bibigay	-5964
igdigan	-5965
ikitang	-5966
indahan	-5967
irasong	-5968
isipang	-5969
isipsip	-5970
itikang	-5971
iyahang	-5972
lawigan	-5973
ubungin	-5974
upwesto	-5975
ustuhin	-5976
▁Anding	-5977
▁Apollo	-5978
▁Banlak	-5979
▁Buhong	-5980
▁Carpio	-5981
▁Dakila	-5982
▁Dumaan	-5983
▁Ganito	-5984
▁Ganoon	-5985
▁Hangin	-5986
▁Ikatlo	-5987
▁Ilongo	-5988
▁Iniwan	-5989
▁Ipugaw	-5990
▁Kidlat	-5991
▁Kikong	-5992
▁Kilala	-5993
▁Kinain	-5994
▁Kristo	-5995
▁Kuaman	-5996
▁Kuyasu	-5997
▁Layang	-5998
▁Ligaya	-5999
▁Linggo	-6000
▁Lunsod	-6001
▁Mabini	-6002
▁Malaya	-6003
▁Masdan	-6004
▁Mataas	-6005
▁Medusa	-6006
▁Niyong	-6007
▁Pabula	-6008
▁Perlas	-6009
▁Pythag	-6010
▁Republ	-6011
▁Sariwa	-6012
▁Taglay	-6013
▁Toyang	-6014
▁Umiyak	-6015
▁Victor	-6016
▁Yamang	-6017
▁Yuyuko	-6018
▁agawin	-6019
▁agimat	-6020
▁anghel	-6021
▁balana	-6022
▁balite	-6023
▁balong	-6024
▁bisita	-6025
▁bumuka	-6026
▁daanan	-6027
▁datung	-6028
▁dumalo	-6029
▁dumami	-6030
▁eksena	-6031
▁espada	-6032
▁estilo	-6033
▁ganang	-6034
▁garuda	-6035
▁giting	-6036
▁halong	-6037
▁hangga	-6038
▁hapong	-6039
▁hating	-6040
▁higaan	-6041
▁himala	-6042
▁humina	-6043
▁ihanda	-6044
▁ihatid	-6045
▁ikmong	-6046
▁imahin	-6047
▁imbing	-6048
▁inagaw	-6049
▁inspir	-6050
▁inuuna	-6051
▁ipuipo	-6052
▁itsura	-6053
▁kagyat	-6054
▁kahima	-6055
▁kalahi	-6056
▁kaming	-6057
▁kaunti	-6058
▁kumpas	-6059
▁lalung	-6060
▁ligtas	-6061
▁luhang	-6062
▁lusong	-6063
▁maaliw	-6064
▁mabisa	-6065
▁madugo	-6066
▁magbub	-6067
▁magpap	-6068
▁mapagp	-6069
▁mapait	-6070
▁mapili	-6071
▁masabi	-6072
▁mulala	-6073
▁murang	-6074
▁naakit	-6075
▁nagtut	-6076
▁nahati	-6077
▁nakang	-6078
▁naluto	-6079
▁nangak	-6080
▁napili	-6081
▁narito	-6082
▁nasaan	-6083
▁natuwa	-6084
▁nayong	-6085
▁pagdar	-6086
▁pagkad	-6087
▁pagsus	-6088
▁palalo	-6089
▁palong	-6090
▁pamana	-6091
▁papuri	-6092
▁pasiya	-6093
▁patula	-6094
▁pinili	-6095
▁putong	-6096
▁sakong	-6097
▁sansin	-6098
▁saysay	-6099
▁siguro	-6100
▁silong	-6101
▁sumang	-6102
▁tagdan	-6103
▁tainga	-6104
▁tiyaga	-6105
▁tumama	-6106
▁tuyong	-6107
▁umisip	-6108
▁utopia	-6109
ahabulan	-6110
ahiwalay	-6111
akatawan	-6112
alambing	-6113
aligtaan	-6114
ansangan	-6115
apakinig	-6116
apatayin	-6117
asalamin	-6118
awakawak	-6119
bersyong	-6120
ikitungo	-6121
ilanlang	-6122
ingkuran	-6123
ipaglaro	-6124
ipitagan	-6125
pirasong	-6126
sarimbar	-6127
ugaliang	-6128
ugtungan	-6129
ukuwento	-6130
umingiti	-6131
▁Bandina	-6132
▁Bantong	-6133
▁Bitiwan	-6134
▁Cagayan	-6135
▁Dinggin	-6136
▁Gagamba	-6137
▁Gintong	-6138
▁Granada	-6139
▁Haharap	-6140
▁Hinugot	-6141
▁Humanda	-6142
▁Humingi	-6143
▁Ikaapat	-6144
▁Ikalima	-6145
▁Ilukano	-6146
▁Itinuro	-6147
▁Kulaman	-6148
▁Mabuhay	-6149
▁Magmula	-6150
▁Mahalin	-6151
▁Malapit	-6152
▁Masakit	-6153
▁Masarap	-6154
▁Naalala	-6155
▁Nabuhay	-6156
▁Nanging	-6157
▁Napatay	-6158
▁Palayok	-6159
▁Pupunta	-6160
▁Sabihin	-6161
▁Tangkil	-6162
▁Tinipon	-6163
▁Tumango	-6164
▁alagaan	-6165
▁bagoong	-6166
▁bagyong	-6167
▁batisan	-6168
▁bayaang	-6169
▁baywang	-6170
▁binuhay	-6171
▁biyenan	-6172
▁bunsong	-6173
▁buntong	-6174
▁dagling	-6175
▁dinggin	-6176
▁dumatal	-6177
▁gamitin	-6178
▁gandang	-6179
▁gasatan	-6180
▁gumugol	-6181
▁handaan	-6182
▁himutok	-6183
▁hinango	-6184
▁hinggil	-6185
▁humanap	-6186
▁humanga	-6187
▁humarap	-6188
▁huminto	-6189
▁huwaran	-6190
▁iisipin	-6191
▁ikaapat	-6192
▁ilibing	-6193
▁iniisip	-6194
▁ipinagd	-6195
▁isilang	-6196
▁kadahil	-6197
▁kahanga	-6198
▁kalahok	-6199
▁kanayon	-6200
▁kandila	-6201
▁kuwarto	-6202
▁langgam	-6203
▁leghorn	-6204
▁ligalig	-6205
▁limutin	-6206
▁linyang	-6207
▁lumaban	-6208
▁lumukso	-6209
▁lunting	-6210
▁maaring	-6211
▁mabagal	-6212
▁mabango	-6213
▁magbago	-6214
▁magiliw	-6215
▁magsing	-6216
▁malapad	-6217
▁malusog	-6218
▁maluwat	-6219
▁mamuhay	-6220
▁mangung	-6221
▁matapat	-6222
▁matigas	-6223
▁matinik	-6224
▁mundong	-6225
▁musikal	-6226
▁nabuwal	-6227
▁nagkita	-6228
▁nagwika	-6229
▁nahabag	-6230
▁namunga	-6231
▁nangagl	-6232
▁napakat	-6233
▁natapos	-6234
▁natupad	-6235
▁paanong	-6236
▁paglaya	-6237
▁paharap	-6238
▁palihim	-6239
▁palitan	-6240
▁pamagat	-6241
▁pambata	-6242
▁panangh	-6243
▁panitik	-6244
▁papayag	-6245
▁papunta	-6246
▁paraang	-6247
▁pautang	-6248
▁pinamum	-6249
▁puhunan	-6250
▁pumatay	-6251
▁pumitas	-6252
▁pumutol	-6253
▁sikreto	-6254
▁sinagot	-6255
▁sinulid	-6256
▁sisikat	-6257
▁sumapit	-6258
▁sumayaw	-6259
▁sumpaan	-6260
▁sumulat	-6261
▁tadhana	-6262
▁tagapam	-6263
▁talulot	-6264
▁tirahan	-6265
▁tumakbo	-6266
▁tumigil	-6267
anggunian	-6268
apalooban	-6269
asalitaan	-6270
ihimagsik	-6271
ihinagpis	-6272
inhawahan	-6273
iningning	-6274
upumiglas	-6275
▁Bantawan	-6276
▁Bikulano	-6277
▁Bukidnon	-6278
▁Darangan	-6279
▁Espanyol	-6280
▁Gayunman	-6281
▁Hilagang	-6282
▁Hinampas	-6283
▁Hiniling	-6284
▁Isinulat	-6285
▁Josefina	-6286
▁Kaluluwa	-6287
▁Kasopiya	-6288
▁Katauhan	-6289
▁Macarang	-6290
▁Magbuhat	-6291
▁Magulang	-6292
▁Makikita	-6293
▁Malaking	-6294
▁Mangyari	-6295
▁Mayroong	-6296
▁Nagbalik	-6297
▁Nagyakap	-6298
▁Naisipan	-6299
▁Namangha	-6300
▁Palayain	-6301
▁Sakbawan	-6302
▁adhikain	-6303
▁alimango	-6304
▁dahilang	-6305
▁daraanan	-6306
▁engkanto	-6307
▁etnikong	-6308
▁gagapang	-6309
▁gayundin	-6310
▁gumising	-6311
▁halakhak	-6312
▁hinagkan	-6313
▁hinagpis	-6314
▁isinabit	-6315
▁isinabog	-6316
▁ispiritu	-6317
▁itinanim	-6318
▁kabiguan	-6319
▁kagaling	-6320
▁kahapong	-6321
▁kalakhan	-6322
▁kalayuan	-6323
▁kamataya	-6324
▁kapiling	-6325
▁karakter	-6326
▁katagang	-6327
▁katwiran	-6328
▁kawayang	-6329
▁kwentong	-6330
▁libangan	-6331
▁lulutang	-6332
▁lumalaki	-6333
▁lumalang	-6334
▁lumingap	-6335
▁mabilang	-6336
▁magbunga	-6337
▁maghanap	-6338
▁magkakam	-6339
▁magkakap	-6340
▁magsikap	-6341
▁makaalis	-6342
▁makakuha	-6343
▁makitang	-6344
▁malalaki	-6345
▁malambot	-6346
▁malayang	-6347
▁manatili	-6348
▁mangmang	-6349
▁manligaw	-6350
▁mapansin	-6351
▁mapapasa	-6352
▁matulain	-6353
▁matuling	-6354
▁musikang	-6355
▁nabahala	-6356
▁nagagawa	-6357
▁naggayak	-6358
▁nagkaisa	-6359
▁nagpapas	-6360
▁naisipan	-6361
▁nakadapo	-6362
▁nakitang	-6363
▁nalalabi	-6364
▁namumuno	-6365
▁nanatili	-6366
▁nanganak	-6367
▁nasabing	-6368
▁pabigkas	-6369
▁paggalaw	-6370
▁pagkakah	-6371
▁pagkatao	-6372
▁paglipas	-6373
▁pagpunta	-6374
▁pagsasal	-6375
▁palakpak	-6376
▁panganay	-6377
▁panimdim	-6378
▁pinakain	-6379
▁puntahan	-6380
▁saganang	-6381
▁sampalok	-6382
▁sinasabi	-6383
▁sisidlan	-6384
▁soloista	-6385
▁tinatang	-6386
▁titingin	-6387
▁tulisang	-6388
▁tumindig	-6389
▁tumulong	-6390
uwalhating	-6391
▁Andromeda	-6392
▁Filipinas	-6393
▁Ibinalita	-6394
▁Ildefonso	-6395
▁Kabikulan	-6396
▁Kailangan	-6397
▁Karamihan	-6398
▁Lumilitaw	-6399
▁Magbangon	-6400
▁Mongindra	-6401
▁Nabanggit	-6402
▁Pakinggan	-6403
▁Sinimulan	-6404
▁Tarabusaw	-6405
▁balangkas	-6406
▁gumaganap	-6407
▁hangganan	-6408
▁isinilang	-6409
▁kababalag	-6410
▁kadiliman	-6411
▁kailanman	-6412
▁kaitaasan	-6413
▁kakahuyan	-6414
▁kalinisan	-6415
▁kalupitan	-6416
▁kasabihan	-6417
▁kumikilos	-6418
▁lansangan	-6419
▁lilimutin	-6420
▁magdamdam	-6421
▁maginhawa	-6422
▁magkabila	-6423
▁maninisid	-6424
▁manirahan	-6425
▁matatanaw	-6426
▁maunawaan	-6427
▁mumunting	-6428
▁nagaganap	-6429
▁nagkulang	-6430
▁nagugutom	-6431
▁nakahanda	-6432
▁nakalaban	-6433
▁nakarinig	-6434
▁nakasabit	-6435
▁nakasakay	-6436
▁nakatikom	-6437
▁nakikipag	-6438
▁nalilikha	-6439
▁nalulunod	-6440
▁namamatay	-6441
▁nasusulat	-6442
▁nasusunog	-6443
▁natatanaw	-6444
▁nilalaman	-6445
▁pagbabayo	-6446
▁pagdaraan	-6447
▁pagkikita	-6448
▁pagluluto	-6449
▁pagmasdan	-6450
▁pagnanais	-6451
▁pagnanasa	-6452
▁pagpipita	-6453
▁pakasalan	-6454
▁pampangin	-6455
▁pandanggo	-6456
▁parusahan	-6457
▁patungong	-6458
▁pinagpala	-6459
▁relihiyon	-6460
▁sinasamba	-6461
▁talinhaga	-6462
▁tanggapin	-6463
▁titingnan	-6464
alingawngaw	-6465
▁Makanungan	-6466
▁Nabalitaan	-6467
▁Pambansang	-6468
▁Pinagmulan	-6469
▁Pinuntahan	-6470
▁Pythagoras	-6471
▁Silanganan	-6472
▁bibigkasin	-6473
▁bilangguan	-6474
▁hinahangad	-6475
▁hinihintay	-6476
▁inaasahang	-6477
▁kadakilaan	-6478
▁kahulugang	-6479
▁kalinangan	-6480
▁kayamanang	-6481
▁kinikilala	-6482
▁konsensiya	-6483
▁lawlawigan	-6484
▁maaliwalas	-6485
▁mabubuting	-6486
▁mabulaklak	-6487
▁magbabalik	-6488
▁maghiwalay	-6489
▁magigiting	-6490
▁magmamaliw	-6491
▁magtrabaho	-6492
▁makamandag	-6493
▁makikilala	-6494
▁maligayang	-6495
▁mamahaling	-6496
▁mapagmahal	-6497
▁mararating	-6498
▁matalinong	-6499
▁matulungan	-6500
▁matulungin	-6501
▁nabalitaan	-6502
▁nabibilang	-6503
▁nagduruyan	-6504
▁naghihirap	-6505
▁naglalahad	-6506
▁naglalaman	-6507
▁nagliliyab	-6508
▁nagmakaawa	-6509
▁nagpahinga	-6510
▁napapaloob	-6511
▁natuklasan	-6512
▁pagbanggit	-6513
▁pagbibigay	-6514
▁pagbibilog	-6515
▁paghahamok	-6516
▁paghakbang	-6517
▁pagkabuhay	-6518
▁pagkamatay	-6519
▁paglalayag	-6520
▁pagtanggap	-6521
▁pagtitipon	-6522
▁pananalita	-6523
▁pangatlong	-6524
▁pangunguha	-6525
▁pangunguna	-6526
▁paroroonan	-6527
▁pinaglaban	-6528
▁pormasyong	-6529
▁tinangkang	-6530
▁tradisyong	-6531
▁tutulungan	-6532
▁Inanyayahan	-6533
▁Ipinagtapat	-6534
▁Maguindanao	-6535
▁Pinampangan	-6536
▁imahinasyon	-6537
▁inspirasyon	-6538
▁itinuturing	-6539
▁kapaligiran	-6540
▁kasingganda	-6541
▁kumakatawan	-6542
▁madamdaming	-6543
▁magpakailan	-6544
▁magsasalita	-6545
▁mangingibig	-6546
▁naglalayong	-6547
▁nagulantang	-6548
▁nakatatanda	-6549
▁nalulungkot	-6550
▁pagmamalaki	-6551
▁pakikitungo	-6552
▁pamamalakad	-6553
▁pasasalamat	-6554
▁pinakasalan	-6555
▁Bungangsakit	-6556
▁Mitolohiyang	-6557
▁Nagpasalamat	-6558
▁Sangkatauhan	-6559
▁ikinabubuhay	-6560
▁inilalarawan	-6561
▁ipinagkaloob	-6562
▁kaginhawahan	-6563
▁mitolohiyang	-6564
▁nagmamahalan	-6565
▁nagngangalit	-6566
▁napakaraming	-6567
▁nararamdaman	-6568
▁paghihiganti	-6569
▁paglingkuran	-6570
▁pagtatanggol	-6571
▁pananghalian	-6572
▁patutunguhan	-6573
▁sandaigdigan	-6574
▁talasalitaan	-6575
▁bulubunduking	-6576
▁humahalimuyak	-6577
▁ipinagbabawal	-6578
▁ipinagpatuloy	-6579
▁kinakailangan	-6580
▁mapapangasawa	-6581
▁pinagtataguan	-6582
▁pinakamaganda	-6583
▁ipinagmamalaki	-6584
▁kapangyarihang	-6585
▁kinapapalooban	-6586
▁nangangailangan	-6587
▁pangangailangan	-6588
▁pinakamagandang	-6589
):	-6590
2)	-6591
??	-6592
Ah	-6593
Ar	-6594
LA	-6595
Si	-6596
ew	-6597
li	-6598
sh	-6599
nr	-6600
ua	-6601
-12	-6602
Bal	-6603
Dum	-6604
Hoy	-6605
Hum	-6606
Isa	-6607
Mak	-6608
Mam	-6609
Man	-6610
Nag	-6611
Nap	-6612
Pat	-6613
Pil	-6614
Sig	-6615
Sus	-6616
abo	-6617
ais	-6618
ast	-6619
ayd	-6620
ayi	-6621
bas	-6622
bid	-6623
bit	-6624
bls	-6625
enc	-6626
eny	-6627
ido	-6628
iha	-6629
iik	-6630
iil	-6631
imm	-6632
iph	-6633
ipk	-6634
irt	-6635
isl	-6636
itn	-6637
kab	-6638
kal	-6639
lod	-6640
low	-6641
mad	-6642
mok	-6643
obl	-6644
oel	-6645
ont	-6646
pal	-6647
pap	-6648
pay	-6649
rap	-6650
rim	-6651
rod	-6652
rog	-6653
ron	-6654
sul	-6655
tid	-6656
tig	-6657
tis	-6658
uoy	-6659
uum	-6660
wat	-6661
yal	-6662
yed	-6663
▁1]	-6664
▁20	-6665
▁Ts	-6666
▁el	-6667
▁hu	-6668
▁ok	-6669
▁ug	-6670
▁up	-6671
AKAS	-6672
Anak	-6673
High	-6674
Kaya	-6675
Magh	-6676
Mula	-6677
Naku	-6678
Sana	-6679
Sige	-6680
Tama	-6681
Tayo	-6682
agiw	-6683
aksi	-6684
alac	-6685
alib	-6686
alye	-6687
amas	-6688
amoy	-6689
anyo	-6690
apaw	-6691
arim	-6692
aros	-6693
asim	-6694
atsa	-6695
ayom	-6696
bing	-6697
buti	-6698
dila	-6699
Gag	-6700
eme	-6701
...?	-6702
LING	-6703
aapi	-6704
elas	-6705
ende	-6706
endi	-6707
enig	-6708
enio	-6709
eryo	-6710
fuer	-6711
hele	-6712
hing	-6713
hiya	-6714
ibak	-6715
ibin	-6716
ibok	-6717
idik	-6718
igay	-6719
ihas	-6720
ikil	-6721
ikim	-6722
ilad	-6723
inio	-6724
ipis	-6725
iral	-6726
isal	-6727
isis	-6728
isle	-6729
itna	-6730
iyuh	-6731
kain	-6732
ling	-6733
luko	-6734
napu	-6735
oilo	-6736
orya	-6737
oryo	-6738
pala	-6739
puso	-6740
rong	-6741
saan	-6742
tayo	-6743
tiis	-6744
ting	-6745
uano	-6746
ueva	-6747
ugal	-6748
ukad	-6749
ukat	-6750
ulup	-6751
unyi	-6752
upig	-6753
upin	-6754
urak	-6755
uray	-6756
urok	-6757
wita	-6758
▁...	-6759
▁Bak	-6760
▁Bay	-6761
▁Bib	-6762
▁Bol	-6763
▁Bun	-6764
▁Cap	-6765
▁Ceb	-6766
▁Day	-6767
▁Dis	-6768
▁Dom	-6769
▁Gar	-6770
▁Gay	-6771
▁Ing	-6772
▁Int	-6773
▁Iyo	-6774
▁Lip	-6775
▁Liv	-6776
▁Lor	-6777
▁Los	-6778
▁MGA	-6779
▁Rin	-6780
▁Sol	-6781
▁Tok	-6782
▁Tup	-6783
▁alo	-6784
▁bil	-6785
▁bol	-6786
▁der	-6787
▁det	-6788
▁dir	-6789
▁dur	-6790
▁duw	-6791
▁gah	-6792
▁gig	-6793
▁gul	-6794
▁guw	-6795
▁hil	-6796
▁ibo	-6797
▁kom	-6798
▁lak	-6799
As	-6800
▁El	-6801
Ibab	-6802
apoy	-6803
elan	-6804
lalo	-6805
▁Aso	-6806
▁Jac	-6807
▁Jer	-6808
▁lar	-6809
▁lol	-6810
▁lut	-6811
▁pih	-6812
▁sib	-6813
▁siy	-6814
▁tug	-6815
▁ung	-6816
Anong	-6817
Hahag	-6818
aalin	-6819
aalok	-6820
abaya	-6821
adang	-6822
adlak	-6823
aktan	-6824
akulo	-6825
alake	-6826
alata	-6827
alint	-6828
alsik	-6829
alyas	-6830
ampok	-6831
angko	-6832
antap	-6833
antsa	-6834
anzon	-6835
apuan	-6836
arami	-6837
ariin	-6838
atamp	-6839
awian	-6840
ayari	-6841
aydor	-6842
egend	-6843
entaw	-6844
ernat	-6845
erola	-6846
erong	-6847
gagat	-6848
hanga	-6849
hapon	-6850
igong	-6851
iinam	-6852
ikaan	-6853
iklab	-6854
ilaok	-6855
indoy	-6856
ipkip	-6857
irapa	-6858
irhen	-6859
isong	-6860
itain	-6861
itano	-6862
iwika	-6863
iyong	-6864
lagas	-6865
lawan	-6866
nrile	-6867
nubay	-6868
ortal	-6869
paman	-6870
raban	-6871
rangh	-6872
rimon	-6873
shirt	-6874
sibol	-6875
sihan	-6876
silip	-6877
sulok	-6878
tanaw	-6879
tapat	-6880
tidos	-6881
tugan	-6882
ubdan	-6883
ubsob	-6884
ubuka	-6885
ugmok	-6886
ukain	-6887
ulpot	-6888
umpok	-6889
unton	-6890
unyag	-6891
upkop	-6892
uriin	-6893
using	-6894
yahan	-6895
yawan	-6896
▁Ahas	-6897
▁Apoy	-6898
▁Asin	-6899
▁v	-6900
gil	-6901
mak	-6902
Ayaw	-6903
eneg	-6904
uuin	-6905
uump	-6906
uyog	-6907
▁Doo	-6908
▁Kod	-6909
▁bur	-6910
▁nir	-6911
Kaawa	-6912
Papal	-6913
aglay	-6914
agpag	-6915
alaot	-6916
atiin	-6917
danan	-6918
turan	-6919
uhian	-6920
uunan	-6921
▁Bata	-6922
▁Baut	-6923
▁Bawa	-6924
▁Bitu	-6925
▁Buto	-6926
▁Fran	-6927
▁Gand	-6928
▁Glor	-6929
▁Haba	-6930
▁Hala	-6931
▁Hari	-6932
▁Hayo	-6933
▁Iloc	-6934
▁Indo	-6935
▁Inih	-6936
▁Ipak	-6937
▁Irog	-6938
▁Joel	-6939
▁KASA	-6940
▁Kiko	-6941
▁Kult	-6942
▁Leon	-6943
▁Magm	-6944
▁Mand	-6945
▁Mata	-6946
▁Meme	-6947
▁Moro	-6948
▁Nagu	-6949
▁Nanl	-6950
▁Napa	-6951
▁Nawa	-6952
▁Orak	-6953
▁Pagl	-6954
▁Sana	-6955
▁Simb	-6956
▁Tala	-6957
▁Ulan	-6958
▁Ulap	-6959
▁adel	-6960
▁alab	-6961
▁alis	-6962
▁baly	-6963
▁daig	-6964
▁daya	-6965
▁dayo	-6966
▁diya	-6967
▁dula	-6968
▁edad	-6969
▁eduk	-6970
▁elem	-6971
▁giba	-6972
▁heto	-6973
▁hina	-6974
▁ikal	-6975
▁ikuk	-6976
▁imik	-6977
▁itut	-6978
▁kaay	-6979
▁kapa	-6980
▁kati	-6981
▁kawa	-6982
▁kayg	-6983
▁kumb	-6984
▁kwak	-6985
▁laot	-6986
▁laro	-6987
▁loro	-6988
▁luma	-6989
▁magn	-6990
▁maid	-6991
▁mali	-6992
▁mana	-6993
▁misa	-6994
▁mito	-6995
▁nail	-6996
▁naip	-6997
▁pagw	-6998
▁palo	-6999
Nin	-7000
ahed	-7001
ipid	-7002
▁Bac	-7003
▁Lun	-7004
abuti	-7005
adugo	-7006
akpan	-7007
gubat	-7008
hinan	-7009
igang	-7010
ungal	-7011
usisa	-7012
▁Aral	-7013
▁Kaka	-7014
▁abay	-7015
▁asin	-7016
▁kaaa	-7017
▁klas	-7018
▁pare	-7019
▁pios	-7020
▁pira	-7021
▁puma	-7022
▁sint	-7023
▁tawa	-7024
▁teng	-7025
▁tunt	-7026
▁turo	-7027
▁tuwi	-7028
▁ubos	-7029
▁utak	-7030
▁walo	-7031
Mabuti	-7032
Medium	-7033
Walang	-7034
aabang	-7035
aalaga	-7036
aalinl	-7037
abalot	-7038
abatid	-7039
abulid	-7040
adagit	-7041
adaluh	-7042
adikit	-7043
adurog	-7044
agawan	-7045
agayon	-7046
ahanan	-7047
ahanay	-7048
ahinto	-7049
ahusay	-7050
akaisa	-7051
akapit	-7052
alakaw	-7053
alamin	-7054
alanan	-7055
alasik	-7056
alibag	-7057
aligid	-7058
alimot	-7059
alinis	-7060
aliwan	-7061
amahal	-7062
amahin	-7063
amanan	-7064
amante	-7065
anakaw	-7066
angang	-7067
angkal	-7068
apagod	-7069
ariaan	-7070
arlika	-7071
asabog	-7072
asigaw	-7073
aspang	-7074
asyong	-7075
atagan	-7076
atangi	-7077
ataong	-7078
atayan	-7079
atiran	-7080
atotoo	-7081
awisan	-7082
bagang	-7083
bighan	-7084
dakila	-7085
darayo	-7086
entral	-7087
ernand	-7088
fuerte	-7089
hangad	-7090
idigma	-7091
idilim	-7092
igiliw	-7093
igipit	-7094
ihimig	-7095
ihinal	-7096
ikhang	-7097
ilikot	-7098
ilugan	-7099
Aba	-7100
ete	-7101
hhh	-7102
rez	-7103
tad	-7104
▁Ko	-7105
▁ho	-7106
daya	-7107
uyod	-7108
▁pop	-7109
Ilang	-7110
Isang	-7111
ensya	-7112
istro	-7113
uklas	-7114
▁Igon	-7115
▁Isis	-7116
▁bend	-7117
▁masy	-7118
▁maya	-7119
▁mist	-7120
abagin	-7121
agupit	-7122
endrez	-7123
ilyang	-7124
imithi	-7125
ingang	-7126
inigil	-7127
inipay	-7128
inlahi	-7129
insala	-7130
ipagka	-7131
ipitan	-7132
ipunin	-7133
isdang	-7134
itagan	-7135
itiwan	-7136
itnaan	-7137
iyawan	-7138
kainan	-7139
kasama	-7140
libong	-7141
ligtas	-7142
mbayan	-7143
minsan	-7144
oblema	-7145
panhik	-7146
parong	-7147
rapura	-7148
ristal	-7149
tulong	-7150
ubilin	-7151
ubuang	-7152
ukulan	-7153
ulanan	-7154
umanga	-7155
umbong	-7156
umihan	-7157
unaway	-7158
untang	-7159
untung	-7160
uparan	-7161
upitin	-7162
usabos	-7163
usapin	-7164
usilak	-7165
ustang	-7166
usubin	-7167
utulan	-7168
uwesto	-7169
walang	-7170
walong	-7171
▁Aklan	-7172
▁Amang	-7173
▁Anupa	-7174
▁Asawa	-7175
▁Ating	-7176
▁Babae	-7177
▁Baboy	-7178
▁Balag	-7179
▁Basta	-7180
▁Binab	-7181
▁Bukas	-7182
▁Bunga	-7183
▁Casta	-7184
▁Claro	-7185
▁Dahan	-7186
▁Dapwa	-7187
▁Diyan	-7188
▁Diyuh	-7189
▁Embid	-7190
▁Gabay	-7191
▁Halik	-7192
▁Halos	-7193
▁Hayop	-7194
▁Hayun	-7195
▁Hesuk	-7196
▁Higit	-7197
▁Iabot	-7198
▁Ibong	-7199
imlim	-7200
▁Igala	-7201
▁Impah	-7202
▁Indya	-7203
▁Isasa	-7204
▁Islaw	-7205
▁Itaas	-7206
▁Itago	-7207
▁Kabis	-7208
▁Kapit	-7209
▁Kinam	-7210
▁Krist	-7211
▁Kulay	-7212
▁Kulog	-7213
▁Kunin	-7214
▁Laban	-7215
▁Labos	-7216
▁Lanaw	-7217
▁Leron	-7218
▁Lihim	-7219
▁Lubay	-7220
▁Malay	-7221
▁Malin	-7222
▁Mangg	-7223
▁Mapal	-7224
▁Mateo	-7225
▁Minis	-7226
▁Namum	-7227
▁Naupo	-7228
▁Nayon	-7229
▁Nguni	-7230
▁Niyog	-7231
▁Paano	-7232
▁Pablo	-7233
▁Pilit	-7234
▁Pinak	-7235
▁Pinam	-7236
▁Pinya	-7237
▁Poong	-7238
▁Recto	-7239
▁Reyna	-7240
▁Sinta	-7241
▁Sulod	-7242
▁Takot	-7243
▁Tapat	-7244
▁Tinay	-7245
▁Totoo	-7246
▁Tuloy	-7247
▁Umuwi	-7248
▁Utang	-7249
▁Villa	-7250
▁Voice	-7251
▁abala	-7252
▁aling	-7253
▁bakya	-7254
▁balse	-7255
▁banga	-7256
▁baril	-7257
▁basag	-7258
▁basta	-7259
▁batay	-7260
▁bibit	-7261
▁binur	-7262
▁bisyo	-7263
▁boses	-7264
▁bumuo	-7265
▁burda	-7266
▁dahas	-7267
▁dapit	-7268
▁doong	-7269
▁duyan	-7270
▁ginat	-7271
▁hango	-7272
▁hikbi	-7273
▁hilaw	-7274
▁hinig	-7275
▁hinto	-7276
▁hipon	-7277
▁hiram	-7278
▁hitso	-7279
▁hurno	-7280
▁ibayo	-7281
▁iiwan	-7282
▁iiyak	-7283
▁iluha	-7284
▁ipagb	-7285
▁ituro	-7286
▁kabin	-7287
▁kadal	-7288
▁kagat	-7289
▁kakat	-7290
▁kalaw	-7291
▁kalus	-7292
▁kasuk	-7293
▁katan	-7294
▁katat	-7295
▁kawag	-7296
▁kendi	-7297
▁kinab	-7298
▁kinah	-7299
▁kinal	-7300
▁kisig	-7301
▁kupas	-7302
▁kurus	-7303
▁lalag	-7304
▁lipos	-7305
▁liyag	-7306
▁lugod	-7307
▁luksa	-7308
▁lupit	-7309
▁makap	-7310
▁makin	-7311
▁malay	-7312
▁mamul	-7313
▁manin	-7314
▁manun	-7315
▁milag	-7316
▁mismo	-7317
▁multo	-7318
▁nabuo	-7319
▁nahan	-7320
▁nanga	-7321
▁napup	-7322
▁natit	-7323
▁oyayi	-7324
▁pakir	-7325
▁palat	-7326
▁parte	-7327
▁patik	-7328
▁paunl	-7329
▁payak	-7330
▁pinan	-7331
▁pitik	-7332
▁pusod	-7333
▁putok	-7334
▁rurok	-7335
▁sakim	-7336
▁sakop	-7337
▁sampu	-7338
▁sangm	-7339
▁santa	-7340
▁sigwa	-7341
▁sikap	-7342
▁sikdo	-7343
▁silya	-7344
▁sipag	-7345
▁sumus	-7346
▁supil	-7347
▁sutla	-7348
▁takbo	-7349
▁takda	-7350
▁talon	-7351
▁tatay	-7352
▁tawad	-7353
▁tibok	-7354
▁tigas	-7355
▁timog	-7356
▁tingn	-7357
▁tinud	-7358
▁tribu	-7359
▁trono	-7360
▁tungg	-7361
▁tutol	-7362
▁umupo	-7363
▁wasto	-7364
▁yagit	-7365
▁yumao	-7366
Ibababa	-7367
Itataas	-7368
Malakas	-7369
Pilipin	-7370
Tagalog	-7371
Tatakbo	-7372
Tingnan	-7373
aanyong	-7374
agaslaw	-7375
agpalit	-7376
akalang	-7377
aksihan	-7378
alaglag	-7379
alamlam	-7380
alayuan	-7381
aligtas	-7382
alinhan	-7383
aliping	-7384
alooban	-7385
ambitan	-7386
amitang	-7387
anggawa	-7388
aplusin	-7389
aragdag	-7390
arangya	-7391
arawang	-7392
asayang	-7393
asiyang	-7394
atangis	-7395
atingaw	-7396
awalang	-7397
awangis	-7398
awawala	-7399
bahayan	-7400
ekalogo	-7401
entuhan	-7402
gagatas	-7403
ilanggo	-7404
ingapin	-7405
inggang	-7406
intasan	-7407
irahang	-7408
istahan	-7409
iwalang	-7410
iwanang	-7411
kanyang	-7412
kendeng	-7413
lilisik	-7414
marikit	-7415
rocinio	-7416
sinelas	-7417
uhayang	-7418
ukulang	-7419
umbalik	-7420
umpisal	-7421
unayang	-7422
ungawan	-7423
unyapit	-7424
usisyon	-7425
uusapan	-7426
▁Alagad	-7427
▁Anghel	-7428
▁Bagobo	-7429
▁Balita	-7430
▁Baltog	-7431
▁Baston	-7432
▁Batang	-7433
▁Batong	-7434
▁Bigyan	-7435
▁Dalaga	-7436
▁Dalhin	-7437
▁Darang	-7438
▁Emilio	-7439
▁Handog	-7440
▁Ibanag	-7441
▁Iisang	-7442
▁Iloilo	-7443
▁Inalis	-7444
▁Inayos	-7445
▁Ipinal	-7446
▁Katang	-7447
▁Kitang	-7448
▁Kurita	-7449
▁Lahing	-7450
▁Lalaki	-7451
▁Lintik	-7452
▁Lumaki	-7453
▁Lumayo	-7454
▁Magmam	-7455
▁Magpak	-7456
▁Magsas	-7457
▁Mahina	-7458
▁Mainit	-7459
▁Maitim	-7460
▁Makata	-7461
▁Malayo	-7462
▁Mamang	-7463
▁Mantap	-7464
▁Mapang	-7465
▁Marcos	-7466
▁Matang	-7467
▁Nadala	-7468
▁Nagpak	-7469
▁Naroon	-7470
▁Naubos	-7471
▁Pantas	-7472
▁Santol	-7473
▁Subali	-7474
▁Tamang	-7475
▁Tatayo	-7476
▁Tumaas	-7477
▁Umahon	-7478
▁alahas	-7479
▁alitan	-7480
▁aliwin	-7481
▁awitan	-7482
▁awitin	-7483
▁ayusin	-7484
▁bagwis	-7485
▁bahala	-7486
▁baling	-7487
▁basket	-7488
▁bihasa	-7489
▁bolang	-7490
▁bukana	-7491
▁bumili	-7492
▁dumaan	-7493
▁galang	-7494
▁gating	-7495
▁gitara	-7496
▁guwang	-7497
▁hahang	-7498
▁haligi	-7499
▁halina	-7500
▁hangal	-7501
▁hinhin	-7502
▁hintay	-7503
▁hiwaga	-7504
▁ibalik	-7505
▁ihulog	-7506
▁ikinal	-7507
▁ilabas	-7508
▁inaapi	-7509
▁inabot	-7510
▁inggit	-7511
▁inibig	-7512
▁inihan	-7513
▁inisip	-7514
▁iskrip	-7515
▁itapon	-7516
▁itulak	-7517
▁kanino	-7518
▁kaniya	-7519
▁kapuwa	-7520
▁kastil	-7521
▁katyaw	-7522
▁kubang	-7523
▁kumita	-7524
▁kutang	-7525
▁kwento	-7526
▁lagyan	-7527
▁lambat	-7528
▁lantay	-7529
▁lintik	-7530
▁liping	-7531
▁lobong	-7532
▁lumayo	-7533
▁lunday	-7534
▁maagap	-7535
▁magaan	-7536
▁magdad	-7537
▁magkat	-7538
▁magpah	-7539
▁magtat	-7540
▁magtut	-7541
▁magulo	-7542
▁mamili	-7543
▁manika	-7544
▁mapasa	-7545
▁mariin	-7546
▁matang	-7547
▁matuto	-7548
▁matwid	-7549
▁medium	-7550
▁munang	-7551
▁muntik	-7552
▁musang	-7553
▁nabali	-7554
▁nagawa	-7555
▁naglul	-7556
▁nagpal	-7557
▁nagpas	-7558
▁nagpup	-7559
▁nagsil	-7560
▁nagsip	-7561
▁naisin	-7562
▁nakiki	-7563
▁nakuha	-7564
▁nalang	-7565
▁nangas	-7566
▁napang	-7567
▁nasabi	-7568
▁natuyo	-7569
▁naubos	-7570
▁ningas	-7571
▁normal	-7572
▁pagano	-7573
▁pagbub	-7574
▁pagkap	-7575
▁pagkit	-7576
▁pagsis	-7577
▁pahina	-7578
▁palayo	-7579
▁pampan	-7580
▁panaho	-7581
▁panday	-7582
▁pangan	-7583
▁papaya	-7584
▁paslit	-7585
▁pawiin	-7586
▁perang	-7587
▁piping	-7588
▁piraso	-7589
▁pumili	-7590
▁puspos	-7591
▁sadlak	-7592
▁sagang	-7593
▁saklap	-7594
▁sariwa	-7595
▁sayang	-7596
▁singaw	-7597
▁sinira	-7598
▁sinong	-7599
▁sising	-7600
▁sumira	-7601
▁sungay	-7602
▁suyuan	-7603
▁tamaan	-7604
▁tatayo	-7605
▁tiniis	-7606
▁tinuka	-7607
▁trahed	-7608
▁tumaas	-7609
▁tumpak	-7610
▁tuwang	-7611
▁tuwina	-7612
▁umahon	-7613
▁usbong	-7614
▁walong	-7615
▁wikain	-7616
▁winika	-7617
Maraming	-7618
Nakalaan	-7619
aakalang	-7620
aginipan	-7621
ahagupit	-7622
ahatulan	-7623
akaawang	-7624
akasundo	-7625
alabasan	-7626
alaganap	-7627
alasakit	-7628
alinuhan	-7629
alipinan	-7630
amanglaw	-7631
angalaga	-7632
angkilik	-7633
apayaman	-7634
atandang	-7635
atanging	-7636
egaluhan	-7637
enegildo	-7638
iginhawa	-7639
ihingalo	-7640
iligawan	-7641
inangang	-7642
itanghal	-7643
maligaya	-7644
manghang	-7645
ranghero	-7646
unggaban	-7647
ungkalin	-7648
ungkutin	-7649
▁Antalan	-7650
▁Bituing	-7651
▁Bunsong	-7652
▁Cebuano	-7653
▁Dianzon	-7654
▁Dinarad	-7655
▁Diumano	-7656
▁Dumalap	-7657
▁Filemon	-7658
▁Ganding	-7659
▁Heswita	-7660
▁Huminto	-7661
▁Igalang	-7662
▁Ikaanim	-7663
▁Indones	-7664
▁Iniibig	-7665
▁Iniutos	-7666
▁Ipinagb	-7667
▁Isinuot	-7668
▁Itinaas	-7669
▁Jacinto	-7670
▁Jupiter	-7671
▁Kasabay	-7672
▁Katawan	-7673
▁Kayrami	-7674
▁Lipunan	-7675
▁Lubhang	-7676
▁Lumabas	-7677
▁Lumipad	-7678
▁Mabigat	-7679
▁Magsisi	-7680
▁Mahanga	-7681
▁Mahigit	-7682
▁Malabon	-7683
▁Malasin	-7684
▁Malupit	-7685
▁Marahil	-7686
▁Marikit	-7687
▁Martang	-7688
▁Matamis	-7689
▁Matsing	-7690
▁Mayaman	-7691
▁Mutyang	-7692
▁Nagtaka	-7693
▁Nagulat	-7694
▁Nakaupo	-7695
▁Nakinig	-7696
▁Ngayong	-7697
▁Paggawa	-7698
▁Palawan	-7699
▁Pangkat	-7700
▁Pinasan	-7701
▁Sadyang	-7702
▁Sagisag	-7703
▁Sandayo	-7704
▁Sicalac	-7705
▁Sumigaw	-7706
▁Sumisid	-7707
▁Tumalon	-7708
▁Tumigil	-7709
▁Watawat	-7710
▁aanihin	-7711
▁abangan	-7712
▁alagang	-7713
▁angking	-7714
▁bahagya	-7715
▁balabal	-7716
▁balitaw	-7717
▁bandera	-7718
▁batayan	-7719
▁binalot	-7720
▁bingwit	-7721
▁bumubuo	-7722
▁bunutin	-7723
▁dagitin	-7724
▁datapwa	-7725
▁detalye	-7726
▁duluhan	-7727
▁dumakot	-7728
▁duwende	-7729
▁ganoong	-7730
▁ginamit	-7731
▁ginugol	-7732
▁grupong	-7733
▁gumamit	-7734
▁hangaan	-7735
▁hapunan	-7736
▁hayaang	-7737
▁heneral	-7738
▁hulihin	-7739
▁humanda	-7740
▁ibalita	-7741
▁ibinato	-7742
▁ikalawa	-7743
▁indayog	-7744
▁inilaan	-7745
▁isipang	-7746
▁ispirit	-7747
▁isusubo	-7748
▁itanong	-7749
▁itinago	-7750
▁itinayo	-7751
▁ituturo	-7752
▁kabigha	-7753
▁kahawig	-7754
▁kakampi	-7755
▁kaparis	-7756
▁karamay	-7757
▁karayom	-7758
▁katapat	-7759
▁kaugnay	-7760
▁kristal	-7761
▁kulisap	-7762
▁kuratsa	-7763
▁lagapak	-7764
▁lalakad	-7765
▁lambong	-7766
▁lilipad	-7767
▁luluhod	-7768
▁lumakas	-7769
▁lumipat	-7770
▁lumulon	-7771
▁mabibig	-7772
▁mabunga	-7773
▁madamot	-7774
▁maganap	-7775
▁maghapo	-7776
▁magilas	-7777
▁magkaka	-7778
▁magsaya	-7779
▁magumon	-7780
▁mahigit	-7781
▁maiinam	-7782
▁makahoy	-7783
▁makapan	-7784
▁makipag	-7785
▁makipan	-7786
▁malagim	-7787
▁malilim	-7788
▁mamunga	-7789
▁mangang	-7790
▁mangaso	-7791
▁mapapal	-7792
▁marahas	-7793
▁masakit	-7794
▁masasal	-7795
▁masigla	-7796
▁masukal	-7797
▁matulin	-7798
▁mawalay	-7799
▁naalala	-7800
▁nagbayo	-7801
▁nagpala	-7802
▁nagsama	-7803
▁nahayag	-7804
▁nakakah	-7805
▁nakamit	-7806
▁nakasal	-7807
▁nakipag	-7808
▁nalanta	-7809
▁namalas	-7810
▁namimit	-7811
▁nangagh	-7812
▁nanguha	-7813
▁napagod	-7814
▁napakah	-7815
▁nariyan	-7816
▁natupok	-7817
▁naulila	-7818
▁naunang	-7819
▁nauukol	-7820
▁nililok	-7821
▁orakulo	-7822
▁pabalik	-7823
▁paghabi	-7824
▁paglaki	-7825
▁pagsang	-7826
▁paitaas	-7827
▁panalok	-7828
▁panatil	-7829
▁pasukan	-7830
▁payagan	-7831
▁pinakas	-7832
▁pinalam	-7833
▁pinangh	-7834
▁planeta	-7835
▁plantsa	-7836
▁puluhan	-7837
▁puwersa	-7838
▁rehiyon	-7839
▁sagutin	-7840
▁saklolo	-7841
▁salakay	-7842
▁salawal	-7843
▁sasagot	-7844
▁sigwang	-7845
▁silahis	-7846
▁sinapup	-7847
▁sinauna	-7848
▁sinulat	-7849
▁sinuman	-7850
▁sobrang	-7851
▁sumasal	-7852
▁sumibol	-7853
▁sumilip	-7854
▁sumipot	-7855
▁taimtim	-7856
▁tanawin	-7857
▁tandaan	-7858
▁tangkil	-7859
▁tatawag	-7860
▁tigilan	-7861
▁tinuran	-7862
▁tribong	-7863
▁tumanda	-7864
▁umaakay	-7865
▁umiikot	-7866
Lalapitan	-7867
Malungkot	-7868
Mamamatay	-7869
akasamang	-7870
alinangan	-7871
bighaning	-7872
ernatural	-7873
ihinatnan	-7874
ihinayang	-7875
iwangwang	-7876
rimonyong	-7877
uumpugang	-7878
▁Aninipay	-7879
▁Balagtas	-7880
▁Bangkaya	-7881
▁Bautista	-7882
▁Bubuksan	-7883
▁Bumaling	-7884
▁Diyuhara	-7885
▁Halikayo	-7886
▁Ibinigay	-7887
▁Inilagay	-7888
▁Isisilid	-7889
▁Isusumpa	-7890
▁Katindoy	-7891
▁Kotabato	-7892
▁Kundiman	-7893
▁Mahalaga	-7894
▁Makahiya	-7895
▁Maligaya	-7896
▁Marunong	-7897
▁Mindanaw	-7898
▁Nagagawa	-7899
▁Nagbigay	-7900
▁Nagdaang	-7901
▁Naglagay	-7902
▁Nakatira	-7903
▁Pagsapit	-7904
▁Pambansa	-7905
▁Sinundan	-7906
▁Talagang	-7907
▁Tinuruan	-7908
▁Titingin	-7909
▁Tumilaok	-7910
▁Tumingin	-7911
▁Victoria	-7912
▁alaalang	-7913
▁balahibo	-7914
▁bangkang	-7915
▁bantayog	-7916
▁batingaw	-7917
▁baybayin	-7918
▁bersyong	-7919
▁bibigyan	-7920
▁biyayang	-7921
▁bumabati	-7922
▁dalangin	-7923
▁daluyong	-7924
▁dayalogo	-7925
▁diyosang	-7926
▁dumadapo	-7927
▁gumapang	-7928
▁halatang	-7929
▁hangarin	-7930
▁hinahang	-7931
▁ibabalik	-7932
▁inihagis	-7933
▁ipinasya	-7934
▁isinalin	-7935
▁isisigaw	-7936
▁itinakda	-7937
▁kaanyuan	-7938
▁kaayusan	-7939
▁kahirapa	-7940
▁kakainin	-7941
▁kakaunti	-7942
▁kamangha	-7943
▁kapantay	-7944
▁karaniwa	-7945
▁kasawian	-7946
▁kaserola	-7947
▁katumbas	-7948
▁katuwang	-7949
▁kawikaan	-7950
▁kayarian	-7951
▁kilyawan	-7952
▁kinausap	-7953
▁kumidlat	-7954
▁labanang	-7955
▁lalagyan	-7956
▁likurang	-7957
▁lingapin	-7958
▁lumaking	-7959
▁lumalayo	-7960
▁lumuluha	-7961
▁lumutang	-7962
▁maaalala	-7963
▁maalamat	-7964
▁mababait	-7965
▁mabining	-7966
▁magbayad	-7967
▁magiting	-7968
▁magkakab	-7969
▁magmasid	-7970
▁magtuloy	-7971
▁magtungo	-7972
▁magyakap	-7973
▁mahiwaga	-7974
▁maikling	-7975
▁malaglag	-7976
▁malagong	-7977
▁maliligo	-7978
▁mamasdan	-7979
▁marahang	-7980
▁masasama	-7981
▁masisira	-7982
▁matimyas	-7983
▁matinong	-7984
▁matiyaga	-7985
▁ministro	-7986
▁nadarama	-7987
▁nagbuhat	-7988
▁nagdilim	-7989
▁naghanap	-7990
▁nagkagan	-7991
▁nagmamay	-7992
▁nagpapag	-7993
▁nagpilit	-7994
▁nagpunta	-7995
▁nagsadya	-7996
▁nagtanim	-7997
▁nagtatag	-7998
▁naisulat	-7999
▁nakulong	-8000
▁namasyal	-8001
▁nanghina	-8002
▁nangusap	-8003
▁napadaan	-8004
▁napiling	-8005
▁naririto	-8006
▁nasaktan	-8007
▁nasambit	-8008
▁naubusan	-8009
▁niluluto	-8010
▁ninanais	-8011
▁niyaring	-8012
▁orihinal	-8013
▁paaralan	-8014
▁pabulang	-8015
▁paggiliw	-8016
▁paggugol	-8017
▁paglaban	-8018
▁pagliyag	-8019
▁paglubog	-8020
▁paglutas	-8021
▁pagpapas	-8022
▁pagpatay	-8023
▁pagtanda	-8024
▁pagtulog	-8025
▁pakiusap	-8026
▁palendag	-8027
▁pamanang	-8028
▁pamaraan	-8029
▁paminsan	-8030
▁pandinig	-8031
▁pangahas	-8032
▁paniwala	-8033
▁panlabas	-8034
▁pantribo	-8035
▁papalayo	-8036
▁papanhik	-8037
▁parangal	-8038
▁parating	-8039
▁partidos	-8040
▁paruparo	-8041
▁patibong	-8042
▁patnugot	-8043
▁payapang	-8044
▁prayleng	-8045
▁pumalaot	-8046
▁pumarito	-8047
▁sagupaan	-8048
▁sakaling	-8049
▁salaming	-8050
▁salaping	-8051
▁sandaang	-8052
▁sinusuyo	-8053
▁sukdulan	-8054
▁susundan	-8055
▁tagapayo	-8056
▁tagsibol	-8057
▁talampas	-8058
▁taluktok	-8059
▁tanikala	-8060
▁tatsulok	-8061
▁tinalian	-8062
▁tinamaan	-8063
▁tindahan	-8064
▁tumanggi	-8065
▁tumangis	-8066
▁umuunlad	-8067
Balintawak	-8068
amatandang	-8069
indalawang	-8070
mamadaling	-8071
uwalhatian	-8072
▁Bahaginan	-8073
▁Capariaan	-8074
▁Damdaming	-8075
▁Disyembre	-8076
▁Embidayan	-8077
▁Ginagamit	-8078
▁Hahahahah	-8079
▁Hahawakan	-8080
▁Indrapura	-8081
▁Itinanong	-8082
▁Kasulatan	-8083
▁Kulturang	-8084
▁Macaranga	-8085
▁Magaganda	-8086
▁Magmadali	-8087
▁Makalipas	-8088
▁Mantapuli	-8089
▁Mapatubig	-8090
▁Matandang	-8091
▁Melendrez	-8092
▁Minisalaw	-8093
▁Nagkagulo	-8094
▁Naglakbay	-8095
▁Nalimutan	-8096
▁Republika	-8097
▁Tabunaway	-8098
▁Tinanggap	-8099
▁Tinawagan	-8100
▁Tiningnan	-8101
▁Titingala	-8102
▁Yambungan	-8103
▁banyagang	-8104
▁binabalik	-8105
▁binitiwan	-8106
▁direksyon	-8107
▁gagamitin	-8108
▁ginugugol	-8109
▁hagupitin	-8110
▁hardinero	-8111
▁hinaharap	-8112
▁hinihingi	-8113
▁ikapitong	-8114
▁ikauunlad	-8115
▁inihandog	-8116
▁inilibing	-8117
▁ipaglihim	-8118
▁ipagpalit	-8119
▁isalaysay	-8120
▁kabaliwan	-8121
▁kabatiran	-8122
▁kabilugan	-8123
▁kabuluhan	-8124
▁kagagawan	-8125
▁kagamitan	-8126
▁kagipitan	-8127
▁kaisipang	-8128
▁kasamaang	-8129
▁katagalan	-8130
▁katandaan	-8131
▁katapatan	-8132
▁katipunan	-8133
▁katunayan	-8134
▁kilalanin	-8135
▁kinaawaan	-8136
▁kinakapos	-8137
▁kinawayan	-8138
▁kumakanta	-8139
▁lalawigan	-8140
▁lambingan	-8141
▁luwalhati	-8142
▁mabalasik	-8143
▁mabangong	-8144
▁mabubuhay	-8145
▁magagalit	-8146
▁magbangon	-8147
▁maghapong	-8148
▁magsasabi	-8149
▁magtanong	-8150
▁mahabagin	-8151
▁mahuhulog	-8152
▁maiibigan	-8153
▁makabayan	-8154
▁makalipad	-8155
▁makapasok	-8156
▁makarinig	-8157
▁malimutan	-8158
▁mananakaw	-8159
▁mapaparam	-8160
▁masasarap	-8161
▁masunurin	-8162
▁masusupil	-8163
▁matahimik	-8164
▁matutuhan	-8165
▁nababatid	-8166
▁nabanggit	-8167
▁nagagalit	-8168
▁nagbangon	-8169
▁nagdadala	-8170
▁nagdaraan	-8171
▁naghangad	-8172
▁nagkamali	-8173
▁naglalaro	-8174
▁nagpaalam	-8175
▁nagpakita	-8176
▁nagsabing	-8177
▁nagsasaya	-8178
▁nagtuturo	-8179
▁naiinggit	-8180
▁nakabihis	-8181
▁nakalipad	-8182
▁nakayanan	-8183
▁nalathala	-8184
▁namamahay	-8185
▁nanghiram	-8186
▁nangitlog	-8187
▁nasasakop	-8188
▁natatakot	-8189
▁nawawalan	-8190
▁nilikhang	-8191
▁nililiyag	-8192
▁pagbabasa	-8193
▁pagkaraan	-8194
▁pagkawala	-8195
▁paglalaro	-8196
▁paglililo	-8197
▁pagsasama	-8198
▁pagsuyong	-8199
▁pagtatayo	-8200
▁pagtingin	-8201
▁pagtugtog	-8202
▁pagtulong	-8203
▁pakendeng	-8204
▁palayawin	-8205
▁paliwanag	-8206
▁pamamahay	-8207
▁pambayani	-8208
▁pamilyang	-8209
▁pangalawa	-8210
▁pangitain	-8211
▁pangkaran	-8212
▁panunumpa	-8213
▁paunlarin	-8214
▁pinalayas	-8215
▁pinapatay	-8216
▁pinipitas	-8217
▁salinlahi	-8218
▁sandalyas	-8219
▁sinalakay	-8220
▁sinasadya	-8221
▁sumasayaw	-8222
▁sumisikat	-8223
▁sundalong	-8224
▁taginting	-8225
▁tangraban	-8226
▁tinigilan	-8227
▁tinikling	-8228
▁tumandang	-8229
Papalibutan	-8230
aalinlangan	-8231
alinghagang	-8232
▁Bagombayan	-8233
▁Gayunpaman	-8234
▁Hesukristo	-8235
▁Ipinangako	-8236
▁Kalanutian	-8237
▁Kalikasang	-8238
▁Kasarinlan	-8239
▁Katapusang	-8240
▁Katarungan	-8241
▁Kayumanggi	-8242
▁Naghiyawan	-8243
▁Nagkataong	-8244
▁Nagmakaawa	-8245
▁Nagsisipan	-8246
▁Nakaramdam	-8247
▁Nanggaling	-8248
▁Napilitang	-8249
▁Pagkalipas	-8250
▁Panitikang	-8251
▁Patrocinio	-8252
▁Samaritano	-8253
▁Sinasabing	-8254
▁binantayan	-8255
▁binibigyan	-8256
▁binurdahan	-8257
▁bumubulong	-8258
▁ginagawang	-8259
▁hatinggabi	-8260
▁henerasyon	-8261
▁hinahagkan	-8262
▁hinihiling	-8263
▁ibinibigay	-8264
▁inaalagaan	-8265
▁iniingatan	-8266
▁kaalipinan	-8267
▁kabuhayang	-8268
▁kagamitang	-8269
▁kakayahang	-8270
▁kaluluwang	-8271
▁kapintasan	-8272
▁kapirasong	-8273
▁kapulungan	-8274
▁kapuspalad	-8275
▁katarungan	-8276
▁kaugaliang	-8277
▁kontrabida	-8278
▁kumikinang	-8279
▁mabalitaan	-8280
▁magagaling	-8281
▁magkagalit	-8282
▁magkakamag	-8283
▁magkakapit	-8284
▁magkasakit	-8285
▁magkasundo	-8286
▁magmukhang	-8287
▁magpautang	-8288
▁maitanghal	-8289
▁makakamtan	-8290
▁manalangin	-8291
▁manggagawa	-8292
▁mapanganib	-8293
▁mapapansin	-8294
▁mapuputing	-8295
▁maramdaman	-8296
▁masasayang	-8297
▁matagumpay	-8298
▁matipunong	-8299
▁mayayamang	-8300
▁naghahatid	-8301
▁nagkasundo	-8302
▁naglalagos	-8303
▁nagmamahal	-8304
▁nagtatanim	-8305
▁nagwawakas	-8306
▁nakatingin	-8307
▁nakikiusap	-8308
▁namamangka	-8309
▁nananariwa	-8310
▁nananatili	-8311
▁nanghihina	-8312
▁napakalaki	-8313
▁nararating	-8314
▁ngumingiti	-8315
▁paghahakot	-8316
▁paghihirap	-8317
▁pagkabigla	-8318
▁pagkakaiba	-8319
▁pakiramdam	-8320
▁palaisipan	-8321
▁pamahalaan	-8322
▁pambansang	-8323
▁panalangin	-8324
▁panggabing	-8325
▁papayagang	-8326
▁pinagagawa	-8327
▁salubungin	-8328
▁sampaguita	-8329
▁sansinukob	-8330
▁sinasabing	-8331
▁sinilangan	-8332
▁sinisipsip	-8333
▁taludturan	-8334
▁tinataglay	-8335
▁tinatakpan	-8336
apangyarihan	-8337
ipagkaibigan	-8338
▁Impahimbang	-8339
▁Kapampangan	-8340
▁Maghimagsik	-8341
▁Tangkilikin	-8342
▁Villafuerte	-8343
▁inanyayahan	-8344
▁ipaghiganti	-8345
▁kabundukang	-8346
▁kadahilanan	-8347
▁kalagitnaan	-8348
▁kalinangang	-8349
▁kapanahunan	-8350
▁kapupulutan	-8351
▁kasanggulan	-8352
▁kasaysayang	-8353
▁katalinuhan	-8354
▁luwalhating	-8355
▁magtagumpay	-8356
▁makakayanan	-8357
▁makasalanan	-8358
▁malalabasan	-8359
▁mambibigkas	-8360
▁mapatunayan	-8361
▁matatapatan	-8362
▁minumutyang	-8363
▁nagkapakpak	-8364
▁nagmamalaki	-8365
▁nagsasabing	-8366
▁nagsasalita	-8367
▁nagsimulang	-8368
▁nagsisimula	-8369
▁nagtagumpay	-8370
▁nagtangkang	-8371
▁nakatakdang	-8372
▁nangungusap	-8373
▁napangasawa	-8374
▁natatanging	-8375
▁pagdaralita	-8376
▁pagkagising	-8377
▁pagkakaluto	-8378
▁pagpupulong	-8379
▁palatandaan	-8380
▁pamimingwit	-8381
▁pananahimik	-8382
▁panganganak	-8383
▁parurusahan	-8384
▁pasalamatan	-8385
▁pinagdarayo	-8386
▁pinaglaruan	-8387
▁sinasadyang	-8388
▁tagapakinig	-8389
▁tatanggapin	-8390
▁Hermenegildo	-8391
▁Pinakamataas	-8392
▁kayumangging	-8393
▁makipaglaban	-8394
▁nagkahiwalay	-8395
▁nagmistulang	-8396
▁nakakapiling	-8397
▁nanggagaling	-8398
▁paglilingkod	-8399
▁pagpapaunlad	-8400
▁pagpipitagan	-8401
▁pinaghirapan	-8402
▁pinaglabanan	-8403
▁pinagsabihan	-8404
▁pinakamaliit	-8405
▁pinakamataas	-8406
▁pinalamutian	-8407
▁pinamumunuan	-8408
▁sangkatauhan	-8409
▁supernatural	-8410
▁Ipinagpatuloy	-8411
▁Nakapagtataka	-8412
▁Pinatutunayan	-8413
▁kaluwalhatian	-8414
▁magpahanggang	-8415
▁makapagsimula	-8416
▁makipanirahan	-8417
▁mangingisdang	-8418
▁nagniningning	-8419
▁nagsasalaysay	-8420
▁nakatatandang	-8421
▁paghihimagsik	-8422
▁pagtatagumpay	-8423
▁pinaglibingan	-8424
▁pinakamahusay	-8425
▁pinangalanang	-8426
▁Pinaniniwalaan	-8427
▁interpretasyon	-8428
▁mangungunyapit	-8429
▁nagpapahiwatig	-8430
▁tagapagtanggol	-8431
▁nangangahulugan	-8432
,00	-8433
:00	-8434
Eee	-8435
III	-8436
OSA	-8437
eck	-8438
eco	-8439
ect	-8440
eee	-8441
eow	-8442
los	-8443
ric	-8444
▁2)	-8445
▁2:	-8446
,000	-8447
Alam	-8448
Ikin	-8449
Pagb	-8450
Patr	-8451
Tigp	-8452
abes	-8453
argo	-8454
bali	-8455
bibi	-8456
biro	-8457
chos	-8458
cion	-8459
cism	-8460
ebey	-8461
eric	-8462
hrod	-8463
labe	-8464
losi	-8465
lowe	-8466
mlks	-8467
ngao	-8468
rona	-8469
ssss	-8470
▁Asu	-8471
▁Cat	-8472
▁Est	-8473
▁Hmm	-8474
▁Low	-8475
▁ark	-8476
▁ire	-8477
▁udy	-8478
Eeeek	-8479
Hayun	-8480
Malum	-8481
Matat	-8482
Matut	-8483
aaapi	-8484
aksak	-8485
alogd	-8486
amsik	-8487
amtam	-8488
ansay	-8489
apora	-8490
ardar	-8491
areha	-8492
atect	-8493
chant	-8494
cisco	-8495
durog	-8496
eckar	-8497
edest	-8498
empsy	-8499
▁f	-8500
dob	-8501
ede	-8502
▁10	-8503
▁op	-8504
Gaya	-8505
Lupa	-8506
Naka	-8507
angs	-8508
edyo	-8509
epto	-8510
wika	-8511
▁Amp	-8512
▁alp	-8513
▁ant	-8514
adtad	-8515
alili	-8516
ampal	-8517
ampon	-8518
anaul	-8519
enido	-8520
enyor	-8521
eowul	-8522
igiik	-8523
iiwan	-8524
ikomp	-8525
iksik	-8526
ilian	-8527
ilihi	-8528
iraan	-8529
irits	-8530
kabit	-8531
kanya	-8532
ligid	-8533
lipop	-8534
minsa	-8535
nugot	-8536
octor	-8537
otekt	-8538
seras	-8539
sismo	-8540
takbo	-8541
terin	-8542
tuyot	-8543
ubdob	-8544
uklam	-8545
uklok	-8546
ulwak	-8547
updin	-8548
uropa	-8549
vukad	-8550
witin	-8551
yedad	-8552
yonal	-8553
▁Abad	-8554
▁Aeta	-8555
▁Apat	-8556
▁Baba	-8557
▁Burg	-8558
▁Caca	-8559
▁Daig	-8560
▁High	-8561
▁Hudh	-8562
▁Kont	-8563
▁Misk	-8564
▁Noby	-8565
▁Prom	-8566
▁Sits	-8567
▁Utak	-8568
▁Vill	-8569
▁abal	-8570
▁amba	-8571
▁aria	-8572
▁bibe	-8573
▁cari	-8574
▁dote	-8575
▁duon	-8576
▁ekon	-8577
▁esep	-8578
▁hidh	-8579
▁ilal	-8580
▁imah	-8581
▁kimm	-8582
▁kubl	-8583
▁kudy	-8584
▁leon	-8585
▁look	-8586
▁mapa	-8587
▁marm	-8588
▁mumo	-8589
▁oohh	-8590
▁pipi	-8591
▁seco	-8592
▁siph	-8593
▁soso	-8594
▁sugp	-8595
▁sumb	-8596
▁tayu	-8597
▁tela	-8598
▁tuks	-8599
Ab	-8600
col	-8601
uod	-8602
Ayan	-8603
akod	-8604
alta	-8605
hena	-8606
odog	-8607
usod	-8608
▁Cor	-8609
▁Usa	-8610
▁dap	-8611
▁lun	-8612
alina	-8613
inaon	-8614
ongto	-8615
untok	-8616
▁Dagl	-8617
▁Katu	-8618
▁mano	-8619
▁pind	-8620
▁teks	-8621
▁yumi	-8622
Dardar	-8623
Doctor	-8624
Lalake	-8625
Magpip	-8626
Nakita	-8627
Pabula	-8628
Sasamb	-8629
aakala	-8630
aantig	-8631
abitiw	-8632
adyain	-8633
aghari	-8634
ahabol	-8635
ahaman	-8636
ahasik	-8637
akawan	-8638
alabal	-8639
aliang	-8640
alyero	-8641
ambong	-8642
amhati	-8643
anakit	-8644
antaon	-8645
anting	-8646
aramay	-8647
asaksi	-8648
asamba	-8649
atawid	-8650
atoryo	-8651
atulan	-8652
ayaman	-8653
ebeyew	-8654
egrito	-8655
elismo	-8656
ellang	-8657
enuela	-8658
eowulf	-8659
esorya	-8660
eywang	-8661
himala	-8662
ibihis	-8663
ihagis	-8664
iinang	-8665
ilagak	-8666
ilibak	-8667
inaman	-8668
ingsel	-8669
inilay	-8670
isayas	-8671
itikom	-8672
itnang	-8673
kawasa	-8674
kimpal	-8675
nunuan	-8676
ogodog	-8677
ogyaya	-8678
olidik	-8679
orcism	-8680
ubuhos	-8681
ugenio	-8682
ugnung	-8683
uguhit	-8684
ukuban	-8685
ulapay	-8686
umilit	-8687
unduan	-8688
unghay	-8689
ungkol	-8690
unsina	-8691
unukal	-8692
utukin	-8693
▁Among	-8694
▁Aywan	-8695
▁Bahag	-8696
▁Bakya	-8697
▁Benig	-8698
▁Bicol	-8699
.")	-8700
ber	-8701
env	-8702
eri	-8703
nen	-8704
old	-8705
▁uy	-8706
anya	-8707
isen	-8708
iwis	-8709
obya	-8710
olog	-8711
oyaw	-8712
vana	-8713
▁Loy	-8714
▁imb	-8715
▁rad	-8716
eolog	-8717
erial	-8718
iibig	-8719
iitim	-8720
ingil	-8721
ipins	-8722
lahat	-8723
tasin	-8724
uhata	-8725
▁Bita	-8726
▁Oray	-8727
▁kali	-8728
▁kuko	-8729
▁laan	-8730
▁pith	-8731
▁swak	-8732
agaang	-8733
ahatan	-8734
anggan	-8735
anglaw	-8736
arimot	-8737
asaing	-8738
emanya	-8739
isipol	-8740
okisen	-8741
▁Bienv	-8742
▁Bonto	-8743
▁Buuin	-8744
▁Hamak	-8745
▁Iloko	-8746
▁Kakal	-8747
▁Kakur	-8748
▁Karun	-8749
▁Kumat	-8750
▁Latin	-8751
▁Linog	-8752
▁Lunes	-8753
▁Minsa	-8754
▁Momoo	-8755
▁Nakap	-8756
▁Nueva	-8757
▁Ohhhh	-8758
▁Pakik	-8759
▁Prans	-8760
▁Pugad	-8761
▁Rosas	-8762
▁Singk	-8763
▁Sumal	-8764
▁Tabor	-8765
▁Tamad	-8766
▁Tsina	-8767
▁Ulila	-8768
▁Umaga	-8769
▁aisle	-8770
▁aleng	-8771
▁anaki	-8772
▁arkit	-8773
▁armas	-8774
▁bahaw	-8775
▁bihag	-8776
▁bihis	-8777
▁biniy	-8778
▁bulsa	-8779
▁buslo	-8780
▁dadag	-8781
▁dagim	-8782
▁dagli	-8783
▁dinig	-8784
▁durog	-8785
▁eklip	-8786
▁gahum	-8787
▁gusot	-8788
▁hahag	-8789
▁hibik	-8790
▁hihip	-8791
▁hukay	-8792
▁huwad	-8793
▁iabot	-8794
▁inapo	-8795
▁ipagm	-8796
▁isama	-8797
▁iskol	-8798
▁iwing	-8799
"?	-8800
pi	-8801
hod	-8802
huy	-8803
uma	-8804
...)	-8805
abol	-8806
amim	-8807
kayo	-8808
okon	-8809
silk	-8810
uhul	-8811
uruk	-8812
usok	-8813
▁Sto	-8814
▁gal	-8815
▁lal	-8816
▁pur	-8817
abeto	-8818
amnan	-8819
amtan	-8820
atayo	-8821
awamp	-8822
kahan	-8823
sahan	-8824
udyat	-8825
▁Bint	-8826
▁Kank	-8827
▁Payo	-8828
▁damb	-8829
▁haba	-8830
▁layo	-8831
▁naku	-8832
▁payo	-8833
▁sant	-8834
Magpap	-8835
aaabot	-8836
akahin	-8837
iyasat	-8838
unidad	-8839
yayang	-8840
▁Binti	-8841
▁Kaawa	-8842
▁Panap	-8843
▁Sumus	-8844
▁aniya	-8845
▁bubog	-8846
▁gangg	-8847
▁kabag	-8848
▁kabuh	-8849
▁kahiw	-8850
▁kalap	-8851
▁kapon	-8852
▁kasan	-8853
▁katot	-8854
▁kayat	-8855
▁koles	-8856
▁layag	-8857
▁limit	-8858
▁lumag	-8859
▁maawa	-8860
▁macan	-8861
▁mahah	-8862
▁malal	-8863
▁masak	-8864
▁masay	-8865
▁medyo	-8866
▁moral	-8867
▁nakag	-8868
▁nalik	-8869
▁napal	-8870
▁napas	-8871
▁nasam	-8872
▁pahat	-8873
▁pahih	-8874
▁palig	-8875
▁pangm	-8876
▁patag	-8877
▁pawid	-8878
▁pinar	-8879
▁rosal	-8880
▁sigur	-8881
▁sobra	-8882
▁sumil	-8883
▁supot	-8884
▁tibud	-8885
▁tikas	-8886
▁tipak	-8887
▁trans	-8888
▁tugma	-8889
▁tukso	-8890
▁tuyot	-8891
▁udyok	-8892
▁vinta	-8893
▁yugto	-8894
Hahagul	-8895
Luluhod	-8896
Malaueg	-8897
Marahas	-8898
Ninakaw	-8899
AA	-8900
HAN	-8901
Hul	-8902
Min	-8903
eid	-8904
gol	-8905
vid	-8906
UHAN	-8907
ahra	-8908
alil	-8909
amog	-8910
idas	-8911
ihon	-8912
isud	-8913
sisi	-8914
ubot	-8915
ukid	-8916
vide	-8917
▁Him	-8918
▁dug	-8919
▁ipa	-8920
alags	-8921
bihan	-8922
bukid	-8923
iilaw	-8924
ingid	-8925
layan	-8926
unawa	-8927
uwaya	-8928
▁Atin	-8929
▁Yaon	-8930
▁kaal	-8931
▁kata	-8932
▁moog	-8933
▁nait	-8934
▁tubo	-8935
abayan	-8936
agalak	-8937
ahayan	-8938
alisan	-8939
iligin	-8940
itindi	-8941
takang	-8942
▁Hamog	-8943
▁Kamay	-8944
▁Lorna	-8945
▁Mapay	-8946
▁Midas	-8947
▁ipagk	-8948
▁kalim	-8949
▁kulot	-8950
▁manib	-8951
▁matiy	-8952
▁tulin	-8953
Hulihin	-8954
Saklolo	-8955
abikang	-8956
abuting	-8957
adalhan	-8958
agawian	-8959
aghapon	-8960
aglayin	-8961
akaloob	-8962
akitaan	-8963
alamyos	-8964
alangoy	-8965
aligtad	-8966
alogdog	-8967
aluktot	-8968
alunton	-8969
amaalam	-8970
amahagi	-8971
ambibig	-8972
ambuhay	-8973
aravana	-8974
asikaso	-8975
atampis	-8976
atapong	-8977
atasang	-8978
atectec	-8979
atubili	-8980
awanang	-8981
edestal	-8982
ensuela	-8983
esyonal	-8984
etapora	-8985
gilalas	-8986
higanti	-8987
hiwalay	-8988
hrodite	-8989
ibigkis	-8990
ibisita	-8991
iikutin	-8992
ikhaing	-8993
ilimbag	-8994
imortal	-8995
ipagkas	-8996
iritsit	-8997
isingin	-8998
islapan	-8999
AH	-9000
UM	-9001
!",	-9002
Pap	-9003
gay	-9004
her	-9005
hih	-9006
ild	-9007
▁Iw	-9008
▁SA	-9009
AHAT	-9010
Koro	-9011
eeng	-9012
gayn	-9013
gong	-9014
maya	-9015
moco	-9016
pher	-9017
uunt	-9018
▁Biy	-9019
▁gay	-9020
▁pip	-9021
Amang	-9022
abala	-9023
galaw	-9024
ingal	-9025
umaga	-9026
usika	-9027
▁Alul	-9028
▁Kuba	-9029
▁Limb	-9030
▁daho	-9031
▁guho	-9032
▁ilil	-9033
▁panr	-9034
alakan	-9035
ambang	-9036
anteng	-9037
gaynet	-9038
immoco	-9039
iraman	-9040
isigan	-9041
ulupot	-9042
umikap	-9043
uruang	-9044
▁Hayan	-9045
▁LAHAT	-9046
▁Malim	-9047
▁Maman	-9048
▁Tahan	-9049
▁Union	-9050
▁WAKAS	-9051
▁kahin	-9052
▁mabab	-9053
▁maint	-9054
▁naawa	-9055
▁sinab	-9056
alangga	-9057
ampanan	-9058
kabigin	-9059
kamukha	-9060
lintang	-9061
lipunan	-9062
mumukha	-9063
mumulan	-9064
mundong	-9065
ngingit	-9066
ongtoan	-9067
orsismo	-9068
singhap	-9069
tikular	-9070
ubuklod	-9071
ugulong	-9072
ukipkip	-9073
ukuyang	-9074
umbasan	-9075
umurang	-9076
uwintas	-9077
▁Angkin	-9078
▁Awitin	-9079
▁Bacong	-9080
▁Bagwis	-9081
▁Bahagi	-9082
▁Bayaan	-9083
▁Bigong	-9084
▁Birhen	-9085
▁Bontoc	-9086
▁Buksan	-9087
▁Bumili	-9088
▁Bungal	-9089
▁Buwaya	-9090
▁Dayang	-9091
▁Enrile	-9092
▁Gloria	-9093
▁Halina	-9094
▁Hermes	-9095
▁Hilaga	-9096
▁Ikinal	-9097
▁Inabot	-9098
▁Inglat	-9099
2,	-9100
])	-9101
Din	-9102
Pin	-9103
Tag	-9104
edd	-9105
nak	-9106
pag	-9107
ukb	-9108
▁Ac	-9109
▁TA	-9110
▁py	-9111
HHHH	-9112
adan	-9113
agip	-9114
ikol	-9115
mana	-9116
unud	-9117
walo	-9118
▁Dur	-9119
▁Duw	-9120
▁tiw	-9121
arayo	-9122
iinom	-9123
pasan	-9124
rocio	-9125
▁Dang	-9126
▁Ledd	-9127
▁gong	-9128
▁lukb	-9129
▁temp	-9130
▁yong	-9131
Aruman	-9132
akilan	-9133
hambal	-9134
ilapon	-9135
pangan	-9136
▁Pedro	-9137
▁Sapat	-9138
▁binid	-9139
▁gabay	-9140
▁mahar	-9141
▁paisa	-9142
▁patal	-9143
▁pinoy	-9144
alpasan	-9145
pangkat	-9146
▁Dangla	-9147
▁Kagaya	-9148
▁Kagyat	-9149
▁Kailok	-9150
▁Korong	-9151
▁Laking	-9152
▁Lupain	-9153
▁Maaari	-9154
▁Magpap	-9155
▁Mamili	-9156
▁Manaul	-9157
▁Mapaap	-9158
▁Marian	-9159
▁Minago	-9160
▁Naakit	-9161
▁Nagmak	-9162
▁Nanaog	-9163
▁Nasabi	-9164
▁Natawa	-9165
▁Neckar	-9166
▁Padang	-9167
▁Pagkal	-9168
▁Pandak	-9169
▁Papaya	-9170
▁Patric	-9171
▁Pawang	-9172
▁Payong	-9173
▁Pinagh	-9174
▁Pinagk	-9175
▁Pulubi	-9176
▁Punung	-9177
▁Saging	-9178
▁Salapi	-9179
▁Sansin	-9180
▁Sasaba	-9181
▁Sayang	-9182
▁Sinagm	-9183
▁Sising	-9184
▁Susana	-9185
▁Tagyak	-9186
▁Talaga	-9187
▁Talags	-9188
▁Tapaan	-9189
▁Tinuka	-9190
▁Tuwing	-9191
▁Umalis	-9192
▁adelpa	-9193
▁alayan	-9194
▁aragan	-9195
▁aralin	-9196
▁asahan	-9197
▁balbas	-9198
▁basong	-9199
Ak	-9200
bp	-9201
uf	-9202
ING	-9203
Nar	-9204
eat	-9205
gal	-9206
lum	-9207
nat	-9208
wag	-9209
wal	-9210
▁aw	-9211
Magk	-9212
hero	-9213
ikdo	-9214
ilot	-9215
kang	-9216
waan	-9217
▁Dan	-9218
▁Lag	-9219
▁Ruf	-9220
▁Taw	-9221
▁bot	-9222
▁tah	-9223
▁tuh	-9224
Malag	-9225
anyak	-9226
asaya	-9227
atuon	-9228
awawa	-9229
ibayo	-9230
inamn	-9231
inong	-9232
iwaan	-9233
nggoy	-9234
ubuti	-9235
uhagi	-9236
▁Kong	-9237
▁atbp	-9238
▁blak	-9239
▁kara	-9240
▁pans	-9241
▁sind	-9242
▁tuso	-9243
Kawawa	-9244
aguyod	-9245
isahin	-9246
isinag	-9247
ubayan	-9248
▁Danum	-9249
▁Ibuan	-9250
▁Tasyo	-9251
▁bulak	-9252
▁dagta	-9253
▁kahul	-9254
▁kapur	-9255
▁lungs	-9256
▁saang	-9257
▁salak	-9258
▁solit	-9259
▁tikis	-9260
Malagom	-9261
alimuot	-9262
aralgal	-9263
asyalan	-9264
inamnam	-9265
unganen	-9266
▁Pitong	-9267
▁Rufino	-9268
▁Unggoy	-9269
▁bigkis	-9270
▁binayo	-9271
▁bisang	-9272
▁bitbit	-9273
▁boteng	-9274
▁bulkan	-9275
▁bungad	-9276
▁dakpin	-9277
▁damhin	-9278
▁devide	-9279
▁dumapo	-9280
▁dungis	-9281
▁ekonom	-9282
▁gatong	-9283
▁guguan	-9284
▁hagdan	-9285
▁hidhid	-9286
▁hilaga	-9287
▁hudyat	-9288
▁humpay	-9289
▁ibayad	-9290
▁iganti	-9291
▁imahen	-9292
▁impera	-9293
▁inasam	-9294
▁indust	-9295
▁inutos	-9296
▁ipukol	-9297
▁isahan	-9298
▁isukat	-9299
].	-9300
Pag	-9301
ads	-9302
agn	-9303
luw	-9304
sag	-9305
▁Mo	-9306
▁Ro	-9307
▁mu	-9308
bago	-9309
gang	-9310
idor	-9311
ipun	-9312
irit	-9313
ugba	-9314
▁apl	-9315
▁rit	-9316
adsad	-9317
akali	-9318
alaon	-9319
asara	-9320
iming	-9321
lakas	-9322
▁Bibl	-9323
▁lima	-9324
▁maal	-9325
▁muog	-9326
▁pili	-9327
alipad	-9328
amaran	-9329
angkok	-9330
anyong	-9331
imbita	-9332
sangan	-9333
▁Dampa	-9334
▁Ipagd	-9335
▁Tabak	-9336
▁masil	-9337
▁napip	-9338
▁tanim	-9339
abihing	-9340
alanang	-9341
asyahan	-9342
torikal	-9343
unganga	-9344
▁Gumawa	-9345
▁aplaya	-9346
▁impluw	-9347
▁itigil	-9348
▁kadena	-9349
▁kahong	-9350
▁kaibig	-9351
▁kainan	-9352
▁kamang	-9353
▁kanais	-9354
▁kanina	-9355
▁kapara	-9356
▁kawali	-9357
▁kimpal	-9358
▁korona	-9359
▁kukong	-9360
▁kumpol	-9361
▁kungdi	-9362
▁lagnat	-9363
▁lalayo	-9364
▁lampas	-9365
▁lasing	-9366
▁lingid	-9367
▁lugami	-9368
▁lutuan	-9369
▁maasim	-9370
▁maikli	-9371
▁maipak	-9372
▁makaya	-9373
▁malaon	-9374
▁marmol	-9375
▁minuto	-9376
▁molabe	-9377
▁naaani	-9378
▁nabigo	-9379
▁nagkuk	-9380
▁naisat	-9381
▁namana	-9382
▁namuno	-9383
▁nangab	-9384
▁napita	-9385
▁nauuwi	-9386
▁niring	-9387
▁padyak	-9388
▁pakwan	-9389
▁panata	-9390
▁parais	-9391
▁pareho	-9392
▁paring	-9393
▁pasint	-9394
▁perdig	-9395
▁pintor	-9396
▁porsel	-9397
▁prayle	-9398
▁puwang	-9399
AY	-9400
gg	-9401
kl	-9402
ale	-9403
day	-9404
ham	-9405
ibi	-9406
lin	-9407
ran	-9408
Ipak	-9409
Mang	-9410
alia	-9411
engu	-9412
rekl	-9413
uyam	-9414
vera	-9415
▁Ate	-9416
▁Dat	-9417
▁Ori	-9418
▁Tur	-9419
▁diy	-9420
▁gam	-9421
▁kun	-9422
aanod	-9423
aktik	-9424
amora	-9425
atamb	-9426
iwara	-9427
uuyam	-9428
▁Ping	-9429
▁gand	-9430
▁lins	-9431
▁tulo	-9432
▁uhaw	-9433
▁umim	-9434
aranas	-9435
asunod	-9436
atuday	-9437
enguet	-9438
▁Dilag	-9439
▁Mahih	-9440
▁Oriol	-9441
▁Papag	-9442
▁Pingp	-9443
▁aping	-9444
▁kahig	-9445
▁katar	-9446
▁lalas	-9447
▁nakah	-9448
▁panyo	-9449
aktikal	-9450
ikalang	-9451
ilabang	-9452
ilanlin	-9453
reklamo	-9454
unggali	-9455
usubsob	-9456
▁Athena	-9457
▁Kapamp	-9458
▁Rivera	-9459
▁inaliw	-9460
▁kabibi	-9461
▁pababa	-9462
▁pwesto	-9463
▁pyesta	-9464
▁rangya	-9465
▁sasama	-9466
▁sawing	-9467
▁silain	-9468
▁subali	-9469
▁sumapi	-9470
▁sumbat	-9471
▁sungit	-9472
▁suriin	-9473
▁takips	-9474
▁talian	-9475
▁tamnan	-9476
▁tangos	-9477
▁templo	-9478
▁tighaw	-9479
▁tiktak	-9480
▁tinaga	-9481
▁tukain	-9482
▁tutuon	-9483
▁umagaw	-9484
▁umihip	-9485
▁umimik	-9486
▁umunat	-9487
▁umusad	-9488
▁umuuwi	-9489
▁unggoy	-9490
▁upuang	-9491
▁wasaki	-9492
▁yumuko	-9493
▁yuyuko	-9494
Arumanen	-9495
Bibigkas	-9496
Dardarat	-9497
Dekalogo	-9498
Dumating	-9499
AM	-9500
US	-9501
bak	-9502
kos	-9503
lib	-9504
omb	-9505
sim	-9506
uad	-9507
▁pw	-9508
akab	-9509
anog	-9510
anos	-9511
aron	-9512
plas	-9513
uyaw	-9514
▁Hih	-9515
▁bud	-9516
▁kik	-9517
abaan	-9518
aluin	-9519
amasa	-9520
amung	-9521
laman	-9522
sanib	-9523
talon	-9524
▁Pari	-9525
▁ROSA	-9526
▁lobo	-9527
▁taun	-9528
-12:00	-9529
Nakang	-9530
alisin	-9531
angsol	-9532
ibulan	-9533
madiin	-9534
ukulay	-9535
unuang	-9536
▁Narar	-9537
▁Pawis	-9538
▁budhi	-9539
▁lumot	-9540
▁napah	-9541
▁tangg	-9542
agawang	-9543
agkaisa	-9544
▁Amuyaw	-9545
▁Ipinag	-9546
▁Lihang	-9547
▁Pulang	-9548
▁alabok	-9549
▁ikinat	-9550
▁liblib	-9551
▁naamis	-9552
▁napapa	-9553
▁ninais	-9554
▁sundan	-9555
Iaangkop	-9556
Ibibigay	-9557
Kaibigan	-9558
Mangyari	-9559
Paulitin	-9560
Pilipino	-9561
Pupwesto	-9562
Tigpasin	-9563
abalahan	-9564
aguluhan	-9565
ahamakan	-9566
alamhati	-9567
amatuwid	-9568
apanatag	-9569
apatayan	-9570
asagutin	-9571
atingkad	-9572
ayakapin	-9573
chantara	-9574
ernandez	-9575
etyembre	-9576
ibigyang	-9577
ibughang	-9578
ighatian	-9579
ihinging	-9580
ikompisa	-9581
ilimutan	-9582
imetheus	-9583
ipinsala	-9584
isilbing	-9585
isinalin	-9586
isisihan	-9587
iwasayan	-9588
kaniyang	-9589
mamasdan	-9590
presyong	-9591
salaysay	-9592
tatanong	-9593
umukhang	-9594
ungaling	-9595
unghayan	-9596
unungong	-9597
▁Alagaan	-9598
▁Andrade	-9599
Hah	-9600
Tum	-9601
pab	-9602
poc	-9603
sum	-9604
ugb	-9605
ukd	-9606
▁1)	-9607
▁DI	-9608
▁Ih	-9609
cpoc	-9610
egas	-9611
enus	-9612
riya	-9613
ulum	-9614
usig	-9615
uyos	-9616
▁Guw	-9617
▁Mil	-9618
▁Nin	-9619
▁aya	-9620
Batay	-9621
apawi	-9622
buong	-9623
igkis	-9624
▁Bete	-9625
▁Pito	-9626
▁asim	-9627
▁naib	-9628
▁naih	-9629
▁nala	-9630
anggay	-9631
apatak	-9632
cpoclo	-9633
isilip	-9634
▁Lamok	-9635
▁Makop	-9636
▁kinur	-9637
▁linaw	-9638
▁nabay	-9639
▁pagit	-9640
▁pinaa	-9641
andusay	-9642
dudulot	-9643
ilingas	-9644
isasyon	-9645
▁Bandan	-9646
▁Guwela	-9647
▁Labong	-9648
▁Makopa	-9649
▁inalis	-9650
▁kakain	-9651
▁ninong	-9652
▁palagi	-9653
▁pantig	-9654
▁papunt	-9655
▁ulunan	-9656
▁umilag	-9657
▁Apolaki	-9658
▁Babaing	-9659
▁Bagamat	-9660
▁Bahagya	-9661
▁Bangkay	-9662
▁Basilio	-9663
▁Bawasan	-9664
▁Benigno	-9665
▁Beowulf	-9666
▁Bibliya	-9667
▁Binalak	-9668
▁Bubuhat	-9669
▁Bulawan	-9670
▁Dadaluh	-9671
▁Dagling	-9672
▁Dogodog	-9673
▁Dumaong	-9674
▁Gambang	-9675
▁Gumanda	-9676
▁Gustong	-9677
▁Hinamon	-9678
▁Ibinaba	-9679
▁Iniabot	-9680
▁Jerusal	-9681
▁Kabungs	-9682
▁Kalinga	-9683
▁Kaputol	-9684
▁Kaybuti	-9685
▁Kumapit	-9686
▁Kumatok	-9687
▁Leghorn	-9688
▁Loslosi	-9689
▁Lucutan	-9690
▁Lumanog	-9691
▁Lumawig	-9692
▁Madilim	-9693
▁Magbiro	-9694
▁Magobya	-9695
▁Magtago	-9696
▁Malaueg	-9697
▁Malimit	-9698
▁Malinaw	-9699
usi	-9700
▁Be	-9701
▁Br	-9702
Ibig	-9703
Wika	-9704
aala	-9705
apip	-9706
aryo	-9707
egor	-9708
ings	-9709
mata	-9710
osyo	-9711
utik	-9712
▁Bab	-9713
▁Ita	-9714
▁Lid	-9715
▁Tay	-9716
▁amo	-9717
▁ist	-9718
▁kus	-9719
▁kut	-9720
angki	-9721
apito	-9722
aruon	-9723
isaya	-9724
lagot	-9725
sindi	-9726
▁Kanl	-9727
▁Laya	-9728
▁kahi	-9729
▁luko	-9730
▁pito	-9731
▁saad	-9732
▁siit	-9733
▁titi	-9734
▁uuwi	-9735
Bisaya	-9736
abayad	-9737
adaong	-9738
ululan	-9739
usyoso	-9740
uyurak	-9741
▁Buhok	-9742
▁dahop	-9743
▁inapi	-9744
▁kanun	-9745
▁malun	-9746
Mabilis	-9747
aangkin	-9748
angguni	-9749
angyang	-9750
atanyag	-9751
panahon	-9752
ugunita	-9753
▁Alaala	-9754
▁Iliyan	-9755
▁Niyang	-9756
▁ikahon	-9757
▁kanunu	-9758
▁kukuha	-9759
▁mapagt	-9760
▁mayama	-9761
alikasan	-9762
▁Ikapito	-9763
▁Lidagat	-9764
▁Mamatay	-9765
▁Manalig	-9766
▁Maputla	-9767
▁Marcelo	-9768
▁Mariano	-9769
▁Marlowe	-9770
▁Matibay	-9771
▁Minsang	-9772
▁Nagdaan	-9773
▁Nagmula	-9774
▁Nagtayo	-9775
▁Nahulog	-9776
▁Nakalbo	-9777
▁Nakatut	-9778
▁Namuhay	-9779
▁Napakas	-9780
▁Nawalan	-9781
▁Nebeyew	-9782
▁Negrito	-9783
▁Palihim	-9784
▁Pambata	-9785
▁Pinigil	-9786
▁Polidik	-9787
▁Puhunan	-9788
▁Pumitas	-9789
▁Sentral	-9790
▁Sibuyas	-9791
▁Silayan	-9792
▁Sinauna	-9793
▁Sinikap	-9794
▁Sisilya	-9795
▁Sumadag	-9796
▁Tabagka	-9797
▁Tahimik	-9798
▁Taimtim	-9799
IN	-9800
▁:	-9801
ota	-9802
pos	-9803
tub	-9804
uks	-9805
▁Hm	-9806
Sila	-9807
ilao	-9808
otan	-9809
pula	-9810
▁ANG	-9811
▁Lin	-9812
▁Peb	-9813
▁Roy	-9814
▁Sim	-9815
▁Tig	-9816
▁amb	-9817
▁tey	-9818
Mapan	-9819
iwasa	-9820
lapad	-9821
▁Huli	-9822
▁Kala	-9823
▁Lumb	-9824
▁Mlks	-9825
▁pano	-9826
▁sinl	-9827
▁suma	-9828
▁teyp	-9829
ubukid	-9830
ulanit	-9831
ungkab	-9832
▁Kaiba	-9833
▁Lalak	-9834
▁anakp	-9835
▁apong	-9836
▁bilao	-9837
▁pakal	-9838
▁parir	-9839
▁sabik	-9840
iisipin	-9841
▁Pangin	-9842
▁bagama	-9843
▁kagaya	-9844
▁mabasa	-9845
▁maglal	-9846
▁magsus	-9847
▁sintas	-9848
▁tulain	-9849
Titingin	-9850
alapitan	-9851
▁Luluhod	-9852
▁Lumbera	-9853
▁Makinig	-9854
▁Tumahol	-9855
▁Tungkol	-9856
▁Tupinaw	-9857
▁Umiibig	-9858
▁alinman	-9859
▁amihang	-9860
▁ampunin	-9861
▁aninong	-9862
▁anitong	-9863
▁bakawan	-9864
▁balikan	-9865
▁balyena	-9866
▁bandang	-9867
▁batuhan	-9868
▁bayaran	-9869
▁bellang	-9870
▁bendita	-9871
▁biniday	-9872
▁binunot	-9873
▁binuwag	-9874
▁blaking	-9875
▁bubuyog	-9876
▁bukasin	-9877
▁bukirin	-9878
▁bumbong	-9879
▁bumuhos	-9880
▁bumukal	-9881
▁busabos	-9882
▁dangkal	-9883
▁dantaon	-9884
▁daratal	-9885
▁dukhang	-9886
▁dumaloy	-9887
▁dustang	-9888
▁eklipse	-9889
▁gagamba	-9890
▁ginagal	-9891
▁ginatip	-9892
▁gumanda	-9893
▁habagat	-9894
▁hagdang	-9895
▁haharap	-9896
▁halikan	-9897
▁hanggat	-9898
▁higupin	-9899
Da	-9900
ps	-9901
iwal	-9902
okus	-9903
pulo	-9904
agyan	-9905
intab	-9906
mahal	-9907
▁Esep	-9908
▁Look	-9909
▁baar	-9910
▁salu	-9911
Talaga	-9912
Tatang	-9913
agalag	-9914
angkad	-9915
ilawan	-9916
inuman	-9917
isanto	-9918
ukayan	-9919
yaring	-9920
▁Dinig	-9921
▁Duwag	-9922
▁Hawak	-9923
▁Nabuo	-9924
▁Nakak	-9925
▁Sabik	-9926
▁Sinig	-9927
▁Yabes	-9928
▁hinog	-9929
▁isina	-9930
▁kaaya	-9931
▁saliw	-9932
▁sasag	-9933
▁talis	-9934
▁ugong	-9935
Sinuman	-9936
alimang	-9937
antihan	-9938
awagang	-9939
bayanan	-9940
risanto	-9941
subalit	-9942
umulang	-9943
▁Pinili	-9944
▁Tuyong	-9945
▁haring	-9946
▁ilawan	-9947
▁mapuno	-9948
▁naipit	-9949
▁umulan	-9950
agdagang	-9951
ahantong	-9952
ipagkita	-9953
▁Iginala	-9954
▁Pagdaan	-9955
▁Visayas	-9956
▁hinagod	-9957
▁hinahon	-9958
▁hinamak	-9959
▁hinamon	-9960
▁hinarap	-9961
▁hinding	-9962
▁hinugot	-9963
▁humasik	-9964
▁humihip	-9965
▁hustong	-9966
▁ibayong	-9967
▁ibubuka	-9968
▁ilusyon	-9969
▁inaping	-9970
▁ingatan	-9971
▁insekto	-9972
▁inuring	-9973
▁ipaalam	-9974
▁ipakita	-9975
▁ipinang	-9976
▁isinuot	-9977
▁iskolar	-9978
▁itinali	-9979
▁kabataa	-9980
▁kagatin	-9981
▁kagitna	-9982
▁kakaiba	-9983
▁kakanin	-9984
▁kalamig	-9985
▁kalasag	-9986
▁kalingk	-9987
▁kaluban	-9988
▁kalulwa	-9989
▁kanyong	-9990
▁kapakan	-9991
▁kaskong	-9992
▁kinahih	-9993
▁kinapal	-9994
▁konseho	-9995
▁kudyapi	-9996
▁kumitil	-9997
▁kunwari	-9998
▁kuwalta	-9999
Na	-10000
▁Re	-10001
ahop	-10002
asko	-10003
emes	-10004
lain	-10005
utum	-10006
▁Win	-10007
▁mes	-10008
▁tel	-10009
Aalis	-10010
ahuyo	-10011
akada	-10012
dasal	-10013
ekate	-10014
iliti	-10015
imbag	-10016
oloob	-10017
uning	-10018
▁Luna	-10019
▁Pulo	-10020
▁halo	-10021
▁lira	-10022
▁lola	-10023
▁pila	-10024
▁puto	-10025
▁trab	-10026
abansa	-10027
alismo	-10028
aparis	-10029
arahop	-10030
chosis	-10031
emesio	-10032
igilid	-10033
iglaan	-10034
isipot	-10035
itikan	-10036
pulong	-10037
udlain	-10038
ulutas	-10039
▁Alang	-10040
▁Ipina	-10041
▁Mahin	-10042
▁Mapag	-10043
▁Mayro	-10044
▁bayaw	-10045
▁dasal	-10046
▁iluwa	-10047
▁ipagp	-10048
▁kumuk	-10049
▁laong	-10050
▁paroo	-10051
▁punlo	-10052
▁yabag	-10053
Pasigaw	-10054
ihasnan	-10055
▁Burgos	-10056
▁Hangal	-10057
▁Hekate	-10058
▁Hudhud	-10059
▁Kataka	-10060
▁Lamang	-10061
▁kumand	-10062
▁maitan	-10063
▁nagpak	-10064
▁pinagd	-10065
▁siwang	-10066
▁tubuan	-10067
ibibigay	-10068
▁Lilitaw	-10069
▁Nemesio	-10070
▁Pagitan	-10071
▁Sinasal	-10072
▁kumagat	-10073
▁lambing	-10074
▁lamunin	-10075
▁laruang	-10076
▁lathala	-10077
▁lipulin	-10078
▁lulusog	-10079
▁luminis	-10080
▁lumiyag	-10081
▁lumulan	-10082
▁lungsod	-10083
▁lusubin	-10084
▁maamong	-10085
▁mabasag	-10086
▁mabilog	-10087
▁mabiyak	-10088
▁mabusog	-10089
▁mabutas	-10090
▁magkita	-10091
▁magtayo	-10092
▁magtiis	-10093
▁magtika	-10094
▁mahilig	-10095
▁maiitim	-10096
▁maiiwan	-10097
▁makapal	-10098
▁makatao	-10099
▁Ep	-10100
▁Ol	-10101
ahos	-10102
atng	-10103
igta	-10104
kaba	-10105
salo	-10106
▁Yum	-10107
bayin	-10108
tumba	-10109
umama	-10110
umbay	-10111
▁Akin	-10112
▁paki	-10113
aalpas	-10114
alitaw	-10115
anapan	-10116
atanan	-10117
isaing	-10118
ulayaw	-10119
uliran	-10120
▁Iling	-10121
▁Pinto	-10122
▁Tatag	-10123
▁halay	-10124
▁hinim	-10125
▁lagay	-10126
▁lagim	-10127
▁tanga	-10128
▁tatan	-10129
▁tindi	-10130
abayaan	-10131
ungkahi	-10132
▁Pinang	-10133
▁Sining	-10134
▁Sinuyo	-10135
▁Unahan	-10136
▁bilhin	-10137
▁inuman	-10138
▁isinas	-10139
▁layuni	-10140
▁maabot	-10141
▁magsis	-10142
▁maiksi	-10143
▁mainam	-10144
▁nagkab	-10145
▁napuno	-10146
▁natalo	-10147
▁natamo	-10148
▁natira	-10149
▁senyor	-10150
▁tiwala	-10151
▁umabot	-10152
amantala	-10153
▁Christo	-10154
▁Digmaan	-10155
▁binuong	-10156
▁bubuhay	-10157
▁dumulog	-10158
▁laganap	-10159
▁makamit	-10160
▁makinig	-10161
▁malikot	-10162
▁maliksi	-10163
▁malipol	-10164
▁maliwag	-10165
▁maluwag	-10166
▁mamasid	-10167
▁manggas	-10168
▁mangkok	-10169
▁mapagod	-10170
▁mapasok	-10171
▁mapatid	-10172
▁marahan	-10173
▁marilag	-10174
▁masahol	-10175
▁masanay	-10176
▁maselan	-10177
▁masupil	-10178
▁matawag	-10179
▁matayog	-10180
▁matiyak	-10181
▁mauutas	-10182
▁maykaya	-10183
▁mistula	-10184
▁mithiin	-10185
▁naaayon	-10186
▁nababal	-10187
▁nabatid	-10188
▁nabiyak	-10189
▁nagkait	-10190
▁nagkaka	-10191
▁naglaon	-10192
▁nagsawa	-10193
▁nagsisi	-10194
▁nagulat	-10195
▁nahagip	-10196
▁naiinis	-10197
▁naiwang	-10198
▁nakahih	-10199
Tit	-10200
ons	-10201
Nang	-10202
Sino	-10203
▁Pos	-10204
agbab	-10205
aklaw	-10206
gusto	-10207
tanod	-10208
tulog	-10209
▁Amay	-10210
▁Idin	-10211
▁Paki	-10212
▁bisa	-10213
▁buku	-10214
agutom	-10215
asanib	-10216
atulog	-10217
ugasan	-10218
utihin	-10219
▁Aniya	-10220
▁Gamit	-10221
▁Manun	-10222
▁Mapap	-10223
▁Rinam	-10224
▁berde	-10225
▁humuh	-10226
▁mamam	-10227
▁nanay	-10228
▁nilak	-10229
▁niyan	-10230
▁sapad	-10231
▁tanan	-10232
amalita	-10233
apaanak	-10234
tulogan	-10235
▁Gayong	-10236
▁Gulong	-10237
▁Humayo	-10238
▁Ilocos	-10239
▁Inisip	-10240
▁Manong	-10241
▁Nagbab	-10242
▁Pinagb	-10243
▁Pinags	-10244
▁banaag	-10245
▁hampas	-10246
▁humaba	-10247
▁humabi	-10248
▁kamtan	-10249
▁layong	-10250
▁musala	-10251
▁nagdad	-10252
▁nasira	-10253
▁pinaki	-10254
▁takpan	-10255
▁Humukay	-10256
▁Penuela	-10257
▁dalawin	-10258
▁ihandog	-10259
▁matalas	-10260
▁matalin	-10261
▁nalagot	-10262
▁nalilig	-10263
▁namamat	-10264
▁napakak	-10265
▁napatid	-10266
▁nasapit	-10267
▁natabas	-10268
▁nayanig	-10269
▁nilanta	-10270
▁nilusob	-10271
▁ninakaw	-10272
▁niyaong	-10273
▁okasyon	-10274
▁paakyat	-10275
▁pagdaka	-10276
▁pagkuha	-10277
▁pagtaas	-10278
▁paineta	-10279
▁pakikib	-10280
▁palayan	-10281
▁palibot	-10282
▁pamahra	-10283
▁pamukaw	-10284
▁pandama	-10285
▁pangang	-10286
▁paraiso	-10287
▁pasukin	-10288
▁patalun	-10289
▁pighati	-10290
▁pihikan	-10291
▁pilyong	-10292
▁pinapag	-10293
▁pinasan	-10294
▁pitasin	-10295
▁pithaya	-10296
▁piyesta	-10297
▁popular	-10298
▁pumukol	-10299
MA	-10300
udd	-10301
▁en	-10302
▁re	-10303
ence	-10304
kibo	-10305
sino	-10306
▁Dud	-10307
▁Uma	-10308
▁daa	-10309
atiis	-10310
tanto	-10311
uddha	-10312
▁Dami	-10313
▁Diwa	-10314
▁Hati	-10315
▁Manl	-10316
▁daid	-10317
▁ihin	-10318
▁kibo	-10319
▁unan	-10320
arosip	-10321
asakin	-10322
atayin	-10323
atiuna	-10324
parusa	-10325
▁Kanin	-10326
▁Tatay	-10327
▁Tinut	-10328
▁baliw	-10329
▁balot	-10330
▁biyak	-10331
▁ginaw	-10332
▁latay	-10333
▁maaga	-10334
▁nalas	-10335
▁tanak	-10336
▁tanel	-10337
ahangga	-10338
ahangin	-10339
akatwid	-10340
awaglit	-10341
ihinuha	-10342
usahang	-10343
▁Buddha	-10344
▁Gabing	-10345
▁Isipin	-10346
▁KASAMA	-10347
▁Naligo	-10348
▁balisa	-10349
▁dagdag	-10350
▁dinami	-10351
▁higtan	-10352
▁ilipad	-10353
▁kaloob	-10354
▁lumiit	-10355
▁lunsod	-10356
▁pagyay	-10357
▁panhik	-10358
▁parami	-10359
alangkas	-10360
inggitan	-10361
▁Dahilan	-10362
▁Damiana	-10363
▁Huminga	-10364
▁Inakala	-10365
▁Kumulat	-10366
▁Lalapit	-10367
▁Lumaban	-10368
▁Lumuhod	-10369
▁Natanaw	-10370
▁Sinunod	-10371
▁kasunod	-10372
▁naghari	-10373
▁nakapan	-10374
▁nangagb	-10375
▁pumutok	-10376
▁puputok	-10377
▁putulin	-10378
▁sabagay	-10379
▁sagamat	-10380
▁sagrado	-10381
▁sakbibi	-10382
▁salakot	-10383
▁saligan	-10384
▁santong	-10385
▁sasayad	-10386
▁sibilis	-10387
▁sikatan	-10388
▁silyang	-10389
▁simbolo	-10390
▁sinadya	-10391
▁sinamba	-10392
▁sinapit	-10393
▁sisigaw	-10394
▁sisilip	-10395
▁sisisid	-10396
▁subukin	-10397
▁sugilan	-10398
▁sukaban	-10399
nti	-10400
▁Sh	-10401
▁iu	-10402
Unti	-10403
inom	-10404
osam	-10405
▁Lol	-10406
▁aal	-10407
agiik	-10408
agpas	-10409
anood	-10410
layag	-10411
okano	-10412
sayaw	-10413
takot	-10414
talas	-10415
▁Nand	-10416
▁Pusa	-10417
▁luya	-10418
▁ngay	-10419
▁papa	-10420
▁suyo	-10421
Gagawa	-10422
agalaw	-10423
asaulo	-10424
awayin	-10425
bagong	-10426
mangan	-10427
ulalas	-10428
umpaan	-10429
umpong	-10430
▁Kinab	-10431
▁Lanao	-10432
▁Panan	-10433
▁gansa	-10434
▁ganti	-10435
▁likaw	-10436
▁mapay	-10437
▁sapul	-10438
▁titik	-10439
abatang	-10440
alangan	-10441
atangay	-10442
▁Aakyat	-10443
▁Ilipad	-10444
▁Kaning	-10445
▁Turuan	-10446
▁bukang	-10447
▁ginuho	-10448
▁kagila	-10449
▁malago	-10450
▁parati	-10451
▁uliran	-10452
apatiran	-10453
▁Ilokano	-10454
▁Nangako	-10455
▁bulalas	-10456
▁ipinagp	-10457
▁isagawa	-10458
▁kinunan	-10459
▁magsama	-10460
▁maramot	-10461
▁nabuong	-10462
▁naiisip	-10463
▁nanatak	-10464
▁pagdami	-10465
▁papalit	-10466
▁pinahih	-10467
▁samosam	-10468
▁sinlaki	-10469
▁sinuway	-10470
▁sukdang	-10471
▁sumaksi	-10472
▁sumpain	-10473
▁supling	-10474
▁talukap	-10475
▁tibabal	-10476
▁timbang	-10477
▁tinapay	-10478
▁tinudla	-10479
▁trabaho	-10480
▁tudlain	-10481
▁tukuyin	-10482
▁tulutan	-10483
▁tumahol	-10484
▁turista	-10485
▁tutunog	-10486
▁ugaling	-10487
▁umaabot	-10488
▁umaayon	-10489
▁umiling	-10490
▁umugong	-10491
▁umuulan	-10492
▁wasakin	-10493
▁yumakap	-10494
▁yumaong	-10495
Kailangan	-10496
Magandang	-10497
Malumanay	-10498
Mapanukso	-10499
ario	-10500
arit	-10501
pero	-10502
rero	-10503
▁Eks	-10504
▁roo	-10505
Buong	-10506
Sumpa	-10507
aakay	-10508
ainom	-10509
alahi	-10510
balat	-10511
impok	-10512
irhan	-10513
▁Ibal	-10514
▁baso	-10515
▁ikas	-10516
▁lolo	-10517
▁pros	-10518
alabin	-10519
angina	-10520
▁Kasoy	-10521
▁Mabub	-10522
▁Namay	-10523
▁Vigan	-10524
▁ganid	-10525
▁ipags	-10526
▁makad	-10527
▁paimb	-10528
▁sulat	-10529
ahampas	-10530
alamuti	-10531
awisang	-10532
▁Nenita	-10533
▁Tangan	-10534
▁aakyat	-10535
▁bawiin	-10536
▁inahin	-10537
▁kalian	-10538
▁mabawi	-10539
▁mapapa	-10540
▁mapaso	-10541
▁tinamo	-10542
apatuloy	-10543
▁Cawayan	-10544
▁Dinalaw	-10545
▁Masipag	-10546
▁Sumarin	-10547
▁binuhat	-10548
▁gumiliw	-10549
▁hanguin	-10550
▁inaakay	-10551
▁kamates	-10552
▁maaakit	-10553
▁nagpapa	-10554
▁nagtamo	-10555
▁naturan	-10556
▁ulilang	-10557
Nararapat	-10558
Patraydor	-10559
Susubukin	-10560
Titingala	-10561
Titingnan	-10562
abilanggo	-10563
agalingan	-10564
agdudulot	-10565
ahahahaha	-10566
akilanlan	-10567
alakhakan	-10568
alakihang	-10569
alakpakan	-10570
alinhinan	-10571
alintulad	-10572
amungmong	-10573
angatawan	-10574
angondaya	-10575
apariwara	-10576
arangalan	-10577
asaksihan	-10578
atakutang	-10579
atampisaw	-10580
atangtang	-10581
awagayway	-10582
awanggawa	-10583
babayaran	-10584
bersiyong	-10585
bibilihan	-10586
ibilangin	-10587
ihintayin	-10588
ikilalang	-10589
ikislapan	-10590
inabangan	-10591
intulutan	-10592
ipagkapwa	-10593
ipagsayaw	-10594
itinginan	-10595
mamamayan	-10596
otektahan	-10597
otohanang	-10598
ubundukin	-10599
Bac	-10600
ILA	-10601
▁1:	-10602
buko	-10603
▁Sta	-10604
apiit	-10605
ikman	-10606
▁Ikas	-10607
▁ibab	-10608
▁ipis	-10609
▁pugo	-10610
aninaw	-10611
apanaw	-10612
igatig	-10613
igilan	-10614
ilisan	-10615
pansin	-10616
wirang	-10617
▁Babay	-10618
▁Gubat	-10619
▁Hinto	-10620
▁Lalaw	-10621
▁Lipay	-10622
▁Sunod	-10623
▁dumag	-10624
▁isipa	-10625
▁kisap	-10626
▁lundo	-10627
▁madre	-10628
▁nalig	-10629
▁pahim	-10630
▁sunod	-10631
▁uring	-10632
▁walis	-10633
▁yapak	-10634
Mayroon	-10635
asakang	-10636
▁Kalaro	-10637
▁hingin	-10638
▁hinuli	-10639
▁inaaba	-10640
▁kalaro	-10641
▁maalam	-10642
▁magpal	-10643
▁mahuli	-10644
▁nagapi	-10645
▁naghah	-10646
▁paalis	-10647
▁pagkai	-10648
▁palaki	-10649
▁sandok	-10650
▁simple	-10651
▁Nalunod	-10652
▁Sanggol	-10653
▁dinalaw	-10654
▁kastila	-10655
▁mabulas	-10656
▁magtago	-10657
▁manalig	-10658
▁masundo	-10659
▁orasyon	-10660
▁palakas	-10661
▁pisikal	-10662
▁sutlang	-10663
▁ulirang	-10664
apakilala	-10665
uuntugang	-10666
▁Alemanya	-10667
▁Ambrocio	-10668
▁Barangay	-10669
▁Bibigyan	-10670
▁Caravana	-10671
▁Cotabato	-10672
▁Dakilang	-10673
▁Darating	-10674
▁Datapuwa	-10675
▁Datapwat	-10676
▁Dayiring	-10677
▁Dinampot	-10678
▁Gumapang	-10679
▁Gustuhin	-10680
▁Haplusin	-10681
▁Ibibigay	-10682
▁Ikinasal	-10683
▁Ilalagay	-10684
▁Inihagis	-10685
▁Inilabas	-10686
▁Inilapag	-10687
▁Inilipad	-10688
▁Ispiritu	-10689
▁Itinapon	-10690
▁Kabataan	-10691
▁Kabunian	-10692
▁Kalahati	-10693
▁Kanilang	-10694
▁Kankanay	-10695
▁Kastilya	-10696
▁Kasuotan	-10697
▁Katindig	-10698
▁Kaytamis	-10699
;"	-10700
Tek	-10701
opr	-10702
▁VI	-10703
iiba	-10704
illa	-10705
inid	-10706
▁Eba	-10707
Iyang	-10708
agand	-10709
ahibo	-10710
aklan	-10711
igiba	-10712
imbal	-10713
▁Itim	-10714
▁Oras	-10715
▁Ulod	-10716
anakan	-10717
astila	-10718
kingan	-10719
manong	-10720
tumpok	-10721
yayaan	-10722
▁Aming	-10723
▁Ginto	-10724
▁Lakad	-10725
▁Narra	-10726
▁Sasak	-10727
▁aawit	-10728
▁bitag	-10729
▁lipat	-10730
▁pinay	-10731
▁tumba	-10732
ahasang	-10733
umanhin	-10734
▁Dalawa	-10735
▁Ipinas	-10736
▁Limang	-10737
▁Nagkak	-10738
▁Nagpap	-10739
▁Nagpup	-10740
▁bayaan	-10741
▁iniuwi	-10742
▁naipas	-10743
▁pagkar	-10744
iligiran	-10745
▁Dumagat	-10746
▁Itataas	-10747
▁Makapag	-10748
▁Marahas	-10749
▁Narinig	-10750
▁Sumakay	-10751
▁barilin	-10752
▁daluyan	-10753
▁iniiwan	-10754
▁kagiliw	-10755
▁kumanta	-10756
▁magalit	-10757
▁pinakad	-10758
apanganak	-10759
▁Isasauli	-10760
▁Kinalong	-10761
▁Kinausap	-10762
▁Lambunao	-10763
▁Leonardo	-10764
▁Lihangin	-10765
▁Lilingon	-10766
▁Liwayway	-10767
▁Mababaya	-10768
▁Mabuting	-10769
▁Magaling	-10770
▁Magbayad	-10771
▁Magiging	-10772
▁Magkaisa	-10773
▁Mahabang	-10774
▁Mahinang	-10775
▁Malayang	-10776
▁Maliliit	-10777
▁Mapaapoy	-10778
▁Maragtas	-10779
▁Masaklap	-10780
▁Masamang	-10781
▁Miskoyaw	-10782
▁Momoocan	-10783
▁Naaalala	-10784
▁Nabalita	-10785
▁Nagbihis	-10786
▁Naghanap	-10787
▁Nagkalat	-10788
▁Naglaban	-10789
▁Naglikha	-10790
▁Nagluksa	-10791
▁Nagsayaw	-10792
▁Nagsilid	-10793
▁Nagtanim	-10794
▁Nakatuon	-10795
▁Nakikita	-10796
▁Nakilala	-10797
▁Nakiusap	-10798
▁Namasyal	-10799
IK	-10800
alu	-10801
tin	-10802
Nagd	-10803
asiwa	-10804
habag	-10805
uugat	-10806
▁Lobo	-10807
▁plat	-10808
atapon	-10809
istang	-10810
napung	-10811
▁Amado	-10812
▁Ginap	-10813
▁Itlog	-10814
▁Kabat	-10815
▁Kamya	-10816
▁Maaga	-10817
▁Mahuh	-10818
▁Pipit	-10819
▁bingi	-10820
▁mabuo	-10821
▁nagpa	-10822
▁pasan	-10823
▁payag	-10824
▁riyan	-10825
Gagawin	-10826
aalaala	-10827
abagtas	-10828
ahatang	-10829
▁Bayani	-10830
▁Momong	-10831
▁Parati	-10832
▁Sigaan	-10833
▁barong	-10834
▁ipinas	-10835
▁kasuyo	-10836
▁lumago	-10837
▁nasawi	-10838
▁pagasa	-10839
▁patayo	-10840
▁sinisi	-10841
▁susuko	-10842
▁turing	-10843
amantika	-10844
asakupan	-10845
▁Benguet	-10846
▁Eugenio	-10847
▁Natapos	-10848
▁Pinauwi	-10849
▁Sinulat	-10850
▁Ulahing	-10851
▁diligin	-10852
▁ihampas	-10853
▁ipinagb	-10854
▁kahabag	-10855
▁lumagay	-10856
▁magdala	-10857
▁mapigil	-10858
▁masapit	-10859
▁matanaw	-10860
▁naaakit	-10861
▁nalagas	-10862
▁natanaw	-10863
▁natipon	-10864
▁pangkal	-10865
▁tumindi	-10866
ilanganin	-10867
▁Hinintay	-10868
▁Intempsy	-10869
▁Maalaala	-10870
▁Magbigay	-10871
▁Nanaisin	-10872
▁Nanatili	-10873
▁Napaiyak	-10874
▁Naroroon	-10875
▁Paglipas	-10876
▁Panapana	-10877
▁Pangalan	-10878
▁Pilipina	-10879
▁Pinakain	-10880
▁Pinatubo	-10881
▁Puhunang	-10882
▁Pumanaog	-10883
▁Pupwesto	-10884
▁Rinayong	-10885
▁Rogongan	-10886
▁Simbahan	-10887
▁Singsing	-10888
▁Tinampal	-10889
▁Tinanong	-10890
▁Tinubuan	-10891
▁Tumanggi	-10892
▁abalahin	-10893
▁alinmang	-10894
▁babatiin	-10895
▁babayaan	-10896
▁balasang	-10897
▁batayang	-10898
▁batisang	-10899
▁upo	-10900
Dapat	-10901
▁Isip	-10902
▁Nene	-10903
Manobo	-10904
▁sisis	-10905
maganda	-10906
▁Bumaba	-10907
▁abutan	-10908
▁mabatid	-10909
▁masunog	-10910
▁tuturan	-10911
▁Darangen	-10912
▁berkahan	-10913
▁bilanggo	-10914
▁binabayo	-10915
▁bubuksan	-10916
▁bubungan	-10917
▁bumalong	-10918
▁bumangon	-10919
▁bumigtas	-10920
▁buwayang	-10921
▁dagdagan	-10922
▁dalawamp	-10923
▁daratnan	-10924
▁digmaang	-10925
▁dinaanan	-10926
▁dinapuan	-10927
▁dumalaga	-10928
▁edukasyo	-10929
▁eksenang	-10930
▁espiritu	-10931
▁gumaling	-10932
▁hahagkan	-10933
▁haharang	-10934
▁halagang	-10935
▁haliging	-10936
▁hinampas	-10937
▁hinangad	-10938
▁hinipang	-10939
▁hintayin	-10940
▁ibinenta	-10941
▁iginayak	-10942
▁ihaharap	-10943
▁iingatan	-10944
▁ikinalat	-10945
▁ilalagay	-10946
▁ilalapat	-10947
▁inaakala	-10948
▁inihanay	-10949
▁inilabas	-10950
▁inilagak	-10951
▁inilawan	-10952
▁ipamalas	-10953
▁ipapasok	-10954
▁isaalang	-10955
▁isinilid	-10956
▁isinulat	-10957
▁isusunod	-10958
▁itanghal	-10959
▁itinapon	-10960
▁itinuloy	-10961
▁kahambal	-10962
▁kahinaan	-10963
▁kahuluga	-10964
▁kailalim	-10965
▁kakamtan	-10966
▁kalabang	-10967
▁kalahing	-10968
▁kalaking	-10969
▁kalansay	-10970
▁kalapati	-10971
▁kalawaka	-10972
▁kaliitan	-10973
▁kaliskis	-10974
▁kaliwang	-10975
▁kamagong	-10976
▁kamalian	-10977
▁kanluran	-10978
▁kapaitan	-10979
▁kapalara	-10980
▁karangya	-10981
▁katabing	-10982
▁katotong	-10983
▁kaulayaw	-10984
▁kausapin	-10985
▁kaytamis	-10986
▁kinikita	-10987
▁kolonyal	-10988
▁konsepto	-10989
▁kublihan	-10990
▁kumbento	-10991
▁kumikibo	-10992
▁lagaslas	-10993
▁lagingan	-10994
▁lagusang	-10995
▁lalagpak	-10996
▁lampadan	-10997
▁landasin	-10998
▁linggong	-10999
▁lubusang	-11000
▁lumagpak	-11001
▁lumigaya	-11002
▁lumindol	-11003
▁lumipana	-11004
▁lumusong	-11005
▁luntiang	-11006
▁maalaala	-11007
▁mababago	-11008
▁mabagsik	-11009
▁madadala	-11010
▁madugong	-11011
▁madungis	-11012
▁magbalak	-11013
▁magbuhat	-11014
▁magdasal	-11015
▁magdilim	-11016
▁maghapon	-11017
▁maghirap	-11018
▁magkaisa	-11019
▁maglinis	-11020
▁magpapas	-11021
▁magsaing	-11022
▁magtatak	-11023
▁magtipid	-11024
▁magugust	-11025
▁mahinhin	-11026
▁maisakat	-11027
▁makababa	-11028
▁makagawa	-11029
▁makaiwas	-11030
▁makakaya	-11031
▁makapagt	-11032
▁makasira	-11033
▁makatayo	-11034
▁makausap	-11035
▁makilala	-11036
▁makiring	-11037
▁malamang	-11038
▁malamyos	-11039
▁maluwang	-11040
▁mamalagi	-11041
▁mananaig	-11042
▁mangahas	-11043
▁mangarap	-11044
▁mangusap	-11045
▁mapahiya	-11046
▁mariwasa	-11047
▁masasaya	-11048
▁masusing	-11049
▁matataas	-11050
▁material	-11051
▁matining	-11052
▁matipuno	-11053
▁maubusan	-11054
▁mayabong	-11055
▁metapora	-11056
▁nadatnan	-11057
▁naganyak	-11058
▁nagbihis	-11059
▁nagdaang	-11060
▁nagdasal	-11061
▁naghirap	-11062
▁nagising	-11063
▁nagkalat	-11064
▁naglagay	-11065
▁nagmahal	-11066
▁nagnakaw	-11067
▁nagsaing	-11068
▁nagsayaw	-11069
▁nagsisil	-11070
▁nagsisip	-11071
▁nagsisis	-11072
▁nagtampo	-11073
▁nahihiya	-11074
▁nakaalis	-11075
▁nakaiwas	-11076
▁nakapags	-11077
▁nakapiit	-11078
▁nakaraan	-11079
▁nakasama	-11080
▁nakataas	-11081
▁nakawala	-11082
▁nakayuko	-11083
▁nakipags	-11084
▁nakiusap	-11085
▁nalakbay	-11086
▁nalamang	-11087
▁namamana	-11088
▁namataan	-11089
▁nanariwa	-11090
▁nangakas	-11091
▁naniwala	-11092
▁nanunuot	-11093
▁napaaapi	-11094
▁napadpad	-11095
▁napahiya	-11096
▁napapako	-11097
▁napapala	-11098
▁napapawi	-11099
▁naparito	-11100
▁nasisira	-11101
▁natatamo	-11102
▁natauhan	-11103
▁naturang	-11104
▁nawaglit	-11105
▁ngayunin	-11106
▁ngumanga	-11107
▁niladlad	-11108
▁nilagyan	-11109
▁nilusong	-11110
▁ningning	-11111
▁ninunong	-11112
▁pabayaan	-11113
▁pabulong	-11114
▁pagbalik	-11115
▁pagbilog	-11116
▁pagbuhat	-11117
▁pagdalaw	-11118
▁pagdaloy	-11119
▁paggapas	-11120
▁paghanap	-11121
▁paghawak	-11122
▁paghinga	-11123
▁paghinto	-11124
▁pagkaawa	-11125
▁pagkamal	-11126
▁pagkilos	-11127
▁pagkunan	-11128
▁paglikha	-11129
▁paglusob	-11130
▁pagpanaw	-11131
▁pagpapag	-11132
▁pagpapan	-11133
▁pagsapit	-11134
▁pagsubok	-11135
▁pagsulat	-11136
▁pagsunod	-11137
▁pagtakas	-11138
▁pagtungo	-11139
▁pagyaman	-11140
▁painumin	-11141
▁pakaunti	-11142
▁palalong	-11143
▁pambayad	-11144
▁pandikit	-11145
▁paninira	-11146
▁panlaban	-11147
▁panlunas	-11148
▁pansinin	-11149
▁panuunan	-11150
▁pasaklaw	-11151
▁pasubsob	-11152
▁pasulong	-11153
▁payagang	-11154
▁pedestal	-11155
▁pigingan	-11156
▁pinagsas	-11157
▁pinagtat	-11158
▁pinakama	-11159
▁pinalaya	-11160
▁pinangko	-11161
▁pinansin	-11162
▁pinapalo	-11163
▁pinapang	-11164
▁pinasahi	-11165
▁pinggang	-11166
▁pirasong	-11167
▁pocpoclo	-11168
▁posisyon	-11169
▁problema	-11170
▁puhunang	-11171
▁pulseras	-11172
▁pulutong	-11173
▁puspusan	-11174
▁sabihing	-11175
▁sagingan	-11176
▁sigurado	-11177
▁sinusukl	-11178
▁solusyon	-11179
▁sosyedad	-11180
▁sumaisip	-11181
▁sumilong	-11182
▁sumulpot	-11183
▁tagaroon	-11184
▁tagtuyot	-11185
▁talastas	-11186
▁talisman	-11187
▁tangkang	-11188
▁tatakpan	-11189
▁tawanang	-11190
▁tekstong	-11191
▁tinangka	-11192
▁tinatago	-11193
▁tingnang	-11194
▁tinitiis	-11195
▁torongan	-11196
▁trahedya	-11197
▁tsinelas	-11198
▁tultugan	-11199
▁tumatawa	-11200
▁tumingin	-11201
▁tumitira	-11202
▁tumubong	-11203
▁tumugtog	-11204
▁umusbong	-11205
▁yumabong	-11206
..........	-11207
Hahagulgol	-11208
Kailangang	-11209
Sasambitin	-11210
Tutulungan	-11211
akasalanan	-11212
alamhatian	-11213
ampalataya	-11214
atatanghal	-11215
talastasan	-11216
▁Amongabon	-11217
▁Aphrodite	-11218
▁Babalikan	-11219
▁Bathalang	-11220
▁Boholanos	-11221
▁Bubuhatin	-11222
▁Datimbang	-11223
▁Domingsel	-11224
▁Francisco	-11225
▁Gaygaynet	-11226
▁Hernandez	-11227
▁Ikalawang	-11228
▁Inglatera	-11229
▁Ipagdasal	-11230
▁Ipagpalit	-11231
▁Ipinaalam	-11232
▁Itinuring	-11233
▁Jerusalem	-11234
▁Kabalyero	-11235
▁Kabukiran	-11236
▁Kadugnung	-11237
▁Kakagatin	-11238
▁Kalawitan	-11239
▁Kalikasan	-11240
▁Kastilang	-11241
▁Katangian	-11242
▁Kayamanan	-11243
▁Kayraming	-11244
▁Kinastila	-11245
▁Kinawayan	-11246
▁Leddangan	-11247
▁Lumilipad	-11248
▁Mabubuhay	-11249
▁Madogyaya	-11250
▁Magsasaka	-11251
▁Makabuhay	-11252
▁Mapalawak	-11253
▁Masusunod	-11254
▁Minalisin	-11255
▁Mistulang	-11256
▁Nagkasama	-11257
▁Nagsasama	-11258
▁Nagsimula	-11259
▁Nagsisisi	-11260
▁Naguilian	-11261
▁Nakatungo	-11262
▁Nalalanta	-11263
▁Natagpuan	-11264
▁Natutulog	-11265
▁Nobyembre	-11266
▁Pabulanan	-11267
▁Pagbagsak	-11268
▁Pagkaalis	-11269
▁Pakawalan	-11270
▁Pandanggo	-11271
▁Pangaiwan	-11272
▁Papatayin	-11273
▁Paraisong	-11274
▁Parusahan	-11275
▁Patawarin	-11276
▁Sambangki	-11277
▁Sandaling	-11278
▁Setyembre	-11279
▁Singkamas	-11280
▁Sinisinta	-11281
▁Sumalunga	-11282
▁Sumarinaw	-11283
▁Tanggapin	-11284
▁Tinalupan	-11285
▁Tinitiyak	-11286
▁Titingnan	-11287
▁Tominaman	-11288
▁Tumahimik	-11289
▁Tungkulin	-11290
▁Yayakapin	-11291
▁aksesorya	-11292
▁anakpawis	-11293
▁bahaghari	-11294
▁baranggay	-11295
▁bathalang	-11296
▁bibitiwan	-11297
▁binabalot	-11298
▁binanggit	-11299
▁binubunot	-11300
▁bubuhayin	-11301
▁bugtungan	-11302
▁bulalakaw	-11303
▁bungkalin	-11304
▁dadagitin	-11305
▁dadalawin	-11306
▁daigdigan	-11307
▁dalamhati	-11308
▁dinadagit	-11309
▁dinumihan	-11310
▁diyamante	-11311
▁dumadalaw	-11312
▁ekonomiya	-11313
▁gandingan	-11314
▁ginhawang	-11315
▁grasiyang	-11316
▁gumagalaw	-11317
▁gumaganda	-11318
▁gumigiliw	-11319
▁hahanguin	-11320
▁higanteng	-11321
▁hihilahin	-11322
▁hinahamak	-11323
▁hinahamon	-11324
▁hinanakit	-11325
▁hinigupan	-11326
▁hiningang	-11327
▁hinugasan	-11328
▁hinukayan	-11329
▁humagupit	-11330
▁humahanga	-11331
▁humakbang	-11332
▁humantong	-11333
▁idalangin	-11334
▁ihahandog	-11335
▁ikabubuti	-11336
▁ikinulong	-11337
▁ikukumpas	-11338
▁ililigtas	-11339
▁impuwesto	-11340
▁inaasahan	-11341
▁inaawitan	-11342
▁ipagtapat	-11343
▁ipakikita	-11344
▁ipakilala	-11345
▁ipinadala	-11346
▁isinaayos	-11347
▁itinanong	-11348
▁itinatago	-11349
▁kabaitang	-11350
▁kabakahin	-11351
▁kabataang	-11352
▁kadalasan	-11353
▁kagalakan	-11354
▁kaganapan	-11355
▁kaguluhan	-11356
▁kahatulan	-11357
▁kakatwang	-11358
▁kakisigan	-11359
▁kalabanin	-11360
▁kalakaran	-11361
▁kaligatan	-11362
▁kalimutan	-11363
▁kalusugan	-11364
▁kaluwagan	-11365
▁kamukhang	-11366
▁kandungan	-11367
▁kapaguran	-11368
▁kapakanan	-11369
▁karaingan	-11370
▁kariktang	-11371
▁karugtong	-11372
▁kasamahan	-11373
▁kasanayan	-11374
▁katamaran	-11375
▁katatagan	-11376
▁kaukulang	-11377
▁kayariang	-11378
▁kaysasaya	-11379
▁kinakanta	-11380
▁kinalaman	-11381
▁kinurutan	-11382
▁kolintang	-11383
▁komunidad	-11384
▁kulintang	-11385
▁kulturang	-11386
▁kumakalat	-11387
▁lambuting	-11388
▁lolokisen	-11389
▁lumaganap	-11390
▁lumalabas	-11391
▁lumalakas	-11392
▁mababango	-11393
▁mabubusog	-11394
▁magagamit	-11395
▁magaganap	-11396
▁magaspang	-11397
▁magbabait	-11398
▁magdiwang	-11399
▁magdurusa	-11400
▁maghangad	-11401
▁magkaaway	-11402
▁magkaisip	-11403
▁maglakbay	-11404
▁maglalaon	-11405
▁magluluto	-11406
▁magsalita	-11407
▁magsilang	-11408
▁magugutom	-11409
▁mahahayag	-11410
▁maharlika	-11411
▁mahawakan	-11412
▁mahinahon	-11413
▁mahinhing	-11414
▁mailigtas	-11415
▁makabansa	-11416
▁makahinga	-11417
▁makakamit	-11418
▁makalabas	-11419
▁makalapit	-11420
▁makasapit	-11421
▁makikipag	-11422
▁makukulay	-11423
▁malalapad	-11424
▁malambing	-11425
▁maliligaw	-11426
▁malilikot	-11427
▁malulupit	-11428
▁mambabasa	-11429
▁mangitlog	-11430
▁mapahamak	-11431
▁mapipigil	-11432
▁mapitagan	-11433
▁mapupunta	-11434
▁maputlang	-11435
▁masakupan	-11436
▁masiglang	-11437
▁masisigla	-11438
▁masiyahan	-11439
▁masyadong	-11440
▁matagalan	-11441
▁matanggap	-11442
▁matangkad	-11443
▁matatakot	-11444
▁matitigas	-11445
▁matutuloy	-11446
▁matutupad	-11447
▁mayayaman	-11448
▁minimithi	-11449
▁mistulang	-11450
▁naatasang	-11451
▁nababasag	-11452
▁nagbabala	-11453
▁nagbibiro	-11454
▁nagdiwang	-11455
▁naghandog	-11456
▁nagigipit	-11457
▁nagkaanak	-11458
▁nagkagulo	-11459
▁nagkaloob	-11460
▁nagpasiya	-11461
▁nagpulong	-11462
▁nagpupuno	-11463
▁nagsasabi	-11464
▁nagsilaho	-11465
▁nagwawagi	-11466
▁nagwiwika	-11467
▁naiibigan	-11468
▁nakaaaliw	-11469
▁nakaakyat	-11470
▁nakabalik	-11471
▁nakabitin	-11472
▁nakabulag	-11473
▁nakahasik	-11474
▁nakalatag	-11475
▁nakalipas	-11476
▁nakalugay	-11477
▁nakaluhod	-11478
▁nakangiti	-11479
▁nakapulot	-11480
▁nakasabay	-11481
▁nakasagot	-11482
▁nakasaksi	-11483
▁nakatanod	-11484
▁nakikiapi	-11485
▁nalalanta	-11486
▁nalanghap	-11487
▁nalikhang	-11488
▁nalilimot	-11489
▁nalimutan	-11490
▁nalungkot	-11491
▁namamalas	-11492
▁namimitas	-11493
▁nanawagan	-11494
▁nangakong	-11495
▁napahinto	-11496
▁napansing	-11497
▁napapatay	-11498
▁napilitan	-11499
▁nasalanta	-11500
▁nasasabik	-11501
▁nasugatan	-11502
▁natanawan	-11503
▁natanggal	-11504
▁natapakan	-11505
▁natutuloy	-11506
▁nilapitan	-11507
▁nilawayan	-11508
▁nilulutas	-11509
▁nunungong	-11510
▁pagbigyan	-11511
▁paggalang	-11512
▁pagitawin	-11513
▁pagkahari	-11514
▁pagkakain	-11515
▁paglalaho	-11516
▁paglinang	-11517
▁paglingon	-11518
▁pagpanhik	-11519
▁pagparito	-11520
▁pagtataka	-11521
▁pagtitiis	-11522
▁pagtutuos	-11523
▁pahimakas	-11524
▁paimbulog	-11525
▁pakakasal	-11526
▁pakikipag	-11527
▁pamilihan	-11528
▁pamumulot	-11529
▁pananabik	-11530
▁pananamit	-11531
▁pandulaan	-11532
▁panginoon	-11533
▁pangkasal	-11534
▁pangkatan	-11535
▁papaanong	-11536
▁paraluman	-11537
▁pasintabi	-11538
▁patunugin	-11539
▁pinakamag	-11540
▁pinangang	-11541
▁pinayuhan	-11542
▁pinuhunan	-11543
▁pinutulan	-11544
▁praktikal	-11545
▁prusisyon	-11546
▁puspusang	-11547
▁salakayin	-11548
▁sandipang	-11549
▁sanlibong	-11550
▁sasadyain	-11551
▁sasagutin	-11552
▁sasakyang	-11553
▁sinalanta	-11554
▁sinimulan	-11555
▁sinisinta	-11556
▁sinubukan	-11557
▁sisinghap	-11558
▁siyamnapu	-11559
▁solitaryo	-11560
▁sugilanon	-11561
▁sumalakay	-11562
▁sumasamba	-11563
▁sumasapit	-11564
▁tanghalin	-11565
▁tatandaan	-11566
▁tinalupan	-11567
▁tinubuang	-11568
▁tumakbong	-11569
▁tumalikod	-11570
▁tumatabas	-11571
▁tumatakas	-11572
▁tumitibok	-11573
▁tumututol	-11574
▁winalisan	-11575
ahalukipkip	-11576
atanikalang	-11577
ihinayangan	-11578
ngingitngit	-11579
▁Balensuela	-11580
▁Bienvenido	-11581
▁Binongtoan	-11582
▁Dinaradiya	-11583
▁Dumalaplap	-11584
▁Dumalogdog	-11585
▁Ekspresyon	-11586
▁Epimetheus	-11587
▁Humadapnen	-11588
▁Kabisayaan	-11589
▁Kagitingan	-11590
▁Kailokohan	-11591
▁Kapampanga	-11592
▁Karunungan	-11593
▁Kasaysayan	-11594
▁Katamtaman	-11595
▁Livunganen	-11596
▁Lumulutang	-11597
▁Magbabalik	-11598
▁Magbibigay	-11599
▁Maggagatas	-11600
▁Magkakapit	-11601
▁Makarating	-11602
▁Maningning	-11603
▁Mapayapang	-11604
▁Maratectec	-11605
▁Nabilanggo	-11606
▁Naghahanap	-11607
▁Nagkakaisa	-11608
▁Nagpumilit	-11609
▁Nagtawanan	-11610
▁Nakarating	-11611
▁Namayagpag	-11612
▁Naramdaman	-11613
▁Pagsasalin	-11614
▁Pangavukad	-11615
▁Panginoong	-11616
▁Pinalangga	-11617
▁Pinamunuan	-11618
▁Polidiktis	-11619
▁Prometheus	-11620
▁Rinamentaw	-11621
▁Sansinukob	-11622
▁Sapilitang	-11623
▁Silanganin	-11624
▁Sinimulang	-11625
▁Talagsahon	-11626
▁bibilangin	-11627
▁biniyayaan	-11628
▁binubuksan	-11629
▁bukambibig	-11630
▁bumabagsak	-11631
▁bumabalong	-11632
▁dinaraanan	-11633
▁dinaramdam	-11634
▁dumalagang	-11635
▁dumarating	-11636
▁durungawan	-11637
▁eksorsismo	-11638
▁elementong	-11639
▁engkantong	-11640
▁episodyong	-11641
▁gugustuhin	-11642
▁hahahahaha	-11643
▁hahalakhak	-11644
▁ibinabalik	-11645
▁ibinalibag	-11646
▁ikabubuhay	-11647
▁ikinagalit	-11648
▁ikinamatay	-11649
▁ikinuwento	-11650
▁inaakalang	-11651
▁industriya	-11652
▁inihahatid	-11653
▁inilalagay	-11654
▁ipahiwatig	-11655
▁ipinaghele	-11656
▁ipinahayag	-11657
▁ipinakasal	-11658
▁ipinamalas	-11659
▁ipinangako	-11660
▁ispiritung	-11661
▁itinanghal	-11662
▁kababayang	-11663
▁kabinataan	-11664
▁kagalingan	-11665
▁kahihintay	-11666
▁kahiwagaan	-11667
▁kakanyahan	-11668
▁kakaunting	-11669
▁kalabasang	-11670
▁kaligtasan	-11671
▁kalimitang	-11672
▁kamatayang	-11673
▁kapalarang	-11674
▁kasabihang	-11675
▁kasarinlan	-11676
▁kasiyahang	-11677
▁kastilaloy	-11678
▁kasukdulan	-11679
▁katangahan	-11680
▁katanyagan	-11681
▁katapatang	-11682
▁katapusang	-11683
▁katatayong	-11684
▁katunayang	-11685
▁katunggali	-11686
▁kimmatuday	-11687
▁kinakitaan	-11688
▁lalakbayin	-11689
▁lumalayong	-11690
▁lumilingon	-11691
▁lumulutang	-11692
▁mababangis	-11693
▁madagdagan	-11694
▁madamdamin	-11695
▁magbungkal	-11696
▁magdudulot	-11697
▁maghahanap	-11698
▁magigising	-11699
▁magkalapit	-11700
▁maglambing	-11701
▁magpahayag	-11702
▁magtanggol	-11703
▁magtatagal	-11704
▁mahahabang	-11705
▁makakakita	-11706
▁makakasama	-11707
▁makaramdam	-11708
▁makasarili	-11709
▁makatitiis	-11710
▁makatulong	-11711
▁makikitang	-11712
▁makikiusap	-11713
▁makinabang	-11714
▁malalagong	-11715
▁malikhaing	-11716
▁malinamnam	-11717
▁maliwanang	-11718
▁mananatili	-11719
▁manibalang	-11720
▁mapayapang	-11721
▁marangyang	-11722
▁mararangal	-11723
▁mararangya	-11724
▁masasaktan	-11725
▁masilungan	-11726
▁matiyagang	-11727
▁matuklasan	-11728
▁mauunawaan	-11729
▁minamasdan	-11730
▁nagbubuhat	-11731
▁nagbubunga	-11732
▁nagbuntung	-11733
▁nagdarahop	-11734
▁nagdarasal	-11735
▁naghahanda	-11736
▁naghahayag	-11737
▁nagkadurog	-11738
▁nagkagayon	-11739
▁nagkakalat	-11740
▁nagkatotoo	-11741
▁naglathala	-11742
▁nagliwanag	-11743
▁nagmamaliw	-11744
▁nagpahayag	-11745
▁nagpakasal	-11746
▁nagpamalas	-11747
▁nagpapalit	-11748
▁nagpatiuna	-11749
▁nagsasayaw	-11750
▁nagsigawan	-11751
▁nagsipunta	-11752
▁nagsisipag	-11753
▁nagsisipan	-11754
▁nagtatagpo	-11755
▁nagtutulog	-11756
▁nailathala	-11757
▁naisatitik	-11758
▁nakababata	-11759
▁nakabigkis	-11760
▁nakakaalam	-11761
▁nakapanhik	-11762
▁nakaramdam	-11763
▁nakikilala	-11764
▁nakipagkas	-11765
▁nalalaglag	-11766
▁nalalamang	-11767
▁namamahala	-11768
▁namamayong	-11769
▁nanalangin	-11770
▁nanatiling	-11771
▁nandayuhan	-11772
▁nangamatay	-11773
▁nangangako	-11774
▁naniningil	-11775
▁napakasama	-11776
▁nararahuyo	-11777
▁nasaksihan	-11778
▁nasasaklaw	-11779
▁natatakpan	-11780
▁pagbubukas	-11781
▁pagkagalit	-11782
▁pagkaganda	-11783
▁pagkagiliw	-11784
▁pagkalimot	-11785
▁paglalakad	-11786
▁paglilinis	-11787
▁pagmumukha	-11788
▁pagsasanay	-11789
▁pamamasyal	-11790
▁panambitan	-11791
▁panganorin	-11792
▁panggatong	-11793
▁paninirang	-11794
▁panliligaw	-11795
▁panlipunan	-11796
▁papanhikin	-11797
▁paparating	-11798
▁partikular	-11799
▁pasalaysay	-11800
▁patnubayan	-11801
▁perdigones	-11802
▁pinakaloob	-11803
▁pinangarap	-11804
▁pinapansin	-11805
▁pupuntahan	-11806
▁sambayanan	-11807
▁sambuntong	-11808
▁sanggunian	-11809
▁sanlibutan	-11810
▁sapilitang	-11811
▁sinasambit	-11812
▁sinindihan	-11813
▁sinusundan	-11814
▁sumalubong	-11815
▁tagapamuno	-11816
▁takipsilim	-11817
▁talinghaga	-11818
▁tanggulang	-11819
▁tanikalang	-11820
▁tataglayin	-11821
▁tiwangwang	-11822
▁tumangging	-11823
▁tumatangis	-11824
▁tumutugtog	-11825
▁tumutulong	-11826
▁tunggalian	-11827
............	-11828
aniniwalaang	-11829
▁Christopher	-11830
▁Dambuhalang	-11831
▁Ipinagbilin	-11832
▁Itinatanong	-11833
▁Kabayanihan	-11834
▁Kabungsuwan	-11835
▁Katotohanan	-11836
▁Katungkulan	-11837
▁Maglalakbay	-11838
▁Magpapakita	-11839
▁Magtatanong	-11840
▁Mahihikayat	-11841
▁Makasalanan	-11842
▁Naghihintay	-11843
▁Nagmumurang	-11844
▁Nagpakilala	-11845
▁Nagtakbuhan	-11846
▁Natatandaan	-11847
▁Panchantara	-11848
▁Pingpinggan	-11849
▁Sagamantika	-11850
▁Sinagmaling	-11851
▁Sinasalamin	-11852
▁Sitsiritsit	-11853
▁alingawngaw	-11854
▁bilangguang	-11855
▁ekspresyong	-11856
▁estranghero	-11857
▁ginagalawan	-11858
▁ginatipigan	-11859
▁hinahagupit	-11860
▁hinahangaan	-11861
▁ikaliligtas	-11862
▁ikinabahala	-11863
▁ikinahihiya	-11864
▁inihahandog	-11865
▁ipinakilala	-11866
▁isinalaysay	-11867
▁kapahamakan	-11868
▁kapighatian	-11869
▁karagdagang	-11870
▁katiwasayan	-11871
▁kaygagaslaw	-11872
▁kaylalamyos	-11873
▁lapastangan	-11874
▁maginhawang	-11875
▁magkakadugo	-11876
▁magkakasama	-11877
▁maitutulong	-11878
▁makababalik	-11879
▁makagulapay	-11880
▁makakalaban	-11881
▁makalimutan	-11882
▁makapagsabi	-11883
▁mananalamin	-11884
▁manghihimig	-11885
▁maninirahan	-11886
▁manlalakbay	-11887
▁mapagpalang	-11888
▁mapapalapit	-11889
▁mapapasaiyo	-11890
▁masisilayan	-11891
▁misyonerong	-11892
▁nagkaganoon	-11893
▁nagkaibigan	-11894
▁naglilingas	-11895
▁nagmamadali	-11896
▁nagngangang	-11897
▁nagpapakita	-11898
▁nagpatulong	-11899
▁nagsusuklay	-11900
▁nagtatampok	-11901
▁nagtatanong	-11902
▁nakahihigit	-11903
▁nakalilimot	-11904
▁nalilimutan	-11905
▁namamanglaw	-11906
▁namimingwit	-11907
▁namiminsala	-11908
▁namumungang	-11909
▁nangingibig	-11910
▁napakakisig	-11911
▁napakatanda	-11912
▁napaligiran	-11913
▁nilalanghap	-11914
▁pagbabahagi	-11915
▁pagkadakila	-11916
▁pagkakasara	-11917
▁pagkakayari	-11918
▁pagkamangha	-11919
▁paglilibang	-11920
▁paglilibing	-11921
▁paglilinang	-11922
▁pagmamasdan	-11923
▁pagnanasang	-11924
▁pagsasamang	-11925
▁pagsasarili	-11926
▁pagtitipong	-11927
▁pagtitiyaga	-11928
▁pakaiisipin	-11929
▁pakikidigma	-11930
▁pananagutan	-11931
▁pananalakay	-11932
▁paralelismo	-11933
▁pinagbigyan	-11934
▁pinagbuhata	-11935
▁pinagtaling	-11936
▁pinakaunang	-11937
▁pinakawalan	-11938
▁pinaligiran	-11939
▁pinangalang	-11940
▁pinapalitan	-11941
▁propesyonal	-11942
▁sinapupunan	-11943
▁sinasagisag	-11944
▁sinunggaban	-11945
▁sumasagisag	-11946
▁tagapagmana	-11947
▁tangkilikan	-11948
▁tinatahanan	-11949
▁tinatalakay	-11950
▁tinatanggap	-11951
▁tumatanggap	-11952
Magpupumiglas	-11953
▁Binabantayan	-11954
▁Bulubundukin	-11955
▁Ikinikompisa	-11956
▁Ipinalalagay	-11957
▁Ipinaliwanag	-11958
▁Kakalahating	-11959
▁Maghahabulan	-11960
▁Magmamakaawa	-11961
▁Mapangarapin	-11962
▁Mapapabilang	-11963
▁Matrimonyong	-11964
▁Minangondaya	-11965
▁Nararamdaman	-11966
▁Pinangpangan	-11967
▁engkantadong	-11968
▁himpapawirin	-11969
▁humahalakhak	-11970
▁ikagiginhawa	-11971
▁impluwensiya	-11972
▁ipinaliwanag	-11973
▁kababalaghan	-11974
▁kalalakihang	-11975
▁kalingkingan	-11976
▁kaparusahang	-11977
▁labingwalong	-11978
▁magkakabalat	-11979
▁magmamahalan	-11980
▁magpakasakit	-11981
▁mahahalagang	-11982
▁maintindihan	-11983
▁makabuluhang	-11984
▁makagagaling	-11985
▁makahulugang	-11986
▁makakarating	-11987
▁makapaniwala	-11988
▁mamamanhikan	-11989
▁mapaglabanan	-11990
▁mapapantayan	-11991
▁maratangtang	-11992
▁matatalinong	-11993
▁naghihiwalay	-11994
▁nagkakasundo	-11995
▁naglalarawan	-11996
▁nagliliparan	-11997
▁nagliliwanag	-11998
▁nagmakaawang	-11999
▁nagpapasigla	-12000
▁nagpasalamat	-12001
▁nagpatingkad	-12002
▁nagsusumpaan	-12003
▁nagtatrabaho	-12004
▁nahintakutan	-12005
▁nakababatang	-12006
▁nakabaligtad	-12007
▁nakakatulong	-12008
▁nakasalubong	-12009
▁nakatutulong	-12010
▁nananalangin	-12011
▁nangakaraang	-12012
▁nangangasiwa	-12013
▁nanginginain	-12014
▁nasisiyahang	-12015
▁pagkabusabos	-12016
▁pagkakahawig	-12017
▁pagkakasundo	-12018
▁pagkakatulog	-12019
▁pagmamakaawa	-12020
▁pagpapahayag	-12021
▁pagpapakasal	-12022
▁pagpapatuloy	-12023
▁pagsasamahin	-12024
▁pampanitikan	-12025
▁pananaliksik	-12026
▁pananalitang	-12027
▁panatilihing	-12028
▁pangangalaga	-12029
▁pangingitlog	-12030
▁paniniwalang	-12031
▁patalinghaga	-12032
▁pinagmumulan	-12033
▁pinagtawanan	-12034
▁sibilisasyon	-12035
▁tinatangisan	-12036
▁Hahahahahahah	-12037
▁Magtatampisaw	-12038
▁Mapapangasawa	-12039
▁Nagmamadaling	-12040
▁Pinakamaganda	-12041
▁kababalaghang	-12042
▁kakailanganin	-12043
▁labindalawang	-12044
▁magkakapantay	-12045
▁maipaghiganti	-12046
▁mangangalakal	-12047
▁matalinhagang	-12048
▁naghalinhinan	-12049
▁naghihinagpis	-12050
▁nagkikislapan	-12051
▁naglalakihang	-12052
▁nagpapagunita	-12053
▁nagpapakilala	-12054
▁nagtatakbuhan	-12055
▁nakapagsalita	-12056
▁nakapagtataka	-12057
▁napanaginipan	-12058
▁paghihinagpis	-12059
▁pagkakaibigan	-12060
▁pagkakatapong	-12061
▁pagsasaliksik	-12062
▁pangangatawan	-12063
▁pinagmamasdan	-12064
▁pinakamalakas	-12065
▁pinarurusahan	-12066
▁pinatutunayan	-12067
▁sangmaliwanag	-12068
▁tagapagparusa	-12069
▁tagapamagitan	-12070
▁umalingawngaw	-12071
▁Intempsychosis	-12072
▁Nagmamatandang	-12073
▁ipagsanggalang	-12074
▁kinahihinatnan	-12075
▁kinatatakutang	-12076
▁magpakailanman	-12077
▁mahihintakutan	-12078
▁maisakatuparan	-12079
▁makatotohanang	-12080
▁mapagbibilihan	-12081
▁nagngingitngit	-12082
▁nagsisipaglaro	-12083
▁pagmamalasakit	-12084
▁pagpapakasakit	-12085
▁pagpapasalamat	-12086
▁pahihintulutan	-12087
▁pangkalinangan	-12088
▁pinakamagaling	-12089
▁pinaniniwalaan	-12090
▁umaalingawngaw	-12091
▁Makapangyarihan	-12092
▁Nagsisipanlagas	-12093
▁karakterisasyon	-12094
▁makipagkaibigan	-12095
▁pagkakawanggawa	-12096
▁pagpapahalagang	-12097
▁pinaniniwalaang	-12098
AUS	-12099
TUS	-12100
ggg	-12101
AMAK	-12102
Asal	-12103
Bacn	-12104
Daig	-12105
IKAT	-12106
Teka	-12107
bakh	-12108
berg	-12109
iagn	-12110
ildr	-12111
ktub	-12112
susi	-12113
ulpi	-12114
▁10:	-12115
▁12,	-12116
▁AAA	-12117
▁Bea	-12118
▁DAY	-12119
▁DIW	-12120
▁PAM	-12121
▁TAO	-12122
▁TUM	-12123
▁awd	-12124
▁for	-12125
0,000	-12126
AHHHH	-12127
AKILA	-12128
ARILA	-12129
Asawa	-12130
Bacch	-12131
Barit	-12132
Bikol	-12133
Daing	-12134
Ninik	-12135
Oktub	-12136
Pagod	-12137
Pinat	-12138
Pinup	-12139
Pokus	-12140
UMANG	-12141
Ugang	-12142
Venus	-12143
eengg	-12144
eidel	-12145
eings	-12146
erico	-12147
ihuma	-12148
iipun	-12149
ispos	-12150
kiwal	-12151
lupig	-12152
older	-12153
ombra	-12154
onale	-12155
ranes	-12156
simin	-12157
ukdok	-12158
uksok	-12159
uskos	-12160
▁Ampu	-12161
▁Bayl	-12162
▁Bolp	-12163
▁Bunb	-12164
▁Cuad	-12165
▁Deat	-12166
▁Elep	-12167
▁Lomb	-12168
▁Lost	-12169
▁Rein	-12170
▁Shed	-12171
▁VIII	-12172
▁buod	-12173
▁epos	-12174
▁hwag	-12175
▁imbi	-12176
▁ipau	-12177
▁purg	-12178
▁teat	-12179
▁wild	-12180
AUSTUS	-12181
Enrile	-12182
Halina	-12183
Isplas	-12184
LARILA	-12185
Magkuk	-12186
Sumama	-12187
Tagist	-12188
UMANGG	-12189
aampon	-12190
abayaa	-12191
adence	-12192
akabig	-12193
ations	-12194
atngat	-12195
ecargo	-12196
egends	-12197
egorio	-12198
egosyo	-12199
ctis	-12200
dyed	-12201
kals	-12202
luoy	-12203
trod	-12204
ULING	-12205
idikd	-12206
senio	-12207
uumit	-12208
▁Font	-12209
▁Slow	-12210
▁Tsok	-12211
Introd	-12212
LINGAN	-12213
ackals	-12214
ehidor	-12215
ekargo	-12216
enigst	-12217
eologo	-12218
erhero	-12219
franes	-12220
ibilad	-12221
ibinhi	-12222
iburuk	-12223
iibayo	-12224
ikahos	-12225
ikings	-12226
ilamas	-12227
imarim	-12228
iphayo	-12229
iruray	-12230
itipid	-12231
iwisik	-12232
lalata	-12233
legend	-12234
lument	-12235
mabuti	-12236
okonsy	-12237
onseho	-12238
oprano	-12239
palaya	-12240
sagwan	-12241
suklam	-12242
susing	-12243
urukya	-12244
yerong	-12245
▁Agham	-12246
▁Beata	-12247
▁Bigay	-12248
▁Braso	-12249
▁Death	-12250
▁Elyas	-12251
▁Ester	-12252
▁Frank	-12253
▁Garis	-12254
▁Gutum	-12255
▁HAMAK	-12256
▁Hihig	-12257
▁ILING	-12258
▁Iluad	-12259
▁Kelan	-12260
▁Kodla	-12261
▁Legas	-12262
▁Livet	-12263
▁Mileg	-12264
▁Mlkss	-12265
▁Ngeee	-12266
▁Paete	-12267
▁Pokus	-12268
▁Reinh	-12269
▁SIKAT	-12270
▁Saksi	-12271
▁Simal	-12272
▁Tsino	-12273
▁Ugang	-12274
▁Venus	-12275
▁aalsa	-12276
▁agham	-12277
▁ambon	-12278
▁awdia	-12279
▁bikol	-12280
▁dapyo	-12281
▁derib	-12282
▁eeeng	-12283
▁gulod	-12284
▁guwar	-12285
▁iiral	-12286
▁imbit	-12287
▁kikil	-12288
▁kusim	-12289
▁laksa	-12290
▁lupig	-12291
▁optim	-12292
▁plota	-12293
▁prosp	-12294
▁radyo	-12295
▁ritmo	-12296
▁siyud	-12297
▁tahip	-12298
▁tenga	-12299
Araw	-12300
East	-12301
Mbls	-12302
encia	-12303
ungua	-12304
▁Cast	-12305
Dumaan	-12306
Humayo	-12307
basket	-12308
▁sukli	-12309
▁ungas	-12310
▁upuan	-12311
▁voice	-12312
Eastern	-12313
Humanda	-12314
Iniibig	-12315
Ipakita	-12316
Jackals	-12317
Kangina	-12318
Konseho	-12319
Magkukw	-12320
Makinig	-12321
Makulay	-12322
Nakaupo	-12323
Papaano	-12324
Patayin	-12325
Sisilip	-12326
Soprano	-12327
Tatango	-12328
Tumulad	-12329
UMANGGI	-12330
abuklod	-12331
adlakan	-12332
alimsim	-12333
amimili	-12334
apareha	-12335
apusing	-12336
arlisle	-12337
asiwaan	-12338
ayukdok	-12339
bakuran	-12340
busilak	-12341
dionale	-12342
endulum	-12343
enteryo	-12344
ericano	-12345
ernando	-12346
giliwan	-12347
hanggan	-12348
idikdik	-12349
iimbita	-12350
intidor	-12351
lanueva	-12352
lumentr	-12353
makinis	-12354
otensya	-12355
palahil	-12356
pawisan	-12357
taguyod	-12358
ubunyag	-12359
udencia	-12360
ugbugin	-12361
usuntok	-12362
utukain	-12363
uumapaw	-12364
yalismo	-12365
▁Aaluin	-12366
▁Acacio	-12367
▁Alulod	-12368
▁Baylen	-12369
▁Beauti	-12370
▁Bolpen	-12371
▁Brahos	-12372
▁Bunbut	-12373
▁DAKILA	-12374
▁Duryan	-12375
▁Estilo	-12376
▁Glorya	-12377
▁Heidel	-12378
▁Ihanap	-12379
▁Intsik	-12380
▁Isplas	-12381
▁Iwasan	-12382
▁Jeriko	-12383
▁Kasukd	-12384
▁Kiming	-12385
▁Laguna	-12386
▁Lipdin	-12387
▁Liveti	-12388
▁Madale	-12389
▁Naguas	-12390
▁Pebong	-12391
▁Posaka	-12392
▁Poseid	-12393
▁Sasaks	-12394
▁Shedlo	-12395
▁TAUHAN	-12396
▁TUMING	-12397
▁Taghuy	-12398
▁Turina	-12399
▁Bunso	-12400
▁Umirit	-12401
▁Utasin	-12402
▁abubot	-12403
▁ambato	-12404
▁anting	-12405
▁bansag	-12406
▁beings	-12407
▁daidid	-12408
▁daidig	-12409
▁dispos	-12410
▁doonga	-12411
▁folder	-12412
▁gayuma	-12413
▁gimbal	-12414
▁ikasus	-12415
▁ikukuw	-12416
▁ipauub	-12417
▁istamb	-12418
▁iuukol	-12419
▁kuneho	-12420
▁kusina	-12421
▁limbag	-12422
▁linsil	-12423
▁maapoy	-12424
▁magiik	-12425
▁maiden	-12426
▁matimt	-12427
▁naaagn	-12428
▁nasams	-12429
▁pamugb	-12430
▁pansit	-12431
▁proses	-12432
▁santak	-12433
▁siniil	-12434
▁sintur	-12435
▁suntok	-12436
▁telang	-12437
▁tingal	-12438
▁tingni	-12439
▁transp	-12440
▁umapaw	-12441
▁umiral	-12442
Bacnotan	-12443
Baritono	-12444
Crisanto	-12445
GALINGAN	-12446
Garalgal	-12447
Makikita	-12448
Nakaamoy	-12449
Nangalau	-12450
Pagbukas	-12451
Papanhik	-12452
Susundin	-12453
Titindig	-12454
YUMANGGI	-12455
agbabago	-12456
aglilihi	-12457
agubilin	-12458
aninipis	-12459
astiyang	-12460
asunduan	-12461
atampong	-12462
atngatin	-12463
ayuyurak	-12464
enerhiya	-12465
eologist	-12466
garalgal	-12467
iguguhit	-12468
ihahabol	-12469
ihasnang	-12470
immortal	-12471
inatngat	-12472
ipigilin	-12473
itigatig	-12474
iwisikan	-12475
kalayuan	-12476
kumulang	-12477
legendus	-12478
makalawa	-12479
marangal	-12480
nakatago	-12481
orehidor	-12482
pabigkas	-12483
pabulang	-12484
papakain	-12485
salimuot	-12486
sandaang	-12487
sinlapad	-12488
sumasara	-12489
tahasang	-12490
uhulihan	-12491
uklasang	-12492
urukyaan	-12493
uumanhin	-12494
wentuhan	-12495
▁Arsenio	-12496
▁Bakawan	-12497
▁Beywang	-12498
▁Binakod	-12499
oops	-12500
Isauli	-12501
oooops	-12502
Ooooops	-12503
hikaing	-12504
▁Kumpas	-12505
▁Normal	-12506
▁Pagpup	-12507
▁lampin	-12508
▁tambol	-12509
▁Amtalan	-12510
▁Bunutin	-12511
▁Didilim	-12512
▁Dudulog	-12513
▁Duwindi	-12514
▁FAUSTUS	-12515
▁Fontain	-12516
▁Gambong	-12517
▁Gamitin	-12518
▁Garugay	-12519
▁Gitnang	-12520
▁Gulanit	-12521
▁Harapin	-12522
▁Himutok	-12523
▁Hutukin	-12524
▁Idinumi	-12525
▁Ikasamp	-12526
▁Ilimbag	-12527
▁Ilocano	-12528
▁Isasara	-12529
▁Kakuris	-12530
▁Kalaing	-12531
▁Kalisud	-12532
▁Kamalia	-12533
▁Kodaran	-12534
▁Kulubot	-12535
▁Lambayo	-12536
▁Legaspi	-12537
▁Linayag	-12538
▁Linusob	-12539
▁Lombayo	-12540
▁Makapip	-12541
▁Manggob	-12542
▁Manggub	-12543
▁Manipis	-12544
▁Masanay	-12545
▁Matutum	-12546
▁Mauugat	-12547
▁Mayrong	-12548
▁Nadikit	-12549
▁Nagdamp	-12550
▁Nagkisl	-12551
▁Nakapap	-12552
▁Nanduon	-12553
▁Nanghih	-12554
▁Nunukal	-12555
▁Pagpili	-12556
▁Pagwika	-12557
▁Pebrero	-12558
▁Pistang	-12559
▁Pranses	-12560
▁Pulangi	-12561
▁Pumbakh	-12562
▁Soliman	-12563
▁Talaand	-12564
▁Tapatin	-12565
▁Tiruray	-12566
▁Titindi	-12567
▁Umaawit	-12568
▁Yambung	-12569
▁Yumukod	-12570
▁antayan	-12571
▁atungal	-12572
▁bagting	-12573
▁basehan	-12574
▁biglaan	-12575
▁bubuuin	-12576
▁bumigay	-12577
▁daididg	-12578
▁damasko	-12579
▁dambana	-12580
▁dinihon	-12581
▁duguang	-12582
▁dumagsa	-12583
▁durugin	-12584
▁gamitan	-12585
▁gamutin	-12586
▁ganggab	-12587
▁ganggak	-12588
▁gayakan	-12589
▁gigante	-12590
▁hahagik	-12591
▁hatulan	-12592
▁hidwaan	-12593
▁hikahos	-12594
▁hilahil	-12595
▁hinaing	-12596
▁hinigop	-12597
▁hinimok	-12598
▁hiraman	-12599
bukas	-12600
tuhog	-12601
▁Barb	-12602
▁Melu	-12603
Babago	-12604
abulag	-12605
apyuan	-12606
eryoso	-12607
uhurno	-12608
upasay	-12609
uwisit	-12610
uyukod	-12611
▁Baror	-12612
▁Burig	-12613
▁Burub	-12614
▁Putot	-12615
▁Recor	-12616
▁Sisiw	-12617
▁Surot	-12618
▁Tomas	-12619
▁Tribo	-12620
▁lilib	-12621
▁tubis	-12622
Seryoso	-12623
abanaag	-12624
ainorin	-12625
impleng	-12626
▁Hambog	-12627
▁Kawawa	-12628
▁Langka	-12629
▁Record	-12630
▁bantog	-12631
▁lingon	-12632
Maragtas	-12633
naisalin	-12634
ubuwisit	-12635
▁Barbero	-12636
▁Baroraw	-12637
▁Habagat	-12638
▁Putukan	-12639
▁Putulan	-12640
▁Umiiyak	-12641
▁binulag	-12642
▁idiniin	-12643
▁iipunin	-12644
▁ikintal	-12645
▁imperyo	-12646
▁inaruga	-12647
▁inipong	-12648
▁iniusod	-12649
▁inusisa	-12650
▁inuusig	-12651
▁ipaagaw	-12652
▁itatayo	-12653
▁iwaglit	-12654
▁kapaita	-12655
▁kapilas	-12656
▁kasosyo	-12657
▁kaybuti	-12658
▁kaypala	-12659
▁kinabib	-12660
▁kinalos	-12661
▁kinamum	-12662
▁lalamba	-12663
▁lalasap	-12664
▁lalawig	-12665
▁lamping	-12666
▁lilihis	-12667
▁lilikot	-12668
▁lingguw	-12669
▁luksang	-12670
▁maalwan	-12671
▁malagak	-12672
▁mamulam	-12673
▁manipis	-12674
▁manunuk	-12675
▁mapugto	-12676
▁maputik	-12677
▁masyado	-12678
▁maysusi	-12679
▁mesiyas	-12680
▁milagro	-12681
▁naaaliw	-12682
▁nagnais	-12683
▁naitala	-12684
▁nakarir	-12685
▁nalangk	-12686
▁nalasap	-12687
▁nandoon	-12688
▁napaaga	-12689
▁napaupo	-12690
▁napugto	-12691
▁napulup	-12692
▁napupus	-12693
▁negosyo	-12694
▁nilakha	-12695
▁nunukal	-12696
▁paliguy	-12697
▁pangmad	-12698
▁paparon	-12699
eze	-12700
bate	-12701
erva	-12702
nagm	-12703
rite	-12704
tuos	-12705
aplos	-12706
avite	-12707
ctuos	-12708
himig	-12709
ibugh	-12710
iskap	-12711
pokus	-12712
reeze	-12713
tilad	-12714
ulubi	-12715
wasto	-12716
▁Birh	-12717
▁Budh	-12718
▁adob	-12719
▁budh	-12720
▁late	-12721
ctuoso	-12722
urrite	-12723
▁Barun	-12724
▁Iihaw	-12725
▁adobe	-12726
▁tahid	-12727
▁yakal	-12728
Isasama	-12729
Minerva	-12730
Sasayaw	-12731
Tutungo	-12732
Tutunog	-12733
ipintog	-12734
iskisan	-12735
nagmana	-12736
pinakam	-12737
▁Cavite	-12738
▁Freeze	-12739
▁ibenta	-12740
▁panser	-12741
▁piitin	-12742
Isisigaw	-12743
ababatid	-12744
apanghim	-12745
atilihin	-12746
atubalan	-12747
ektibong	-12748
ibughuin	-12749
magbigay	-12750
marahang	-12751
ructuoso	-12752
▁Birheng	-12753
▁Budhist	-12754
▁Makapup	-12755
▁Masbate	-12756
▁budhing	-12757
▁currite	-12758
▁hihikbi	-12759
▁kagihaw	-12760
▁magwika	-12761
▁naglihi	-12762
▁palabab	-12763
▁panibug	-12764
▁parasko	-12765
▁pasanin	-12766
▁pigilan	-12767
▁pigtang	-12768
▁pinaaas	-12769
▁pindong	-12770
▁pinupug	-12771
▁pistang	-12772
▁platero	-12773
▁popokus	-12774
▁recargo	-12775
▁rekargo	-12776
▁sintaha	-12777
▁sisipot	-12778
▁sisirit	-12779
▁sugpuin	-12780
▁sumunud	-12781
▁tahakin	-12782
▁tipunin	-12783
▁tubuhan	-12784
▁tugunin	-12785
▁tuksong	-12786
▁tuksuha	-12787
▁tutupin	-12788
▁umaaliw	-12789
▁umiikli	-12790
▁yumurak	-12791
Bugtungan	-12792
Hahagurin	-12793
Ipakikita	-12794
Isusuntok	-12795
Nagdadala	-12796
Nakalitaw	-12797
Pinuputol	-12798
Sasabayan	-12799
usli	-12800
ayber	-12801
ariwaan	-12802
Dakilang	-12803
libingan	-12804
▁Silanga	-12805
▁Umiikot	-12806
▁drayber	-12807
▁pagkasi	-12808
▁pinasis	-12809
Sasagutin	-12810
Tagalogan	-12811
aanyayang	-12812
ababahala	-12813
adaluhong	-12814
agandahin	-12815
ahandusay	-12816
ahinhinan	-12817
akalooban	-12818
akasakali	-12819
aligsahan	-12820
aliligaya	-12821
alipadpad	-12822
alubungin	-12823
amasyalan	-12824
amayagpag	-12825
ambabalot	-12826
anlilisik	-12827
arituhing	-12828
asadlakan	-12829
atambakan	-12830
atubiling	-12831
awawalang	-12832
bubuwisit	-12833
eengganyo	-12834
ementeryo	-12835
eologists	-12836
hihilahin	-12837
hinyerong	-12838
ibinyagan	-12839
igantihan	-12840
iinggitan	-12841
inirahang	-12842
isilagpak	-12843
isitindig	-12844
istorikal	-12845
itilamsik	-12846
itindihin	-12847
lilingkod	-12848
lumentrit	-12849
lumilitaw	-12850
maharlika	-12851
nagbabago	-12852
papayaman	-12853
talinhaga	-12854
tangkilik	-12855
tinatawag	-12856
utingting	-12857
uwentuhan	-12858
yonalismo	-12859
▁Aabangan	-12860
▁Abadilla	-12861
▁Alulusan	-12862
▁Alunsina	-12863
▁Audencia	-12864
▁Balahibo	-12865
▁Bayaniha	-12866
▁Bicolano	-12867
▁Biyayang	-12868
▁Catindig	-12869
▁Crisanto	-12870
▁Cuadrado	-12871
▁Dayalogo	-12872
▁Dekalogo	-12873
▁Elepante	-12874
▁Fernando	-12875
▁Hinaplos	-12876
▁Idionale	-12877
▁Ikasampu	-12878
▁Ikasiyam	-12879
▁Ilalahad	-12880
▁Inaninaw	-12881
▁Inihanda	-12882
▁Inihatid	-12883
▁Inimbita	-12884
▁Isasabog	-12885
▁Itinigil	-12886
▁Kababata	-12887
▁Kahubdan	-12888
▁Kawlaman	-12889
▁Kayumian	-12890
▁Kilanlin	-12891
▁Kinamkam	-12892
▁Koenigst	-12893
▁Kristyan	-12894
▁Kulimlim	-12895
▁Kumpisal	-12896
▁Lagabaan	-12897
▁Limagpas	-12898
▁Limbuhan	-12899
IKAN	-12900
HIKAN	-12901
▁kunwa	-12902
▁pakai	-12903
▁props	-12904
ANHIKAN	-12905
apuwing	-12906
kunwari	-12907
palawak	-12908
▁Muntik	-12909
▁Sungay	-12910
▁kawani	-12911
▁nanlum	-12912
▁sambal	-12913
▁utopya	-12914
asunurin	-12915
athalang	-12916
▁Iginawa	-12917
▁Pakiwal	-12918
▁Tawirin	-12919
▁Tungkod	-12920
▁Umuwing	-12921
▁banyaga	-12922
▁karakar	-12923
▁kinapop	-12924
▁konting	-12925
▁lunurin	-12926
▁maanong	-12927
▁naggala	-12928
▁nanlata	-12929
▁nanlumo	-12930
▁uusbong	-12931
Tatalikod	-12932
▁Lolitang	-12933
▁Lollipop	-12934
▁Lumindol	-12935
▁Lumipana	-12936
▁Magigiba	-12937
▁Malamlam	-12938
▁Malayari	-12939
▁Malinang	-12940
▁Mandayan	-12941
▁Manlulum	-12942
▁Naabutan	-12943
▁Nabigong	-12944
▁Nagsisis	-12945
▁Nahihiya	-12946
▁Nakintal	-12947
▁Natangay	-12948
▁Ngumanga	-12949
▁Ninitang	-12950
▁Pagbalik	-12951
▁Paglabas	-12952
▁Pakikuha	-12953
▁Panghele	-12954
▁Pasyahan	-12955
▁Patnugot	-12956
▁Pinabago	-12957
▁Pinamili	-12958
▁Problema	-12959
▁Sabihing	-12960
▁Sambahin	-12961
▁Siblawan	-12962
▁Simpleng	-12963
▁Sinasalo	-12964
▁Sumulpot	-12965
▁TUMINGIN	-12966
▁Taglayin	-12967
▁Tahanang	-12968
▁Tinakpan	-12969
▁Tinikman	-12970
▁Tsinelas	-12971
▁Tumatamb	-12972
▁Turingan	-12973
▁Villalon	-12974
▁akalaing	-12975
▁alimasag	-12976
▁alpabeto	-12977
▁alpombra	-12978
▁anyayang	-12979
▁babangon	-12980
▁baluktot	-12981
▁banyusan	-12982
▁bibitaya	-12983
▁bikolano	-12984
▁bilugang	-12985
▁binibiro	-12986
▁bumulwak	-12987
▁gaaanong	-12988
▁gamlayan	-12989
▁ginigiba	-12990
▁gisingin	-12991
▁gumigiik	-12992
▁guwapong	-12993
▁hagdanan	-12994
▁hihigang	-12995
▁humuhuni	-12996
▁ibibilad	-12997
▁ihinagis	-12998
▁ikukuwit	-12999
uusad	-13000
▁Pulu	-13001
▁hidi	-13002
▁iism	-13003
▁posp	-13004
▁post	-13005
▁turb	-13006
Panday	-13007
damong	-13008
nakang	-13009
utakti	-13010
utumba	-13011
▁Naiiw	-13012
▁Sibil	-13013
▁Sural	-13014
▁uusad	-13015
ibakang	-13016
ikaanim	-13017
▁Kadera	-13018
▁Naiiba	-13019
▁aankin	-13020
▁amuyin	-13021
▁bingit	-13022
▁garote	-13023
▁habaan	-13024
▁hitana	-13025
▁nanday	-13026
▁turban	-13027
antayain	-13028
iglaanan	-13029
▁Naiinis	-13030
▁Naiiwan	-13031
▁Pahirin	-13032
▁Putakti	-13033
▁Sibulan	-13034
▁Taraban	-13035
▁aksyong	-13036
▁bulkang	-13037
▁datnang	-13038
▁hititin	-13039
▁hulihan	-13040
▁ikaanim	-13041
▁itinaas	-13042
▁natural	-13043
▁ngingit	-13044
▁posporo	-13045
▁posteng	-13046
▁turuang	-13047
anggaihip	-13048
▁Bagobong	-13049
▁Bahaging	-13050
▁Bukiring	-13051
▁Gampanan	-13052
▁Magtanim	-13053
▁Malanday	-13054
▁Manobong	-13055
▁Milegwas	-13056
▁Nakahuli	-13057
▁Palendag	-13058
▁Panangga	-13059
▁Sumungaw	-13060
▁Susundan	-13061
▁aankinin	-13062
▁dinungaw	-13063
▁dumungaw	-13064
▁hulihang	-13065
▁humangga	-13066
▁iismiran	-13067
▁ilululan	-13068
▁inagusan	-13069
▁inaninaw	-13070
▁inihanap	-13071
▁ipaaabot	-13072
▁ipagbans	-13073
▁ipinagpa	-13074
▁ipinakuk	-13075
▁ipininid	-13076
▁isasauli	-13077
▁itaguyod	-13078
▁ititikom	-13079
▁itutulak	-13080
▁itutuloy	-13081
▁iwiwisik	-13082
▁kabuhuan	-13083
▁kahabaan	-13084
▁kaluskos	-13085
▁kapareha	-13086
▁kapuriha	-13087
▁kasuklam	-13088
▁kaysarap	-13089
▁kinapopo	-13090
▁kulimlim	-13091
▁lalaging	-13092
▁lalamlam	-13093
▁lalasahi	-13094
▁lalayuan	-13095
▁lilingon	-13096
▁limitado	-13097
▁lukbutan	-13098
▁lumingon	-13099
OLI	-13100
ayua	-13101
ivut	-13102
llll	-13103
orsy	-13104
ribu	-13105
▁112	-13106
▁VII	-13107
▁Viv	-13108
aharl	-13109
atigo	-13110
enanc	-13111
ibini	-13112
igtal	-13113
ivutu	-13114
kubli	-13115
lllll	-13116
pekto	-13117
pinda	-13118
ripis	-13119
voice	-13120
▁Bigo	-13121
▁NOLI	-13122
▁Viva	-13123
agrado	-13124
apinda	-13125
enancy	-13126
espada	-13127
ikubli	-13128
ilatis	-13129
itinda	-13130
mahina	-13131
oridad	-13132
uhukay	-13133
ukayin	-13134
▁Suban	-13135
▁Titil	-13136
▁ayaon	-13137
▁dampi	-13138
▁hikaw	-13139
▁latin	-13140
▁meron	-13141
▁pinda	-13142
▁umani	-13143
Mabibit	-13144
Masarap	-13145
aharlik	-13146
akripis	-13147
aksakin	-13148
busabos	-13149
ipigtal	-13150
paninda	-13151
talahin	-13152
umbrado	-13153
▁Humiga	-13154
▁Nainip	-13155
▁binigo	-13156
▁epekto	-13157
▁idilat	-13158
▁kakibu	-13159
▁latigo	-13160
▁lumaon	-13161
▁nabaon	-13162
▁pasiga	-13163
▁patani	-13164
▁taksil	-13165
▁uminog	-13166
Kayganda	-13167
Saksakin	-13168
Tagistis	-13169
atitiyak	-13170
mahabang	-13171
mahalang	-13172
orsyuhin	-13173
utoridad	-13174
▁Hinukay	-13175
▁Hukayin	-13176
▁beywang	-13177
▁dumilat	-13178
▁hininog	-13179
▁kalayua	-13180
▁kalidad	-13181
▁nagngit	-13182
▁naiinip	-13183
▁natitil	-13184
▁tenancy	-13185
▁tuhugin	-13186
Magsikain	-13187
Natitiyak	-13188
akripisyo	-13189
▁Natunton	-13190
▁ampunang	-13191
▁binibini	-13192
▁ginigiik	-13193
▁maaanong	-13194
▁maabutan	-13195
▁maawaing	-13196
▁mabibigo	-13197
▁madaanan	-13198
▁madapuan	-13199
▁Huuu	-13200
▁nota	-13201
▁Huuuu	-13202
▁karosa	-13203
▁Binilot	-13204
▁Natutut	-13205
▁binubun	-13206
▁palangg	-13207
▁pinabub	-13208
▁Filipina	-13209
▁Filipino	-13210
▁Itinusok	-13211
▁Pinagmas	-13212
▁hinihila	-13213
▁kaunlara	-13214
▁magbilot	-13215
▁magkabab	-13216
▁maglayag	-13217
▁magpapap	-13218
▁magpauna	-13219
▁magtanaw	-13220
▁magugupo	-13221
▁maihinga	-13222
▁maikubli	-13223
▁maipamim	-13224
▁maisaing	-13225
▁maisampa	-13226
▁maiwasan	-13227
▁makadama	-13228
▁makagiik	-13229
▁makamtan	-13230
▁makarami	-13231
▁makatiis	-13232
▁makinahi	-13233
▁malayung	-13234
▁malivutu	-13235
▁mamangka	-13236
▁mamulaga	-13237
▁mapagpat	-13238
▁mapamili	-13239
▁mapamins	-13240
▁mapapait	-13241
▁mapuputi	-13242
▁maringal	-13243
▁masungit	-13244
▁mesitang	-13245
▁minabuti	-13246
▁naaagnas	-13247
▁nabayong	-13248
▁nabigong	-13249
▁nabigyan	-13250
▁nagbunyi	-13251
▁nagkabuh	-13252
▁nagkubli	-13253
▁nahalata	-13254
▁nahubdan	-13255
▁naipasya	-13256
▁naiwasan	-13257
▁nakagiik	-13258
▁nakahiga	-13259
▁nakatiis	-13260
▁nalasing	-13261
▁nalaunan	-13262
▁naluluoy	-13263
▁nangapip	-13264
▁nanunuya	-13265
▁napahiga	-13266
▁napahuli	-13267
▁napatdan	-13268
▁napipisa	-13269
▁napipita	-13270
▁napuputi	-13271
▁nasadlak	-13272
▁nasamsam	-13273
▁natitira	-13274
▁nilakbay	-13275
▁nilalamb	-13276
▁nilalaro	-13277
▁nilaslas	-13278
▁niloloko	-13279
▁paglipol	-13280
▁pagwawag	-13281
▁paibabaw	-13282
▁pakainin	-13283
▁pakaliwa	-13284
▁palagian	-13285
▁palihuma	-13286
▁pambansa	-13287
▁paniniil	-13288
▁panunuyo	-13289
▁parirala	-13290
▁patutung	-13291
▁pawisang	-13292
▁pendulum	-13293
▁pinaluha	-13294
▁pinanday	-13295
▁pinapagl	-13296
▁pinupuri	-13297
▁pistahan	-13298
▁pumupuri	-13299
aknak	-13300
iagnte	-13301
▁ilaan	-13302
abihasa	-13303
alupaan	-13304
▁Bangka	-13305
▁Europa	-13306
▁Sinait	-13307
▁mambab	-13308
aluntong	-13309
awawalan	-13310
nanaknak	-13311
salitain	-13312
▁Kagatin	-13313
▁Nakauwi	-13314
▁Niyakap	-13315
▁bubukas	-13316
▁dirikit	-13317
▁gulaman	-13318
▁hiagnte	-13319
▁hitsong	-13320
▁yuyukod	-13321
apanimdim	-13322
▁Herminig	-13323
▁Katwiran	-13324
▁Kinukuha	-13325
▁Mamihasa	-13326
▁Nakaabot	-13327
▁Nakausap	-13328
▁inaantay	-13329
▁kabuuang	-13330
▁kaisahan	-13331
▁kalupaan	-13332
▁kumukuha	-13333
▁maykapal	-13334
▁nakukuha	-13335
▁santaong	-13336
▁santribu	-13337
▁sarukang	-13338
▁sasagupa	-13339
▁sayangin	-13340
▁simpanin	-13341
▁sinarhan	-13342
▁sindilim	-13343
▁sinisiil	-13344
▁sinisimp	-13345
▁sinturon	-13346
▁siyensya	-13347
▁sumingit	-13348
▁sumubsob	-13349
▁taglagas	-13350
▁titiktak	-13351
▁tubugang	-13352
▁tubusing	-13353
▁tumuklas	-13354
▁umaantig	-13355
▁winiwika	-13356
Bibigkasin	-13357
Hihintayin	-13358
Magdudulot	-13359
Maghahamok	-13360
Magpipingk	-13361
Nanlilisik	-13362
Napakasama	-13363
Pagbutihin	-13364
aatubiling	-13365
abathalang	-13366
agtakbuhan	-13367
ahiningang	-13368
akabuhayan	-13369
alilibutan	-13370
alinangang	-13371
alinsangan	-13372
apagpalaya	-13373
apangdanan	-13374
apapanatag	-13375
geologists	-13376
ikilabutan	-13377
ilakilatis	-13378
inaasahang	-13379
ipitaganan	-13380
iregaluhan	-13381
kalahating	-13382
magbabalik	-13383
mangmangan	-13384
nagdudulot	-13385
nasaksihan	-13386
ustentuhan	-13387
▁Adhikaing	-13388
▁Americano	-13389
▁Andromada	-13390
▁Bacayawan	-13391
▁Bagumbong	-13392
▁Bandilang	-13393
▁Barunugun	-13394
▁Binayaran	-13395
▁Binungkal	-13396
▁Bulalakaw	-13397
▁Castilang	-13398
▁Dinadagit	-13399
loni	-13400
aagos	-13401
alipi	-13402
gusot	-13403
otion	-13404
tonio	-13405
total	-13406
▁Fras	-13407
▁trop	-13408
Manubo	-13409
abosaw	-13410
aparam	-13411
apukaw	-13412
atunaw	-13413
daanan	-13414
ecilio	-13415
iyesta	-13416
lonius	-13417
radong	-13418
wadong	-13419
▁Tunaw	-13420
▁alipi	-13421
▁arsob	-13422
▁indul	-13423
▁labak	-13424
▁labor	-13425
▁lusub	-13426
▁trope	-13427
aladkad	-13428
apagpat	-13429
asterin	-13430
maliban	-13431
▁Frases	-13432
▁Ihanda	-13433
▁Napipi	-13434
▁baston	-13435
▁dayuha	-13436
▁etnolo	-13437
▁iidlip	-13438
▁ikatlo	-13439
▁labinl	-13440
▁motion	-13441
▁napipi	-13442
▁umagos	-13443
adwadong	-13444
arabosaw	-13445
ikinikin	-13446
ipiyesta	-13447
ungdaang	-13448
▁Antonio	-13449
▁Cecilio	-13450
▁Kamusta	-13451
▁Kulisap	-13452
▁Nilusob	-13453
▁Pinukaw	-13454
▁Tipunin	-13455
▁arsobis	-13456
▁dinusta	-13457
▁etnoloh	-13458
▁induluh	-13459
▁kinusot	-13460
▁ligawan	-13461
▁lumapad	-13462
▁lumusot	-13463
▁maidlip	-13464
▁matanto	-13465
▁nagkunw	-13466
▁naparam	-13467
lungdaang	-13468
▁daantaon	-13469
▁labuyong	-13470
▁lusubing	-13471
▁nabantog	-13472
▁pagsuway	-13473
▁tinayuan	-13474
▁tropeong	-13475
▁Fructuoso	-13476
▁Ginantong	-13477
▁Ginugugol	-13478
▁Granadang	-13479
▁Habagatan	-13480
▁Hihigitin	-13481
▁Hihilahin	-13482
▁Hinagupit	-13483
▁Ibubulong	-13484
▁Ikinintal	-13485
▁Inalpasan	-13486
▁Inihampas	-13487
▁Ipakakain	-13488
▁Ipakikita	-13489
▁Ipinagtab	-13490
▁Ipinasiya	-13491
▁Isasaayos	-13492
▁Kalupitan	-13493
▁Kanlurang	-13494
▁Kinakabig	-13495
▁Koenigsth	-13496
▁Kristiyan	-13497
▁Kumulatey	-13498
▁Lalawigan	-13499
SAY	-13500
pbl	-13501
Pbgl	-13502
YSAY	-13503
▁MAK	-13504
amela	-13505
ocket	-13506
▁Mbgl	-13507
▁Tigy	-13508
YSAYAN	-13509
▁Anion	-13510
▁MAKAR	-13511
Matamis	-13512
▁Pineda	-13513
▁birhen	-13514
▁rocket	-13515
Matalino	-13516
▁MAKARAR	-13517
▁namimil	-13518
▁pinatat	-13519
▁ugnayan	-13520
▁Gumamela	-13521
▁Lansones	-13522
▁magpakat	-13523
▁namihasa	-13524
▁pinatubo	-13525
Papalakpak	-13526
unghininga	-13527
▁Lambingan	-13528
▁Linayagon	-13529
▁Lumiliyag	-13530
▁MAKARARAT	-13531
▁Magsisisi	-13532
▁Makapukaw	-13533
▁Makatunaw	-13534
▁Makokonsy	-13535
▁Manunubuk	-13536
▁Mapagtiis	-13537
▁Mapaunlad	-13538
▁Matutumba	-13539
▁Momongara	-13540
▁Nababatid	-13541
▁Nagbabayo	-13542
▁Nagbibiro	-13543
▁Nagbukang	-13544
▁Nagdiwang	-13545
▁Nagdurusa	-13546
▁Nagkataon	-13547
▁Naglilihi	-13548
▁Nagmakata	-13549
▁Nagpasiya	-13550
▁Nagpupuri	-13551
▁Nagsiklab	-13552
▁Nakalahad	-13553
▁Nakaluhod	-13554
▁Nakalulan	-13555
▁Nalilipat	-13556
▁Nanluwang	-13557
▁Napaparam	-13558
▁Natatakot	-13559
▁Natatangi	-13560
▁Natutukso	-13561
▁Natutunan	-13562
▁Ohhhhhhhh	-13563
▁Pagkaluns	-13564
▁Pagkapawi	-13565
▁Pagsisisi	-13566
▁Pagtingin	-13567
▁Paiikutin	-13568
▁Pawawalan	-13569
▁Pinagbili	-13570
▁Pinakalay	-13571
▁Pinakamat	-13572
▁Pinakikin	-13573
▁Pinangang	-13574
▁Pinawisan	-13575
▁Prusisyon	-13576
▁Pumuwesto	-13577
▁Sasagutin	-13578
▁Sasaklolo	-13579
▁Sasawayin	-13580
▁Simalubay	-13581
▁Simbahang	-13582
▁Sinumbong	-13583
▁Siyamnapu	-13584
▁Sumusulak	-13585
▁Tagubilin	-13586
▁Tagyakawa	-13587
▁Tagyakuwa	-13588
▁Talaandig	-13589
▁Talisaing	-13590
▁Tinubuang	-13591
▁Titilapon	-13592
▁Ulahingan	-13593
▁Ulahingon	-13594
▁arsobispo	-13595
▁autoridad	-13596
▁babasahin	-13597
▁balingkin	-13598
▁bendisyon	-13599
Asahan	-13600
bibili	-13601
otesta	-13602
payapa	-13603
▁Habol	-13604
alungit	-13605
bilihan	-13606
▁Diwant	-13607
▁Hipong	-13608
▁Lalung	-13609
▁Medium	-13610
▁Napagl	-13611
▁ranggo	-13612
agabihan	-13613
agbibili	-13614
alagiing	-13615
ananggal	-13616
kabataan	-13617
▁Ibibili	-13618
▁Inulila	-13619
▁Kaugnay	-13620
▁Pahatid	-13621
▁Sangkap	-13622
▁bandana	-13623
▁banding	-13624
▁bilihan	-13625
▁ginagar	-13626
▁mahihig	-13627
▁nguming	-13628
▁sanlahi	-13629
aligtaran	-13630
angangako	-13631
▁Napagpas	-13632
▁binagtas	-13633
▁ginagaya	-13634
▁hahawiin	-13635
▁makipagk	-13636
▁masusump	-13637
▁mayuming	-13638
▁nagguhit	-13639
▁naguguan	-13640
▁nalaglag	-13641
▁papawiin	-13642
▁protesta	-13643
▁sanligan	-13644
▁tatalima	-13645
▁yumuyuko	-13646
▁Dinulutan	-13647
▁Nahikayat	-13648
▁binubulay	-13649
▁binubusog	-13650
▁bumabasag	-13651
▁bumalabal	-13652
▁dinapyuan	-13653
▁dinaranas	-13654
▁dinulutan	-13655
▁dumadalas	-13656
▁dumaramay	-13657
▁ginagahol	-13658
▁ginigiliw	-13659
▁ginintong	-13660
▁hahangaan	-13661
▁himatayin	-13662
▁hinagilap	-13663
▁hinagupit	-13664
▁hinahango	-13665
▁hinatulan	-13666
▁hinihigan	-13667
▁hinikayat	-13668
▁hinuhukay	-13669
▁humanggan	-13670
▁humihibik	-13671
▁humihinga	-13672
▁humuhubog	-13673
▁ibabagsak	-13674
▁ibabatong	-13675
▁ibinulwak	-13676
▁ibinunyag	-13677
▁ihinampas	-13678
▁ikinatuwa	-13679
▁ikinintal	-13680
▁ililibing	-13681
▁ililigaya	-13682
▁inihalili	-13683
▁ipagpabuk	-13684
▁ipauubaya	-13685
▁ipinaanod	-13686
▁ipinasiya	-13687
▁ipinasuot	-13688
▁isandaang	-13689
▁isinaksak	-13690
▁isinasamo	-13691
▁isusubsob	-13692
▁kaalamang	-13693
▁kadakilaa	-13694
▁kahariang	-13695
▁kakagatin	-13696
▁kakahigin	-13697
▁kaloobang	-13698
▁kapurihan	-13699
fri	-13700
aakl	-13701
hwis	-13702
peto	-13703
anyag	-13704
egfri	-13705
olcan	-13706
omelo	-13707
ulcan	-13708
uyain	-13709
wisss	-13710
▁Heto	-13711
▁Laor	-13712
▁Laub	-13713
▁Relo	-13714
▁Sagr	-13715
▁Selo	-13716
▁Tals	-13717
▁Utot	-13718
▁Yelo	-13719
▁guya	-13720
▁oper	-13721
▁tikb	-13722
Vulcan	-13723
alabat	-13724
espeto	-13725
hwisyo	-13726
olcani	-13727
pomelo	-13728
wissss	-13729
▁Hahab	-13730
▁Hilot	-13731
▁Talun	-13732
▁Tikis	-13733
▁pupuk	-13734
▁pupun	-13735
▁tampo	-13736
Inaabot	-13737
Magmula	-13738
andacan	-13739
apitlag	-13740
egfried	-13741
olcaniz	-13742
salabat	-13743
▁Hermin	-13744
▁Laubac	-13745
▁Maagap	-13746
▁Talaba	-13747
▁Tanyag	-13748
▁Tiktik	-13749
▁humipo	-13750
▁ihagis	-13751
aaklasan	-13752
alatkayo	-13753
daragdag	-13754
darakila	-13755
olcanize	-13756
▁Hinagap	-13757
▁Lauback	-13758
▁Lumalab	-13759
▁Nililok	-13760
▁Palubha	-13761
▁Papaano	-13762
▁Papunta	-13763
▁Sagrada	-13764
▁Swissss	-13765
▁gumuhit	-13766
▁kamalia	-13767
▁kayakap	-13768
▁naguhit	-13769
▁nguyain	-13770
▁operang	-13771
▁respeto	-13772
▁sanlibo	-13773
▁sugatan	-13774
▁tumalab	-13775
▁ubusang	-13776
Introduks	-13777
Patunugin	-13778
volcanize	-13779
▁Herminia	-13780
▁Lumalabo	-13781
▁Nahahati	-13782
▁Nahulaan	-13783
▁Pagsipot	-13784
▁Pandacan	-13785
▁Papalaki	-13786
▁Talabang	-13787
▁dayuhang	-13788
▁itinaboy	-13789
▁naghagis	-13790
▁paglipot	-13791
▁pupunuin	-13792
▁sugatang	-13793
uluwalhati	-13794
▁Hahabulin	-13795
▁Luwalhati	-13796
▁Siegfried	-13797
▁Spotlight	-13798
▁kararaang	-13799
amanch	-13800
Ingkong	-13801
▁sumpaa	-13802
atawarin	-13803
▁Bulanaw	-13804
▁Camanch	-13805
▁Napakar	-13806
▁Sandali	-13807
▁Sandata	-13808
▁hinahap	-13809
▁kaparam	-13810
▁kaparti	-13811
▁malaong	-13812
▁matinag	-13813
panawagan	-13814
▁Binigkas	-13815
▁Doronila	-13816
▁Naunahan	-13817
▁Pinatolo	-13818
▁kapareho	-13819
▁mabubuti	-13820
▁malaunan	-13821
▁maunahan	-13822
▁nainggit	-13823
▁pakitang	-13824
▁pangwika	-13825
▁pinaghul	-13826
▁saliksik	-13827
▁sasarhan	-13828
▁sinagupa	-13829
ananawagan	-13830
panibagong	-13831
▁Mamamalas	-13832
▁Pinatakbo	-13833
▁Pinatawad	-13834
▁adhikaing	-13835
▁dalanging	-13836
▁kasukalan	-13837
▁katarunga	-13838
▁katauhang	-13839
▁katuparan	-13840
▁kawilihan	-13841
▁kayraming	-13842
▁kinaaagos	-13843
▁kinabahan	-13844
▁kinahihil	-13845
▁lalambong	-13846
▁lathalain	-13847
▁lumagapak	-13848
▁lumagutok	-13849
▁lumalabag	-13850
▁lumambong	-13851
▁lumilipat	-13852
▁mabayaran	-13853
▁mabibigat	-13854
▁mabungkal	-13855
▁madadamay	-13856
▁madumihan	-13857
▁magagaang	-13858
▁magkaanak	-13859
▁magkalahi	-13860
▁magkataon	-13861
▁maglalaro	-13862
▁magmadali	-13863
▁magnasang	-13864
▁magpakita	-13865
▁magpalalo	-13866
▁magpapamo	-13867
▁magparusa	-13868
▁magtaglay	-13869
▁magtutump	-13870
▁magtutuos	-13871
▁magwawagi	-13872
▁mahatulan	-13873
▁mahikayat	-13874
▁maidagdag	-13875
▁maihandog	-13876
▁maisasama	-13877
▁maisipang	-13878
▁maitanong	-13879
▁maituring	-13880
▁makaantig	-13881
▁makabayad	-13882
▁makabgong	-13883
▁makaidlip	-13884
▁makaparis	-13885
▁makapulot	-13886
▁makasupil	-13887
▁maligalig	-13888
▁malunasan	-13889
▁manakawan	-13890
▁manawagan	-13891
▁mandarayo	-13892
▁mangnilay	-13893
▁manloloob	-13894
▁manunubos	-13895
▁mapaglaro	-13896
▁mapagpala	-13897
▁mapasaiyo	-13898
▁mapaunlad	-13899
trum	-13900
iktim	-13901
teryo	-13902
▁Pams	-13903
▁test	-13904
agkuta	-13905
agohoy	-13906
atolos	-13907
igalot	-13908
iktima	-13909
inente	-13910
lunsod	-13911
orogan	-13912
osente	-13913
timawa	-13914
ulunas	-13915
▁Klaro	-13916
▁Lunas	-13917
▁Mapol	-13918
▁Pamul	-13919
▁Pitag	-13920
▁Sigar	-13921
▁Songg	-13922
▁awari	-13923
▁mauul	-13924
Katolos	-13925
asarili	-13926
ataghoy	-13927
ayabong	-13928
ecalogo	-13929
umundag	-13930
▁Ilongg	-13931
▁Kagabi	-13932
▁Maaawa	-13933
▁Mapagk	-13934
▁Niyaya	-13935
▁Siguro	-13936
▁Tanang	-13937
▁bubuga	-13938
▁dadaan	-13939
▁intrum	-13940
▁lutong	-13941
▁tadtad	-13942
▁testam	-13943
Lumundag	-13944
Mayabong	-13945
▁Dagohoy	-13946
▁Lupaing	-13947
▁Mapolan	-13948
▁Pamilya	-13949
▁Pamulaw	-13950
▁Sigaril	-13951
▁Torogan	-13952
▁abuhing	-13953
▁biktima	-13954
▁dumusta	-13955
▁hihinga	-13956
▁humatol	-13957
▁inuulit	-13958
▁isabong	-13959
▁mauubos	-13960
▁patente	-13961
Katolosan	-13962
▁Decalogo	-13963
▁Handyong	-13964
▁Ibinalik	-13965
▁Nabuksan	-13966
▁Nagbalot	-13967
▁Nagsaing	-13968
▁Namalagi	-13969
▁Napadaan	-13970
▁Pamsagan	-13971
▁Sandakan	-13972
▁hihingan	-13973
▁ibabayad	-13974
▁inosente	-13975
▁lulundag	-13976
▁magnilay	-13977
▁mamamana	-13978
▁nilutong	-13979
▁paalipin	-13980
▁palundag	-13981
▁salteryo	-13982
▁sinambit	-13983
▁tibuling	-13984
apampangan	-13985
▁Mahuhusay	-13986
▁Pitagaman	-13987
▁hahantong	-13988
▁ipinaayos	-13989
▁magdadaan	-13990
▁magsabong	-13991
▁mapigilan	-13992
▁masaklolo	-13993
▁masigalot	-13994
▁masugatan	-13995
▁masusukal	-13996
▁matitigan	-13997
▁mauulinig	-13998
▁mawawalan	-13999
ILI	-14000
WIT	-14001
uao	-14002
Tuao	-14003
aest	-14004
igao	-14005
vest	-14006
bagyo	-14007
hikbi	-14008
▁AWIT	-14009
▁FILI	-14010
aestus	-14011
esteng	-14012
ilvest	-14013
▁pipig	-14014
▁silbi	-14015
Kasingg	-14016
Kastila	-14017
Malupit	-14018
aawitan	-14019
balabal	-14020
estiyon	-14021
matanda	-14022
▁Minade	-14023
alawanan	-14024
epaestus	-14025
ilvestre	-14026
paghikbi	-14027
▁Katangh	-14028
▁Sinasap	-14029
▁Sisigaw	-14030
▁Surigao	-14031
▁manghah	-14032
▁manghim	-14033
▁pesteng	-14034
agtawanan	-14035
tatawanan	-14036
uhestiyon	-14037
ulastugan	-14038
▁Minadean	-14039
▁binabati	-14040
▁hilingin	-14041
▁kumimpal	-14042
▁pinagpup	-14043
▁pipigain	-14044
▁sikaping	-14045
▁tandaang	-14046
Kasaysayan	-14047
Naniniwala	-14048
agdaraanan	-14049
▁Hepaestus	-14050
▁Lalawanan	-14051
▁Pagtuturo	-14052
▁Silvestre	-14053
▁Sumisigaw	-14054
▁binabakas	-14055
▁binabalak	-14056
▁katubusan	-14057
▁lumulubog	-14058
▁magkaruon	-14059
▁maiikling	-14060
▁manghihin	-14061
▁milagroso	-14062
▁naaangkin	-14063
▁naaangkop	-14064
▁nabingwit	-14065
▁nabuksang	-14066
▁naggagand	-14067
▁naghambog	-14068
▁nagkabali	-14069
▁nagkupkop	-14070
▁naglipana	-14071
▁nagnanais	-14072
▁nagpaikot	-14073
▁nagpalalo	-14074
▁nagpautos	-14075
▁nagsipand	-14076
▁nagsuyuan	-14077
▁nagtamong	-14078
▁naipasiya	-14079
▁nakadamit	-14080
▁nakadaong	-14081
▁nakadikit	-14082
▁nakagapos	-14083
▁nakahanay	-14084
▁nakaiinom	-14085
▁nakalusot	-14086
▁nakangisi	-14087
▁nakapinid	-14088
▁nakaraang	-14089
▁nakaranas	-14090
▁nakaratay	-14091
▁nakatagpo	-14092
▁nakatikim	-14093
▁nakaupong	-14094
▁nakayapak	-14095
▁nakilaban	-14096
▁nakilamas	-14097
▁nalagasan	-14098
▁nalagutan	-14099
huyuk	-14100
uusin	-14101
alugod	-14102
isilat	-14103
paltok	-14104
udurog	-14105
▁Singl	-14106
▁Sugod	-14107
▁Tatlo	-14108
▁Uugod	-14109
▁brily	-14110
antukan	-14111
arampot	-14112
huyukon	-14113
uklukan	-14114
▁Ambato	-14115
▁Manday	-14116
▁kapait	-14117
▁pinaos	-14118
▁teatro	-14119
ahagurin	-14120
alabanin	-14121
arinigan	-14122
▁Hahamak	-14123
▁Legends	-14124
▁Magkita	-14125
▁Malugod	-14126
▁Tatakbo	-14127
▁Tatapat	-14128
▁kabaong	-14129
▁kandili	-14130
▁lalaban	-14131
▁pahamak	-14132
▁pinisil	-14133
▁pinitas	-14134
▁sinisid	-14135
▁susugod	-14136
▁titigil	-14137
▁yakapin	-14138
ukhuyukon	-14139
ustamante	-14140
▁Ambisyon	-14141
▁Dumampot	-14142
▁Itatapon	-14143
▁Magpapal	-14144
▁Mandayas	-14145
▁Sinigwel	-14146
▁brilyant	-14147
▁dinampot	-14148
▁iniaaral	-14149
▁limuting	-14150
▁luklukan	-14151
▁magsugal	-14152
▁manariwa	-14153
▁mapakali	-14154
▁okasyong	-14155
▁pagbuhos	-14156
▁pagsisil	-14157
▁pinaikot	-14158
▁sambitin	-14159
▁susuotan	-14160
▁titindig	-14161
▁tutuusin	-14162
▁Hahagurin	-14163
▁Hahamakin	-14164
▁Madudurog	-14165
▁Nagpakita	-14166
[...]
