<unk>	0
<s>	0
</s>	0
ng	-0
ang	-1
an	-2
▁n	-3
ag	-4
▁s	-5
▁m	-6
at	-7
al	-8
ay	-9
in	-10
▁k	-11
▁p	-12
ak	-13
▁ng	-14
▁sa	-15
▁ang	-16
▁na	-17
it	-18
am	-19
il	-20
ing	-21
as	-22
▁b	-23
ong	-24
aw	-25
ap	-26
ah	-27
ar	-28
▁t	-29
▁l	-30
ab	-31
iy	-32
▁d	-33
▁at	-34
▁A	-35
ul	-36
is	-37
ig	-38
▁ay	-39
ga	-40
um	-41
▁h	-42
un	-43
▁mga	-44
on	-45
▁N	-46
▁S	-47
ik	-48
▁pag	-49
▁M	-50
ib	-51
ung	-52
iya	-53
▁P	-54
▁K	-55
▁I	-56
▁mag	-57
▁Ang	-58
▁nag	-59
▁g	-60
ip	-61
ad	-62
▁kan	-63
ut	-64
▁B	-65
us	-66
ito	-67
uh	-68
im	-69
▁is	-70
ala	-71
and	-72
▁D	-73
▁ni	-74
▁si	-75
..	-76
ind	-77
▁L	-78
up	-79
ilang	-80
uw	-81
▁ak	-82
▁T	-83
yang	-84
ila	-85
ub	-86
os	-87
▁Sa	-88
▁"	-89
▁nang	-90
awa	-91
▁H	-92
uk	-93
iw	-94
alak	-95
ot	-96
aya	-97
indi	-98
▁ka	-99
▁isang	-100
alang	-101
og	-102
▁may	-103
▁kanyang	-104
▁ko	-105
ug	-106
▁ito	-107
ir	-108
ih	-109
iyang	-110
▁w	-111
ita	-112
▁mo	-113
ayan	-114
▁mat	-115
▁niya	-116
ayo	-117
id	-118
▁siya	-119
▁in	-120
▁At	-121
▁nak	-122
▁(	-123
▁pin	-124
▁ib	-125
▁pan	-126
ok	-127
▁ta	-128
▁pa	-129
amang	-130
ur	-131
▁hindi	-132
▁mal	-133
▁iy	-134
ol	-135
apat	-136
▁nam	-137
▁an	-138
▁mak	-139
ahan	-140
angg	-141
▁r	-142
alag	-143
ari	-144
oy	-145
to	-146
ya	-147
uhay	-148
aan	-149
▁pang	-150
en	-151
▁kung	-152
▁Nag	-153
...	-154
ibig	-155
or	-156
oon	-157
▁sin	-158
ata	-159
ula	-160
▁pagk	-161
ahat	-162
yo	-163
sa	-164
od	-165
aman	-166
▁ma	-167
er	-168
ama	-169
▁ako	-170
▁kas	-171
▁kat	-172
▁man	-173
araw	-174
anda	-175
aba	-176
▁di	-177
abi	-178
agk	-179
▁mas	-180
ating	-181
und	-182
▁kay	-183
aka	-184
▁Ng	-185
ant	-186
▁kal	-187
ipin	-188
▁lum	-189
▁tao	-190
awang	-191
▁dal	-192
▁G	-193
▁kah	-194
▁par	-195
▁lamang	-196
."	-197
▁kap	-198
▁Kung	-199
▁it	-200
▁lahat	-201
▁tin	-202
andang	-203
ayon	-204
▁mab	-205
▁kanilang	-206
ahil	-207
alan	-208
unit	-209
▁al	-210
▁mah	-211
▁buhay	-212
▁mar	-213
unt	-214
amat	-215
▁In	-216
▁niyang	-217
▁sila	-218
upang	-219
▁aking	-220
▁siyang	-221
▁anak	-222
▁kab	-223
▁kong	-224
▁ik	-225
akas	-226
alit	-227
▁araw	-228
▁o	-229
▁iyong	-230
▁rin	-231
ulang	-232
amp	-233
▁naman	-234
▁din	-235
▁upang	-236
sang	-237
ana	-238
▁Na	-239
▁map	-240
▁bag	-241
▁nap	-242
▁e	-243
ili	-244
▁walang	-245
▁bin	-246
▁pal	-247
▁nat	-248
alaki	-249
upa	-250
▁um	-251
▁Nang	-252
uan	-253
▁gin	-254
ali	-255
ika	-256
akit	-257
ob	-258
▁bat	-259
▁pat	-260
▁lang	-261
amb	-262
aling	-263
▁W	-264
▁Ay	-265
▁Mag	-266
▁nila	-267
▁baba	-268
ungk	-269
es	-270
▁hin	-271
asawa	-272
▁sum	-273
▁magk	-274
ina	-275
▁May	-276
asa	-277
ayang	-278
alik	-279
atu	-280
iwan	-281
iling	-282
ahon	-283
▁C	-284
▁il	-285
▁tul	-286
.)	-287
▁tag	-288
apit	-289
▁pun	-290
alaga	-291
▁Hindi	-292
ins	-293
tong	-294
abang	-295
aring	-296
aming	-297
▁bah	-298
yan	-299
▁kar	-300
▁U	-301
▁tum	-302
▁Lam	-303
yong	-304
▁lupa	-305
uti	-306
int	-307
alim	-308
▁kam	-309
uwag	-310
▁pus	-311
▁wala	-312
awan	-313
▁Pag	-314
agkat	-315
▁kaya	-316
lak	-317
▁Pil	-318
▁bayan	-319
ha	-320
alo	-321
angk	-322
▁Isang	-323
ulan	-324
▁nin	-325
awag	-326
iyos	-327
▁babae	-328
alaking	-329
ihan	-330
anggang	-331
agat	-332
▁pam	-333
▁mang	-334
▁mong	-335
▁Pilipin	-336
▁nga	-337
▁nito	-338
▁dahil	-339
ulo	-340
▁Ag	-341
▁sal	-342
uha	-343
inig	-344
apag	-345
el	-346
uto	-347
uhan	-348
▁sar	-349
uwa	-350
yon	-351
▁dum	-352
arap	-353
asal	-354
ipag	-355
▁nagp	-356
▁lalaki	-357
arang	-358
▁dalawang	-359
▁bul	-360
▁pak	-361
▁pinag	-362
▁nags	-363
em	-364
▁y	-365
▁pagl	-366
▁R	-367
▁Al	-368
▁ikaw	-369
oong	-370
▁hal	-371
▁ngunit	-372
▁ina	-373
▁Ngunit	-374
tat	-375
ko	-376
ain	-377
asan	-378
aban	-379
itan	-380
▁kum	-381
▁langit	-382
▁mul	-383
unang	-384
▁ating	-385
▁pags	-386
,"	-387
big	-388
▁po	-389
▁kuw	-390
▁itong	-391
aga	-392
aran	-393
irap	-394
▁Sin	-395
▁tat	-396
▁puso	-397
▁iba	-398
▁lag	-399
▁sab	-400
apang	-401
▁E	-402
▁Y	-403
anap	-404
▁panahon	-405
ahal	-406
▁Ito	-407
ungan	-408
ta	-409
unga	-410
▁kanya	-411
uong	-412
▁kin	-413
▁nar	-414
▁nagk	-415
apatid	-416
▁Si	-417
amit	-418
▁nas	-419
apos	-420
▁O	-421
aklak	-422
▁F	-423
abas	-424
▁hanggang	-425
▁hang	-426
igl	-427
▁Il	-428
ugan	-429
▁iyo	-430
▁sag	-431
▁kul	-432
▁dito	-433
▁wika	-434
▁ba	-435
▁Nak	-436
▁Pin	-437
tan	-438
ayong	-439
▁mad	-440
▁naging	-441
na	-442
ro	-443
▁kang	-444
▁bahay	-445
▁ninyo	-446
▁ama	-447
ahang	-448
▁asawa	-449
una	-450
▁isa	-451
▁dalaga	-452
agal	-453
awat	-454
▁pagh	-455
mam	-456
oob	-457
pik	-458
awin	-459
isip	-460
▁buw	-461
itong	-462
▁hum	-463
▁sap	-464
▁para	-465
▁kag	-466
▁nil	-467
▁Datu	-468
bab	-469
alin	-470
▁Bat	-471
ulong	-472
▁Agat	-473
▁ngayon	-474
amd	-475
▁Mar	-476
▁gum	-477
▁silang	-478
bay	-479
▁J	-480
▁da	-481
usap	-482
▁nagl	-483
▁tang	-484
ubig	-485
▁nan	-486
▁Kaya	-487
wa	-488
agp	-489
ust	-490
▁An	-491
rins	-492
▁Mga	-493
▁bum	-494
uting	-495
ibigan	-496
▁buong	-497
ago	-498
hala	-499
ulog	-500
utan	-501
▁kaw	-502
▁nal	-503
along	-504
iwanag	-505
▁Pagkat	-506
isa	-507
iwa	-508
atan	-509
▁Ako	-510
▁pagp	-511
ami	-512
kas	-513
▁akin	-514
▁ipin	-515
▁kuwen	-516
▁unang	-517
uy	-518
iyak	-519
▁pum	-520
▁bulaklak	-521
sin	-522
▁Diyos	-523
oro	-524
anga	-525
igaw	-526
▁mam	-527
▁Ik	-528
awak	-529
ihin	-530
sing	-531
ahing	-532
▁nilang	-533
▁Pilipino	-534
dig	-535
ayop	-536
▁Lum	-537
▁Sum	-538
▁nasa	-539
▁noon	-540
▁puno	-541
ays	-542
▁bal	-543
▁kayo	-544
▁kahit	-545
AN	-546
ati	-547
atay	-548
ilim	-549
undok	-550
▁nagh	-551
▁tayo	-552
▁Walang	-553
▁parang	-554
!"	-555
abaw	-556
▁Man	-557
▁hig	-558
▁tun	-559
igdig	-560
▁taong	-561
yay	-562
▁Di	-563
ungo	-564
unod	-565
arian	-566
▁mata	-567
▁dagat	-568
▁tubig	-569
uno	-570
▁Mak	-571
▁Tin	-572
iwang	-573
tas	-574
uri	-575
long	-576
▁Kas	-577
iging	-578
▁Siya	-579
▁bawat	-580
▁hayop	-581
▁lakas	-582
ud	-583
alig	-584
awit	-585
abing	-586
▁ibig	-587
alakas	-588
▁ag	-589
▁sam	-590
anong	-591
▁bunga	-592
▁kamay	-593
▁sinabi	-594
▁buk	-595
angan	-596
▁iyon	-597
▁pagt	-598
▁Dahil	-599
ano	-600
ingg	-601
agang	-602
▁nagt	-603
▁magandang	-604
?"	-605
lo	-606
▁–	-607
aki	-608
alas	-609
▁nab	-610
▁bagay	-611
▁maging	-612
▁kapatid	-613
▁maraming	-614
eng	-615
imb	-616
pak	-617
...!	-618
ipad	-619
▁Bin	-620
▁datu	-621
▁epik	-622
▁pagkak	-623
lay	-624
▁ya	-625
unan	-626
▁Nagong	-627
▁ap	-628
ango	-629
unong	-630
▁Koro	-631
▁bundok	-632
▁magulang	-633
agi	-634
usa	-635
ikan	-636
▁ban	-637
ann	-638
esa	-639
lad	-640
ayaw	-641
▁gan	-642
▁pap	-643
▁loob	-644
▁mags	-645
amatay	-646
▁Huwag	-647
▁dapat	-648
",	-649
ump	-650
▁Fa	-651
alis	-652
oyan	-653
ulad	-654
▁dak	-655
atang	-656
unting	-657
▁ibang	-658
alagang	-659
annoyan	-660
da	-661
agawa	-662
insan	-663
▁Faust	-664
▁natin	-665
▁panan	-666
▁tunay	-667
▁Cannoyan	-668
imp	-669
ubo	-670
▁naw	-671
aroon	-672
▁matat	-673
▁daigdig	-674
▁i	-675
ira	-676
▁Ip	-677
▁akong	-678
▁Faustus	-679
▁Ya	-680
▁or	-681
agan	-682
▁lug	-683
▁kita	-684
anggol	-685
ungkot	-686
▁ilang	-687
▁tungk	-688
▁inyong	-689
▁sarili	-690
▁dumating	-691
aro	-692
nan	-693
iran	-694
unta	-695
▁min	-696
arating	-697
ilangan	-698
▁dalawa	-699
▁Bathala	-700
▁kaharian	-701
akam	-702
uloy	-703
▁ibon	-704
▁pagd	-705
▁tinig	-706
▁lalaking	-707
om	-708
so	-709
uro	-710
amin	-711
uhat	-712
usan	-713
▁Par	-714
▁sak	-715
Ay	-716
▁ul	-717
ahay	-718
apon	-719
isang	-720
▁muli	-721
▁sabi	-722
▁buwan	-723
▁mahal	-724
▁laging	-725
uin	-726
alay	-727
uran	-728
▁Mat	-729
▁ulo	-730
alita	-731
▁bato	-732
▁gabi	-733
▁hari	-734
▁ilog	-735
▁nagb	-736
▁kulay	-737
▁tulad	-738
▁nakita	-739
akot	-740
undi	-741
▁maa	-742
igaya	-743
▁Wala	-744
▁koro	-745
▁magp	-746
▁lugar	-747
▁katawan	-748
ahi	-749
olo	-750
▁Am	-751
ilis	-752
ukha	-753
ikita	-754
▁nagd	-755
▁nitong	-756
ks	-757
ags	-758
▁Ib	-759
▁Nam	-760
▁bak	-761
▁lik	-762
▁nah	-763
▁bata	-764
▁nakat	-765
▁yaong	-766
▁punong	-767
oo	-768
aso	-769
ent	-770
iting	-771
▁huwag	-772
▁prins	-773
ian	-774
agka	-775
apak	-776
▁sas	-777
ilala	-778
▁isip	-779
▁itin	-780
▁diyos	-781
amo	-782
alam	-783
▁Mab	-784
▁pab	-785
▁Tula	-786
▁magb	-787
▁ring	-788
ahanap	-789
▁pamam	-790
▁tahan	-791
▁kuwento	-792
itin	-793
ulat	-794
undo	-795
▁gawa	-796
▁habang	-797
▁makita	-798
ed	-799
ern	-800
han	-801
ilag	-802
▁Mas	-803
▁pas	-804
▁mula	-805
▁pagmam	-806
eg	-807
apa	-808
uli	-809
ilig	-810
ubos	-811
▁Kal	-812
▁gag	-813
▁Inang	-814
▁Yaong	-815
▁muling	-816
▁pagkain	-817
api	-818
hin	-819
ahin	-820
apan	-821
isig	-822
▁Hin	-823
▁Kay	-824
▁doon	-825
▁oras	-826
▁saan	-827
▁binata	-828
▁hangin	-829
▁kasama	-830
▁magkak	-831
▁malaking	-832
▁sapagkat	-833
▁matandang	-834
akb	-835
ero	-836
yar	-837
▁tr	-838
ahim	-839
aral	-840
unti	-841
▁ano	-842
▁big	-843
irang	-844
itang	-845
▁magt	-846
▁sina	-847
▁pagka	-848
▁Pilipinas	-849
op	-850
▁Mad	-851
▁nais	-852
ibigay	-853
▁noong	-854
▁tinat	-855
ugo	-856
upo	-857
▁Ka	-858
apal	-859
asak	-860
▁git	-861
ahong	-862
imula	-863
iwala	-864
utang	-865
iglang	-866
▁kundi	-867
▁napak	-868
do	-869
la	-870
▁Ar	-871
▁ip	-872
alat	-873
▁lib	-874
▁sul	-875
akain	-876
ubalit	-877
▁palak	-878
▁a	-879
alaw	-880
anak	-881
igan	-882
ikha	-883
ilan	-884
ulot	-885
▁Tum	-886
▁sus	-887
agong	-888
aysay	-889
ongan	-890
▁isin	-891
▁sand	-892
▁sino	-893
alaman	-894
anggap	-895
irahan	-896
▁higit	-897
▁mukha	-898
▁halaman	-899
▁liwanag	-900
▁kaibigan	-901
dib	-902
uga	-903
amis	-904
hang	-905
▁dib	-906
uling	-907
▁Ikaw	-908
▁epiko	-909
▁kapag	-910
▁kanila	-911
igm	-912
▁tal	-913
ingin	-914
arapat	-915
▁dibdib	-916
▁sariling	-917
Ang	-918
law	-919
man	-920
iliw	-921
▁pil	-922
awala	-923
▁diwa	-924
▁pala	-925
▁mabuti	-926
AR	-927
▁1	-928
san	-929
abay	-930
ilos	-931
inga	-932
isan	-933
▁Kat	-934
ibang	-935
iwata	-936
▁pagg	-937
▁saka	-938
alakbay	-939
▁Sinabi	-940
▁lalong	-941
yat	-942
agot	-943
away	-944
ilya	-945
unin	-946
asyon	-947
uluwa	-948
▁agad	-949
▁Binuk	-950
▁kapwa	-951
▁ginawa	-952
▁maganda	-953
▁tatlong	-954
▁tungkol	-955
io	-956
▁[	-957
iba	-958
ipe	-959
ahoy	-960
igat	-961
▁Nar	-962
ubong	-963
▁apoy	-964
▁kami	-965
▁pagb	-966
alapit	-967
▁bagong	-968
▁pagtat	-969
▁Binukot	-970
▁malakas	-971
▁Namongan	-972
dan	-973
pan	-974
uwi	-975
ubat	-976
ulay	-977
▁suk	-978
▁tan	-979
ikang	-980
imang	-981
▁luha	-982
▁taga	-983
agalog	-984
▁gitna	-985
▁magag	-986
▁alamat	-987
▁matsing	-988
▁pinakam	-989
▁sanggol	-990
ara	-991
emb	-992
abis	-993
akad	-994
akan	-995
emon	-996
ipas	-997
ipit	-998
yari	-999
▁Jos	-1000
▁Kah	-1001
▁Kin	-1002
▁Tul	-1003
▁bit	-1004
▁ini	-1005
▁lip	-1006
araan	-1007
▁Nagp	-1008
▁ding	-1009
▁iyan	-1010
yayari	-1011
▁manok	-1012
▁bahagi	-1013
▁tahanan	-1014
▁prinsesa	-1015
ac	-1016
hh	-1017
▁It	-1018
anay	-1019
ante	-1020
ikit	-1021
pang	-1022
▁Mah	-1023
ingan	-1024
ising	-1025
▁Bant	-1026
▁buto	-1027
▁magl	-1028
▁nagm	-1029
▁pook	-1030
▁taon	-1031
▁tila	-1032
ahimik	-1033
bigkas	-1034
▁hirap	-1035
▁kamat	-1036
▁bilang	-1037
▁salita	-1038
▁Pagkatapos	-1039
isi	-1040
lan	-1041
ugali	-1042
▁Mari	-1043
▁awit	-1044
▁bakit	-1045
▁mapag	-1046
▁nayon	-1047
▁palad	-1048
▁Tagalog	-1049
▁katulad	-1050
▁maaaring	-1051
et	-1052
▁=	-1053
▁Ig	-1054
▁Un	-1055
akay	-1056
ubuk	-1057
▁Hum	-1058
▁san	-1059
▁uri	-1060
ayaan	-1061
uhang	-1062
▁Jose	-1063
▁ikin	-1064
▁magd	-1065
▁sana	-1066
▁Kapag	-1067
▁Noong	-1068
▁aming	-1069
▁galit	-1070
▁inang	-1071
▁kahoy	-1072
▁karan	-1073
▁dating	-1074
▁pagkat	-1075
▁pagong	-1076
▁tauhan	-1077
▁tulang	-1078
▁babaing	-1079
re	-1080
yu	-1081
▁Ri	-1082
apas	-1083
igla	-1084
ikat	-1085
ilid	-1086
ingi	-1087
uman	-1088
utin	-1089
utom	-1090
▁Dal	-1091
▁Don	-1092
▁Mal	-1093
▁pul	-1094
ataas	-1095
▁mand	-1096
▁tula	-1097
agitan	-1098
agpuan	-1099
▁Lahat	-1100
▁gubat	-1101
▁nakak	-1102
yarihan	-1103
▁nagtat	-1104
▁kawayan	-1105
▁kaluluwa	-1106
ibo	-1107
iit	-1108
ist	-1109
lap	-1110
agin	-1111
ibat	-1112
igid	-1113
tila	-1114
▁Kan	-1115
▁sad	-1116
ampas	-1117
nayan	-1118
▁Agyu	-1119
▁pati	-1120
▁ganda	-1121
▁ginto	-1122
▁ibong	-1123
▁katut	-1124
▁mundo	-1125
▁mabuting	-1126
ba	-1127
ra	-1128
agd	-1129
las	-1130
log	-1131
abot	-1132
anta	-1133
ihim	-1134
lado	-1135
utos	-1136
uyan	-1137
▁Dum	-1138
▁Nat	-1139
▁bab	-1140
▁ent	-1141
▁ham	-1142
▁lin	-1143
▁tuw	-1144
akyat	-1145
▁Ipin	-1146
▁magh	-1147
▁mayr	-1148
▁pamp	-1149
ablado	-1150
uwaang	-1151
▁Prins	-1152
▁bangk	-1153
▁patay	-1154
▁tapat	-1155
▁Nakita	-1156
▁pagbab	-1157
▁tulong	-1158
▁biglang	-1159
▁panahong	-1160
▁entablado	-1161
▁pamamagitan	-1162
ek	-1163
▁V	-1164
awi	-1165
uni	-1166
uyo	-1167
zal	-1168
▁Is	-1169
▁Um	-1170
ahas	-1171
anan	-1172
▁bun	-1173
▁Ines	-1174
▁Pang	-1175
▁damd	-1176
▁Rizal	-1177
▁gayon	-1178
▁iyang	-1179
▁laban	-1180
▁palay	-1181
▁tanong	-1182
▁Tuwaang	-1183
▁matanda	-1184
▁tanging	-1185
▁masamang	-1186
aa	-1187
▁-	-1188
iti	-1189
ura	-1190
anao	-1191
igil	-1192
inis	-1193
iyan	-1194
uang	-1195
uhin	-1196
usto	-1197
▁Bis	-1198
▁Din	-1199
▁Isa	-1200
▁Kab	-1201
bigay	-1202
ihang	-1203
▁bago	-1204
▁ipag	-1205
▁kamp	-1206
arawan	-1207
▁Bakit	-1208
▁nanin	-1209
▁sibat	-1210
▁kapang	-1211
▁marami	-1212
▁malapit	-1213
▁kuwentong	-1214
▁pagmamahal	-1215
ngk	-1216
ono	-1217
ugt	-1218
anaw	-1219
▁Gin	-1220
▁Nal	-1221
▁paa	-1222
alimb	-1223
asama	-1224
▁Ibig	-1225
▁Sila	-1226
▁lalo	-1227
▁muna	-1228
▁sing	-1229
anggam	-1230
ugtong	-1231
▁Kahit	-1232
▁bansa	-1233
▁pakik	-1234
▁sagot	-1235
alitang	-1236
▁Haring	-1237
▁batang	-1238
▁paligid	-1239
▁Hanggang	-1240
▁pangalan	-1241
ey	-1242
hi	-1243
loh	-1244
res	-1245
tik	-1246
▁Ak	-1247
▁Lu	-1248
▁as	-1249
agad	-1250
alon	-1251
dang	-1252
ipon	-1253
▁pay	-1254
▁uma	-1255
Hindi	-1256
alana	-1257
amant	-1258
unlad	-1259
uring	-1260
▁Araw	-1261
▁Ayon	-1262
▁Mula	-1263
▁Saka	-1264
▁alam	-1265
▁kasi	-1266
▁nina	-1267
itoloh	-1268
▁Bayan	-1269
▁bibig	-1270
▁kaysa	-1271
aysayan	-1272
▁ligaya	-1273
▁namang	-1274
▁kamatayan	-1275
NG	-1276
ako	-1277
ens	-1278
▁ih	-1279
▁Ano	-1280
▁Kap	-1281
▁Lab	-1282
aging	-1283
▁Nagk	-1284
▁ilaw	-1285
▁lagi	-1286
▁pulo	-1287
akasal	-1288
irinig	-1289
ungang	-1290
▁Upang	-1291
▁talim	-1292
alangin	-1293
▁Bisaya	-1294
▁Minsan	-1295
▁malayo	-1296
▁minsan	-1297
▁taglay	-1298
▁Kastila	-1299
▁gintong	-1300
▁munting	-1301
▁Bantugan	-1302
▁kaniyang	-1303
uko	-1304
▁Dr	-1305
amot	-1306
asyo	-1307
ista	-1308
lang	-1309
ulin	-1310
▁Nab	-1311
▁but	-1312
▁raw	-1313
▁tak	-1314
▁tut	-1315
andog	-1316
igyan	-1317
▁Doon	-1318
▁Mind	-1319
▁baka	-1320
▁dugo	-1321
▁ibin	-1322
▁pamb	-1323
emonyo	-1324
iyahan	-1325
▁kasal	-1326
▁pangk	-1327
▁sakit	-1328
▁Alamat	-1329
▁pinagm	-1330
▁mamatay	-1331
▁tandang	-1332
▁pangarap	-1333
▁tinatawag	-1334
AT	-1335
aho	-1336
lat	-1337
obo	-1338
▁Ha	-1339
abag	-1340
angh	-1341
orot	-1342
ugat	-1343
unog	-1344
uwal	-1345
uwan	-1346
▁Ina	-1347
▁Tag	-1348
▁biy	-1349
antay	-1350
intay	-1351
onood	-1352
umang	-1353
▁anyo	-1354
▁inil	-1355
▁pana	-1356
abigat	-1357
atuloy	-1358
▁Maria	-1359
▁dilag	-1360
▁makak	-1361
▁nakab	-1362
▁ngang	-1363
▁diwata	-1364
▁lupain	-1365
▁puting	-1366
ilangang	-1367
▁Tulalang	-1368
po	-1369
agl	-1370
arin	-1371
ilog	-1372
upan	-1373
upit	-1374
▁Bid	-1375
▁Sar	-1376
▁mus	-1377
amdam	-1378
angal	-1379
uparo	-1380
▁apat	-1381
▁inyo	-1382
▁magm	-1383
▁manl	-1384
▁rito	-1385
▁tabi	-1386
alaala	-1387
alabas	-1388
ilipad	-1389
▁bukid	-1390
▁dahon	-1391
▁labis	-1392
▁natut	-1393
▁naming	-1394
▁nating	-1395
▁pakpak	-1396
▁piling	-1397
▁epikong	-1398
▁nagiging	-1399
uo	-1400
ado	-1401
ers	-1402
ros	-1403
▁de	-1404
ahah	-1405
anti	-1406
ardo	-1407
▁Gan	-1408
▁Ind	-1409
▁Kam	-1410
▁Pal	-1411
▁eks	-1412
▁him	-1413
▁sis	-1414
aloob	-1415
▁Ilog	-1416
▁Nags	-1417
▁bang	-1418
▁daan	-1419
▁dala	-1420
▁naka	-1421
▁samp	-1422
aharap	-1423
ahayag	-1424
isipan	-1425
ubuhay	-1426
▁kabab	-1427
▁ngayo	-1428
▁pamum	-1429
▁panin	-1430
▁pilak	-1431
▁sinas	-1432
▁tangh	-1433
ulungan	-1434
▁bayang	-1435
▁lumaki	-1436
▁malaki	-1437
▁maliit	-1438
▁pusong	-1439
▁Cabigat	-1440
▁mabuhay	-1441
▁mahirap	-1442
▁malaman	-1443
▁namatay	-1444
▁pampang	-1445
▁sadyang	-1446
▁magiging	-1447
▁manonood	-1448
dal	-1449
end	-1450
umb	-1451
▁Bi	-1452
amig	-1453
apay	-1454
asin	-1455
ilaw	-1456
ilin	-1457
itik	-1458
iwat	-1459
ukol	-1460
ulit	-1461
▁Nen	-1462
▁buh	-1463
▁per	-1464
▁put	-1465
urang	-1466
▁Puti	-1467
▁Solo	-1468
▁inih	-1469
▁mahiw	-1470
▁tawag	-1471
▁umaga	-1472
ahangad	-1473
embaran	-1474
▁Malana	-1475
▁gumawa	-1476
▁pagpap	-1477
▁paraan	-1478
▁Langgam	-1479
▁kasalan	-1480
▁Prinsipe	-1481
▁dalagang	-1482
▁damdamin	-1483
▁nangyari	-1484
▁kapangyarihan	-1485
ep	-1486
if	-1487
din	-1488
hik	-1489
pis	-1490
uot	-1491
atid	-1492
ilip	-1493
▁Ros	-1494
▁kad	-1495
▁kak	-1496
▁niy	-1497
ansin	-1498
asari	-1499
usang	-1500
▁Bern	-1501
▁alim	-1502
▁lahi	-1503
aganda	-1504
alagay	-1505
▁Manok	-1506
▁gawin	-1507
▁hanap	-1508
▁masas	-1509
▁nakal	-1510
▁tumut	-1511
▁yaman	-1512
▁Labtik	-1513
▁Samant	-1514
▁bituin	-1515
▁buwaya	-1516
▁Subalit	-1517
▁palasyo	-1518
▁tahimik	-1519
▁tinawag	-1520
▁Bembaran	-1521
▁Bernardo	-1522
▁Bidasari	-1523
▁kailangan	-1524
▁pinagmulan	-1525
An	-1526
ti	-1527
▁u	-1528
ena	-1529
erp	-1530
▁Oh	-1531
ayag	-1532
ayos	-1533
ilit	-1534
iyam	-1535
tang	-1536
▁bay	-1537
▁imp	-1538
awing	-1539
ugang	-1540
usong	-1541
uwang	-1542
▁aral	-1543
▁ayaw	-1544
▁engk	-1545
▁sund	-1546
agamit	-1547
inggan	-1548
ulugan	-1549
▁Donya	-1550
▁Sulay	-1551
▁bunso	-1552
▁halos	-1553
▁harap	-1554
▁hawak	-1555
▁Igorot	-1556
▁bayani	-1557
▁dunong	-1558
▁kaaway	-1559
▁kagand	-1560
▁palaka	-1561
▁yaring	-1562
▁gagawin	-1563
▁higante	-1564
▁nangang	-1565
▁nasasak	-1566
itolohiya	-1567
▁Sulayman	-1568
▁alimango	-1569
▁pagkakata	-1570
AK	-1571
ATA	-1572
▁ig	-1573
aliw	-1574
igma	-1575
ukan	-1576
▁Ban	-1577
▁Buk	-1578
▁Bul	-1579
▁Min	-1580
▁Nap	-1581
▁tuk	-1582
abasa	-1583
alala	-1584
alino	-1585
indig	-1586
ingat	-1587
tasan	-1588
uyang	-1589
▁Nagm	-1590
▁Ting	-1591
▁laki	-1592
▁lawa	-1593
▁nama	-1594
▁ulan	-1595
abalik	-1596
▁Ilang	-1597
▁balat	-1598
▁buhok	-1599
▁gutom	-1600
▁laman	-1601
▁sigaw	-1602
abayang	-1603
arangan	-1604
▁Madali	-1605
▁Naging	-1606
▁Ngayon	-1607
▁ilalim	-1608
▁katang	-1609
▁nagsis	-1610
▁pabula	-1611
▁paglal	-1612
alimbawa	-1613
▁kayaman	-1614
▁dakilang	-1615
▁singsing	-1616
▁mahiwagang	-1617
st	-1618
ada	-1619
mas	-1620
ola	-1621
uag	-1622
ubi	-1623
way	-1624
▁Ma	-1625
▁Ni	-1626
▁ab	-1627
agas	-1628
amba	-1629
anim	-1630
erno	-1631
hati	-1632
igit	-1633
uhod	-1634
utol	-1635
▁Bal	-1636
▁Pab	-1637
▁Sap	-1638
▁Tat	-1639
▁bas	-1640
▁kil	-1641
▁nai	-1642
▁piy	-1643
ahala	-1644
laban	-1645
oroon	-1646
pisod	-1647
umpay	-1648
▁TATA	-1649
▁gaya	-1650
▁simb	-1651
abihin	-1652
apatay	-1653
usapan	-1654
▁Biuag	-1655
▁Itong	-1656
▁linya	-1657
▁magka	-1658
▁nakik	-1659
▁namin	-1660
▁sanga	-1661
▁Habang	-1662
▁Maging	-1663
▁Neneng	-1664
▁episod	-1665
▁gabing	-1666
▁galing	-1667
▁pagsas	-1668
▁bakuran	-1669
▁makapag	-1670
▁mayroon	-1671
▁sabihin	-1672
▁subalit	-1673
▁Paruparo	-1674
▁pangyayari	-1675
▁paglalakbay	-1676
ONG	-1677
sik	-1678
uel	-1679
▁Gr	-1680
abit	-1681
adal	-1682
adya	-1683
aham	-1684
alok	-1685
ayak	-1686
ibay	-1687
ingn	-1688
itim	-1689
ling	-1690
mang	-1691
pres	-1692
ubog	-1693
wang	-1694
▁Ama	-1695
akila	-1696
amaan	-1697
asang	-1698
▁Dama	-1699
▁Dito	-1700
▁Itin	-1701
▁Miya	-1702
▁Pagd	-1703
▁init	-1704
▁kina	-1705
▁land	-1706
▁ulap	-1707
aginip	-1708
amahal	-1709
amihan	-1710
ayahan	-1711
utusan	-1712
▁bango	-1713
▁batis	-1714
▁buhat	-1715
▁kapal	-1716
▁likod	-1717
▁lubos	-1718
amdaman	-1719
ihintay	-1720
▁batong	-1721
▁mataas	-1722
▁nagbab	-1723
▁Kalabaw	-1724
▁bumalik	-1725
▁lumakad	-1726
▁mabilis	-1727
▁narinig	-1728
▁kabilang	-1729
▁makikita	-1730
▁Pagbigkas	-1731
▁pagdating	-1732
▁kasaysayan	-1733
▁magkakapatid	-1734
Ip	-1735
ec	-1736
apo	-1737
pir	-1738
uon	-1739
▁Ab	-1740
▁Pa	-1741
Kung	-1742
akaw	-1743
alad	-1744
usog	-1745
utok	-1746
▁lub	-1747
▁sig	-1748
▁tig	-1749
▁usa	-1750
abait	-1751
adala	-1752
agsak	-1753
anggi	-1754
ikain	-1755
ugtog	-1756
ungin	-1757
▁Para	-1758
▁dusa	-1759
▁isda	-1760
▁maka	-1761
uhayan	-1762
▁Aling	-1763
▁anong	-1764
▁itlog	-1765
▁kawal	-1766
▁makat	-1767
▁panig	-1768
▁panit	-1769
▁silid	-1770
▁tiyak	-1771
▁lupang	-1772
▁nagpap	-1773
▁ninuno	-1774
▁salapi	-1775
▁tayong	-1776
▁engkant	-1777
▁episodyo	-1778
▁halamang	-1779
▁marunong	-1780
▁masayang	-1781
▁salitang	-1782
▁kababayan	-1783
▁karaniwang	-1784
▁magagandang	-1785
▁naninirahan	-1786
),	-1787
MP	-1788
eh	-1789
akw	-1790
iin	-1791
kan	-1792
lit	-1793
lks	-1794
▁Ap	-1795
▁II	-1796
....	-1797
agay	-1798
asok	-1799
isag	-1800
otoo	-1801
ubuy	-1802
ugon	-1803
umpa	-1804
upad	-1805
▁Aga	-1806
▁Bum	-1807
▁Dul	-1808
▁Kum	-1809
▁Luc	-1810
▁Pan	-1811
▁Sal	-1812
▁bur	-1813
▁har	-1814
alian	-1815
bayan	-1816
isyon	-1817
utian	-1818
▁Bago	-1819
▁Isin	-1820
▁Magb	-1821
▁Mang	-1822
▁Nagt	-1823
▁Pagk	-1824
▁atin	-1825
▁lamb	-1826
▁roon	-1827
▁sala	-1828
alakad	-1829
amangk	-1830
amayan	-1831
iligaw	-1832
ubuyog	-1833
▁Balag	-1834
▁Bugan	-1835
▁giliw	-1836
▁matut	-1837
▁nawaw	-1838
▁takot	-1839
▁tribo	-1840
presyon	-1841
▁Parang	-1842
▁gawain	-1843
▁kaloob	-1844
▁kumain	-1845
▁nawala	-1846
▁pagkab	-1847
▁lumabas	-1848
▁nakikita	-1849
▁simbahan	-1850
▁tulungan	-1851
▁Pagdating	-1852
▁nagbibigay	-1853
ahe	-1854
apt	-1855
ino	-1856
zon	-1857
▁Es	-1858
abal	-1859
abuk	-1860
akbo	-1861
ayun	-1862
iman	-1863
iyon	-1864
usay	-1865
▁And	-1866
▁Pum	-1867
▁gun	-1868
▁maw	-1869
▁una	-1870
▁yum	-1871
akita	-1872
aptap	-1873
igtas	-1874
kahoy	-1875
▁Nasa	-1876
▁Pina	-1877
▁pand	-1878
▁pant	-1879
▁tupa	-1880
▁tuwa	-1881
▁utos	-1882
ahalan	-1883
anggit	-1884
ayuhan	-1885
iwalay	-1886
orilya	-1887
upunta	-1888
usahan	-1889
▁Buhay	-1890
▁Gayon	-1891
▁Labaw	-1892
▁bigas	-1893
▁bisig	-1894
▁kagub	-1895
▁kalag	-1896
▁karun	-1897
▁kilos	-1898
▁napag	-1899
alagaan	-1900
asalita	-1901
asawang	-1902
atauhan	-1903
ibigang	-1904
iriwang	-1905
itaptap	-1906
▁Manobo	-1907
▁dangal	-1908
▁ibabaw	-1909
▁ipinag	-1910
▁naglal	-1911
▁tuwing	-1912
akasalan	-1913
▁Mabilis	-1914
▁Maganda	-1915
▁masipag	-1916
▁sapagka	-1917
▁suliran	-1918
▁Dalawang	-1919
▁Maraming	-1920
▁binigyan	-1921
▁madaling	-1922
▁nararapat	-1923
▁pagbigkas	-1924
).	-1925
IA	-1926
▁2	-1927
ANG	-1928
adh	-1929
aks	-1930
ans	-1931
asy	-1932
era	-1933
inh	-1934
ora	-1935
oto	-1936
ris	-1937
uba	-1938
uso	-1939
▁gr	-1940
ibon	-1941
ikal	-1942
imit	-1943
ingk	-1944
inta	-1945
iong	-1946
ungg	-1947
uwid	-1948
▁dam	-1949
▁tor	-1950
▁umi	-1951
akwel	-1952
andaw	-1953
ining	-1954
islap	-1955
itaas	-1956
▁Agad	-1957
▁Samp	-1958
▁baya	-1959
▁dako	-1960
▁damo	-1961
▁pint	-1962
andaan	-1963
▁bagyo	-1964
▁damit	-1965
▁nakas	-1966
▁namum	-1967
▁paano	-1968
▁pagod	-1969
▁tangk	-1970
apansin	-1971
ingning	-1972
intahan	-1973
untahan	-1974
▁Pagong	-1975
▁alipin	-1976
▁kaagad	-1977
▁kayong	-1978
▁landas	-1979
▁limang	-1980
▁mandir	-1981
▁saging	-1982
▁tingin	-1983
ayanihan	-1984
▁Kanyang	-1985
▁Makisig	-1986
▁Tandang	-1987
▁bangkay	-1988
▁dahilan	-1989
▁gorilya	-1990
▁marahil	-1991
▁nilikha	-1992
▁patungo	-1993
▁katutubo	-1994
▁makapang	-1995
▁maligaya	-1996
▁nilalang	-1997
▁Samantala	-1998
▁kagubatan	-1999
▁malungkot	-2000
▁nagkaroon	-2001
▁suliranin	-2002
▁ekspresyon	-2003
▁kagandahan	-2004
▁kailangang	-2005
▁pagkakataon	-2006
eo	-2007
ia	-2008
pa	-2009
▁'	-2010
▁c	-2011
AND	-2012
ilo	-2013
iri	-2014
iro	-2015
iwi	-2016
kin	-2017
les	-2018
lim	-2019
tok	-2020
▁KA	-2021
▁ed	-2022
ARIA	-2023
Iput	-2024
ahad	-2025
anib	-2026
awid	-2027
ento	-2028
iban	-2029
ifer	-2030
ihis	-2031
irog	-2032
isin	-2033
iyag	-2034
upot	-2035
▁Hal	-2036
▁IMP	-2037
▁apo	-2038
▁ika	-2039
▁mut	-2040
▁nad	-2041
▁pah	-2042
▁por	-2043
alayo	-2044
atili	-2045
bahay	-2046
enang	-2047
ihing	-2048
iliit	-2049
ngang	-2050
sakit	-2051
ugong	-2052
▁Iput	-2053
▁Nagb	-2054
▁Nagh	-2055
▁baga	-2056
▁kaka	-2057
▁sama	-2058
ahanda	-2059
ahinga	-2060
alakay	-2061
apatan	-2062
iyerno	-2063
lakbay	-2064
tanong	-2065
▁Diwat	-2066
▁Gibon	-2067
▁Hapon	-2068
▁MARIA	-2069
▁Mahal	-2070
▁Pagka	-2071
▁banal	-2072
▁bukas	-2073
▁gusto	-2074
▁kalig	-2075
▁mangg	-2076
▁sasak	-2077
▁sumis	-2078
angalan	-2079
arangay	-2080
▁IMPONG	-2081
▁Manuel	-2082
▁balang	-2083
▁dakila	-2084
▁diyosa	-2085
▁ganito	-2086
▁hangad	-2087
▁hardin	-2088
▁magkas	-2089
▁makata	-2090
▁masama	-2091
▁masaya	-2092
▁pawang	-2093
▁pinagk	-2094
▁pulubi	-2095
▁sanang	-2096
▁umalis	-2097
arapatra	-2098
asalamat	-2099
▁Demonyo	-2100
▁Inahing	-2101
▁Lucifer	-2102
▁anumang	-2103
▁kasaluk	-2104
▁lungkot	-2105
▁matamis	-2106
▁pagkaka	-2107
▁pamilya	-2108
▁Sumakwel	-2109
▁ginagawa	-2110
▁kalooban	-2111
▁mahabang	-2112
▁nagtagal	-2113
▁napansin	-2114
▁prinsipe	-2115
▁kayamanan	-2116
▁lumilipad	-2117
▁minamahal	-2118
▁Diwatandaw	-2119
▁paniniwala	-2120
▁Indarapatra	-2121
eb	-2122
ic	-2123
mo	-2124
ANA	-2125
agh	-2126
ato	-2127
ida	-2128
tod	-2129
uns	-2130
yak	-2131
▁Ah	-2132
▁Im	-2133
▁ha	-2134
amay	-2135
anin	-2136
atap	-2137
eyna	-2138
hasa	-2139
ibik	-2140
iisa	-2141
ikot	-2142
into	-2143
iyas	-2144
ugol	-2145
▁Bag	-2146
▁Gag	-2147
▁Tam	-2148
▁hap	-2149
▁lul	-2150
Bakit	-2151
agana	-2152
ataan	-2153
awaan	-2154
idlat	-2155
inang	-2156
intas	-2157
ipags	-2158
uluan	-2159
▁aliw	-2160
▁bunt	-2161
▁damb	-2162
▁digm	-2163
▁dulo	-2164
akbang	-2165
andila	-2166
inding	-2167
usunod	-2168
▁amang	-2169
▁balak	-2170
▁burol	-2171
▁dilim	-2172
▁ganap	-2173
▁hamog	-2174
▁handa	-2175
▁kalak	-2176
▁makab	-2177
▁mapan	-2178
▁mapap	-2179
▁pinak	-2180
▁siyam	-2181
▁sukat	-2182
▁sumas	-2183
▁ugali	-2184
alingan	-2185
aramdam	-2186
▁Diwata	-2187
▁Ibalon	-2188
▁Lalong	-2189
▁biyaya	-2190
▁ganoon	-2191
▁huling	-2192
▁iisang	-2193
▁kabund	-2194
▁lahing	-2195
▁libing	-2196
▁nagmam	-2197
▁pambih	-2198
▁pinuno	-2199
▁piyesa	-2200
▁simula	-2201
▁sultan	-2202
Sabayang	-2203
▁Unnayan	-2204
▁nakapag	-2205
▁palakol	-2206
▁sandali	-2207
▁tagapag	-2208
asalaysay	-2209
▁Dumating	-2210
▁panauhin	-2211
▁impiyerno	-2212
▁kabuhayan	-2213
▁kaibigang	-2214
▁pamumuhay	-2215
▁panaginip	-2216
▁tanghalan	-2217
▁katutubong	-2218
▁nasasakupan	-2219
".	-2220
NA	-2221
UP	-2222
aca	-2223
igu	-2224
lip	-2225
non	-2226
oko	-2227
orn	-2228
ukl	-2229
wit	-2230
▁As	-2231
▁Da	-2232
▁br	-2233
▁id	-2234
▁pr	-2235
abog	-2236
atol	-2237
ipak	-2238
ipan	-2239
itaw	-2240
nang	-2241
ubay	-2242
uwek	-2243
▁Nas	-2244
▁Pat	-2245
▁aso	-2246
▁daw	-2247
▁kuk	-2248
▁ros	-2249
▁sik	-2250
▁sup	-2251
aglay	-2252
ahati	-2253
aking	-2254
alakh	-2255
angon	-2256
asong	-2257
uturo	-2258
▁Juan	-2259
▁Mayr	-2260
▁NANA	-2261
▁Nagl	-2262
▁Pros	-2263
▁Sari	-2264
▁alin	-2265
▁anim	-2266
▁ayon	-2267
▁bung	-2268
▁itim	-2269
agalit	-2270
ambing	-2271
awayan	-2272
entong	-2273
erpina	-2274
ibhasa	-2275
ibutan	-2276
iguyon	-2277
otohan	-2278
pikong	-2279
unayan	-2280
ustong	-2281
▁baboy	-2282
▁binub	-2283
▁gamit	-2284
▁kaawa	-2285
▁kasab	-2286
▁katap	-2287
▁layaw	-2288
▁nabab	-2289
▁nangg	-2290
▁napap	-2291
▁sikat	-2292
▁tuloy	-2293
▁wakas	-2294
agumpay	-2295
unahing	-2296
▁Bagong	-2297
▁Marami	-2298
▁alaala	-2299
▁balita	-2300
▁bulong	-2301
▁kailan	-2302
▁mabait	-2303
▁tabing	-2304
▁waring	-2305
alagahan	-2306
yayaring	-2307
▁Mahirap	-2308
▁Nagalit	-2309
▁bathala	-2310
▁bugtong	-2311
▁kalungk	-2312
▁matapos	-2313
▁ninyong	-2314
▁pananim	-2315
▁pangung	-2316
▁pintuan	-2317
▁sumunod	-2318
amangkero	-2319
▁Aliguyon	-2320
▁Mindanao	-2321
▁Sumarang	-2322
▁barangay	-2323
▁malayong	-2324
▁maliliit	-2325
▁nagtungo	-2326
▁magkaroon	-2327
▁mamamayan	-2328
▁panitikan	-2329
▁tungkulin	-2330
▁Proserpina	-2331
▁manliligaw	-2332
▁mitolohiya	-2333
▁nawawalang	-2334
▁pagkatapos	-2335
▁kabayanihan	-2336
▁matatagpuan	-2337
he	-2338
Tat	-2339
uka	-2340
wak	-2341
▁BU	-2342
▁Ed	-2343
▁Ta	-2344
▁ar	-2345
▁ga	-2346
..."	-2347
aano	-2348
alab	-2349
asam	-2350
atut	-2351
ayat	-2352
bong	-2353
ugad	-2354
ugin	-2355
ukin	-2356
utas	-2357
yayi	-2358
▁Bas	-2359
▁Lib	-2360
▁Mus	-2361
▁Sul	-2362
▁kon	-2363
▁lam	-2364
▁noo	-2365
▁sil	-2366
▁was	-2367
agkan	-2368
angis	-2369
asyal	-2370
ayway	-2371
ingap	-2372
iusap	-2373
undin	-2374
▁Saan	-2375
▁Sino	-2376
▁Tayo	-2377
▁kult	-2378
▁labi	-2379
▁wari	-2380
akaawa	-2381
ansang	-2382
asalin	-2383
awakan	-2384
iganti	-2385
ihingi	-2386
ilayan	-2387
intang	-2388
uhunan	-2389
▁Aking	-2390
▁Espan	-2391
▁Oyayi	-2392
▁Puwek	-2393
▁Sarag	-2394
▁bakod	-2395
▁galak	-2396
▁halik	-2397
▁halim	-2398
▁itaas	-2399
▁kabut	-2400
▁lihim	-2401
▁lunti	-2402
▁makas	-2403
▁masis	-2404
▁nalul	-2405
▁sabay	-2406
▁tumat	-2407
▁tunog	-2408
alawang	-2409
ibigkas	-2410
ugalian	-2411
uhalang	-2412
utangan	-2413
▁Tingal	-2414
▁bangka	-2415
▁dinala	-2416
▁kabayo	-2417
▁kinuha	-2418
▁maling	-2419
▁pinagt	-2420
▁sakdal	-2421
▁samant	-2422
abukasan	-2423
agandang	-2424
yarihang	-2425
▁Tamaraw	-2426
▁Tinawag	-2427
▁digmaan	-2428
▁kampana	-2429
▁lumipas	-2430
▁lumisan	-2431
▁marinig	-2432
▁mayaman	-2433
▁nagmula	-2434
▁nahulog	-2435
▁paggawa	-2436
alanutian	-2437
▁Sapagkat	-2438
▁dalampas	-2439
▁kalayaan	-2440
▁kuwintas	-2441
▁nagbigay	-2442
▁nagngang	-2443
▁nakakita	-2444
▁panganib	-2445
▁talagang	-2446
▁halimbawa	-2447
▁hinahanap	-2448
▁kapalaran	-2449
▁karunungan	-2450
▁nakarating	-2451
▁pambihirang	-2452
▁pangunahing	-2453
AB	-2454
IW	-2455
OY	-2456
Sa	-2457
ARO	-2458
Ano	-2459
Nak	-2460
agt	-2461
its	-2462
itu	-2463
kop	-2464
rab	-2465
udo	-2466
▁Ba	-2467
▁im	-2468
ahag	-2469
alog	-2470
atas	-2471
ayok	-2472
isay	-2473
ongo	-2474
ugot	-2475
▁Del	-2476
▁LAK	-2477
▁Pak	-2478
▁TOY	-2479
▁bar	-2480
aanak	-2481
aaral	-2482
alawa	-2483
ambal	-2484
atong	-2485
gayak	-2486
ibing	-2487
ibong	-2488
iisip	-2489
ikudo	-2490
iping	-2491
ngles	-2492
uruan	-2493
uyong	-2494
▁Daga	-2495
▁Mags	-2496
▁Mens	-2497
▁Nais	-2498
▁Noon	-2499
▁Pamb	-2500
▁Pand	-2501
▁Rosa	-2502
▁Sant	-2503
▁dati	-2504
▁ilan	-2505
▁kain	-2506
▁kani	-2507
▁patn	-2508
▁pong	-2509
▁puri	-2510
▁sang	-2511
▁ugat	-2512
agatan	-2513
anghal	-2514
apasok	-2515
ayanan	-2516
dahang	-2517
imbang	-2518
imbing	-2519
ingnan	-2520
irapan	-2521
▁Anong	-2522
▁Dagat	-2523
▁abang	-2524
▁dilaw	-2525
▁gumag	-2526
▁karik	-2527
▁kayum	-2528
▁labas	-2529
▁lilim	-2530
▁makik	-2531
▁namam	-2532
▁nanan	-2533
▁natat	-2534
▁patak	-2535
▁totoo	-2536
ahating	-2537
ampalat	-2538
arangaw	-2539
ingatan	-2540
ukasyon	-2541
▁Kaptan	-2542
▁Mabuti	-2543
▁Simang	-2544
▁TOYANG	-2545
▁gawang	-2546
▁gunita	-2547
▁iniwan	-2548
▁malaya	-2549
▁musika	-2550
▁pangit	-2551
▁pulong	-2552
▁tapang	-2553
ungkahoy	-2554
▁Malakas	-2555
▁bungang	-2556
▁demonyo	-2557
▁gawaing	-2558
▁hanging	-2559
▁kalaban	-2560
▁kalabaw	-2561
▁lumipad	-2562
▁lumitaw	-2563
▁madilim	-2564
▁malalim	-2565
▁manging	-2566
▁matuwid	-2567
▁pangkat	-2568
▁pinangg	-2569
▁pumanaw	-2570
▁sagisag	-2571
▁sundalo	-2572
▁Barangaw	-2573
▁Marikudo	-2574
▁Silangan	-2575
▁bayaning	-2576
▁darating	-2577
▁kumakain	-2578
▁magaling	-2579
▁matapang	-2580
▁narating	-2581
▁nawawala	-2582
▁sasakyan	-2583
▁ginagamit	-2584
▁nagsimula	-2585
▁natagpuan	-2586
▁pananalig	-2587
▁Balagtasan	-2588
▁Saragnayan	-2589
▁kabundukan	-2590
▁mandirigma	-2591
▁kalungkutan	-2592
▁punongkahoy	-2593
▁punungkahoy	-2594
▁samantalang	-2595
▁dalampasigan	-2596
Al	-2597
LE	-2598
LO	-2599
OG	-2600
go	-2601
si	-2602
IWA	-2603
UAN	-2604
agb	-2605
ema	-2606
igh	-2607
igp	-2608
pas	-2609
ubl	-2610
▁un	-2611
ABLO	-2612
ARUP	-2613
LENA	-2614
Mlks	-2615
adap	-2616
alap	-2617
ilay	-2618
ilik	-2619
inaw	-2620
iram	-2621
nong	-2622
rito	-2623
tana	-2624
uksa	-2625
ukso	-2626
upok	-2627
uyak	-2628
▁Nah	-2629
▁San	-2630
▁awa	-2631
▁est	-2632
▁lim	-2633
▁sim	-2634
▁tab	-2635
▁tam	-2636
▁uod	-2637
aawit	-2638
agsik	-2639
akpan	-2640
alaan	-2641
amanh	-2642
arito	-2643
atnan	-2644
buhay	-2645
ungib	-2646
urong	-2647
yante	-2648
▁Bato	-2649
▁Iyan	-2650
▁JUAN	-2651
▁Niya	-2652
▁Pags	-2653
▁agos	-2654
▁asal	-2655
▁caca	-2656
▁igin	-2657
▁kuba	-2658
▁laya	-2659
▁nagw	-2660
▁puti	-2661
▁sawa	-2662
ANDIWA	-2663
agamot	-2664
alitan	-2665
apitan	-2666
ayaang	-2667
ukhang	-2668
usumpa	-2669
▁Buhat	-2670
▁ELENA	-2671
▁Galit	-2672
▁Karan	-2673
▁PABLO	-2674
▁PARUP	-2675
▁Panay	-2676
▁butil	-2677
▁halip	-2678
▁hamak	-2679
▁hangg	-2680
▁kapit	-2681
▁kinat	-2682
▁kumak	-2683
▁kumik	-2684
▁lamok	-2685
▁likas	-2686
▁makal	-2687
▁nangh	-2688
▁paksa	-2689
▁pilit	-2690
▁pinto	-2691
▁reyna	-2692
▁rosas	-2693
▁salaw	-2694
▁sinta	-2695
▁tatlo	-2696
▁utang	-2697
abilang	-2698
agaling	-2699
alakhak	-2700
alitaan	-2701
iligtas	-2702
iwayway	-2703
▁Bilang	-2704
▁Kinuha	-2705
▁Muling	-2706
▁Muslim	-2707
▁daliri	-2708
▁gawing	-2709
▁hirang	-2710
▁kulang	-2711
▁lusong	-2712
▁magsas	-2713
▁maitim	-2714
▁mandin	-2715
▁nagsas	-2716
▁paghih	-2717
▁suklay	-2718
▁yungib	-2719
ahulugan	-2720
apalaran	-2721
▁Biglang	-2722
▁Bugtong	-2723
▁Humadap	-2724
▁Mensahe	-2725
▁babaeng	-2726
▁hanapin	-2727
▁hinanap	-2728
▁iniibig	-2729
▁kalalak	-2730
▁labanan	-2731
▁lipunan	-2732
▁lumapit	-2733
▁maagang	-2734
▁masarap	-2735
▁matagal	-2736
▁ngayong	-2737
▁patayin	-2738
▁pumasok	-2739
▁sampung	-2740
▁sandata	-2741
▁Bulaklak	-2742
▁PARUPARO	-2743
▁binatang	-2744
▁libingan	-2745
▁magagawa	-2746
▁magbalik	-2747
▁pagiging	-2748
▁LAKANDIWA	-2749
▁kahulugan	-2750
▁kalagayan	-2751
▁karagatan	-2752
▁katangian	-2753
▁katapusan	-2754
▁mamamatay	-2755
▁sandaling	-2756
▁sasabihin	-2757
▁paghahanap	-2758
▁dambuhalang	-2759
!!	-2760
BU	-2761
ND	-2762
ho	-2763
le	-2764
ma	-2765
ue	-2766
BUY	-2767
Ito	-2768
agu	-2769
eba	-2770
ego	-2771
fin	-2772
hap	-2773
ote	-2774
tar	-2775
▁--	-2776
agaw	-2777
asik	-2778
awig	-2779
ayog	-2780
ener	-2781
ihag	-2782
imog	-2783
init	-2784
irin	-2785
itas	-2786
ones	-2787
ukal	-2788
ukoy	-2789
▁Ati	-2790
▁Gum	-2791
▁III	-2792
▁Ini	-2793
▁Kag	-2794
▁Kak	-2795
▁Nan	-2796
▁Ped	-2797
▁adh	-2798
▁aki	-2799
▁ari	-2800
▁dag	-2801
▁mai	-2802
▁naa	-2803
▁pad	-2804
▁pis	-2805
▁umu	-2806
BUYOG	-2807
aalam	-2808
ahagi	-2809
ahiya	-2810
aliit	-2811
asdan	-2812
iligo	-2813
inoon	-2814
irito	-2815
ulaan	-2816
umula	-2817
undan	-2818
▁Anak	-2819
▁Kayo	-2820
▁Lagi	-2821
▁Lawa	-2822
▁Lena	-2823
▁Pati	-2824
▁Tang	-2825
▁alon	-2826
▁bait	-2827
▁kaki	-2828
▁katw	-2829
▁lipi	-2830
▁panl	-2831
▁porm	-2832
▁ukol	-2833
▁unti	-2834
▁yaon	-2835
abango	-2836
atanaw	-2837
atanda	-2838
atawag	-2839
athala	-2840
atlong	-2841
ilikha	-2842
uluhan	-2843
▁Buwan	-2844
▁Dapat	-2845
▁Dulaw	-2846
▁Kundi	-2847
▁Lawin	-2848
▁Papay	-2849
▁Tipak	-2850
▁bakal	-2851
▁hapon	-2852
▁hilig	-2853
▁hiyas	-2854
▁kalin	-2855
▁kanin	-2856
▁kapat	-2857
▁pangh	-2858
▁sinus	-2859
▁tamis	-2860
▁tanda	-2861
▁tinut	-2862
▁umuwi	-2863
▁wagas	-2864
ahalaga	-2865
alaysay	-2866
alitong	-2867
ayundin	-2868
itingin	-2869
tanggol	-2870
ulugang	-2871
▁Ayonan	-2872
▁Delfin	-2873
▁gulang	-2874
▁halaga	-2875
▁kabila	-2876
▁kalang	-2877
▁magtat	-2878
▁mapang	-2879
▁nagdur	-2880
▁nagkak	-2881
▁nagkas	-2882
▁naroon	-2883
▁paglil	-2884
▁payapa	-2885
▁pulang	-2886
▁sagana	-2887
▁talaga	-2888
▁tatuan	-2889
aliwanag	-2890
anggapin	-2891
otohanan	-2892
▁BUBUYOG	-2893
▁Hinanap	-2894
▁dalisay	-2895
▁hahanap	-2896
▁lubhang	-2897
▁pagitan	-2898
▁pumunta	-2899
▁saknong	-2900
▁susunod	-2901
▁tawagin	-2902
amanhikan	-2903
▁ganitong	-2904
▁kalabasa	-2905
▁kapuluan	-2906
▁kilalang	-2907
▁larangan	-2908
▁marating	-2909
▁matalino	-2910
▁mayroong	-2911
▁paningin	-2912
▁salaysay	-2913
▁tuluyang	-2914
▁Tipaklong	-2915
▁kasalanan	-2916
▁kaugalian	-2917
▁matinding	-2918
▁nabubuhay	-2919
▁pormasyon	-2920
▁Calanutian	-2921
▁magkapatid	-2922
▁mahalagang	-2923
▁makarating	-2924
▁malalaking	-2925
▁naghahanap	-2926
▁nanggaling	-2927
▁Nagmalitong	-2928
▁kaligayahan	-2929
▁pananampalat	-2930
▁pinanggalingan	-2931
AM	-2932
At	-2933
Oo	-2934
bi	-2935
bo	-2936
oc	-2937
oh	-2938
pu	-2939
ri	-2940
ss	-2941
te	-2942
Ako	-2943
Mga	-2944
NDO	-2945
aha	-2946
goy	-2947
ikl	-2948
iko	-2949
ini	-2950
inl	-2951
kis	-2952
lor	-2953
pot	-2954
ugn	-2955
uny	-2956
▁If	-2957
▁us	-2958
agpo	-2959
ampa	-2960
asya	-2961
esto	-2962
haga	-2963
iang	-2964
igas	-2965
ilak	-2966
isda	-2967
ismo	-2968
kong	-2969
piko	-2970
tuwa	-2971
ugao	-2972
urin	-2973
▁Ahh	-2974
▁Bit	-2975
▁Bon	-2976
▁Dem	-2977
▁Gat	-2978
▁Int	-2979
▁Kar	-2980
▁Kul	-2981
▁Lim	-2982
▁Lus	-2983
▁Pas	-2984
▁bus	-2985
▁hah	-2986
▁lar	-2987
▁lay	-2988
▁mau	-2989
▁tik	-2990
Huwag	-2991
ababa	-2992
agpis	-2993
alaka	-2994
anaog	-2995
apaan	-2996
arili	-2997
dagat	-2998
itiis	-2999
iyego	-3000
lakad	-3001
uluto	-3002
▁Dala	-3003
▁INDO	-3004
▁Inil	-3005
▁Magk	-3006
▁Tila	-3007
▁Tiwi	-3008
▁Yawa	-3009
▁amin	-3010
▁bers	-3011
▁dali	-3012
▁guro	-3013
▁himp	-3014
▁irog	-3015
▁suso	-3016
alanta	-3017
alikat	-3018
angaso	-3019
ayawan	-3020
ibigin	-3021
inigay	-3022
tasyon	-3023
undong	-3024
▁Lakan	-3025
▁Minda	-3026
▁Ngayo	-3027
▁Pangk	-3028
▁Sipag	-3029
▁Tagak	-3030
▁Unang	-3031
▁bigla	-3032
▁bilog	-3033
▁binab	-3034
▁dadal	-3035
▁dahan	-3036
▁duwag	-3037
▁grupo	-3038
▁habag	-3039
▁hatol	-3040
▁ilong	-3041
▁kamag	-3042
▁lingg	-3043
▁pangg	-3044
▁pugad	-3045
▁putik	-3046
▁sangk	-3047
▁sapat	-3048
▁tugon	-3049
amangha	-3050
ibilang	-3051
intawak	-3052
oroonan	-3053
ubuksan	-3054
ulaklak	-3055
unawaan	-3056
undiman	-3057
▁Ifugao	-3058
▁Kaagad	-3059
▁Narito	-3060
▁Simula	-3061
▁Sultan	-3062
▁angkop	-3063
▁bumaba	-3064
▁dalita	-3065
▁ganyan	-3066
▁handog	-3067
▁hiling	-3068
▁isdang	-3069
▁kasing	-3070
▁kayang	-3071
▁kilala	-3072
▁kuweba	-3073
▁laking	-3074
▁maaari	-3075
▁magawa	-3076
▁makuha	-3077
▁nganga	-3078
▁pagkag	-3079
▁pagtut	-3080
▁perlas	-3081
▁pinagh	-3082
▁pitong	-3083
▁saglit	-3084
▁tuktok	-3085
▁tumubo	-3086
▁wikang	-3087
ahahahah	-3088
andangan	-3089
▁Griyego	-3090
▁Lumipas	-3091
▁bansang	-3092
▁bubuyog	-3093
▁dayuhan	-3094
▁humingi	-3095
▁madalas	-3096
▁mahusay	-3097
▁malamig	-3098
▁mutyang	-3099
▁nabuhay	-3100
▁patuloy	-3101
▁sumagot	-3102
▁tangkay	-3103
▁umakyat	-3104
ipaglaban	-3105
▁nakatira	-3106
▁nakilala	-3107
▁naroroon	-3108
▁alitaptap	-3109
▁kasiyahan	-3110
▁matatanda	-3111
▁nasiyahan	-3112
▁natutulog	-3113
▁pinagkaka	-3114
▁Gagalangin	-3115
▁Humadapnon	-3116
▁kapitbahay	-3117
▁karangalan	-3118
▁kasintahan	-3119
▁kayumanggi	-3120
▁Nalandangan	-3121
▁kalalakihan	-3122
▁kasalukuyan	-3123
▁pagdiriwang	-3124
▁pagkakaroon	-3125
ipagsapalaran	-3126
Ka	-3127
Ng	-3128
ru	-3129
Mab	-3130
Mag	-3131
abe	-3132
amt	-3133
are	-3134
eks	-3135
hel	-3136
iis	-3137
kep	-3138
liy	-3139
tay	-3140
unl	-3141
uta	-3142
wan	-3143
yas	-3144
▁El	-3145
▁Pl	-3146
▁Ul	-3147
▁la	-3148
▁pl	-3149
▁ub	-3150
abae	-3151
abik	-3152
ampo	-3153
atak	-3154
awad	-3155
awis	-3156
ayad	-3157
dali	-3158
ding	-3159
edur	-3160
enor	-3161
eter	-3162
ihip	-3163
ikap	-3164
inam	-3165
iwas	-3166
kita	-3167
ohol	-3168
seng	-3169
ugis	-3170
ulak	-3171
usin	-3172
▁Amb	-3173
▁Edo	-3174
▁Imp	-3175
▁Maa	-3176
▁Mam	-3177
▁Pad	-3178
▁Tab	-3179
▁Una	-3180
▁anu	-3181
▁las	-3182
▁lun	-3183
▁saw	-3184
▁tit	-3185
abong	-3186
adlaw	-3187
agdag	-3188
alake	-3189
anais	-3190
angat	-3191
arong	-3192
egalo	-3193
erpre	-3194
igpit	-3195
ikong	-3196
ipagk	-3197
iyaga	-3198
orneo	-3199
orong	-3200
palad	-3201
ubuan	-3202
▁Amom	-3203
▁Baka	-3204
▁Ikin	-3205
▁Lila	-3206
▁Magh	-3207
▁Magp	-3208
▁Mayo	-3209
▁Pers	-3210
▁Taga	-3211
▁ginh	-3212
▁huli	-3213
▁kaba	-3214
▁kand	-3215
▁kubo	-3216
▁lung	-3217
▁trad	-3218
▁yari	-3219
▁yata	-3220
aguita	-3221
ahamak	-3222
alamat	-3223
antang	-3224
antimp	-3225
aralan	-3226
ipunan	-3227
udulot	-3228
ulitin	-3229
▁Bawat	-3230
▁Bohol	-3231
▁Gansa	-3232
▁Hibik	-3233
▁Kaysa	-3234
▁Likal	-3235
▁Sinas	-3236
▁Tinig	-3237
▁Tulad	-3238
▁agong	-3239
▁balah	-3240
▁butas	-3241
▁daang	-3242
▁dalag	-3243
▁hapis	-3244
▁humah	-3245
▁kaban	-3246
▁kabig	-3247
▁kauna	-3248
▁kunin	-3249
▁lamig	-3250
▁lumul	-3251
▁mabub	-3252
▁matip	-3253
▁nakap	-3254
▁nasis	-3255
▁nasus	-3256
▁pinap	-3257
▁sayaw	-3258
▁simoy	-3259
▁sunog	-3260
▁tagap	-3261
▁talud	-3262
▁tamad	-3263
▁tangi	-3264
▁tulog	-3265
Lalapit	-3266
akasama	-3267
alagyan	-3268
alinong	-3269
alubong	-3270
antayan	-3271
araanan	-3272
babalik	-3273
ilingan	-3274
indanao	-3275
itingan	-3276
unahang	-3277
▁Bundok	-3278
▁Daldal	-3279
▁Ganyan	-3280
▁Laging	-3281
▁Palaka	-3282
▁Santos	-3283
▁Wikang	-3284
▁angkin	-3285
▁buntot	-3286
▁dakong	-3287
▁damong	-3288
▁gayong	-3289
▁himpap	-3290
▁isipan	-3291
▁kainin	-3292
▁lumbay	-3293
▁mawala	-3294
▁murang	-3295
▁naiiba	-3296
▁ngalan	-3297
▁pagtit	-3298
▁pinana	-3299
▁puntod	-3300
▁usapan	-3301
▁yamang	-3302
alimutan	-3303
▁Bubuyog	-3304
▁Daigdig	-3305
▁Demeter	-3306
▁Espanya	-3307
▁Mariang	-3308
▁Matapos	-3309
▁Pedrito	-3310
▁Sumagot	-3311
▁asawang	-3312
▁hininga	-3313
▁iibigin	-3314
▁inahing	-3315
▁kabiyak	-3316
▁kultura	-3317
▁kumilos	-3318
▁magmula	-3319
▁malimit	-3320
▁malinis	-3321
▁mananak	-3322
▁nalilim	-3323
▁namuhay	-3324
▁napatay	-3325
▁nawalan	-3326
▁palagay	-3327
▁palayok	-3328
▁patalim	-3329
▁pinggan	-3330
▁Amomongo	-3331
▁Kaibigan	-3332
▁Madaling	-3333
▁Makiling	-3334
▁Prinsesa	-3335
▁Soloista	-3336
▁bahaging	-3337
▁dalagita	-3338
▁kaalaman	-3339
▁kabataan	-3340
▁kaisipan	-3341
▁kariktan	-3342
▁kasamaan	-3343
▁makatang	-3344
▁mayamang	-3345
▁maysakit	-3346
▁nakatayo	-3347
▁pinagtat	-3348
▁Halimbawa	-3349
▁karapatan	-3350
▁maririnig	-3351
▁naglakbay	-3352
▁nagmumula	-3353
▁nagsalita	-3354
▁naririnig	-3355
▁tinanggap	-3356
angailangan	-3357
erpretasyon	-3358
▁Mitolohiya	-3359
▁Pilipinong	-3360
▁kalangitan	-3361
▁mangyayari	-3362
▁Kinabukasan	-3363
▁naghihintay	-3364
▁paghahangad	-3365
▁salamangkero	-3366
'-	-3367
di	-3368
ka	-3369
mm	-3370
no	-3371
ow	-3372
Mar	-3373
aas	-3374
dla	-3375
eho	-3376
eta	-3377
hal	-3378
haw	-3379
ibe	-3380
kad	-3381
lam	-3382
min	-3383
mos	-3384
tol	-3385
tor	-3386
uho	-3387
yaw	-3388
▁(1	-3389
▁(2	-3390
▁1.	-3391
▁2.	-3392
▁Or	-3393
▁oh	-3394
Magp	-3395
Solo	-3396
aani	-3397
abol	-3398
acio	-3399
agap	-3400
agit	-3401
ahih	-3402
anag	-3403
apap	-3404
asag	-3405
awal	-3406
esus	-3407
ikom	-3408
ilap	-3409
isid	-3410
isil	-3411
kepu	-3412
laro	-3413
lolo	-3414
taas	-3415
ubad	-3416
ubok	-3417
ugod	-3418
ugun	-3419
uhos	-3420
unao	-3421
unat	-3422
unay	-3423
unot	-3424
unpu	-3425
urog	-3426
▁Buy	-3427
▁Fil	-3428
▁Hag	-3429
▁Lis	-3430
▁Rog	-3431
▁Sam	-3432
▁huk	-3433
▁lal	-3434
▁mit	-3435
▁nau	-3436
▁pup	-3437
▁ser	-3438
▁tib	-3439
adali	-3440
akang	-3441
ampot	-3442
angit	-3443
apati	-3444
apong	-3445
ariwa	-3446
ayapa	-3447
bitin	-3448
buwan	-3449
embro	-3450
ganda	-3451
igkas	-3452
iglap	-3453
iikan	-3454
ingit	-3455
risto	-3456
sabay	-3457
salin	-3458
tanim	-3459
ulila	-3460
uotan	-3461
▁Alam	-3462
▁Duri	-3463
▁Edna	-3464
▁Muli	-3465
▁Naku	-3466
▁Nana	-3467
▁Pabl	-3468
▁Pero	-3469
▁Wika	-3470
▁ahas	-3471
▁alak	-3472
▁bitu	-3473
▁bril	-3474
▁dami	-3475
▁dila	-3476
▁gayo	-3477
▁mait	-3478
▁mala	-3479
▁pari	-3480
▁pina	-3481
▁taas	-3482
▁tala	-3483
▁tama	-3484
abihan	-3485
amalas	-3486
arinig	-3487
atawat	-3488
awagan	-3489
awanan	-3490
awitan	-3491
edurug	-3492
ikling	-3493
ilagay	-3494
indaya	-3495
ingwit	-3496
inhawa	-3497
isigaw	-3498
iwatig	-3499
piritu	-3500
rabaho	-3501
ubusan	-3502
umanon	-3503
▁Bahay	-3504
▁Banal	-3505
▁Datap	-3506
▁Iyang	-3507
▁Lakas	-3508
▁Nakat	-3509
▁Pluto	-3510
▁Salaw	-3511
▁Tiyak	-3512
▁Tubig	-3513
▁akala	-3514
▁aklat	-3515
▁altar	-3516
▁bakas	-3517
▁bulag	-3518
▁daing	-3519
▁diyan	-3520
▁gamot	-3521
▁ibaba	-3522
▁kakay	-3523
▁kanan	-3524
▁kodla	-3525
▁ligaw	-3526
▁mahih	-3527
▁manan	-3528
▁mangh	-3529
▁masak	-3530
▁munti	-3531
▁nagka	-3532
▁nakad	-3533
▁namim	-3534
▁pista	-3535
▁punta	-3536
▁sigla	-3537
▁tapos	-3538
Epikong	-3539
aganaan	-3540
alagtas	-3541
alooban	-3542
apangan	-3543
ayapaan	-3544
imulang	-3545
intuang	-3546
ustuhan	-3547
yayahan	-3548
▁Andres	-3549
▁Anggoy	-3550
▁Bayang	-3551
▁Binata	-3552
▁Borneo	-3553
▁Ingles	-3554
▁Kasama	-3555
▁Ladlaw	-3556
▁Lisuga	-3557
▁Masaya	-3558
▁Nitong	-3559
▁Rosita	-3560
▁Tuwang	-3561
▁anuman	-3562
▁anyong	-3563
▁bangin	-3564
▁buwang	-3565
▁dalang	-3566
▁diwang	-3567
▁katalo	-3568
▁kidlat	-3569
▁kitang	-3570
▁magmam	-3571
▁maputi	-3572
▁nagbub	-3573
▁pansin	-3574
▁pinagl	-3575
▁pinagp	-3576
▁pinang	-3577
▁pinsan	-3578
▁tumayo	-3579
arusahan	-3580
istulang	-3581
kanilang	-3582
▁Hayaang	-3583
▁Libulan	-3584
▁Lumapit	-3585
▁Matagal	-3586
▁Minango	-3587
▁Nalaman	-3588
▁Sumunod	-3589
▁Tanging	-3590
▁Tingnan	-3591
▁balikat	-3592
▁bayabas	-3593
▁gantimp	-3594
▁handang	-3595
▁kasangk	-3596
▁kasipag	-3597
▁larawan	-3598
▁likuran	-3599
▁maliban	-3600
▁malinaw	-3601
▁marapat	-3602
▁marikit	-3603
▁matatag	-3604
▁matibay	-3605
▁nagalit	-3606
▁nakaupo	-3607
▁pagsuyo	-3608
▁pangako	-3609
▁pupunta	-3610
▁salamin	-3611
▁talulot	-3612
▁tauhang	-3613
▁umaawit	-3614
▁wastong	-3615
aniniwala	-3616
▁Naggayak	-3617
▁Naririto	-3618
▁Tinagong	-3619
▁gagawing	-3620
▁giniikan	-3621
▁gumagawa	-3622
▁kaunting	-3623
▁kulungan	-3624
▁mahalaga	-3625
▁masagana	-3626
▁naghanda	-3627
▁nagpapak	-3628
▁pamumuno	-3629
▁patnubay	-3630
▁tahanang	-3631
▁tinanong	-3632
apaliwanag	-3633
sengedurug	-3634
▁Alitaptap	-3635
▁Palibhasa	-3636
▁Panginoon	-3637
▁edukasyon	-3638
▁hahanapin	-3639
▁halamanan	-3640
▁karamihan	-3641
▁nakatulog	-3642
▁nalalaman	-3643
▁pagbabago	-3644
▁sinaunang	-3645
▁sumusunod	-3646
▁Pangumanon	-3647
▁engkantado	-3648
▁hinahangad	-3649
▁kahilingan	-3650
▁katangiang	-3651
▁matatapang	-3652
▁naniniwala	-3653
▁pinanaugan	-3654
▁Likalibutan	-3655
▁katotohanan	-3656
▁manggagamot	-3657
▁pagtatanghal	-3658
▁nagngangalang	-3659
▁pinakamalaking	-3660
Di	-3661
IT	-3662
LI	-3663
ao	-3664
ee	-3665
th	-3666
Kas	-3667
Mal	-3668
May	-3669
aak	-3670
ade	-3671
agm	-3672
bag	-3673
est	-3674
eus	-3675
hoy	-3676
igi	-3677
ium	-3678
lag	-3679
rum	-3680
ter	-3681
tim	-3682
yos	-3683
yth	-3684
▁Hu	-3685
▁Oo	-3686
▁dr	-3687
▁es	-3688
▁et	-3689
▁le	-3690
▁oo	-3691
Wala	-3692
aari	-3693
aboy	-3694
ahol	-3695
akat	-3696
alot	-3697
amag	-3698
asid	-3699
atag	-3700
ente	-3701
ibis	-3702
ibol	-3703
ight	-3704
ihas	-3705
ilas	-3706
inog	-3707
ipot	-3708
itag	-3709
loob	-3710
mula	-3711
nila	-3712
ogan	-3713
potl	-3714
sama	-3715
song	-3716
ubha	-3717
uhit	-3718
ukob	-3719
▁Bik	-3720
▁Her	-3721
▁Hil	-3722
▁Iba	-3723
▁Ika	-3724
▁Nil	-3725
▁Niy	-3726
▁Pam	-3727
▁Pap	-3728
▁Pul	-3729
▁Sic	-3730
▁Sig	-3731
▁Tal	-3732
▁Yao	-3733
▁bis	-3734
▁bub	-3735
▁dar	-3736
▁haw	-3737
▁hih	-3738
▁inu	-3739
▁kur	-3740
▁lig	-3741
▁miy	-3742
▁pir	-3743
▁sah	-3744
▁sug	-3745
aayos	-3746
abula	-3747
adaan	-3748
akong	-3749
aligt	-3750
alogo	-3751
amana	-3752
ambit	-3753
anang	-3754
angga	-3755
apaap	-3756
dapat	-3757
indak	-3758
isisi	-3759
liyaw	-3760
tamis	-3761
uhing	-3762
uksan	-3763
umano	-3764
undag	-3765
unsod	-3766
unuan	-3767
utong	-3768
yakap	-3769
▁Agio	-3770
▁Alin	-3771
▁Apol	-3772
▁Ayaw	-3773
▁Dali	-3774
▁Hand	-3775
▁Ibin	-3776
▁Kina	-3777
▁Luis	-3778
▁Lupa	-3779
▁Sand	-3780
▁abot	-3781
▁ayos	-3782
▁bala	-3783
▁daga	-3784
▁iisa	-3785
▁inam	-3786
▁iwan	-3787
▁kons	-3788
▁mamb	-3789
▁nagn	-3790
▁nuon	-3791
▁pula	-3792
▁sapa	-3793
▁saya	-3794
▁sulo	-3795
▁sump	-3796
▁ulam	-3797
▁ulit	-3798
alaban	-3799
alipin	-3800
angako	-3801
awarin	-3802
ensiya	-3803
hatian	-3804
ifacio	-3805
ikasan	-3806
ilitaw	-3807
inggin	-3808
inggit	-3809
ngkong	-3810
saring	-3811
tangan	-3812
uksang	-3813
uwento	-3814
▁Akong	-3815
▁Atlas	-3816
▁Banna	-3817
▁Binig	-3818
▁Bulan	-3819
▁Gayun	-3820
▁Kalig	-3821
▁Makat	-3822
▁Napag	-3823
▁Napak	-3824
▁Pinat	-3825
▁Talis	-3826
▁Tenor	-3827
▁Timog	-3828
▁alaga	-3829
▁bahag	-3830
▁batid	-3831
▁batok	-3832
▁bigay	-3833
▁binti	-3834
▁bukal	-3835
▁bumab	-3836
▁dampa	-3837
▁dumad	-3838
▁hinah	-3839
▁hinih	-3840
▁hubad	-3841
▁iglap	-3842
▁kapar	-3843
▁katuw	-3844
▁kulog	-3845
▁lipad	-3846
▁maaga	-3847
▁madla	-3848
▁masus	-3849
▁matin	-3850
▁mithi	-3851
▁nalal	-3852
▁pakay	-3853
▁panib	-3854
▁papel	-3855
▁pinam	-3856
▁pugon	-3857
▁sanda	-3858
▁sanhi	-3859
▁sarap	-3860
▁sinag	-3861
▁sisiw	-3862
▁sumpa	-3863
▁takip	-3864
▁tuwid	-3865
aganang	-3866
agsikan	-3867
ahandog	-3868
aligaya	-3869
aliksik	-3870
alimbag	-3871
amtaman	-3872
angkang	-3873
bitinan	-3874
ibigyan	-3875
ilalang	-3876
ilitang	-3877
intulot	-3878
nanakaw	-3879
ugnayan	-3880
uklasan	-3881
uturing	-3882
▁Abyang	-3883
▁Batooy	-3884
▁Buyung	-3885
▁Diyosa	-3886
▁Dunong	-3887
▁Ibigin	-3888
▁Langit	-3889
▁Nasaan	-3890
▁adhika	-3891
▁bigyan	-3892
▁buksan	-3893
▁dalhin	-3894
▁dugong	-3895
▁gising	-3896
▁ibigay	-3897
▁kaliwa	-3898
▁kawili	-3899
▁kusang	-3900
▁lumang	-3901
▁lungga	-3902
▁maayos	-3903
▁magpak	-3904
▁naglil	-3905
▁naisip	-3906
▁niyong	-3907
▁paanan	-3908
▁pagsus	-3909
▁patung	-3910
▁pinags	-3911
▁tahana	-3912
▁talang	-3913
▁talino	-3914
▁tangan	-3915
▁umibig	-3916
▁umiyak	-3917
ahimikan	-3918
akasakit	-3919
aligiran	-3920
amatayan	-3921
amdaming	-3922
ampangan	-3923
angkilik	-3924
itingala	-3925
itingnan	-3926
potlight	-3927
ungkulan	-3928
▁Lalabas	-3929
▁Matulog	-3930
▁Maynila	-3931
▁Mayroon	-3932
▁Salamat	-3933
▁Tatlong	-3934
▁babalik	-3935
▁bandila	-3936
▁binubuo	-3937
▁gagamit	-3938
▁ginhawa	-3939
▁gustong	-3940
▁hakbang	-3941
▁halimaw	-3942
▁itataas	-3943
▁kapalit	-3944
▁kasabay	-3945
▁lumikha	-3946
▁magsisi	-3947
▁maingat	-3948
▁mapalad	-3949
▁maunlad	-3950
▁nangung	-3951
▁salamat	-3952
▁sumakay	-3953
▁sumisid	-3954
▁supling	-3955
▁tingnan	-3956
▁tuluyan	-3957
▁tumanda	-3958
▁umagang	-3959
agpatuloy	-3960
anyayahan	-3961
asalubong	-3962
▁Alindaya	-3963
▁Dulliyaw	-3964
▁Inutusan	-3965
▁Nagtungo	-3966
▁Napansin	-3967
▁Talisain	-3968
▁Tulungan	-3969
▁bersiyon	-3970
▁bibigkas	-3971
▁bumagsak	-3972
▁dingding	-3973
▁hiniling	-3974
▁ibibigay	-3975
▁kampupot	-3976
▁katwiran	-3977
▁kinakain	-3978
▁kundiman	-3979
▁mabigyan	-3980
▁magalang	-3981
▁magdamag	-3982
▁mahigpit	-3983
▁mangmang	-3984
▁mangyari	-3985
▁masining	-3986
▁miyembro	-3987
▁pagkaing	-3988
▁pagkakas	-3989
▁pagpapak	-3990
▁silangan	-3991
▁sinumang	-3992
▁tagumpay	-3993
▁Bonifacio	-3994
▁Nalungkot	-3995
▁brilyante	-3996
▁kakaibang	-3997
▁kapatagan	-3998
▁karaniwan	-3999
▁kasayahan	-4000
▁kasipagan	-4001
▁nanirahan	-4002
▁paglingap	-4003
▁papalapit	-4004
itolohiyang	-4005
▁Balintawak	-4006
▁Isinusumpa	-4007
▁Salawikain	-4008
▁binibigkas	-4009
▁engkantada	-4010
▁gantimpala	-4011
▁ginintuang	-4012
▁himagsikan	-4013
▁himpapawid	-4014
▁kabalagtas	-4015
▁kagitingan	-4016
▁kapayapaan	-4017
▁kasaganaan	-4018
▁katapangan	-4019
▁masaganang	-4020
▁naglalakad	-4021
▁nagpatuloy	-4022
▁nangyayari	-4023
▁pagtatanim	-4024
▁pinuntahan	-4025
▁salawikain	-4026
▁Samantalang	-4027
▁kahalagahan	-4028
▁katahimikan	-4029
▁magkabilang	-4030
▁magkaibigan	-4031
▁matatandang	-4032
▁paglalarawan	-4033
▁pangyayaring	-4034
▁napakagandang	-4035
▁pagsasalaysay	-4036
▁makapangyarihan	-4037
AG	-4038
It	-4039
Pa	-4040
gl	-4041
▁:	-4042
Ina	-4043
PIT	-4044
can	-4045
dar	-4046
ela	-4047
elo	-4048
eto	-4049
gon	-4050
igo	-4051
ipi	-4052
ipo	-4053
kaw	-4054
mag	-4055
ngi	-4056
oby	-4057
pat	-4058
rom	-4059
rop	-4060
ruz	-4061
sil	-4062
tao	-4063
tot	-4064
uya	-4065
wis	-4066
yag	-4067
▁Fr	-4068
▁La	-4069
▁Uv	-4070
▁am	-4071
▁iw	-4072
▁kw	-4073
agis	-4074
agon	-4075
agos	-4076
akap	-4077
apad	-4078
awng	-4079
buan	-4080
daan	-4081
dala	-4082
idad	-4083
ikas	-4084
illa	-4085
ipat	-4086
iyab	-4087
iyus	-4088
king	-4089
laki	-4090
oron	-4091
rade	-4092
ramo	-4093
rist	-4094
roso	-4095
ulid	-4096
umin	-4097
unaw	-4098
upil	-4099
ural	-4100
usob	-4101
usta	-4102
utya	-4103
wari	-4104
wili	-4105
▁Ale	-4106
▁Jat	-4107
▁Kem	-4108
▁Sag	-4109
▁Tik	-4110
▁bug	-4111
▁dah	-4112
▁hag	-4113
▁hik	-4114
▁ind	-4115
▁ing	-4116
▁ins	-4117
▁lab	-4118
▁puw	-4119
▁win	-4120
PITAN	-4121
aalay	-4122
aguan	-4123
alagi	-4124
alima	-4125
andan	-4126
anggo	-4127
angin	-4128
bayad	-4129
bayat	-4130
daang	-4131
dahan	-4132
edium	-4133
embre	-4134
ibili	-4135
iglig	-4136
imlan	-4137
itlog	-4138
iwant	-4139
kapal	-4140
strum	-4141
ubali	-4142
ubing	-4143
ubund	-4144
ugnay	-4145
uhuli	-4146
ukang	-4147
uming	-4148
ungit	-4149
unian	-4150
uusap	-4151
uyuan	-4152
uyuko	-4153
wayen	-4154
westo	-4155
▁Ahhh	-4156
▁Awit	-4157
▁Dula	-4158
▁Flor	-4159
▁Gabi	-4160
▁Iyon	-4161
▁Pagt	-4162
▁Rita	-4163
▁Ulan	-4164
▁Uwak	-4165
▁alag	-4166
▁alay	-4167
▁band	-4168
▁biro	-4169
▁diin	-4170
▁dili	-4171
▁huni	-4172
▁idin	-4173
▁ipak	-4174
▁karn	-4175
▁mapa	-4176
▁pako	-4177
▁poot	-4178
▁pusp	-4179
▁sanl	-4180
▁taos	-4181
▁ubod	-4182
agalan	-4183
aganap	-4184
agutan	-4185
ahanga	-4186
ahanin	-4187
ahatid	-4188
akutan	-4189
alayag	-4190
alinga	-4191
asinan	-4192
awakas	-4193
awngaw	-4194
emonya	-4195
endeng	-4196
halang	-4197
ibuhin	-4198
ikilos	-4199
ilihan	-4200
imulan	-4201
ipitas	-4202
isyong	-4203
otoong	-4204
salita	-4205
ubukas	-4206
ubukin	-4207
ugutom	-4208
ukiran	-4209
ulutan	-4210
▁Bagyo	-4211
▁Bangk	-4212
▁Doron	-4213
▁Huwan	-4214
▁Ilian	-4215
▁Naawa	-4216
▁Sangk	-4217
▁Wigan	-4218
▁balit	-4219
▁batas	-4220
▁bilin	-4221
▁bilis	-4222
▁braso	-4223
▁bumub	-4224
▁busog	-4225
▁gatas	-4226
▁ginag	-4227
▁hugis	-4228
▁kalul	-4229
▁kaunl	-4230
▁kinar	-4231
▁likha	-4232
▁magig	-4233
▁makag	-4234
▁makap	-4235
▁malam	-4236
▁mapat	-4237
▁mapup	-4238
▁nalag	-4239
▁nasas	-4240
▁natit	-4241
▁nguni	-4242
▁nilil	-4243
▁palam	-4244
▁pamim	-4245
▁papag	-4246
▁pinat	-4247
▁pipit	-4248
▁sadya	-4249
▁sahig	-4250
▁salat	-4251
▁sinis	-4252
▁sugat	-4253
▁sulok	-4254
▁tabak	-4255
▁tagpo	-4256
▁tigil	-4257
▁tiyan	-4258
▁tuhod	-4259
agalang	-4260
agdagan	-4261
ansones	-4262
higanti	-4263
hininga	-4264
iibigan	-4265
ikilala	-4266
isilang	-4267
uhunang	-4268
▁Bituin	-4269
▁Dinala	-4270
▁Halika	-4271
▁Kumuha	-4272
▁Ligaya	-4273
▁Maliit	-4274
▁Mangga	-4275
▁Nawala	-4276
▁Punong	-4277
▁Pusong	-4278
▁Puting	-4279
▁Siyang	-4280
▁Uvigan	-4281
▁Yamang	-4282
▁alagad	-4283
▁alamin	-4284
▁amihan	-4285
▁baybay	-4286
▁bigkas	-4287
▁butong	-4288
▁dragon	-4289
▁kabata	-4290
▁kinaka	-4291
▁lalake	-4292
▁madali	-4293
▁mahina	-4294
▁mainit	-4295
▁makain	-4296
▁mangga	-4297
▁mapagm	-4298
▁minana	-4299
▁nagpat	-4300
▁nagsus	-4301
▁naiwan	-4302
▁nanaog	-4303
▁narito	-4304
▁palang	-4305
▁pantay	-4306
▁pisngi	-4307
▁rarang	-4308
▁sining	-4309
▁taghoy	-4310
▁taguan	-4311
▁tamang	-4312
▁tinang	-4313
ahiwatig	-4314
alahanin	-4315
angkahoy	-4316
▁Babalik	-4317
▁Ingkong	-4318
▁Jatakas	-4319
▁KAPITAN	-4320
▁Lumakad	-4321
▁Marahil	-4322
▁Maranao	-4323
▁Matsing	-4324
▁Nakapag	-4325
▁Nalbuan	-4326
▁Namatay	-4327
▁Panahon	-4328
▁Pandora	-4329
▁Pangkas	-4330
▁Pinakam	-4331
▁Pinilit	-4332
▁Tinungo	-4333
▁aliping	-4334
▁bilangg	-4335
▁bunsong	-4336
▁gaanong	-4337
▁harapan	-4338
▁huminga	-4339
▁ibabang	-4340
▁iligtas	-4341
▁kahapon	-4342
▁kalakal	-4343
▁kalapit	-4344
▁karapat	-4345
▁kukunin	-4346
▁kumalat	-4347
▁lalapit	-4348
▁layunin	-4349
▁malupit	-4350
▁mamahal	-4351
▁minsang	-4352
▁nagdaan	-4353
▁nagsabi	-4354
▁nalaman	-4355
▁nanging	-4356
▁natakot	-4357
▁pahayag	-4358
▁panulat	-4359
▁pasakit	-4360
▁pinatay	-4361
▁sangkap	-4362
▁sumapit	-4363
▁sumikat	-4364
▁torogan	-4365
▁umunlad	-4366
ahulugang	-4367
▁Binigyan	-4368
▁Handiong	-4369
▁Kayganda	-4370
▁Kembayat	-4371
▁Maaaring	-4372
▁Magbitag	-4373
▁Magwayen	-4374
▁Nagpunta	-4375
▁Nalimbag	-4376
▁Persiyus	-4377
▁Sinapati	-4378
▁balitang	-4379
▁dadalhin	-4380
▁gayundin	-4381
▁ginawang	-4382
▁ibinigay	-4383
▁ikatlong	-4384
▁kalahati	-4385
▁kasamang	-4386
▁kuliglig	-4387
▁lipunang	-4388
▁mabisang	-4389
▁magbigay	-4390
▁makakain	-4391
▁marangal	-4392
▁mawawala	-4393
▁mayabang	-4394
▁pabulang	-4395
▁paggamit	-4396
▁paggiliw	-4397
▁paghanga	-4398
▁paglakad	-4399
▁pagsinta	-4400
▁sabayang	-4401
▁sariwang	-4402
▁taludtod	-4403
▁tanghali	-4404
▁Kamatayan	-4405
▁Magandang	-4406
▁Makatunao	-4407
▁Malungkot	-4408
▁Nagkaroon	-4409
▁Tenoriong	-4410
▁damdaming	-4411
▁halimuyak	-4412
▁isinilang	-4413
▁kabutihan	-4414
▁kahirapan	-4415
▁kalikasan	-4416
▁kamahalan	-4417
▁kasabikan	-4418
▁kaugnayan	-4419
▁magaganda	-4420
▁magsasaka	-4421
▁mahimbing	-4422
▁malalakas	-4423
▁maliwanag	-4424
▁naglahong	-4425
▁nagtanong	-4426
▁nakaharap	-4427
▁pamayanan	-4428
▁spotlight	-4429
▁tanggapin	-4430
▁tumanggap	-4431
▁Ginbitinan	-4432
▁Kaligirang	-4433
▁Pangasinan	-4434
▁kabutihang	-4435
▁magnanakaw	-4436
▁magpakasal	-4437
▁maningning	-4438
▁masasamang	-4439
▁nagpasalin	-4440
▁pagbabalik	-4441
▁paglalaban	-4442
▁pagsintang	-4443
▁pamamaraan	-4444
▁balahibuhin	-4445
▁kasangkapan	-4446
▁magkakaroon	-4447
▁maglalakbay	-4448
▁mangingisda	-4449
▁nagdiriwang	-4450
▁naghahangad	-4451
▁pagbabagong	-4452
▁pangungusap	-4453
▁kasalukuyang	-4454
▁kinaroroonan	-4455
▁mangyayaring	-4456
▁pagkakataong	-4457
▁magkasintahan	-4458
▁Interpretasyon	-4459
▁Pangkasaysayan	-4460
▁nagpapaliwanag	-4461
▁pananampalataya	-4462
Ia	-4463
Ul	-4464
av	-4465
bl	-4466
ch	-4467
de	-4468
Mat	-4469
bgl	-4470
dim	-4471
eda	-4472
egh	-4473
iga	-4474
ihi	-4475
ima	-4476
ion	-4477
lon	-4478
mal	-4479
mat	-4480
ope	-4481
sob	-4482
tak	-4483
ton	-4484
umi	-4485
▁Em	-4486
▁SI	-4487
▁Te	-4488
▁uw	-4489
AMAN	-4490
Iyan	-4491
Saan	-4492
abos	-4493
akda	-4494
aloy	-4495
amak	-4496
amao	-4497
anto	-4498
aram	-4499
ariw	-4500
atal	-4501
atin	-4502
atlo	-4503
bata	-4504
bers	-4505
elih	-4506
esta	-4507
gabi	-4508
hhhh	-4509
ibot	-4510
ilat	-4511
ilio	-4512
impa	-4513
irit	-4514
isap	-4515
isit	-4516
kaya	-4517
mong	-4518
oras	-4519
paro	-4520
puno	-4521
tama	-4522
taon	-4523
uban	-4524
ugay	-4525
ukad	-4526
ukaw	-4527
ukay	-4528
ular	-4529
umpo	-4530
usot	-4531
utak	-4532
utla	-4533
utop	-4534
uwat	-4535
uway	-4536
uyas	-4537
uyin	-4538
▁Aba	-4539
▁Apo	-4540
▁Bub	-4541
▁Buh	-4542
▁Hah	-4543
▁Has	-4544
▁Hes	-4545
▁Map	-4546
▁Nai	-4547
▁Rom	-4548
▁Sas	-4549
▁Sus	-4550
▁aan	-4551
▁abo	-4552
▁and	-4553
▁dat	-4554
▁day	-4555
▁dos	-4556
▁etn	-4557
▁huw	-4558
▁mum	-4559
▁tap	-4560
▁tur	-4561
▁uli	-4562
Babae	-4563
Diyos	-4564
Epiko	-4565
abato	-4566
abola	-4567
adong	-4568
ahuli	-4569
akala	-4570
akand	-4571
ambot	-4572
among	-4573
angad	-4574
anubo	-4575
aping	-4576
arama	-4577
areal	-4578
arusa	-4579
atiin	-4580
awiin	-4581
ayain	-4582
ayuan	-4583
esang	-4584
handa	-4585
idlip	-4586
ihasa	-4587
ikaan	-4588
ilaan	-4589
imdim	-4590
ingas	-4591
inlok	-4592
intik	-4593
ipang	-4594
iwika	-4595
lipad	-4596
nilay	-4597
palit	-4598
saing	-4599
uezon	-4600
ukuha	-4601
umbas	-4602
unton	-4603
upaan	-4604
uwing	-4605
yagan	-4606
▁Bumb	-4607
▁Cora	-4608
▁Cruz	-4609
▁Gaya	-4610
▁Herm	-4611
▁Kami	-4612
▁Kamp	-4613
▁Lahi	-4614
▁Lalo	-4615
▁Lope	-4616
▁Magt	-4617
▁Mong	-4618
▁Naka	-4619
▁Paib	-4620
▁Puno	-4621
▁Puso	-4622
▁Sabi	-4623
▁Sina	-4624
▁Unti	-4625
▁akda	-4626
▁bida	-4627
▁bote	-4628
▁buti	-4629
▁dagl	-4630
▁edad	-4631
▁emos	-4632
▁hits	-4633
▁hiya	-4634
▁igat	-4635
▁iyak	-4636
▁kabu	-4637
▁kayl	-4638
▁kusa	-4639
▁leeg	-4640
▁luma	-4641
▁mali	-4642
▁nami	-4643
▁pain	-4644
▁pait	-4645
▁paru	-4646
▁pera	-4647
▁sist	-4648
▁suot	-4649
▁tadh	-4650
▁tawa	-4651
▁tugt	-4652
▁unos	-4653
Alamat	-4654
Ngayon	-4655
Ulitin	-4656
aalala	-4657
aantay	-4658
aasawa	-4659
abasag	-4660
adyang	-4661
agatin	-4662
ahamok	-4663
akbong	-4664
alahad	-4665
alipas	-4666
angkat	-4667
angkin	-4668
angkop	-4669
asakay	-4670
awalan	-4671
ayaran	-4672
daling	-4673
eghorn	-4674
igipit	-4675
ikayat	-4676
ilipat	-4677
ilitan	-4678
inting	-4679
irikit	-4680
iyakap	-4681
langan	-4682
masdan	-4683
onggon	-4684
oyagan	-4685
pantay	-4686
raming	-4687
samang	-4688
tataka	-4689
ugugol	-4690
untian	-4691
untong	-4692
upitan	-4693
utyang	-4694
uugali	-4695
▁Akala	-4696
▁Baran	-4697
▁Batid	-4698
▁Bukid	-4699
▁Bukod	-4700
▁Buong	-4701
▁Higit	-4702
▁Iyong	-4703
▁Jesus	-4704
▁Lalap	-4705
▁Natat	-4706
▁Natut	-4707
▁Nguni	-4708
▁Patay	-4709
▁Samar	-4710
▁Siyam	-4711
▁Tunay	-4712
▁aalis	-4713
▁alang	-4714
▁along	-4715
▁bigat	-4716
▁binhi	-4717
▁binib	-4718
▁bungo	-4719
▁daloy	-4720
▁duhat	-4721
▁gulat	-4722
▁hangi	-4723
▁hawla	-4724
▁hener	-4725
▁himig	-4726
▁inaas	-4727
▁ingat	-4728
▁kaisa	-4729
▁kalan	-4730
▁kamao	-4731
▁kanal	-4732
▁karne	-4733
▁lason	-4734
▁lawin	-4735
▁luwal	-4736
▁mahuh	-4737
▁malul	-4738
▁mayay	-4739
▁minsa	-4740
▁mutya	-4741
▁napan	-4742
▁narar	-4743
▁niyog	-4744
▁papay	-4745
▁patut	-4746
▁pauwi	-4747
▁pawis	-4748
▁payat	-4749
▁pinab	-4750
▁pinup	-4751
▁tagal	-4752
▁taluk	-4753
▁tatak	-4754
▁tibay	-4755
▁tinal	-4756
▁tungo	-4757
▁ulang	-4758
▁ulila	-4759
Lalabas	-4760
Salamat	-4761
Uulitin	-4762
akamtan	-4763
akbuhan	-4764
anganib	-4765
arungan	-4766
atayuan	-4767
atiling	-4768
atingin	-4769
hikayat	-4770
iyahang	-4771
unggali	-4772
unguhan	-4773
▁Hasmin	-4774
▁Kayong	-4775
▁Malaki	-4776
▁Malaya	-4777
▁Naisip	-4778
▁Natuwa	-4779
▁Paalam	-4780
▁Pantay	-4781
▁Rogong	-4782
▁Taglay	-4783
▁Tumayo	-4784
▁Yaring	-4785
▁bagang	-4786
▁bubong	-4787
▁bughaw	-4788
▁dahong	-4789
▁ikinab	-4790
▁kaakit	-4791
▁kabibe	-4792
▁kaming	-4793
▁kampon	-4794
▁kanang	-4795
▁kinain	-4796
▁kislap	-4797
▁kumuha	-4798
▁laruan	-4799
▁libong	-4800
▁magtot	-4801
▁mailap	-4802
▁mapagk	-4803
▁masdan	-4804
▁misyon	-4805
▁naghih	-4806
▁nagpup	-4807
▁nasang	-4808
▁paalam	-4809
▁pagbib	-4810
▁paghah	-4811
▁pagkah	-4812
▁pagkal	-4813
▁pagkas	-4814
▁pagnan	-4815
▁pagpup	-4816
▁pataas	-4817
▁patpat	-4818
▁piging	-4819
▁pinagb	-4820
▁pinaka	-4821
▁puring	-4822
▁regalo	-4823
▁sumama	-4824
▁sundin	-4825
▁tanang	-4826
▁tugtog	-4827
▁tulain	-4828
▁turuan	-4829
▁utusan	-4830
........	-4831
alarawan	-4832
liwayway	-4833
mamalaki	-4834
▁Bandila	-4835
▁Corazon	-4836
▁Epikong	-4837
▁Filipin	-4838
▁Hagibis	-4839
▁Katulad	-4840
▁Kawayan	-4841
▁Liwanag	-4842
▁Lumatay	-4843
▁Lumikha	-4844
▁Madalas	-4845
▁Paganay	-4846
▁Pumayag	-4847
▁Sapagka	-4848
▁Tumawag	-4849
▁balaraw	-4850
▁bintana	-4851
▁busilak	-4852
▁emosyon	-4853
▁ganyang	-4854
▁hawakan	-4855
▁ibababa	-4856
▁igalang	-4857
▁inaasam	-4858
▁instrum	-4859
▁ipinagk	-4860
▁itinuro	-4861
▁kabihas	-4862
▁kamalig	-4863
▁kapitan	-4864
▁lalabas	-4865
▁limutin	-4866
▁lupaing	-4867
▁mababaw	-4868
▁madlang	-4869
▁magluto	-4870
▁magsabi	-4871
▁mahalin	-4872
▁mahulog	-4873
▁malawak	-4874
▁malubha	-4875
▁mamunga	-4876
▁marupok	-4877
▁matikas	-4878
▁naganap	-4879
▁nangags	-4880
▁pagpili	-4881
▁pakasal	-4882
▁pananaw	-4883
▁puhunan	-4884
▁pumayag	-4885
▁sultana	-4886
▁sumigaw	-4887
▁tadhana	-4888
▁takdang	-4889
▁tinapay	-4890
▁umiibig	-4891
▁umiiyak	-4892
▁watawat	-4893
ahalagang	-4894
alinghaga	-4895
iwantiwan	-4896
▁Balagtas	-4897
▁Bumbaran	-4898
▁Magulang	-4899
▁Masayang	-4900
▁Masinlok	-4901
▁Maykapal	-4902
▁Mayroong	-4903
▁Nagising	-4904
▁Narating	-4905
▁Parabula	-4906
▁Sabayang	-4907
▁Sampalok	-4908
▁dosenang	-4909
▁gunitain	-4910
▁ikinasal	-4911
▁inilagay	-4912
▁kadakila	-4913
▁karimlan	-4914
▁kasuotan	-4915
▁katulong	-4916
▁kawawang	-4917
▁kawayang	-4918
▁lansones	-4919
▁mabangis	-4920
▁magarang	-4921
▁magising	-4922
▁magmahal	-4923
▁malalaki	-4924
▁mamasyal	-4925
▁manggang	-4926
▁manugang	-4927
▁matuling	-4928
▁nahuhuli	-4929
▁naliligo	-4930
▁natutong	-4931
▁pagkakah	-4932
▁pagkakal	-4933
▁pagkakat	-4934
▁palakpak	-4935
▁palamuti	-4936
▁pantalon	-4937
▁parabola	-4938
▁paruparo	-4939
▁sakaling	-4940
▁tinubuan	-4941
apangasawa	-4942
▁Baranugun	-4943
▁Dinoyagan	-4944
▁Maririnig	-4945
▁Nararapat	-4946
▁Naririnig	-4947
▁Pagkaraan	-4948
▁Paiborong	-4949
▁Tinatawag	-4950
▁gagamitin	-4951
▁gumagamit	-4952
▁ipinakita	-4953
▁kabanalan	-4954
▁kakayahan	-4955
▁karanasan	-4956
▁katuwiran	-4957
▁magkasama	-4958
▁makabalik	-4959
▁mamahalin	-4960
▁mananakop	-4961
▁mapalagay	-4962
▁matatawag	-4963
▁nagbabago	-4964
▁nagdurusa	-4965
▁nagsisisi	-4966
▁namumuhay	-4967
▁pagkabata	-4968
▁palibhasa	-4969
▁seremonya	-4970
▁Kailangang	-4971
▁Karaniwang	-4972
▁Lalapindig	-4973
▁Magindanao	-4974
▁Nagpatuloy	-4975
▁Sampaguita	-4976
▁gumagapang	-4977
▁kagustuhan	-4978
▁kalahating	-4979
▁karamdaman	-4980
▁katamtaman	-4981
▁mangangaso	-4982
▁masasabing	-4983
▁matalinong	-4984
▁nagbabadya	-4985
▁nagkasakit	-4986
▁pagkakaisa	-4987
▁pagsasayaw	-4988
▁pahintulot	-4989
▁pamamahala	-4990
▁pamanhikan	-4991
▁panibagong	-4992
▁panitikang	-4993
▁sinalubong	-4994
▁ipagtanggol	-4995
▁kagandahang	-4996
▁naglalakbay	-4997
▁nagtataglay	-4998
▁nangangarap	-4999
▁pagsasalita	-5000
▁Maniwantiwan	-5001
▁Salamangkero	-5002
▁bungangkahoy	-5003
▁kinatatayuan	-5004
▁napakalaking	-5005
▁paghihiganti	-5006
▁pagmamahalan	-5007
▁pagpapahalaga	-5008
▁pakikipaglaban	-5009
):	-5010
12	-5011
AS	-5012
AY	-5013
HH	-5014
II	-5015
NI	-5016
UN	-5017
co	-5018
ke	-5019
se	-5020
sy	-5021
va	-5022
All	-5023
And	-5024
Kay	-5025
LAK	-5026
Mas	-5027
PAG	-5028
abo	-5029
aly	-5030
anc	-5031
ani	-5032
arl	-5033
ast	-5034
ayu	-5035
bah	-5036
emp	-5037
ibu	-5038
ice	-5039
iha	-5040
ket	-5041
kod	-5042
mar	-5043
may	-5044
nap	-5045
owa	-5046
pad	-5047
pal	-5048
ral	-5049
ril	-5050
rip	-5051
roc	-5052
tal	-5053
udy	-5054
ukd	-5055
ver	-5056
wid	-5057
▁Ad	-5058
▁IV	-5059
▁Oy	-5060
ANDA	-5061
Ikaw	-5062
Kasi	-5063
Mags	-5064
abon	-5065
abut	-5066
ahok	-5067
akin	-5068
alau	-5069
alul	-5070
amon	-5071
ampi	-5072
anit	-5073
anod	-5074
apwa	-5075
aray	-5076
avay	-5077
echo	-5078
ekto	-5079
enta	-5080
eron	-5081
eses	-5082
fina	-5083
ibit	-5084
igin	-5085
ikip	-5086
inda	-5087
inip	-5088
ipol	-5089
irio	-5090
itil	-5091
itna	-5092
iwag	-5093
iwil	-5094
lupa	-5095
ngit	-5096
oche	-5097
oice	-5098
orin	-5099
pada	-5100
pain	-5101
puti	-5102
rado	-5103
rami	-5104
ubli	-5105
uhaw	-5106
uhog	-5107
ukas	-5108
umba	-5109
unos	-5110
upas	-5111
usad	-5112
usal	-5113
usaw	-5114
yaya	-5115
▁Aan	-5116
▁Bah	-5117
▁DUN	-5118
▁Far	-5119
▁Kad	-5120
▁Kur	-5121
▁Med	-5122
▁Pah	-5123
▁Sib	-5124
▁Sol	-5125
▁Tao	-5126
▁Tar	-5127
▁Tok	-5128
▁Ton	-5129
▁Uri	-5130
▁aks	-5131
▁ala	-5132
▁ani	-5133
▁api	-5134
▁ber	-5135
▁bil	-5136
▁del	-5137
▁gar	-5138
▁gas	-5139
▁hab	-5140
▁hid	-5141
▁hit	-5142
▁hul	-5143
▁iis	-5144
▁isk	-5145
▁iya	-5146
▁kun	-5147
▁lil	-5148
▁pit	-5149
▁pop	-5150
▁pos	-5151
▁reh	-5152
▁sob	-5153
▁sol	-5154
Galit	-5155
Gusto	-5156
Higit	-5157
aanan	-5158
aaway	-5159
abila	-5160
abuti	-5161
aglit	-5162
agulo	-5163
agupa	-5164
alaot	-5165
amali	-5166
ampok	-5167
anday	-5168
angya	-5169
anhik	-5170
antog	-5171
arami	-5172
aruan	-5173
aruga	-5174
asiya	-5175
endag	-5176
engke	-5177
idlan	-5178
iguni	-5179
impal	-5180
imtim	-5181
inaas	-5182
ipapa	-5183
ipita	-5184
ipong	-5185
iring	-5186
obong	-5187
odoro	-5188
okawa	-5189
sunod	-5190
tuloy	-5191
ubang	-5192
ubsob	-5193
uking	-5194
ungaw	-5195
ungay	-5196
ungis	-5197
untik	-5198
unung	-5199
urusa	-5200
uulit	-5201
uwahe	-5202
▁Aila	-5203
▁Atis	-5204
▁Band	-5205
▁Bata	-5206
▁Dugo	-5207
▁Gran	-5208
▁Haba	-5209
▁Hari	-5210
▁Ibon	-5211
▁Igin	-5212
▁Ilan	-5213
▁Impo	-5214
▁Kaig	-5215
▁Kris	-5216
▁Marc	-5217
▁Maru	-5218
▁Maya	-5219
▁Seus	-5220
▁Sing	-5221
▁Tubo	-5222
▁Wari	-5223
▁asin	-5224
▁bany	-5225
▁bati	-5226
▁bola	-5227
▁gabe	-5228
▁gawi	-5229
▁goby	-5230
▁halo	-5231
▁ingk	-5232
▁isus	-5233
▁itak	-5234
▁kays	-5235
▁kont	-5236
▁kump	-5237
▁kuta	-5238
▁lamp	-5239
▁magw	-5240
▁maih	-5241
▁mais	-5242
▁maya	-5243
▁mesa	-5244
▁muni	-5245
▁nagg	-5246
▁nanl	-5247
▁napa	-5248
▁over	-5249
▁pagn	-5250
▁paka	-5251
▁pans	-5252
▁pero	-5253
▁plan	-5254
▁pray	-5255
▁prop	-5256
▁samb	-5257
▁sant	-5258
▁sari	-5259
▁sawi	-5260
▁tali	-5261
▁tema	-5262
▁tore	-5263
▁usok	-5264
▁utop	-5265
▁uwak	-5266
Ingles	-5267
Tatayo	-5268
aanong	-5269
abuhay	-5270
ahilig	-5271
aksaya	-5272
alayin	-5273
alikan	-5274
alikod	-5275
aluhan	-5276
anawan	-5277
anggal	-5278
angong	-5279
apakan	-5280
arasal	-5281
atanas	-5282
atanim	-5283
atulan	-5284
awahan	-5285
awirin	-5286
bigyan	-5287
hagang	-5288
igmang	-5289
iingat	-5290
iisang	-5291
ilaban	-5292
ilahin	-5293
ilalim	-5294
imutan	-5295
inggil	-5296
inisid	-5297
ipigil	-5298
isahan	-5299
orotan	-5300
ubhang	-5301
ugatan	-5302
uluhod	-5303
unurin	-5304
upling	-5305
urayan	-5306
usbong	-5307
yembre	-5308
▁Cirio	-5309
▁Dahon	-5310
▁Dinar	-5311
▁Duhat	-5312
▁Epiko	-5313
▁GANDA	-5314
▁Ganda	-5315
▁Gener	-5316
▁Grupo	-5317
▁Gusto	-5318
▁Kalik	-5319
▁Kanya	-5320
▁Labis	-5321
▁Lamut	-5322
▁Limay	-5323
▁Luzon	-5324
▁Makan	-5325
▁Nakal	-5326
▁Noche	-5327
▁Pablo	-5328
▁Padre	-5329
▁Palay	-5330
▁Pinoy	-5331
▁Rabut	-5332
▁SIPAG	-5333
▁Sarid	-5334
▁Tanag	-5335
▁Tungk	-5336
▁YAMAN	-5337
▁Yaman	-5338
▁alila	-5339
▁anino	-5340
▁anito	-5341
▁antas	-5342
▁asong	-5343
▁babas	-5344
▁balae	-5345
▁bangg	-5346
▁banig	-5347
▁baong	-5348
▁beses	-5349
▁biyas	-5350
▁dagta	-5351
▁datap	-5352
▁digma	-5353
▁estud	-5354
▁gaano	-5355
▁galaw	-5356
▁gilid	-5357
▁gulay	-5358
▁hamon	-5359
▁hapag	-5360
▁hinog	-5361
▁hipan	-5362
▁hukbo	-5363
▁ingay	-5364
▁kakah	-5365
▁kakan	-5366
▁kapan	-5367
▁kapup	-5368
▁kapus	-5369
▁karak	-5370
▁kasam	-5371
▁katat	-5372
▁kawan	-5373
▁kinak	-5374
▁kinal	-5375
▁kiwil	-5376
▁kumot	-5377
▁lalaw	-5378
▁luksa	-5379
▁lunas	-5380
▁mabab	-5381
▁magug	-5382
▁mahin	-5383
▁makam	-5384
▁malig	-5385
▁mandi	-5386
▁mapam	-5387
▁matit	-5388
▁matul	-5389
▁minum	-5390
▁nahih	-5391
▁nakay	-5392
▁ngiti	-5393
▁nilal	-5394
▁nimpa	-5395
▁parir	-5396
▁paris	-5397
▁pinal	-5398
▁pinas	-5399
▁saang	-5400
▁sakay	-5401
▁salin	-5402
▁sampu	-5403
▁samyo	-5404
▁sipag	-5405
▁tanik	-5406
▁tapis	-5407
▁tatay	-5408
▁tigib	-5409
▁tinik	-5410
▁titig	-5411
Andrade	-5412
Sabihin	-5413
abaihan	-5414
abangan	-5415
abangon	-5416
adaling	-5417
akailan	-5418
akainin	-5419
akilang	-5420
akitang	-5421
amangka	-5422
amdamin	-5423
ampakan	-5424
anganak	-5425
angging	-5426
apitong	-5427
arinlan	-5428
atanong	-5429
awaglit	-5430
babawal	-5431
bibigay	-5432
ibingan	-5433
ilinang	-5434
ilingon	-5435
imagsik	-5436
indihan	-5437
ipagkas	-5438
labanan	-5439
mamahal	-5440
masyong	-5441
otabato	-5442
ubungin	-5443
uhangin	-5444
uluhang	-5445
utulong	-5446
▁Aanhin	-5447
▁Androm	-5448
▁Baysay	-5449
▁DUNONG	-5450
▁Farida	-5451
▁Flores	-5452
▁Impong	-5453
▁Iskong	-5454
▁Magtat	-5455
▁Naiwan	-5456
▁Pangan	-5457
▁Romano	-5458
▁Silang	-5459
▁Waring	-5460
▁baging	-5461
▁bantay	-5462
▁dulang	-5463
▁humina	-5464
▁ibigin	-5465
▁inibig	-5466
▁inumin	-5467
▁ipinak	-5468
▁isipin	-5469
▁kaunti	-5470
▁labing	-5471
▁lalung	-5472
▁lambak	-5473
▁langis	-5474
▁lanubo	-5475
▁layang	-5476
▁linggo	-5477
▁luhang	-5478
▁madula	-5479
▁magbub	-5480
▁mahaba	-5481
▁maingg	-5482
▁maipag	-5483
▁manang	-5484
▁mapili	-5485
▁maubos	-5486
▁naghah	-5487
▁nagkat	-5488
▁nakaka	-5489
▁nangag	-5490
▁nangas	-5491
▁napili	-5492
▁natuto	-5493
▁ngipin	-5494
▁orasan	-5495
▁pagkam	-5496
▁pastol	-5497
▁pating	-5498
▁patula	-5499
▁paulit	-5500
▁punung	-5501
▁sansin	-5502
▁sayang	-5503
▁silong	-5504
▁sindak	-5505
▁sinong	-5506
▁sumuko	-5507
▁suyuan	-5508
▁trumpo	-5509
▁tumira	-5510
▁tumpak	-5511
▁umaasa	-5512
▁umawit	-5513
▁unahan	-5514
ahiwalay	-5515
akawalan	-5516
alimuyak	-5517
alinhaga	-5518
alinuhan	-5519
anggulan	-5520
ansangan	-5521
apatayin	-5522
apaunlad	-5523
aysayang	-5524
elihiyon	-5525
iligawan	-5526
ilingkod	-5527
imangong	-5528
ingganda	-5529
lalakbay	-5530
ukuwento	-5531
ulantang	-5532
urusahan	-5533
▁Abuhing	-5534
▁Basahin	-5535
▁Bulusan	-5536
▁Bumalik	-5537
▁Bungang	-5538
▁Datapwa	-5539
▁Donggon	-5540
▁Elenang	-5541
▁Ginamit	-5542
▁Ikalawa	-5543
▁Ilianon	-5544
▁Ipinagt	-5545
▁Kapitan	-5546
▁Larawan	-5547
▁Masarap	-5548
▁Matanda	-5549
▁Munting	-5550
▁Natakot	-5551
▁Ngayong	-5552
▁Pablito	-5553
▁Patuloy	-5554
▁Pumunta	-5555
▁Sampung	-5556
▁Satanas	-5557
▁Sicavay	-5558
▁Sumpain	-5559
▁Teodoro	-5560
▁Toniong	-5561
▁Walayin	-5562
▁alapaap	-5563
▁bagamat	-5564
▁basahin	-5565
▁bituing	-5566
▁diumano	-5567
▁dumalaw	-5568
▁ginamit	-5569
▁gitnang	-5570
▁hanggan	-5571
▁himutok	-5572
▁hiniram	-5573
▁hinubog	-5574
▁hitsura	-5575
▁humarap	-5576
▁hustong	-5577
▁inaawit	-5578
▁ingkong	-5579
▁kabuuan	-5580
▁kadilim	-5581
▁kahanga	-5582
▁langgam	-5583
▁luntian	-5584
▁maaring	-5585
▁mabagal	-5586
▁makisig	-5587
▁malalag	-5588
▁malasin	-5589
▁mapatay	-5590
▁matakot	-5591
▁matapat	-5592
▁matigas	-5593
▁matipid	-5594
▁minahal	-5595
▁mundong	-5596
▁nabihag	-5597
▁nagbago	-5598
▁nagdala	-5599
▁naglaho	-5600
▁nagturo	-5601
▁nagwika	-5602
▁nakakat	-5603
▁napakat	-5604
▁niyakap	-5605
▁pabango	-5606
▁palabas	-5607
▁papaano	-5608
▁papayag	-5609
▁pinagka	-5610
▁sayawan	-5611
▁sinagot	-5612
▁sintang	-5613
▁sistema	-5614
▁tanglaw	-5615
▁taniman	-5616
▁tinipon	-5617
▁totoong	-5618
▁tumakbo	-5619
▁tungkod	-5620
alagtasan	-5621
anggalang	-5622
anggunian	-5623
asalitaan	-5624
ihimagsik	-5625
ihinagpis	-5626
intakutan	-5627
▁Doronoon	-5628
▁Gayundin	-5629
▁Halamang	-5630
▁Kalabasa	-5631
▁Kalayaan	-5632
▁Kampupot	-5633
▁Karaniwa	-5634
▁Kristong	-5635
▁Mahalaga	-5636
▁Mangyari	-5637
▁Naalaala	-5638
▁Naghanda	-5639
▁Tanagyaw	-5640
▁Tumulong	-5641
▁balangay	-5642
▁binibini	-5643
▁binuksan	-5644
▁buhangin	-5645
▁bulubund	-5646
▁bunganga	-5647
▁daraanan	-5648
▁gobyerno	-5649
▁guniguni	-5650
▁halakhak	-5651
▁hinagkan	-5652
▁hinagpis	-5653
▁iniaalay	-5654
▁inihanda	-5655
▁inutusan	-5656
▁itinanim	-5657
▁kabaitan	-5658
▁kampilan	-5659
▁karuwahe	-5660
▁katauhan	-5661
▁katumbas	-5662
▁kawikaan	-5663
▁liwayway	-5664
▁lumalang	-5665
▁lumangoy	-5666
▁mababang	-5667
▁mababasa	-5668
▁maibigan	-5669
▁makapags	-5670
▁makitang	-5671
▁malamlam	-5672
▁malayang	-5673
▁mapayapa	-5674
▁masaklap	-5675
▁maybahay	-5676
▁minokawa	-5677
▁nagagawa	-5678
▁nagbalik	-5679
▁nagdulot	-5680
▁naglilip	-5681
▁nagpasya	-5682
▁nakitang	-5683
▁natirang	-5684
▁pabareal	-5685
▁pabigkas	-5686
▁pagsikat	-5687
▁pagtulog	-5688
▁pagtupad	-5689
▁palengke	-5690
▁pampanit	-5691
▁panganay	-5692
▁panghabi	-5693
▁piyesang	-5694
▁pulubing	-5695
▁sinabing	-5696
▁sinasabi	-5697
▁talangka	-5698
▁talipapa	-5699
▁tanungin	-5700
▁tinangay	-5701
▁tugtugin	-5702
▁tumutubo	-5703
apastangan	-5704
atutunayan	-5705
▁Amburayan	-5706
▁Edukasyon	-5707
▁Inalagaan	-5708
▁Karamihan	-5709
▁Nagpaalam	-5710
▁Nagtanong	-5711
▁Pakinggan	-5712
▁bahagyang	-5713
▁banggitin	-5714
▁gumaganap	-5715
▁hangganan	-5716
▁humihingi	-5717
▁ibinalita	-5718
▁ikalawang	-5719
▁kabukiran	-5720
▁kailanman	-5721
▁kalawakan	-5722
▁kasabihan	-5723
▁kasagutan	-5724
▁kaunlaran	-5725
▁kumikilos	-5726
▁lansangan	-5727
▁lumalapit	-5728
▁magdamdam	-5729
▁maginhawa	-5730
▁magkaanak	-5731
▁manirahan	-5732
▁maririkit	-5733
▁masilayan	-5734
▁matagpuan	-5735
▁nababatid	-5736
▁nagigipit	-5737
▁nakalaban	-5738
▁nasilayan	-5739
▁pagkaraan	-5740
▁pagkikita	-5741
▁pagsasabi	-5742
▁pagsasama	-5743
▁pagsilang	-5744
▁pakasalan	-5745
▁pakinggan	-5746
▁pangalang	-5747
▁pasalamat	-5748
▁patawarin	-5749
▁pinipitas	-5750
▁tinutukoy	-5751
▁tradisyon	-5752
▁tumutukoy	-5753
aniniwalaan	-5754
▁Kaigorotan	-5755
▁Kalahating	-5756
▁Pagmamahal	-5757
▁Panganiban	-5758
▁Saridandan	-5759
▁alalahanin	-5760
▁alimangong	-5761
▁estudyante	-5762
▁hinihiling	-5763
▁kababaihan	-5764
▁kaparangan	-5765
▁katunggali	-5766
▁magbabalik	-5767
▁magbibigay	-5768
▁magtotroso	-5769
▁mapapansin	-5770
▁nagduruyan	-5771
▁naglalahad	-5772
▁nalilimbag	-5773
▁naramdaman	-5774
▁pagbibigay	-5775
▁paghahanda	-5776
▁pagkakaiba	-5777
▁pagtitipon	-5778
▁pangangaso	-5779
▁pinangalan	-5780
▁talampakan	-5781
▁tinulungan	-5782
▁tradisyong	-5783
▁Kahalagahan	-5784
▁iginagalang	-5785
▁karunungang	-5786
▁katalinuhan	-5787
▁katungkulan	-5788
▁kinabukasan	-5789
▁mainggiting	-5790
▁mapangasawa	-5791
▁nagkakaroon	-5792
▁napakaganda	-5793
▁pakakasalan	-5794
▁pangalawang	-5795
▁panghikayat	-5796
▁pinarusahan	-5797
▁mandirigmang	-5798
▁nagpapahayag	-5799
▁Lalapindigowa	-5800
▁instrumentong	-5801
▁nagpapakilala	-5802
▁pinagkautangan	-5803
▁pangangailangan	-5804
GA	-5805
In	-5806
Is	-5807
ez	-5808
ll	-5809
uu	-5810
▁,	-5811
!!!	-5812
Low	-5813
Opo	-5814
Sas	-5815
Tut	-5816
aal	-5817
aon	-5818
apl	-5819
arp	-5820
ate	-5821
bib	-5822
bit	-5823
def	-5824
ekt	-5825
him	-5826
ido	-5827
irh	-5828
isk	-5829
ite	-5830
iyo	-5831
kam	-5832
lin	-5833
lod	-5834
mah	-5835
ook	-5836
osa	-5837
pin	-5838
sar	-5839
sel	-5840
sip	-5841
tad	-5842
til	-5843
tin	-5844
tog	-5845
tos	-5846
uda	-5847
udh	-5848
uer	-5849
uma	-5850
uod	-5851
uos	-5852
urg	-5853
was	-5854
yol	-5855
▁Ch	-5856
▁En	-5857
▁Hi	-5858
▁Ku	-5859
▁Le	-5860
▁Pr	-5861
▁To	-5862
▁ad	-5863
▁ek	-5864
▁ir	-5865
▁oy	-5866
▁pi	-5867
▁ug	-5868
!...	-5869
Ilog	-5870
Mbgl	-5871
Miya	-5872
Naku	-5873
Pero	-5874
Taga	-5875
abab	-5876
adag	-5877
ahid	-5878
ahis	-5879
akip	-5880
alop	-5881
angi	-5882
ansa	-5883
aong	-5884
apup	-5885
aris	-5886
arto	-5887
asim	-5888
asta	-5889
atao	-5890
atil	-5891
atok	-5892
atub	-5893
ayom	-5894
bing	-5895
elan	-5896
elas	-5897
enan	-5898
ersa	-5899
ethe	-5900
gawa	-5901
ibak	-5902
ikaw	-5903
ikil	-5904
ikli	-5905
iksi	-5906
ildo	-5907
imat	-5908
imot	-5909
leng	-5910
nais	-5911
onso	-5912
oses	-5913
puso	-5914
rang	-5915
reto	-5916
ribo	-5917
sari	-5918
sura	-5919
ubin	-5920
uela	-5921
ugaw	-5922
ugma	-5923
ugto	-5924
uipo	-5925
ukat	-5926
ukod	-5927
ulag	-5928
ulas	-5929
umon	-5930
unas	-5931
ungh	-5932
upin	-5933
urno	-5934
uyot	-5935
yoso	-5936
yuan	-5937
▁Aya	-5938
▁Bai	-5939
▁Bak	-5940
▁Bar	-5941
▁Cag	-5942
▁Eto	-5943
▁Huh	-5944
▁Iya	-5945
▁Kaw	-5946
▁Mac	-5947
▁Mel	-5948
▁Mom	-5949
▁Noo	-5950
▁Per	-5951
▁Pup	-5952
▁Put	-5953
▁Rec	-5954
▁Rep	-5955
▁Sis	-5956
▁Sur	-5957
▁Tom	-5958
▁Umi	-5959
▁Vic	-5960
▁aba	-5961
▁amp	-5962
▁doo	-5963
▁gig	-5964
▁gug	-5965
▁hil	-5966
▁hiw	-5967
▁int	-5968
▁iwi	-5969
▁law	-5970
▁lus	-5971
▁lut	-5972
▁nir	-5973
▁pig	-5974
▁rad	-5975
▁sos	-5976
▁tir	-5977
▁tub	-5978
▁yao	-5979
Bayan	-5980
Dahan	-5981
Iiyak	-5982
Lahat	-5983
Mahal	-5984
aalab	-5985
aalin	-5986
aanim	-5987
abata	-5988
abaya	-5989
adlad	-5990
adlak	-5991
adpad	-5992
aglag	-5993
agpak	-5994
agtas	-5995
ainit	-5996
akata	-5997
aligo	-5998
ambog	-5999
anaag	-6000
anaig	-6001
andag	-6002
andro	-6003
angka	-6004
antas	-6005
apako	-6006
arhan	-6007
arpio	-6008
aslas	-6009
awagi	-6010
awian	-6011
ayani	-6012
ayari	-6013
bagay	-6014
bisig	-6015
eksto	-6016
giliw	-6017
hanga	-6018
hindi	-6019
ibigo	-6020
iglas	-6021
ihina	-6022
iklab	-6023
imbar	-6024
imlim	-6025
impok	-6026
indol	-6027
indra	-6028
inggo	-6029
ingon	-6030
intal	-6031
ipana	-6032
iskis	-6033
kamay	-6034
kasan	-6035
labis	-6036
lilis	-6037
linga	-6038
lipat	-6039
luran	-6040
malas	-6041
nayon	-6042
oloko	-6043
opiya	-6044
ormal	-6045
sanga	-6046
talan	-6047
tapat	-6048
ubdan	-6049
ukano	-6050
uklas	-6051
uklay	-6052
uktot	-6053
ulain	-6054
ulano	-6055
umpak	-6056
umpas	-6057
unawa	-6058
unday	-6059
ungal	-6060
unita	-6061
upong	-6062
usyon	-6063
uutos	-6064
uyasu	-6065
yaman	-6066
ythag	-6067
▁Abot	-6068
▁Alim	-6069
▁Apat	-6070
▁Asya	-6071
▁Gamb	-6072
▁Ilaw	-6073
▁Ipak	-6074
▁Kano	-6075
▁Kasi	-6076
▁Kast	-6077
▁Lamb	-6078
▁Lola	-6079
▁Lolo	-6080
▁Magu	-6081
▁Nagd	-6082
▁Pagb	-6083
▁Pagp	-6084
▁Paru	-6085
▁Poon	-6086
▁Pulo	-6087
▁Sakb	-6088
▁Sama	-6089
▁Samb	-6090
▁Sige	-6091
▁Tama	-6092
▁Tata	-6093
▁Utos	-6094
▁Yamb	-6095
▁amoy	-6096
▁baha	-6097
▁baro	-6098
▁basa	-6099
▁base	-6100
▁daig	-6101
▁ihip	-6102
▁ikab	-6103
▁ikag	-6104
▁inis	-6105
▁itat	-6106
▁itso	-6107
▁itut	-6108
▁kaan	-6109
▁kapa	-6110
▁liku	-6111
▁magn	-6112
▁maip	-6113
▁mist	-6114
▁myth	-6115
▁naip	-6116
▁nand	-6117
▁nati	-6118
▁nawa	-6119
▁nuno	-6120
▁pano	-6121
▁pusa	-6122
▁ramo	-6123
▁sige	-6124
▁sira	-6125
▁solo	-6126
▁susi	-6127
▁tamb	-6128
▁tant	-6129
▁tuka	-6130
▁tunt	-6131
▁ubos	-6132
▁uhay	-6133
▁walo	-6134
Iaayon	-6135
Lalaki	-6136
Mabuti	-6137
Parang	-6138
abagin	-6139
abulan	-6140
abusaw	-6141
abutan	-6142
agawan	-6143
aginan	-6144
agisag	-6145
agupit	-6146
agusto	-6147
ahaman	-6148
ahamon	-6149
ahawak	-6150
ahunan	-6151
akdang	-6152
aklolo	-6153
alagos	-6154
alakal	-6155
alanin	-6156
alapad	-6157
alasik	-6158
alaueg	-6159
alawak	-6160
alayas	-6161
alikha	-6162
alimot	-6163
amanan	-6164
amitan	-6165
araang	-6166
arapin	-6167
ariang	-6168
asaing	-6169
asanay	-6170
aspang	-6171
atangi	-6172
atawan	-6173
awasan	-6174
ayakap	-6175
ayanig	-6176
dalang	-6177
eksyon	-6178
etheus	-6179
hating	-6180
ibabaw	-6181
idigma	-6182
igawan	-6183
ikaing	-6184
ikulan	-6185
ilimot	-6186
ingang	-6187
iwasan	-6188
kislap	-6189
lutang	-6190
madali	-6191
masaya	-6192
parong	-6193
rabida	-6194
ubukan	-6195
ulatan	-6196
uluwal	-6197
umihan	-6198
ungkal	-6199
unugin	-6200
upiter	-6201
utlang	-6202
uunlad	-6203
uwagan	-6204
wiling	-6205
▁Adlaw	-6206
▁Anupa	-6207
▁Asong	-6208
▁Ating	-6209
▁Ayoko	-6210
▁Bikol	-6211
▁Binab	-6212
▁Bukal	-6213
▁Gawin	-6214
▁Handa	-6215
▁Hayop	-6216
▁Hirap	-6217
▁Ibang	-6218
▁Ildef	-6219
▁Kapwa	-6220
▁Kayum	-6221
▁Lubos	-6222
▁Lumul	-6223
▁Luson	-6224
▁Maawa	-6225
▁Malas	-6226
▁Malin	-6227
▁Mapat	-6228
▁Masas	-6229
▁Nanay	-6230
▁Odang	-6231
▁Panga	-6232
▁Pasko	-6233
▁Pilar	-6234
▁Reyna	-6235
▁Sabay	-6236
▁Sagot	-6237
▁Santo	-6238
▁Sinis	-6239
▁Tatlo	-6240
▁Tuloy	-6241
▁Waray	-6242
▁animo	-6243
▁baliw	-6244
▁balon	-6245
▁batay	-6246
▁bisyo	-6247
▁bitui	-6248
▁dapit	-6249
▁dinad	-6250
▁dukha	-6251
▁dulot	-6252
▁gapos	-6253
▁gayun	-6254
▁hatid	-6255
▁hilaw	-6256
▁hitik	-6257
▁humih	-6258
▁iiwan	-6259
▁ipagl	-6260
▁ispir	-6261
▁kahon	-6262
▁kaita	-6263
▁kakat	-6264
▁kasoy	-6265
▁kinab	-6266
▁kinam	-6267
▁kolon	-6268
▁lakad	-6269
▁lalag	-6270
▁lawak	-6271
▁layon	-6272
▁lente	-6273
▁libis	-6274
▁liyag	-6275
▁lulan	-6276
▁lumal	-6277
▁madad	-6278
▁magpa	-6279
▁malag	-6280
▁malay	-6281
▁mamah	-6282
▁matim	-6283
▁minam	-6284
▁multo	-6285
▁nabig	-6286
▁nakah	-6287
▁nakam	-6288
▁nakar	-6289
▁nanay	-6290
▁nanun	-6291
▁napat	-6292
▁ngala	-6293
▁niyon	-6294
▁nuong	-6295
▁pader	-6296
▁pakir	-6297
▁palag	-6298
▁panay	-6299
▁panun	-6300
▁panyo	-6301
▁paral	-6302
▁pares	-6303
▁pinaa	-6304
▁pinan	-6305
▁plasa	-6306
▁pulos	-6307
▁pumup	-6308
▁saksi	-6309
▁salop	-6310
▁suson	-6311
▁talas	-6312
▁tanod	-6313
▁tanso	-6314
▁tinit	-6315
▁torso	-6316
▁tumit	-6317
▁wasto	-6318
▁yagit	-6319
▁yakap	-6320
Ituturo	-6321
Papasok	-6322
Pupunta	-6323
abasang	-6324
abihing	-6325
agmulan	-6326
agpalit	-6327
agulang	-6328
ahalaan	-6329
alakpak	-6330
aligtas	-6331
amanang	-6332
ambitan	-6333
andugan	-6334
apakita	-6335
apakpak	-6336
apanhik	-6337
apiling	-6338
apusang	-6339
araming	-6340
arangal	-6341
ariwara	-6342
asaktan	-6343
awangis	-6344
igdigan	-6345
ikitang	-6346
indahan	-6347
intasan	-6348
irasong	-6349
isipang	-6350
isipsip	-6351
iwalang	-6352
lawigan	-6353
ukadkad	-6354
ukulang	-6355
umbalik	-6356
umiglas	-6357
ustuhin	-6358
▁Anding	-6359
▁Apollo	-6360
▁Banlak	-6361
▁Batang	-6362
▁Buhong	-6363
▁Carpio	-6364
▁Dakila	-6365
▁Dalawa	-6366
▁Dumaan	-6367
▁Ganito	-6368
▁Ganoon	-6369
▁Hangin	-6370
▁Ikatlo	-6371
▁Ilongo	-6372
▁Iniwan	-6373
▁Ipugaw	-6374
▁Kagand	-6375
▁Kidlat	-6376
▁Kikong	-6377
▁Kilala	-6378
▁Kinain	-6379
▁Kristo	-6380
▁Kuaman	-6381
▁Kuyasu	-6382
▁Lakand	-6383
▁Layang	-6384
▁Linggo	-6385
▁Lunsod	-6386
▁Mabini	-6387
▁Malayo	-6388
▁Masdan	-6389
▁Mataas	-6390
▁Medusa	-6391
▁Nagtat	-6392
▁Niyong	-6393
▁Pabula	-6394
▁Perlas	-6395
▁Pythag	-6396
▁Republ	-6397
▁Sariwa	-6398
▁Toyang	-6399
▁Umiyak	-6400
▁Victor	-6401
▁Yuyuko	-6402
▁agawin	-6403
▁agimat	-6404
▁anghel	-6405
▁balana	-6406
▁balite	-6407
▁balong	-6408
▁bilhin	-6409
▁bisita	-6410
▁bumuka	-6411
▁daanan	-6412
▁datung	-6413
▁dumalo	-6414
▁dumami	-6415
▁eksena	-6416
▁espada	-6417
▁estilo	-6418
▁ganang	-6419
▁garuda	-6420
▁giting	-6421
▁hahang	-6422
▁halama	-6423
▁halong	-6424
▁hangga	-6425
▁hapong	-6426
▁hating	-6427
▁higaan	-6428
▁himala	-6429
▁ibalik	-6430
▁ihanda	-6431
▁ihatid	-6432
▁ikmong	-6433
▁imahin	-6434
▁imbing	-6435
▁inagaw	-6436
▁inspir	-6437
▁inuuna	-6438
▁ipuipo	-6439
▁itinat	-6440
▁itsura	-6441
▁kaginh	-6442
▁kagyat	-6443
▁kahima	-6444
▁kalahi	-6445
▁kapuwa	-6446
▁kumpas	-6447
▁ligtas	-6448
▁maaliw	-6449
▁mabisa	-6450
▁madugo	-6451
▁magpap	-6452
▁mapagp	-6453
▁mapait	-6454
▁mapaso	-6455
▁masabi	-6456
▁masawi	-6457
▁matuto	-6458
▁mulala	-6459
▁naakit	-6460
▁nagnin	-6461
▁nagsil	-6462
▁nagtut	-6463
▁nahati	-6464
▁nakang	-6465
▁nakuha	-6466
▁naluto	-6467
▁nangak	-6468
▁nasaan	-6469
▁natuwa	-6470
▁nayong	-6471
▁pagdar	-6472
▁pagkad	-6473
▁palalo	-6474
▁palong	-6475
▁pamana	-6476
▁panaho	-6477
▁papuri	-6478
▁pasiya	-6479
▁perang	-6480
▁pinili	-6481
▁putong	-6482
▁saklap	-6483
▁sakong	-6484
▁sariwa	-6485
▁saysay	-6486
▁siguro	-6487
▁singaw	-6488
▁subali	-6489
▁sumang	-6490
▁tagdan	-6491
▁tainga	-6492
▁tatayo	-6493
▁tiyaga	-6494
▁tumama	-6495
▁tuwina	-6496
▁tuyong	-6497
▁umisip	-6498
▁usbong	-6499
▁utopia	-6500
aakalang	-6501
alambing	-6502
aligtaan	-6503
apakinig	-6504
asalamin	-6505
atanghal	-6506
awakawak	-6507
bersyong	-6508
ikitungo	-6509
ilanlang	-6510
ingkuran	-6511
ipaglaro	-6512
ipitagan	-6513
pirasong	-6514
sarimbar	-6515
ugaliang	-6516
ugtungan	-6517
umingiti	-6518
▁Bandina	-6519
▁Bantong	-6520
▁Bitiwan	-6521
▁Cagayan	-6522
▁Dinggin	-6523
▁Gagamba	-6524
▁Gintong	-6525
▁Granada	-6526
▁Haharap	-6527
▁Hinugot	-6528
▁Humanda	-6529
▁Humingi	-6530
▁Ikaapat	-6531
▁Ikalima	-6532
▁Ilukano	-6533
▁Itinuro	-6534
▁Kulaman	-6535
▁Mabuhay	-6536
▁Magmula	-6537
▁Mahalin	-6538
▁Malapit	-6539
▁Masakit	-6540
▁Naalala	-6541
▁Nabuhay	-6542
▁Nagkata	-6543
▁Nakinig	-6544
▁Nanging	-6545
▁Napatay	-6546
▁Palayok	-6547
▁Pinasan	-6548
▁Pupunta	-6549
▁Sabihin	-6550
▁Tinipon	-6551
▁Tumalon	-6552
▁Tumango	-6553
▁alagaan	-6554
▁alagang	-6555
▁angking	-6556
▁bagoong	-6557
▁bagyong	-6558
▁balabal	-6559
▁batayan	-6560
▁batisan	-6561
▁bayaang	-6562
▁baywang	-6563
▁binuhay	-6564
▁biyenan	-6565
▁buntong	-6566
▁dagling	-6567
▁dinggin	-6568
▁dumatal	-6569
▁gamitin	-6570
▁gandang	-6571
▁gasatan	-6572
▁gumamit	-6573
▁gumugol	-6574
▁handaan	-6575
▁hangaan	-6576
▁hatulan	-6577
▁hinango	-6578
▁hinggil	-6579
▁humanap	-6580
▁humanga	-6581
▁huminto	-6582
▁huwaran	-6583
▁iisipin	-6584
▁ikaapat	-6585
▁ilibing	-6586
▁indayog	-6587
▁iniisip	-6588
▁ipinagd	-6589
▁isilang	-6590
▁isipang	-6591
▁kadahil	-6592
▁kahawig	-6593
▁kalahok	-6594
▁kanayon	-6595
▁kandila	-6596
▁karamay	-6597
▁karayom	-6598
▁kinapap	-6599
▁kuwarto	-6600
▁leghorn	-6601
▁ligalig	-6602
▁lilipad	-6603
▁linyang	-6604
▁lumaban	-6605
▁lumipat	-6606
▁lumukso	-6607
▁lunting	-6608
▁mabango	-6609
▁mabigat	-6610
▁magbago	-6611
▁magiliw	-6612
▁magsing	-6613
▁makamit	-6614
▁makapan	-6615
▁malapad	-6616
▁malusog	-6617
▁maluwag	-6618
▁maluwat	-6619
▁mamuhay	-6620
▁mangung	-6621
▁masakit	-6622
▁matalas	-6623
▁matinik	-6624
▁musikal	-6625
▁nabuwal	-6626
▁nagkita	-6627
▁nagsama	-6628
▁nagtago	-6629
▁nahabag	-6630
▁nakasal	-6631
▁namunga	-6632
▁nangagl	-6633
▁nanguha	-6634
▁nariyan	-6635
▁natapos	-6636
▁natupad	-6637
▁naulila	-6638
▁nauukol	-6639
▁paanong	-6640
▁paglaya	-6641
▁pagtula	-6642
▁paharap	-6643
▁palihim	-6644
▁palitan	-6645
▁pamagat	-6646
▁pambata	-6647
▁panangh	-6648
▁pangang	-6649
▁panitik	-6650
▁papunta	-6651
▁paraang	-6652
▁pautang	-6653
▁pinamum	-6654
▁pumatay	-6655
▁pumitas	-6656
▁pumutok	-6657
▁pumutol	-6658
▁putulin	-6659
▁rehiyon	-6660
▁sikreto	-6661
▁sinulid	-6662
▁sinuman	-6663
▁sisikat	-6664
▁sumayaw	-6665
▁sumpaan	-6666
▁sumulat	-6667
▁tagapam	-6668
▁tirahan	-6669
▁tumigil	-6670
▁ulilang	-6671
alamutian	-6672
anggaling	-6673
otohanang	-6674
▁Bantawan	-6675
▁Bikulano	-6676
▁Bukidnon	-6677
▁Darangan	-6678
▁Espanyol	-6679
▁Gayunman	-6680
▁Hilagang	-6681
▁Hinampas	-6682
▁Hiniling	-6683
▁Isinulat	-6684
▁Josefina	-6685
▁Kaluluwa	-6686
▁Kasopiya	-6687
▁Katauhan	-6688
▁Macarang	-6689
▁Magbuhat	-6690
▁Makikita	-6691
▁Malaking	-6692
▁Mindanaw	-6693
▁Nagbalik	-6694
▁Nagyakap	-6695
▁Naisipan	-6696
▁Namangha	-6697
▁Palayain	-6698
▁Sakbawan	-6699
▁adhikain	-6700
▁bibigyan	-6701
▁bigkasan	-6702
▁dahilang	-6703
▁dalangin	-6704
▁engkanto	-6705
▁etnikong	-6706
▁gagapang	-6707
▁gumising	-6708
▁gumulang	-6709
▁hangarin	-6710
▁isinabit	-6711
▁isinabog	-6712
▁ispiritu	-6713
▁itinapon	-6714
▁kabiguan	-6715
▁kahapong	-6716
▁kalakhan	-6717
▁kalayuan	-6718
▁kamataya	-6719
▁kapiling	-6720
▁karakter	-6721
▁katagang	-6722
▁kwentong	-6723
▁lalagyan	-6724
▁libangan	-6725
▁lulutang	-6726
▁lumalaki	-6727
▁lumingap	-6728
▁luntiang	-6729
▁mabilang	-6730
▁magbayad	-6731
▁magbunga	-6732
▁maghanap	-6733
▁magkakam	-6734
▁magkakap	-6735
▁magsikap	-6736
▁magtuloy	-6737
▁maikling	-6738
▁makaalis	-6739
▁makakuha	-6740
▁malambot	-6741
▁maliligo	-6742
▁manatili	-6743
▁manligaw	-6744
▁mapansin	-6745
▁mapapasa	-6746
▁masisira	-6747
▁matulain	-6748
▁musikang	-6749
▁nabahala	-6750
▁nagbuhat	-6751
▁naggayak	-6752
▁naghirap	-6753
▁nagkaisa	-6754
▁nagpapas	-6755
▁nagtampo	-6756
▁naisipan	-6757
▁nakadapo	-6758
▁nalalabi	-6759
▁namumuno	-6760
▁nanatili	-6761
▁nanganak	-6762
▁napiling	-6763
▁nasabing	-6764
▁ninanais	-6765
▁paaralan	-6766
▁paggalaw	-6767
▁pagkatao	-6768
▁paglipas	-6769
▁pagliyag	-6770
▁pagpunta	-6771
▁pagsasal	-6772
▁pamimili	-6773
▁panimdim	-6774
▁paniwala	-6775
▁panlabas	-6776
▁pinakain	-6777
▁pirasong	-6778
▁puhunang	-6779
▁puntahan	-6780
▁sabihing	-6781
▁saganang	-6782
▁sampalok	-6783
▁sisidlan	-6784
▁soloista	-6785
▁tinatang	-6786
▁titingin	-6787
▁tulisang	-6788
▁tumindig	-6789
▁tumulong	-6790
▁Andromeda	-6791
▁Bathalang	-6792
▁Filipinas	-6793
▁Ibinalita	-6794
▁Ildefonso	-6795
▁Kabikulan	-6796
▁Kailangan	-6797
▁Lumilitaw	-6798
▁Magbangon	-6799
▁Mongindra	-6800
▁Nabanggit	-6801
▁Sinimulan	-6802
▁Tarabusaw	-6803
▁balangkas	-6804
▁hinaharap	-6805
▁hinihingi	-6806
▁kababalag	-6807
▁kabataang	-6808
▁kadiliman	-6809
▁kaitaasan	-6810
▁kakahuyan	-6811
▁kalinisan	-6812
▁kalupitan	-6813
▁katunayan	-6814
▁lalawigan	-6815
▁lambingan	-6816
▁lilimutin	-6817
▁mabalasik	-6818
▁mabangong	-6819
▁magkabila	-6820
▁mahabagin	-6821
▁makalipad	-6822
▁mananakaw	-6823
▁maninisid	-6824
▁matatanaw	-6825
▁maunawaan	-6826
▁mistulang	-6827
▁mumunting	-6828
▁nagaganap	-6829
▁nagkamali	-6830
▁nagkulang	-6831
▁nagugutom	-6832
▁nakahanda	-6833
▁nakarinig	-6834
▁nakasabit	-6835
▁nakasakay	-6836
▁nakatikom	-6837
▁nakikipag	-6838
▁nalilikha	-6839
▁nalulunod	-6840
▁namamatay	-6841
▁nasusulat	-6842
▁nasusunog	-6843
▁natatanaw	-6844
▁nilalaman	-6845
▁pagbabayo	-6846
▁pagdaraan	-6847
▁pagkawala	-6848
▁paglililo	-6849
▁pagluluto	-6850
▁pagmasdan	-6851
▁pagnanais	-6852
▁pagnanasa	-6853
▁pagpipita	-6854
▁pagsusuri	-6855
▁pagtingin	-6856
▁pagtulong	-6857
▁pakakasal	-6858
▁pampangin	-6859
▁pandanggo	-6860
▁pangalawa	-6861
▁parusahan	-6862
▁patungong	-6863
▁pinagpala	-6864
▁pinuhunan	-6865
▁relihiyon	-6866
▁sinasamba	-6867
▁talinhaga	-6868
▁titingnan	-6869
▁tumandang	-6870
▁tumututol	-6871
aalinlangan	-6872
alingawngaw	-6873
ipagkasundo	-6874
▁Makanungan	-6875
▁Nabalitaan	-6876
▁Pambansang	-6877
▁Pinagmulan	-6878
▁Pinuntahan	-6879
▁Pythagoras	-6880
▁Silanganan	-6881
▁balagtasan	-6882
▁bibigkasin	-6883
▁bilangguan	-6884
▁binubuksan	-6885
▁dumarating	-6886
▁hinihintay	-6887
▁inaasahang	-6888
▁kadakilaan	-6889
▁kahulugang	-6890
▁kalinangan	-6891
▁kayamanang	-6892
▁kinikilala	-6893
▁konsensiya	-6894
▁lawlawigan	-6895
▁maaliwalas	-6896
▁mabubuting	-6897
▁mabulaklak	-6898
▁maghiwalay	-6899
▁magigiting	-6900
▁magmamaliw	-6901
▁magtrabaho	-6902
▁makamandag	-6903
▁makikilala	-6904
▁maligayang	-6905
▁mamahaling	-6906
▁mapagmahal	-6907
▁mararating	-6908
▁matulungan	-6909
▁matulungin	-6910
▁nabalitaan	-6911
▁nabibilang	-6912
▁naghihirap	-6913
▁naglalaman	-6914
▁nagliliyab	-6915
▁nagmakaawa	-6916
▁nagpahinga	-6917
▁nakikiusap	-6918
▁napapaloob	-6919
▁nasasaklaw	-6920
▁natuklasan	-6921
▁pagbanggit	-6922
▁pagbibilog	-6923
▁paghahamok	-6924
▁paghakbang	-6925
▁pagkabuhay	-6926
▁pagkamatay	-6927
▁paglalayag	-6928
▁pagtanggap	-6929
▁pagtutulad	-6930
▁pakiramdam	-6931
▁pananalita	-6932
▁pangatlong	-6933
▁pangunguha	-6934
▁pangunguna	-6935
▁papayagang	-6936
▁paroroonan	-6937
▁pormasyong	-6938
▁sansinukob	-6939
▁tinangkang	-6940
▁tutulungan	-6941
▁Inanyayahan	-6942
▁Ipinagtapat	-6943
▁Maguindanao	-6944
▁Pinampangan	-6945
▁imahinasyon	-6946
▁inspirasyon	-6947
▁itinuturing	-6948
▁kapaligiran	-6949
▁kasingganda	-6950
▁kumakatawan	-6951
▁madamdaming	-6952
▁magpakailan	-6953
▁magsasalita	-6954
▁mambibigkas	-6955
▁mangingibig	-6956
▁naglalayong	-6957
▁nagulantang	-6958
▁nakatatanda	-6959
▁nalulungkot	-6960
▁nangungusap	-6961
▁pagmamalaki	-6962
▁pakikitungo	-6963
▁pamamalakad	-6964
▁pasasalamat	-6965
▁pinakasalan	-6966
▁Bungangsakit	-6967
▁Mitolohiyang	-6968
▁Nagpasalamat	-6969
▁Sangkatauhan	-6970
▁ikinabubuhay	-6971
▁inilalarawan	-6972
▁ipinagkaloob	-6973
▁kaginhawahan	-6974
▁makipaglaban	-6975
▁mitolohiyang	-6976
▁nagmamahalan	-6977
▁nagngangalit	-6978
▁napakaraming	-6979
▁nararamdaman	-6980
▁paglingkuran	-6981
▁pagtatanggol	-6982
▁pananghalian	-6983
▁patutunguhan	-6984
▁sandaigdigan	-6985
▁talasalitaan	-6986
▁bulubunduking	-6987
▁humahalimuyak	-6988
▁ipinagbabawal	-6989
▁ipinagpatuloy	-6990
▁kinakailangan	-6991
▁mapapangasawa	-6992
▁pinagtataguan	-6993
▁pinakamaganda	-6994
▁ipinagmamalaki	-6995
▁kapangyarihang	-6996
▁kinapapalooban	-6997
▁nangangailangan	-6998
▁pinakamagandang	-6999
2)	-7000
??	-7001
AH	-7002
Ah	-7003
Ar	-7004
As	-7005
BI	-7006
LA	-7007
OT	-7008
Si	-7009
US	-7010
ew	-7011
iv	-7012
ki	-7013
li	-7014
mp	-7015
pi	-7016
sh	-7017
ua	-7018
-12	-7019
Bal	-7020
Dum	-7021
Hoy	-7022
Hum	-7023
ING	-7024
Mak	-7025
Mam	-7026
Man	-7027
NIS	-7028
Nag	-7029
Nap	-7030
Pag	-7031
Pat	-7032
Pil	-7033
Sig	-7034
Sus	-7035
ais	-7036
ayd	-7037
ayi	-7038
bas	-7039
bid	-7040
bls	-7041
enc	-7042
eny	-7043
hat	-7044
hih	-7045
iik	-7046
ill	-7047
imm	-7048
iph	-7049
ipk	-7050
irt	-7051
isl	-7052
ism	-7053
itn	-7054
kab	-7055
kal	-7056
low	-7057
lum	-7058
luw	-7059
mad	-7060
mok	-7061
obl	-7062
oel	-7063
oli	-7064
oot	-7065
orc	-7066
pap	-7067
pay	-7068
rap	-7069
rim	-7070
rod	-7071
rog	-7072
ron	-7073
ser	-7074
sul	-7075
tid	-7076
tig	-7077
tis	-7078
uoy	-7079
uum	-7080
wag	-7081
wat	-7082
yal	-7083
▁1]	-7084
▁Iw	-7085
▁Ro	-7086
▁Ts	-7087
▁el	-7088
▁ho	-7089
▁hu	-7090
▁ok	-7091
▁op	-7092
▁pw	-7093
▁ti	-7094
▁up	-7095
...?	-7096
?...	-7097
AKAS	-7098
Anak	-7099
Isa	-7100
bos	-7101
iil	-7102
yed	-7103
▁Ko	-7104
High	-7105
Kaya	-7106
MPUP	-7107
Magh	-7108
Mula	-7109
Sana	-7110
Sige	-7111
Tama	-7112
Tayo	-7113
agip	-7114
agiw	-7115
ahen	-7116
aksi	-7117
alac	-7118
alib	-7119
alos	-7120
alye	-7121
amas	-7122
amog	-7123
amoy	-7124
anyo	-7125
apaw	-7126
aron	-7127
aros	-7128
atsa	-7129
buti	-7130
dila	-7131
ende	-7132
endi	-7133
eneg	-7134
enig	-7135
enio	-7136
eric	-7137
eryo	-7138
fuer	-7139
haya	-7140
hele	-7141
hiya	-7142
ibin	-7143
ibok	-7144
ibug	-7145
idik	-7146
igay	-7147
ihaw	-7148
ikim	-7149
ikin	-7150
ilad	-7151
inio	-7152
ipis	-7153
iral	-7154
isal	-7155
isis	-7156
isle	-7157
iyuh	-7158
lalo	-7159
luko	-7160
napu	-7161
oilo	-7162
okus	-7163
orya	-7164
oryo	-7165
osyo	-7166
pala	-7167
saan	-7168
tayo	-7169
tiis	-7170
ting	-7171
uano	-7172
udhi	-7173
ueva	-7174
ugal	-7175
ulis	-7176
unoy	-7177
unyi	-7178
upig	-7179
urak	-7180
uray	-7181
urok	-7182
usok	-7183
wita	-7184
▁...	-7185
▁Aso	-7186
▁Bay	-7187
▁Bib	-7188
▁Bol	-7189
▁Bun	-7190
▁Cap	-7191
▁Ceb	-7192
▁Day	-7193
▁Dom	-7194
▁Gay	-7195
▁Hab	-7196
▁Ing	-7197
▁Iyo	-7198
▁KAS	-7199
Gag	-7200
eme	-7201
LING	-7202
aapi	-7203
kain	-7204
▁Dis	-7205
▁Kon	-7206
▁LAH	-7207
▁Lip	-7208
▁Liv	-7209
▁Los	-7210
▁MGA	-7211
▁Nin	-7212
▁Pen	-7213
▁Rin	-7214
▁Sto	-7215
▁Tup	-7216
▁alo	-7217
▁amb	-7218
▁bel	-7219
▁bol	-7220
▁der	-7221
▁det	-7222
▁dir	-7223
▁dur	-7224
▁duw	-7225
▁gul	-7226
▁guw	-7227
▁ibo	-7228
▁kom	-7229
▁kut	-7230
▁lak	-7231
▁lol	-7232
▁pih	-7233
▁pip	-7234
▁sib	-7235
▁siy	-7236
▁tel	-7237
Anong	-7238
Hahag	-7239
Ilang	-7240
LINIS	-7241
aalok	-7242
adang	-7243
agaan	-7244
aghoy	-7245
aguyo	-7246
aklap	-7247
aktan	-7248
akulo	-7249
alata	-7250
alint	-7251
alsik	-7252
alung	-7253
ampon	-7254
ancis	-7255
angko	-7256
angla	-7257
antap	-7258
antsa	-7259
anzon	-7260
apuan	-7261
ariin	-7262
aydor	-7263
dulan	-7264
egend	-7265
entaw	-7266
erola	-7267
erong	-7268
gagat	-7269
hapon	-7270
ibiro	-7271
igong	-7272
iinam	-7273
iinom	-7274
ilaok	-7275
imbag	-7276
inain	-7277
inata	-7278
indoy	-7279
ipagt	-7280
ipkip	-7281
irapa	-7282
irhen	-7283
irits	-7284
isong	-7285
itain	-7286
itano	-7287
iyong	-7288
kabit	-7289
lagas	-7290
lahat	-7291
lawan	-7292
nubay	-7293
opoot	-7294
ortal	-7295
oteng	-7296
paman	-7297
raban	-7298
rangh	-7299
ete	-7300
ons	-7301
▁Ol	-7302
▁en	-7303
Ayaw	-7304
Ibab	-7305
ahos	-7306
apoy	-7307
daya	-7308
rile	-7309
sino	-7310
▁Jac	-7311
▁Jer	-7312
agpag	-7313
atiis	-7314
ernat	-7315
rimon	-7316
shirt	-7317
sibol	-7318
sihan	-7319
silim	-7320
silip	-7321
sulok	-7322
tanaw	-7323
tanto	-7324
tidos	-7325
ubuka	-7326
udyok	-7327
ugmok	-7328
ukain	-7329
ulpot	-7330
umbay	-7331
umpok	-7332
uning	-7333
unyag	-7334
upkop	-7335
using	-7336
usisa	-7337
uugat	-7338
yahan	-7339
yawan	-7340
▁Ahas	-7341
▁Apoy	-7342
▁Aray	-7343
▁Asin	-7344
▁Baut	-7345
▁Bawa	-7346
▁Bitu	-7347
▁Buns	-7348
▁Buto	-7349
▁Gand	-7350
▁Glor	-7351
▁Hala	-7352
▁Hayo	-7353
▁Iloc	-7354
▁Indo	-7355
▁Inih	-7356
▁Irog	-7357
▁Itat	-7358
▁Joel	-7359
▁Kaka	-7360
▁Kiko	-7361
▁Kult	-7362
▁Leon	-7363
▁Mand	-7364
▁Mata	-7365
▁Meme	-7366
▁Moro	-7367
▁Nagu	-7368
▁Nanl	-7369
▁Napa	-7370
▁Nawa	-7371
▁Orak	-7372
▁Pagl	-7373
▁Pito	-7374
▁Simb	-7375
▁Sits	-7376
▁Tala	-7377
▁Ulap	-7378
▁adel	-7379
▁alab	-7380
▁alis	-7381
▁asim	-7382
▁baly	-7383
▁bend	-7384
▁bulo	-7385
▁daho	-7386
▁daya	-7387
▁dayo	-7388
▁diya	-7389
▁dula	-7390
▁dung	-7391
▁elem	-7392
▁giba	-7393
▁heto	-7394
▁hina	-7395
▁ikuk	-7396
▁imik	-7397
▁kaay	-7398
▁kati	-7399
▁Sh	-7400
inom	-7401
ipid	-7402
urol	-7403
uuin	-7404
uump	-7405
▁Kod	-7406
▁Lun	-7407
Kaawa	-7408
anood	-7409
asing	-7410
danan	-7411
turan	-7412
uriin	-7413
uunan	-7414
▁Sana	-7415
▁kawa	-7416
▁kayg	-7417
▁kumb	-7418
▁kwak	-7419
▁laot	-7420
▁laro	-7421
▁laso	-7422
▁lola	-7423
▁loro	-7424
▁maid	-7425
▁mana	-7426
▁misa	-7427
▁mito	-7428
▁moog	-7429
▁nail	-7430
▁ngum	-7431
▁pagw	-7432
▁palo	-7433
▁papa	-7434
▁pare	-7435
▁payo	-7436
▁pios	-7437
▁pipi	-7438
▁pira	-7439
▁puma	-7440
▁puto	-7441
▁samo	-7442
▁simp	-7443
▁sint	-7444
▁suka	-7445
▁tamp	-7446
▁teng	-7447
▁trah	-7448
▁tubo	-7449
▁turo	-7450
▁ungg	-7451
▁utak	-7452
MPUPOT	-7453
Medium	-7454
Walang	-7455
aabang	-7456
aalaga	-7457
abalot	-7458
abatid	-7459
abayad	-7460
abulid	-7461
adaluh	-7462
adurog	-7463
agalak	-7464
agalaw	-7465
agayon	-7466
agdang	-7467
aguyod	-7468
ahanan	-7469
ahanay	-7470
ahinto	-7471
ahusay	-7472
akaisa	-7473
akapit	-7474
akilan	-7475
alakaw	-7476
alamin	-7477
alanan	-7478
alasan	-7479
alasap	-7480
alibag	-7481
aligid	-7482
alinis	-7483
alisin	-7484
aliwan	-7485
amahin	-7486
amante	-7487
amaran	-7488
andili	-7489
angang	-7490
anggan	-7491
angkal	-7492
ansala	-7493
antong	-7494
apagod	-7495
aranas	-7496
ariaan	-7497
asabog	-7498
asaluk	-7499
▁v	-7500
Nin	-7501
gil	-7502
uki	-7503
akop	-7504
▁Doo	-7505
▁hib	-7506
Papal	-7507
adugo	-7508
gubat	-7509
hinan	-7510
igang	-7511
uhian	-7512
▁Aral	-7513
▁abay	-7514
▁klas	-7515
▁lolo	-7516
▁tuwi	-7517
anglaw	-7518
arlika	-7519
asauli	-7520
asigaw	-7521
atayan	-7522
atiran	-7523
awisan	-7524
bagang	-7525
bighan	-7526
dakila	-7527
darayo	-7528
entral	-7529
ernand	-7530
fuerte	-7531
hangad	-7532
idilim	-7533
igiliw	-7534
ihimig	-7535
ihinal	-7536
ikhang	-7537
iligid	-7538
iligin	-7539
ilikan	-7540
ilikot	-7541
iliyag	-7542
ilugan	-7543
ilyang	-7544
imitas	-7545
imithi	-7546
ingkod	-7547
inigil	-7548
inipay	-7549
inlahi	-7550
insala	-7551
ipagka	-7552
ipitan	-7553
ipunin	-7554
isipot	-7555
itagan	-7556
itiwan	-7557
itiyak	-7558
itnaan	-7559
iyawan	-7560
kainan	-7561
kasama	-7562
libong	-7563
ligtas	-7564
mangan	-7565
mbayan	-7566
oblema	-7567
panhik	-7568
rapura	-7569
ristal	-7570
tulong	-7571
ubilin	-7572
ukulan	-7573
ulanan	-7574
ulupot	-7575
umbong	-7576
umpaan	-7577
unahan	-7578
unaway	-7579
untang	-7580
untung	-7581
unwari	-7582
uparan	-7583
upitin	-7584
usabos	-7585
usapin	-7586
usilak	-7587
ustang	-7588
utulan	-7589
uwesto	-7590
uwisit	-7591
walong	-7592
▁Aklan	-7593
▁Alang	-7594
▁Amang	-7595
▁Asawa	-7596
▁Babae	-7597
▁Babay	-7598
▁Baboy	-7599
Aba	-7600
hhh	-7601
pok	-7602
rez	-7603
mura	-7604
▁Bac	-7605
Isang	-7606
alyas	-7607
ensya	-7608
istro	-7609
▁Igon	-7610
▁Isis	-7611
▁kaaa	-7612
▁masy	-7613
▁pind	-7614
adikit	-7615
endrez	-7616
isdang	-7617
minsan	-7618
ubuang	-7619
walang	-7620
▁Basta	-7621
▁Bukas	-7622
▁Bunga	-7623
▁Casta	-7624
▁Claro	-7625
▁Dahan	-7626
▁Dapwa	-7627
▁Diyan	-7628
▁Diyuh	-7629
▁Embid	-7630
▁Gabay	-7631
▁Halik	-7632
▁Halos	-7633
▁Hamog	-7634
▁Hawak	-7635
▁Hayun	-7636
▁Hesuk	-7637
▁Hesus	-7638
▁Iabot	-7639
▁Ibong	-7640
▁Igala	-7641
▁Impah	-7642
▁Indya	-7643
▁Islaw	-7644
▁Itaas	-7645
▁Itago	-7646
▁Kabis	-7647
▁Kapit	-7648
▁Kinam	-7649
▁Krist	-7650
▁Kulay	-7651
▁Kulog	-7652
▁Kunin	-7653
▁Laban	-7654
▁Labos	-7655
▁Lanaw	-7656
▁Leron	-7657
▁Lihim	-7658
▁Lubay	-7659
▁Malay	-7660
▁Mangg	-7661
▁Manun	-7662
▁Mapal	-7663
▁Mateo	-7664
▁Minis	-7665
▁Nahih	-7666
▁Namum	-7667
▁Naupo	-7668
▁Nayon	-7669
▁Niyog	-7670
▁Paano	-7671
▁Pakik	-7672
▁Panit	-7673
▁Parup	-7674
▁Pilit	-7675
▁Pinak	-7676
▁Pinam	-7677
▁Pinya	-7678
▁Poong	-7679
▁Pulis	-7680
▁Recto	-7681
▁Sinta	-7682
▁Sulod	-7683
▁Takot	-7684
▁Tapat	-7685
▁Tinay	-7686
▁Totoo	-7687
▁Umuwi	-7688
▁Utang	-7689
▁Villa	-7690
▁Voice	-7691
▁abala	-7692
▁aling	-7693
▁bakya	-7694
▁balot	-7695
▁balse	-7696
▁banga	-7697
▁baril	-7698
▁basag	-7699
▁basta	-7700
▁bibit	-7701
▁bingi	-7702
▁binur	-7703
▁boses	-7704
▁budhi	-7705
▁bumuo	-7706
▁burda	-7707
▁dahas	-7708
▁dahop	-7709
▁dalaw	-7710
▁dinig	-7711
▁doong	-7712
▁duyan	-7713
▁ginat	-7714
▁hahat	-7715
▁hango	-7716
▁hikbi	-7717
▁hinag	-7718
▁hinig	-7719
▁hinto	-7720
▁hipon	-7721
▁hiram	-7722
▁hitso	-7723
▁hulog	-7724
▁hurno	-7725
▁ibayo	-7726
▁iiyak	-7727
▁iluha	-7728
▁ipagb	-7729
▁isipa	-7730
▁ituro	-7731
▁kagat	-7732
▁kahin	-7733
▁kalaw	-7734
▁kalus	-7735
▁kapig	-7736
▁katan	-7737
▁kawag	-7738
▁kendi	-7739
▁kinah	-7740
▁kisig	-7741
▁kumuk	-7742
▁kupas	-7743
▁kurus	-7744
▁lagay	-7745
▁layun	-7746
▁limot	-7747
▁lipos	-7748
▁lubha	-7749
▁lugod	-7750
▁lumag	-7751
▁lungg	-7752
▁lupit	-7753
▁maawa	-7754
▁mahah	-7755
▁makin	-7756
▁malal	-7757
▁maliw	-7758
▁mamul	-7759
▁manin	-7760
▁manun	-7761
▁milag	-7762
▁mismo	-7763
▁nabuo	-7764
▁nagug	-7765
▁nahan	-7766
▁nakag	-7767
▁nanga	-7768
▁napal	-7769
▁napup	-7770
▁oyayi	-7771
▁palat	-7772
▁palit	-7773
▁parte	-7774
▁pasan	-7775
▁patik	-7776
▁paunl	-7777
▁payag	-7778
▁payak	-7779
▁pitik	-7780
▁pusod	-7781
▁putok	-7782
▁radio	-7783
▁rurok	-7784
▁sakim	-7785
▁sakop	-7786
▁salag	-7787
▁sangm	-7788
▁santa	-7789
▁sigwa	-7790
▁sikap	-7791
▁sikdo	-7792
▁silya	-7793
▁sumus	-7794
▁supil	-7795
▁sutla	-7796
▁takbo	-7797
▁takda	-7798
▁talon	-7799
▁tawad	-7800
▁tibok	-7801
▁tigas	-7802
▁timog	-7803
▁tingn	-7804
▁tinud	-7805
▁tribu	-7806
▁trono	-7807
▁tutol	-7808
▁umupo	-7809
▁yumao	-7810
Ibababa	-7811
Itataas	-7812
Malakas	-7813
Pilipin	-7814
Tagalog	-7815
Tatakbo	-7816
Tingnan	-7817
aangkin	-7818
aanyong	-7819
agaslaw	-7820
agawang	-7821
ahihiya	-7822
ahinang	-7823
akalang	-7824
aksihan	-7825
alaglag	-7826
alamlam	-7827
alangit	-7828
alayuan	-7829
aligtad	-7830
alinhan	-7831
aliping	-7832
amitang	-7833
ampanan	-7834
ancisco	-7835
andaang	-7836
anggawa	-7837
aplusin	-7838
aragdag	-7839
arangya	-7840
arawang	-7841
asayang	-7842
asikaso	-7843
asiyang	-7844
atangis	-7845
atingaw	-7846
awalang	-7847
awawala	-7848
bahayan	-7849
ekalogo	-7850
entuhan	-7851
gagatas	-7852
hiwalay	-7853
ilanggo	-7854
ingapin	-7855
inggang	-7856
irahang	-7857
iritsit	-7858
istahan	-7859
iwanang	-7860
kanyang	-7861
kendeng	-7862
lilisik	-7863
lolohan	-7864
marikit	-7865
rocinio	-7866
sinelas	-7867
ubuklod	-7868
uhayang	-7869
umpisal	-7870
unayang	-7871
unyapit	-7872
usisyon	-7873
uusapan	-7874
▁Alagad	-7875
▁Anghel	-7876
▁Bagobo	-7877
▁Balita	-7878
▁Baltog	-7879
▁Baston	-7880
▁Batong	-7881
▁Bigyan	-7882
▁Buksan	-7883
▁Dalaga	-7884
▁Dalhin	-7885
▁Darang	-7886
▁Emilio	-7887
▁Gayong	-7888
▁Handog	-7889
▁Hangga	-7890
▁Hilaga	-7891
▁Ibanag	-7892
▁Iisang	-7893
▁Iloilo	-7894
▁Inalis	-7895
▁Inayos	-7896
▁Ipinal	-7897
▁Kagaya	-7898
▁Katang	-7899
▁Kitang	-7900
▁Kurita	-7901
▁Lahing	-7902
▁Lalaki	-7903
▁Lintik	-7904
▁Lumaki	-7905
▁Lumayo	-7906
▁Magmam	-7907
▁Magpak	-7908
▁Magsas	-7909
▁Mahina	-7910
▁Mainit	-7911
▁Maitim	-7912
▁Makata	-7913
▁Mamang	-7914
▁Mantap	-7915
▁Mapang	-7916
▁Marcos	-7917
▁Marian	-7918
▁Matang	-7919
▁Nadala	-7920
▁Nagpak	-7921
▁Naroon	-7922
▁Naubos	-7923
▁Pagtat	-7924
▁Pangin	-7925
▁Pantas	-7926
▁Pawang	-7927
▁Salapi	-7928
▁Santol	-7929
▁Sining	-7930
▁Subali	-7931
▁Tamang	-7932
▁Tatayo	-7933
▁Tumaas	-7934
▁Umahon	-7935
▁aakyat	-7936
▁alahas	-7937
▁alitan	-7938
▁aliwin	-7939
▁asahan	-7940
▁awitan	-7941
▁awitin	-7942
▁ayusin	-7943
▁bagama	-7944
▁bagwis	-7945
▁bahala	-7946
▁baling	-7947
▁basket	-7948
▁bihasa	-7949
▁bolang	-7950
▁bukana	-7951
▁bumili	-7952
▁damhin	-7953
▁dumaan	-7954
▁dumapo	-7955
▁galang	-7956
▁gating	-7957
▁gitara	-7958
▁guwang	-7959
▁haligi	-7960
▁halina	-7961
▁hangal	-7962
▁hinhin	-7963
▁hintay	-7964
▁hiwaga	-7965
▁ihulog	-7966
▁ilabas	-7967
▁impluw	-7968
▁inaapi	-7969
▁inabot	-7970
▁inahin	-7971
▁inggit	-7972
▁inihan	-7973
▁inilag	-7974
▁inisip	-7975
▁ipinam	-7976
▁iskrip	-7977
▁itanim	-7978
▁itapon	-7979
▁itulak	-7980
▁kalian	-7981
▁kamang	-7982
▁kanino	-7983
▁kaniya	-7984
▁kapara	-7985
▁karagd	-7986
▁kasawi	-7987
▁kastil	-7988
▁katyaw	-7989
▁kubang	-7990
▁kumita	-7991
▁kutang	-7992
▁kwento	-7993
▁lagyan	-7994
▁lalayo	-7995
▁lambat	-7996
▁lantay	-7997
▁layuni	-7998
▁lintik	-7999
▁liping	-8000
▁lobong	-8001
▁lumayo	-8002
▁lunday	-8003
▁lutuan	-8004
▁maagap	-8005
▁maalam	-8006
▁maasim	-8007
▁magaan	-8008
▁magdad	-8009
▁magkap	-8010
▁magkat	-8011
▁magpah	-8012
▁magsil	-8013
▁magsus	-8014
▁magtut	-8015
▁magulo	-8016
▁mahuli	-8017
▁mainam	-8018
▁mamili	-8019
▁manika	-8020
▁mapasa	-8021
▁mariin	-8022
▁matang	-8023
▁matwid	-8024
▁mayama	-8025
▁medium	-8026
▁munang	-8027
▁muntik	-8028
▁musang	-8029
▁nabali	-8030
▁nagawa	-8031
▁naglul	-8032
▁nagpal	-8033
▁nagpas	-8034
▁nagsip	-8035
▁naisin	-8036
▁nakiki	-8037
▁nalang	-8038
▁napang	-8039
▁nasabi	-8040
▁nasawi	-8041
▁natamo	-8042
▁natuyo	-8043
▁naubos	-8044
▁ningas	-8045
▁niring	-8046
▁normal	-8047
▁pagano	-8048
▁pagbub	-8049
▁pagkap	-8050
▁pagkit	-8051
▁pagsis	-8052
▁pahina	-8053
▁palayo	-8054
▁pamahi	-8055
▁panday	-8056
▁pangan	-8057
▁pantas	-8058
▁papang	-8059
▁papaya	-8060
▁paslit	-8061
▁piping	-8062
▁piraso	-8063
▁pumili	-8064
▁puspos	-8065
▁sadlak	-8066
▁sagang	-8067
▁sandok	-8068
▁sawing	-8069
▁sinira	-8070
▁sising	-8071
▁sumira	-8072
▁sungay	-8073
▁takpan	-8074
▁taksil	-8075
▁tamaan	-8076
▁tindig	-8077
▁tiniis	-8078
▁tinuka	-8079
▁trahed	-8080
▁tumaas	-8081
▁tumula	-8082
▁tuwang	-8083
▁umahon	-8084
▁unggoy	-8085
▁walong	-8086
▁wikain	-8087
▁winika	-8088
Maraming	-8089
Nakalaan	-8090
aginipan	-8091
ahagupit	-8092
ahatulan	-8093
akaawang	-8094
akasundo	-8095
alabasan	-8096
alaganap	-8097
alasakit	-8098
alipinan	-8099
amanglaw	-8100
apatuloy	-8101
apayaman	-8102
atandang	-8103
atanging	-8104
egaluhan	-8105
enegildo	-8106
ihingalo	-8107
inangang	-8108
itanghal	-8109
maligaya	-8110
manghang	-8111
ranghero	-8112
ubuhayin	-8113
ulungkot	-8114
unggaban	-8115
ungkalin	-8116
ungkutin	-8117
▁Antalan	-8118
▁Bituing	-8119
▁Buhayin	-8120
▁Bunsong	-8121
▁Cebuano	-8122
▁Dianzon	-8123
▁Dinarad	-8124
▁Diumano	-8125
▁Dumalap	-8126
▁Filemon	-8127
▁Ganding	-8128
▁Heswita	-8129
▁Huminto	-8130
▁Igalang	-8131
▁Ikaanim	-8132
▁Indones	-8133
▁Iniibig	-8134
▁Iniutos	-8135
▁Ipinagb	-8136
▁Isinuot	-8137
▁Itinaas	-8138
▁Jacinto	-8139
▁Jupiter	-8140
▁Kasabay	-8141
▁Katawan	-8142
▁Kayrami	-8143
▁Lipunan	-8144
▁Lubhang	-8145
▁Lumabas	-8146
▁Lumipad	-8147
▁Mabigat	-8148
▁Magsisi	-8149
▁Mahanga	-8150
▁Mahigit	-8151
▁Malabon	-8152
▁Malasin	-8153
▁Malinaw	-8154
▁Malupit	-8155
▁Marikit	-8156
▁Martang	-8157
▁Matamis	-8158
▁Mayaman	-8159
▁Mutyang	-8160
▁Nagtaka	-8161
▁Nagulat	-8162
▁Nahulog	-8163
▁Nakaupo	-8164
▁Paggawa	-8165
▁Palawan	-8166
▁Pangkat	-8167
▁Sadyang	-8168
▁Sagisag	-8169
▁Sandayo	-8170
▁Sicalac	-8171
▁Sumigaw	-8172
▁Sumisid	-8173
▁Tumigil	-8174
▁Watawat	-8175
▁aanihin	-8176
▁abangan	-8177
▁bahagya	-8178
▁balitaw	-8179
▁bandera	-8180
▁binalot	-8181
▁bingwit	-8182
▁buhayin	-8183
▁bumubuo	-8184
▁bunutin	-8185
▁dagitin	-8186
▁datapwa	-8187
▁detalye	-8188
▁diligin	-8189
▁dukhang	-8190
▁duluhan	-8191
▁dumakot	-8192
▁duwende	-8193
▁ganoong	-8194
▁ginugol	-8195
▁grupong	-8196
▁hanguin	-8197
▁hapunan	-8198
▁hayaang	-8199
▁heneral	-8200
▁higupin	-8201
▁hulihin	-8202
▁humanda	-8203
▁ibalita	-8204
▁ibinato	-8205
▁ikalawa	-8206
▁inaakay	-8207
▁inilaan	-8208
▁ispirit	-8209
▁isusubo	-8210
▁itanong	-8211
▁itinago	-8212
▁itinayo	-8213
▁ituturo	-8214
▁kabigha	-8215
▁kakampi	-8216
▁kakanin	-8217
▁kaluwal	-8218
▁kaparis	-8219
▁kapilas	-8220
▁kasunod	-8221
▁katapat	-8222
▁katwira	-8223
▁kaugnay	-8224
▁kristal	-8225
▁kulisap	-8226
▁kuratsa	-8227
▁laganap	-8228
▁lagapak	-8229
▁lalakad	-8230
▁lambong	-8231
▁laruang	-8232
▁lingkod	-8233
▁luksang	-8234
▁luluhod	-8235
▁lumakas	-8236
▁lumulon	-8237
▁mabunga	-8238
▁madamot	-8239
▁maganap	-8240
▁magdala	-8241
▁maghapo	-8242
▁magilas	-8243
▁magkaka	-8244
▁magsaya	-8245
▁magtago	-8246
▁magtiis	-8247
▁magumon	-8248
▁mahigit	-8249
▁mahinog	-8250
▁maiinam	-8251
▁makahoy	-8252
▁makipag	-8253
▁makipan	-8254
▁malagim	-8255
▁malilim	-8256
▁malunod	-8257
▁mangang	-8258
▁mangaso	-8259
▁mapapal	-8260
▁marahas	-8261
▁masapit	-8262
▁masasal	-8263
▁maselan	-8264
▁masigla	-8265
▁masukal	-8266
▁matulin	-8267
▁mauubos	-8268
▁mawalay	-8269
▁mistula	-8270
▁naalala	-8271
▁nagbayo	-8272
▁nagpala	-8273
▁nagtamo	-8274
▁nahayag	-8275
▁nakakah	-8276
▁nakamit	-8277
▁nakipag	-8278
▁nalanta	-8279
▁namalas	-8280
▁nangagb	-8281
▁nangagh	-8282
▁napagod	-8283
▁napakah	-8284
▁natupok	-8285
▁naunang	-8286
▁nililok	-8287
▁nilusob	-8288
▁ninakaw	-8289
▁orakulo	-8290
▁pabalik	-8291
▁pagdami	-8292
▁paghabi	-8293
▁paglaki	-8294
▁pagsang	-8295
▁paitaas	-8296
▁panalok	-8297
▁panatil	-8298
▁panging	-8299
▁panyong	-8300
▁pasukan	-8301
▁payagan	-8302
▁pinakas	-8303
▁pinangh	-8304
▁planeta	-8305
▁plantsa	-8306
▁popular	-8307
▁puluhan	-8308
▁puwersa	-8309
▁sagutin	-8310
▁salakay	-8311
▁salawal	-8312
▁sasagot	-8313
▁sigwang	-8314
▁silahis	-8315
▁sinapup	-8316
▁sinauna	-8317
▁sinulat	-8318
▁sobrang	-8319
▁subukin	-8320
▁sumasal	-8321
▁sumibol	-8322
▁sumilip	-8323
▁sumipot	-8324
▁taimtim	-8325
▁talukap	-8326
▁tanawin	-8327
▁tandaan	-8328
▁tantuin	-8329
▁tatawag	-8330
▁tigilan	-8331
▁tinuran	-8332
▁tiririt	-8333
▁tribong	-8334
▁umaakay	-8335
▁umiikot	-8336
Lalapitan	-8337
Malungkot	-8338
Mamamatay	-8339
akasamang	-8340
akilanlan	-8341
akiusapan	-8342
alastasan	-8343
alinangan	-8344
bighaning	-8345
ernatural	-8346
ihinatnan	-8347
ihinayang	-8348
iwangwang	-8349
rimonyong	-8350
upumiglas	-8351
uumpugang	-8352
▁Aninipay	-8353
▁Bangkaya	-8354
▁Bautista	-8355
▁Bubuksan	-8356
▁Bumaling	-8357
▁Diyuhara	-8358
▁Halikayo	-8359
▁Ibinigay	-8360
▁Inilagay	-8361
▁Isisilid	-8362
▁Isusumpa	-8363
▁KAMPUPOT	-8364
▁Kapuluan	-8365
▁Katindoy	-8366
▁Kotabato	-8367
▁Kundiman	-8368
▁Magaling	-8369
▁Magbayad	-8370
▁Makahiya	-8371
▁Maligaya	-8372
▁Marunong	-8373
▁Nagagawa	-8374
▁Nagbigay	-8375
▁Nagdaang	-8376
▁Naglagay	-8377
▁Nagsayaw	-8378
▁Nakatira	-8379
▁Nakilala	-8380
▁Pagsapit	-8381
▁Pambansa	-8382
▁Sinundan	-8383
▁Talagang	-8384
▁Tinuruan	-8385
▁Titingin	-8386
▁Tumilaok	-8387
▁Tumingin	-8388
▁Victoria	-8389
▁alaalang	-8390
▁balahibo	-8391
▁bangkang	-8392
▁bantayog	-8393
▁batikang	-8394
▁batingaw	-8395
▁baybayin	-8396
▁bersyong	-8397
▁bibilang	-8398
▁binabayo	-8399
▁biyayang	-8400
▁bubuksan	-8401
▁bumabati	-8402
▁daluyong	-8403
▁dayalogo	-8404
▁diyosang	-8405
▁dumadapo	-8406
▁gumapang	-8407
▁halatang	-8408
▁hinahang	-8409
▁ibabalik	-8410
▁ikinalat	-8411
▁inihagis	-8412
▁ipinasya	-8413
▁isinalin	-8414
▁isisigaw	-8415
▁itinakda	-8416
▁kaanyuan	-8417
▁kaayusan	-8418
▁kahirapa	-8419
▁kakainin	-8420
▁kakaunti	-8421
▁kamangha	-8422
▁kapantay	-8423
▁karaniwa	-8424
▁kasawian	-8425
▁kaserola	-8426
▁katabing	-8427
▁katuwang	-8428
▁kayarian	-8429
▁kilyawan	-8430
▁kinausap	-8431
▁kumidlat	-8432
▁labanang	-8433
▁landasin	-8434
▁layuning	-8435
▁ligayang	-8436
▁likurang	-8437
▁lingapin	-8438
▁lubusang	-8439
▁lumaking	-8440
▁lumalayo	-8441
▁lumuluha	-8442
▁lumutang	-8443
▁lunggati	-8444
▁maaalala	-8445
▁maalamat	-8446
▁mababait	-8447
▁mabining	-8448
▁magbalak	-8449
▁magbuhat	-8450
▁maghapon	-8451
▁magiting	-8452
▁magmasid	-8453
▁magsisil	-8454
▁magtungo	-8455
▁magyakap	-8456
▁mahiwaga	-8457
▁malaglag	-8458
▁malagong	-8459
▁malamang	-8460
▁mamasdan	-8461
▁marahang	-8462
▁masasama	-8463
▁masungit	-8464
▁masusing	-8465
▁matimyas	-8466
▁matinong	-8467
▁matiyaga	-8468
▁mawiwika	-8469
▁mayabong	-8470
▁ministro	-8471
▁nadarama	-8472
▁nagdilim	-8473
▁naghanap	-8474
▁nagkagan	-8475
▁nagmamay	-8476
▁nagpapag	-8477
▁nagpapat	-8478
▁nagpilit	-8479
▁nagpunta	-8480
▁nagsadya	-8481
▁nagtanim	-8482
▁nagtatag	-8483
▁naisulat	-8484
▁nakulong	-8485
▁namasyal	-8486
▁nanghina	-8487
▁nangusap	-8488
▁napadaan	-8489
▁naparito	-8490
▁naririto	-8491
▁nasaktan	-8492
▁nasambit	-8493
▁nasisira	-8494
▁natatamo	-8495
▁naubusan	-8496
▁niluluto	-8497
▁niyaring	-8498
▁orihinal	-8499
▁paggugol	-8500
▁paglaban	-8501
▁paglubog	-8502
▁paglutas	-8503
▁pagpapas	-8504
▁pagpatay	-8505
▁pagtanda	-8506
▁pakiusap	-8507
▁palendag	-8508
▁pamanang	-8509
▁pamaraan	-8510
▁paminsan	-8511
▁pandinig	-8512
▁pangahas	-8513
▁pantribo	-8514
▁papalayo	-8515
▁papanhik	-8516
▁parangal	-8517
▁parating	-8518
▁partidos	-8519
▁patibong	-8520
▁patnugot	-8521
▁payapang	-8522
▁pinagkak	-8523
▁prayleng	-8524
▁pumalaot	-8525
▁pumarito	-8526
▁sagupaan	-8527
▁salaming	-8528
▁salaping	-8529
▁sandaang	-8530
▁sinusuyo	-8531
▁sukdulan	-8532
▁susundan	-8533
▁tagapayo	-8534
▁tagsibol	-8535
▁talampas	-8536
▁taluktok	-8537
▁tanikala	-8538
▁tatsulok	-8539
▁tinalian	-8540
▁tinamaan	-8541
▁tindahan	-8542
▁tumanggi	-8543
▁tumangis	-8544
▁tumingin	-8545
▁umuunlad	-8546
Balintawak	-8547
amatandang	-8548
angkilikin	-8549
indalawang	-8550
mamadaling	-8551
▁Bahaginan	-8552
▁Capariaan	-8553
▁Damdaming	-8554
▁Disyembre	-8555
▁Embidayan	-8556
▁Francisco	-8557
▁Ginagamit	-8558
▁Hahahahah	-8559
▁Hahawakan	-8560
▁Indrapura	-8561
▁Itinanong	-8562
▁Kasulatan	-8563
▁Kayamanan	-8564
▁Kulturang	-8565
▁Lakandiwa	-8566
▁Mabubuhay	-8567
▁Macaranga	-8568
▁Magaganda	-8569
▁Magmadali	-8570
▁Makalipas	-8571
▁Mantapuli	-8572
▁Mapatubig	-8573
▁Matandang	-8574
▁Melendrez	-8575
▁Minisalaw	-8576
▁Nagkagulo	-8577
▁Naglakbay	-8578
▁Nalimutan	-8579
▁Pablitong	-8580
▁Republika	-8581
▁Tabunaway	-8582
▁Tinanggap	-8583
▁Tinawagan	-8584
▁Tiningnan	-8585
▁Titingala	-8586
▁Yambungan	-8587
▁banyagang	-8588
▁binabalik	-8589
▁binanggit	-8590
▁binitiwan	-8591
▁binubunot	-8592
▁bubuhayin	-8593
▁daigdigan	-8594
▁direksyon	-8595
▁ginugugol	-8596
▁hagupitin	-8597
▁hardinero	-8598
▁hiningang	-8599
▁ikapitong	-8600
▁ikauunlad	-8601
▁inihandog	-8602
▁inilibing	-8603
▁ipaglihim	-8604
▁ipagpalit	-8605
▁isalaysay	-8606
▁isisilang	-8607
▁kabaliwan	-8608
▁kabatiran	-8609
▁kabilugan	-8610
▁kabuluhan	-8611
▁kagagawan	-8612
▁kagamitan	-8613
▁kagipitan	-8614
▁kaisipang	-8615
▁kandungan	-8616
▁kariktang	-8617
▁karugtong	-8618
▁kasamaang	-8619
▁katagalan	-8620
▁katamaran	-8621
▁katandaan	-8622
▁katapatan	-8623
▁katipunan	-8624
▁kilalanin	-8625
▁kinaawaan	-8626
▁kinakapos	-8627
▁kinalaman	-8628
▁kinawayan	-8629
▁kumakanta	-8630
▁luwalhati	-8631
▁mabubuhay	-8632
▁magagalit	-8633
▁magagamit	-8634
▁magaspang	-8635
▁magbangon	-8636
▁maghapong	-8637
▁magsalita	-8638
▁magsasabi	-8639
▁magtanong	-8640
▁mahuhulog	-8641
▁maiibigan	-8642
▁mailigtas	-8643
▁makabayan	-8644
▁makakamit	-8645
▁makalabas	-8646
▁makapasok	-8647
▁makarinig	-8648
▁makasapit	-8649
▁makatagpo	-8650
▁malimutan	-8651
▁mambabasa	-8652
▁mapahamak	-8653
▁mapaparam	-8654
▁masasarap	-8655
▁masunurin	-8656
▁masusupil	-8657
▁matahimik	-8658
▁matutuhan	-8659
▁matutulis	-8660
▁matutupad	-8661
▁nabanggit	-8662
▁nagagalit	-8663
▁nagbangon	-8664
▁nagdadala	-8665
▁nagdaraan	-8666
▁naghangad	-8667
▁naglalaro	-8668
▁nagpaalam	-8669
▁nagpakita	-8670
▁nagsabing	-8671
▁nagsasaya	-8672
▁nagtuturo	-8673
▁naiinggit	-8674
▁nakabihis	-8675
▁nakabitin	-8676
▁nakalipad	-8677
▁nakayanan	-8678
▁nalathala	-8679
▁namamahay	-8680
▁nanghiram	-8681
▁nangitlog	-8682
▁napansing	-8683
▁napilitan	-8684
▁nasasabik	-8685
▁nasasakop	-8686
▁nasugatan	-8687
▁natatakot	-8688
▁nawawalan	-8689
▁nilikhang	-8690
▁nililiyag	-8691
▁pagbabasa	-8692
▁pagkabigo	-8693
▁paglalaro	-8694
▁pagsuyong	-8695
▁pagtatalo	-8696
▁pagtatayo	-8697
▁pagtugtog	-8698
▁pakendeng	-8699
▁pakikipag	-8700
▁palayawin	-8701
▁palitawin	-8702
▁paliwanag	-8703
▁pamamahay	-8704
▁pambayani	-8705
▁pamilyang	-8706
▁pangitain	-8707
▁pangkaran	-8708
▁panunumpa	-8709
▁paunlarin	-8710
▁pinalayas	-8711
▁pinapatay	-8712
▁salinlahi	-8713
▁sandalyas	-8714
▁sinalakay	-8715
▁sinasadya	-8716
▁sinimulan	-8717
▁sumasayaw	-8718
▁sumisikat	-8719
▁sundalong	-8720
▁taginting	-8721
▁tangraban	-8722
▁tinigilan	-8723
▁tinikling	-8724
Papalibutan	-8725
alinghagang	-8726
asalukuyang	-8727
▁Bagombayan	-8728
▁Gayunpaman	-8729
▁Hesukristo	-8730
▁Ipinangako	-8731
▁Kalanutian	-8732
▁Kalikasang	-8733
▁Kasarinlan	-8734
▁Katapusang	-8735
▁Katarungan	-8736
▁Kayumanggi	-8737
▁Naghiyawan	-8738
▁Nagkataong	-8739
▁Nagmakaawa	-8740
▁Nagsisipan	-8741
▁Nakaramdam	-8742
▁Nanggaling	-8743
▁Napilitang	-8744
▁Pagkalipas	-8745
▁Panitikang	-8746
▁Paruparong	-8747
▁Patrocinio	-8748
▁Samaritano	-8749
▁Silanganin	-8750
▁Sinasabing	-8751
▁binantayan	-8752
▁binibigyan	-8753
▁binurdahan	-8754
▁bumubulong	-8755
▁ginagawang	-8756
▁hatinggabi	-8757
▁henerasyon	-8758
▁hinahagkan	-8759
▁ibinibigay	-8760
▁inaalagaan	-8761
▁iniingatan	-8762
▁ipaliwanag	-8763
▁ipinangako	-8764
▁itinanghal	-8765
▁kaalipinan	-8766
▁kabihasnan	-8767
▁kabuhayang	-8768
▁kagamitang	-8769
▁kakayahang	-8770
▁kaluluwang	-8771
▁kapalarang	-8772
▁kapintasan	-8773
▁kapirasong	-8774
▁kapulungan	-8775
▁kapuspalad	-8776
▁katapusang	-8777
▁katarungan	-8778
▁kaugaliang	-8779
▁kontrabida	-8780
▁kumikinang	-8781
▁linggatong	-8782
▁lumulutang	-8783
▁mabalitaan	-8784
▁magagaling	-8785
▁magdudulot	-8786
▁magkagalit	-8787
▁magkakamag	-8788
▁magkakapit	-8789
▁magkasakit	-8790
▁magkasundo	-8791
▁magmukhang	-8792
▁magpautang	-8793
▁magtanggol	-8794
▁maitanghal	-8795
▁makakamtan	-8796
▁makaramdam	-8797
▁manalangin	-8798
▁manggagawa	-8799
▁mapanganib	-8800
▁mapuputing	-8801
▁maramdaman	-8802
▁masasayang	-8803
▁matagumpay	-8804
▁matipunong	-8805
▁matuklasan	-8806
▁mawawaglit	-8807
▁mayayamang	-8808
▁nagbubuhat	-8809
▁naghahatid	-8810
▁nagkasundo	-8811
▁naglalagos	-8812
▁nagmamahal	-8813
▁nagpakasal	-8814
▁nagtatanim	-8815
▁nagwawakas	-8816
▁nakatingin	-8817
▁namamangka	-8818
▁nananariwa	-8819
▁nananatili	-8820
▁nanatiling	-8821
▁nanghihina	-8822
▁napakalaki	-8823
▁nararating	-8824
▁ngumingiti	-8825
▁paghahakot	-8826
▁paghihirap	-8827
▁pagkabigla	-8828
▁paglalahad	-8829
▁palaisipan	-8830
▁pamahalaan	-8831
▁pambansang	-8832
▁panalangin	-8833
▁panambitan	-8834
▁panggabing	-8835
▁pariralang	-8836
▁pinagagawa	-8837
▁pinangarap	-8838
▁pinapansin	-8839
▁pupuntahan	-8840
▁salubungin	-8841
▁sampaguita	-8842
▁sanggunian	-8843
▁sinasabing	-8844
▁sinilangan	-8845
▁sinisipsip	-8846
▁taludturan	-8847
▁tinataglay	-8848
▁tinatakpan	-8849
apangyarihan	-8850
ipagkaibigan	-8851
▁Impahimbang	-8852
▁Kapampangan	-8853
▁Maghimagsik	-8854
▁Sitsiritsit	-8855
▁Tangkilikin	-8856
▁Villafuerte	-8857
▁inanyayahan	-8858
▁inihahandog	-8859
▁ipaghiganti	-8860
▁isinalaysay	-8861
▁kabihasnang	-8862
▁kabundukang	-8863
▁kadahilanan	-8864
▁kalagitnaan	-8865
▁kalinangang	-8866
▁kapanahunan	-8867
▁kapighatian	-8868
▁kapupulutan	-8869
▁karagdagang	-8870
▁kasanggulan	-8871
▁kasaysayang	-8872
▁luwalhating	-8873
▁magpagulang	-8874
▁magtagumpay	-8875
▁makakayanan	-8876
▁makasalanan	-8877
▁malalabasan	-8878
▁mapatunayan	-8879
▁matatanggap	-8880
▁matatapatan	-8881
▁minumutyang	-8882
▁nagkapakpak	-8883
▁nagmamalaki	-8884
▁nagsasabing	-8885
▁nagsasalita	-8886
▁nagsimulang	-8887
▁nagsisimula	-8888
▁nagtagumpay	-8889
▁nagtangkang	-8890
▁nagtatanong	-8891
▁nakahandang	-8892
▁nakatakdang	-8893
▁napangasawa	-8894
▁natatanging	-8895
▁pagdaralita	-8896
▁pagkagising	-8897
▁pagkakaluto	-8898
▁pagpupulong	-8899
▁pagsisilang	-8900
▁pakikidigma	-8901
▁palatandaan	-8902
▁pamimingwit	-8903
▁pananahimik	-8904
▁panganganak	-8905
▁parurusahan	-8906
▁pasalamatan	-8907
▁pinagdarayo	-8908
▁pinaglaruan	-8909
▁sinasadyang	-8910
▁tagapakinig	-8911
▁tatanggapin	-8912
▁tinatanggap	-8913
▁Binabantayan	-8914
▁Hermenegildo	-8915
▁Pinakamataas	-8916
▁kayumangging	-8917
▁nagkahiwalay	-8918
▁nagliliwanag	-8919
▁nagmistulang	-8920
▁nagtatrabaho	-8921
▁nakakapiling	-8922
▁nanggagaling	-8923
▁nasisiyahang	-8924
▁pagkakahawig	-8925
▁paglilingkod	-8926
▁pagpapahayag	-8927
▁pagpapaunlad	-8928
▁pagpipitagan	-8929
▁pampanitikan	-8930
▁paniniwalang	-8931
▁pinaghirapan	-8932
▁pinaglabanan	-8933
▁pinagsabihan	-8934
▁pinakamaliit	-8935
▁pinakamataas	-8936
▁pinalamutian	-8937
▁pinamumunuan	-8938
▁sangkatauhan	-8939
▁supernatural	-8940
▁Ipinagpatuloy	-8941
▁Nakapagtataka	-8942
▁Pinatutunayan	-8943
▁kaluwalhatian	-8944
▁magpahanggang	-8945
▁makapagsimula	-8946
▁makipanirahan	-8947
▁mangingisdang	-8948
▁nagniningning	-8949
▁nagsasalaysay	-8950
▁nakatatandang	-8951
▁paghihimagsik	-8952
▁paghihinagpis	-8953
▁pagkakaibigan	-8954
▁pagtatagumpay	-8955
▁pinaglibingan	-8956
▁pinakamahusay	-8957
▁pinangalanang	-8958
▁Pinaniniwalaan	-8959
▁interpretasyon	-8960
▁mangungunyapit	-8961
▁nagpapahiwatig	-8962
▁tagapagtanggol	-8963
▁nangangahulugan	-8964
AMA	-8965
Eee	-8966
III	-8967
eck	-8968
eco	-8969
ect	-8970
eee	-8971
eow	-8972
ric	-8973
▁2)	-8974
▁2:	-8975
-12:	-8976
AMBI	-8977
Alam	-8978
Ikin	-8979
Mayr	-8980
Pagb	-8981
Patr	-8982
Tigp	-8983
argo	-8984
bibi	-8985
biro	-8986
chos	-8987
cion	-8988
ebey	-8989
epto	-8990
hrod	-8991
labe	-8992
lowe	-8993
mlks	-8994
ngao	-8995
otoh	-8996
riol	-8997
rona	-8998
ssss	-8999
PAT	-9000
poc	-9001
APAT	-9002
cpoc	-9003
ugho	-9004
▁Asu	-9005
▁Bic	-9006
▁Est	-9007
▁Hmm	-9008
▁INA	-9009
▁Low	-9010
▁ark	-9011
▁buo	-9012
▁ire	-9013
▁uso	-9014
Hayun	-9015
Malum	-9016
Matat	-9017
Matut	-9018
abaho	-9019
aksak	-9020
aksil	-9021
alogd	-9022
amsik	-9023
amtam	-9024
ansay	-9025
apora	-9026
ardar	-9027
areha	-9028
atect	-9029
chant	-9030
durog	-9031
eckar	-9032
edest	-9033
empsy	-9034
enido	-9035
enyor	-9036
eowul	-9037
erico	-9038
habag	-9039
igiik	-9040
iilaw	-9041
ikomp	-9042
iksik	-9043
ilihi	-9044
kanya	-9045
lipop	-9046
liyab	-9047
minsa	-9048
nugot	-9049
octor	-9050
otekt	-9051
pekto	-9052
seras	-9053
sismo	-9054
suwan	-9055
terin	-9056
tuyot	-9057
uklam	-9058
uklok	-9059
ulwak	-9060
urado	-9061
urgos	-9062
uropa	-9063
vukad	-9064
yedad	-9065
▁Abad	-9066
▁Aeta	-9067
▁Bien	-9068
▁Dagl	-9069
▁Gatp	-9070
▁High	-9071
▁Hudh	-9072
▁Losl	-9073
▁Misk	-9074
▁Noby	-9075
▁Prom	-9076
▁Shar	-9077
▁Utak	-9078
▁Vill	-9079
▁abal	-9080
▁amba	-9081
▁aria	-9082
▁bibe	-9083
▁buod	-9084
▁duon	-9085
▁eduk	-9086
▁hidh	-9087
▁kimm	-9088
▁kubl	-9089
▁kudy	-9090
▁kuko	-9091
▁laon	-9092
▁leon	-9093
▁look	-9094
▁luko	-9095
▁mumo	-9096
▁oohh	-9097
▁seco	-9098
▁siph	-9099
▁f	-9100
dob	-9101
ede	-9102
esp	-9103
gal	-9104
Gaya	-9105
Lupa	-9106
abes	-9107
akal	-9108
angs	-9109
bali	-9110
ogod	-9111
puan	-9112
wika	-9113
▁ant	-9114
abuan	-9115
alili	-9116
ataon	-9117
ilian	-9118
masid	-9119
ubdob	-9120
yonal	-9121
▁Baba	-9122
▁Damb	-9123
▁Nene	-9124
▁dara	-9125
▁soso	-9126
▁sugp	-9127
▁sumb	-9128
▁tayu	-9129
▁tela	-9130
▁yumi	-9131
AMBINI	-9132
Dardar	-9133
Doctor	-9134
Lalake	-9135
Magpip	-9136
Manobo	-9137
Nakita	-9138
Narito	-9139
Ngunit	-9140
Pabula	-9141
Sasamb	-9142
aaaliw	-9143
aakala	-9144
aantig	-9145
aantok	-9146
abitiw	-9147
adyain	-9148
aghari	-9149
ahabol	-9150
ahasik	-9151
alabal	-9152
alupan	-9153
alyero	-9154
ambong	-9155
amhati	-9156
anakit	-9157
angsol	-9158
aramay	-9159
arimot	-9160
arinaw	-9161
asaksi	-9162
asamba	-9163
atawid	-9164
atoryo	-9165
cpoclo	-9166
ebeyew	-9167
egosyo	-9168
egrito	-9169
elismo	-9170
eowulf	-9171
esorya	-9172
eywang	-9173
hapong	-9174
ighati	-9175
ihagis	-9176
iinang	-9177
ilipit	-9178
ingsel	-9179
itikim	-9180
itikom	-9181
itnang	-9182
kawasa	-9183
lalaki	-9184
nunuan	-9185
ogodog	-9186
ogyaya	-9187
okohan	-9188
olidik	-9189
palaya	-9190
takang	-9191
ubuhos	-9192
ugenio	-9193
ugnung	-9194
uhubog	-9195
ukuban	-9196
ulapay	-9197
umilit	-9198
unduan	-9199
Ab	-9200
.")	-9201
Naka	-9202
alta	-9203
buko	-9204
edyo	-9205
▁alp	-9206
▁dap	-9207
abaon	-9208
adtad	-9209
alina	-9210
ampal	-9211
ampis	-9212
anaul	-9213
antad	-9214
apant	-9215
iiwan	-9216
ongto	-9217
▁Daig	-9218
▁Katu	-9219
▁Magd	-9220
▁cari	-9221
▁marm	-9222
aaabot	-9223
adalam	-9224
akawan	-9225
antaon	-9226
anting	-9227
himala	-9228
inhing	-9229
kimpal	-9230
uguhit	-9231
unghay	-9232
ungkag	-9233
ungkol	-9234
unsina	-9235
unukal	-9236
unying	-9237
utukin	-9238
▁Amado	-9239
▁Among	-9240
▁Aywan	-9241
▁BULAK	-9242
▁Bahag	-9243
▁Benig	-9244
▁Bicol	-9245
▁Bienv	-9246
▁Bonto	-9247
▁Buuin	-9248
▁Dampa	-9249
▁Hamak	-9250
▁Iloko	-9251
▁Kakal	-9252
▁Kamay	-9253
▁Kamya	-9254
▁Karun	-9255
▁LAHAT	-9256
▁Latin	-9257
▁Linog	-9258
▁Lunes	-9259
▁Mapap	-9260
▁Minsa	-9261
▁Mutya	-9262
▁Nabuo	-9263
▁Nueva	-9264
▁Ohhhh	-9265
▁Oriol	-9266
▁Pista	-9267
▁Prans	-9268
▁Putak	-9269
▁Rosas	-9270
▁Singk	-9271
▁Solom	-9272
▁Sumal	-9273
▁Sumus	-9274
▁Tabor	-9275
▁Tamad	-9276
▁Tangi	-9277
▁Tasyo	-9278
▁Tomin	-9279
▁Tsina	-9280
▁Ulila	-9281
▁Umaga	-9282
▁Visay	-9283
▁Yabes	-9284
▁aisle	-9285
▁ambon	-9286
▁anaki	-9287
▁arkit	-9288
▁armas	-9289
▁bihag	-9290
▁bihis	-9291
▁biniy	-9292
▁bulsa	-9293
▁bungi	-9294
▁buslo	-9295
▁dadag	-9296
▁dagim	-9297
▁dagli	-9298
▁durog	-9299
Pap	-9300
ber	-9301
eri	-9302
nen	-9303
ord	-9304
▁uy	-9305
akod	-9306
alsa	-9307
hena	-9308
immo	-9309
isen	-9310
obya	-9311
odes	-9312
▁Usa	-9313
▁imb	-9314
erial	-9315
iibig	-9316
iinit	-9317
inaon	-9318
ingil	-9319
ipins	-9320
uhata	-9321
uwaan	-9322
▁Amay	-9323
▁Bita	-9324
▁ikal	-9325
▁ipan	-9326
▁kali	-9327
▁laan	-9328
▁lata	-9329
▁lobo	-9330
▁mano	-9331
ahatan	-9332
ayaman	-9333
igyang	-9334
immoco	-9335
isipol	-9336
okisen	-9337
▁Kakur	-9338
▁aleng	-9339
▁eklip	-9340
▁eksor	-9341
▁gusot	-9342
▁hahag	-9343
▁hibas	-9344
▁hihip	-9345
▁hukay	-9346
▁huwad	-9347
▁idina	-9348
▁inapo	-9349
▁ipagm	-9350
▁isama	-9351
▁iskol	-9352
▁iwing	-9353
▁kabag	-9354
▁kabuh	-9355
▁kalap	-9356
▁kapon	-9357
▁kasan	-9358
▁katot	-9359
▁kilik	-9360
▁kinaa	-9361
▁koles	-9362
▁kunwa	-9363
▁layag	-9364
▁limit	-9365
▁lungs	-9366
▁mabuo	-9367
▁macan	-9368
▁masay	-9369
▁medyo	-9370
▁moral	-9371
▁nalik	-9372
▁napas	-9373
▁nasam	-9374
▁pahat	-9375
▁palig	-9376
▁patag	-9377
▁patal	-9378
▁pawid	-9379
▁putak	-9380
▁rosal	-9381
▁sangh	-9382
▁silbi	-9383
▁sisis	-9384
▁sobra	-9385
▁sumil	-9386
▁supot	-9387
▁tibud	-9388
▁tikas	-9389
▁tipak	-9390
▁trans	-9391
▁tugma	-9392
▁tukso	-9393
▁tungg	-9394
▁tutup	-9395
▁tuyot	-9396
▁ugong	-9397
▁unawa	-9398
▁vinta	-9399
"?	-9400
eol	-9401
huy	-9402
old	-9403
oll	-9404
...)	-9405
ahaw	-9406
amim	-9407
anya	-9408
ason	-9409
ilok	-9410
iwis	-9411
okon	-9412
oyaw	-9413
silk	-9414
uhul	-9415
ulto	-9416
uruk	-9417
vana	-9418
▁Bur	-9419
▁Hoy	-9420
▁Lol	-9421
▁Loy	-9422
▁gal	-9423
abeto	-9424
alago	-9425
amnan	-9426
amtan	-9427
eolog	-9428
iitim	-9429
kahan	-9430
panib	-9431
sahan	-9432
tasin	-9433
udyat	-9434
undat	-9435
▁Atin	-9436
▁Bint	-9437
▁Coll	-9438
▁Oray	-9439
▁Tabi	-9440
▁haba	-9441
▁naku	-9442
▁suma	-9443
▁swak	-9444
Magpap	-9445
akahin	-9446
alamig	-9447
emanya	-9448
isilip	-9449
iyasat	-9450
unidad	-9451
yayang	-9452
▁Binti	-9453
▁Kaawa	-9454
▁Panap	-9455
▁aniya	-9456
▁gangg	-9457
▁hibik	-9458
▁kayat	-9459
▁pahih	-9460
▁pinar	-9461
▁sulat	-9462
▁yabag	-9463
▁yugto	-9464
Hahagul	-9465
LINISAN	-9466
Malaueg	-9467
Marahas	-9468
Mayroon	-9469
Ninakaw	-9470
Saklolo	-9471
aalaala	-9472
abagtas	-9473
abikang	-9474
abuting	-9475
adalhan	-9476
agawian	-9477
aghapon	-9478
aglayin	-9479
ahatang	-9480
akitaan	-9481
alamyos	-9482
alangoy	-9483
alimuot	-9484
alogdog	-9485
aluktot	-9486
alunton	-9487
amaalam	-9488
amahagi	-9489
ambibig	-9490
ambuhay	-9491
ampanga	-9492
aralgal	-9493
aravana	-9494
atapong	-9495
atasang	-9496
atectec	-9497
atubili	-9498
ayabong	-9499
AA	-9500
HAN	-9501
Hul	-9502
Min	-9503
eid	-9504
sum	-9505
vid	-9506
UHAN	-9507
ahra	-9508
alil	-9509
idas	-9510
ihon	-9511
iyaw	-9512
sisi	-9513
ubot	-9514
ukid	-9515
usod	-9516
vide	-9517
▁Duw	-9518
▁Gar	-9519
▁dad	-9520
▁dug	-9521
▁ipa	-9522
alags	-9523
bihan	-9524
bukid	-9525
hanap	-9526
ingid	-9527
ungot	-9528
uwaya	-9529
▁Payo	-9530
▁Yaon	-9531
▁kaal	-9532
▁kata	-9533
▁layo	-9534
▁nait	-9535
abanan	-9536
abayan	-9537
ahayan	-9538
alisan	-9539
ibagay	-9540
ibayan	-9541
ipilit	-9542
itindi	-9543
lalang	-9544
▁Gubat	-9545
▁Mapay	-9546
▁Midas	-9547
▁babai	-9548
▁bubog	-9549
▁ihain	-9550
▁ipagk	-9551
▁kalim	-9552
▁manib	-9553
▁matiy	-9554
▁talis	-9555
Hulihin	-9556
ayagpag	-9557
ebisyon	-9558
edestal	-9559
ensuela	-9560
esyonal	-9561
etapora	-9562
gilalas	-9563
hanggan	-9564
hrodite	-9565
ibigkis	-9566
ibisita	-9567
iikutin	-9568
ikhaing	-9569
ilanlin	-9570
ilimbag	-9571
imortal	-9572
inaayos	-9573
inataan	-9574
isingin	-9575
kabigin	-9576
kamukha	-9577
lintang	-9578
lipunan	-9579
maganda	-9580
mundong	-9581
ngingit	-9582
ongtoan	-9583
opootan	-9584
otohana	-9585
pisahan	-9586
singhap	-9587
tikular	-9588
ugulong	-9589
ukdulan	-9590
ukipkip	-9591
umbasan	-9592
umurang	-9593
uwintas	-9594
▁Angkin	-9595
▁Asahan	-9596
▁Bacong	-9597
▁Bagwis	-9598
▁Bahagi	-9599
Ha	-9600
UM	-9601
!",	-9602
eka	-9603
gay	-9604
her	-9605
ild	-9606
ukb	-9607
▁SA	-9608
Koro	-9609
bang	-9610
eeng	-9611
gayn	-9612
gong	-9613
ikdo	-9614
ingp	-9615
maya	-9616
pher	-9617
rong	-9618
▁Dur	-9619
▁Tut	-9620
▁gay	-9621
Malag	-9622
amasa	-9623
ligid	-9624
rocio	-9625
usika	-9626
▁Alul	-9627
▁guho	-9628
▁ikap	-9629
▁ilil	-9630
▁lukb	-9631
▁panr	-9632
▁tatl	-9633
alakan	-9634
ambang	-9635
anteng	-9636
gaynet	-9637
ilibak	-9638
isigan	-9639
musika	-9640
uruang	-9641
▁Hayan	-9642
▁Ilong	-9643
▁Lalak	-9644
▁Maman	-9645
▁Pingp	-9646
▁Union	-9647
▁WAKAS	-9648
▁bulak	-9649
▁maint	-9650
▁salak	-9651
▁sipit	-9652
▁tanga	-9653
Luluhod	-9654
Malagom	-9655
alangga	-9656
upwesto	-9657
▁Bigong	-9658
▁Birhen	-9659
▁Bontoc	-9660
▁Bumaba	-9661
▁Bumili	-9662
▁Bungal	-9663
▁Burgos	-9664
▁Buwaya	-9665
▁Dangla	-9666
▁Enrile	-9667
▁Gloria	-9668
▁Halina	-9669
▁Hermes	-9670
▁Inabot	-9671
▁Inglat	-9672
▁KASAMA	-9673
▁Karamp	-9674
▁Katalo	-9675
▁Korong	-9676
▁Laking	-9677
▁Loslos	-9678
▁Lupain	-9679
▁Maaari	-9680
▁Magpap	-9681
▁Mamili	-9682
▁Manaul	-9683
▁Mapaap	-9684
▁Minago	-9685
▁Naakit	-9686
▁Naiiba	-9687
▁Nanaog	-9688
▁Nanood	-9689
▁Neckar	-9690
▁Nenita	-9691
▁Padang	-9692
▁Pagkal	-9693
▁Pandak	-9694
▁Papaya	-9695
▁Patric	-9696
▁Pinagh	-9697
▁Pinagk	-9698
▁Pulubi	-9699
2,	-9700
OS	-9701
])	-9702
Din	-9703
OSA	-9704
edd	-9705
pag	-9706
▁BA	-9707
▁TA	-9708
▁py	-9709
HHHH	-9710
adan	-9711
atim	-9712
atro	-9713
ikol	-9714
paka	-9715
unud	-9716
uunt	-9717
▁BAL	-9718
▁Biy	-9719
Amang	-9720
aliin	-9721
arayo	-9722
ingal	-9723
ungas	-9724
▁Isip	-9725
▁Kuba	-9726
▁Ledd	-9727
▁ROSA	-9728
▁Sang	-9729
▁yong	-9730
Aruman	-9731
Bayaan	-9732
hambal	-9733
ikatan	-9734
ilapon	-9735
isahin	-9736
umikap	-9737
▁Malim	-9738
▁Pedro	-9739
▁ayoko	-9740
▁binid	-9741
▁mahad	-9742
▁mahar	-9743
▁mayro	-9744
▁paisa	-9745
▁pinoy	-9746
▁sinab	-9747
pangkat	-9748
▁Bayaan	-9749
▁Payong	-9750
▁Punung	-9751
▁Sansin	-9752
▁Sayang	-9753
▁Sinagm	-9754
▁Sising	-9755
▁Susana	-9756
▁Tagyak	-9757
▁Talags	-9758
▁Tapaan	-9759
▁Teksto	-9760
▁Tinuka	-9761
▁Turuan	-9762
▁Tuwing	-9763
▁Tuyong	-9764
▁Umalis	-9765
▁abutan	-9766
▁adelpa	-9767
▁alayan	-9768
▁aragan	-9769
▁aralin	-9770
▁balbas	-9771
▁basong	-9772
▁bigkis	-9773
▁binayo	-9774
▁bisang	-9775
▁bitbit	-9776
▁boteng	-9777
▁bulkan	-9778
▁bungad	-9779
▁dakpin	-9780
▁devide	-9781
▁dungis	-9782
▁durung	-9783
▁gatong	-9784
▁ginang	-9785
▁ginuho	-9786
▁guguan	-9787
▁gumiri	-9788
▁hagdan	-9789
▁hagkan	-9790
▁hatiin	-9791
▁hidhid	-9792
▁hilaga	-9793
▁hudyat	-9794
▁humpay	-9795
▁ibayad	-9796
▁iganti	-9797
▁ikabub	-9798
▁ikalul	-9799
bp	-9800
uf	-9801
Nar	-9802
Nat	-9803
Tag	-9804
iki	-9805
kos	-9806
mum	-9807
wal	-9808
▁Ac	-9809
▁Aw	-9810
▁mu	-9811
Magk	-9812
alal	-9813
asap	-9814
ilot	-9815
mana	-9816
waan	-9817
walo	-9818
▁Lag	-9819
▁Ruf	-9820
▁Taw	-9821
▁tah	-9822
▁tiw	-9823
anyak	-9824
asaya	-9825
inamn	-9826
nggoy	-9827
pasan	-9828
uhagi	-9829
▁atbp	-9830
▁bags	-9831
▁gong	-9832
▁kara	-9833
▁muog	-9834
▁sind	-9835
▁temp	-9836
akaila	-9837
isinag	-9838
pangan	-9839
▁Ibuan	-9840
▁Maaga	-9841
▁kapur	-9842
▁sapot	-9843
▁solit	-9844
▁tanim	-9845
alpasan	-9846
asyalan	-9847
ilabang	-9848
inamnam	-9849
mumukha	-9850
unganen	-9851
▁Awitin	-9852
▁Rufino	-9853
▁Unggoy	-9854
▁hinabi	-9855
▁imahen	-9856
▁impera	-9857
▁inasam	-9858
▁indust	-9859
▁inilul	-9860
▁inutos	-9861
▁ipukol	-9862
▁isahan	-9863
▁isukat	-9864
▁itigil	-9865
▁kabang	-9866
▁kadena	-9867
▁kahong	-9868
▁kaibig	-9869
▁kainan	-9870
▁kambal	-9871
▁kanais	-9872
▁kanina	-9873
▁kawali	-9874
▁kawawa	-9875
▁kimpal	-9876
▁korona	-9877
▁kukong	-9878
▁kumpol	-9879
▁kungdi	-9880
▁lampas	-9881
▁lampin	-9882
▁lasing	-9883
▁liling	-9884
▁lingid	-9885
▁maatim	-9886
▁maginh	-9887
▁magkar	-9888
▁maikli	-9889
▁maipak	-9890
▁makaya	-9891
▁malaon	-9892
▁marmol	-9893
▁molabe	-9894
▁musala	-9895
▁naaani	-9896
▁nabigo	-9897
▁naisat	-9898
▁namana	-9899
Ak	-9900
].	-9901
Gan	-9902
Kaw	-9903
ads	-9904
agn	-9905
kuw	-9906
sag	-9907
▁aw	-9908
bago	-9909
ipun	-9910
kang	-9911
ugba	-9912
▁Dan	-9913
▁rit	-9914
▁tuh	-9915
adsad	-9916
akali	-9917
asara	-9918
ikisl	-9919
iming	-9920
iraan	-9921
lakas	-9922
▁blak	-9923
▁lima	-9924
▁maal	-9925
▁maig	-9926
▁teks	-9927
▁tuso	-9928
Kawawa	-9929
adaloy	-9930
imbita	-9931
sangan	-9932
ubayan	-9933
▁Danum	-9934
▁Mabub	-9935
▁Sapat	-9936
▁hukom	-9937
▁masil	-9938
▁tikis	-9939
alanang	-9940
torikal	-9941
unganga	-9942
▁Athena	-9943
▁Gumawa	-9944
▁Pitong	-9945
▁namuno	-9946
▁nangab	-9947
▁napagk	-9948
▁napita	-9949
▁nauuwi	-9950
▁niling	-9951
▁padyak	-9952
▁pagkai	-9953
▁pagkuk	-9954
▁pakwan	-9955
▁palaki	-9956
▁pansit	-9957
▁pareho	-9958
▁paring	-9959
▁pasint	-9960
▁pawiin	-9961
▁perdig	-9962
▁pintor	-9963
▁porsel	-9964
▁prayle	-9965
▁puwang	-9966
▁pwesto	-9967
▁pyesta	-9968
▁rangya	-9969
▁sasama	-9970
▁simple	-9971
▁sumapi	-9972
▁sumuyo	-9973
▁sungit	-9974
▁suriin	-9975
▁susuko	-9976
▁talian	-9977
▁tamnan	-9978
▁teksto	-9979
▁templo	-9980
▁tighaw	-9981
▁tiktak	-9982
▁tukain	-9983
▁tutuon	-9984
▁umagaw	-9985
▁umihip	-9986
▁umunat	-9987
▁umusad	-9988
▁umuuwi	-9989
▁upuang	-9990
▁wasaki	-9991
▁yumuko	-9992
▁yuyuko	-9993
Arumanen	-9994
Bibigkas	-9995
Dekalogo	-9996
Dumating	-9997
Hahagulg	-9998
Iaangkop	-9999
;"	-10000
IN	-10001
gg	-10002
kl	-10003
ham	-10004
ibi	-10005
nat	-10006
ran	-10007
▁Mo	-10008
Ipak	-10009
Mang	-10010
alia	-10011
engu	-10012
gang	-10013
hero	-10014
idor	-10015
rekl	-10016
vera	-10017
▁Ate	-10018
▁Dat	-10019
▁Tur	-10020
▁gam	-10021
▁upo	-10022
aanod	-10023
aktik	-10024
alaon	-10025
amora	-10026
inong	-10027
ipili	-10028
isama	-10029
laman	-10030
uhaan	-10031
▁Bibl	-10032
▁Isda	-10033
▁Kong	-10034
▁pili	-10035
akiman	-10036
angkok	-10037
anyong	-10038
enguet	-10039
▁Dilag	-10040
▁Ipagd	-10041
▁Mahih	-10042
▁Papag	-10043
▁Tabak	-10044
▁aring	-10045
▁katar	-10046
▁mapip	-10047
▁napip	-10048
▁pulis	-10049
akamali	-10050
aktikal	-10051
awanang	-10052
iwagaan	-10053
reklamo	-10054
ulangin	-10055
ulimlim	-10056
▁Intsik	-10057
▁Maghah	-10058
▁Rivera	-10059
▁abutin	-10060
▁kabibi	-10061
▁lagnat	-10062
▁lugami	-10063
▁luhaan	-10064
▁panata	-10065
▁sumbat	-10066
▁tangos	-10067
Ibibigay	-10068
Kaibigan	-10069
Mangyari	-10070
Paulitin	-10071
Pilipino	-10072
Pupwesto	-10073
Tigpasin	-10074
abalahan	-10075
agamitin	-10076
aginting	-10077
aguluhan	-10078
ahamakan	-10079
alungkot	-10080
amatuwid	-10081
andingan	-10082
apanatag	-10083
asaalang	-10084
asagutin	-10085
asakupan	-10086
atingkad	-10087
ayakapin	-10088
chantara	-10089
ernandez	-10090
etyembre	-10091
ibughang	-10092
iginhawa	-10093
ihinging	-10094
ikakaila	-10095
ilokohan	-10096
imetheus	-10097
ingitlog	-10098
ipinsala	-10099
Pin	-10100
ale	-10101
day	-10102
lib	-10103
mab	-10104
pen	-10105
uad	-10106
uhi	-10107
anog	-10108
anos	-10109
imik	-10110
uyam	-10111
▁Hih	-10112
▁diy	-10113
▁kik	-10114
aluin	-10115
amung	-10116
atamb	-10117
galaw	-10118
talon	-10119
uuyam	-10120
▁isas	-10121
▁uhaw	-10122
atuday	-10123
ibulan	-10124
intong	-10125
unuang	-10126
▁Nakas	-10127
▁Narar	-10128
▁Pawis	-10129
▁Tahan	-10130
▁aping	-10131
▁gabay	-10132
▁hinuk	-10133
▁iabot	-10134
▁kahul	-10135
▁lumot	-10136
▁naawa	-10137
▁napah	-10138
▁tanak	-10139
ikalang	-10140
▁Ipinag	-10141
▁Lihang	-10142
▁Pulang	-10143
▁alabok	-10144
▁ikinat	-10145
▁inaliw	-10146
▁liblib	-10147
▁napapa	-10148
▁pababa	-10149
▁silain	-10150
▁umimik	-10151
ahayagan	-10152
ilimutan	-10153
isinalin	-10154
isisihan	-10155
iwasayan	-10156
kaniyang	-10157
mamasdan	-10158
presyong	-10159
salaysay	-10160
ubuwisit	-10161
ukdulang	-10162
umukhang	-10163
ungaling	-10164
unghayan	-10165
ungsuwan	-10166
unungong	-10167
▁Alagaan	-10168
▁Andrade	-10169
▁Apolaki	-10170
▁Babaing	-10171
▁Bahagya	-10172
▁Bangkay	-10173
▁Basilio	-10174
▁Bawasan	-10175
▁Benigno	-10176
▁Bibliya	-10177
▁Binalak	-10178
▁Bubuhat	-10179
▁Bulawan	-10180
▁Dadaluh	-10181
▁Dagling	-10182
▁Dogodog	-10183
▁Dumaong	-10184
▁Gambang	-10185
▁Gatpayo	-10186
▁Gumanda	-10187
▁Gustong	-10188
▁Hagunoy	-10189
▁Hinamon	-10190
▁Ibinaba	-10191
▁Iniabot	-10192
▁Jerusal	-10193
▁Kalinga	-10194
▁Kaputol	-10195
▁Kaybuti	-10196
▁Kumapit	-10197
▁Kumatok	-10198
▁Lalapit	-10199
Hah	-10200
Tum	-10201
iso	-10202
kum	-10203
omb	-10204
pab	-10205
▁AT	-10206
ahum	-10207
plas	-10208
ulaw	-10209
ulum	-10210
uyaw	-10211
uyos	-10212
▁Guw	-10213
▁aya	-10214
Dapat	-10215
abaan	-10216
abago	-10217
apawi	-10218
oocan	-10219
sanib	-10220
▁Pari	-10221
▁anya	-10222
▁mura	-10223
▁nala	-10224
▁plat	-10225
▁taun	-10226
Nakang	-10227
alipad	-10228
ampung	-10229
▁Lamok	-10230
▁Makop	-10231
▁gahum	-10232
▁pagit	-10233
▁tangg	-10234
▁tiisi	-10235
▁uring	-10236
agkaisa	-10237
andusay	-10238
isasyon	-10239
▁Amuyaw	-10240
▁Bandan	-10241
▁Guwela	-10242
▁Kagyat	-10243
▁Makopa	-10244
▁Nasabi	-10245
▁inalis	-10246
▁marang	-10247
▁naamis	-10248
▁nagpan	-10249
▁ninais	-10250
▁ninong	-10251
▁pantig	-10252
▁papunt	-10253
▁sundan	-10254
▁umilag	-10255
ikompisa	-10256
▁Beowulf	-10257
▁Leghorn	-10258
▁Lilitaw	-10259
▁Loslosi	-10260
▁Lucutan	-10261
▁Luksang	-10262
▁Lumanog	-10263
▁Lumawig	-10264
▁Lumubog	-10265
▁Mabango	-10266
▁Madilim	-10267
▁Magbiro	-10268
▁Magobya	-10269
▁Magtago	-10270
▁Malimit	-10271
▁Mamatay	-10272
▁Manalig	-10273
▁Maputla	-10274
▁Marcelo	-10275
▁Mariano	-10276
▁Marlowe	-10277
▁Matibay	-10278
▁Minsang	-10279
▁Nagdaan	-10280
▁Nagmula	-10281
▁Nagtayo	-10282
▁Nakalbo	-10283
▁Nakatut	-10284
▁Namuhay	-10285
▁Napakas	-10286
▁Nawalan	-10287
▁Nebeyew	-10288
▁Negrito	-10289
▁Palihim	-10290
▁Pambata	-10291
▁Pambili	-10292
▁Penuela	-10293
▁Pinigil	-10294
▁Pinutol	-10295
▁Polidik	-10296
▁Puhunan	-10297
▁Pumitas	-10298
▁Sentral	-10299
ugb	-10300
▁1)	-10301
▁ut	-10302
Wika	-10303
egas	-10304
enus	-10305
ings	-10306
mata	-10307
riya	-10308
usig	-10309
▁Lid	-10310
▁Mil	-10311
▁Tir	-10312
▁amo	-10313
▁sit	-10314
Batay	-10315
angki	-10316
apito	-10317
buong	-10318
igkis	-10319
isaya	-10320
sindi	-10321
▁Bete	-10322
▁Laya	-10323
▁bula	-10324
▁naib	-10325
▁naih	-10326
▁saad	-10327
Bisaya	-10328
agalag	-10329
alapat	-10330
anggay	-10331
apatak	-10332
uyurak	-10333
▁kanun	-10334
▁kinur	-10335
▁linaw	-10336
▁malun	-10337
▁talos	-10338
Mabilis	-10339
dudulot	-10340
ilingas	-10341
panahon	-10342
▁Dayang	-10343
▁Labong	-10344
▁hinang	-10345
▁ikahon	-10346
▁kakain	-10347
▁kanunu	-10348
▁kasali	-10349
▁katawa	-10350
▁kukuha	-10351
▁malama	-10352
▁sabing	-10353
Dardarat	-10354
▁Ikapito	-10355
▁Lidagat	-10356
▁Sibuyas	-10357
▁Silayan	-10358
▁Sinauna	-10359
▁Sinikap	-10360
▁Sisilya	-10361
▁Sumadag	-10362
▁Tabagka	-10363
▁Tahimik	-10364
▁Taimtim	-10365
▁Tumahol	-10366
▁Tungkol	-10367
▁Tupinaw	-10368
▁Umiibig	-10369
▁Visayas	-10370
▁alinman	-10371
▁amihang	-10372
▁ampunin	-10373
▁aninong	-10374
▁balikan	-10375
▁bandang	-10376
▁batugan	-10377
▁batuhan	-10378
▁bayaran	-10379
▁bellang	-10380
▁bendita	-10381
▁biniday	-10382
▁binunot	-10383
▁binuwag	-10384
▁blaking	-10385
▁bukasin	-10386
▁bukirin	-10387
▁bumbong	-10388
▁bumuhos	-10389
▁bumukal	-10390
▁busabos	-10391
▁dambana	-10392
▁dangkal	-10393
▁dantaon	-10394
▁daratal	-10395
▁dumaloy	-10396
▁dustang	-10397
▁eklipse	-10398
▁gagamba	-10399
Gin	-10400
ota	-10401
usi	-10402
▁Be	-10403
▁Br	-10404
Ibig	-10405
aala	-10406
aryo	-10407
egor	-10408
laya	-10409
utik	-10410
▁Bab	-10411
▁Dud	-10412
▁Ita	-10413
▁Lin	-10414
▁Peb	-10415
▁Sim	-10416
▁Tay	-10417
▁Tig	-10418
▁ist	-10419
▁kus	-10420
Mapan	-10421
abala	-10422
atuon	-10423
lagot	-10424
umaga	-10425
▁Huli	-10426
▁Kala	-10427
▁Kanl	-10428
▁kahi	-10429
▁pito	-10430
▁siit	-10431
▁sinl	-10432
▁titi	-10433
▁uuwi	-10434
adaong	-10435
apitas	-10436
isanto	-10437
ubukid	-10438
ungkab	-10439
usyoso	-10440
▁Kaiba	-10441
▁anakp	-10442
▁apong	-10443
▁inapi	-10444
▁kahig	-10445
▁makuk	-10446
▁sabik	-10447
▁udyok	-10448
ampisaw	-10449
angguni	-10450
atanyag	-10451
bayanan	-10452
risanto	-10453
ugunita	-10454
▁Alaala	-10455
▁Iliyan	-10456
▁Niyang	-10457
▁aplaya	-10458
▁hinala	-10459
▁maglal	-10460
▁sintas	-10461
▁ulunan	-10462
alapitan	-10463
alikasan	-10464
▁Makinig	-10465
▁anitong	-10466
▁balyena	-10467
▁ginatip	-10468
▁gumalaw	-10469
▁gumanda	-10470
▁habagat	-10471
▁hagdang	-10472
▁haharap	-10473
▁halikan	-10474
▁hanggat	-10475
▁hibashi	-10476
▁hilahil	-10477
▁hinabol	-10478
▁hinagod	-10479
▁hinahon	-10480
▁hinamak	-10481
▁hinamon	-10482
▁hinarap	-10483
▁hinding	-10484
▁hinugot	-10485
▁humasik	-10486
▁humihip	-10487
▁ibubuka	-10488
▁idinaos	-10489
▁ihandog	-10490
▁ilusyon	-10491
▁inakala	-10492
▁inaping	-10493
▁ingatan	-10494
▁insekto	-10495
▁inuring	-10496
▁ipaalam	-10497
▁ipakita	-10498
▁isinuot	-10499
pos	-10500
sim	-10501
tub	-10502
uks	-10503
▁Hm	-10504
Ayan	-10505
Sila	-10506
ilao	-10507
pula	-10508
▁ANG	-10509
▁Cat	-10510
▁Him	-10511
▁Roy	-10512
▁lup	-10513
▁tey	-10514
aaapi	-10515
ibayo	-10516
iwasa	-10517
lapad	-10518
▁Kank	-10519
▁Lumb	-10520
▁Mlks	-10521
▁lins	-10522
▁lira	-10523
▁pila	-10524
▁tago	-10525
▁teyp	-10526
▁tulo	-10527
▁tult	-10528
Talaga	-10529
igmaan	-10530
inuman	-10531
iraman	-10532
madiin	-10533
ulanit	-10534
▁Buhok	-10535
▁Sabik	-10536
▁bilao	-10537
▁pakal	-10538
▁sunod	-10539
▁tulin	-10540
Sinuman	-10541
asyahan	-10542
iisipin	-10543
ubulong	-10544
▁Natawa	-10545
▁Talaga	-10546
▁kagaya	-10547
▁mabasa	-10548
▁napuno	-10549
▁sasamb	-10550
Titingin	-10551
ahantong	-10552
ibigyang	-10553
▁Digmaan	-10554
▁Luluhod	-10555
▁Lumbera	-10556
▁Malaueg	-10557
▁bakawan	-10558
▁daluyan	-10559
▁ibayong	-10560
▁ipinang	-10561
▁iskolar	-10562
▁itinali	-10563
▁kabaong	-10564
▁kabataa	-10565
▁kagatin	-10566
▁kagitna	-10567
▁kahabag	-10568
▁kakaiba	-10569
▁kalamig	-10570
▁kalasag	-10571
▁kalinga	-10572
▁kalingk	-10573
▁kaluban	-10574
▁kalulwa	-10575
▁kanyong	-10576
▁kapakan	-10577
▁kaskong	-10578
▁kilabot	-10579
▁kinahih	-10580
▁kinapal	-10581
▁konseho	-10582
▁kudyapi	-10583
▁kumitil	-10584
▁kunwari	-10585
▁kuwalta	-10586
▁lambing	-10587
▁lamunin	-10588
▁lathala	-10589
▁lipulin	-10590
▁lulusog	-10591
▁lumagay	-10592
▁luminis	-10593
▁lumiyag	-10594
▁lunurin	-10595
▁lusubin	-10596
▁maalong	-10597
▁maamong	-10598
▁mabasag	-10599
Da	-10600
ps	-10601
ampu	-10602
irot	-10603
iwal	-10604
pulo	-10605
salo	-10606
agyan	-10607
amuha	-10608
intab	-10609
mahal	-10610
▁Esep	-10611
▁Look	-10612
▁Ngum	-10613
▁What	-10614
▁ekon	-10615
▁salu	-10616
Pagkat	-10617
angkad	-10618
angkap	-10619
angkot	-10620
asyong	-10621
garing	-10622
ilawan	-10623
ubuwal	-10624
ulinig	-10625
umulan	-10626
upasan	-10627
yaring	-10628
▁Dinig	-10629
▁Duwag	-10630
▁Mapag	-10631
▁Nakak	-10632
▁Sinig	-10633
▁bahaw	-10634
▁kaaya	-10635
▁laong	-10636
▁saliw	-10637
▁sapul	-10638
▁sasag	-10639
alimang	-10640
antihan	-10641
awagang	-10642
tamisan	-10643
▁Lamang	-10644
▁Pinili	-10645
▁ekonom	-10646
▁haring	-10647
▁ilawan	-10648
▁naipit	-10649
▁natalo	-10650
▁pusang	-10651
▁umulan	-10652
anggihan	-10653
ipagkita	-10654
▁Iginala	-10655
▁Kapatid	-10656
▁Pagdaan	-10657
▁mabibig	-10658
▁mabilog	-10659
▁mabiyak	-10660
▁mabusog	-10661
▁mabutas	-10662
▁magalit	-10663
▁maghari	-10664
▁magkita	-10665
▁magtayo	-10666
▁magtika	-10667
▁mahilig	-10668
▁maiiwan	-10669
▁makakat	-10670
▁makapal	-10671
▁makatao	-10672
▁makinig	-10673
▁malaong	-10674
▁malikot	-10675
▁maliksi	-10676
▁malipol	-10677
▁maliwag	-10678
▁mamasid	-10679
▁manggas	-10680
▁mangkok	-10681
▁mapasok	-10682
▁marahan	-10683
▁marilag	-10684
▁masahol	-10685
▁masunog	-10686
▁masupil	-10687
▁matawag	-10688
▁matayog	-10689
▁matupad	-10690
▁mauutas	-10691
▁maykaya	-10692
▁mithiin	-10693
▁nababal	-10694
▁nabatid	-10695
▁nabiyak	-10696
▁nagkait	-10697
▁nagkaka	-10698
▁naglaon	-10699
ymp	-10700
▁Re	-10701
▁ri	-10702
asko	-10703
emes	-10704
igta	-10705
kaba	-10706
lain	-10707
utum	-10708
▁Fed	-10709
▁hoy	-10710
▁mes	-10711
▁pen	-10712
▁tud	-10713
Aalis	-10714
ahuyo	-10715
akada	-10716
aklaw	-10717
dasal	-10718
ekate	-10719
oloob	-10720
▁Lobo	-10721
▁Luna	-10722
▁baar	-10723
▁esep	-10724
▁kaul	-10725
▁paki	-10726
abansa	-10727
alismo	-10728
asanib	-10729
asuhan	-10730
chosis	-10731
emesio	-10732
igilid	-10733
iglaan	-10734
isaing	-10735
pulong	-10736
saging	-10737
ugasan	-10738
ugunin	-10739
uliran	-10740
ulutas	-10741
▁bayaw	-10742
▁dasal	-10743
▁iluwa	-10744
▁ipagp	-10745
▁paroo	-10746
Pasigaw	-10747
▁Hangal	-10748
▁Hekate	-10749
▁Hudhud	-10750
▁Kataka	-10751
▁isinas	-10752
▁kasamb	-10753
▁maabot	-10754
▁maitan	-10755
▁nagpak	-10756
▁pinagd	-10757
▁tubuan	-10758
ibibigay	-10759
▁Bagamat	-10760
▁Nemesio	-10761
▁Pagitan	-10762
▁Sinunod	-10763
▁bagaman	-10764
▁binuong	-10765
▁ginagal	-10766
▁kumagat	-10767
▁lumulan	-10768
▁mabatid	-10769
▁masanay	-10770
▁naaayon	-10771
▁nagsawa	-10772
▁nagsisi	-10773
▁nagulat	-10774
▁nahagip	-10775
▁naiinis	-10776
▁naiwang	-10777
▁nakabab	-10778
▁nakahih	-10779
▁nakatan	-10780
▁nalagot	-10781
▁namamat	-10782
▁napakak	-10783
▁napatid	-10784
▁napulot	-10785
▁nasapit	-10786
▁natanaw	-10787
▁nayanig	-10788
▁negosyo	-10789
▁nilanta	-10790
▁nilason	-10791
▁niyaong	-10792
▁okasyon	-10793
▁paakyat	-10794
▁pagkasi	-10795
▁pagkuha	-10796
▁pagpuri	-10797
▁pagtaas	-10798
▁paineta	-10799
Na	-10800
▁Ep	-10801
Sino	-10802
ahop	-10803
atng	-10804
orna	-10805
▁Win	-10806
▁Yum	-10807
▁bao	-10808
iliti	-10809
tanod	-10810
tumba	-10811
▁Akin	-10812
▁Idin	-10813
alitaw	-10814
amitas	-10815
anapan	-10816
arahop	-10817
napung	-10818
▁Gamit	-10819
▁Iling	-10820
▁Lorna	-10821
▁Mayro	-10822
▁Pinto	-10823
▁Tapos	-10824
▁Tinat	-10825
▁bukod	-10826
▁halay	-10827
▁kulot	-10828
▁lagim	-10829
▁punlo	-10830
▁tatan	-10831
▁tindi	-10832
abayaan	-10833
subalit	-10834
▁Manong	-10835
▁Pinang	-10836
▁Sinong	-10837
▁Sinuyo	-10838
▁Tangan	-10839
▁Unahan	-10840
▁inuman	-10841
▁kamtan	-10842
▁kuting	-10843
▁layong	-10844
▁nagkab	-10845
▁nagkuk	-10846
▁natira	-10847
▁pagkar	-10848
▁tinaga	-10849
▁tiwala	-10850
amantala	-10851
uwalhati	-10852
▁Christo	-10853
▁Eugenio	-10854
▁Humukay	-10855
▁Pinauwi	-10856
▁dumulog	-10857
▁mapatid	-10858
▁nakalat	-10859
▁paksang	-10860
▁palayan	-10861
▁palibot	-10862
▁pamahra	-10863
▁pamukaw	-10864
▁pandama	-10865
▁pangkal	-10866
▁papatay	-10867
▁paraiso	-10868
▁pasukin	-10869
▁patalun	-10870
▁patanaw	-10871
▁pighati	-10872
▁pihikan	-10873
▁pilyong	-10874
▁pinahih	-10875
▁pinapag	-10876
▁pinasan	-10877
▁pinilit	-10878
▁pintong	-10879
▁pitasin	-10880
▁pithaya	-10881
▁piyesta	-10882
▁pumukol	-10883
▁puputok	-10884
▁sabagay	-10885
▁sagamat	-10886
▁sagrado	-10887
▁sakbibi	-10888
▁saklolo	-10889
▁salakot	-10890
▁samakat	-10891
▁santong	-10892
▁sasayad	-10893
▁sibilis	-10894
▁sikatan	-10895
▁silyang	-10896
▁simbolo	-10897
▁sinadya	-10898
▁sinamba	-10899
Nang	-10900
tago	-10901
▁Pos	-10902
▁daa	-10903
agbab	-10904
agpas	-10905
gusto	-10906
tulog	-10907
▁Paki	-10908
▁buku	-10909
agutom	-10910
amahan	-10911
sarili	-10912
utihin	-10913
▁Aniya	-10914
▁Lanao	-10915
▁Rinam	-10916
▁berde	-10917
▁dilat	-10918
▁likaw	-10919
▁mamam	-10920
▁nauna	-10921
▁nilak	-10922
▁niyan	-10923
▁sapad	-10924
▁tanan	-10925
abantog	-10926
ahangga	-10927
ahangin	-10928
tulogan	-10929
ungkahi	-10930
usahang	-10931
▁Gulong	-10932
▁Humayo	-10933
▁Ilocos	-10934
▁Inisip	-10935
▁Nagbab	-10936
▁Pinags	-10937
▁banaag	-10938
▁duling	-10939
▁hampas	-10940
▁humaba	-10941
▁humabi	-10942
▁lumago	-10943
▁malago	-10944
▁mamula	-10945
▁nagnan	-10946
▁nasira	-10947
▁tatawa	-10948
agalugan	-10949
▁Benguet	-10950
▁Natanaw	-10951
▁dalawin	-10952
▁harding	-10953
▁kapatak	-10954
▁maramot	-10955
▁matalin	-10956
▁pagdaka	-10957
▁sinapit	-10958
▁sinlaki	-10959
▁sinuway	-10960
▁sisigaw	-10961
▁sisilip	-10962
▁sisisid	-10963
▁sugilan	-10964
▁sukaban	-10965
▁sukdang	-10966
▁sumaksi	-10967
▁sumbong	-10968
▁sumpain	-10969
▁sutlang	-10970
▁tabsing	-10971
▁timbang	-10972
▁tinudla	-10973
▁trabaho	-10974
▁tudlain	-10975
▁tukuyin	-10976
▁tulutan	-10977
▁tumahol	-10978
▁tumakas	-10979
▁tumanaw	-10980
▁tumupad	-10981
▁tumutol	-10982
▁turista	-10983
▁tutungo	-10984
▁tutunog	-10985
▁tuturan	-10986
▁ugaling	-10987
▁umaayon	-10988
▁umiling	-10989
▁umugong	-10990
▁umuulan	-10991
▁yumakap	-10992
▁yumaong	-10993
Kailangan	-10994
Magandang	-10995
Malumanay	-10996
Mapanukso	-10997
Nararapat	-10998
Susubukin	-10999
Tit	-11000
udd	-11001
▁re	-11002
ence	-11003
kibo	-11004
▁Eks	-11005
▁Sit	-11006
uddha	-11007
▁Caca	-11008
▁Dami	-11009
▁Diwa	-11010
▁Hati	-11011
▁Nand	-11012
▁Ubos	-11013
▁bisa	-11014
▁daid	-11015
▁ihin	-11016
▁kibo	-11017
abulin	-11018
aligan	-11019
arosip	-11020
asakin	-11021
atayin	-11022
atiuna	-11023
parusa	-11024
▁Ipina	-11025
▁Kanin	-11026
▁Makap	-11027
▁Sumat	-11028
▁Tatay	-11029
▁Tinut	-11030
▁biyak	-11031
▁ganti	-11032
▁latay	-11033
▁pipil	-11034
▁pitas	-11035
▁titik	-11036
akaloob	-11037
ihinuha	-11038
▁Buddha	-11039
▁Isipin	-11040
▁Naligo	-11041
▁Pinagb	-11042
▁balisa	-11043
▁dagdag	-11044
▁dinami	-11045
▁higtan	-11046
▁ilipad	-11047
▁lumiit	-11048
▁lunsod	-11049
▁magsis	-11050
▁maiksi	-11051
▁mapuno	-11052
▁musmos	-11053
▁pagyay	-11054
▁panhik	-11055
▁parami	-11056
▁parati	-11057
▁senyor	-11058
▁siwang	-11059
alangkas	-11060
apatiran	-11061
tatanong	-11062
▁Damiana	-11063
▁Huminga	-11064
▁Inakala	-11065
▁Kumulat	-11066
▁Lumaban	-11067
▁Lumuhod	-11068
▁Sumatra	-11069
▁ipinagp	-11070
▁lungsod	-11071
▁manalig	-11072
▁naghari	-11073
▁nakapan	-11074
▁tumungo	-11075
▁umaabot	-11076
▁wasakin	-11077
Titingala	-11078
Titingnan	-11079
abilanggo	-11080
agalingan	-11081
agdudulot	-11082
ahahahaha	-11083
ahintulot	-11084
alakbayin	-11085
alakihang	-11086
alakpakan	-11087
alinhinan	-11088
alintulad	-11089
amungmong	-11090
angatawan	-11091
angondaya	-11092
arangalan	-11093
asaksihan	-11094
atakutang	-11095
atandaang	-11096
atangtang	-11097
awagayway	-11098
awanggawa	-11099
atn	-11100
mak	-11101
nti	-11102
▁iu	-11103
Unti	-11104
daos	-11105
osam	-11106
agiik	-11107
imbal	-11108
layag	-11109
okano	-11110
sayaw	-11111
umama	-11112
▁Oras	-11113
▁Pusa	-11114
▁dote	-11115
▁luya	-11116
▁ngay	-11117
▁suyo	-11118
▁unan	-11119
Gagawa	-11120
astern	-11121
asunod	-11122
ayunan	-11123
ilanga	-11124
orcism	-11125
ulalas	-11126
umpong	-11127
▁Binub	-11128
▁Kinab	-11129
▁Lipay	-11130
▁Panan	-11131
▁gansa	-11132
▁ginaw	-11133
▁hinim	-11134
▁ipags	-11135
▁mapay	-11136
▁paimb	-11137
▁pilay	-11138
atangay	-11139
umanhin	-11140
▁Aakyat	-11141
▁Gabing	-11142
▁Ilipad	-11143
▁Kaning	-11144
▁Umawit	-11145
▁bukang	-11146
▁ibigan	-11147
▁kagila	-11148
▁maalis	-11149
▁maghih	-11150
▁paalis	-11151
▁pagtul	-11152
inggitan	-11153
lalangan	-11154
▁Dahilan	-11155
▁Ilokano	-11156
▁bulalas	-11157
▁isagawa	-11158
▁kinunan	-11159
▁magsama	-11160
▁matulad	-11161
▁nabuong	-11162
▁nagdaos	-11163
▁naiisip	-11164
▁nanatak	-11165
▁ngalang	-11166
▁palakas	-11167
▁papalit	-11168
▁samosam	-11169
babayaran	-11170
bersiyong	-11171
bibilihan	-11172
ibangbang	-11173
ihintayin	-11174
ikilalang	-11175
ikislapan	-11176
inabangan	-11177
intulutan	-11178
ipagkapwa	-11179
ipagsayaw	-11180
itinginan	-11181
mamamayan	-11182
otektahan	-11183
tangkilik	-11184
ubundukin	-11185
uuntugang	-11186
▁Alemanya	-11187
▁Ambrocio	-11188
▁BULAKLAK	-11189
▁Barangay	-11190
▁Bibigyan	-11191
▁Caravana	-11192
▁Cotabato	-11193
▁Dakilang	-11194
▁Darangen	-11195
▁Darating	-11196
▁Datapuwa	-11197
▁Datapwat	-11198
▁Dayiring	-11199
eni	-11200
▁NG	-11201
ario	-11202
arit	-11203
enso	-11204
rero	-11205
▁Sta	-11206
▁roo	-11207
Sumpa	-11208
aakay	-11209
ainom	-11210
alahi	-11211
asiwa	-11212
balat	-11213
busan	-11214
irhan	-11215
takot	-11216
wiran	-11217
▁Ibal	-11218
▁Peng	-11219
▁baso	-11220
▁ibab	-11221
▁pros	-11222
▁pugo	-11223
alabin	-11224
angina	-11225
asaulo	-11226
atakot	-11227
awayin	-11228
bagong	-11229
▁Aming	-11230
▁Gitna	-11231
▁Kasoy	-11232
▁Vigan	-11233
▁lundo	-11234
▁makad	-11235
▁turan	-11236
▁walis	-11237
▁yapak	-11238
alamuti	-11239
awisang	-11240
▁Parati	-11241
▁bawiin	-11242
▁inaaba	-11243
▁kalaro	-11244
▁mabawi	-11245
▁magpal	-11246
▁mapags	-11247
▁tinamo	-11248
▁uliran	-11249
▁Masipag	-11250
▁Nalunod	-11251
▁Pengeng	-11252
▁Sanggol	-11253
▁binuhat	-11254
▁gumiliw	-11255
▁inamuki	-11256
▁kamates	-11257
▁maaakit	-11258
▁maiitim	-11259
▁masundo	-11260
▁naturan	-11261
▁pisikal	-11262
▁tibabal	-11263
▁tinupad	-11264
Patraydor	-11265
▁Dinampot	-11266
▁Federico	-11267
▁Gumapang	-11268
▁Gustuhin	-11269
▁Haplusin	-11270
▁Hinintay	-11271
▁Ibibigay	-11272
▁Ikinasal	-11273
▁Ilalagay	-11274
▁Inihagis	-11275
▁Inilabas	-11276
▁Inilapag	-11277
▁Inilipad	-11278
▁Isasauli	-11279
▁Ispiritu	-11280
▁Itinapon	-11281
▁Itinusok	-11282
▁Kabayong	-11283
▁Kabunian	-11284
▁Kalahati	-11285
▁Kanilang	-11286
▁Kankanay	-11287
▁Kastilya	-11288
▁Kasuotan	-11289
▁Katindig	-11290
▁Kaytamis	-11291
▁Kinausap	-11292
▁Lambunao	-11293
▁Leonardo	-11294
▁Lihangin	-11295
▁Lilingon	-11296
▁Maalaala	-11297
▁Mababaya	-11298
▁Mabuting	-11299
Bac	-11300
ILA	-11301
len	-11302
opr	-11303
▁VI	-11304
inid	-11305
kayo	-11306
pero	-11307
Eeeek	-11308
apiit	-11309
ikman	-11310
insay	-11311
silyo	-11312
▁Ikas	-11313
▁Ulod	-11314
▁ikas	-11315
▁ipis	-11316
abalat	-11317
anakan	-11318
aninaw	-11319
apanaw	-11320
igilan	-11321
ilisan	-11322
manong	-11323
pansin	-11324
▁Dinad	-11325
▁Ginto	-11326
▁Hinto	-11327
▁Lalaw	-11328
▁Sunod	-11329
▁aawit	-11330
▁dumag	-11331
▁ganid	-11332
▁kisap	-11333
▁madre	-11334
▁nalig	-11335
▁pahim	-11336
agsakan	-11337
asakang	-11338
▁Kailan	-11339
▁Kalaro	-11340
▁hingin	-11341
▁hinuli	-11342
▁mapapa	-11343
▁matuwa	-11344
▁minuto	-11345
▁nagapi	-11346
iligiran	-11347
▁Cawayan	-11348
▁Dinalaw	-11349
▁dinalaw	-11350
▁hikahos	-11351
▁kagiliw	-11352
▁kastila	-11353
▁katamis	-11354
▁mabulas	-11355
▁makasal	-11356
▁nagpapa	-11357
▁napapal	-11358
▁napapan	-11359
▁orasyon	-11360
▁sinaing	-11361
▁ulirang	-11362
alakhakan	-11363
apanganak	-11364
▁Liwayway	-11365
▁Magiging	-11366
▁Magkaisa	-11367
▁Mahabang	-11368
▁Mahinang	-11369
▁Makatang	-11370
▁Malayang	-11371
▁Maliliit	-11372
▁Mapaapoy	-11373
▁Maragtas	-11374
▁Masaklap	-11375
▁Masamang	-11376
▁Matapang	-11377
▁Miskoyaw	-11378
▁Momoocan	-11379
▁Naaalala	-11380
▁Nabalita	-11381
▁Nagbihis	-11382
▁Naghanap	-11383
▁Nagkalat	-11384
▁Naglaban	-11385
▁Naglikha	-11386
▁Nagluksa	-11387
▁Nagsilid	-11388
▁Nagtanim	-11389
▁Nakatuon	-11390
▁Nakikita	-11391
▁Nakiusap	-11392
▁Namasyal	-11393
▁Nanaisin	-11394
▁Nanatili	-11395
▁Napaiyak	-11396
▁Naroroon	-11397
▁Paglipas	-11398
▁Panapana	-11399
alu	-11400
▁1:	-11401
▁De	-11402
iiba	-11403
▁Eba	-11404
Buong	-11405
Iyang	-11406
agand	-11407
ahibo	-11408
aklan	-11409
alasa	-11410
igiba	-11411
▁Itim	-11412
▁kuro	-11413
astila	-11414
igatig	-11415
istang	-11416
kingan	-11417
yayaan	-11418
▁Bakya	-11419
▁Lakad	-11420
▁Mahuh	-11421
▁Pipit	-11422
▁Pugad	-11423
▁Sasak	-11424
▁bitag	-11425
▁bitak	-11426
▁lipat	-11427
▁nagpa	-11428
▁pinay	-11429
▁rikit	-11430
▁sanay	-11431
▁tanel	-11432
▁tumba	-11433
ahampas	-11434
upuring	-11435
▁Limang	-11436
▁Nagpap	-11437
▁bayaan	-11438
▁iniuwi	-11439
▁naipas	-11440
▁patayo	-11441
▁singko	-11442
▁sinisi	-11443
akanlong	-11444
▁Itataas	-11445
▁Kinagat	-11446
▁Narinig	-11447
▁Sumakay	-11448
▁barilin	-11449
▁humubog	-11450
▁iniiwan	-11451
▁kapisan	-11452
▁kasawia	-11453
▁magdusa	-11454
▁mapagod	-11455
▁matiyak	-11456
▁naaakit	-11457
▁nalagas	-11458
▁natabas	-11459
▁nilisan	-11460
▁pinakad	-11461
▁pulutin	-11462
▁saligan	-11463
▁tagisan	-11464
▁Intempsy	-11465
▁Kabataan	-11466
▁Kinalong	-11467
▁Pangalan	-11468
▁Pilipina	-11469
▁Pinakain	-11470
▁Pinatubo	-11471
▁Puhunang	-11472
▁Pumanaog	-11473
▁Pupwesto	-11474
▁Rinayong	-11475
▁Rogongan	-11476
▁Sagamant	-11477
▁Sariling	-11478
▁Simbahan	-11479
▁Singsing	-11480
▁Taglayin	-11481
▁Tinampal	-11482
▁Tinanong	-11483
▁Tinubuan	-11484
▁Tumanggi	-11485
▁abalahin	-11486
▁alinmang	-11487
▁babagsak	-11488
▁babatiin	-11489
▁babayaan	-11490
▁balasang	-11491
▁batayang	-11492
▁batisang	-11493
▁berkahan	-11494
▁bigkasin	-11495
▁bilanggo	-11496
▁bubungan	-11497
▁bulagsak	-11498
▁bumalong	-11499
Nagd	-11500
igsi	-11501
▁kot	-11502
untok	-11503
▁Dili	-11504
tumpok	-11505
▁Ginap	-11506
▁Itlog	-11507
▁Kabat	-11508
▁Nanan	-11509
▁Narra	-11510
▁Pinag	-11511
▁Tigil	-11512
▁riyan	-11513
Gagawin	-11514
ahasang	-11515
▁Bayani	-11516
▁Ipinas	-11517
▁Momong	-11518
▁Nagkak	-11519
▁Saging	-11520
▁Sasaba	-11521
▁Sigaan	-11522
▁barong	-11523
▁binawi	-11524
▁hibang	-11525
▁ipinas	-11526
▁kasuyo	-11527
▁pagasa	-11528
▁turing	-11529
▁umabot	-11530
▁Dumagat	-11531
▁Libiran	-11532
▁Makapag	-11533
▁Marahas	-11534
▁Nangako	-11535
▁Natapos	-11536
▁Sinulat	-11537
▁Ulahing	-11538
▁Umakyat	-11539
▁ihampas	-11540
▁ipinagb	-11541
▁kumanta	-11542
▁mapigil	-11543
▁matanaw	-11544
▁natipon	-11545
▁tumindi	-11546
ilanganin	-11547
▁Magbigay	-11548
▁bumangon	-11549
▁bumigtas	-11550
▁buwayang	-11551
▁dagdagan	-11552
▁daratnan	-11553
▁digmaang	-11554
▁dinaanan	-11555
▁dinadala	-11556
▁dinapuan	-11557
▁dumalaga	-11558
▁edukasyo	-11559
▁eksenang	-11560
▁espiritu	-11561
▁gamiting	-11562
▁gumaling	-11563
▁hahagkan	-11564
▁haharang	-11565
▁hahatiin	-11566
▁halagang	-11567
▁haliging	-11568
▁hinampas	-11569
▁hinangad	-11570
▁hinipang	-11571
▁hintayin	-11572
▁ibinenta	-11573
▁iginayak	-11574
▁ihaharap	-11575
▁iingatan	-11576
▁ikamatay	-11577
▁ilalagay	-11578
▁ilalapat	-11579
▁inaakala	-11580
▁inaaring	-11581
▁inihanay	-11582
▁inilabas	-11583
▁inilagak	-11584
▁inilawan	-11585
▁ipamalas	-11586
▁ipapasok	-11587
▁isaalang	-11588
▁isinilid	-11589
▁isinulat	-11590
▁isusunod	-11591
▁itanghal	-11592
▁itatangi	-11593
▁itatanim	-11594
▁itatapon	-11595
▁itinangi	-11596
▁itinuloy	-11597
▁kagaling	-11598
▁kahambal	-11599
▁kahinaan	-11600
▁kahuluga	-11601
▁kailalim	-11602
▁kakamtan	-11603
▁kalabang	-11604
▁kalaguyo	-11605
▁kalahing	-11606
▁kalaking	-11607
▁kalansay	-11608
▁kalapati	-11609
▁kalawaka	-11610
▁kaliitan	-11611
▁kaliskis	-11612
▁kaliwang	-11613
▁kamagong	-11614
▁kamalian	-11615
▁kanluran	-11616
▁kapaitan	-11617
▁kapalara	-11618
▁karakang	-11619
▁karangya	-11620
▁katalong	-11621
▁katambal	-11622
▁katotong	-11623
▁kaulayaw	-11624
▁kaunlara	-11625
▁kausapin	-11626
▁kawangis	-11627
▁kayamana	-11628
▁kaytamis	-11629
▁kinikita	-11630
▁kolonyal	-11631
▁konsepto	-11632
▁kublihan	-11633
▁kultural	-11634
▁kumbento	-11635
▁kumikibo	-11636
▁lagaslas	-11637
▁lagingan	-11638
▁lagusang	-11639
▁lalagpak	-11640
▁lampadan	-11641
▁linangin	-11642
▁linggong	-11643
▁lumagpak	-11644
▁lumigaya	-11645
▁lumindol	-11646
▁lumipana	-11647
▁lumusong	-11648
▁maalaala	-11649
▁mababago	-11650
▁mabagsik	-11651
▁mabubuti	-11652
▁madadala	-11653
▁madarama	-11654
▁madugong	-11655
▁madungis	-11656
▁magdasal	-11657
▁magdilim	-11658
▁maghirap	-11659
▁magkaisa	-11660
▁maglinis	-11661
▁magpakat	-11662
▁magpapas	-11663
▁magpapat	-11664
▁magsaing	-11665
▁magtampo	-11666
▁magtanim	-11667
▁magtipid	-11668
▁magugupo	-11669
▁magugust	-11670
▁mahinhin	-11671
▁maisakat	-11672
▁makababa	-11673
▁makagawa	-11674
▁makaiwas	-11675
▁makakaya	-11676
▁makasira	-11677
▁makatayo	-11678
▁makatula	-11679
▁makausap	-11680
▁makilala	-11681
▁makiring	-11682
▁malamyos	-11683
▁maluwang	-11684
▁mamalagi	-11685
▁mananaig	-11686
▁mangahas	-11687
▁mangarap	-11688
▁mangusap	-11689
▁mapahiya	-11690
▁mapalaki	-11691
▁mariwasa	-11692
▁masasabi	-11693
▁masasaya	-11694
▁matabang	-11695
▁matataas	-11696
▁material	-11697
▁matining	-11698
▁matipuno	-11699
▁matutong	-11700
▁maubusan	-11701
▁metapora	-11702
▁nadatnan	-11703
▁naganyak	-11704
▁nagbihis	-11705
▁nagdaang	-11706
▁nagdasal	-11707
▁nagising	-11708
▁nagkalat	-11709
▁naglagay	-11710
▁nagmahal	-11711
▁nagnakaw	-11712
▁nagsaing	-11713
▁nagsayaw	-11714
▁nagsisil	-11715
▁nagsisip	-11716
▁nagsisis	-11717
▁nahihiya	-11718
▁nakaalis	-11719
▁nakaiwas	-11720
▁nakapags	-11721
▁nakapiit	-11722
▁nakaraan	-11723
▁nakasama	-11724
▁nakataas	-11725
▁nakatago	-11726
▁nakatiis	-11727
▁nakawala	-11728
▁nakayuko	-11729
▁nakipags	-11730
▁nakiusap	-11731
▁nakuhang	-11732
▁nalakbay	-11733
▁nalamang	-11734
▁namamana	-11735
▁namataan	-11736
▁namayapa	-11737
▁nanariwa	-11738
▁nangakas	-11739
▁naniwala	-11740
▁nanunuot	-11741
▁napaaapi	-11742
▁napadpad	-11743
▁napahiya	-11744
▁napapako	-11745
▁napapala	-11746
▁napapawi	-11747
▁naritong	-11748
▁natauhan	-11749
▁naturang	-11750
▁nawaglit	-11751
▁ngayunin	-11752
▁ngumanga	-11753
▁niladlad	-11754
▁nilagyan	-11755
▁nilusong	-11756
▁ningning	-11757
▁ninunong	-11758
▁pabayaan	-11759
▁pabulong	-11760
▁padadala	-11761
▁pagbalik	-11762
▁pagbilog	-11763
▁pagbuhat	-11764
▁pagdalaw	-11765
▁pagdaloy	-11766
▁pagdamay	-11767
▁paggapas	-11768
▁paghahal	-11769
▁paghanap	-11770
▁paghatol	-11771
▁paghawak	-11772
▁paghihin	-11773
▁paghinga	-11774
▁paghinto	-11775
▁pagkaawa	-11776
▁pagkamal	-11777
▁pagkilos	-11778
▁pagkunan	-11779
▁paglikha	-11780
▁paglusob	-11781
▁pagpanaw	-11782
▁pagpapag	-11783
▁pagpapan	-11784
▁pagsapit	-11785
▁pagsubok	-11786
▁pagsulat	-11787
▁pagsunod	-11788
▁pagtakas	-11789
▁pagtungo	-11790
▁pagyaman	-11791
▁painumin	-11792
▁pakaunti	-11793
▁palalong	-11794
▁pamahiin	-11795
▁pambayad	-11796
▁pamuling	-11797
▁pandikit	-11798
▁paninira	-11799
▁panlaban	-11800
▁panlunas	-11801
▁pansinin	-11802
▁panuunan	-11803
▁parirala	-11804
▁pasaklaw	-11805
▁pasubsob	-11806
▁pasulong	-11807
▁payagang	-11808
▁pedestal	-11809
▁pigingan	-11810
▁pinagsas	-11811
▁pinakama	-11812
▁pinalaya	-11813
▁pinangko	-11814
▁pinansin	-11815
▁pinapalo	-11816
▁pinapang	-11817
▁pinasahi	-11818
▁pinggang	-11819
▁pocpoclo	-11820
▁posisyon	-11821
▁problema	-11822
▁pulseras	-11823
▁pulutong	-11824
▁puspusan	-11825
▁sagingan	-11826
▁sanghaya	-11827
▁sanglang	-11828
▁sigurado	-11829
▁sinusukl	-11830
▁solusyon	-11831
▁sosyedad	-11832
▁sugatang	-11833
▁sumaisip	-11834
▁sumiklab	-11835
▁sumilang	-11836
▁sumilong	-11837
▁sumulpot	-11838
▁tagaroon	-11839
▁tagtuyot	-11840
▁talastas	-11841
▁talisman	-11842
▁tampuhan	-11843
▁tangkang	-11844
▁tatakpan	-11845
▁tawanang	-11846
▁tekstong	-11847
▁tinangka	-11848
▁tinapang	-11849
▁tinatago	-11850
▁tingnang	-11851
▁tinitiis	-11852
▁torongan	-11853
▁trahedya	-11854
▁tsinelas	-11855
▁tultugan	-11856
▁tulutang	-11857
▁tumatawa	-11858
▁tumitira	-11859
▁tumubong	-11860
▁tumugtog	-11861
▁tumuklas	-11862
▁umusbong	-11863
▁yumabong	-11864
..........	-11865
Hahagulgol	-11866
Kailangang	-11867
Pagkatapos	-11868
Pasalubong	-11869
Sasambitin	-11870
Tutulungan	-11871
adalamhati	-11872
akasalanan	-11873
alamhatian	-11874
alulungkot	-11875
ampalataya	-11876
atatanghal	-11877
▁Amongabon	-11878
▁Aphrodite	-11879
▁Babalikan	-11880
▁Binanggit	-11881
▁Boholanos	-11882
▁Bubuhatin	-11883
▁Datimbang	-11884
▁Domingsel	-11885
▁Gaygaynet	-11886
▁Hernandez	-11887
▁Hinahanap	-11888
▁Ikalawang	-11889
▁Inglatera	-11890
▁Ipagdasal	-11891
▁Ipagpalit	-11892
▁Ipinaalam	-11893
▁Itinuring	-11894
▁Jerusalem	-11895
▁Kabalyero	-11896
▁Kabukiran	-11897
▁Kadugnung	-11898
▁Kakagatin	-11899
▁Kalawitan	-11900
▁Kalikasan	-11901
▁Karaniwan	-11902
▁Kasabihan	-11903
▁Kastilang	-11904
▁Katangian	-11905
▁Kayraming	-11906
▁Kinastila	-11907
▁Kinawayan	-11908
▁Leddangan	-11909
▁Lumilipad	-11910
▁Madogyaya	-11911
▁Magsasaka	-11912
▁Magsisisi	-11913
▁Makabuhay	-11914
▁Mapalawak	-11915
▁Masusunod	-11916
▁Minalisin	-11917
▁Mistulang	-11918
▁Nagkasama	-11919
▁Nagsasama	-11920
▁Nagsimula	-11921
▁Nagsisisi	-11922
▁Naguilian	-11923
▁Nakahanda	-11924
▁Nakatungo	-11925
▁Nalalanta	-11926
▁Natagpuan	-11927
▁Natatakot	-11928
▁Natutulog	-11929
▁Nobyembre	-11930
▁Pabulanan	-11931
▁Pagbagsak	-11932
▁Pagkaalis	-11933
▁Pagtugtog	-11934
▁Pakawalan	-11935
▁Pandanggo	-11936
▁Pangaiwan	-11937
▁Papatayin	-11938
▁Paraisong	-11939
▁Parusahan	-11940
▁Patawarin	-11941
▁Sambangki	-11942
▁Sandaling	-11943
▁Setyembre	-11944
▁Singkamas	-11945
▁Sinisinta	-11946
▁Sumalunga	-11947
▁Sumarinaw	-11948
▁Tanggapin	-11949
▁Tinalupan	-11950
▁Tinitiyak	-11951
▁Titingnan	-11952
▁Tominaman	-11953
▁Tumahimik	-11954
▁Tungkulin	-11955
▁Yayakapin	-11956
▁aksesorya	-11957
▁anakpawis	-11958
▁bahaghari	-11959
▁bangungot	-11960
▁baranggay	-11961
▁bathalang	-11962
▁bibitiwan	-11963
▁binabalot	-11964
▁bugtungan	-11965
▁bulalakaw	-11966
▁bungkalin	-11967
▁dadagitin	-11968
▁dadalawin	-11969
▁dalamhati	-11970
▁dinadagit	-11971
▁dinaranas	-11972
▁dinumihan	-11973
▁diyamante	-11974
▁dumadalaw	-11975
▁dumadaloy	-11976
▁ekonomiya	-11977
▁gandingan	-11978
▁ginhawang	-11979
▁grasiyang	-11980
▁gumagalaw	-11981
▁gumaganda	-11982
▁gumigiliw	-11983
▁hahanguin	-11984
▁higanteng	-11985
▁hihilahin	-11986
▁hinahamak	-11987
▁hinahamon	-11988
▁hinanakit	-11989
▁hinigupan	-11990
▁hinugasan	-11991
▁hinukayan	-11992
▁humagupit	-11993
▁humahalik	-11994
▁humahanga	-11995
▁humakbang	-11996
▁humantong	-11997
▁idalangin	-11998
▁ihahandog	-11999
▁ikabubuti	-12000
▁ikinulong	-12001
▁ikukumpas	-12002
▁ililigtas	-12003
▁impuwesto	-12004
▁inaasahan	-12005
▁inaawitan	-12006
▁iniligtas	-12007
▁ipagtapat	-12008
▁ipakikita	-12009
▁ipakilala	-12010
▁ipinadala	-12011
▁isinaayos	-12012
▁itinanong	-12013
▁itinatago	-12014
▁kabaitang	-12015
▁kabakahin	-12016
▁kadalasan	-12017
▁kagalakan	-12018
▁kaganapan	-12019
▁kaguluhan	-12020
▁kahatulan	-12021
▁kakatwang	-12022
▁kakisigan	-12023
▁kalabanin	-12024
▁kalakaran	-12025
▁kaligatan	-12026
▁kalimutan	-12027
▁kalusugan	-12028
▁kaluwagan	-12029
▁kamukhang	-12030
▁kapaguran	-12031
▁kapakanan	-12032
▁karaingan	-12033
▁kasakiman	-12034
▁kasamahan	-12035
▁kasanayan	-12036
▁katatagan	-12037
▁katuturan	-12038
▁kaukulang	-12039
▁kayariang	-12040
▁kaysasaya	-12041
▁kinakanta	-12042
▁kinurutan	-12043
▁kolintang	-12044
▁komunidad	-12045
▁kulintang	-12046
▁kulturang	-12047
▁kumakalat	-12048
▁kumandili	-12049
▁lambuting	-12050
▁lolokisen	-12051
▁lumaganap	-12052
▁lumalabas	-12053
▁lumalakas	-12054
▁mababango	-12055
▁mabigyang	-12056
▁mabubusog	-12057
▁magaganap	-12058
▁magbabait	-12059
▁magbinata	-12060
▁magdiwang	-12061
▁magdurusa	-12062
▁maghangad	-12063
▁magkaaway	-12064
▁magkaisip	-12065
▁maglakbay	-12066
▁maglalaon	-12067
▁magluluto	-12068
▁magmadali	-12069
▁magsilang	-12070
▁magsisisi	-12071
▁magtitiis	-12072
▁magugutom	-12073
▁mahahayag	-12074
▁maharlika	-12075
▁mahawakan	-12076
▁mahinahon	-12077
▁mahinhing	-12078
▁makaakyat	-12079
▁makabansa	-12080
▁makahinga	-12081
▁makalapit	-12082
▁makalipas	-12083
▁makapitas	-12084
▁makukulay	-12085
▁malalapad	-12086
▁malambing	-12087
▁maliligaw	-12088
▁malilikot	-12089
▁malubhang	-12090
▁malulupit	-12091
▁mamighati	-12092
▁mangitlog	-12093
▁mapipigil	-12094
▁mapitagan	-12095
▁mapupunta	-12096
▁maputlang	-12097
▁masakupan	-12098
▁masansala	-12099
▁masiglang	-12100
▁masisigla	-12101
▁masiyahan	-12102
▁masyadong	-12103
▁matagalan	-12104
▁matanggap	-12105
▁matangkad	-12106
▁matatakot	-12107
▁matitigas	-12108
▁matutuloy	-12109
▁mayayaman	-12110
▁minimithi	-12111
▁naatasang	-12112
▁nababasag	-12113
▁nababatay	-12114
▁nagbabala	-12115
▁nagbibiro	-12116
▁nagdiwang	-12117
▁naghandog	-12118
▁nagkaanak	-12119
▁nagkagulo	-12120
▁nagkaloob	-12121
▁nagnanais	-12122
▁nagpasiya	-12123
▁nagpulong	-12124
▁nagpupuno	-12125
▁nagsasabi	-12126
▁nagsasama	-12127
▁nagsilaho	-12128
▁nagtaguan	-12129
▁nagtatago	-12130
▁nagtatamo	-12131
▁nagtatawa	-12132
▁nagwawagi	-12133
▁nagwiwika	-12134
▁naiibigan	-12135
▁nakaaaliw	-12136
▁nakaakyat	-12137
▁nakabalik	-12138
▁nakabulag	-12139
▁nakahasik	-12140
▁nakakamit	-12141
▁nakalatag	-12142
▁nakalipas	-12143
▁nakalugay	-12144
▁nakaluhod	-12145
▁nakangiti	-12146
▁nakapasok	-12147
▁nakapulot	-12148
▁nakasabay	-12149
▁nakasagot	-12150
▁nakasaksi	-12151
▁nakatanod	-12152
▁nakikiapi	-12153
▁nalalanta	-12154
▁nalanghap	-12155
▁nalikhang	-12156
▁nalilimot	-12157
▁nalimutan	-12158
▁nalungkot	-12159
▁namamalas	-12160
▁namimitas	-12161
▁nanawagan	-12162
▁nangakong	-12163
▁nangasawi	-12164
▁napahinto	-12165
▁napapatay	-12166
▁nasalanta	-12167
▁natanawan	-12168
▁natanggal	-12169
▁natapakan	-12170
▁natitipon	-12171
▁natutuloy	-12172
▁nilapitan	-12173
▁nilawayan	-12174
▁nilulutas	-12175
▁nunungong	-12176
▁pagbigyan	-12177
▁pagdurusa	-12178
▁paggalang	-12179
▁paghatiin	-12180
▁pagitawin	-12181
▁pagkahari	-12182
▁pagkakain	-12183
▁paglalaho	-12184
▁paglinang	-12185
▁paglingon	-12186
▁pagpanhik	-12187
▁pagpapala	-12188
▁pagparito	-12189
▁pagtaliin	-12190
▁pagtataka	-12191
▁pagtitiis	-12192
▁pagtutuos	-12193
▁pahayagan	-12194
▁pahimakas	-12195
▁paimbulog	-12196
▁pakikinig	-12197
▁pambihira	-12198
▁pamilihan	-12199
▁pamumulot	-12200
▁pananabik	-12201
▁pananamit	-12202
▁pandulaan	-12203
▁panginoon	-12204
▁pangkatan	-12205
▁pangmasid	-12206
▁panibugho	-12207
▁papaanong	-12208
▁papatayin	-12209
▁paraluman	-12210
▁pasintabi	-12211
▁patotoong	-12212
▁patunugin	-12213
▁pinakamag	-12214
▁pinangang	-12215
▁pinayuhan	-12216
▁pinuputol	-12217
▁pinutulan	-12218
▁pipitasin	-12219
▁praktikal	-12220
▁prusisyon	-12221
▁puspusang	-12222
▁salakayin	-12223
▁sandipang	-12224
▁sanlibong	-12225
▁sasadyain	-12226
▁sasagutin	-12227
▁sasakyang	-12228
▁sinalanta	-12229
▁sinisinta	-12230
▁sinubukan	-12231
▁sisinghap	-12232
▁siyamnapu	-12233
▁solitaryo	-12234
▁sugilanon	-12235
▁sumalakay	-12236
▁sumasamba	-12237
▁sumasapit	-12238
▁tanghalin	-12239
▁tangkilik	-12240
▁tatandaan	-12241
▁tinalupan	-12242
▁tinatapos	-12243
▁tinubuang	-12244
▁tumakbong	-12245
▁tumalikod	-12246
▁tumatabas	-12247
▁tumatakas	-12248
▁tumitibok	-12249
▁winalisan	-12250
ahalukipkip	-12251
atanikalang	-12252
ihinayangan	-12253
ngingitngit	-12254
▁Balensuela	-12255
▁Bienvenido	-12256
▁Binongtoan	-12257
▁Dinaradiya	-12258
▁Dumalaplap	-12259
▁Dumalogdog	-12260
▁Ekspresyon	-12261
▁Epimetheus	-12262
▁Humadapnen	-12263
▁Kabisayaan	-12264
▁Kagandahan	-12265
▁Kagitingan	-12266
▁Kailokohan	-12267
▁Kapampanga	-12268
▁Karunungan	-12269
▁Kasaysayan	-12270
▁Katamtaman	-12271
▁Livunganen	-12272
▁Lumulutang	-12273
▁Magbabalik	-12274
▁Magbibigay	-12275
▁Maggagatas	-12276
▁Magkakapit	-12277
▁Mahalagang	-12278
▁Makarating	-12279
▁Maningning	-12280
▁Mapayapang	-12281
▁Maratectec	-12282
▁Nabilanggo	-12283
▁Naghahanap	-12284
▁Nagkakaisa	-12285
▁Nagpumilit	-12286
▁Nagtawanan	-12287
▁Nahihiyang	-12288
▁Nakarating	-12289
▁Namayagpag	-12290
▁Naramdaman	-12291
▁Pagsasalin	-12292
▁Pangavukad	-12293
▁Panginoong	-12294
▁Pinalangga	-12295
▁Pinamunuan	-12296
▁Polidiktis	-12297
▁Prometheus	-12298
▁Rinamentaw	-12299
▁Sansinukob	-12300
▁Sapilitang	-12301
▁Sasabihing	-12302
▁Sinimulang	-12303
▁Talagsahon	-12304
▁babasaging	-12305
▁bibilangin	-12306
▁biniyayaan	-12307
▁bukambibig	-12308
▁bumabagsak	-12309
▁bumabalong	-12310
▁dinaraanan	-12311
▁dinaramdam	-12312
▁dumalagang	-12313
▁durungawan	-12314
▁eksorsismo	-12315
▁elementong	-12316
▁engkantong	-12317
▁episodyong	-12318
▁gugustuhin	-12319
▁hahahahaha	-12320
▁hahalakhak	-12321
▁hanapbuhay	-12322
▁ibinabalik	-12323
▁ibinalibag	-12324
▁ikabubuhay	-12325
▁ikinagalit	-12326
▁ikinamatay	-12327
▁ikinuwento	-12328
▁inaakalang	-12329
▁industriya	-12330
▁inihahatid	-12331
▁inilalagay	-12332
▁ipahiwatig	-12333
▁ipinaghele	-12334
▁ipinahayag	-12335
▁ipinakasal	-12336
▁ipinamalas	-12337
▁ispiritung	-12338
▁kababayang	-12339
▁kabinataan	-12340
▁kagalingan	-12341
▁kahihintay	-12342
▁kahiwagaan	-12343
▁kakanyahan	-12344
▁kakaunting	-12345
▁kalabasang	-12346
▁kaligtasan	-12347
▁kalimitang	-12348
▁kamatayang	-12349
▁kasabihang	-12350
▁kasambahay	-12351
▁kasarinlan	-12352
▁kasiyahang	-12353
▁kastilaloy	-12354
▁kasukdulan	-12355
▁katangahan	-12356
▁katanyagan	-12357
▁katapatang	-12358
▁katatayong	-12359
▁katotohana	-12360
▁katunayang	-12361
▁kimmatuday	-12362
▁kinakitaan	-12363
▁lalakbayin	-12364
▁lumalangoy	-12365
▁lumalayong	-12366
▁lumilingon	-12367
▁mababangis	-12368
▁madagdagan	-12369
▁madamdamin	-12370
▁magbubuhat	-12371
▁magbubukas	-12372
▁magbungkal	-12373
▁maghahanap	-12374
▁magigising	-12375
▁magkalapit	-12376
▁maglalahad	-12377
▁maglambing	-12378
▁magluluwal	-12379
▁magpahayag	-12380
▁magpatanda	-12381
▁magtatagal	-12382
▁mahahabang	-12383
▁makabangon	-12384
▁makakakita	-12385
▁makakasama	-12386
▁makasarili	-12387
▁makatitiis	-12388
▁makatulong	-12389
▁makikitang	-12390
▁makikiusap	-12391
▁makinabang	-12392
▁malalagong	-12393
▁malikhaing	-12394
▁malinamnam	-12395
▁maliwanang	-12396
▁mananatili	-12397
▁manibalang	-12398
▁mapagbigay	-12399
▁mapagtanto	-12400
▁mapayapang	-12401
▁marangyang	-12402
▁mararangal	-12403
▁mararangya	-12404
▁masasaktan	-12405
▁masilungan	-12406
▁matiyagang	-12407
▁mauunawaan	-12408
▁minamasdan	-12409
▁nagbubunga	-12410
▁nagbuntung	-12411
▁nagdarahop	-12412
▁nagdarasal	-12413
▁naghahanda	-12414
▁naghahayag	-12415
▁nagkadurog	-12416
▁nagkagayon	-12417
▁nagkakalat	-12418
▁nagkatotoo	-12419
▁naglalaban	-12420
▁naglathala	-12421
▁nagliwanag	-12422
▁nagmamaliw	-12423
▁nagpahayag	-12424
▁nagpamalas	-12425
▁nagpapalit	-12426
▁nagpatiuna	-12427
▁nagpupugay	-12428
▁nagsasayaw	-12429
▁nagsigawan	-12430
▁nagsilabas	-12431
▁nagsipunta	-12432
▁nagsisipag	-12433
▁nagsisipan	-12434
▁nagtatagpo	-12435
▁nagtatanod	-12436
▁nagtutulog	-12437
▁nailathala	-12438
▁naisatitik	-12439
▁nakababata	-12440
▁nakabigkis	-12441
▁nakakaalam	-12442
▁nakaligtas	-12443
▁nakapanhik	-12444
▁nakaramdam	-12445
▁nakikilala	-12446
▁nalalaglag	-12447
▁nalalamang	-12448
▁namamahala	-12449
▁namamayong	-12450
▁nanalangin	-12451
▁nandayuhan	-12452
▁nangabuhay	-12453
▁nangamatay	-12454
▁nangangako	-12455
▁naniningil	-12456
▁napakasama	-12457
▁nararahuyo	-12458
▁nasaksihan	-12459
▁natatakpan	-12460
▁pagbubukas	-12461
▁pagkagalit	-12462
▁pagkaganda	-12463
▁pagkagiliw	-12464
▁pagkalimot	-12465
▁pagkukunan	-12466
▁paglalakad	-12467
▁paglilinis	-12468
▁pagluluwal	-12469
▁pagmumukha	-12470
▁pagsasaing	-12471
▁pagsasanay	-12472
▁palakpakan	-12473
▁pamamasyal	-12474
▁pamimiliin	-12475
▁panganorin	-12476
▁panggatong	-12477
▁paninirang	-12478
▁panliligaw	-12479
▁panlipunan	-12480
▁papanhikin	-12481
▁paparating	-12482
▁partikular	-12483
▁pasalaysay	-12484
▁patnubayan	-12485
▁perdigones	-12486
▁pinakaloob	-12487
▁salagubang	-12488
▁sambayanan	-12489
▁sambuntong	-12490
▁sanlibutan	-12491
▁sapilitang	-12492
▁sasambahin	-12493
▁sinasambit	-12494
▁sinindihan	-12495
▁sinusundan	-12496
▁sumalangit	-12497
▁sumalubong	-12498
▁tagapamuno	-12499
▁takipsilim	-12500
▁talinghaga	-12501
▁tanggulang	-12502
▁tanghaling	-12503
▁tanikalang	-12504
▁tataglayin	-12505
▁telebisyon	-12506
▁tinalunton	-12507
▁tiwangwang	-12508
▁tumangging	-12509
▁tumatangis	-12510
▁tumutugtog	-12511
▁tumutulong	-12512
▁tunggalian	-12513
▁tungkuling	-12514
............	-12515
aniniwalaang	-12516
▁Christopher	-12517
▁Dambuhalang	-12518
▁Ipahintulot	-12519
▁Ipinagbilin	-12520
▁Itinatanong	-12521
▁Kabayanihan	-12522
▁Kabungsuwan	-12523
▁Kasukdulang	-12524
▁Katagalugan	-12525
▁Katotohanan	-12526
▁Katungkulan	-12527
▁Maglalakbay	-12528
▁Magpapakita	-12529
▁Magtatanong	-12530
▁Mahihikayat	-12531
▁Makasalanan	-12532
▁Naghihintay	-12533
▁Nagmumurang	-12534
▁Nagpakilala	-12535
▁Nagtakbuhan	-12536
▁Nananawagan	-12537
▁Natatandaan	-12538
▁Panchantara	-12539
▁Pingpinggan	-12540
▁Sagamantika	-12541
▁Sinagmaling	-12542
▁Sinasalamin	-12543
▁Tinatawagan	-12544
▁alibangbang	-12545
▁alingawngaw	-12546
▁bilangguang	-12547
▁binabanggit	-12548
▁ekspresyong	-12549
▁estranghero	-12550
▁ginagalawan	-12551
▁ginatipigan	-12552
▁hinahagupit	-12553
▁hinahangaan	-12554
▁ikaliligtas	-12555
▁ikinabahala	-12556
▁ikinahihiya	-12557
▁ipinakilala	-12558
▁kapahamakan	-12559
▁katiwasayan	-12560
▁kaygagaslaw	-12561
▁kaylalamyos	-12562
▁lapastangan	-12563
▁maginhawang	-12564
▁magkakadugo	-12565
▁magkakasama	-12566
▁maitutulong	-12567
▁maituturing	-12568
▁makababalik	-12569
▁makagulapay	-12570
▁makakalaban	-12571
▁makalimutan	-12572
▁makapagsabi	-12573
▁mananalamin	-12574
▁manghihimig	-12575
▁maninirahan	-12576
▁manlalakbay	-12577
▁mapagpalang	-12578
▁mapapalapit	-12579
▁mapapasaiyo	-12580
▁maparusahan	-12581
▁masisilayan	-12582
▁masisiyahan	-12583
▁mataginting	-12584
▁misyonerong	-12585
▁nagkaganoon	-12586
▁nagkaibigan	-12587
▁naglilingas	-12588
▁nagmamadali	-12589
▁nagngangang	-12590
▁nagpapakita	-12591
▁nagpatulong	-12592
▁nagsusuklay	-12593
▁nagtatampok	-12594
▁nakahihigit	-12595
▁nakalilimot	-12596
▁nakapagtago	-12597
▁nalilimutan	-12598
▁namamanglaw	-12599
▁namimilipit	-12600
▁namimingwit	-12601
▁namiminsala	-12602
▁namumungang	-12603
▁nangangamba	-12604
▁nangingibig	-12605
▁napakakisig	-12606
▁napakatanda	-12607
▁napaligiran	-12608
▁nasisiyahan	-12609
▁nilalanghap	-12610
▁pagbabahagi	-12611
▁paghihintay	-12612
▁pagkadakila	-12613
▁pagkakasara	-12614
▁pagkakayari	-12615
▁pagkamangha	-12616
▁paglilibang	-12617
▁paglilibing	-12618
▁paglilinang	-12619
▁pagmamasdan	-12620
▁pagnanasang	-12621
▁pagsasamang	-12622
▁pagsasarili	-12623
▁pagtitipong	-12624
▁pagtitiyaga	-12625
▁pakaiisipin	-12626
▁pakikilaban	-12627
▁pananagutan	-12628
▁pananalakay	-12629
▁paralelismo	-12630
▁pinaaasuhan	-12631
▁pinagbigyan	-12632
▁pinagbuhata	-12633
▁pinagmulang	-12634
▁pinagtaling	-12635
▁pinakaunang	-12636
▁pinakawalan	-12637
▁pinaligiran	-12638
▁pinangalang	-12639
▁pinapalitan	-12640
▁propesyonal	-12641
▁sinapupunan	-12642
▁sinasagisag	-12643
▁sinunggaban	-12644
▁sumasagisag	-12645
▁tagapagmana	-12646
▁tangkilikan	-12647
▁tatangkilik	-12648
▁tinatahanan	-12649
▁tinatalakay	-12650
▁tumatanggap	-12651
Magpupumiglas	-12652
▁Bulubundukin	-12653
▁Ikinikompisa	-12654
▁Ipinalalagay	-12655
▁Ipinaliwanag	-12656
▁Kakalahating	-12657
▁Maghahabulan	-12658
▁Magmamakaawa	-12659
▁Mapangarapin	-12660
▁Mapapabilang	-12661
▁Matrimonyong	-12662
▁Minangondaya	-12663
▁Nararamdaman	-12664
▁Pinakiusapan	-12665
▁Pinangpangan	-12666
▁engkantadong	-12667
▁himpapawirin	-12668
▁humahalakhak	-12669
▁ikagiginhawa	-12670
▁impluwensiya	-12671
▁ipakahulugan	-12672
▁ipinaliwanag	-12673
▁kababalaghan	-12674
▁kalalakihang	-12675
▁kalingkingan	-12676
▁kamangmangan	-12677
▁kaparusahang	-12678
▁kasangkapang	-12679
▁katotohanang	-12680
▁kinalalagyan	-12681
▁labingwalong	-12682
▁magkakabalat	-12683
▁magkasupling	-12684
▁magmamahalan	-12685
▁magpakasakit	-12686
▁magsusupling	-12687
▁mahahalagang	-12688
▁maintindihan	-12689
▁makabuluhang	-12690
▁makagagaling	-12691
▁makahulugang	-12692
▁makakarating	-12693
▁makapaniwala	-12694
▁mamamanhikan	-12695
▁manggagaling	-12696
▁mapaglabanan	-12697
▁mapapantayan	-12698
▁maratangtang	-12699
▁matatalinong	-12700
▁naghihiwalay	-12701
▁nagkakanlong	-12702
▁nagkakasundo	-12703
▁naglalarawan	-12704
▁nagliliparan	-12705
▁nagmakaawang	-12706
▁nagpapasigla	-12707
▁nagpasalamat	-12708
▁nagpatingkad	-12709
▁nagsusumpaan	-12710
▁nahintakutan	-12711
▁nakababatang	-12712
▁nakabaligtad	-12713
▁nakakatulong	-12714
▁nakasalamuha	-12715
▁nakasalubong	-12716
▁nakatutulong	-12717
▁namumulaklak	-12718
▁nananalangin	-12719
▁nangakaraang	-12720
▁nangangasiwa	-12721
▁nanginginain	-12722
▁pagkabusabos	-12723
▁pagkakasundo	-12724
▁pagkakatulad	-12725
▁pagkakatulog	-12726
▁pagliligawan	-12727
▁pagmamakaawa	-12728
▁pagpapakasal	-12729
▁pagpapatuloy	-12730
▁pagsasamahin	-12731
▁pananaliksik	-12732
▁pananalitang	-12733
▁panatilihing	-12734
▁pangangalaga	-12735
▁pangingitlog	-12736
▁patalinghaga	-12737
▁pinaghiwalay	-12738
▁pinagmumulan	-12739
▁pinagtawanan	-12740
▁sibilisasyon	-12741
▁tinatangisan	-12742
ipagtalastasan	-12743
▁Hahahahahahah	-12744
▁Magtatampisaw	-12745
▁Mapapangasawa	-12746
▁Nagmamadaling	-12747
▁Pinakamaganda	-12748
▁kababalaghang	-12749
▁kakailanganin	-12750
▁labindalawang	-12751
▁magkakapantay	-12752
▁maipaghiganti	-12753
▁makapagsalita	-12754
▁mangangalakal	-12755
▁matalinhagang	-12756
▁naghalinhinan	-12757
▁naghihinagpis	-12758
▁nagkikislapan	-12759
▁naglalakihang	-12760
▁nagpapagunita	-12761
▁nagtatakbuhan	-12762
▁nakapagsalita	-12763
▁nakapagtataka	-12764
▁napanaginipan	-12765
▁pagkakatapong	-12766
▁pagsasaliksik	-12767
▁pampanitikang	-12768
▁pangangatawan	-12769
▁pinagmamasdan	-12770
▁pinakamalakas	-12771
▁pinarurusahan	-12772
▁pinatutunayan	-12773
▁sangmaliwanag	-12774
▁tagapagparusa	-12775
▁tagapamagitan	-12776
▁umalingawngaw	-12777
▁Intempsychosis	-12778
▁Nagmamatandang	-12779
▁ipagsanggalang	-12780
▁kinahihinatnan	-12781
▁kinatatakutang	-12782
▁magpakailanman	-12783
▁mahihintakutan	-12784
▁maisakatuparan	-12785
▁makapagbibigay	-12786
▁makatotohanang	-12787
▁mapagbibilihan	-12788
▁nagngingitngit	-12789
▁nagsisipaglaro	-12790
▁pagmamalasakit	-12791
▁pagpapakasakit	-12792
▁pagpapasalamat	-12793
▁pahihintulutan	-12794
▁pangkalinangan	-12795
▁pinakamagaling	-12796
▁pinaniniwalaan	-12797
▁umaalingawngaw	-12798
▁Makapangyarihan	-12799
▁Nagsisipanlagas	-12800
▁karakterisasyon	-12801
▁makipagkaibigan	-12802
▁nagpapakilalang	-12803
▁pagkakakilanlan	-12804
▁pagkakawanggawa	-12805
▁pagpapahalagang	-12806
▁pinaniniwalaang	-12807
ggg	-12808
Akda	-12809
Bacn	-12810
Daig	-12811
berg	-12812
dyed	-12813
iagn	-12814
ildr	-12815
susi	-12816
▁12,	-12817
▁AAA	-12818
▁Bea	-12819
▁TAO	-12820
▁TUM	-12821
▁awd	-12822
▁for	-12823
▁tie	-12824
AHHHH	-12825
AKILA	-12826
ARILA	-12827
Abril	-12828
Bacch	-12829
Bikol	-12830
Daing	-12831
Ginoo	-12832
Kakal	-12833
Ninik	-12834
Palil	-12835
Pinat	-12836
Pinup	-12837
Pokus	-12838
ULING	-12839
UMANG	-12840
Ugang	-12841
Venus	-12842
amuhi	-12843
atnig	-12844
bunyi	-12845
eengg	-12846
eidel	-12847
eings	-12848
ibugh	-12849
idikd	-12850
iipun	-12851
ispos	-12852
kiwal	-12853
multo	-12854
older	-12855
ombra	-12856
onale	-12857
onsib	-12858
pensa	-12859
ranes	-12860
senio	-12861
simin	-12862
uksok	-12863
uskos	-12864
ymple	-12865
▁Babl	-12866
▁Bunb	-12867
▁Cuad	-12868
▁Deat	-12869
▁Ingg	-12870
▁Kont	-12871
▁Lomb	-12872
▁Lost	-12873
▁Shed	-12874
▁Tsok	-12875
▁VIII	-12876
▁epos	-12877
▁gaml	-12878
▁hwag	-12879
▁imbi	-12880
▁ipau	-12881
▁utal	-12882
▁wild	-12883
Babago	-12884
Bacnot	-12885
Dinast	-12886
Ganito	-12887
Halina	-12888
Isplas	-12889
LINGAN	-12890
Magkuk	-12891
Sumama	-12892
Tagist	-12893
UMANGG	-12894
aampon	-12895
adence	-12896
alungi	-12897
asenso	-12898
atngat	-12899
AUS	-12900
TUS	-12901
kiu	-12902
mpl	-12903
Araw	-12904
Asal	-12905
Mbls	-12906
USAN	-12907
ctis	-12908
kals	-12909
luoy	-12910
soli	-12911
trod	-12912
ulpi	-12913
Asawa	-12914
Barit	-12915
PUSAN	-12916
Pagod	-12917
encia	-12918
mpley	-12919
piing	-12920
ungua	-12921
uumit	-12922
▁FAUS	-12923
▁Slow	-12924
Dumaan	-12925
Humayo	-12926
Introd	-12927
ackals	-12928
basket	-12929
ecargo	-12930
egends	-12931
egorio	-12932
ehidor	-12933
ekargo	-12934
enigst	-12935
eologo	-12936
erhero	-12937
franes	-12938
geolog	-12939
ibilad	-12940
ibinhi	-12941
iburuk	-12942
iibayo	-12943
ikings	-12944
ilamas	-12945
inhold	-12946
iphayo	-12947
itipid	-12948
iwisik	-12949
kuweba	-12950
lalata	-12951
lument	-12952
okonsy	-12953
onseho	-12954
oprano	-12955
ordill	-12956
pungas	-12957
sagwan	-12958
suklam	-12959
susing	-12960
unguhi	-12961
urukya	-12962
uudyok	-12963
yerong	-12964
▁Agham	-12965
▁BALAG	-12966
▁Beata	-12967
▁Bigay	-12968
▁Braso	-12969
▁Burig	-12970
▁DAPAT	-12971
▁Death	-12972
▁Ellen	-12973
▁Ester	-12974
▁Gutum	-12975
▁Hihig	-12976
▁ILING	-12977
▁Iluad	-12978
▁Kodla	-12979
▁Legas	-12980
▁Livet	-12981
▁Mileg	-12982
▁Mlkss	-12983
▁Ngeee	-12984
▁Paete	-12985
▁Pokus	-12986
▁Sakop	-12987
▁Saksi	-12988
▁Simal	-12989
▁Sitli	-12990
▁Tsino	-12991
▁Ugang	-12992
▁Umism	-12993
▁Venus	-12994
▁aalsa	-12995
▁agham	-12996
▁awdia	-12997
▁beles	-12998
▁bikol	-12999
▁Bunso	-13000
▁dapyo	-13001
▁derib	-13002
▁eeeng	-13003
▁gulod	-13004
▁iigsi	-13005
▁imbit	-13006
▁kirot	-13007
▁kusim	-13008
▁laksa	-13009
▁lupon	-13010
▁opini	-13011
▁optim	-13012
▁peneh	-13013
▁prosp	-13014
▁ritmo	-13015
▁siyud	-13016
▁sukli	-13017
▁tahip	-13018
▁tenga	-13019
▁upuan	-13020
▁voice	-13021
▁yakal	-13022
Ginanap	-13023
Humanda	-13024
Iniibig	-13025
Ipakita	-13026
Jackals	-13027
Konseho	-13028
Magkukw	-13029
Makinig	-13030
Makulay	-13031
Nakaupo	-13032
Papaano	-13033
Patayin	-13034
Sisilip	-13035
Soprano	-13036
UMANGGI	-13037
aakayin	-13038
alimsim	-13039
amimili	-13040
apareha	-13041
apusing	-13042
arlisle	-13043
awangki	-13044
busilak	-13045
dionale	-13046
egendus	-13047
endulum	-13048
enteryo	-13049
ernando	-13050
garinga	-13051
giliwan	-13052
idikdik	-13053
iimbita	-13054
insulto	-13055
intidor	-13056
kumusta	-13057
kunwari	-13058
lanueva	-13059
lumentr	-13060
makinis	-13061
otensya	-13062
pawisan	-13063
ubunyag	-13064
udencia	-13065
ugbugin	-13066
usuntok	-13067
utukain	-13068
uumapaw	-13069
yalismo	-13070
ymplega	-13071
▁Aaluin	-13072
▁Acacio	-13073
▁Alulod	-13074
▁BALAGT	-13075
▁Brahos	-13076
▁Bunbut	-13077
▁DAKILA	-13078
▁Duryan	-13079
▁Estilo	-13080
▁Glorya	-13081
▁Heidel	-13082
▁Imahen	-13083
▁Inggit	-13084
▁Isplas	-13085
▁Iwalay	-13086
▁Iwasan	-13087
▁Jeriko	-13088
▁Kiming	-13089
▁Kontin	-13090
▁LAHING	-13091
▁Laguna	-13092
▁Liveti	-13093
▁Madale	-13094
▁Maigsi	-13095
▁Naguas	-13096
▁Paniki	-13097
▁Pebong	-13098
▁Posaka	-13099
▁Burub	-13100
Jupiter	-13101
hikaing	-13102
▁Poseid	-13103
▁Sasaks	-13104
▁Sharki	-13105
▁Shedlo	-13106
▁Sinigw	-13107
▁TAUHAN	-13108
▁TUMING	-13109
▁Taghuy	-13110
▁Turina	-13111
▁Tutubi	-13112
▁Utasin	-13113
▁abubot	-13114
▁ambato	-13115
▁anting	-13116
▁bagsak	-13117
▁bansag	-13118
▁bantad	-13119
▁beings	-13120
▁bundat	-13121
▁daidid	-13122
▁daidig	-13123
▁daratn	-13124
▁dispos	-13125
▁doonga	-13126
▁empley	-13127
▁folder	-13128
▁gayuma	-13129
▁gimbal	-13130
▁ikasus	-13131
▁ikukuw	-13132
▁ipauub	-13133
▁istamb	-13134
▁iuukol	-13135
▁kusina	-13136
▁limbag	-13137
▁linsil	-13138
▁maapoy	-13139
▁magiik	-13140
▁mahadl	-13141
▁maiden	-13142
▁matimt	-13143
▁muning	-13144
▁naaagn	-13145
▁nasams	-13146
▁pasoli	-13147
▁pitasi	-13148
▁proses	-13149
▁siniil	-13150
▁sintur	-13151
▁suntok	-13152
▁telang	-13153
▁tingal	-13154
▁transp	-13155
▁umapaw	-13156
▁umiral	-13157
ATAPUSAN	-13158
Bacnotan	-13159
Baritono	-13160
Crisanto	-13161
GALINGAN	-13162
Garalgal	-13163
Humihing	-13164
Makikita	-13165
Nakaamoy	-13166
Nangalau	-13167
Pagbukas	-13168
Papanhik	-13169
Susundin	-13170
Titindig	-13171
YUMANGGI	-13172
aasikaso	-13173
agbabago	-13174
agubilin	-13175
alagpaka	-13176
antsilyo	-13177
asunduan	-13178
atngatin	-13179
ayuyurak	-13180
enerhiya	-13181
esponsib	-13182
garalgal	-13183
ibughuin	-13184
ikinikin	-13185
immortal	-13186
inatngat	-13187
ipithaya	-13188
itigatig	-13189
iwisikan	-13190
kumulang	-13191
mahinang	-13192
makalawa	-13193
marangal	-13194
orehidor	-13195
pabigkas	-13196
pabulang	-13197
papakain	-13198
salimuot	-13199
oops	-13200
oooops	-13201
Ooooops	-13202
aagawan	-13203
umpakan	-13204
▁Kumpas	-13205
▁Normal	-13206
▁kapait	-13207
▁lingon	-13208
▁magnin	-13209
▁simpok	-13210
▁tambol	-13211
sandaang	-13212
sinlapad	-13213
sumasara	-13214
tahasang	-13215
uhulihan	-13216
urukyaan	-13217
uumanhin	-13218
wentuhan	-13219
▁Amtalan	-13220
▁Arsenio	-13221
▁Beywang	-13222
▁Binakod	-13223
▁Bunutin	-13224
▁Cordill	-13225
▁Didilim	-13226
▁Dudulog	-13227
▁Duwindi	-13228
▁Gambong	-13229
▁Gamitin	-13230
▁Garugay	-13231
▁Gitnang	-13232
▁Gulanit	-13233
▁Habagat	-13234
▁Harapin	-13235
▁Herodes	-13236
▁Himutok	-13237
▁Hungkag	-13238
▁Hutukin	-13239
▁Idinumi	-13240
▁Ilimbag	-13241
▁Ilocano	-13242
▁Ilonggo	-13243
▁Isasara	-13244
▁Itatayo	-13245
▁Kakuris	-13246
▁Kalaing	-13247
▁Kamalia	-13248
▁Kodaran	-13249
▁Kulubot	-13250
▁Lambayo	-13251
▁Legaspi	-13252
▁Linayag	-13253
▁Linusob	-13254
▁Manggob	-13255
▁Manggub	-13256
▁Manipis	-13257
▁Masanay	-13258
▁Matutum	-13259
▁Mauugat	-13260
▁Nadikit	-13261
▁Nagdamp	-13262
▁Nagkisl	-13263
▁Nakasis	-13264
▁Nanduon	-13265
▁Nanghih	-13266
▁Ngumiti	-13267
▁Nililok	-13268
▁Nunukal	-13269
▁Pagpili	-13270
▁Pagwika	-13271
▁Palahaw	-13272
▁Pamulaw	-13273
▁Pebrero	-13274
▁Pistang	-13275
▁Pulangi	-13276
▁Solomon	-13277
▁Talaand	-13278
▁Tapatin	-13279
▁Tibayan	-13280
▁Tinurol	-13281
▁Tiririt	-13282
▁Tiruray	-13283
▁Titindi	-13284
▁Umismid	-13285
▁Winasak	-13286
▁Yumukod	-13287
▁antayan	-13288
▁atungal	-13289
▁bagting	-13290
▁bakulaw	-13291
▁basehan	-13292
▁biglaan	-13293
▁bubuuin	-13294
▁bulaang	-13295
▁bulkang	-13296
▁bumigay	-13297
▁dadalaw	-13298
▁dadanak	-13299
▁Barb	-13300
▁Melu	-13301
abayaa	-13302
abulag	-13303
apyuan	-13304
eryoso	-13305
hambog	-13306
imoten	-13307
makata	-13308
uhurno	-13309
uyukod	-13310
▁Baror	-13311
▁Kelan	-13312
▁Lunas	-13313
▁Pupuk	-13314
▁Putot	-13315
▁Sisiw	-13316
▁Sukat	-13317
▁Surot	-13318
▁Tomas	-13319
▁Tribo	-13320
▁kikil	-13321
▁radyo	-13322
▁tubis	-13323
Seryoso	-13324
abanaag	-13325
adlakan	-13326
akataon	-13327
impleng	-13328
▁Hambog	-13329
▁Kawawa	-13330
▁Langka	-13331
▁Pupukp	-13332
▁intrum	-13333
▁tirano	-13334
Maragtas	-13335
atilihin	-13336
atubalan	-13337
imotenho	-13338
isilbing	-13339
naisalin	-13340
▁Barbero	-13341
▁Baroraw	-13342
▁Putukan	-13343
▁Putulan	-13344
▁Umiiyak	-13345
▁binulag	-13346
▁daididg	-13347
▁damasko	-13348
▁daraing	-13349
▁depensa	-13350
▁dinihon	-13351
▁duguang	-13352
▁dumagsa	-13353
▁durugin	-13354
▁gamitan	-13355
▁gamutin	-13356
▁ganggab	-13357
▁gayakan	-13358
▁gigante	-13359
▁hahagik	-13360
▁heologo	-13361
▁hidwaan	-13362
▁hinigop	-13363
▁hinimok	-13364
▁hiraman	-13365
▁iipunin	-13366
▁ikaanim	-13367
▁ikintal	-13368
▁inampon	-13369
▁iniusod	-13370
▁inusisa	-13371
▁inuusig	-13372
▁ipaagaw	-13373
▁ipaghih	-13374
▁ipanalo	-13375
▁kagalaw	-13376
▁kapaita	-13377
▁kasosyo	-13378
▁kaybuti	-13379
▁kaypala	-13380
▁kinabib	-13381
▁kotseng	-13382
▁kumatok	-13383
▁kumukur	-13384
▁librong	-13385
▁lilinga	-13386
▁lumimot	-13387
▁maalwan	-13388
▁mahahar	-13389
▁malagak	-13390
▁mamitas	-13391
▁mamulam	-13392
▁manipis	-13393
▁manunuk	-13394
▁mapipig	-13395
▁mapugto	-13396
▁masyado	-13397
▁matalos	-13398
▁maunawa	-13399
eze	-13400
bate	-13401
llll	-13402
rite	-13403
tuos	-13404
yido	-13405
aalma	-13406
aplos	-13407
avite	-13408
bitak	-13409
ctuos	-13410
himig	-13411
ihuma	-13412
iskap	-13413
lllll	-13414
reeze	-13415
wasto	-13416
▁Birh	-13417
▁Budh	-13418
▁Stad	-13419
▁adob	-13420
▁budh	-13421
▁late	-13422
▁purg	-13423
▁ugoy	-13424
arison	-13425
ctuoso	-13426
elyido	-13427
mahina	-13428
urrite	-13429
▁Barun	-13430
▁Enero	-13431
▁adobe	-13432
▁aturg	-13433
▁ayaon	-13434
▁tahid	-13435
Isasama	-13436
Sasayaw	-13437
Tutungo	-13438
Tutunog	-13439
abuklod	-13440
iskisan	-13441
linlang	-13442
▁Cavite	-13443
▁Freeze	-13444
▁Itangi	-13445
▁nabaon	-13446
▁piitin	-13447
Isisigaw	-13448
ababatid	-13449
apanghim	-13450
ektibong	-13451
mahabang	-13452
mahalang	-13453
ructuoso	-13454
▁Birheng	-13455
▁Budhist	-13456
▁Garison	-13457
▁Makapup	-13458
▁Masbate	-13459
▁Palaris	-13460
▁Stadium	-13461
▁budhing	-13462
▁currite	-13463
▁maysusi	-13464
▁mesiyas	-13465
▁milagro	-13466
▁nagnais	-13467
▁naitala	-13468
▁nakarir	-13469
▁nalangk	-13470
▁nandoon	-13471
▁napugto	-13472
▁napupus	-13473
▁nasikil	-13474
▁ngumiti	-13475
▁nilakha	-13476
▁nunukal	-13477
▁opinion	-13478
▁palabab	-13479
▁palatok	-13480
▁paliguy	-13481
▁paparon	-13482
▁parasko	-13483
▁paturol	-13484
▁pigilan	-13485
▁pigtang	-13486
▁pindong	-13487
▁pistang	-13488
▁platero	-13489
▁popokus	-13490
▁recargo	-13491
▁rekargo	-13492
▁sintaha	-13493
▁sisipot	-13494
▁sugpuin	-13495
▁sumakop	-13496
▁sumunud	-13497
▁tahakin	-13498
▁tatlump	-13499
usli	-13500
ayber	-13501
Dakilang	-13502
libingan	-13503
▁Silanga	-13504
▁Umiikot	-13505
▁drayber	-13506
▁lumagok	-13507
▁pasanin	-13508
▁pinasis	-13509
▁tatlung	-13510
▁tipunin	-13511
▁tubuhan	-13512
▁tugunin	-13513
▁tutupin	-13514
▁umiikli	-13515
▁yumurak	-13516
Bugtungan	-13517
Hahagurin	-13518
Ipagpalit	-13519
Ipakikita	-13520
Isusuntok	-13521
Nakalitaw	-13522
Nakangiti	-13523
Natatakot	-13524
Natitiyak	-13525
Pinuputol	-13526
Sasabayan	-13527
Sasagutin	-13528
Tagalogan	-13529
aanyayang	-13530
ababahala	-13531
adaluhong	-13532
agampanan	-13533
agandahin	-13534
agkandili	-13535
agtitikim	-13536
ahandusay	-13537
ahinhinan	-13538
akasakali	-13539
akipsilim	-13540
aligsahan	-13541
aliligaya	-13542
alipadpad	-13543
alubungin	-13544
amasyalan	-13545
amayagpag	-13546
ambabalot	-13547
anlilisik	-13548
apamimili	-13549
arituhing	-13550
asadlakan	-13551
atambakan	-13552
atubiling	-13553
atutumpak	-13554
bubuwisit	-13555
eengganyo	-13556
ementeryo	-13557
gagamitin	-13558
geologist	-13559
hinyerong	-13560
ibinyagan	-13561
igantihan	-13562
iinggitan	-13563
illanueva	-13564
inirahang	-13565
inungkahi	-13566
ipanalasa	-13567
istorikal	-13568
itilamsik	-13569
lilingkod	-13570
lumentrit	-13571
lumilitaw	-13572
maharlika	-13573
nagbabago	-13574
papayaman	-13575
talinhaga	-13576
tinatawag	-13577
uwentuhan	-13578
yonalismo	-13579
▁Aabangan	-13580
▁Abadilla	-13581
▁Alulusan	-13582
▁Alunsina	-13583
▁Audencia	-13584
▁BALAGTAS	-13585
▁Bablayon	-13586
▁Balahibo	-13587
▁Bicolano	-13588
▁Biyayang	-13589
▁Catindig	-13590
▁Crisanto	-13591
▁Cuadrado	-13592
▁Dayalogo	-13593
▁Dekalogo	-13594
▁Fernando	-13595
▁Gambatut	-13596
▁Gapusing	-13597
▁Hinaplos	-13598
▁Idionale	-13599
▁props	-13600
▁kawani	-13601
▁nanlum	-13602
▁panser	-13603
▁sambal	-13604
▁santak	-13605
▁utopya	-13606
asunurin	-13607
ipigilin	-13608
panibago	-13609
ulunurin	-13610
▁Natanim	-13611
▁Pakiwal	-13612
▁Pranses	-13613
▁Tawirin	-13614
▁Tungkod	-13615
▁karakar	-13616
▁kinalos	-13617
▁kinalug	-13618
▁lalawig	-13619
▁maanong	-13620
▁naggala	-13621
▁nakayay	-13622
▁nanlata	-13623
▁nanlumo	-13624
▁napaaga	-13625
▁napaupo	-13626
▁santakr	-13627
Tatalikod	-13628
▁Ikasiyam	-13629
▁Inaninaw	-13630
▁Inihanda	-13631
▁Inihatid	-13632
▁Inimbita	-13633
▁Isasabog	-13634
▁Itatapon	-13635
▁Itinigil	-13636
▁Kababata	-13637
▁Kahubdan	-13638
▁Kailanga	-13639
▁Katwiran	-13640
▁Kawlaman	-13641
▁Kayumian	-13642
▁Kilanlin	-13643
▁Kinamkam	-13644
▁Koenigst	-13645
▁Kristyan	-13646
▁Kulimlim	-13647
▁Kumpisal	-13648
▁Lagabaan	-13649
▁Limagpas	-13650
▁Lolitang	-13651
▁Lollipop	-13652
▁Lumindol	-13653
▁Lumipana	-13654
▁Mabibigo	-13655
▁Magigiba	-13656
▁Malamlam	-13657
▁Malayari	-13658
▁Mandayan	-13659
▁Matanong	-13660
▁Naabutan	-13661
▁Nabigong	-13662
▁Nagsisis	-13663
▁Nakintal	-13664
▁Natangay	-13665
▁Naunahan	-13666
▁Ngumanga	-13667
▁Ninitang	-13668
▁Pagbalik	-13669
▁Paglabas	-13670
▁Pakikuha	-13671
▁Palamuti	-13672
▁Panghele	-13673
▁Panginay	-13674
▁Pasyahan	-13675
▁Pinabago	-13676
▁Pinagmas	-13677
▁Pinamili	-13678
▁Pinipili	-13679
▁Problema	-13680
▁Reinhold	-13681
▁Sabihing	-13682
▁Sambahin	-13683
▁Siblawan	-13684
▁Simpleng	-13685
▁Sinapant	-13686
▁Solomong	-13687
▁Sumulpot	-13688
▁TUMINGIN	-13689
▁Tagbusan	-13690
▁Tahanang	-13691
▁Tinikman	-13692
▁Tsinelas	-13693
▁Tumatamb	-13694
▁Turingan	-13695
▁Villalon	-13696
▁alpabeto	-13697
▁alpombra	-13698
▁anyayang	-13699
▁hidi	-13700
▁iism	-13701
▁posp	-13702
▁post	-13703
Panday	-13704
mabuti	-13705
▁lilib	-13706
▁Muntik	-13707
▁Sungay	-13708
▁aaruga	-13709
▁bantog	-13710
▁garote	-13711
▁habaan	-13712
▁hitana	-13713
▁kuneho	-13714
▁maihah	-13715
▁nanday	-13716
aglaruan	-13717
iglaanan	-13718
▁Iginawa	-13719
▁Lombayo	-13720
▁banyaga	-13721
▁hititin	-13722
▁hulihan	-13723
▁ilalaot	-13724
▁inaruga	-13725
▁inipong	-13726
▁isusuot	-13727
▁itampok	-13728
▁itinaas	-13729
▁konting	-13730
▁lamping	-13731
▁lilihis	-13732
▁lilikot	-13733
▁magwika	-13734
▁posporo	-13735
▁posteng	-13736
▁uusbong	-13737
Nagdadala	-13738
▁Bukiring	-13739
▁Malanday	-13740
▁Manobong	-13741
▁Palendag	-13742
▁Sumungaw	-13743
▁babangon	-13744
▁bagsakan	-13745
▁baluktot	-13746
▁banyusan	-13747
▁bibitaya	-13748
▁bikolano	-13749
▁bilugang	-13750
▁bumulwak	-13751
▁daratnin	-13752
▁datapuwa	-13753
▁dinadaya	-13754
▁dinungaw	-13755
▁dumungaw	-13756
▁dungawan	-13757
▁gaaanong	-13758
▁gamlayan	-13759
▁ginigiba	-13760
▁ginigiik	-13761
▁gisingin	-13762
▁gumigiik	-13763
▁guwapong	-13764
▁hagdanan	-13765
▁hihigang	-13766
▁himuking	-13767
▁hulihang	-13768
▁ibibilad	-13769
▁ihinagis	-13770
▁iismiran	-13771
▁ikukuwit	-13772
▁inaninaw	-13773
▁inihalal	-13774
▁inihanap	-13775
▁ipagbans	-13776
▁ipalasap	-13777
▁ipinagpa	-13778
▁ipinakuk	-13779
▁ipininid	-13780
▁isasagot	-13781
▁isasaing	-13782
▁isisipot	-13783
▁ititikom	-13784
▁itutulad	-13785
▁itutulak	-13786
▁itutuloy	-13787
▁iwiwisik	-13788
▁kabinata	-13789
▁kabuhuan	-13790
▁kadalasa	-13791
▁kahabaan	-13792
▁kailanga	-13793
▁kaisahan	-13794
▁kaluskos	-13795
▁kamoteng	-13796
▁kapareha	-13797
▁kapuriha	-13798
▁kasuklam	-13799
AYS	-13800
AYAN	-13801
ance	-13802
ancy	-13803
ayua	-13804
erva	-13805
orsy	-13806
ribu	-13807
▁VII	-13808
aharl	-13809
bukas	-13810
empre	-13811
kubli	-13812
ocket	-13813
pinda	-13814
ripis	-13815
tuhog	-13816
ukdok	-13817
ulast	-13818
uusad	-13819
▁Cast	-13820
▁Hayu	-13821
▁uhog	-13822
abigin	-13823
agrado	-13824
apinda	-13825
enancy	-13826
espada	-13827
ikipus	-13828
ikubli	-13829
itinda	-13830
upasay	-13831
utumba	-13832
▁Lampi	-13833
▁Sibil	-13834
▁Titil	-13835
▁dampi	-13836
▁dance	-13837
▁meron	-13838
▁pinda	-13839
▁umani	-13840
▁waray	-13841
AYSAYAN	-13842
Masarap	-13843
Minerva	-13844
aharlik	-13845
akripis	-13846
aksakin	-13847
ayukdok	-13848
busabos	-13849
iyempre	-13850
lumakad	-13851
mabilis	-13852
palahil	-13853
paninda	-13854
talahin	-13855
umbrado	-13856
▁Kadera	-13857
▁Nainip	-13858
▁birhen	-13859
▁datiha	-13860
▁edukas	-13861
▁ibenta	-13862
▁inunos	-13863
▁kakibu	-13864
▁patani	-13865
▁rocket	-13866
Kayganda	-13867
Saksakin	-13868
ibitawan	-13869
ikipusag	-13870
marahang	-13871
orsyuhin	-13872
siyempre	-13873
▁Pahirin	-13874
▁Sibulan	-13875
▁Soliman	-13876
▁Taraban	-13877
▁aksyong	-13878
▁beywang	-13879
▁kalayua	-13880
▁malunos	-13881
▁nagngit	-13882
▁naiinip	-13883
▁nalipol	-13884
▁tatanod	-13885
▁tenancy	-13886
▁tuhugin	-13887
Magsikain	-13888
Tatabigin	-13889
akripisyo	-13890
ulastugan	-13891
▁Bahaging	-13892
▁Bayaniha	-13893
▁Gampanan	-13894
▁ampunang	-13895
▁kayayari	-13896
▁kaysarap	-13897
▁kilikili	-13898
▁kulimlim	-13899
▁112	-13900
▁DAY	-13901
hodes	-13902
▁nota	-13903
espeto	-13904
▁Rhodes	-13905
▁epekto	-13906
▁karosa	-13907
▁trenta	-13908
▁Binilot	-13909
▁DAYUHAN	-13910
▁Natutut	-13911
▁Patayin	-13912
▁pinabub	-13913
▁pinupug	-13914
▁respeto	-13915
▁Filipina	-13916
▁Filipino	-13917
▁Ikasampu	-13918
▁kutsilyo	-13919
▁lalaging	-13920
▁lalamlam	-13921
▁lalayuan	-13922
▁lilingon	-13923
▁limitado	-13924
▁lukbutan	-13925
▁lumingon	-13926
▁lusubing	-13927
▁maaanong	-13928
▁maabutan	-13929
▁mabundat	-13930
▁madaanan	-13931
▁madapuan	-13932
▁magbilot	-13933
▁magkabab	-13934
▁maglayag	-13935
▁magsilbi	-13936
▁magtanaw	-13937
▁magtangi	-13938
▁magwalis	-13939
▁maihinga	-13940
▁maiimpok	-13941
▁maikubli	-13942
▁maipamim	-13943
▁maisaing	-13944
▁maisampa	-13945
▁maiwasan	-13946
▁makadama	-13947
▁makagiik	-13948
▁makamtan	-13949
▁makarami	-13950
▁makatiis	-13951
▁makinahi	-13952
▁makintab	-13953
▁malasing	-13954
▁malayung	-13955
▁malumbay	-13956
▁mamangka	-13957
▁mamulaga	-13958
▁mapamili	-13959
▁mapamins	-13960
▁maringal	-13961
▁matumpak	-13962
▁maulinig	-13963
▁maunahan	-13964
▁mesitang	-13965
▁minabuti	-13966
▁naaagnas	-13967
▁nabibigo	-13968
▁nabigong	-13969
▁nabigyan	-13970
▁nagbunyi	-13971
▁nagkubli	-13972
▁naglunoy	-13973
▁naguguan	-13974
▁nahalata	-13975
▁nahubdan	-13976
▁naipasya	-13977
▁naiwasan	-13978
▁nakahiga	-13979
▁nalaunan	-13980
▁naluluma	-13981
▁naluluoy	-13982
▁nanunuya	-13983
▁napahiga	-13984
▁napatdan	-13985
▁napipisa	-13986
▁napipita	-13987
▁napopoot	-13988
▁napuputi	-13989
▁nasadlak	-13990
▁nasadsad	-13991
▁natuklas	-13992
▁nilakbay	-13993
▁nilalamb	-13994
▁nilalaro	-13995
▁nilaslas	-13996
▁nilingap	-13997
▁niloloko	-13998
▁paalisin	-13999
▁Huuu	-14000
Manubo	-14001
damong	-14002
iagnte	-14003
radong	-14004
wadong	-14005
▁Huuuu	-14006
▁ilaan	-14007
▁maliv	-14008
▁uusad	-14009
abihasa	-14010
alupaan	-14011
apuwing	-14012
ikaanim	-14013
▁Europa	-14014
▁Ihanda	-14015
▁Sinait	-14016
▁iidlip	-14017
▁lakand	-14018
▁lumaon	-14019
adwadong	-14020
▁Kagatin	-14021
▁Nabasag	-14022
▁Niyakap	-14023
▁Umuwing	-14024
▁dirikit	-14025
▁gulaman	-14026
▁hiagnte	-14027
▁hitsong	-14028
▁maidlip	-14029
▁malivut	-14030
▁turuang	-14031
▁yuyukod	-14032
▁Bagobong	-14033
▁Herminig	-14034
▁Kinukuha	-14035
▁Magtigil	-14036
▁Mamihasa	-14037
▁Nakaabot	-14038
▁Nakahuli	-14039
▁Nakausap	-14040
▁Natunton	-14041
▁hahawiin	-14042
▁inaantay	-14043
▁kabuuang	-14044
▁katayuan	-14045
▁kumukuha	-14046
▁magnilay	-14047
▁malivutu	-14048
▁nakukuha	-14049
▁napahuli	-14050
▁pagmalas	-14051
▁pagwawag	-14052
▁paibabaw	-14053
▁pakaliwa	-14054
▁palagian	-14055
▁palaging	-14056
▁palalaot	-14057
▁palihuma	-14058
▁pambansa	-14059
▁paniniil	-14060
▁panunuyo	-14061
▁papaalis	-14062
▁papangit	-14063
▁papawiin	-14064
▁paramtan	-14065
▁pataksil	-14066
▁patutung	-14067
▁pendulum	-14068
▁penehens	-14069
▁perpekto	-14070
▁pinaluha	-14071
▁pinanday	-14072
▁pinupuri	-14073
▁pistahan	-14074
▁pumupuri	-14075
▁santaong	-14076
▁santribu	-14077
▁sasagupa	-14078
▁sayangin	-14079
▁simpanin	-14080
▁simsimin	-14081
▁sinarhan	-14082
▁sindilim	-14083
▁sinturon	-14084
▁sisinsay	-14085
▁sitarang	-14086
▁siyensya	-14087
▁sumubsob	-14088
▁taglagas	-14089
▁tampulan	-14090
▁tatlumpu	-14091
▁tinabuan	-14092
▁tinayuan	-14093
▁titiktak	-14094
▁tubugang	-14095
▁tubusing	-14096
▁tunggali	-14097
▁turingan	-14098
▁umaantig	-14099
pbl	-14100
Pbgl	-14101
chil	-14102
loni	-14103
abihi	-14104
chile	-14105
gusot	-14106
matat	-14107
otion	-14108
sobis	-14109
tonio	-14110
▁turb	-14111
abosaw	-14112
aparam	-14113
ecilio	-14114
ilatis	-14115
iyesta	-14116
lonius	-14117
uhukay	-14118
ukayin	-14119
▁Anion	-14120
▁Bubuo	-14121
▁Naiiw	-14122
▁Suban	-14123
▁latin	-14124
Matamis	-14125
asaatin	-14126
maliban	-14127
matagal	-14128
sobispo	-14129
ukluban	-14130
▁Humiga	-14131
▁Lipdin	-14132
▁Mapagk	-14133
▁Pineda	-14134
▁Susann	-14135
▁Umirit	-14136
▁aanhin	-14137
▁aankin	-14138
▁amuyin	-14139
▁baston	-14140
▁dayuha	-14141
▁etnolo	-14142
▁idilat	-14143
▁ikatlo	-14144
▁motion	-14145
▁pasiga	-14146
▁sisihi	-14147
▁tingni	-14148
▁turban	-14149
Matalino	-14150
Tagistis	-14151
aglilihi	-14152
arabosaw	-14153
ipiyesta	-14154
matalino	-14155
matatamo	-14156
sasaatin	-14157
▁Antonio	-14158
▁Cecilio	-14159
▁Hinukay	-14160
▁Hukayin	-14161
▁Kulisap	-14162
▁Naiinis	-14163
▁Naiiwan	-14164
▁Pinukaw	-14165
▁datnang	-14166
▁dumilat	-14167
▁etnoloh	-14168
▁humamak	-14169
▁kasariw	-14170
▁kinusot	-14171
▁lumusot	-14172
▁matanto	-14173
▁naglihi	-14174
▁naparam	-14175
▁sasariw	-14176
▁sisirit	-14177
amanchile	-14178
isitindig	-14179
matagpuan	-14180
matandang	-14181
▁Susannah	-14182
▁Susundan	-14183
▁aankinin	-14184
▁daantaon	-14185
▁hukluban	-14186
▁magluwat	-14187
▁mapagpat	-14188
▁pagsuway	-14189
▁sasabihi	-14190
▁winaglit	-14191
Bibigkasin	-14192
Hihintayin	-14193
Humihingal	-14194
Kakalungin	-14195
Magdudulot	-14196
Maghahamok	-14197
Magpipingk	-14198
Nakatingin	-14199
▁Tigy	-14200
Asahan	-14201
otesta	-14202
▁Bangka	-14203
▁Hipong	-14204
kabataan	-14205
salitain	-14206
▁Sangkap	-14207
▁bigkasi	-14208
▁bubukas	-14209
▁ginagar	-14210
▁palangg	-14211
▁pinatat	-14212
▁Lansones	-14213
▁ginagaya	-14214
▁magkapab	-14215
▁mapuputi	-14216
▁nalaglag	-14217
▁namihasa	-14218
▁natitira	-14219
[...]
