<unk>	0
<s>	0
</s>	0
ng	-0
ang	-1
an	-2
▁n	-3
▁s	-4
at	-5
ag	-6
▁m	-7
al	-8
in	-9
ay	-10
▁k	-11
▁p	-12
▁ng	-13
▁sa	-14
▁na	-15
▁ang	-16
ak	-17
it	-18
as	-19
il	-20
am	-21
ar	-22
ap	-23
ing	-24
▁b	-25
ong	-26
ah	-27
aw	-28
iy	-29
ab	-30
▁at	-31
▁d	-32
▁t	-33
▁l	-34
ga	-35
ul	-36
is	-37
▁mga	-38
on	-39
▁ay	-40
▁A	-41
un	-42
um	-43
▁h	-44
ig	-45
▁S	-46
▁pag	-47
▁P	-48
ad	-49
ik	-50
▁N	-51
▁K	-52
▁M	-53
ib	-54
iya	-55
ung	-56
ip	-57
▁kan	-58
▁I	-59
▁mag	-60
▁nag	-61
▁si	-62
▁ni	-63
▁g	-64
us	-65
ito	-66
▁D	-67
im	-68
ut	-69
▁Ang	-70
▁is	-71
ala	-72
di	-73
▁B	-74
uh	-75
ilang	-76
uk	-77
▁T	-78
os	-79
er	-80
▁kany	-81
apat	-82
and	-83
▁H	-84
up	-85
ari	-86
or	-87
indi	-88
ila	-89
▁L	-90
▁isang	-91
ub	-92
▁"	-93
▁kanyang	-94
▁nang	-95
uw	-96
en	-97
ur	-98
ot	-99
▁siya	-100
▁may	-101
ayan	-102
awa	-103
alang	-104
ol	-105
iyang	-106
▁niya	-107
▁kay	-108
ih	-109
▁ito	-110
ug	-111
▁ak	-112
ir	-113
id	-114
▁nak	-115
iw	-116
aan	-117
alak	-118
▁Sa	-119
ant	-120
es	-121
▁ka	-122
▁pin	-123
ata	-124
▁w	-125
▁in	-126
▁pan	-127
ita	-128
og	-129
▁r	-130
▁pang	-131
▁hindi	-132
amang	-133
ok	-134
ya	-135
▁an	-136
▁(	-137
▁o	-138
..	-139
▁ib	-140
▁ta	-141
▁sin	-142
▁nam	-143
ahan	-144
▁pagk	-145
▁mak	-146
▁pa	-147
angg	-148
od	-149
▁mat	-150
▁ko	-151
alag	-152
ipin	-153
▁mal	-154
to	-155
aya	-156
▁pam	-157
ama	-158
▁kas	-159
▁kung	-160
▁kat	-161
agk	-162
ahat	-163
▁mo	-164
yon	-165
ulo	-166
yo	-167
ayo	-168
▁ma	-169
▁iy	-170
oon	-171
▁par	-172
ahil	-173
▁Nag	-174
▁At	-175
."	-176
alaw	-177
uhay	-178
alan	-179
sa	-180
ula	-181
▁lamang	-182
▁it	-183
itan	-184
▁kap	-185
abi	-186
▁man	-187
ili	-188
▁C	-189
▁E	-190
ob	-191
▁di	-192
alam	-193
ating	-194
uan	-195
ibig	-196
upang	-197
el	-198
▁lahat	-199
ungk	-200
▁tin	-201
▁kanilang	-202
▁bat	-203
▁dapat	-204
araw	-205
▁kal	-206
ta	-207
▁upang	-208
aka	-209
▁siyang	-210
▁1	-211
▁mas	-212
▁Ib	-213
aba	-214
▁niyang	-215
▁G	-216
▁F	-217
▁lum	-218
ana	-219
▁Pil	-220
anda	-221
▁Don	-222
oy	-223
▁kab	-224
▁kah	-225
▁nito	-226
▁bin	-227
▁mah	-228
aring	-229
▁naman	-230
ra	-231
▁ako	-232
▁din	-233
▁Pilipin	-234
alit	-235
und	-236
▁mang	-237
▁mab	-238
▁sila	-239
▁kar	-240
akas	-241
atay	-242
apag	-243
ayon	-244
▁tao	-245
▁kam	-246
▁nap	-247
alawang	-248
▁um	-249
ika	-250
▁mar	-251
▁In	-252
▁anak	-253
...	-254
unit	-255
▁walang	-256
▁Al	-257
aban	-258
▁dahil	-259
▁J	-260
ina	-261
▁Ng	-262
▁nat	-263
▁Is	-264
▁araw	-265
▁bag	-266
int	-267
oob	-268
andang	-269
om	-270
▁pal	-271
ulang	-272
awan	-273
yong	-274
▁Nang	-275
▁magk	-276
ali	-277
▁sum	-278
aling	-279
alim	-280
▁buhay	-281
▁Hindi	-282
ulong	-283
oong	-284
agkat	-285
ahay	-286
unt	-287
▁May	-288
▁tag	-289
▁ik	-290
arra	-291
▁tum	-292
ayang	-293
aman	-294
▁Kung	-295
▁aking	-296
▁Kap	-297
▁il	-298
▁hin	-299
▁rin	-300
▁bayan	-301
▁kin	-302
▁kong	-303
▁Pang	-304
re	-305
ante	-306
ulan	-307
▁Ibarra	-308
alik	-309
▁pags	-310
asa	-311
ent	-312
uno	-313
pap	-314
▁nila	-315
▁R	-316
iling	-317
ins	-318
▁U	-319
em	-320
ON	-321
▁sap	-322
ahon	-323
tat	-324
upa	-325
▁pr	-326
asan	-327
▁map	-328
ado	-329
▁Mari	-330
abang	-331
▁pagl	-332
▁para	-333
▁pat	-334
▁Na	-335
yan	-336
agan	-337
▁W	-338
▁gin	-339
YON	-340
alaki	-341
▁kaya	-342
SYON	-343
usap	-344
EK	-345
apos	-346
▁mam	-347
ungan	-348
▁dalawang	-349
▁SEK	-350
▁Sin	-351
▁al	-352
angk	-353
▁SEKSYON	-354
▁e	-355
akit	-356
apit	-357
▁kanya	-358
ha	-359
▁Si	-360
iwan	-361
uli	-362
▁sak	-363
uhan	-364
alaga	-365
ago	-366
▁baba	-367
alo	-368
▁iba	-369
▁Maria	-370
amp	-371
ura	-372
st	-373
▁ipin	-374
da	-375
▁lang	-376
▁nags	-377
▁iyong	-378
▁pinag	-379
isa	-380
▁Mag	-381
▁ama	-382
inig	-383
▁dum	-384
amb	-385
ero	-386
asawa	-387
uha	-388
▁kag	-389
▁wala	-390
▁pus	-391
eg	-392
yang	-393
▁kum	-394
anggang	-395
arap	-396
▁Pilipinas	-397
ipag	-398
▁sar	-399
unod	-400
▁ina	-401
uti	-402
▁Fl	-403
aming	-404
▁lupa	-405
▁loob	-406
asyon	-407
amit	-408
alita	-409
op	-410
yari	-411
la	-412
ans	-413
ast	-414
awag	-415
uwag	-416
uman	-417
▁tat	-418
angan	-419
▁pak	-420
▁panahon	-421
han	-422
na	-423
▁pagb	-424
ud	-425
alay	-426
▁isa	-427
alaking	-428
▁Kapitan	-429
uwa	-430
▁An	-431
▁Pag	-432
▁babae	-433
ahala	-434
ulat	-435
▁iyon	-436
▁bahay	-437
aran	-438
▁nas	-439
abas	-440
▁nagp	-441
▁Bas	-442
▁hal	-443
▁Flor	-444
▁tungk	-445
ulad	-446
ist	-447
ilio	-448
unan	-449
ahang	-450
▁noong	-451
ara	-452
unang	-453
unong	-454
▁naging	-455
alis	-456
▁Juan	-457
abing	-458
apatid	-459
ati	-460
▁Sim	-461
▁pagh	-462
itong	-463
▁sapagkat	-464
▁Pin	-465
awang	-466
▁nga	-467
▁dito	-468
ayong	-469
ihan	-470
▁nagk	-471
▁Isang	-472
irap	-473
▁batas	-474
et	-475
pin	-476
▁2	-477
▁y	-478
ump	-479
uong	-480
▁mad	-481
una	-482
alin	-483
▁ngunit	-484
iyos	-485
▁nar	-486
▁taong	-487
▁Tin	-488
▁nin	-489
▁hanggang	-490
▁Di	-491
▁maa	-492
▁nab	-493
▁pagkak	-494
▁Ito	-495
▁Nak	-496
▁pagt	-497
▁sab	-498
▁nasa	-499
▁Ay	-500
▁Basilio	-501
akl	-502
▁Dapat	-503
uloy	-504
isip	-505
uling	-506
▁pamam	-507
▁nan	-508
anong	-509
▁mong	-510
▁Ag	-511
ilangan	-512
▁Pangulo	-513
agaw	-514
oro	-515
res	-516
apang	-517
▁nagb	-518
.)	-519
atang	-520
▁puso	-521
▁Florante	-522
atu	-523
▁sam	-524
▁O	-525
awat	-526
oun	-527
lang	-528
▁Mga	-529
▁Donya	-530
▁itong	-531
agat	-532
▁Pad	-533
▁ano	-534
▁Ngunit	-535
uro	-536
▁bum	-537
agi	-538
▁bilang	-539
ed	-540
ataas	-541
▁itin	-542
ind	-543
utan	-544
ulog	-545
▁hum	-546
▁nagl	-547
▁lalaki	-548
aroon	-549
irang	-550
▁nagt	-551
▁Padre	-552
▁Simoun	-553
▁Lam	-554
ek	-555
▁buw	-556
▁magp	-557
aga	-558
anap	-559
▁pagpap	-560
▁Pilipino	-561
ahal	-562
aral	-563
▁dal	-564
▁19	-565
▁kuw	-566
▁tang	-567
ulungan	-568
ain	-569
amd	-570
iko	-571
iyak	-572
ust	-573
long	-574
along	-575
▁buong	-576
uy	-577
arang	-578
▁mula	-579
▁mags	-580
agad	-581
ilala	-582
ano	-583
▁maaaring	-584
▁Mar	-585
aso	-586
uri	-587
▁big	-588
▁bul	-589
▁magt	-590
anggap	-591
ro	-592
ungo	-593
▁hang	-594
▁ip	-595
iging	-596
▁Kaban	-597
▁Kabanata	-598
wa	-599
▁pum	-600
lo	-601
eral	-602
▁hari	-603
▁pagp	-604
▁Dahil	-605
▁Ad	-606
ento	-607
agawa	-608
alaman	-609
ami	-610
igit	-611
▁bawat	-612
▁Y	-613
bay	-614
▁kaw	-615
▁Siya	-616
▁ikaw	-617
ci	-618
ko	-619
▁gum	-620
▁pas	-621
▁taon	-622
ibigan	-623
usa	-624
hang	-625
iran	-626
▁nil	-627
ihin	-628
▁ban	-629
isyon	-630
▁ibang	-631
▁langit	-632
▁maging	-633
unga	-634
arian	-635
▁puno	-636
asal	-637
▁kun	-638
▁ngayon	-639
▁ba	-640
▁Pari	-641
ban	-642
mam	-643
ugan	-644
▁dalaga	-645
▁silang	-646
li	-647
▁La	-648
▁asawa	-649
agp	-650
akan	-651
agal	-652
▁Kaya	-653
ubat	-654
▁raw	-655
▁unang	-656
▁sag	-657
▁po	-658
abag	-659
anga	-660
awit	-661
▁pap	-662
▁wika	-663
ers	-664
▁re	-665
▁huk	-666
▁nagh	-667
▁sinabi	-668
!"	-669
yay	-670
alat	-671
alig	-672
▁dumating	-673
▁lib	-674
eneral	-675
▁ating	-676
abaw	-677
▁Kin	-678
ern	-679
tas	-680
▁Ar	-681
▁da	-682
▁or	-683
▁Sinabi	-684
▁kasama	-685
▁parang	-686
ma	-687
ilim	-688
ilit	-689
ingg	-690
▁Bat	-691
▁sina	-692
▁pinak	-693
▁tungkol	-694
say	-695
usan	-696
▁Kast	-697
▁pagd	-698
iwanag	-699
▁kahit	-700
▁kamay	-701
ugar	-702
▁Man	-703
▁panan	-704
▁binata	-705
,"	-706
eng	-707
▁nah	-708
▁Ipin	-709
▁nilang	-710
▁kapatid	-711
do	-712
uni	-713
▁Est	-714
▁iyo	-715
aklak	-716
undok	-717
api	-718
oto	-719
isan	-720
iyon	-721
▁V	-722
tor	-723
▁Mak	-724
▁tub	-725
ahing	-726
▁nakat	-727
ungkulan	-728
▁'	-729
igan	-730
▁akin	-731
nan	-732
sak	-733
▁ut	-734
ihim	-735
ilig	-736
ilip	-737
▁Tiy	-738
▁bah	-739
uting	-740
▁magb	-741
ahalaan	-742
▁Ik	-743
igil	-744
▁pamb	-745
agitan	-746
esa	-747
alagang	-748
alas	-749
▁tun	-750
▁kang	-751
▁ninyo	-752
kas	-753
uin	-754
uto	-755
ulay	-756
▁noon	-757
▁buk	-758
▁ibig	-759
▁Pagkat	-760
▁Kastila	-761
AN	-762
▁Bin	-763
agang	-764
▁sino	-765
▁kundi	-766
▁de	-767
ongres	-768
▁mamam	-769
▁pamamagitan	-770
?"	-771
aging	-772
▁bagay	-773
▁ilang	-774
▁dalawa	-775
sik	-776
ibil	-777
▁Laura	-778
▁(1	-779
apon	-780
ulin	-781
▁Lum	-782
▁Sum	-783
aralan	-784
▁Diyos	-785
aki	-786
ayop	-787
ulit	-788
▁nitong	-789
▁Kongres	-790
▁Pr	-791
▁gan	-792
▁nal	-793
anggol	-794
▁Tiyago	-795
ahin	-796
akot	-797
▁San	-798
araan	-799
alakas	-800
▁karapat	-801
iwa	-802
▁Un	-803
awak	-804
▁naw	-805
▁tayo	-806
alamat	-807
▁kaniyang	-808
▁maraming	-809
est	-810
tan	-811
▁lub	-812
▁gawa	-813
▁sand	-814
▁Walang	-815
ic	-816
stit	-817
ukha	-818
▁Kongreso	-819
▁tan	-820
isang	-821
00	-822
le	-823
amo	-824
ira	-825
pan	-826
▁ep	-827
▁Heneral	-828
ino	-829
hala	-830
ukol	-831
▁Eli	-832
▁tubig	-833
▁pagtat	-834
hin	-835
imp	-836
▁ulo	-837
▁hayop	-838
▁tunay	-839
▁bulaklak	-840
▁kaharian	-841
lay	-842
asyo	-843
amant	-844
iwang	-845
▁gabi	-846
▁Elias	-847
▁buwan	-848
angyari	-849
▁tatlong	-850
unta	-851
so	-852
▁daw	-853
▁dib	-854
▁lim	-855
unting	-856
▁gubat	-857
ahi	-858
asok	-859
▁lik	-860
▁min	-861
amdam	-862
▁kayo	-863
▁lakas	-864
▁matat	-865
arating	-866
▁pagsas	-867
▁sarili	-868
▁sariling	-869
ep	-870
akb	-871
man	-872
▁sim	-873
stitus	-874
▁nakita	-875
▁magandang	-876
dib	-877
igd	-878
▁ya	-879
pang	-880
▁Ako	-881
▁Mab	-882
▁Tum	-883
ingan	-884
▁Datu	-885
▁isip	-886
▁mata	-887
▁dagat	-888
▁huwag	-889
▁bundok	-890
▁kanila	-891
▁Ka	-892
▁tr	-893
▁Kat	-894
iwala	-895
▁Agat	-896
▁doon	-897
▁muli	-898
▁bunga	-899
▁pangk	-900
adh	-901
▁Sal	-902
▁dak	-903
▁isin	-904
▁Estado	-905
▁magulang	-906
eo	-907
ilin	-908
unin	-909
▁Kon	-910
atayan	-911
ac	-912
ez	-913
▁3	-914
Ang	-915
unl	-916
abay	-917
sing	-918
uran	-919
▁Kom	-920
ingin	-921
▁prins	-922
▁dibdib	-923
▁makita	-924
",	-925
▁i	-926
olo	-927
ilis	-928
ingi	-929
▁kapangyari	-930
ugo	-931
akda	-932
banya	-933
ikang	-934
ubong	-935
▁bago	-936
▁katawan	-937
▁Pa	-938
▁Nam	-939
▁magl	-940
▁bansa	-941
▁mahal	-942
imb	-943
▁It	-944
igaw	-945
▁sal	-946
▁bata	-947
▁lugar	-948
▁Haring	-949
erm	-950
uwi	-951
ahas	-952
▁Hin	-953
▁nagd	-954
▁pagg	-955
▁higit	-956
▁ilalim	-957
▁malaking	-958
atan	-959
▁Nap	-960
▁sus	-961
▁tulad	-962
eh	-963
agd	-964
▁ap	-965
usto	-966
▁Dam	-967
▁Kas	-968
▁Pero	-969
▁mapag	-970
▁nakak	-971
▁natin	-972
ango	-973
undo	-974
▁Kab	-975
igdig	-976
usang	-977
▁nina	-978
▁saan	-979
▁Damaso	-980
▁punong	-981
emb	-982
asang	-983
▁Wala	-984
▁ibon	-985
arapat	-986
▁kapag	-987
▁muling	-988
▁tanging	-989
olf	-990
akay	-991
▁Par	-992
▁him	-993
▁Adolf	-994
▁bangk	-995
aro	-996
ungkot	-997
▁bahagi	-998
▁habang	-999
▁–	-1000
ego	-1001
akad	-1002
ayaw	-1003
ulot	-1004
▁Mat	-1005
ikita	-1006
insan	-1007
▁Nagp	-1008
▁agad	-1009
▁bato	-1010
▁luha	-1011
ahanap	-1012
▁mukha	-1013
ilangang	-1014
▁lalaking	-1015
▁a	-1016
ilan	-1017
▁ilog	-1018
▁akong	-1019
▁sakit	-1020
▁lalong	-1021
▁lab	-1022
antay	-1023
▁ring	-1024
adhana	-1025
▁pagkat	-1026
uo	-1027
apa	-1028
per	-1029
ugt	-1030
▁Ab	-1031
ikan	-1032
▁tinig	-1033
▁pinakam	-1034
▁pamahalaan	-1035
agka	-1036
ibay	-1037
irahan	-1038
▁bagong	-1039
▁kaibigan	-1040
ris	-1041
awin	-1042
▁Jos	-1043
▁bak	-1044
ahong	-1045
▁mayr	-1046
▁Kagaw	-1047
▁pagmam	-1048
▁kamatayan	-1049
ens	-1050
aong	-1051
iyam	-1052
▁git	-1053
umang	-1054
▁oras	-1055
abalik	-1056
▁Naging	-1057
▁matanda	-1058
▁matandang	-1059
ia	-1060
ubo	-1061
▁Il	-1062
ente	-1063
uhat	-1064
▁alin	-1065
▁kita	-1066
ibigay	-1067
▁laban	-1068
▁Adolfo	-1069
▁magkak	-1070
▁bal	-1071
▁kon	-1072
▁tul	-1073
▁Huwag	-1074
▁makat	-1075
▁tahan	-1076
▁gayong	-1077
▁nagpap	-1078
▁tulong	-1079
ido	-1080
yat	-1081
igay	-1082
inga	-1083
unti	-1084
▁sul	-1085
unlad	-1086
▁ding	-1087
▁ipag	-1088
▁taga	-1089
▁nagtat	-1090
▁Albanya	-1091
aal	-1092
...!	-1093
apal	-1094
uang	-1095
upad	-1096
▁Mah	-1097
▁Nat	-1098
ansin	-1099
▁datu	-1100
▁pagka	-1101
▁inyong	-1102
▁laging	-1103
▁mamamayan	-1104
eb	-1105
las	-1106
apan	-1107
ilos	-1108
▁sil	-1109
▁tuw	-1110
aaral	-1111
uring	-1112
ubalit	-1113
▁Nagong	-1114
▁pagkain	-1115
hi	-1116
awi	-1117
▁suk	-1118
agani	-1119
▁Koro	-1120
▁sabi	-1121
ansang	-1122
▁pakik	-1123
▁tinat	-1124
▁namang	-1125
▁Isagani	-1126
iba	-1127
ora	-1128
anta	-1129
uhin	-1130
itang	-1131
utang	-1132
▁ayon	-1133
▁nais	-1134
atawan	-1135
usapan	-1136
▁mabuti	-1137
▁daigdig	-1138
▁Konstitus	-1139
▁18	-1140
▁Diego	-1141
▁yaong	-1142
alaysay	-1143
▁Kagawad	-1144
ann	-1145
pak	-1146
upo	-1147
▁Fa	-1148
▁Lu	-1149
ikha	-1150
isig	-1151
ista	-1152
oyan	-1153
▁Dum	-1154
▁Mas	-1155
▁pab	-1156
awala	-1157
uhang	-1158
atuloy	-1159
yayari	-1160
▁diyos	-1161
▁napak	-1162
annoyan	-1163
Ay	-1164
lat	-1165
▁Kal	-1166
▁Mal	-1167
ibang	-1168
igaya	-1169
yante	-1170
▁inil	-1171
ipunan	-1172
▁Faust	-1173
▁kulay	-1174
▁patay	-1175
▁ginawa	-1176
▁Cannoyan	-1177
▁kapangyarihan	-1178
iti	-1179
▁Am	-1180
▁Es	-1181
abuk	-1182
ahim	-1183
away	-1184
▁Mad	-1185
▁sas	-1186
▁sana	-1187
▁nakas	-1188
▁namatay	-1189
io	-1190
agot	-1191
▁Pan	-1192
akain	-1193
▁ikin	-1194
▁panun	-1195
▁Faustus	-1196
iz	-1197
vi	-1198
sil	-1199
uga	-1200
umb	-1201
▁Kay	-1202
▁ari	-1203
▁Jose	-1204
▁Bathala	-1205
▁katulad	-1206
▁malakas	-1207
san	-1208
yal	-1209
alip	-1210
▁Huk	-1211
▁pil	-1212
▁pul	-1213
▁Nagk	-1214
▁hirap	-1215
▁kapwa	-1216
▁katut	-1217
alitang	-1218
▁tungkulin	-1219
ays	-1220
abot	-1221
▁(19	-1222
intay	-1223
▁Komisyon	-1224
ako	-1225
▁Ma	-1226
amat	-1227
ingk	-1228
itin	-1229
▁est	-1230
▁uri	-1231
ikong	-1232
▁Ayon	-1233
▁anim	-1234
▁awit	-1235
▁magh	-1236
▁naka	-1237
▁Pagkatapos	-1238
ibo	-1239
▁as	-1240
amot	-1241
anti	-1242
arin	-1243
atas	-1244
iban	-1245
idad	-1246
ilya	-1247
utol	-1248
▁Tag	-1249
▁Araw	-1250
▁Sisa	-1251
▁gitna	-1252
▁dating	-1253
▁biglang	-1254
▁tagapag	-1255
▁karapatan	-1256
era	-1257
lan	-1258
▁ar	-1259
anak	-1260
asya	-1261
syon	-1262
alian	-1263
▁Pers	-1264
▁daan	-1265
▁pala	-1266
▁ukol	-1267
▁nangyari	-1268
fa	-1269
ipe	-1270
▁ul	-1271
anan	-1272
angi	-1273
asak	-1274
utok	-1275
▁Nagt	-1276
▁anyo	-1277
▁koro	-1278
▁saka	-1279
ahayag	-1280
alakad	-1281
▁Salvi	-1282
▁Yaong	-1283
▁tapat	-1284
▁Nakita	-1285
▁limang	-1286
▁tahanan	-1287
ks	-1288
▁ug	-1289
amis	-1290
angh	-1291
izal	-1292
nila	-1293
▁alam	-1294
▁ibin	-1295
▁Rizal	-1296
▁galit	-1297
▁kahoy	-1298
▁nakab	-1299
▁ag	-1300
▁ig	-1301
▁ih	-1302
ayun	-1303
nong	-1304
urang	-1305
▁magd	-1306
▁panl	-1307
agalog	-1308
▁Sibil	-1309
▁gayon	-1310
▁kalul	-1311
▁mamatay	-1312
▁palasyo	-1313
▁masamang	-1314
▁panahong	-1315
▁Kapulungan	-1316
atid	-1317
iliw	-1318
▁Isa	-1319
imula	-1320
ising	-1321
▁apat	-1322
▁inih	-1323
▁lalo	-1324
abukasan	-1325
▁kuwento	-1326
▁malapit	-1327
agay	-1328
▁ini	-1329
agsik	-1330
peres	-1331
▁guro	-1332
akasal	-1333
▁Inang	-1334
▁magag	-1335
▁palad	-1336
alakbay	-1337
▁marami	-1338
go	-1339
oo	-1340
iit	-1341
uyan	-1342
▁Kura	-1343
▁Tula	-1344
▁muna	-1345
amatay	-1346
▁Noong	-1347
▁bakit	-1348
▁kasal	-1349
aysayan	-1350
▁pinuno	-1351
▁Alperes	-1352
▁Tagalog	-1353
▁makapag	-1354
▁kailangan	-1355
▁magkaroon	-1356
▁c	-1357
ela	-1358
▁Um	-1359
abig	-1360
ikal	-1361
▁Pam	-1362
▁bun	-1363
▁kak	-1364
bayan	-1365
▁dugo	-1366
▁hukb	-1367
▁samp	-1368
agpuan	-1369
▁makak	-1370
▁masas	-1371
iniwala	-1372
▁batang	-1373
▁hangin	-1374
▁ipinag	-1375
▁Maynila	-1376
▁pangalan	-1377
-1	-1378
AR	-1379
▁4	-1380
aano	-1381
ahoy	-1382
amak	-1383
utin	-1384
▁ika	-1385
▁pay	-1386
aloob	-1387
▁diwa	-1388
alabas	-1389
ungang	-1390
▁Kapag	-1391
▁kalag	-1392
▁karan	-1393
amdamin	-1394
ukasyon	-1395
▁Samant	-1396
▁tauhan	-1397
▁liwanag	-1398
▁paaralan	-1399
2)	-1400
isi	-1401
ono	-1402
▁ab	-1403
ilag	-1404
ugon	-1405
▁Sen	-1406
▁Vic	-1407
adong	-1408
▁Adar	-1409
▁kami	-1410
▁nagm	-1411
▁tula	-1412
abayan	-1413
alagay	-1414
▁prinsesa	-1415
▁pagdating	-1416
cio	-1417
iro	-1418
law	-1419
pit	-1420
uko	-1421
igkas	-1422
▁Ikaw	-1423
▁sang	-1424
arawan	-1425
▁Lahat	-1426
▁estud	-1427
▁palak	-1428
▁Adarna	-1429
▁gawain	-1430
▁umalis	-1431
▁bangkay	-1432
▁dahilan	-1433
▁mabuting	-1434
▁magiging	-1435
▁panunungkulan	-1436
de	-1437
ey	-1438
▁5	-1439
ran	-1440
▁Ed	-1441
dang	-1442
rist	-1443
▁kad	-1444
▁san	-1445
bahan	-1446
▁Alad	-1447
▁Pagk	-1448
▁baka	-1449
▁pray	-1450
▁sing	-1451
agamit	-1452
▁aming	-1453
▁inang	-1454
▁kaysa	-1455
▁manok	-1456
▁itinat	-1457
▁salita	-1458
no	-1459
abl	-1460
eon	-1461
ador	-1462
inis	-1463
ubuk	-1464
▁Gin	-1465
▁Hum	-1466
▁Ina	-1467
▁Kah	-1468
▁dig	-1469
▁kor	-1470
▁sad	-1471
▁Nags	-1472
▁pook	-1473
▁tila	-1474
▁gagaw	-1475
▁nakik	-1476
▁bayang	-1477
▁kagand	-1478
▁kabilang	-1479
▁pambayan	-1480
▁estudyante	-1481
co	-1482
aho	-1483
iyo	-1484
por	-1485
▁am	-1486
awad	-1487
hati	-1488
ipit	-1489
▁Lin	-1490
▁Tal	-1491
▁imp	-1492
▁dala	-1493
▁pana	-1494
▁Ibong	-1495
▁labis	-1496
▁niyon	-1497
▁Victor	-1498
▁kinaka	-1499
▁paraan	-1500
▁maganda	-1501
▁nararapat	-1502
dir	-1503
▁Cl	-1504
▁Dr	-1505
cido	-1506
mang	-1507
▁Bag	-1508
andog	-1509
angal	-1510
ayaan	-1511
▁apoy	-1512
▁iyan	-1513
▁tuwa	-1514
ahimik	-1515
entong	-1516
iyahan	-1517
▁Prins	-1518
▁kawal	-1519
▁natut	-1520
▁sinas	-1521
▁kaagad	-1522
▁pagbab	-1523
▁Hukuman	-1524
▁babaing	-1525
▁halaman	-1526
▁kayaman	-1527
▁kaluluwa	-1528
),	-1529
ch	-1530
ada	-1531
pas	-1532
ikat	-1533
▁Lab	-1534
▁Ped	-1535
▁bit	-1536
akyat	-1537
ongan	-1538
▁Mula	-1539
▁angk	-1540
▁kumb	-1541
▁rito	-1542
asyong	-1543
▁harap	-1544
▁siyam	-1545
▁alamat	-1546
▁pagkakata	-1547
Sa	-1548
po	-1549
tr	-1550
ard	-1551
dal	-1552
agin	-1553
akip	-1554
iyas	-1555
ukan	-1556
upit	-1557
▁Din	-1558
▁niy	-1559
▁sig	-1560
▁Sant	-1561
▁pari	-1562
▁pati	-1563
▁damit	-1564
▁epiko	-1565
▁lumip	-1566
▁sagot	-1567
▁Aladin	-1568
▁kasint	-1569
▁halalan	-1570
▁Konstitusyong	-1571
tik	-1572
igid	-1573
isin	-1574
ukot	-1575
iwata	-1576
▁pans	-1577
▁pamum	-1578
▁lupain	-1579
▁mataas	-1580
▁taglay	-1581
▁tanong	-1582
▁kasalan	-1583
▁sanggol	-1584
▁kumbento	-1585
▁simbahan	-1586
3)	-1587
mo	-1588
ti	-1589
ayag	-1590
ayos	-1591
onal	-1592
utom	-1593
uwal	-1594
▁Nab	-1595
▁nai	-1596
▁paa	-1597
▁uma	-1598
Hindi	-1599
aalam	-1600
akita	-1601
esang	-1602
umpay	-1603
▁Bayan	-1604
▁halos	-1605
▁ibong	-1606
▁lihim	-1607
▁maliban	-1608
pa	-1609
ity	-1610
ult	-1611
hiya	-1612
ikit	-1613
ubos	-1614
uyod	-1615
▁(2)	-1616
▁bay	-1617
▁day	-1618
▁ent	-1619
▁nad	-1620
alimb	-1621
igyan	-1622
▁Itin	-1623
▁bang	-1624
▁buto	-1625
aharap	-1626
▁hukbo	-1627
▁mundo	-1628
▁nayon	-1629
alagaan	-1630
▁kaaway	-1631
▁munting	-1632
▁katungkulan	-1633
te	-1634
agl	-1635
uot	-1636
alad	-1637
emon	-1638
umpa	-1639
unog	-1640
▁kil	-1641
▁tal	-1642
tatag	-1643
yente	-1644
▁Cris	-1645
▁Sila	-1646
▁gaya	-1647
▁utos	-1648
alaala	-1649
▁bibig	-1650
▁ginto	-1651
▁silid	-1652
ihintay	-1653
▁prayle	-1654
▁pusong	-1655
▁tulang	-1656
alawigan	-1657
▁hukuman	-1658
▁damdamin	-1659
▁Pangalawang	-1660
7.	-1661
ena	-1662
end	-1663
uyo	-1664
▁Ak	-1665
▁ed	-1666
tang	-1667
ubuo	-1668
▁reg	-1669
ataan	-1670
buhay	-1671
uyang	-1672
▁Nagb	-1673
▁magm	-1674
▁pamp	-1675
aganap	-1676
▁hanap	-1677
▁kawan	-1678
▁palay	-1679
▁kaloob	-1680
▁minsan	-1681
▁nagsis	-1682
▁Binukot	-1683
▁Tandang	-1684
▁Dumating	-1685
▁Namongan	-1686
▁mayroong	-1687
).	-1688
uel	-1689
elih	-1690
ilaw	-1691
ipon	-1692
usay	-1693
▁(1)	-1694
▁Nal	-1695
▁Nan	-1696
▁bar	-1697
▁hap	-1698
▁tit	-1699
adala	-1700
anggi	-1701
▁Isin	-1702
▁kina	-1703
▁balak	-1704
alangin	-1705
taasang	-1706
▁huling	-1707
▁nagsas	-1708
▁wikang	-1709
▁matsing	-1710
▁nakapag	-1711
▁-	-1712
dan	-1713
erp	-1714
hik	-1715
▁of	-1716
ibat	-1717
wang	-1718
▁Hal	-1719
▁Pla	-1720
▁but	-1721
▁lin	-1722
▁lip	-1723
igpit	-1724
▁kamp	-1725
▁tabi	-1726
alapit	-1727
atlong	-1728
▁Kahit	-1729
▁Tasyo	-1730
▁ganda	-1731
▁ngayo	-1732
▁tawag	-1733
amdaman	-1734
▁gumawa	-1735
▁ligaya	-1736
▁malaki	-1737
▁taning	-1738
aliwanag	-1739
▁kawayan	-1740
▁pampang	-1741
▁pangang	-1742
▁subalit	-1743
▁pagpapat	-1744
▁Samantala	-1745
▁katutubong	-1746
▁pangyayari	-1747
6.	-1748
hh	-1749
lap	-1750
log	-1751
uez	-1752
▁la	-1753
ilik	-1754
into	-1755
otoo	-1756
▁Ama	-1757
▁And	-1758
▁Kan	-1759
▁buh	-1760
▁kom	-1761
▁pah	-1762
▁tut	-1763
abasa	-1764
alino	-1765
bahay	-1766
nayan	-1767
unita	-1768
▁Saka	-1769
▁lawa	-1770
▁sama	-1771
aguyod	-1772
anggit	-1773
isipan	-1774
uhayan	-1775
▁Bakit	-1776
▁mangg	-1777
awalang	-1778
▁gabing	-1779
▁magkas	-1780
▁pagkab	-1781
▁malaman	-1782
▁Kinatawan	-1783
▁nagkaroon	-1784
▁pagkatapos	-1785
si	-1786
ahe	-1787
ubl	-1788
ukl	-1789
▁Ig	-1790
▁id	-1791
Kung	-1792
amba	-1793
anao	-1794
anaw	-1795
yemb	-1796
▁hig	-1797
▁rey	-1798
▁Bant	-1799
awalan	-1800
ihingi	-1801
ingnan	-1802
intong	-1803
yembre	-1804
▁Espan	-1805
▁Pedro	-1806
▁Upang	-1807
▁halip	-1808
▁lubos	-1809
▁nanin	-1810
▁tinut	-1811
▁umuwi	-1812
ahangad	-1813
▁Habang	-1814
▁salapi	-1815
▁yaring	-1816
▁Placido	-1817
▁lumabas	-1818
▁Hanggang	-1819
▁pambansang	-1820
AT	-1821
yu	-1822
nap	-1823
ril	-1824
▁Ip	-1825
▁es	-1826
iyan	-1827
utos	-1828
▁Bal	-1829
▁Kam	-1830
▁Min	-1831
▁Sel	-1832
▁mus	-1833
▁umi	-1834
atili	-1835
igtas	-1836
ingat	-1837
uezon	-1838
undin	-1839
▁Huli	-1840
▁ayaw	-1841
▁roon	-1842
alakay	-1843
iganti	-1844
ubuhay	-1845
▁Balag	-1846
▁Clara	-1847
▁bukid	-1848
▁takot	-1849
▁Kataas	-1850
▁bayani	-1851
▁gulang	-1852
▁pagong	-1853
▁pitong	-1854
elihiyon	-1855
▁matapos	-1856
▁paligid	-1857
▁sabihin	-1858
▁sadyang	-1859
▁tanggap	-1860
▁tinawag	-1861
▁pagmamahal	-1862
ngk	-1863
ampu	-1864
anim	-1865
erno	-1866
sang	-1867
▁Ind	-1868
▁eks	-1869
▁sug	-1870
ehiyo	-1871
ihang	-1872
uwang	-1873
▁Doon	-1874
▁Ibig	-1875
▁ilaw	-1876
▁kasi	-1877
ulugan	-1878
▁amang	-1879
▁sulat	-1880
▁tiyak	-1881
alitaan	-1882
▁entabl	-1883
▁gagawin	-1884
▁lubhang	-1885
▁Kabesang	-1886
▁dalagang	-1887
▁kailangang	-1888
ato	-1889
ida	-1890
ola	-1891
apak	-1892
ares	-1893
maan	-1894
onom	-1895
▁Ano	-1896
▁pis	-1897
▁tuk	-1898
abait	-1899
alala	-1900
unawa	-1901
▁Agyu	-1902
▁Dito	-1903
▁Pagd	-1904
▁Para	-1905
▁kaug	-1906
▁lagi	-1907
ugtong	-1908
usahan	-1909
uwaang	-1910
▁Buhay	-1911
▁Tales	-1912
▁kabut	-1913
▁patak	-1914
▁sapat	-1915
▁sasak	-1916
▁sibat	-1917
▁umaga	-1918
iligtas	-1919
▁malayo	-1920
▁paglal	-1921
▁samant	-1922
▁bumalik	-1923
▁mabilis	-1924
▁mabuhay	-1925
▁nangang	-1926
▁narinig	-1927
▁nagiging	-1928
▁pangarap	-1929
▁Victorina	-1930
▁entablado	-1931
▁tinatawag	-1932
dio	-1933
lim	-1934
▁As	-1935
akbo	-1936
alon	-1937
arir	-1938
▁Bis	-1939
▁Cam	-1940
▁Nar	-1941
▁Ros	-1942
▁Tul	-1943
▁bab	-1944
▁int	-1945
▁sup	-1946
ihing	-1947
▁inyo	-1948
▁maka	-1949
araang	-1950
ilingk	-1951
usunod	-1952
▁gawin	-1953
▁karun	-1954
▁magka	-1955
▁nakal	-1956
▁namum	-1957
▁utang	-1958
▁Parang	-1959
▁magpap	-1960
▁maliit	-1961
▁pagtut	-1962
▁pangan	-1963
ahalaang	-1964
▁mahirap	-1965
▁mayroon	-1966
▁pagkaka	-1967
▁suliran	-1968
▁sumunod	-1969
apangyari	-1970
▁Dalawang	-1971
▁lalawigan	-1972
▁samantalang	-1973
▁Kataastaasang	-1974
agb	-1975
agh	-1976
sod	-1977
aliw	-1978
istr	-1979
▁Pas	-1980
▁bas	-1981
▁put	-1982
▁una	-1983
alana	-1984
▁Ines	-1985
▁dusa	-1986
▁pint	-1987
▁pulo	-1988
aunlad	-1989
isyong	-1990
iwalay	-1991
unayan	-1992
▁Hapon	-1993
▁Lugar	-1994
▁dalaw	-1995
▁ganap	-1996
▁iyang	-1997
▁minam	-1998
▁ngang	-1999
▁sibil	-2000
▁tumut	-2001
▁yaman	-2002
alingan	-2003
▁pakpak	-2004
▁piling	-2005
▁Tuwaang	-2006
▁pumasok	-2007
▁marunong	-2008
▁salitang	-2009
▁singsing	-2010
▁kayamanan	-2011
▁kagandahan	-2012
".	-2013
iv	-2014
▁8	-2015
ilo	-2016
obo	-2017
ona	-2018
oni	-2019
pir	-2020
▁Im	-2021
akaw	-2022
apay	-2023
isyo	-2024
uhod	-2025
▁189	-2026
▁Pum	-2027
▁sis	-2028
▁yum	-2029
amaan	-2030
oroon	-2031
▁Aten	-2032
▁Moro	-2033
▁Tala	-2034
▁manl	-2035
abihin	-2036
akbang	-2037
andaan	-2038
ilitar	-2039
irapan	-2040
uhunan	-2041
▁Ilang	-2042
▁buhok	-2043
▁dahon	-2044
▁dilag	-2045
▁kapal	-2046
▁kontr	-2047
▁laman	-2048
▁makas	-2049
▁panig	-2050
▁pilak	-2051
▁sukat	-2052
▁tangh	-2053
abayang	-2054
arungan	-2055
▁Manuel	-2056
▁balita	-2057
▁korpor	-2058
▁nawala	-2059
▁pinagt	-2060
▁pangkat	-2061
▁libingan	-2062
▁pagiging	-2063
▁kalagayan	-2064
▁kuwentong	-2065
▁kasaysayan	-2066
▁kasintahan	-2067
▁magkapatid	-2068
0.	-2069
1.	-2070
2.	-2071
erb	-2072
ons	-2073
uon	-2074
wel	-2075
▁kw	-2076
asin	-2077
bong	-2078
igma	-2079
ipan	-2080
ubog	-2081
ular	-2082
uwan	-2083
▁Men	-2084
▁lok	-2085
▁per	-2086
alawa	-2087
onood	-2088
uusap	-2089
▁Ilog	-2090
▁aral	-2091
ahanda	-2092
inding	-2093
▁mahiw	-2094
▁mapap	-2095
▁talim	-2096
▁Mataas	-2097
▁Senado	-2098
▁balang	-2099
▁lumaki	-2100
▁nagbab	-2101
▁puting	-2102
▁sangay	-2103
▁Linares	-2104
▁digmaan	-2105
▁gintong	-2106
▁patungo	-2107
▁kalayaan	-2108
▁kalooban	-2109
▁madaling	-2110
▁masayang	-2111
▁pagkakas	-2112
▁prinsipe	-2113
▁sandaling	-2114
▁Pamahalaan	-2115
▁kinabukasan	-2116
▁pagkakataon	-2117
II	-2118
ec	-2119
▁9	-2120
▁Ra	-2121
adya	-2122
alal	-2123
ardo	-2124
irog	-2125
▁Rep	-2126
▁Sib	-2127
▁biy	-2128
▁naa	-2129
▁reh	-2130
▁sek	-2131
atnan	-2132
itolo	-2133
▁Isab	-2134
▁Mang	-2135
▁Nagl	-2136
▁Part	-2137
▁kaka	-2138
▁nama	-2139
▁pand	-2140
anggam	-2141
ernand	-2142
▁Nguni	-2143
▁balat	-2144
▁bunso	-2145
▁gamit	-2146
▁hawak	-2147
▁likod	-2148
▁lokal	-2149
▁paano	-2150
ilanggo	-2151
▁Bisaya	-2152
▁kusang	-2153
▁pawang	-2154
▁pinagm	-2155
▁Mabilis	-2156
▁Subalit	-2157
▁dayuhan	-2158
▁kasaluk	-2159
▁ngayong	-2160
▁tulisan	-2161
▁Pagdating	-2162
▁kababayan	-2163
angailangan	-2164
▁paglalakbay	-2165
▁u	-2166
apo	-2167
kal	-2168
▁El	-2169
▁Ha	-2170
agas	-2171
ahah	-2172
alab	-2173
atak	-2174
ikap	-2175
ingn	-2176
iwat	-2177
upan	-2178
▁Fil	-2179
▁Rey	-2180
▁pun	-2181
▁tig	-2182
indig	-2183
sakit	-2184
▁Nasa	-2185
▁alim	-2186
▁lahi	-2187
▁lung	-2188
abigat	-2189
apatay	-2190
emonyo	-2191
inggan	-2192
intang	-2193
utusan	-2194
▁buhat	-2195
▁matut	-2196
▁namam	-2197
unahing	-2198
untunin	-2199
▁Alamat	-2200
▁Isabel	-2201
▁Minsan	-2202
▁diwata	-2203
▁galing	-2204
▁ganito	-2205
▁magsas	-2206
▁naming	-2207
▁pagsus	-2208
▁usapan	-2209
▁anumang	-2210
▁bilangg	-2211
▁pamilya	-2212
▁sampung	-2213
▁sandali	-2214
▁tandang	-2215
▁Bantugan	-2216
▁Paaralan	-2217
▁kabataan	-2218
▁pakikipag	-2219
▁suliranin	-2220
▁karapatang	-2221
▁pamahalaang	-2222
LO	-2223
cis	-2224
ema	-2225
ene	-2226
way	-2227
yer	-2228
▁15	-2229
akap	-2230
fael	-2231
hasa	-2232
itik	-2233
▁(3)	-2234
▁Bum	-2235
▁Gan	-2236
▁ham	-2237
▁maw	-2238
▁neg	-2239
▁pup	-2240
agong	-2241
aking	-2242
alaan	-2243
ibing	-2244
inang	-2245
wiran	-2246
▁Pagb	-2247
▁laki	-2248
▁mait	-2249
alamin	-2250
ayanan	-2251
ilipad	-2252
otohan	-2253
▁Gayon	-2254
▁namin	-2255
▁sigaw	-2256
▁sinta	-2257
▁ugali	-2258
indanao	-2259
ukulang	-2260
ulitika	-2261
▁Rafael	-2262
▁bituin	-2263
▁hirang	-2264
▁kailan	-2265
▁masama	-2266
▁nating	-2267
▁tingin	-2268
angkilik	-2269
▁Fernand	-2270
▁kalaban	-2271
▁katangi	-2272
▁lumapit	-2273
▁pangung	-2274
▁binatang	-2275
▁makikita	-2276
▁manonood	-2277
▁panauhin	-2278
▁karunungan	-2279
▁mahiwagang	-2280
▁magagandang	-2281
,00	-2282
kan	-2283
adal	-2284
amig	-2285
anto	-2286
ihis	-2287
iisa	-2288
orot	-2289
usog	-2290
▁198	-2291
▁Car	-2292
▁Int	-2293
▁Sap	-2294
▁tak	-2295
ahagi	-2296
ahati	-2297
esyon	-2298
iting	-2299
kahoy	-2300
ugang	-2301
ugtog	-2302
ulaan	-2303
usong	-2304
▁Bago	-2305
▁Bern	-2306
▁bait	-2307
▁pant	-2308
aganda	-2309
ayunin	-2310
ubatan	-2311
▁batis	-2312
▁giliw	-2313
▁gutom	-2314
▁kalup	-2315
▁pista	-2316
▁sanga	-2317
akilala	-2318
angalan	-2319
ikilala	-2320
▁batong	-2321
▁buwaya	-2322
▁lupang	-2323
ilingkod	-2324
▁Crispin	-2325
▁Espanya	-2326
▁epikong	-2327
▁tahimik	-2328
▁Maraming	-2329
▁Tulalang	-2330
▁mahigpit	-2331
▁kasalanan	-2332
▁matinding	-2333
▁tumanggap	-2334
▁naninirahan	-2335
▁pangunahing	-2336
▁magkakapatid	-2337
ANG	-2338
agt	-2339
fer	-2340
orm	-2341
ubi	-2342
yla	-2343
▁1.	-2344
▁2.	-2345
▁Bi	-2346
▁Ni	-2347
abog	-2348
ahad	-2349
ipik	-2350
isag	-2351
itaw	-2352
▁Ban	-2353
▁Bid	-2354
▁Nas	-2355
▁Sul	-2356
▁kub	-2357
▁lar	-2358
asari	-2359
uparo	-2360
▁Sand	-2361
▁dako	-2362
▁engk	-2363
▁isda	-2364
▁usap	-2365
ahinga	-2366
atawag	-2367
uluhan	-2368
▁Custo	-2369
▁aklat	-2370
▁kakay	-2371
▁kalak	-2372
▁likas	-2373
▁pinap	-2374
saknong	-2375
▁mabait	-2376
▁nagkas	-2377
apangulo	-2378
▁binubuo	-2379
▁higante	-2380
▁Custodio	-2381
▁Prinsipe	-2382
▁dakilang	-2383
▁ginagawa	-2384
▁nagtagal	-2385
▁talagang	-2386
▁minamahal	-2387
▁karaniwang	-2388
▁paniniwala	-2389
4)	-2390
ka	-2391
-19	-2392
cas	-2393
ikl	-2394
ini	-2395
mas	-2396
pis	-2397
rot	-2398
zon	-2399
▁3.	-2400
▁Ir	-2401
▁Ph	-2402
abit	-2403
alok	-2404
atag	-2405
rero	-2406
ukal	-2407
usig	-2408
▁Ant	-2409
▁Bul	-2410
▁Lib	-2411
▁lag	-2412
agdag	-2413
akila	-2414
anaog	-2415
angis	-2416
awing	-2417
facio	-2418
ibong	-2419
iisip	-2420
itaas	-2421
tasan	-2422
ugong	-2423
ungin	-2424
▁Boni	-2425
▁Fran	-2426
▁Herm	-2427
▁Leon	-2428
▁Pamb	-2429
▁Paul	-2430
▁Puti	-2431
▁asal	-2432
▁band	-2433
▁boto	-2434
▁pero	-2435
▁sund	-2436
▁ulan	-2437
▁abang	-2438
▁habag	-2439
▁katap	-2440
▁labas	-2441
▁pangh	-2442
▁panuk	-2443
▁sinus	-2444
alampas	-2445
anganak	-2446
atauhan	-2447
untahan	-2448
▁Ngayon	-2449
▁Pamant	-2450
▁Santos	-2451
▁magpat	-2452
▁malaya	-2453
▁pinagb	-2454
alimbawa	-2455
atanging	-2456
▁Cabigat	-2457
▁matamis	-2458
▁nasasak	-2459
▁susunod	-2460
▁nagtungo	-2461
▁sasakyan	-2462
▁Bonifacio	-2463
▁kagubatan	-2464
-2	-2465
AK	-2466
gan	-2467
lip	-2468
nay	-2469
▁Ap	-2470
abal	-2471
alap	-2472
atut	-2473
lump	-2474
orra	-2475
uwid	-2476
▁Ben	-2477
▁Kum	-2478
▁Maa	-2479
▁Pab	-2480
ampas	-2481
andro	-2482
cisco	-2483
ement	-2484
idong	-2485
iusap	-2486
▁Amer	-2487
▁Fler	-2488
▁Solo	-2489
▁bunt	-2490
▁kand	-2491
▁kult	-2492
▁land	-2493
▁sist	-2494
agamot	-2495
anghal	-2496
eksyon	-2497
ubilin	-2498
▁Manok	-2499
▁anong	-2500
▁natat	-2501
▁sabay	-2502
▁tatlo	-2503
embaran	-2504
ibigang	-2505
olehiyo	-2506
▁Maging	-2507
▁Malana	-2508
▁Marami	-2509
▁Sibyla	-2510
▁dunong	-2511
▁hangad	-2512
▁ibabaw	-2513
▁magkab	-2514
▁pagkas	-2515
▁pinagk	-2516
▁simula	-2517
▁tuwing	-2518
asalamat	-2519
▁Camorra	-2520
▁Langgam	-2521
▁Paulita	-2522
▁lupaing	-2523
▁marahil	-2524
▁sapagka	-2525
▁Bernardo	-2526
▁binigyan	-2527
▁himagsik	-2528
▁tulungan	-2529
▁Francisco	-2530
▁tinanggap	-2531
▁pinagmulan	-2532
▁Kinabukasan	-2533
5)	-2534
ags	-2535
aks	-2536
yag	-2537
▁4.	-2538
akat	-2539
ilog	-2540
iwas	-2541
iyag	-2542
ukoy	-2543
usob	-2544
utas	-2545
▁Nen	-2546
▁Pal	-2547
▁Sar	-2548
▁hat	-2549
▁hih	-2550
▁mai	-2551
▁piy	-2552
abaho	-2553
akala	-2554
alayo	-2555
asama	-2556
ayapa	-2557
bansa	-2558
ipagk	-2559
laban	-2560
orong	-2561
urong	-2562
▁Tiya	-2563
▁huli	-2564
▁ilan	-2565
▁kura	-2566
▁prib	-2567
▁prop	-2568
abihan	-2569
apatan	-2570
ublika	-2571
▁Lucas	-2572
▁bisig	-2573
▁handa	-2574
▁kapar	-2575
▁layun	-2576
▁nakap	-2577
▁nakar	-2578
▁nanan	-2579
▁pinto	-2580
insunod	-2581
intulot	-2582
uturing	-2583
▁Labtik	-2584
▁Madali	-2585
▁dakila	-2586
▁diyosa	-2587
▁kasund	-2588
▁kawani	-2589
▁kumain	-2590
▁niyong	-2591
▁utusan	-2592
▁lumakad	-2593
▁mayaman	-2594
▁nawalan	-2595
▁patayin	-2596
▁Bembaran	-2597
▁Bidasari	-2598
▁Tinyente	-2599
▁layuning	-2600
▁napansin	-2601
▁sinabing	-2602
▁Pamantasan	-2603
▁pagkamatay	-2604
▁pampulitika	-2605
▁pagpapaunlad	-2606
▁kinakailangan	-2607
At	-2608
ue	-2609
▁6	-2610
ATA	-2611
apt	-2612
art	-2613
cia	-2614
ete	-2615
igo	-2616
lit	-2617
▁Oh	-2618
▁aw	-2619
▁gr	-2620
▁pl	-2621
,000	-2622
abol	-2623
aldo	-2624
amam	-2625
atao	-2626
atlo	-2627
ikas	-2628
iman	-2629
kong	-2630
tana	-2631
▁Tar	-2632
▁bub	-2633
▁pad	-2634
▁tab	-2635
aanak	-2636
araig	-2637
asong	-2638
batas	-2639
▁Noon	-2640
▁Sari	-2641
▁alit	-2642
▁anya	-2643
▁epis	-2644
▁init	-2645
▁klas	-2646
▁sala	-2647
ayaman	-2648
ibhasa	-2649
ilalim	-2650
ugulin	-2651
▁Binig	-2652
▁Irene	-2653
▁Sulay	-2654
▁bukas	-2655
▁gusto	-2656
▁halal	-2657
▁kilos	-2658
▁tagap	-2659
agaling	-2660
agumpay	-2661
ilippin	-2662
▁Atenas	-2663
▁Igorot	-2664
▁bangka	-2665
▁labing	-2666
▁libing	-2667
▁palaka	-2668
▁sakdal	-2669
▁hakbang	-2670
▁kagawad	-2671
▁paggawa	-2672
▁pintuan	-2673
itolohiya	-2674
▁Balagtas	-2675
▁Sulayman	-2676
▁alimango	-2677
▁katulong	-2678
▁sinumang	-2679
▁Tagapangulo	-2680
▁Konstitusyon	-2681
▁kapangyarihang	-2682
ao	-2683
gad	-2684
isd	-2685
ite	-2686
▁("	-2687
▁Em	-2688
▁im	-2689
amay	-2690
arya	-2691
aryo	-2692
awid	-2693
iral	-2694
pres	-2695
udad	-2696
ugot	-2697
▁Buk	-2698
▁Del	-2699
▁Nil	-2700
▁Peb	-2701
▁ani	-2702
▁ger	-2703
▁noo	-2704
▁usa	-2705
aanan	-2706
dahan	-2707
ining	-2708
intas	-2709
▁Magb	-2710
▁Mayr	-2711
▁Nagh	-2712
▁Nais	-2713
▁Pina	-2714
▁Tang	-2715
▁baya	-2716
▁lamb	-2717
▁libo	-2718
▁part	-2719
ahalal	-2720
ahalan	-2721
▁Aling	-2722
▁Itong	-2723
▁kinat	-2724
▁laang	-2725
▁mahih	-2726
▁nagng	-2727
▁napag	-2728
▁pagod	-2729
▁puman	-2730
▁sumas	-2731
▁totoo	-2732
▁wakas	-2733
asawang	-2734
ingning	-2735
unawaan	-2736
▁Neneng	-2737
▁bigyan	-2738
▁dangal	-2739
▁gunita	-2740
▁kabila	-2741
▁kayong	-2742
▁kilala	-2743
▁nagkak	-2744
▁ninuno	-2745
▁pabula	-2746
▁paghih	-2747
▁pulong	-2748
alimutan	-2749
▁Filipin	-2750
▁Flerida	-2751
▁bakuran	-2752
▁engkant	-2753
▁kapakan	-2754
▁layunin	-2755
▁lipunan	-2756
▁patuloy	-2757
▁itadhana	-2758
▁itaguyod	-2759
▁magbalik	-2760
▁nakikita	-2761
▁paggamit	-2762
▁Edukasyon	-2763
▁Philippin	-2764
▁Republika	-2765
▁kaibigang	-2766
▁kapalaran	-2767
▁malungkot	-2768
▁nagbibigay	-2769
▁panukalang	-2770
▁makapangyari	-2771
▁kinakailangang	-2772
3.	-2773
MP	-2774
ONG	-2775
inh	-2776
iri	-2777
isk	-2778
les	-2779
tok	-2780
uag	-2781
uso	-2782
▁en	-2783
atap	-2784
cion	-2785
osto	-2786
ugod	-2787
ural	-2788
▁bur	-2789
▁hur	-2790
▁mut	-2791
agsak	-2792
aklaw	-2793
alagi	-2794
ambal	-2795
among	-2796
angit	-2797
asyal	-2798
ikain	-2799
iyong	-2800
utian	-2801
yahan	-2802
▁Krot	-2803
▁Mayo	-2804
▁Nagm	-2805
▁Samp	-2806
▁TATA	-2807
▁atin	-2808
▁damo	-2809
▁dulo	-2810
▁igin	-2811
▁mand	-2812
▁pina	-2813
aginip	-2814
ingkod	-2815
inigay	-2816
iyerno	-2817
napung	-2818
ustong	-2819
▁Biuag	-2820
▁Selya	-2821
▁Unang	-2822
▁bango	-2823
▁itlog	-2824
▁lingg	-2825
▁linya	-2826
▁manan	-2827
▁mapan	-2828
▁napap	-2829
▁panit	-2830
▁papel	-2831
alubong	-2832
tanggol	-2833
▁Lalong	-2834
▁Sultan	-2835
▁dinala	-2836
▁episod	-2837
▁gawing	-2838
▁kayang	-2839
▁landas	-2840
▁maaari	-2841
▁mapang	-2842
▁naglal	-2843
▁naiiba	-2844
▁pinagh	-2845
▁tayong	-2846
akasalan	-2847
diriwang	-2848
yayaring	-2849
▁mahusay	-2850
▁masipag	-2851
▁pinangg	-2852
ungkulang	-2853
▁Makaraig	-2854
▁Menandro	-2855
▁Paruparo	-2856
▁ganitong	-2857
▁halamang	-2858
▁magtatag	-2859
▁kabuhayan	-2860
▁nagsimula	-2861
▁pamamaraan	-2862
▁sinilangan	-2863
▁itinatadhana	-2864
Ng	-2865
av	-2866
he	-2867
ayb	-2868
igl	-2869
lam	-2870
▁5.	-2871
▁KA	-2872
abin	-2873
ahok	-2874
amok	-2875
aril	-2876
ayak	-2877
eter	-2878
gado	-2879
idos	-2880
inaw	-2881
ipas	-2882
iram	-2883
ismo	-2884
ment	-2885
rito	-2886
ugin	-2887
unos	-2888
urop	-2889
utla	-2890
▁Ani	-2891
▁Mac	-2892
▁abo	-2893
▁hah	-2894
▁kur	-2895
▁lul	-2896
▁nau	-2897
aglay	-2898
akbay	-2899
alapi	-2900
atong	-2901
iliit	-2902
▁Agad	-2903
▁Anak	-2904
▁Dama	-2905
▁Miya	-2906
▁irog	-2907
▁payo	-2908
▁ulap	-2909
amihan	-2910
atipik	-2911
ighati	-2912
iglang	-2913
▁Aguin	-2914
▁Gayun	-2915
▁banal	-2916
▁bigas	-2917
▁hukom	-2918
▁inaas	-2919
▁itaas	-2920
▁makap	-2921
▁pangg	-2922
▁reyna	-2923
▁sumis	-2924
▁tumat	-2925
alagyan	-2926
ilalang	-2927
istrado	-2928
▁Bundok	-2929
▁Kaagad	-2930
▁Manila	-2931
▁kabayo	-2932
▁kinuha	-2933
▁magtat	-2934
▁masaya	-2935
▁pagtit	-2936
agkaloob	-2937
alagahan	-2938
otohanan	-2939
▁Kalabaw	-2940
▁Maganda	-2941
▁bansang	-2942
▁gawaing	-2943
▁hanapin	-2944
▁kaligay	-2945
▁kontrol	-2946
▁madalas	-2947
▁marinig	-2948
▁pagsang	-2949
▁regular	-2950
▁Kolehiyo	-2951
▁Prinsesa	-2952
▁katutubo	-2953
▁mahabang	-2954
▁nagbigay	-2955
▁panganib	-2956
▁Aguinaldo	-2957
▁Pagbigkas	-2958
▁hinahanap	-2959
▁mamamatay	-2960
▁pagbabago	-2961
▁pamumuhay	-2962
▁sumusunod	-2963
▁tanggapan	-2964
▁bilangguan	-2965
▁pangalagaan	-2966
GA	-2967
IN	-2968
Ip	-2969
ba	-2970
bi	-2971
Ito	-2972
May	-2973
aha	-2974
did	-2975
ogr	-2976
oko	-2977
wan	-2978
▁20	-2979
▁25	-2980
agda	-2981
ayat	-2982
ermo	-2983
ibik	-2984
imot	-2985
isil	-2986
omin	-2987
song	-2988
ubok	-2989
ugad	-2990
ugol	-2991
ungg	-2992
▁194	-2993
▁Bar	-2994
▁Dul	-2995
▁Jac	-2996
▁Pen	-2997
▁Tad	-2998
▁apo	-2999
▁bot	-3000
▁ins	-3001
▁kuk	-3002
▁kut	-3003
▁sah	-3004
▁ser	-3005
ardin	-3006
arili	-3007
elaez	-3008
ganis	-3009
hanap	-3010
ikano	-3011
islap	-3012
undan	-3013
unuan	-3014
uruan	-3015
▁Inil	-3016
▁amin	-3017
▁kani	-3018
▁nuno	-3019
▁yaon	-3020
amangk	-3021
iligaw	-3022
ukhang	-3023
▁Anong	-3024
▁dilim	-3025
▁kamag	-3026
▁klase	-3027
▁mangh	-3028
▁tuloy	-3029
ababang	-3030
angguni	-3031
ayundin	-3032
▁Bilang	-3033
▁Kinuha	-3034
▁Langit	-3035
▁Mabuti	-3036
▁Pelaez	-3037
▁Persya	-3038
▁iniwan	-3039
▁kulang	-3040
▁nagmam	-3041
▁pulubi	-3042
▁usapin	-3043
▁humingi	-3044
▁kampana	-3045
▁lumitaw	-3046
▁lungkot	-3047
▁marapat	-3048
▁matangi	-3049
▁militar	-3050
▁napatay	-3051
▁sandata	-3052
▁sundalo	-3053
▁Mindanao	-3054
▁darating	-3055
▁episodyo	-3056
▁kilalang	-3057
▁magagawa	-3058
▁pagkakat	-3059
▁sambayan	-3060
▁tagapagp	-3061
▁dalawampu	-3062
▁ikalawang	-3063
▁kabutihan	-3064
▁pagkaraan	-3065
▁Nagpatuloy	-3066
▁himagsikan	-3067
▁karangalan	-3068
▁pagkakaroon	-3069
▁punongkahoy	-3070
IK	-3071
din	-3072
ice	-3073
iga	-3074
lks	-3075
ugh	-3076
▁14	-3077
▁Ba	-3078
▁Gr	-3079
▁Or	-3080
▁PA	-3081
▁Te	-3082
....	-3083
ados	-3084
awig	-3085
bing	-3086
ibit	-3087
ibon	-3088
igas	-3089
irin	-3090
osop	-3091
ubay	-3092
uyog	-3093
yaya	-3094
▁199	-3095
▁Mus	-3096
▁Tab	-3097
▁art	-3098
▁awa	-3099
▁del	-3100
▁lun	-3101
Bakit	-3102
ababa	-3103
abuti	-3104
agkan	-3105
angon	-3106
ayway	-3107
ermon	-3108
erong	-3109
indak	-3110
ingap	-3111
▁aliw	-3112
▁itat	-3113
▁kain	-3114
▁labi	-3115
▁leon	-3116
▁nagw	-3117
▁opis	-3118
▁puri	-3119
adalaw	-3120
agalit	-3121
agutan	-3122
entino	-3123
ilipat	-3124
ulatan	-3125
▁Bugan	-3126
▁Europ	-3127
▁Konde	-3128
▁Lakas	-3129
▁akala	-3130
▁bagyo	-3131
▁binab	-3132
▁hiyas	-3133
▁kaawa	-3134
▁lunti	-3135
▁namim	-3136
▁paksa	-3137
▁tangk	-3138
▁tribo	-3139
nanakaw	-3140
presyon	-3141
▁Muling	-3142
▁alaala	-3143
▁alahas	-3144
▁alipin	-3145
▁angkop	-3146
▁ganoon	-3147
▁itakda	-3148
▁kausap	-3149
▁libong	-3150
▁lumbay	-3151
▁magawa	-3152
▁makata	-3153
▁maling	-3154
▁mandir	-3155
▁naroon	-3156
▁pagsis	-3157
▁sanang	-3158
aririnig	-3159
▁Leonora	-3160
▁Nagalit	-3161
▁Pilosop	-3162
▁Salermo	-3163
▁hinanap	-3164
▁hininga	-3165
▁kasangk	-3166
▁labanan	-3167
▁nahulog	-3168
▁opisyal	-3169
▁palabas	-3170
▁sagisag	-3171
▁tatlump	-3172
▁Tinanong	-3173
▁bayaning	-3174
▁bilanggo	-3175
▁institus	-3176
▁malayang	-3177
▁maligaya	-3178
▁maliliit	-3179
▁mangyari	-3180
▁marangal	-3181
▁matapang	-3182
▁maysakit	-3183
▁nakilala	-3184
▁paningin	-3185
▁impiyerno	-3186
▁kahirapan	-3187
▁kahulugan	-3188
▁katangian	-3189
▁pagbigkas	-3190
▁panaginip	-3191
▁sasabihin	-3192
▁pamamahala	-3193
▁Ipinaliwanag	-3194
7)	-3195
IA	-3196
ce	-3197
ANA	-3198
cos	-3199
eta	-3200
ian	-3201
ion	-3202
irh	-3203
oso	-3204
sob	-3205
str	-3206
ukt	-3207
▁Os	-3208
▁bu	-3209
igla	-3210
init	-3211
itas	-3212
loob	-3213
omas	-3214
ulak	-3215
usta	-3216
▁(4)	-3217
▁Gum	-3218
▁Pat	-3219
▁bis	-3220
▁dag	-3221
▁dar	-3222
▁erm	-3223
▁pet	-3224
▁tor	-3225
ahuli	-3226
anang	-3227
andaw	-3228
antao	-3229
apaan	-3230
aptap	-3231
arusa	-3232
idlat	-3233
itiis	-3234
kalde	-3235
unton	-3236
▁Ayaw	-3237
▁Ikin	-3238
▁lans	-3239
▁mala	-3240
▁puti	-3241
▁tupa	-3242
▁unti	-3243
agatan	-3244
ahatid	-3245
alipas	-3246
antong	-3247
itanyo	-3248
orilya	-3249
▁Labaw	-3250
▁Mahal	-3251
▁Pagka	-3252
▁Pinak	-3253
▁Prans	-3254
▁Tadeo	-3255
▁batay	-3256
▁daang	-3257
▁galak	-3258
▁hinah	-3259
▁kapul	-3260
▁kayum	-3261
▁malag	-3262
▁nalal	-3263
▁nasas	-3264
▁nguni	-3265
▁pinat	-3266
▁sugat	-3267
araanan	-3268
gugulin	-3269
inabang	-3270
unahang	-3271
usisyon	-3272
▁Manobo	-3273
▁Punong	-3274
▁Sinang	-3275
▁biyaya	-3276
▁iisang	-3277
▁paghah	-3278
▁pantay	-3279
▁pinsan	-3280
▁sultan	-3281
▁waring	-3282
▁Hermana	-3283
▁Jacinto	-3284
▁Kanyang	-3285
▁Makisig	-3286
▁Tinawag	-3287
▁babaeng	-3288
▁bintana	-3289
▁ginamit	-3290
▁lumipas	-3291
▁lungsod	-3292
▁madilim	-3293
▁madlang	-3294
▁malalim	-3295
▁mangang	-3296
▁manging	-3297
▁matuwid	-3298
▁natapos	-3299
▁nilikha	-3300
▁pangulo	-3301
▁salamin	-3302
▁sumapit	-3303
▁tadhana	-3304
ahalagang	-3305
▁Maaaring	-3306
▁Sapagkat	-3307
▁malayong	-3308
▁nagngang	-3309
▁nasabing	-3310
▁nilalang	-3311
▁pambansa	-3312
▁tinanong	-3313
▁Nagkaroon	-3314
▁Pangulong	-3315
▁edukasyon	-3316
▁ginagamit	-3317
▁kakayahan	-3318
▁lumilipad	-3319
▁natagpuan	-3320
▁pribadong	-3321
▁Florentino	-3322
▁kontrolado	-3323
▁manggagawa	-3324
▁ipinanganak	-3325
▁kaligayahan	-3326
▁paglilingkod	-3327
RT	-3328
ct	-3329
aas	-3330
ach	-3331
iis	-3332
ipo	-3333
itu	-3334
pos	-3335
uke	-3336
▁30	-3337
▁Bo	-3338
..."	-3339
agap	-3340
agpo	-3341
ahih	-3342
atin	-3343
ding	-3344
enor	-3345
ihag	-3346
nang	-3347
uiro	-3348
▁Con	-3349
▁Ing	-3350
▁Kag	-3351
▁Lun	-3352
▁Osm	-3353
▁ant	-3354
▁hil	-3355
▁kul	-3356
▁nir	-3357
▁pip	-3358
▁res	-3359
▁saw	-3360
▁tam	-3361
antog	-3362
asiwa	-3363
cifer	-3364
enang	-3365
istro	-3366
palad	-3367
urusa	-3368
usyon	-3369
uturo	-3370
uusig	-3371
uyong	-3372
▁Abad	-3373
▁Duke	-3374
▁Mags	-3375
▁Nagd	-3376
▁baga	-3377
▁bung	-3378
▁idin	-3379
▁kaba	-3380
▁kusa	-3381
▁ugat	-3382
agapos	-3383
ambing	-3384
apitan	-3385
ayaang	-3386
imbang	-3387
imbing	-3388
insang	-3389
ogasya	-3390
ristal	-3391
ristan	-3392
uiroga	-3393
▁Batas	-3394
▁Sumak	-3395
▁bakod	-3396
▁duwag	-3397
▁gapos	-3398
▁hatol	-3399
▁kabig	-3400
▁kapan	-3401
▁kapat	-3402
▁kumak	-3403
▁layaw	-3404
▁lilim	-3405
▁mapat	-3406
▁nangg	-3407
▁napat	-3408
▁narir	-3409
▁negos	-3410
▁pilit	-3411
▁pinan	-3412
▁sanhi	-3413
aramdam	-3414
araming	-3415
arangay	-3416
hininga	-3417
▁Andres	-3418
▁Bagong	-3419
▁Intsik	-3420
▁Pagong	-3421
▁Unidos	-3422
▁Wikang	-3423
▁bumaba	-3424
▁hardin	-3425
▁kabund	-3426
▁lahing	-3427
▁laking	-3428
▁luhang	-3429
▁paglil	-3430
▁pinang	-3431
▁saging	-3432
▁sesyon	-3433
▁sumama	-3434
ahulugan	-3435
arusahan	-3436
ayanihan	-3437
ormasyon	-3438
▁Alkalde	-3439
▁Estados	-3440
▁Krotona	-3441
▁Lucifer	-3442
▁Mahirap	-3443
▁gorilya	-3444
▁kalungk	-3445
▁lumipad	-3446
▁lumisan	-3447
▁makipag	-3448
▁malinis	-3449
▁malupit	-3450
▁matagal	-3451
ihimagsik	-3452
▁gumagawa	-3453
▁kasamaan	-3454
▁mayamang	-3455
▁nakakita	-3456
▁ermitanyo	-3457
▁hinihingi	-3458
▁tanghalan	-3459
▁Mahistrado	-3460
▁ekspresyon	-3461
▁karamdaman	-3462
▁katarungan	-3463
▁magnanakaw	-3464
▁nawawalang	-3465
▁panlipunan	-3466
▁matatagpuan	-3467
▁nasasakupan	-3468
▁pangangailangan	-3469
An	-3470
Ep	-3471
pe	-3472
ru	-3473
▁,	-3474
▁7	-3475
AND	-3476
Ako	-3477
Ano	-3478
IKU	-3479
abe	-3480
are	-3481
iwi	-3482
orn	-3483
pad	-3484
ret	-3485
▁12	-3486
▁Ah	-3487
▁Da	-3488
▁ek	-3489
▁ha	-3490
ARIA	-3491
Iput	-3492
aboy	-3493
amag	-3494
inam	-3495
inta	-3496
udit	-3497
uksa	-3498
usin	-3499
yayi	-3500
▁ART	-3501
▁Ber	-3502
▁IMP	-3503
▁Ini	-3504
▁Lim	-3505
▁Pak	-3506
▁Sta	-3507
▁aki	-3508
▁las	-3509
▁ros	-3510
▁say	-3511
▁sub	-3512
Huwag	-3513
IKULO	-3514
agpis	-3515
alakh	-3516
aliit	-3517
arito	-3518
dapat	-3519
embro	-3520
ingal	-3521
isdik	-3522
ivers	-3523
uyuan	-3524
▁Iput	-3525
▁Taga	-3526
▁diin	-3527
▁edad	-3528
▁itim	-3529
▁kaso	-3530
▁kons	-3531
▁maip	-3532
▁wari	-3533
abatid	-3534
alahat	-3535
awakan	-3536
ilikha	-3537
langan	-3538
▁Diwat	-3539
▁Gibon	-3540
▁MARIA	-3541
▁Pinat	-3542
▁Tomas	-3543
▁baboy	-3544
▁bakas	-3545
▁bigla	-3546
▁burol	-3547
▁hamog	-3548
▁instr	-3549
▁kaban	-3550
▁nalul	-3551
▁sikat	-3552
▁tugon	-3553
abayaan	-3554
agalang	-3555
ahalaga	-3556
amangha	-3557
antayan	-3558
ilitang	-3559
intawak	-3560
oroonan	-3561
uklasan	-3562
ungkahi	-3563
▁IMPONG	-3564
▁Kasama	-3565
▁Morong	-3566
▁Muslim	-3567
▁daliri	-3568
▁dalita	-3569
▁gawang	-3570
▁handog	-3571
▁hangga	-3572
▁hiling	-3573
▁niring	-3574
▁pagpup	-3575
▁pambih	-3576
▁payapa	-3577
▁piging	-3578
▁sektor	-3579
▁tabing	-3580
arapatra	-3581
▁Biglang	-3582
▁Demonyo	-3583
▁Inahing	-3584
▁Juanito	-3585
▁Pebrero	-3586
▁Senador	-3587
▁Tumango	-3588
▁Univers	-3589
▁bathala	-3590
▁bungang	-3591
▁kalabaw	-3592
▁kasabay	-3593
▁larawan	-3594
▁malawak	-3595
▁ninyong	-3596
▁organis	-3597
▁pagitan	-3598
▁palakol	-3599
▁pananim	-3600
▁paraang	-3601
▁sinapit	-3602
▁sintang	-3603
anghalian	-3604
ementarya	-3605
▁ARTIKULO	-3606
▁Fernando	-3607
▁Filipino	-3608
▁Personal	-3609
▁Sumakwel	-3610
▁hurisdik	-3611
▁ibinigay	-3612
▁kaalaman	-3613
▁kuwintas	-3614
▁magaling	-3615
▁pagkatao	-3616
▁salaysay	-3617
▁Katipunan	-3618
▁Pagkaraan	-3619
▁halimbawa	-3620
▁karagatan	-3621
▁kinalaman	-3622
▁nagpaalam	-3623
▁nakasulat	-3624
▁paghirang	-3625
▁pananalig	-3626
▁panitikan	-3627
▁Diwatandaw	-3628
▁Philippine	-3629
▁malalaking	-3630
▁nakarating	-3631
▁paghahanap	-3632
▁sambayanan	-3633
▁Indarapatra	-3634
▁korporasyon	-3635
▁korporasyong	-3636
6)	-3637
UP	-3638
aa	-3639
ca	-3640
ef	-3641
ri	-3642
th	-3643
"),	-3644
bud	-3645
eba	-3646
wit	-3647
▁10	-3648
▁6.	-3649
▁En	-3650
▁kr	-3651
alog	-3652
amin	-3653
amon	-3654
anay	-3655
asiw	-3656
iham	-3657
isda	-3658
ling	-3659
pada	-3660
silo	-3661
ugat	-3662
ukin	-3663
upot	-3664
yero	-3665
▁195	-3666
▁Col	-3667
▁Dal	-3668
▁III	-3669
▁Puw	-3670
▁Tam	-3671
▁and	-3672
▁ind	-3673
▁kol	-3674
▁mit	-3675
▁miy	-3676
▁pur	-3677
▁sik	-3678
▁tek	-3679
▁uli	-3680
agana	-3681
aglit	-3682
akang	-3683
alaya	-3684
awian	-3685
▁Pags	-3686
▁Pati	-3687
▁Rosa	-3688
▁Sino	-3689
▁bril	-3690
▁damb	-3691
▁dati	-3692
▁mist	-3693
aalala	-3694
abawal	-3695
abayad	-3696
ahamak	-3697
amahan	-3698
awagan	-3699
iyasat	-3700
rabaho	-3701
silyer	-3702
ugutan	-3703
uwiran	-3704
▁Napag	-3705
▁Pablo	-3706
▁Santo	-3707
▁Tulad	-3708
▁baril	-3709
▁hangg	-3710
▁hapon	-3711
▁ibaba	-3712
▁ipagb	-3713
▁kahil	-3714
▁kalin	-3715
▁kapit	-3716
▁karik	-3717
▁kumik	-3718
▁nangh	-3719
▁progr	-3720
▁tangi	-3721
▁tunog	-3722
aalahas	-3723
akasama	-3724
ampanan	-3725
anganib	-3726
apaloob	-3727
asiwaan	-3728
atiling	-3729
erbisyo	-3730
imulang	-3731
ingatan	-3732
onomiya	-3733
utangan	-3734
yayahan	-3735
▁Diwata	-3736
▁Emilio	-3737
▁Ibalon	-3738
▁Naisip	-3739
▁bulong	-3740
▁dalang	-3741
▁kagyat	-3742
▁kumuha	-3743
▁madali	-3744
▁musika	-3745
▁nagpas	-3746
▁ngalan	-3747
▁paring	-3748
▁piyesa	-3749
▁saglit	-3750
▁talino	-3751
Sabayang	-3752
agandang	-3753
agubilin	-3754
amdaming	-3755
obyembre	-3756
▁Kalihim	-3757
▁Sumagot	-3758
▁Sumunod	-3759
▁Tarsilo	-3760
▁Unnayan	-3761
▁bugtong	-3762
▁kalalak	-3763
▁kasunod	-3764
▁kumalat	-3765
▁naganap	-3766
▁nagmula	-3767
▁nakasal	-3768
▁pinatay	-3769
▁pumanaw	-3770
▁sistema	-3771
▁tawagin	-3772
▁tuwiran	-3773
▁Abogasya	-3774
▁Gayunman	-3775
▁Nakilala	-3776
▁kumakain	-3777
▁miyembro	-3778
▁nagbalik	-3779
▁nawawala	-3780
▁Partidong	-3781
▁Relihiyon	-3782
▁alinsunod	-3783
▁brilyante	-3784
▁nabubuhay	-3785
▁natutulog	-3786
▁pagtuturo	-3787
▁prusisyon	-3788
▁Kasaysayan	-3789
▁Pilipinong	-3790
▁kasunduang	-3791
▁naglalakad	-3792
▁pagbibigay	-3793
▁kabayanihan	-3794
▁kalungkutan	-3795
▁kasalukuyan	-3796
▁naghihintay	-3797
▁pagkakataong	-3798
▁pinanggalingan	-3799
);	-3800
Al	-3801
DO	-3802
ua	-3803
aca	-3804
ary	-3805
edi	-3806
eho	-3807
ekt	-3808
elo	-3809
hal	-3810
hol	-3811
igh	-3812
igu	-3813
lag	-3814
lor	-3815
non	-3816
rat	-3817
tim	-3818
udo	-3819
yas	-3820
▁17	-3821
▁7.	-3822
▁8.	-3823
▁Ep	-3824
▁Om	-3825
▁ad	-3826
▁em	-3827
▁ga	-3828
buds	-3829
entr	-3830
ibot	-3831
ones	-3832
oses	-3833
tuwa	-3834
ubig	-3835
ukay	-3836
▁Ali	-3837
▁Dep	-3838
▁Gag	-3839
▁Iba	-3840
▁MGA	-3841
▁aso	-3842
▁bud	-3843
▁med	-3844
adaan	-3845
akpan	-3846
artel	-3847
ation	-3848
ilaan	-3849
iligo	-3850
ilipo	-3851
inoon	-3852
intul	-3853
irhen	-3854
oliko	-3855
oserp	-3856
ugnay	-3857
▁Iyan	-3858
▁NANA	-3859
▁Pand	-3860
▁Saan	-3861
▁akda	-3862
▁dali	-3863
▁dila	-3864
▁gant	-3865
▁kast	-3866
▁patn	-3867
agawan	-3868
akaawa	-3869
alaban	-3870
alimot	-3871
amayan	-3872
awanan	-3873
awayan	-3874
dahang	-3875
ensahe	-3876
ibutan	-3877
iguyon	-3878
ilitan	-3879
ilitaw	-3880
inggit	-3881
▁Panay	-3882
▁awtor	-3883
▁balik	-3884
▁bukal	-3885
▁daing	-3886
▁digma	-3887
▁halik	-3888
▁halim	-3889
▁hamak	-3890
▁husto	-3891
▁kauna	-3892
▁kinar	-3893
▁kunin	-3894
▁madla	-3895
▁makik	-3896
▁malim	-3897
▁mayor	-3898
▁panin	-3899
▁sangk	-3900
▁tanda	-3901
akalang	-3902
aliksik	-3903
atahang	-3904
ayapaan	-3905
budsman	-3906
ibigkas	-3907
olusyon	-3908
▁Europa	-3909
▁Filipo	-3910
▁halaga	-3911
▁haring	-3912
▁kasing	-3913
▁kuweba	-3914
▁mapagt	-3915
▁naisip	-3916
▁nakaka	-3917
▁pagkag	-3918
▁pagkap	-3919
▁pansin	-3920
▁pinagl	-3921
▁pinagp	-3922
▁pulang	-3923
▁sumuko	-3924
▁tapang	-3925
kanilang	-3926
oserpina	-3927
▁Tanging	-3928
▁asawang	-3929
▁bandila	-3930
▁hanging	-3931
▁heneral	-3932
▁iniibig	-3933
▁instrum	-3934
▁kapalit	-3935
▁kapitan	-3936
▁lumikha	-3937
▁magmula	-3938
▁malinaw	-3939
▁matibay	-3940
▁nakakat	-3941
▁pangako	-3942
▁pumunta	-3943
▁saknong	-3944
alawikain	-3945
amangkero	-3946
▁Aliguyon	-3947
▁Berbanya	-3948
▁Nagtungo	-3949
▁Silangan	-3950
▁Sumarang	-3951
▁balitang	-3952
▁barangay	-3953
▁dalampas	-3954
▁ginawang	-3955
▁kaisipan	-3956
▁katwiran	-3957
▁magtakda	-3958
▁matalino	-3959
▁narating	-3960
▁paglakad	-3961
▁pagtupad	-3962
▁tuluyang	-3963
▁Amerikano	-3964
▁Nobyembre	-3965
▁Ombudsman	-3966
▁awtoridad	-3967
▁kinatawan	-3968
▁magsasaka	-3969
▁relihiyon	-3970
▁Proserpina	-3971
▁University	-3972
▁kabundukan	-3973
▁kabutihang	-3974
▁kahilingan	-3975
▁makarating	-3976
▁mamamayang	-3977
▁mandirigma	-3978
▁manliligaw	-3979
▁mitolohiya	-3980
▁pagkasilang	-3981
▁pambihirang	-3982
▁pangkalahat	-3983
▁hurisdiksyon	-3984
▁institusyong	-3985
▁kasalukuyang	-3986
▁nakabababang	-3987
▁Konstitusyonal	-3988
EN	-3989
OY	-3990
ov	-3991
sy	-3992
igi	-3993
ill	-3994
kad	-3995
pat	-3996
uka	-3997
yak	-3998
▁9.	-3999
▁BU	-4000
▁II	-4001
▁Ro	-4002
▁Ta	-4003
▁le	-4004
▁pi	-4005
Nang	-4006
ampa	-4007
asag	-4008
atal	-4009
ator	-4010
awal	-4011
eses	-4012
esto	-4013
ibur	-4014
igat	-4015
ilat	-4016
ilid	-4017
itor	-4018
lano	-4019
napu	-4020
rang	-4021
taas	-4022
ubad	-4023
ubha	-4024
usok	-4025
▁10.	-4026
▁193	-4027
▁Bub	-4028
▁Hes	-4029
▁Ika	-4030
▁Kar	-4031
▁Kun	-4032
▁Let	-4033
▁Pol	-4034
▁aba	-4035
▁gob	-4036
▁liw	-4037
▁mau	-4038
▁ple	-4039
▁reb	-4040
aghoy	-4041
alima	-4042
amasa	-4043
ibili	-4044
ibust	-4045
inseo	-4046
riseo	-4047
ulila	-4048
ungib	-4049
uward	-4050
yagan	-4051
yudad	-4052
▁Cora	-4053
▁Hang	-4054
▁Iyon	-4055
▁Kayo	-4056
▁Tayo	-4057
▁agos	-4058
▁bala	-4059
▁iwan	-4060
▁kuba	-4061
▁mais	-4062
▁naip	-4063
▁napa	-4064
▁ulit	-4065
akbong	-4066
alisay	-4067
astong	-4068
pantay	-4069
salita	-4070
uparan	-4071
usugan	-4072
▁Abril	-4073
▁Aking	-4074
▁Bohol	-4075
▁Galit	-4076
▁Halos	-4077
▁Hanap	-4078
▁Kapul	-4079
▁Karan	-4080
▁Lakan	-4081
▁Oyayi	-4082
▁Pinag	-4083
▁Puwek	-4084
▁Reyna	-4085
▁Sarag	-4086
▁anino	-4087
▁bakal	-4088
▁beses	-4089
▁bilin	-4090
▁buwis	-4091
▁dilaw	-4092
▁gamot	-4093
▁grupo	-4094
▁hapis	-4095
▁humah	-4096
▁liham	-4097
▁lubid	-4098
▁malay	-4099
▁nakad	-4100
▁palat	-4101
▁pasya	-4102
▁pinas	-4103
▁sampu	-4104
▁trono	-4105
agdagan	-4106
ahandog	-4107
ahating	-4108
arinlan	-4109
higanti	-4110
olohiya	-4111
uhalang	-4112
▁Briseo	-4113
▁Letran	-4114
▁Linseo	-4115
▁Tingal	-4116
▁Tuwang	-4117
▁angkin	-4118
▁anyong	-4119
▁bantay	-4120
▁buwang	-4121
▁dakong	-4122
▁ibigay	-4123
▁kalang	-4124
▁kapuwa	-4125
▁linggo	-4126
▁mandin	-4127
▁mapagb	-4128
▁naglil	-4129
▁naiwan	-4130
▁nanaog	-4131
▁pagkam	-4132
▁pangit	-4133
▁perlas	-4134
▁talaga	-4135
▁umiyak	-4136
▁yamang	-4137
▁yungib	-4138
ahimikan	-4139
apalaran	-4140
uwardiya	-4141
▁Hinanap	-4142
▁Malakas	-4143
▁Tamaraw	-4144
▁babalik	-4145
▁demonyo	-4146
▁gustong	-4147
▁hahanap	-4148
▁igalang	-4149
▁ipinagb	-4150
▁kadilim	-4151
▁masarap	-4152
▁naaayon	-4153
▁nabuhay	-4154
▁nakipag	-4155
▁palagay	-4156
▁panging	-4157
▁patalim	-4158
▁puhunan	-4159
▁sinuman	-4160
▁sumagot	-4161
▁tingnan	-4162
▁tumigil	-4163
▁tumupad	-4164
▁umakyat	-4165
alanutian	-4166
▁Binigyan	-4167
▁Katoliko	-4168
▁bahaging	-4169
▁gagawing	-4170
▁gayundin	-4171
▁ikatlong	-4172
▁kalahati	-4173
▁kaunting	-4174
▁larangan	-4175
▁mabisang	-4176
▁maybahay	-4177
▁nagpunta	-4178
▁nakatayo	-4179
▁nakatira	-4180
▁tuntunin	-4181
▁kailanman	-4182
▁karamihan	-4183
▁kasiyahan	-4184
▁magsagawa	-4185
▁nakatulog	-4186
▁nakikipag	-4187
▁patakaran	-4188
▁tanggapin	-4189
▁Balintawak	-4190
▁Hanapbuhay	-4191
▁kapayapaan	-4192
▁kayumanggi	-4193
▁mangyayari	-4194
▁masasamang	-4195
▁naghahanap	-4196
▁pananalapi	-4197
▁Elementarya	-4198
▁Natatanging	-4199
▁Samantalang	-4200
▁kasangkapan	-4201
▁katahimikan	-4202
▁dalampasigan	-4203
▁tagapagpaganap	-4204
▁makapangyarihan	-4205
1:	-4206
AG	-4207
AM	-4208
BU	-4209
IW	-4210
Ib	-4211
OG	-4212
Oo	-4213
ow	-4214
ui	-4215
▁.	-4216
▁v	-4217
ARO	-4218
UAN	-4219
hel	-4220
iin	-4221
its	-4222
los	-4223
mat	-4224
ord	-4225
reh	-4226
tao	-4227
tar	-4228
tin	-4229
uya	-4230
▁Bu	-4231
▁De	-4232
▁IN	-4233
▁pw	-4234
ampi	-4235
asid	-4236
ayad	-4237
ayin	-4238
ikot	-4239
ilak	-4240
ilay	-4241
imog	-4242
ipad	-4243
onio	-4244
ugal	-4245
unay	-4246
unyo	-4247
urin	-4248
▁200	-4249
▁Ceb	-4250
▁LAK	-4251
▁Map	-4252
▁Nol	-4253
▁Nor	-4254
▁TOY	-4255
▁Una	-4256
▁adh	-4257
▁bus	-4258
▁dir	-4259
▁pos	-4260
▁puw	-4261
▁siy	-4262
aawit	-4263
abong	-4264
ahiya	-4265
aklap	-4266
aksil	-4267
aligt	-4268
alump	-4269
alung	-4270
amali	-4271
ampot	-4272
aping	-4273
asdan	-4274
bagay	-4275
chang	-4276
gayak	-4277
hikan	-4278
ibers	-4279
ikudo	-4280
oktor	-4281
pindi	-4282
ukang	-4283
uksan	-4284
umbay	-4285
umula	-4286
utong	-4287
▁Band	-4288
▁Daga	-4289
▁JUAN	-4290
▁Luna	-4291
▁Pagh	-4292
▁Teod	-4293
▁Tila	-4294
▁alak	-4295
▁bers	-4296
▁gayo	-4297
▁kabu	-4298
▁kund	-4299
▁laya	-4300
▁nagn	-4301
▁pera	-4302
▁pong	-4303
▁pula	-4304
▁punt	-4305
agawin	-4306
ahilig	-4307
alahan	-4308
alidad	-4309
alipik	-4310
angong	-4311
ayuhan	-4312
emeter	-4313
igawan	-4314
igilan	-4315
ilaban	-4316
inggil	-4317
inggin	-4318
iwatig	-4319
piritu	-4320
saysay	-4321
ugatan	-4322
umanap	-4323
upunta	-4324
wirang	-4325
▁Bawat	-4326
▁Buwan	-4327
▁Dagat	-4328
▁Domin	-4329
▁Higit	-4330
▁Hunyo	-4331
▁Juana	-4332
▁Nakat	-4333
▁Tibur	-4334
▁binib	-4335
▁bulag	-4336
▁dadal	-4337
▁dahan	-4338
▁ginag	-4339
▁gumag	-4340
▁hilig	-4341
▁kasip	-4342
▁kinal	-4343
▁lumul	-4344
▁lunas	-4345
▁mahuh	-4346
▁makab	-4347
▁manun	-4348
▁matip	-4349
▁nagug	-4350
▁nasus	-4351
▁natit	-4352
▁pakay	-4353
▁panib	-4354
▁reyno	-4355
▁rosas	-4356
▁salig	-4357
▁sinag	-4358
▁sumpa	-4359
▁talud	-4360
▁tamad	-4361
▁tamis	-4362
▁tapos	-4363
abinete	-4364
alayong	-4365
angkang	-4366
arangaw	-4367
ustuhan	-4368
▁Batang	-4369
▁Kailan	-4370
▁Kaptan	-4371
▁Simang	-4372
▁TOYANG	-4373
▁Tinong	-4374
▁bantog	-4375
▁baybay	-4376
▁dugong	-4377
▁ilawan	-4378
▁maitim	-4379
▁makuha	-4380
▁mapagk	-4381
▁pagkah	-4382
▁umawit	-4383
alinuhan	-4384
ungkahoy	-4385
▁Corazon	-4386
▁Lumipas	-4387
▁Mariano	-4388
▁Matapos	-4389
▁Mayroon	-4390
▁Namatay	-4391
▁abogado	-4392
▁gantimp	-4393
▁hapunan	-4394
▁maagang	-4395
▁malamig	-4396
▁nahalal	-4397
▁nauukol	-4398
▁wastong	-4399
ahintulot	-4400
edukasyon	-4401
ibersidad	-4402
sapalaran	-4403
▁Barangaw	-4404
▁Marikudo	-4405
▁Tiburcio	-4406
▁gererong	-4407
▁hirangin	-4408
▁kasawian	-4409
▁makitang	-4410
▁mapayapa	-4411
▁paglabag	-4412
▁pagpapas	-4413
▁pinagtat	-4414
▁tindahan	-4415
atipikahan	-4416
▁Fernandez	-4417
▁Komisyong	-4418
▁katapusan	-4419
▁kaugalian	-4420
▁matatanda	-4421
▁nagsalita	-4422
▁nagtanong	-4423
▁naririnig	-4424
▁nasiyahan	-4425
▁sakristan	-4426
▁tinutukoy	-4427
▁Balagtasan	-4428
▁Kailangang	-4429
▁Saragnayan	-4430
▁kapakanang	-4431
▁magpatibay	-4432
▁mahalagang	-4433
▁nanggaling	-4434
▁nangyayari	-4435
▁naniniwala	-4436
▁paglalaban	-4437
▁pagpapasya	-4438
▁alituntunin	-4439
▁kagandahang	-4440
▁kalalakihan	-4441
▁kasintahang	-4442
▁katotohanan	-4443
▁manungkulan	-4444
▁naghahangad	-4445
▁pagdiriwang	-4446
▁paghahangad	-4447
▁pangungusap	-4448
▁punungkahoy	-4449
▁kinaroroonan	-4450
▁pinakamataas	-4451
-3	-4452
3:	-4453
8.	-4454
Ar	-4455
ee	-4456
BLO	-4457
ENA	-4458
IWA	-4459
Mga	-4460
agu	-4461
ani	-4462
apu	-4463
arr	-4464
cil	-4465
ham	-4466
lak	-4467
ruz	-4468
uny	-4469
▁EL	-4470
▁Pl	-4471
ARUP	-4472
Mlks	-4473
aari	-4474
abae	-4475
adap	-4476
adem	-4477
agit	-4478
ahag	-4479
alot	-4480
ampo	-4481
anag	-4482
anod	-4483
awis	-4484
ayog	-4485
eres	-4486
haga	-4487
ispo	-4488
itim	-4489
sama	-4490
ubli	-4491
uhos	-4492
ukso	-4493
unot	-4494
upok	-4495
usal	-4496
ustr	-4497
uyak	-4498
▁11.	-4499
▁12.	-4500
▁190	-4501
▁Cav	-4502
▁Gar	-4503
▁Hil	-4504
▁Ilo	-4505
▁Spe	-4506
▁Tip	-4507
▁anu	-4508
▁dah	-4509
▁leg	-4510
▁mon	-4511
▁rec	-4512
▁sob	-4513
▁sya	-4514
▁umu	-4515
▁uod	-4516
adali	-4517
amtan	-4518
anais	-4519
andag	-4520
apong	-4521
astos	-4522
ayuan	-4523
bayad	-4524
daang	-4525
iklab	-4526
ingay	-4527
iyaga	-4528
iyego	-4529
layan	-4530
omong	-4531
risto	-4532
umano	-4533
umbas	-4534
▁Alam	-4535
▁Bato	-4536
▁Cons	-4537
▁Hari	-4538
▁Lagi	-4539
▁Lawa	-4540
▁Nati	-4541
▁Niya	-4542
▁Puno	-4543
▁ayos	-4544
▁caca	-4545
▁dula	-4546
▁kond	-4547
▁mesa	-4548
▁nuon	-4549
▁piso	-4550
▁sawa	-4551
▁tama	-4552
▁trad	-4553
▁ulat	-4554
▁unit	-4555
▁yari	-4556
ANDIWA	-4557
akdang	-4558
alakal	-4559
ariang	-4560
ayahan	-4561
ayaran	-4562
diwang	-4563
ensiya	-4564
ensyon	-4565
ibigin	-4566
ilayan	-4567
isigaw	-4568
iyakap	-4569
ostomo	-4570
saring	-4571
ukuman	-4572
unahan	-4573
undong	-4574
usumpa	-4575
▁Alban	-4576
▁Artik	-4577
▁Buhat	-4578
▁ELENA	-4579
▁Kawan	-4580
▁Krist	-4581
▁Kundi	-4582
▁Marso	-4583
▁Napak	-4584
▁Ngayo	-4585
▁PABLO	-4586
▁PARUP	-4587
▁Party	-4588
▁balon	-4589
▁boses	-4590
▁bumub	-4591
▁butil	-4592
▁hubad	-4593
▁kalik	-4594
▁kalis	-4595
▁lamok	-4596
▁likha	-4597
▁lingk	-4598
▁mabub	-4599
▁mahin	-4600
▁makal	-4601
▁munti	-4602
▁nasis	-4603
▁pamim	-4604
▁pinup	-4605
▁pugad	-4606
▁putik	-4607
▁putok	-4608
▁sahod	-4609
▁sanda	-4610
▁sigla	-4611
▁sinis	-4612
▁sulok	-4613
▁tabak	-4614
▁titig	-4615
Heneral	-4616
aganang	-4617
alakhak	-4618
alamuti	-4619
alimbag	-4620
alinong	-4621
ibigyan	-4622
igayang	-4623
iibigan	-4624
irasong	-4625
ubuksan	-4626
ulugang	-4627
▁Bayang	-4628
▁Cavite	-4629
▁Ingles	-4630
▁Mabini	-4631
▁anuman	-4632
▁bangis	-4633
▁dalhin	-4634
▁ganyan	-4635
▁ipinas	-4636
▁kabata	-4637
▁lusong	-4638
▁magmam	-4639
▁mahina	-4640
▁mawala	-4641
▁nagsus	-4642
▁nakuha	-4643
▁pagdar	-4644
▁patung	-4645
▁pinagd	-4646
▁pribil	-4647
▁puntod	-4648
▁sermon	-4649
▁suklay	-4650
▁suyuan	-4651
▁taludt	-4652
▁tuktok	-4653
abuhayan	-4654
ahiwalay	-4655
aligiran	-4656
amantala	-4657
etyembre	-4658
▁Antonio	-4659
▁Bugtong	-4660
▁Griyego	-4661
▁Humadap	-4662
▁Mensahe	-4663
▁Militar	-4664
▁Nalaman	-4665
▁Tatlong	-4666
▁bunsong	-4667
▁dalisay	-4668
▁himutok	-4669
▁hinggil	-4670
▁kultura	-4671
▁kumilos	-4672
▁makapan	-4673
▁matatag	-4674
▁minsang	-4675
▁nagsabi	-4676
▁nalaman	-4677
▁negosyo	-4678
▁pakasal	-4679
▁pupunta	-4680
▁rehiyon	-4681
▁sumulat	-4682
▁umiiral	-4683
agpatuloy	-4684
▁Bulaklak	-4685
▁PARUPARO	-4686
▁Victoria	-4687
▁ariarian	-4688
▁inutusan	-4689
▁itinakda	-4690
▁kapuluan	-4691
▁kasamang	-4692
▁mababang	-4693
▁mahalaga	-4694
▁makatang	-4695
▁mangmang	-4696
▁naroroon	-4697
▁pagkakap	-4698
▁pagpatay	-4699
▁pamumuno	-4700
▁pananamp	-4701
▁sakaling	-4702
▁tagumpay	-4703
▁Batsilyer	-4704
▁LAKANDIWA	-4705
▁Malungkot	-4706
▁balangkas	-4707
▁hakbangin	-4708
▁karanasan	-4709
▁magkasint	-4710
▁nanirahan	-4711
▁palibhasa	-4712
▁pinagkaka	-4713
▁Crisostomo	-4714
▁animnapung	-4715
▁gantimpala	-4716
▁hinihintay	-4717
▁magtadhana	-4718
▁nagsisipag	-4719
▁pagsintang	-4720
▁tatlumpung	-4721
▁Unibersidad	-4722
▁dambuhalang	-4723
▁katalinuhan	-4724
▁magkabilang	-4725
▁magkaibigan	-4726
▁makatwirang	-4727
▁manggagamot	-4728
▁natatanging	-4729
▁pagsasabing	-4730
▁pananagutan	-4731
▁nagngangalang	-4732
▁paghihimagsik	-4733
▁pangkalahatang	-4734
▁nangangailangan	-4735
!!	-4736
5.	-4737
6:	-4738
Di	-4739
ea	-4740
BUY	-4741
Mag	-4742
Nak	-4743
Tat	-4744
abo	-4745
bag	-4746
cho	-4747
ekl	-4748
fin	-4749
ihi	-4750
kin	-4751
kop	-4752
nat	-4753
ous	-4754
sas	-4755
sel	-4756
umi	-4757
uty	-4758
wak	-4759
wal	-4760
▁--	-4761
▁Br	-4762
▁Et	-4763
▁oo	-4764
▁ub	-4765
aker	-4766
anas	-4767
ario	-4768
asik	-4769
dali	-4770
each	-4771
egur	-4772
esor	-4773
iyaw	-4774
mula	-4775
ondo	-4776
ugis	-4777
uhit	-4778
uino	-4779
unam	-4780
▁(5)	-4781
▁14.	-4782
▁16.	-4783
▁Ati	-4784
▁Kak	-4785
▁Sak	-4786
▁gag	-4787
▁hid	-4788
▁imb	-4789
▁inu	-4790
▁kod	-4791
▁pit	-4792
▁ter	-4793
▁win	-4794
BUYOG	-4795
agulo	-4796
alast	-4797
arami	-4798
awaan	-4799
dagat	-4800
ihasa	-4801
sunod	-4802
tuloy	-4803
ugali	-4804
undag	-4805
yaman	-4806
▁Apol	-4807
▁Baka	-4808
▁Cruz	-4809
▁Ibin	-4810
▁Lena	-4811
▁Magk	-4812
▁Selo	-4813
▁alip	-4814
▁alon	-4815
▁asos	-4816
▁banc	-4817
▁dili	-4818
▁ginh	-4819
▁iisa	-4820
▁kaan	-4821
▁kaki	-4822
▁kubo	-4823
▁lilo	-4824
▁lipi	-4825
▁mail	-4826
▁past	-4827
▁poot	-4828
▁saya	-4829
▁suot	-4830
▁taas	-4831
▁tekn	-4832
▁trib	-4833
aklong	-4834
aksaya	-4835
alawak	-4836
alikod	-4837
alista	-4838
alitan	-4839
amanan	-4840
angkop	-4841
antang	-4842
atanaw	-4843
atawat	-4844
awasan	-4845
didato	-4846
erpret	-4847
ihinal	-4848
ikling	-4849
imulan	-4850
itiwan	-4851
uksang	-4852
uwento	-4853
▁Bangk	-4854
▁Dulaw	-4855
▁Enero	-4856
▁Labis	-4857
▁Lawin	-4858
▁Mayor	-4859
▁Papay	-4860
▁Patay	-4861
▁Sinas	-4862
▁Tabor	-4863
▁Tinig	-4864
▁Tiyak	-4865
▁aalis	-4866
▁busog	-4867
▁butas	-4868
▁dampa	-4869
▁diyam	-4870
▁hapag	-4871
▁hinih	-4872
▁humih	-4873
▁ilong	-4874
▁kalig	-4875
▁kanan	-4876
▁kanin	-4877
▁kinag	-4878
▁lakad	-4879
▁maaga	-4880
▁mithi	-4881
▁pader	-4882
▁pahay	-4883
▁payat	-4884
▁pinam	-4885
▁tanod	-4886
▁tulog	-4887
▁tumit	-4888
▁tungo	-4889
▁tuwid	-4890
▁wagas	-4891
abagsak	-4892
akitang	-4893
alataya	-4894
alitong	-4895
atayang	-4896
atingin	-4897
ernador	-4898
ibilang	-4899
iwalang	-4900
sobispo	-4901
▁Ayonan	-4902
▁Delfin	-4903
▁Flores	-4904
▁Ipinas	-4905
▁Kawani	-4906
▁Laging	-4907
▁Malaki	-4908
▁Marcos	-4909
▁Narito	-4910
▁Siyang	-4911
▁bisita	-4912
▁himpap	-4913
▁ipinat	-4914
▁kainin	-4915
▁kaniya	-4916
▁kidlat	-4917
▁korona	-4918
▁labind	-4919
▁lumang	-4920
▁magsis	-4921
▁mahuli	-4922
▁manang	-4923
▁mapagp	-4924
▁nagawa	-4925
▁nagbub	-4926
▁nagpat	-4927
▁nagpup	-4928
▁nangak	-4929
▁nganga	-4930
▁paanan	-4931
▁pantao	-4932
▁sagana	-4933
▁sundin	-4934
▁talaan	-4935
▁tatuan	-4936
alamhati	-4937
isyembre	-4938
uwalhati	-4939
▁BUBUYOG	-4940
▁Cristal	-4941
▁Ipinagt	-4942
▁Lumapit	-4943
▁Panahon	-4944
▁Pinakam	-4945
▁Pumasok	-4946
▁Speaker	-4947
▁balikat	-4948
▁botante	-4949
▁gagamit	-4950
▁hukbong	-4951
▁humarap	-4952
▁iibigin	-4953
▁ipinang	-4954
▁ituring	-4955
▁kalakal	-4956
▁kaugnay	-4957
▁limutin	-4958
▁maaring	-4959
▁mahigit	-4960
▁matiyak	-4961
▁mutyang	-4962
▁nagalit	-4963
▁nangung	-4964
▁niyakap	-4965
▁pahayag	-4966
▁pinggan	-4967
▁pumayag	-4968
▁tangkay	-4969
▁tauhang	-4970
▁teritor	-4971
▁umaawit	-4972
▁Inutusan	-4973
▁Kaibigan	-4974
▁Pilosopo	-4975
▁himlayan	-4976
▁itinatag	-4977
▁kalabasa	-4978
▁kariktan	-4979
▁kawaning	-4980
▁magdamag	-4981
▁marating	-4982
▁naghanda	-4983
▁panganay	-4984
▁Albanyang	-4985
▁Kailangan	-4986
▁Palibhasa	-4987
▁Setyembre	-4988
▁Tipaklong	-4989
▁diyamante	-4990
▁kadiliman	-4991
▁kakaibang	-4992
▁katapatan	-4993
▁nagmumula	-4994
▁nakagapos	-4995
▁nakaraang	-4996
▁nalalaman	-4997
▁pagkawala	-4998
▁pamayanan	-4999
▁pormasyon	-5000
▁Calanutian	-5001
▁kalangitan	-5002
▁kapitbahay	-5003
▁katapangan	-5004
▁kayamanang	-5005
▁magbibigay	-5006
▁nagkasakit	-5007
▁pahintulot	-5008
▁Nagmalitong	-5009
▁iginagalang	-5010
▁ipagtanggol	-5011
▁matatandang	-5012
▁nakatakdang	-5013
▁pribilehiyo	-5014
▁katungkulang	-5015
▁paghihiganti	-5016
▁pangyayaring	-5017
▁pangkabuhayan	-5018
1,	-5019
2:	-5020
AL	-5021
AP	-5022
IT	-5023
Ka	-5024
NG	-5025
ew	-5026
ff	-5027
oc	-5028
pu	-5029
ss	-5030
ade	-5031
ait	-5032
asm	-5033
bat	-5034
ber	-5035
bis	-5036
che	-5037
eto	-5038
goy	-5039
ial	-5040
iha	-5041
kil	-5042
pot	-5043
uho	-5044
uns	-5045
ver	-5046
▁Ek	-5047
▁If	-5048
▁Le	-5049
▁Ul	-5050
▁iw	-5051
Dito	-5052
aant	-5053
abik	-5054
adab	-5055
ansa	-5056
asto	-5057
awng	-5058
ayet	-5059
bura	-5060
daan	-5061
ekto	-5062
enta	-5063
gabi	-5064
ihas	-5065
imik	-5066
ipat	-5067
ipot	-5068
kaya	-5069
kita	-5070
leng	-5071
lian	-5072
tion	-5073
uban	-5074
ugao	-5075
ulum	-5076
umin	-5077
unal	-5078
urog	-5079
usot	-5080
wari	-5081
▁13.	-5082
▁15.	-5083
▁192	-5084
▁197	-5085
▁Ahh	-5086
▁Amb	-5087
▁Gat	-5088
▁Imp	-5089
▁Lus	-5090
▁Nah	-5091
▁Rom	-5092
▁Tat	-5093
▁huw	-5094
▁mul	-5095
▁sen	-5096
▁tel	-5097
▁tib	-5098
▁tur	-5099
abago	-5100
abaon	-5101
alaka	-5102
araos	-5103
ariwa	-5104
arong	-5105
aruga	-5106
ayain	-5107
buwan	-5108
ensya	-5109
etong	-5110
habag	-5111
imtim	-5112
kapal	-5113
syong	-5114
uhing	-5115
uklok	-5116
uluto	-5117
umpis	-5118
ungat	-5119
uotan	-5120
upkop	-5121
wagan	-5122
yerno	-5123
▁Alit	-5124
▁Cebu	-5125
▁Dala	-5126
▁Edad	-5127
▁INDO	-5128
▁Kina	-5129
▁Linc	-5130
▁Luis	-5131
▁Muli	-5132
▁Tiwi	-5133
▁Wika	-5134
▁Yawa	-5135
▁ahas	-5136
▁bany	-5137
▁dami	-5138
▁leeg	-5139
▁magn	-5140
▁ngum	-5141
▁paan	-5142
▁sari	-5143
▁suso	-5144
▁yata	-5145
abatas	-5146
ahanan	-5147
ahirap	-5148
ahusay	-5149
ampung	-5150
angkin	-5151
atagan	-5152
atangi	-5153
awaran	-5154
awngaw	-5155
ikayat	-5156
ilimot	-5157
ubusan	-5158
udulot	-5159
usbong	-5160
▁Anang	-5161
▁Bahay	-5162
▁Buong	-5163
▁Carol	-5164
▁Cayet	-5165
▁Delos	-5166
▁Kawit	-5167
▁Lunes	-5168
▁Minda	-5169
▁Sipag	-5170
▁Tagak	-5171
▁altar	-5172
▁anaki	-5173
▁aniya	-5174
▁antas	-5175
▁armas	-5176
▁balah	-5177
▁bilog	-5178
▁dalag	-5179
▁kagip	-5180
▁kagit	-5181
▁kahus	-5182
▁kamat	-5183
▁kasab	-5184
▁kinab	-5185
▁lamig	-5186
▁malul	-5187
▁masis	-5188
▁napas	-5189
▁panay	-5190
▁pinab	-5191
▁regul	-5192
▁salat	-5193
▁simoy	-5194
▁tagal	-5195
▁takip	-5196
▁tigil	-5197
abagong	-5198
aganaan	-5199
ailalim	-5200
anatili	-5201
aralang	-5202
ayagang	-5203
igdigan	-5204
intuang	-5205
sakahan	-5206
ulaklak	-5207
▁Agosto	-5208
▁Birhen	-5209
▁Dinala	-5210
▁Ifugao	-5211
▁Masaya	-5212
▁Naroon	-5213
▁Nasaan	-5214
▁Nawala	-5215
▁Persiy	-5216
▁Pusong	-5217
▁Simula	-5218
▁Waring	-5219
▁bumoto	-5220
▁buntot	-5221
▁hinang	-5222
▁inagaw	-5223
▁isdang	-5224
▁isipan	-5225
▁kababa	-5226
▁kitang	-5227
▁maayos	-5228
▁maipag	-5229
▁murang	-5230
▁nangag	-5231
▁pagpip	-5232
▁palang	-5233
▁piitan	-5234
▁regalo	-5235
▁tangan	-5236
▁tumayo	-5237
▁tumubo	-5238
ahahahah	-5239
ahiwatig	-5240
andangan	-5241
astangan	-5242
▁Laurang	-5243
▁Liberal	-5244
▁Madalas	-5245
▁Nahalal	-5246
▁Seksyon	-5247
▁Tumutol	-5248
▁bubuyog	-5249
▁gamitin	-5250
▁handang	-5251
▁hihigit	-5252
▁interes	-5253
▁kabiyak	-5254
▁likuran	-5255
▁madilaw	-5256
▁malimit	-5257
▁mananak	-5258
▁matapat	-5259
▁maunlad	-5260
▁nagdaan	-5261
▁nagsasa	-5262
▁namuhay	-5263
▁pagsuyo	-5264
▁palayok	-5265
▁pulbura	-5266
▁sinulat	-5267
▁tinapay	-5268
▁tirahan	-5269
▁tumakas	-5270
anggunian	-5271
anyayahan	-5272
ikilalang	-5273
intulutan	-5274
▁Cayetano	-5275
▁Masayang	-5276
▁Napansin	-5277
▁Serbisyo	-5278
▁bulwagan	-5279
▁bumagsak	-5280
▁halalang	-5281
▁hiniling	-5282
▁inihanda	-5283
▁katumbas	-5284
▁kultural	-5285
▁kulungan	-5286
▁kuwartel	-5287
▁kwalipik	-5288
▁magharap	-5289
▁maglagda	-5290
▁magtungo	-5291
▁malamang	-5292
▁mawawala	-5293
▁nagdulot	-5294
▁pagkaing	-5295
▁pagpapak	-5296
▁pagsinta	-5297
▁pagsubok	-5298
▁programa	-5299
▁Arsobispo	-5300
▁Disyembre	-5301
▁Halimbawa	-5302
▁Itinanong	-5303
▁alitaptap	-5304
▁ituturing	-5305
▁kapakanan	-5306
▁kasulatan	-5307
▁lansangan	-5308
▁magsalita	-5309
▁manirahan	-5310
▁maririnig	-5311
▁mayayaman	-5312
▁naglakbay	-5313
▁nakahanda	-5314
▁pagkabata	-5315
▁paglingap	-5316
▁pagtulong	-5317
▁papalapit	-5318
▁Gagalangin	-5319
▁Humadapnon	-5320
▁Pambansang	-5321
▁hinahangad	-5322
▁inaasahang	-5323
▁kasarinlan	-5324
▁katangiang	-5325
▁magpatuloy	-5326
▁nagpatuloy	-5327
▁paghahanda	-5328
▁pansakahan	-5329
▁Isinalaysay	-5330
▁Komisyonado	-5331
▁Nalandangan	-5332
▁itinuturing	-5333
▁nagtataglay	-5334
▁pagpupulong	-5335
▁pagsasalita	-5336
▁pamamalakad	-5337
▁mahahalagang	-5338
▁pangangalaga	-5339
▁magkasintahan	-5340
8)	-5341
9.	-5342
99	-5343
amt	-5344
atr	-5345
dim	-5346
eds	-5347
emp	-5348
hap	-5349
hoy	-5350
ima	-5351
ine	-5352
ipa	-5353
ipi	-5354
iso	-5355
kep	-5356
lus	-5357
omm	-5358
ort	-5359
rit	-5360
yaw	-5361
zar	-5362
▁(2	-5363
▁28	-5364
▁NG	-5365
▁Ut	-5366
▁dr	-5367
Wala	-5368
agis	-5369
apad	-5370
apas	-5371
apis	-5372
asta	-5373
atat	-5374
cial	-5375
edya	-5376
enep	-5377
hing	-5378
ikaw	-5379
ikom	-5380
ilas	-5381
inip	-5382
isap	-5383
itig	-5384
itis	-5385
kayo	-5386
mana	-5387
oche	-5388
opol	-5389
ract	-5390
rade	-5391
rong	-5392
seng	-5393
taon	-5394
ugay	-5395
uhog	-5396
ukob	-5397
ukod	-5398
ulos	-5399
unat	-5400
uway	-5401
waan	-5402
wela	-5403
▁17.	-5404
▁18.	-5405
▁25,	-5406
▁Art	-5407
▁Dor	-5408
▁Edo	-5409
▁Lop	-5410
▁Mam	-5411
▁Sis	-5412
▁Sto	-5413
▁Val	-5414
▁aut	-5415
▁lup	-5416
▁por	-5417
alake	-5418
alogo	-5419
ambit	-5420
angat	-5421
anggo	-5422
angka	-5423
apati	-5424
arama	-5425
atiin	-5426
diong	-5427
emang	-5428
igaan	-5429
ikaan	-5430
iliin	-5431
imdim	-5432
imlan	-5433
orneo	-5434
sabay	-5435
salin	-5436
yakap	-5437
▁(194	-5438
▁Gabi	-5439
▁Kami	-5440
▁Lila	-5441
▁Lupa	-5442
▁Naku	-5443
▁Pres	-5444
▁Sina	-5445
▁abot	-5446
▁alag	-5447
▁amoy	-5448
▁gulo	-5449
▁huni	-5450
▁ikab	-5451
▁inia	-5452
▁isus	-5453
▁kaay	-5454
▁kuta	-5455
▁lima	-5456
▁luma	-5457
▁mari	-5458
▁misa	-5459
▁naib	-5460
▁nanl	-5461
▁nawa	-5462
▁palo	-5463
▁sakl	-5464
▁sert	-5465
▁tala	-5466
abango	-5467
abigla	-5468
abutan	-5469
agdaan	-5470
aguita	-5471
aklolo	-5472
alabis	-5473
alinga	-5474
alipad	-5475
amalas	-5476
anggay	-5477
apasok	-5478
apunan	-5479
asaluk	-5480
asanay	-5481
asinan	-5482
atoryo	-5483
iisang	-5484
ikilos	-5485
ilitis	-5486
inhawa	-5487
itente	-5488
omongo	-5489
otoong	-5490
ratiko	-5491
ubukas	-5492
ulitin	-5493
▁Akong	-5494
▁Datap	-5495
▁Gansa	-5496
▁Hibik	-5497
▁Kaysa	-5498
▁Komon	-5499
▁Leeds	-5500
▁Likal	-5501
▁Paano	-5502
▁Pluto	-5503
▁Sanhi	-5504
▁Timog	-5505
▁Tubig	-5506
▁agong	-5507
▁alang	-5508
▁alila	-5509
▁anang	-5510
▁balit	-5511
▁baliw	-5512
▁banda	-5513
▁bayad	-5514
▁benep	-5515
▁binub	-5516
▁budhi	-5517
▁dahas	-5518
▁disin	-5519
▁dukha	-5520
▁gulay	-5521
▁kapur	-5522
▁kaunl	-5523
▁kinak	-5524
▁lubha	-5525
▁mamah	-5526
▁mutya	-5527
▁naaal	-5528
▁nabab	-5529
▁nalag	-5530
▁nanun	-5531
▁pasub	-5532
▁pulit	-5533
▁rebol	-5534
▁sadya	-5535
▁salin	-5536
▁sayaw	-5537
▁segur	-5538
▁sisiw	-5539
▁sunog	-5540
▁susog	-5541
▁tangg	-5542
▁tiyan	-5543
▁umano	-5544
akiusap	-5545
alayaan	-5546
aligtas	-5547
amandag	-5548
aririto	-5549
erasyon	-5550
etongin	-5551
iglahin	-5552
ilimbag	-5553
imagsik	-5554
indigan	-5555
itikang	-5556
iyahang	-5557
olacion	-5558
uluhang	-5559
umpisal	-5560
umunuan	-5561
untunan	-5562
▁Ateneo	-5563
▁Daldal	-5564
▁Deputy	-5565
▁Ganyan	-5566
▁Iniwan	-5567
▁Linceo	-5568
▁Palaka	-5569
▁alagad	-5570
▁alamin	-5571
▁bangin	-5572
▁buksan	-5573
▁damong	-5574
▁diwang	-5575
▁dumalo	-5576
▁gising	-5577
▁hating	-5578
▁ipinak	-5579
▁kaliwa	-5580
▁kaming	-5581
▁katalo	-5582
▁langis	-5583
▁ligtas	-5584
▁lumayo	-5585
▁nagdar	-5586
▁naghih	-5587
▁paalam	-5588
▁pagkad	-5589
▁pagkal	-5590
▁pamana	-5591
▁pataas	-5592
▁pinana	-5593
▁saysay	-5594
▁sining	-5595
▁tainga	-5596
▁tamang	-5597
▁tinang	-5598
akasakit	-5599
alahanin	-5600
alingang	-5601
eachment	-5602
▁Bubuyog	-5603
▁Bumalik	-5604
▁Demeter	-5605
▁Humingi	-5606
▁Ipinagb	-5607
▁Mariang	-5608
▁Matagal	-5609
▁Nagtaka	-5610
▁Nakapag	-5611
▁Pedrito	-5612
▁batayan	-5613
▁buntung	-5614
▁ginhawa	-5615
▁hilahil	-5616
▁iligtas	-5617
▁inahing	-5618
▁iniisip	-5619
▁kabuuan	-5620
▁kadahil	-5621
▁kahabag	-5622
▁kahapon	-5623
▁kalapit	-5624
▁kandila	-5625
▁kukunin	-5626
▁lingkod	-5627
▁lumipat	-5628
▁maglaan	-5629
▁maingat	-5630
▁malubha	-5631
▁mapalad	-5632
▁marahas	-5633
▁marikit	-5634
▁masakit	-5635
▁nagturo	-5636
▁nakatat	-5637
▁nakaupo	-5638
▁nanging	-5639
▁natakot	-5640
▁paglaya	-5641
▁pagpili	-5642
▁pananaw	-5643
▁papayag	-5644
▁partido	-5645
▁sapitin	-5646
▁sumakay	-5647
▁trabaho	-5648
▁umagang	-5649
aramdaman	-5650
▁Amomongo	-5651
▁Dominiko	-5652
▁Gabinete	-5653
▁Madaling	-5654
▁Makiling	-5655
▁Maybahay	-5656
▁Maykapal	-5657
▁Nagbalik	-5658
▁National	-5659
▁Soloista	-5660
▁dalagita	-5661
▁dingding	-5662
▁hukumang	-5663
▁iniharap	-5664
▁isaalang	-5665
▁kadakila	-5666
▁katauhan	-5667
▁kawalang	-5668
▁ketongin	-5669
▁mabangis	-5670
▁magalang	-5671
▁makakain	-5672
▁manatili	-5673
▁masagana	-5674
▁masaklap	-5675
▁nagpapat	-5676
▁nagtuloy	-5677
▁nakitang	-5678
▁orihinal	-5679
▁paghanga	-5680
▁pagkakah	-5681
▁pagkilos	-5682
▁paglusob	-5683
▁palamuti	-5684
▁panlahat	-5685
▁parusang	-5686
▁patnubay	-5687
▁pinunong	-5688
▁taguring	-5689
▁taludtod	-5690
▁tumanggi	-5691
▁Kastilang	-5692
▁Nagpaalam	-5693
▁Nagtanong	-5694
▁Panginoon	-5695
▁Penitente	-5696
▁guwardiya	-5697
▁hahanapin	-5698
▁halamanan	-5699
▁isinilang	-5700
▁kabataang	-5701
▁kagagawan	-5702
▁kalikasan	-5703
▁kasayahan	-5704
▁kasunduan	-5705
▁kaukulang	-5706
▁maunawaan	-5707
▁nakikinig	-5708
▁propesyon	-5709
▁sinalakay	-5710
▁tangkilik	-5711
alingawngaw	-5712
erpretasyon	-5713
▁Mitolohiya	-5714
▁ipinahayag	-5715
▁kababayang	-5716
▁kagustuhan	-5717
▁kakayahang	-5718
▁kalupunang	-5719
▁kasaganaan	-5720
▁natuklasan	-5721
▁pagbabalik	-5722
▁pagkaraang	-5723
▁paglalakad	-5724
▁patakarang	-5725
▁pinagtibay	-5726
▁resolusyon	-5727
▁sinalubong	-5728
▁Consolacion	-5729
▁impeachment	-5730
▁mangingisda	-5731
▁nagsasabing	-5732
▁pasasalamat	-5733
▁kinalalagyan	-5734
▁makatarungan	-5735
▁organisasyon	-5736
▁pagkakasakit	-5737
▁pagtatanghal	-5738
▁salamangkero	-5739
▁maratipikahan	-5740
▁pinakamalaking	-5741
'-	-5742
0)	-5743
4:	-5744
IP	-5745
It	-5746
SA	-5747
UN	-5748
bo	-5749
mm	-5750
se	-5751
sh	-5752
▁:	-5753
Mak	-5754
Man	-5755
akt	-5756
atn	-5757
bid	-5758
can	-5759
dak	-5760
dia	-5761
egr	-5762
ibe	-5763
kis	-5764
kob	-5765
kol	-5766
ond	-5767
reg	-5768
ros	-5769
tad	-5770
uev	-5771
yol	-5772
▁"'	-5773
▁1,	-5774
▁Jr	-5775
▁Me	-5776
▁et	-5777
▁ir	-5778
▁oh	-5779
▁up	-5780
Solo	-5781
aani	-5782
agon	-5783
agos	-5784
alul	-5785
edur	-5786
emor	-5787
enan	-5788
ence	-5789
ersa	-5790
eryo	-5791
etro	-5792
ibol	-5793
ikim	-5794
illa	-5795
itag	-5796
itil	-5797
itng	-5798
kepu	-5799
list	-5800
maya	-5801
mong	-5802
oduk	-5803
onco	-5804
puno	-5805
roso	-5806
ugto	-5807
uhaw	-5808
ukas	-5809
ulok	-5810
unao	-5811
unaw	-5812
unig	-5813
unpu	-5814
upil	-5815
uyos	-5816
wahe	-5817
welt	-5818
▁(6)	-5819
▁186	-5820
▁19.	-5821
▁191	-5822
▁ANG	-5823
▁Bay	-5824
▁Buy	-5825
▁Cor	-5826
▁Hon	-5827
▁Lad	-5828
▁Lis	-5829
▁Noo	-5830
▁Rog	-5831
▁Tok	-5832
▁akt	-5833
▁bil	-5834
▁daa	-5835
▁des	-5836
▁hab	-5837
▁haw	-5838
▁mum	-5839
▁tar	-5840
▁the	-5841
▁tik	-5842
aayos	-5843
abata	-5844
abato	-5845
ainan	-5846
andaa	-5847
anhik	-5848
araya	-5849
ektor	-5850
encia	-5851
ganda	-5852
iikan	-5853
ingas	-5854
intik	-5855
ipiko	-5856
itlog	-5857
loria	-5858
ority	-5859
pakan	-5860
tapat	-5861
tazar	-5862
udyat	-5863
ughaw	-5864
uhong	-5865
ukuha	-5866
uning	-5867
untik	-5868
unyag	-5869
uwahe	-5870
uwing	-5871
▁(193	-5872
▁City	-5873
▁Duri	-5874
▁Edna	-5875
▁Etol	-5876
▁Hong	-5877
▁Magh	-5878
▁Magt	-5879
▁Nana	-5880
▁Pabl	-5881
▁Sora	-5882
▁Unti	-5883
▁bend	-5884
▁biro	-5885
▁buny	-5886
▁daga	-5887
▁eksk	-5888
▁hagd	-5889
▁ikag	-5890
▁ipat	-5891
▁kaal	-5892
▁kabo	-5893
▁kala	-5894
▁krim	-5895
▁maih	-5896
▁mamb	-5897
▁nand	-5898
▁pagm	-5899
▁pers	-5900
▁prot	-5901
▁real	-5902
▁sira	-5903
▁tali	-5904
▁ubod	-5905
aasawa	-5906
abagin	-5907
adyang	-5908
agalan	-5909
agling	-5910
agupit	-5911
ahanga	-5912
alanin	-5913
alanta	-5914
alawan	-5915
alipat	-5916
amitan	-5917
apagal	-5918
arinig	-5919
aryong	-5920
athala	-5921
awakas	-5922
awarin	-5923
daling	-5924
edurug	-5925
ibabaw	-5926
ibitiw	-5927
ilinan	-5928
ilyero	-5929
indaya	-5930
ingang	-5931
ingwit	-5932
isinta	-5933
iwasan	-5934
ouncil	-5935
samang	-5936
ukulan	-5937
umanon	-5938
ungkol	-5939
untong	-5940
utyang	-5941
uugali	-5942
walong	-5943
▁Banal	-5944
▁Bukod	-5945
▁Gusto	-5946
▁Iyang	-5947
▁Luzon	-5948
▁Nanun	-5949
▁Palay	-5950
▁Pasko	-5951
▁Timot	-5952
▁alaga	-5953
▁bahag	-5954
▁batid	-5955
▁batok	-5956
▁bigay	-5957
▁binti	-5958
▁bubog	-5959
▁bumuo	-5960
▁buuin	-5961
▁datap	-5962
▁diyan	-5963
▁iglap	-5964
▁kalan	-5965
▁kalaw	-5966
▁katak	-5967
▁kinap	-5968
▁kinas	-5969
▁kinau	-5970
▁kodla	-5971
▁kulog	-5972
▁lason	-5973
▁liban	-5974
▁ligaw	-5975
▁lugod	-5976
▁maest	-5977
▁mahim	-5978
▁malam	-5979
▁mandi	-5980
▁masus	-5981
▁matin	-5982
▁matit	-5983
▁nahuh	-5984
▁pamil	-5985
▁pangw	-5986
▁papag	-5987
▁patut	-5988
▁punta	-5989
▁repor	-5990
▁salam	-5991
▁tinub	-5992
▁umupo	-5993
▁yapak	-5994
Epikong	-5995
abangon	-5996
adaling	-5997
agawang	-5998
akilang	-5999
alagtas	-6000
alooban	-6001
angging	-6002
arasyon	-6003
arronco	-6004
atwiran	-6005
ehistro	-6006
entuhan	-6007
enyente	-6008
istahan	-6009
ractice	-6010
uhunang	-6011
umbalik	-6012
umbayan	-6013
uusapan	-6014
▁Anggoy	-6015
▁Binata	-6016
▁Borneo	-6017
▁Doktor	-6018
▁Hangga	-6019
▁Ibigin	-6020
▁Kumuha	-6021
▁Ladlaw	-6022
▁Lisuga	-6023
▁Martin	-6024
▁Nacion	-6025
▁Nitong	-6026
▁Rosita	-6027
▁Saglit	-6028
▁Sining	-6029
▁Talisa	-6030
▁adhika	-6031
▁bahala	-6032
▁dagdag	-6033
▁dulaan	-6034
▁gerero	-6035
▁ikinab	-6036
▁kampan	-6037
▁kanang	-6038
▁kawili	-6039
▁kislap	-6040
▁mangga	-6041
▁mapagm	-6042
▁maputi	-6043
▁nabigo	-6044
▁nagkat	-6045
▁napang	-6046
▁nasaan	-6047
▁nasabi	-6048
▁nasang	-6049
▁pagnan	-6050
▁pampan	-6051
▁pinaka	-6052
▁silong	-6053
▁sumang	-6054
▁taghoy	-6055
▁taksil	-6056
▁talang	-6057
▁tanang	-6058
▁umibig	-6059
alathala	-6060
atutupad	-6061
aysayang	-6062
ibustero	-6063
▁Amerika	-6064
▁Antenor	-6065
▁Halalan	-6066
▁Hayaang	-6067
▁Inakala	-6068
▁Itinuro	-6069
▁Kasunod	-6070
▁Katulad	-6071
▁Libulan	-6072
▁Minango	-6073
▁Osmalik	-6074
▁Pumayag	-6075
▁Salamat	-6076
▁Tingnan	-6077
▁Tinungo	-6078
▁bagamat	-6079
▁balaraw	-6080
▁bandang	-6081
▁basahin	-6082
▁bayabas	-6083
▁diumano	-6084
▁dumalaw	-6085
▁gumamit	-6086
▁halimaw	-6087
▁harapan	-6088
▁industr	-6089
▁itinuro	-6090
▁lalapit	-6091
▁lumaban	-6092
▁magsisi	-6093
▁mahilig	-6094
▁mahulog	-6095
▁nakapan	-6096
▁pagsasa	-6097
▁palayaw	-6098
▁palihim	-6099
▁pamagat	-6100
▁ratipik	-6101
▁saklolo	-6102
▁sangkap	-6103
▁tagapam	-6104
▁talulot	-6105
▁tumungo	-6106
▁umiiyak	-6107
▁umunlad	-6108
asalubong	-6109
stitusyon	-6110
▁Adolfong	-6111
▁Artikulo	-6112
▁Batangas	-6113
▁Hinirang	-6114
▁Hongkong	-6115
▁Kalayaan	-6116
▁Mayroong	-6117
▁Naggayak	-6118
▁Nagpunta	-6119
▁Naririto	-6120
▁Penchang	-6121
▁Tinagong	-6122
▁batayang	-6123
▁baybayin	-6124
▁bibigyan	-6125
▁dadalhin	-6126
▁dahilang	-6127
▁dinatnan	-6128
▁giniikan	-6129
▁hinagpis	-6130
▁ibibigay	-6131
▁itinapon	-6132
▁karuwahe	-6133
▁kundiman	-6134
▁mabigyan	-6135
▁makilala	-6136
▁makipagk	-6137
▁natutong	-6138
▁personal	-6139
▁rebolber	-6140
▁sabihing	-6141
▁salungat	-6142
▁silangan	-6143
▁sinasabi	-6144
▁sumiklab	-6145
▁tagapayo	-6146
▁tahanang	-6147
▁talampas	-6148
▁tribunal	-6149
▁tuwirang	-6150
agkaibigan	-6151
alinlangan	-6152
apangasawa	-6153
sengedurug	-6154
▁Alitaptap	-6155
▁Kamatayan	-6156
▁Komonwelt	-6157
▁Nabanggit	-6158
▁Nagsimula	-6159
▁Nalungkot	-6160
▁Paghirang	-6161
▁baranggay	-6162
▁benepisyo	-6163
▁binanggit	-6164
▁damdaming	-6165
▁gagamitin	-6166
▁humihingi	-6167
▁kagipitan	-6168
▁kalupunan	-6169
▁kandidato	-6170
▁karaniwan	-6171
▁kasipagan	-6172
▁kaugnayan	-6173
▁magsimula	-6174
▁mahimbing	-6175
▁makabayan	-6176
▁malalakas	-6177
▁maliwanag	-6178
▁mistulang	-6179
▁namumuhay	-6180
▁natatakot	-6181
▁natutuhan	-6182
▁nilalaman	-6183
▁pagsusuri	-6184
▁panunumpa	-6185
▁seguruhin	-6186
▁sinaunang	-6187
▁sistemang	-6188
▁siyamnapu	-6189
▁tagubilin	-6190
arroncocido	-6191
▁Isinusumpa	-6192
▁Kinikilala	-6193
▁Nakarating	-6194
▁Pangasinan	-6195
▁Pangumanon	-6196
▁dumarating	-6197
▁engkantado	-6198
▁himpapawid	-6199
▁instrument	-6200
▁kababaihan	-6201
▁kagitingan	-6202
▁kalagayang	-6203
▁kalahating	-6204
▁maningning	-6205
▁masaganang	-6206
▁matatapang	-6207
▁pagkakaisa	-6208
▁pananalita	-6209
▁pasiglahin	-6210
▁pinanaugan	-6211
▁pinuntahan	-6212
▁Likalibutan	-6213
▁kahalagahan	-6214
▁magkakaroon	-6215
▁mapangasawa	-6216
▁pagbabagong	-6217
▁paghihintay	-6218
▁pakikilaban	-6219
▁pangalawang	-6220
▁sandatahang	-6221
▁Nacionalista	-6222
▁ipinagkaloob	-6223
▁konstitusyon	-6224
▁naaalinsunod	-6225
▁pagmamahalan	-6226
▁pagpapahayag	-6227
▁pagsasagamit	-6228
▁pananaliksik	-6229
▁pananghalian	-6230
▁pagsasalaysay	-6231
▁Camarroncocido	-6232
▁Nanunungkulang	-6233
")	-6234
6,	-6235
7:	-6236
9:	-6237
AH	-6238
AS	-6239
Pa	-6240
cu	-6241
ev	-6242
gl	-6243
ke	-6244
kt	-6245
za	-6246
▁f	-6247
Pin	-6248
asi	-6249
ces	-6250
eat	-6251
ecs	-6252
eno	-6253
erc	-6254
ere	-6255
etr	-6256
eus	-6257
hay	-6258
ico	-6259
ige	-6260
iig	-6261
kam	-6262
kaw	-6263
kon	-6264
leg	-6265
lin	-6266
lum	-6267
mal	-6268
ngi	-6269
obl	-6270
omb	-6271
ook	-6272
rid	-6273
rip	-6274
uer	-6275
ugb	-6276
urn	-6277
uta	-6278
uth	-6279
yos	-6280
yth	-6281
▁13	-6282
▁Ch	-6283
▁Hu	-6284
▁Jo	-6285
▁Mr	-6286
▁Oo	-6287
▁Ts	-6288
▁mg	-6289
▁on	-6290
▁ts	-6291
abis	-6292
abok	-6293
abon	-6294
ahol	-6295
alos	-6296
amar	-6297
anib	-6298
apor	-6299
asam	-6300
emok	-6301
esus	-6302
ight	-6303
ilyo	-6304
insa	-6305
iong	-6306
isid	-6307
iyab	-6308
ktub	-6309
lahi	-6310
ogan	-6311
oras	-6312
oval	-6313
potl	-6314
sala	-6315
taka	-6316
ugma	-6317
ugso	-6318
ukat	-6319
ulag	-6320
ulas	-6321
ulid	-6322
utya	-6323
uwat	-6324
uyin	-6325
wili	-6326
▁(7)	-6327
▁196	-6328
▁Ale	-6329
▁Bik	-6330
▁Fel	-6331
▁Ger	-6332
▁Gob	-6333
▁Hag	-6334
▁KAP	-6335
▁Kul	-6336
▁Lag	-6337
▁Lub	-6338
▁Med	-6339
▁Pap	-6340
▁Sic	-6341
▁Sil	-6342
▁Sol	-6343
▁Sup	-6344
▁Tur	-6345
▁Yao	-6346
▁bol	-6347
▁cor	-6348
▁dam	-6349
▁diy	-6350
▁esk	-6351
▁hul	-6352
▁kup	-6353
▁let	-6354
▁lut	-6355
▁nun	-6356
▁pop	-6357
▁tad	-6358
abula	-6359
adpad	-6360
ambot	-6361
apaap	-6362
bitin	-6363
ecson	-6364
edium	-6365
endum	-6366
handa	-6367
ialam	-6368
idlip	-6369
ilong	-6370
inggo	-6371
inlim	-6372
intab	-6373
ipong	-6374
iraos	-6375
katlo	-6376
liyaw	-6377
obong	-6378
opiya	-6379
resya	-6380
saing	-6381
sayaw	-6382
ukala	-6383
uyuko	-6384
▁(195	-6385
▁(196	-6386
▁Agio	-6387
▁Alin	-6388
▁Awit	-6389
▁Bali	-6390
▁Buod	-6391
▁Comm	-6392
▁Dali	-6393
▁Espa	-6394
▁Gaya	-6395
▁Ilan	-6396
▁Lalo	-6397
▁Pagl	-6398
▁Pagt	-6399
▁Pamp	-6400
▁Panl	-6401
▁Sabi	-6402
▁alay	-6403
▁dekl	-6404
▁hina	-6405
▁hiya	-6406
▁inam	-6407
▁isas	-6408
▁mali	-6409
▁nami	-6410
▁pagn	-6411
▁pain	-6412
▁pako	-6413
▁sapa	-6414
▁sulo	-6415
▁tubo	-6416
▁tugt	-6417
▁ulam	-6418
▁writ	-6419
aalaga	-6420
agisag	-6421
aglahi	-6422
ahayan	-6423
alahad	-6424
alalan	-6425
alapad	-6426
alawig	-6427
alayag	-6428
alisan	-6429
anawan	-6430
aranas	-6431
asundo	-6432
atahan	-6433
atakas	-6434
ayakap	-6435
bisito	-6436
entral	-6437
hanang	-6438
hiyang	-6439
igilin	-6440
iingat	-6441
iliyag	-6442
inigil	-6443
insala	-6444
inting	-6445
isahan	-6446
iskano	-6447
itngit	-6448
iwalag	-6449
ktubre	-6450
ngkong	-6451
oblema	-6452
syento	-6453
ubukin	-6454
ukiran	-6455
unduan	-6456
uwagan	-6457
▁Akala	-6458
▁Atlas	-6459
▁Audit	-6460
▁Banna	-6461
▁Bruno	-6462
▁Bulan	-6463
▁Honor	-6464
▁Kalig	-6465
▁Makat	-6466
▁Masas	-6467
▁Naawa	-6468
▁Nakas	-6469
▁Napat	-6470
▁Reyno	-6471
▁Tenor	-6472
▁Tunay	-6473
▁Umaga	-6474
▁abala	-6475
▁bukod	-6476
▁dumad	-6477
▁gatas	-6478
▁hugis	-6479
▁kakah	-6480
▁kanal	-6481
▁kapus	-6482
▁kasam	-6483
▁kated	-6484
▁katuw	-6485
▁lipad	-6486
▁lipos	-6487
▁liyag	-6488
▁lulan	-6489
▁magug	-6490
▁makag	-6491
▁mapak	-6492
▁mismo	-6493
▁nagka	-6494
▁napan	-6495
▁panyo	-6496
▁party	-6497
▁pawis	-6498
▁pipit	-6499
▁pugon	-6500
▁purok	-6501
▁refer	-6502
▁sahig	-6503
▁santo	-6504
▁sarap	-6505
▁sunod	-6506
▁talas	-6507
▁tibay	-6508
▁tinal	-6509
▁tuhod	-6510
▁tutol	-6511
▁wasto	-6512
Salamat	-6513
akbuhan	-6514
akdaang	-6515
akitaan	-6516
aligaya	-6517
amtaman	-6518
apitong	-6519
arangal	-6520
arangan	-6521
atayuan	-6522
ilinang	-6523
impalad	-6524
indihan	-6525
iwayway	-6526
umanhin	-6527
utulong	-6528
▁Abyang	-6529
▁Batooy	-6530
▁Buyung	-6531
▁Carlos	-6532
▁Diyosa	-6533
▁Dumaan	-6534
▁Dunong	-6535
▁Gloria	-6536
▁Gresya	-6537
▁Inisip	-6538
▁Linggo	-6539
▁Madrid	-6540
▁Maliit	-6541
▁Naiwan	-6542
▁Pecson	-6543
▁Presid	-6544
▁Tumayo	-6545
▁Umalis	-6546
▁amihan	-6547
▁anghel	-6548
▁aralin	-6549
▁awitin	-6550
▁bagang	-6551
▁bughaw	-6552
▁dahong	-6553
▁dusang	-6554
▁entity	-6555
▁espada	-6556
▁ganang	-6557
▁hangal	-6558
▁himala	-6559
▁hudyat	-6560
▁kaagaw	-6561
▁kaakit	-6562
▁kamang	-6563
▁kapang	-6564
▁karamp	-6565
▁lungga	-6566
▁mabisa	-6567
▁mahaba	-6568
▁mainit	-6569
▁makain	-6570
▁minana	-6571
▁musiko	-6572
▁nagpak	-6573
▁nagsil	-6574
▁narito	-6575
▁natalo	-6576
▁natamo	-6577
▁pagbib	-6578
▁pagbub	-6579
▁pagkuk	-6580
▁pampam	-6581
▁pansit	-6582
▁parusa	-6583
▁pastol	-6584
▁perang	-6585
▁pinags	-6586
▁pinili	-6587
▁pisngi	-6588
▁saklaw	-6589
▁sansin	-6590
▁tahana	-6591
▁telegr	-6592
▁walong	-6593
ahangaan	-6594
alaganap	-6595
alarawan	-6596
ampangan	-6597
angkahoy	-6598
ighatian	-6599
mamalaki	-6600
potlight	-6601
urusahan	-6602
▁Babalik	-6603
▁Bagamat	-6604
▁Council	-6605
▁Daigdig	-6606
▁Hapones	-6607
▁Karapat	-6608
▁Lalabas	-6609
▁Matulog	-6610
▁Naalala	-6611
▁Natakot	-6612
▁Pranses	-6613
▁Reynong	-6614
▁Timoteo	-6615
▁aliping	-6616
▁autonom	-6617
▁bakante	-6618
▁bawasan	-6619
▁busilak	-6620
▁dinggin	-6621
▁gaanong	-6622
▁hidwaan	-6623
▁ikaapat	-6624
▁inilaan	-6625
▁itataas	-6626
▁kabihas	-6627
▁karwahe	-6628
▁kastila	-6629
▁katipan	-6630
▁kawalan	-6631
▁lalabas	-6632
▁mababaw	-6633
▁magkaka	-6634
▁mapatay	-6635
▁matikas	-6636
▁nabuwal	-6637
▁nagbago	-6638
▁nagdala	-6639
▁napakat	-6640
▁naunang	-6641
▁negrito	-6642
▁pagbasa	-6643
▁pagpapa	-6644
▁panulat	-6645
▁pautang	-6646
▁pisikal	-6647
▁pumatay	-6648
▁salamat	-6649
▁sinasak	-6650
▁sobrang	-6651
▁sumikat	-6652
▁sumisid	-6653
▁supling	-6654
▁takdang	-6655
▁tuluyan	-6656
▁tumanda	-6657
▁tumugon	-6658
▁watawat	-6659
andaigdig	-6660
anggalang	-6661
ibilanggo	-6662
inabangan	-6663
istradong	-6664
▁Alindaya	-6665
▁Baltazar	-6666
▁Carolino	-6667
▁Dulliyaw	-6668
▁Espanyol	-6669
▁Kapitana	-6670
▁Magulang	-6671
▁Naalaala	-6672
▁Narating	-6673
▁Pambansa	-6674
▁Sandoval	-6675
▁Talisain	-6676
▁Tulungan	-6677
▁bersiyon	-6678
▁bibigkas	-6679
▁binuksan	-6680
▁gampanan	-6681
▁gobyerno	-6682
▁gumaling	-6683
▁gunitain	-6684
▁halagang	-6685
▁ipalabas	-6686
▁isinulat	-6687
▁itinanim	-6688
▁kaayusan	-6689
▁kampupot	-6690
▁kasuotan	-6691
▁kinakain	-6692
▁komisyon	-6693
▁magbayad	-6694
▁magbigay	-6695
▁magising	-6696
▁magiting	-6697
▁magkakas	-6698
▁makapags	-6699
▁masining	-6700
▁naglalag	-6701
▁nagtatag	-6702
▁paggiliw	-6703
▁paghawak	-6704
▁paglutas	-6705
▁pagmamay	-6706
▁pagsunod	-6707
▁pamalagi	-6708
▁panaghoy	-6709
▁panimdim	-6710
▁puntahan	-6711
▁rehiyong	-6712
▁salaming	-6713
▁sariwang	-6714
▁tagapagl	-6715
▁tanghali	-6716
▁tanungin	-6717
▁tatlumpu	-6718
▁tinatang	-6719
▁tumulong	-6720
apastangan	-6721
▁Kagawaran	-6722
▁Macapagal	-6723
▁Magsaysay	-6724
▁asosasyon	-6725
▁ipinakita	-6726
▁kabanalan	-6727
▁kalupitan	-6728
▁kalusugan	-6729
▁kamahalan	-6730
▁kandungan	-6731
▁kapatagan	-6732
▁kasamaang	-6733
▁kilalanin	-6734
▁makabalik	-6735
▁matagpuan	-6736
▁matatawag	-6737
▁naglahong	-6738
▁nagsisisi	-6739
▁nakasakay	-6740
▁pagsilang	-6741
▁pagtatalo	-6742
▁pangalawa	-6743
▁parusahan	-6744
▁pasalamat	-6745
▁patungong	-6746
▁plebisito	-6747
▁porsyento	-6748
▁repormang	-6749
▁sinasamba	-6750
▁tradisyon	-6751
itolohiyang	-6752
▁Panitikang	-6753
▁Salawikain	-6754
▁alalahanin	-6755
▁binibigkas	-6756
▁engkantada	-6757
▁ginintuang	-6758
▁ipagkaloob	-6759
▁itinatakda	-6760
▁kabalagtas	-6761
▁kadakilaan	-6762
▁kapirasong	-6763
▁kinikilala	-6764
▁lingkurang	-6765
▁maghiganti	-6766
▁maglingkod	-6767
▁magpakasal	-6768
▁makatulong	-6769
▁masasabing	-6770
▁masasayang	-6771
▁matalinong	-6772
▁nagpasalin	-6773
▁nasasaklaw	-6774
▁pagkabuhay	-6775
▁paglilitis	-6776
▁pagtatanim	-6777
▁pangunguna	-6778
▁referendum	-6779
▁salawikain	-6780
▁sumailalim	-6781
▁tungkuling	-6782
▁tutulungan	-6783
apangyarihan	-6784
▁Pransiskano	-6785
▁deklarasyon	-6786
▁katedratiko	-6787
▁maglalakbay	-6788
▁nagtagumpay	-6789
▁nakalimutan	-6790
▁pangasiwaan	-6791
▁tagapagmana	-6792
▁labingwalong	-6793
▁mangyayaring	-6794
▁paglalarawan	-6795
▁pagtatanggol	-6796
▁pinamumunuan	-6797
▁labindalawang	-6798
▁napakagandang	-6799
▁pagkakapantay	-6800
▁pagpapahalaga	-6801
▁pananampalataya	-6802
1)	-6803
2,	-6804
4.	-6805
78	-6806
9)	-6807
IL	-6808
ST	-6809
vo	-6810
Bal	-6811
ING	-6812
Ina	-6813
Ing	-6814
Mab	-6815
Mal	-6816
Tut	-6817
adl	-6818
ams	-6819
aon	-6820
arl	-6821
bal	-6822
bit	-6823
dad	-6824
eda	-6825
eks	-6826
gon	-6827
inl	-6828
kit	-6829
mag	-6830
mah	-6831
mak	-6832
mar	-6833
mga	-6834
opo	-6835
ork	-6836
osa	-6837
pus	-6838
rer	-6839
roc	-6840
uba	-6841
udi	-6842
ulg	-6843
uos	-6844
wat	-6845
wis	-6846
▁(3	-6847
▁11	-6848
▁AT	-6849
▁Ca	-6850
▁Co	-6851
▁Id	-6852
▁Mo	-6853
▁Uv	-6854
▁VI	-6855
▁br	-6856
▁el	-6857
ITAN	-6858
Kaya	-6859
Magp	-6860
Sino	-6861
abos	-6862
ahen	-6863
ahid	-6864
akal	-6865
akop	-6866
aksi	-6867
alda	-6868
aloy	-6869
ando	-6870
apup	-6871
aram	-6872
aria	-6873
arok	-6874
atol	-6875
ayas	-6876
bata	-6877
buan	-6878
celo	-6879
ecto	-6880
egio	-6881
enda	-6882
esta	-6883
hief	-6884
ibak	-6885
iiba	-6886
iimb	-6887
imba	-6888
inas	-6889
inom	-6890
itay	-6891
iton	-6892
itre	-6893
laro	-6894
mata	-6895
nais	-6896
oral	-6897
port	-6898
puso	-6899
ramo	-6900
siya	-6901
tama	-6902
tong	-6903
ugho	-6904
ugun	-6905
uing	-6906
ukad	-6907
ukaw	-6908
ulis	-6909
ulyo	-6910
unyi	-6911
uwak	-6912
uwis	-6913
walo	-6914
▁20.	-6915
▁21.	-6916
▁Aba	-6917
▁Aur	-6918
▁Bah	-6919
▁Bit	-6920
▁Dom	-6921
▁For	-6922
▁Gen	-6923
▁Han	-6924
▁Kad	-6925
▁Kem	-6926
▁Law	-6927
▁Los	-6928
▁Mel	-6929
▁Niy	-6930
▁Per	-6931
▁Pia	-6932
▁Put	-6933
▁Sab	-6934
▁Sas	-6935
▁Tay	-6936
▁Tik	-6937
▁Umi	-6938
▁aan	-6939
▁ala	-6940
▁amb	-6941
▁amp	-6942
▁dat	-6943
▁det	-6944
▁dis	-6945
▁dok	-6946
▁doo	-6947
▁dos	-6948
▁gar	-6949
▁gas	-6950
▁hit	-6951
▁lug	-6952
▁nob	-6953
▁nya	-6954
▁ord	-6955
▁pen	-6956
▁pri	-6957
▁sol	-6958
▁sun	-6959
▁tip	-6960
▁yao	-6961
Babae	-6962
Diyos	-6963
Isang	-6964
aalay	-6965
aalis	-6966
aaliw	-6967
agupa	-6968
aguri	-6969
agwan	-6970
ahiga	-6971
ainit	-6972
alata	-6973
anhin	-6974
aston	-6975
ataon	-6976
awiin	-6977
bayat	-6978
bisig	-6979
brero	-6980
hindi	-6981
iglig	-6982
ihina	-6983
intak	-6984
intal	-6985
ipagt	-6986
ipang	-6987
ipeng	-6988
isong	-6989
itain	-6990
iwant	-6991
oklam	-6992
oloko	-6993
onang	-6994
palit	-6995
ubing	-6996
ubkob	-6997
ubund	-6998
uking	-6999
uktot	-7000
uluwa	-7001
ungaw	-7002
ungay	-7003
ungit	-7004
uutos	-7005
uwalh	-7006
wayen	-7007
yerta	-7008
▁(198	-7009
▁(199	-7010
▁Ahhh	-7011
▁Bata	-7012
▁Dula	-7013
▁Gran	-7014
▁Kiko	-7015
▁Kumb	-7016
▁Magl	-7017
▁Magp	-7018
▁Mala	-7019
▁Naka	-7020
▁Nanl	-7021
▁Napa	-7022
▁Noli	-7023
▁Osme	-7024
▁Rita	-7025
▁Ulan	-7026
▁Uwak	-7027
▁bati	-7028
▁daig	-7029
▁eduk	-7030
▁gawi	-7031
▁hits	-7032
▁ingk	-7033
▁ipak	-7034
▁ipan	-7035
▁ipap	-7036
▁iyak	-7037
▁karn	-7038
▁kibo	-7039
▁komp	-7040
▁krus	-7041
▁muni	-7042
▁nagg	-7043
▁pagw	-7044
▁paka	-7045
▁publ	-7046
▁purg	-7047
▁raan	-7048
▁sant	-7049
▁sump	-7050
▁taos	-7051
▁tawa	-7052
▁tema	-7053
▁unos	-7054
▁usok	-7055
▁walo	-7056
Ngayon	-7057
Ngunit	-7058
aantok	-7059
abagay	-7060
agayan	-7061
ahinto	-7062
ahunan	-7063
alalay	-7064
alanan	-7065
alasan	-7066
alasap	-7067
aligid	-7068
aliwan	-7069
aluhan	-7070
alunan	-7071
angang	-7072
anggal	-7073
angkat	-7074
ansala	-7075
apakan	-7076
asalin	-7077
astila	-7078
ayagan	-7079
emonya	-7080
endeng	-7081
entibo	-7082
halang	-7083
ibayan	-7084
ibuhin	-7085
igalig	-7086
imatay	-7087
ipitas	-7088
isanan	-7089
isdaan	-7090
istang	-7091
mangan	-7092
nayang	-7093
otroso	-7094
tataka	-7095
ulinig	-7096
uluyan	-7097
umbong	-7098
umento	-7099
umihan	-7100
unurin	-7101
▁1992.	-7102
▁Bagyo	-7103
▁Batid	-7104
▁Causa	-7105
▁Digma	-7106
▁Doron	-7107
▁Hulyo	-7108
▁Huwan	-7109
▁Ilian	-7110
▁Iyong	-7111
▁Japan	-7112
▁Jesus	-7113
▁Latin	-7114
▁Lubos	-7115
▁Manan	-7116
▁Natat	-7117
▁Natut	-7118
▁Noche	-7119
▁Pasig	-7120
▁Pilar	-7121
▁Pilit	-7122
▁Sagot	-7123
▁Sangk	-7124
▁Siyam	-7125
▁Tatlo	-7126
▁Tinat	-7127
▁Tuloy	-7128
▁Tundo	-7129
▁Wigan	-7130
▁agila	-7131
▁amain	-7132
▁anito	-7133
▁bakol	-7134
▁balot	-7135
▁baong	-7136
▁bigat	-7137
▁bilis	-7138
▁bingi	-7139
▁braso	-7140
▁bumab	-7141
▁daloy	-7142
▁demok	-7143
▁disip	-7144
▁ganid	-7145
▁gayun	-7146
▁gipit	-7147
▁gulat	-7148
▁hamon	-7149
▁hangi	-7150
▁hawla	-7151
▁himig	-7152
▁hinuh	-7153
▁ingat	-7154
▁ingay	-7155
▁isama	-7156
▁ituro	-7157
▁kakan	-7158
▁karta	-7159
▁katiw	-7160
▁kinam	-7161
▁kuwad	-7162
▁lawak	-7163
▁limit	-7164
▁lupit	-7165
▁mamum	-7166
▁mapup	-7167
▁minsa	-7168
▁minum	-7169
▁monar	-7170
▁nahih	-7171
▁nakay	-7172
▁napip	-7173
▁nasok	-7174
▁nuong	-7175
▁parol	-7176
▁paunl	-7177
▁pauwi	-7178
▁petsa	-7179
▁pondo	-7180
▁sabik	-7181
▁sakay	-7182
▁sakop	-7183
▁salaw	-7184
▁sukab	-7185
▁sumus	-7186
▁tagpo	-7187
▁tatak	-7188
▁tinik	-7189
▁titik	-7190
▁ulila	-7191
▁upuan	-7192
Lalapit	-7193
Sabihin	-7194
aaralan	-7195
abilang	-7196
ahalata	-7197
akailan	-7198
akainin	-7199
aksilan	-7200
alaging	-7201
alayuan	-7202
aligang	-7203
alinhan	-7204
ambitan	-7205
amitang	-7206
anggawa	-7207
ariling	-7208
asyahan	-7209
asyonal	-7210
ayamang	-7211
ayanang	-7212
bitinan	-7213
igiting	-7214
isipang	-7215
itingin	-7216
tuwiran	-7217
unguhan	-7218
uniguni	-7219
uspindi	-7220
▁Andeng	-7221
▁Bahagi	-7222
▁Bituin	-7223
▁Espada	-7224
▁Garcia	-7225
▁Ginang	-7226
▁Halika	-7227
▁Ilocos	-7228
▁Laguna	-7229
▁Laking	-7230
▁Ligaya	-7231
▁Maaari	-7232
▁Magtat	-7233
▁Mangga	-7234
▁Nasabi	-7235
▁Natuwa	-7236
▁Paalam	-7237
▁Pangan	-7238
▁Pinagb	-7239
▁Puting	-7240
▁Uvigan	-7241
▁Yamang	-7242
▁agawin	-7243
▁bating	-7244
▁bigkas	-7245
▁bubong	-7246
▁butong	-7247
▁dragon	-7248
▁dumaan	-7249
▁haligi	-7250
▁ihanda	-7251
▁iharap	-7252
▁ilipat	-7253
▁inggit	-7254
▁inibig	-7255
▁inumin	-7256
▁inutos	-7257
▁isinas	-7258
▁kalong	-7259
▁kampon	-7260
▁kanino	-7261
▁karagd	-7262
▁karsel	-7263
▁katoto	-7264
▁lalake	-7265
▁magkat	-7266
▁magpas	-7267
▁mapait	-7268
▁misyon	-7269
▁nagbib	-7270
▁naghah	-7271
▁nahuli	-7272
▁nakang	-7273
▁panreh	-7274
▁pantas	-7275
▁papuri	-7276
▁paskil	-7277
▁patpat	-7278
▁piloto	-7279
▁produk	-7280
▁pumili	-7281
▁puring	-7282
▁rarang	-7283
▁sindak	-7284
▁sinong	-7285
▁superb	-7286
▁taguan	-7287
▁tugtog	-7288
▁turuan	-7289
▁umaasa	-7290
▁walump	-7291
abayaran	-7292
alangkas	-7293
anggapin	-7294
ihimutok	-7295
intangan	-7296
istulang	-7297
itingala	-7298
▁Bandila	-7299
▁Constit	-7300
▁Ginoong	-7301
▁Honoris	-7302
▁Ingkong	-7303
▁Jatakas	-7304
▁KAPITAN	-7305
▁Liwanag	-7306
▁Lumakad	-7307
▁Magmula	-7308
▁Malapit	-7309
▁Marahil	-7310
▁Maranao	-7311
▁Marcelo	-7312
▁Matsing	-7313
▁Nalbuan	-7314
▁Oktubre	-7315
▁Pandora	-7316
▁Pangkas	-7317
▁Patuloy	-7318
▁Persyan	-7319
▁Pinilit	-7320
▁Sampung	-7321
▁Sapagka	-7322
▁Sinikap	-7323
▁Tangere	-7324
▁Teodora	-7325
▁Teodoro	-7326
▁Tumawag	-7327
▁alagang	-7328
▁angking	-7329
▁biyenan	-7330
▁bunying	-7331
▁dadalaw	-7332
▁eksklus	-7333
▁handaan	-7334
▁hawakan	-7335
▁hitsura	-7336
▁humanap	-7337
▁humanga	-7338
▁huminga	-7339
▁huminto	-7340
▁huwaran	-7341
▁ibabang	-7342
▁itanong	-7343
▁itinayo	-7344
▁kahanga	-7345
▁kahawig	-7346
▁kaparte	-7347
▁kinalag	-7348
▁komedya	-7349
▁maalala	-7350
▁magiliw	-7351
▁magkita	-7352
▁magsabi	-7353
▁magtiis	-7354
▁mahalin	-7355
▁makapal	-7356
▁malasin	-7357
▁matalik	-7358
▁matipid	-7359
▁matulog	-7360
▁nabatid	-7361
▁nabihag	-7362
▁nadinig	-7363
▁nangags	-7364
▁nasapit	-7365
▁natigil	-7366
▁palitan	-7367
▁pangkap	-7368
▁papatay	-7369
▁pasakit	-7370
▁patawad	-7371
▁payagan	-7372
▁pighati	-7373
▁pinakad	-7374
▁pinilit	-7375
▁pribado	-7376
▁publiko	-7377
▁siyudad	-7378
▁sumayaw	-7379
▁sumbong	-7380
▁tanawin	-7381
▁taunang	-7382
▁timbang	-7383
▁tinungo	-7384
▁torogan	-7385
▁totoong	-7386
▁tumakbo	-7387
▁tungkod	-7388
▁umiibig	-7389
▁utusang	-7390
ahulugang	-7391
alamutian	-7392
alastasan	-7393
alinghaga	-7394
amanhikan	-7395
apalooban	-7396
awagayway	-7397
ihinagpis	-7398
ilanganin	-7399
inungkahi	-7400
untaryong	-7401
▁Gayundin	-7402
▁Handiong	-7403
▁Kayganda	-7404
▁Kembayat	-7405
▁Mabuting	-7406
▁Magbitag	-7407
▁Magwayen	-7408
▁Makikita	-7409
▁Nagising	-7410
▁Nakiusap	-7411
▁Nalimbag	-7412
▁Namangha	-7413
▁Persiyus	-7414
▁Sinapati	-7415
▁alinmang	-7416
▁binibini	-7417
▁dalangin	-7418
▁dosenang	-7419
▁espiritu	-7420
▁hangarin	-7421
▁hinagkan	-7422
▁ikinasal	-7423
▁inaakala	-7424
▁inilagay	-7425
▁kabaitan	-7426
▁kakilala	-7427
▁kamataya	-7428
▁karimlan	-7429
▁katawang	-7430
▁kawawang	-7431
▁kuliglig	-7432
▁labinlim	-7433
▁ligayang	-7434
▁lipunang	-7435
▁magkakat	-7436
▁magmahal	-7437
▁magpapat	-7438
▁mamasyal	-7439
▁manggang	-7440
▁manugang	-7441
▁matuling	-7442
▁mayabang	-7443
▁nagagawa	-7444
▁nagpasya	-7445
▁nahirang	-7446
▁nahuhuli	-7447
▁nakausap	-7448
▁nalalabi	-7449
▁naliligo	-7450
▁nanatili	-7451
▁naturang	-7452
▁pabulang	-7453
▁pagbalik	-7454
▁pagkakal	-7455
▁pagpasok	-7456
▁pagpunta	-7457
▁pagsulat	-7458
▁pagtulog	-7459
▁paniwala	-7460
▁pasyahan	-7461
▁payapang	-7462
▁prayleng	-7463
▁priority	-7464
▁problema	-7465
▁propesor	-7466
▁pulutong	-7467
▁sabayang	-7468
▁sabungan	-7469
akatuparan	-7470
atutunayan	-7471
oklamasyon	-7472
uwalhating	-7473
▁Binigyang	-7474
▁Ibinalita	-7475
▁Inalagaan	-7476
▁Katunayan	-7477
▁Magandang	-7478
▁Makatunao	-7479
▁Naririnig	-7480
▁Sinimulan	-7481
▁Tenoriong	-7482
▁direksyon	-7483
▁ekonomiya	-7484
▁gumagamit	-7485
▁gumaganap	-7486
▁halimuyak	-7487
▁ibinalita	-7488
▁iniligtas	-7489
▁insentibo	-7490
▁kabayaran	-7491
▁kaguluhan	-7492
▁kahusayan	-7493
▁kakahuyan	-7494
▁kasabikan	-7495
▁katunayan	-7496
▁katuwiran	-7497
▁kondisyon	-7498
▁magaganda	-7499
▁magkabisa	-7500
▁magkasama	-7501
▁magpaalam	-7502
▁makaraang	-7503
▁masasarap	-7504
▁mayoryang	-7505
▁nagdurusa	-7506
▁naglalaro	-7507
▁nagsabing	-7508
▁nailigtas	-7509
▁nakaharap	-7510
▁nakasabit	-7511
▁pagbabasa	-7512
▁pagkakita	-7513
▁pagkikita	-7514
▁paglalaro	-7515
▁pagsasama	-7516
▁pagsulong	-7517
▁pagtingin	-7518
▁pahayagan	-7519
▁pakasalan	-7520
▁pambayang	-7521
▁pangitain	-7522
▁panibugho	-7523
▁pulitikal	-7524
▁regulahin	-7525
▁spotlight	-7526
▁telegrama	-7527
aalinlangan	-7528
▁Ginbitinan	-7529
▁Kaligirang	-7530
▁Karaniwang	-7531
▁autonomous	-7532
▁bilanggong	-7533
▁gobernador	-7534
▁hatinggabi	-7535
▁kagamitang	-7536
▁kaligtasan	-7537
▁kaparaanan	-7538
▁katakdaang	-7539
▁katiwalian	-7540
▁kinatawang	-7541
▁mahihirang	-7542
▁makamandag	-7543
▁mapagtibay	-7544
▁matuklasan	-7545
▁nagbabadya	-7546
▁nagpakasal	-7547
▁nalalabing	-7548
▁nanatiling	-7549
▁naramdaman	-7550
▁pagbibitiw	-7551
▁paghihirap	-7552
▁paglilipat	-7553
▁pagsasanay	-7554
▁pagtanggap	-7555
▁pakikipagk	-7556
▁panibagong	-7557
▁sawimpalad	-7558
▁teritoryal	-7559
▁tinulungan	-7560
ipagkaibigan	-7561
▁Ipinagtapat	-7562
▁Ipinakiusap	-7563
▁Kapulungang	-7564
▁Philippines	-7565
▁Sandatahang	-7566
▁balahibuhin	-7567
▁impormasyon	-7568
▁ipinakilala	-7569
▁kagalingang	-7570
▁kailanganin	-7571
▁kapanatagan	-7572
▁kapighatian	-7573
▁karagdagang	-7574
▁nagdiriwang	-7575
▁naglalakbay	-7576
▁nagsisimula	-7577
▁pagkukulang	-7578
▁pagtitiwala	-7579
▁pamumuhunan	-7580
▁pananalakay	-7581
▁panghukuman	-7582
▁pinarusahan	-7583
▁bungangkahoy	-7584
▁kinatatayuan	-7585
▁kinauukulang	-7586
▁makapaniwala	-7587
▁nakararaming	-7588
▁nakasalubong	-7589
▁napakalaking	-7590
▁pahintulutan	-7591
▁ratipikasyon	-7592
▁rehistradong	-7593
▁sandaigdigan	-7594
▁ipinagpatuloy	-7595
▁kakailanganin	-7596
▁Interpretasyon	-7597
▁Pangkasaysayan	-7598
▁kinapapalooban	-7599
▁nagpapaliwanag	-7600
;"	-7601
AY	-7602
Ia	-7603
Ul	-7604
bl	-7605
ge	-7606
ie	-7607
of	-7608
pi	-7609
pl	-7610
ye	-7611
Ama	-7612
Bin	-7613
Hal	-7614
III	-7615
Mar	-7616
Mat	-7617
Nag	-7618
Nap	-7619
Pil	-7620
ake	-7621
ale	-7622
ate	-7623
bas	-7624
bgl	-7625
dig	-7626
erk	-7627
ese	-7628
hih	-7629
itn	-7630
ket	-7631
lod	-7632
may	-7633
mpa	-7634
not	-7635
pio	-7636
ple	-7637
rap	-7638
rim	-7639
uda	-7640
udy	-7641
ukd	-7642
uki	-7643
uma	-7644
usy	-7645
ven	-7646
wid	-7647
▁1:	-7648
▁2:	-7649
▁Ac	-7650
▁Ec	-7651
▁Gu	-7652
▁IV	-7653
▁TA	-7654
▁Ug	-7655
▁ur	-7656
-197	-7657
4-19	-7658
Ikaw	-7659
Iyan	-7660
Lapu	-7661
Mags	-7662
Saan	-7663
aham	-7664
amao	-7665
amoy	-7666
anin	-7667
anso	-7668
apiz	-7669
aris	-7670
ariw	-7671
asim	-7672
asko	-7673
atub	-7674
ayle	-7675
bers	-7676
bisa	-7677
chol	-7678
dado	-7679
dala	-7680
diwa	-7681
elan	-7682
elik	-7683
ense	-7684
gawa	-7685
guni	-7686
hhhh	-7687
horn	-7688
ibal	-7689
ibis	-7690
igno	-7691
ihip	-7692
ikil	-7693
ikip	-7694
ilad	-7695
ilok	-7696
inoo	-7697
irat	-7698
irit	-7699
itna	-7700
king	-7701
lain	-7702
lege	-7703
omez	-7704
onya	-7705
orin	-7706
paro	-7707
rada	-7708
rado	-7709
reng	-7710
reto	-7711
ship	-7712
sion	-7713
ting	-7714
umpo	-7715
unik	-7716
upig	-7717
uray	-7718
usad	-7719
usaw	-7720
uyas	-7721
vent	-7722
yuan	-7723
▁17,	-7724
▁22.	-7725
▁Apo	-7726
▁Arm	-7727
▁Bai	-7728
▁Bun	-7729
▁Cir	-7730
▁Hah	-7731
▁Kaw	-7732
▁Kor	-7733
▁Kur	-7734
▁Mom	-7735
▁New	-7736
▁Nin	-7737
▁Riv	-7738
▁Sus	-7739
▁amo	-7740
▁api	-7741
▁aya	-7742
▁bik	-7743
▁con	-7744
▁dad	-7745
▁dur	-7746
▁etn	-7747
▁gam	-7748
▁gug	-7749
▁hag	-7750
▁iis	-7751
▁ipa	-7752
▁pir	-7753
▁rek	-7754
Anupa	-7755
Epiko	-7756
Kapag	-7757
Nguni	-7758
UNONG	-7759
aalab	-7760
abeas	-7761
abigo	-7762
abola	-7763
agaan	-7764
agpas	-7765
agtas	-7766
akasi	-7767
akong	-7768
aligo	-7769
allan	-7770
alsik	-7771
ambog	-7772
ampok	-7773
angin	-7774
apagp	-7775
areal	-7776
aruan	-7777
asmin	-7778
astas	-7779
bigay	-7780
erdin	-7781
gunam	-7782
idlan	-7783
ikman	-7784
ilian	-7785
imlim	-7786
inaas	-7787
inaos	-7788
inlok	-7789
iring	-7790
iwaga	-7791
iwika	-7792
lawan	-7793
lipad	-7794
luran	-7795
nayon	-7796
ormal	-7797
osyon	-7798
pangh	-7799
peras	-7800
rinig	-7801
tamis	-7802
ulgol	-7803
umpok	-7804
unsad	-7805
upaan	-7806
uriin	-7807
usisa	-7808
▁(191	-7809
▁(192	-7810
▁1986	-7811
▁Alem	-7812
▁Asya	-7813
▁Bumb	-7814
▁Dugo	-7815
▁Inih	-7816
▁Juli	-7817
▁Kamp	-7818
▁Kund	-7819
▁Lahi	-7820
▁Lapu	-7821
▁Laur	-7822
▁Lope	-7823
▁Maya	-7824
▁Mong	-7825
▁Paib	-7826
▁Puso	-7827
▁Samb	-7828
▁Sana	-7829
▁Sang	-7830
▁Sump	-7831
▁York	-7832
▁baro	-7833
▁basa	-7834
▁base	-7835
▁bida	-7836
▁bisa	-7837
▁bote	-7838
▁buti	-7839
▁daho	-7840
▁dini	-7841
▁dung	-7842
▁hist	-7843
▁igat	-7844
▁inis	-7845
▁item	-7846
▁itut	-7847
▁kayl	-7848
▁kuts	-7849
▁lamp	-7850
▁laot	-7851
▁liig	-7852
▁lobo	-7853
▁lolo	-7854
▁look	-7855
▁magw	-7856
▁maik	-7857
▁nala	-7858
▁onsa	-7859
▁pait	-7860
▁paru	-7861
▁plat	-7862
▁sanl	-7863
▁sasa	-7864
▁sawi	-7865
▁simb	-7866
▁tamb	-7867
▁test	-7868
▁tunt	-7869
▁uwak	-7870
Alamat	-7871
Ingles	-7872
Mabuti	-7873
Ulitin	-7874
aanong	-7875
aantay	-7876
abakas	-7877
abalot	-7878
abasag	-7879
abawas	-7880
ademya	-7881
aganay	-7882
agayon	-7883
aginan	-7884
agusto	-7885
ahilan	-7886
akaisa	-7887
akante	-7888
alakan	-7889
alalim	-7890
alasik	-7891
alayin	-7892
aliang	-7893
alisin	-7894
alismo	-7895
amahin	-7896
ambang	-7897
ataong	-7898
atasan	-7899
atiran	-7900
atupad	-7901
awahan	-7902
awirin	-7903
ayanig	-7904
ayunan	-7905
dalang	-7906
hagang	-7907
hangad	-7908
idigma	-7909
igipit	-7910
igyang	-7911
iimbot	-7912
ilahok	-7913
iligid	-7914
ingiti	-7915
ingkad	-7916
isdang	-7917
itnaan	-7918
itungo	-7919
masdan	-7920
onggon	-7921
onomic	-7922
oyagan	-7923
raming	-7924
ugasan	-7925
ultura	-7926
uluhod	-7927
umpaan	-7928
undang	-7929
unwari	-7930
uparin	-7931
upiter	-7932
ustang	-7933
utlang	-7934
▁Aniya	-7935
▁Anupa	-7936
▁Baran	-7937
▁Bukid	-7938
▁Capiz	-7939
▁Gomez	-7940
▁Ilong	-7941
▁Kapwa	-7942
▁Lalap	-7943
▁Nakal	-7944
▁Pinan	-7945
▁Samar	-7946
▁agham	-7947
▁along	-7948
▁aring	-7949
▁awang	-7950
▁babas	-7951
▁basta	-7952
▁beter	-7953
▁bibit	-7954
▁binhi	-7955
▁bulsa	-7956
▁bungo	-7957
▁duhat	-7958
▁dulot	-7959
▁galaw	-7960
▁ganti	-7961
▁gilid	-7962
▁ginug	-7963
▁hinat	-7964
▁iiwan	-7965
▁ilaan	-7966
▁ipagl	-7967
▁kahin	-7968
▁kaisa	-7969
▁kaita	-7970
▁kalam	-7971
▁kamao	-7972
▁karne	-7973
▁katan	-7974
▁katay	-7975
▁kumot	-7976
▁labag	-7977
▁lagay	-7978
▁lalim	-7979
▁lawin	-7980
▁layon	-7981
▁legal	-7982
▁luksa	-7983
▁maawa	-7984
▁magig	-7985
▁magpa	-7986
▁nabuo	-7987
▁nagsi	-7988
▁nakam	-7989
▁napah	-7990
▁ngala	-7991
▁ngiti	-7992
▁nimpa	-7993
▁niyog	-7994
▁pabor	-7995
▁pakir	-7996
▁paman	-7997
▁patat	-7998
▁perya	-7999
▁pinah	-8000
▁pulis	-8001
▁pumup	-8002
▁saang	-8003
▁sinab	-8004
▁takbo	-8005
▁talam	-8006
▁talip	-8007
▁taluk	-8008
▁tanso	-8009
▁tigib	-8010
▁tinit	-8011
▁trans	-8012
▁tukso	-8013
▁ulang	-8014
▁urban	-8015
▁yakap	-8016
▁yumao	-8017
Lalabas	-8018
Pilipin	-8019
Uulitin	-8020
aalaala	-8021
aalipin	-8022
aanyong	-8023
adalhan	-8024
ahihiya	-8025
allanes	-8026
amangka	-8027
amayang	-8028
ambibig	-8029
analapi	-8030
andaang	-8031
andugan	-8032
angkisa	-8033
antihan	-8034
arawang	-8035
etropol	-8036
halalan	-8037
hikayat	-8038
ibingan	-8039
ibuster	-8040
ilingon	-8041
inggang	-8042
intasan	-8043
inyagan	-8044
itanong	-8045
otabato	-8046
panahon	-8047
tikular	-8048
ugunita	-8049
uktutan	-8050
ulungin	-8051
utional	-8052
▁Aanhin	-8053
▁Aurora	-8054
▁Bagama	-8055
▁Bataan	-8056
▁Etolya	-8057
▁Felipo	-8058
▁Ganito	-8059
▁Hasmin	-8060
▁Indiyo	-8061
▁Kayong	-8062
▁Kristo	-8063
▁Magpap	-8064
▁Malaya	-8065
▁Matang	-8066
▁Nagpap	-8067
▁Pagpap	-8068
▁Pagtat	-8069
▁Pantao	-8070
▁Pantay	-8071
▁Prayle	-8072
▁Rivera	-8073
▁Rogong	-8074
▁Silang	-8075
▁Taglay	-8076
▁Tiyani	-8077
▁Yaring	-8078
▁baging	-8079
▁balana	-8080
▁binati	-8081
▁daanan	-8082
▁dulang	-8083
▁gastos	-8084
▁ginang	-8085
▁hapong	-8086
▁higaan	-8087
▁hingin	-8088
▁hinuli	-8089
▁ibalik	-8090
▁ihatid	-8091
▁imahen	-8092
▁inaapi	-8093
▁inspir	-8094
▁intern	-8095
▁kabibe	-8096
▁kagaya	-8097
▁karang	-8098
▁kasapi	-8099
▁kataka	-8100
▁kaunti	-8101
▁kinain	-8102
▁kwento	-8103
▁lagyan	-8104
▁laruan	-8105
▁lintik	-8106
▁maalam	-8107
▁maaliw	-8108
▁magbub	-8109
▁magpak	-8110
▁mailap	-8111
▁mainam	-8112
▁masabi	-8113
▁masdan	-8114
▁matamo	-8115
▁matuto	-8116
▁maubos	-8117
▁muntik	-8118
▁naakit	-8119
▁nagdad	-8120
▁nagdur	-8121
▁nagnin	-8122
▁naipag	-8123
▁nakiki	-8124
▁nangas	-8125
▁napili	-8126
▁ngipin	-8127
▁nobela	-8128
▁pagrer	-8129
▁pakana	-8130
▁pareho	-8131
▁pasiya	-8132
▁pating	-8133
▁paulit	-8134
▁sabing	-8135
▁sariwa	-8136
▁sayang	-8137
▁siguro	-8138
▁tabako	-8139
▁tanyag	-8140
▁tatayo	-8141
▁tinamo	-8142
▁tiniis	-8143
▁tiyaga	-8144
▁tulain	-8145
▁tumama	-8146
▁tumira	-8147
▁tumpak	-8148
▁tuwang	-8149
▁tuyong	-8150
▁ulirat	-8151
▁umagaw	-8152
▁umahon	-8153
........	-8154
aakalang	-8155
adlangan	-8156
aguriang	-8157
ahamakan	-8158
ahambing	-8159
alapitan	-8160
alikabok	-8161
alinhaga	-8162
alumpati	-8163
amangkin	-8164
anggulan	-8165
arungang	-8166
erdinand	-8167
ihingalo	-8168
ihinging	-8169
iligawan	-8170
ingkuran	-8171
isilbing	-8172
liwayway	-8173
ulantang	-8174
▁Colegio	-8175
▁College	-8176
▁Convent	-8177
▁Epikong	-8178
▁Granada	-8179
▁Hagibis	-8180
▁Ikalawa	-8181
▁Kawayan	-8182
▁Lumabas	-8183
▁Lumatay	-8184
▁Lumikha	-8185
▁Mabigat	-8186
▁Malabon	-8187
▁Nagulat	-8188
▁Nawalan	-8189
▁Ngayong	-8190
▁Paganay	-8191
▁Rosario	-8192
▁Sabihin	-8193
▁Sentral	-8194
▁Tayabas	-8195
▁bagyong	-8196
▁bendita	-8197
▁bumubuo	-8198
▁dalawin	-8199
▁dinakip	-8200
▁dukhang	-8201
▁emosyon	-8202
▁ganyang	-8203
▁ginugol	-8204
▁gumanap	-8205
▁hatulan	-8206
▁humawak	-8207
▁ibababa	-8208
▁ibayong	-8209
▁ilibing	-8210
▁inaasam	-8211
▁ingkong	-8212
▁ipaalam	-8213
▁ipinagd	-8214
▁ipinagk	-8215
▁isandaa	-8216
▁italaga	-8217
▁itinago	-8218
▁kalaing	-8219
▁kamalig	-8220
▁kandong	-8221
▁kariton	-8222
▁katiwas	-8223
▁kristal	-8224
▁kuwitis	-8225
▁lambing	-8226
▁mabatid	-8227
▁magbago	-8228
▁magluto	-8229
▁magtago	-8230
▁makakat	-8231
▁makamit	-8232
▁makinig	-8233
▁malapad	-8234
▁mamuhay	-8235
▁mamunga	-8236
▁mangung	-8237
▁mapigil	-8238
▁marupok	-8239
▁masapit	-8240
▁masukal	-8241
▁matakot	-8242
▁matigas	-8243
▁matulad	-8244
▁mawalan	-8245
▁minahal	-8246
▁monarka	-8247
▁mundong	-8248
▁naalala	-8249
▁nagkita	-8250
▁nagtago	-8251
▁nagwika	-8252
▁nilisan	-8253
▁papaano	-8254
▁papeles	-8255
▁papunta	-8256
▁paputok	-8257
▁pigilin	-8258
▁sayawan	-8259
▁senador	-8260
▁sinagot	-8261
▁sinapup	-8262
▁sugatan	-8263
▁sulatin	-8264
▁sultana	-8265
▁sumigaw	-8266
▁taimtim	-8267
▁tangang	-8268
▁tatawag	-8269
▁tinipon	-8270
▁tinugon	-8271
▁tumawag	-8272
▁yumaong	-8273
agalingan	-8274
akiusapan	-8275
apagaling	-8276
awanggawa	-8277
ihinatnan	-8278
ihinayang	-8279
intakutan	-8280
iwantiwan	-8281
otohanang	-8282
relihiyon	-8283
tatanggol	-8284
▁Bumbaran	-8285
▁Digmaang	-8286
▁Economic	-8287
▁Floresca	-8288
▁Hiniling	-8289
▁Kabilang	-8290
▁Mababang	-8291
▁Mangyari	-8292
▁Masinlok	-8293
▁Naisipan	-8294
▁Pampanga	-8295
▁Parabula	-8296
▁Sabayang	-8297
▁Saligang	-8298
▁Sampalok	-8299
▁Simbahan	-8300
▁Tumulong	-8301
▁bangkang	-8302
▁batingaw	-8303
▁bunganga	-8304
▁daraanan	-8305
▁hinintay	-8306
▁humirang	-8307
▁iniaalay	-8308
▁kailalim	-8309
▁kawayang	-8310
▁kawikaan	-8311
▁lalagyan	-8312
▁lansones	-8313
▁libangan	-8314
▁liwayway	-8315
▁lubusang	-8316
▁lumuluha	-8317
▁magarang	-8318
▁magbubuk	-8319
▁maghanap	-8320
▁magtuloy	-8321
▁maibigan	-8322
▁makaalis	-8323
▁makausap	-8324
▁malalaki	-8325
▁malamlam	-8326
▁maliligo	-8327
▁malumbay	-8328
▁mapagkuk	-8329
▁ministro	-8330
▁mungkahi	-8331
▁nadarama	-8332
▁nagdaang	-8333
▁naghirap	-8334
▁naglilip	-8335
▁nakaraan	-8336
▁nakiusap	-8337
▁ninanais	-8338
▁pagkamak	-8339
▁pagkamam	-8340
▁paglikha	-8341
▁paglipas	-8342
▁pagtawag	-8343
▁panlabas	-8344
▁pantalon	-8345
▁papalayo	-8346
▁parabola	-8347
▁paruparo	-8348
▁petisyon	-8349
▁pinakain	-8350
▁pinansin	-8351
▁salaping	-8352
▁saligang	-8353
▁seksyong	-8354
▁serbisyo	-8355
▁tinangay	-8356
▁tinubuan	-8357
▁tugtugin	-8358
▁tumindig	-8359
▁tumingin	-8360
▁tumugtog	-8361
amantalang	-8362
pakinabang	-8363
▁Baranugun	-8364
▁Dinoyagan	-8365
▁Ekonomiya	-8366
▁Ikalawang	-8367
▁Kailanman	-8368
▁Karamihan	-8369
▁Kayamanan	-8370
▁Lumilitaw	-8371
▁Maririnig	-8372
▁Nararapat	-8373
▁Pagkakita	-8374
▁Paiborong	-8375
▁Sandaling	-8376
▁artilyero	-8377
▁banyagang	-8378
▁dokumento	-8379
▁hangganan	-8380
▁hiningang	-8381
▁ikinulong	-8382
▁inaasahan	-8383
▁ipagbawal	-8384
▁ipinadala	-8385
▁isalaysay	-8386
▁kabukiran	-8387
▁kagamitan	-8388
▁kagawaran	-8389
▁kaisipang	-8390
▁kaitaasan	-8391
▁kalawakan	-8392
▁kapisanan	-8393
▁kapurihan	-8394
▁kasamahan	-8395
▁katandaan	-8396
▁kaunlaran	-8397
▁kumikilos	-8398
▁mabangong	-8399
▁magdamdam	-8400
▁magkaanak	-8401
▁magtaglay	-8402
▁magtamasa	-8403
▁mailigtas	-8404
▁makatulog	-8405
▁malalapad	-8406
▁mamahalin	-8407
▁mananakop	-8408
▁manunulat	-8409
▁mapalagay	-8410
▁mapanglaw	-8411
▁naaangkop	-8412
▁nababatid	-8413
▁nagbabago	-8414
▁nagpakita	-8415
▁nagtatago	-8416
▁nakabitin	-8417
▁nakalaban	-8418
▁nakalipas	-8419
▁nakarinig	-8420
▁nakayanan	-8421
▁nalilikha	-8422
▁napilitan	-8423
▁nasusulat	-8424
▁natatanaw	-8425
▁nilagdaan	-8426
▁pagdaraos	-8427
▁paggalang	-8428
▁pagnanasa	-8429
▁pagsasabi	-8430
▁pagsasaka	-8431
▁pagtitiis	-8432
▁pakinggan	-8433
▁pamangkin	-8434
▁pangalang	-8435
▁pangwakas	-8436
▁paumanhin	-8437
▁paunlarin	-8438
▁prangkisa	-8439
▁pupugutan	-8440
▁sasakyang	-8441
▁seremonya	-8442
▁sumalakay	-8443
▁tumutukoy	-8444
▁tumututol	-8445
etropolitan	-8446
panghukuman	-8447
▁Ipinatawag	-8448
▁Katarungan	-8449
▁Lalapindig	-8450
▁Magallanes	-8451
▁Magindanao	-8452
▁Naniniwala	-8453
▁Pilosopong	-8454
▁Sampaguita	-8455
▁binubuksan	-8456
▁bukambibig	-8457
▁gumagapang	-8458
▁hanapbuhay	-8459
▁hinihiling	-8460
▁industriya	-8461
▁ipinatawag	-8462
▁kabuktutan	-8463
▁kagalingan	-8464
▁kalinangan	-8465
▁kaluluwang	-8466
▁karalitaan	-8467
▁katamtaman	-8468
▁mababangis	-8469
▁mabalitaan	-8470
▁magagaling	-8471
▁maghiwalay	-8472
▁magigiting	-8473
▁makatwiran	-8474
▁maligayang	-8475
▁mangangaso	-8476
▁mapanganib	-8477
▁mapapansin	-8478
▁maramdamin	-8479
▁nabalitaan	-8480
▁nagkasundo	-8481
▁nagpahatid	-8482
▁nakapaloob	-8483
▁nakararami	-8484
▁pagbabayad	-8485
▁pagbanggit	-8486
▁pagkakaiba	-8487
▁pagpaplano	-8488
▁pagsasayaw	-8489
▁pagsusulit	-8490
▁pagtatatag	-8491
▁pagtitipon	-8492
▁pakiramdam	-8493
▁pamamasyal	-8494
▁pamanhikan	-8495
▁pamayanang	-8496
▁pangangaso	-8497
▁pangisdaan	-8498
▁panitikang	-8499
▁partikular	-8500
▁pinangalan	-8501
▁pinapansin	-8502
▁prinsipeng	-8503
▁programang	-8504
▁proteksyon	-8505
▁purgatoryo	-8506
▁sandatahan	-8507
▁sasailalim	-8508
▁hinahangaan	-8509
▁inihahandog	-8510
▁inspirasyon	-8511
▁kadahilanan	-8512
▁kapahamakan	-8513
▁kapaligiran	-8514
▁karampatang	-8515
▁karunungang	-8516
▁magpanatili	-8517
▁nagsasalita	-8518
▁nagsimulang	-8519
▁nakatanggap	-8520
▁nangangamba	-8521
▁nangangarap	-8522
▁napangasawa	-8523
▁pagkakasala	-8524
▁pagpapatayo	-8525
▁pakakasalan	-8526
▁palatandaan	-8527
▁pamalagiang	-8528
▁pilibustero	-8529
▁siyamnapung	-8530
▁teknolohiya	-8531
▁Maniwantiwan	-8532
▁Salamangkero	-8533
▁kamangmangan	-8534
▁katanghalian	-8535
▁kinikilalang	-8536
▁nagkahiwalay	-8537
▁naglalarawan	-8538
▁naglilingkod	-8539
▁nagpapahayag	-8540
▁napakaraming	-8541
▁nararamdaman	-8542
▁pagpapakasal	-8543
▁pagpapatuloy	-8544
▁pagsasabatas	-8545
▁pangangasiwa	-8546
▁pansamantala	-8547
▁pinaghalalan	-8548
▁ipinagbabawal	-8549
▁mangingisdang	-8550
▁nagpapakilala	-8551
▁nagsasalaysay	-8552
▁organisasyong	-8553
▁pinakamahusay	-8554
▁Constitutional	-8555
▁ipinagmamalaki	-8556
▁pagkamakabayan	-8557
▁pakikipaglaban	-8558
▁pansamantalang	-8559
9,	-8560
In	-8561
Is	-8562
OM	-8563
Si	-8564
UL	-8565
ho	-8566
hr	-8567
uc	-8568
ve	-8569
–1	-8570
-10	-8571
All	-8572
And	-8573
INI	-8574
LAK	-8575
Mah	-8576
Mas	-8577
Nin	-8578
Opo	-8579
Pag	-8580
agm	-8581
ais	-8582
bos	-8583
cal	-8584
com	-8585
ehe	-8586
eop	-8587
eor	-8588
eph	-8589
erd	-8590
erg	-8591
eri	-8592
ess	-8593
get	-8594
hid	-8595
him	-8596
ibi	-8597
ica	-8598
ide	-8599
iki	-8600
ikn	-8601
kat	-8602
lis	-8603
mad	-8604
nit	-8605
nos	-8606
ood	-8607
ote	-8608
owa	-8609
pag	-8610
pok	-8611
ras	-8612
ree	-8613
rek	-8614
rik	-8615
rin	-8616
rom	-8617
sip	-8618
ton	-8619
uhi	-8620
urg	-8621
was	-8622
▁16	-8623
▁2,	-8624
▁21	-8625
▁23	-8626
▁3:	-8627
▁4:	-8628
▁5:	-8629
▁6:	-8630
▁7:	-8631
▁8:	-8632
▁9:	-8633
▁Be	-8634
▁Fo	-8635
▁Hi	-8636
▁Ku	-8637
▁Oy	-8638
▁er	-8639
▁se	-8640
AMAN	-8641
ANDA	-8642
APAT	-8643
Anak	-8644
Bago	-8645
IPAG	-8646
Kasi	-8647
Pang	-8648
Pero	-8649
Taga	-8650
Tama	-8651
aala	-8652
aapi	-8653
abut	-8654
agak	-8655
agip	-8656
ahaw	-8657
alop	-8658
alta	-8659
alya	-8660
amas	-8661
apwa	-8662
arat	-8663
aray	-8664
asay	-8665
asig	-8666
atok	-8667
avay	-8668
awas	-8669
ayam	-8670
ayom	-8671
cher	-8672
dand	-8673
daos	-8674
echo	-8675
empo	-8676
epay	-8677
erat	-8678
eron	-8679
fina	-8680
ibok	-8681
ibre	-8682
icol	-8683
ikbi	-8684
imat	-8685
impi	-8686
ipis	-8687
ipol	-8688
ited	-8689
iwil	-8690
luko	-8691
lupa	-8692
mura	-8693
olin	-8694
oloh	-8695
orta	-8696
otea	-8697
pons	-8698
puti	-8699
rami	-8700
royo	-8701
saan	-8702
sari	-8703
sidi	-8704
uest	-8705
ulig	-8706
ulta	-8707
ulto	-8708
umba	-8709
unas	-8710
urol	-8711
urot	-8712
▁...	-8713
▁10:	-8714
▁12,	-8715
▁21,	-8716
▁30,	-8717
▁Abo	-8718
▁Act	-8719
▁Bac	-8720
▁Biy	-8721
▁Cel	-8722
▁Dir	-8723
▁Mig	-8724
▁PAM	-8725
▁Pah	-8726
▁Sot	-8727
▁Tao	-8728
▁Tut	-8729
▁Uri	-8730
▁Was	-8731
▁Yum	-8732
▁bih	-8733
▁buo	-8734
▁duk	-8735
▁gus	-8736
▁ibo	-8737
▁iya	-8738
▁kim	-8739
▁lak	-8740
▁lan	-8741
▁law	-8742
▁los	-8743
▁lus	-8744
▁mil	-8745
▁ret	-8746
▁sed	-8747
▁tah	-8748
▁tir	-8749
Galit	-8750
Gusto	-8751
Higit	-8752
aaway	-8753
abaya	-8754
akdal	-8755
akter	-8756
alaot	-8757
alili	-8758
alipo	-8759
amiha	-8760
amsam	-8761
anaig	-8762
anasa	-8763
anood	-8764
antok	-8765
apuan	-8766
arant	-8767
arayo	-8768
arida	-8769
asaan	-8770
atiis	-8771
audit	-8772
ayari	-8773
chool	-8774
ciano	-8775
endag	-8776
engke	-8777
eople	-8778
giliw	-8779
hanga	-8780
hikoy	-8781
idang	-8782
iksik	-8783
imili	-8784
imiti	-8785
impal	-8786
indol	-8787
ingil	-8788
ingon	-8789
inung	-8790
ipint	-8791
isina	-8792
isisi	-8793
iskis	-8794
istis	-8795
ities	-8796
iyera	-8797
kamay	-8798
lahat	-8799
lipat	-8800
nilay	-8801
octor	-8802
okawa	-8803
otong	-8804
paman	-8805
pirit	-8806
pital	-8807
rasya	-8808
sahan	-8809
sihan	-8810
silim	-8811
ubdan	-8812
ublic	-8813
ubsob	-8814
ugbog	-8815
umahe	-8816
umpak	-8817
ungot	-8818
upong	-8819
uulit	-8820
weldo	-8821
westo	-8822
yawan	-8823
▁1898	-8824
▁Abot	-8825
▁Aila	-8826
▁Anya	-8827
▁Arel	-8828
▁Atis	-8829
▁Baut	-8830
▁Dios	-8831
▁Geor	-8832
▁Guev	-8833
▁Haba	-8834
▁Ibon	-8835
▁Iday	-8836
▁Igin	-8837
▁Impo	-8838
▁Ipak	-8839
▁Kaig	-8840
▁Mand	-8841
▁Maru	-8842
▁Mind	-8843
▁Ngum	-8844
▁Seus	-8845
▁Sing	-8846
▁Toni	-8847
▁Tubo	-8848
▁Utos	-8849
▁Wari	-8850
▁asin	-8851
▁bola	-8852
▁buod	-8853
▁disk	-8854
▁ebid	-8855
▁gabe	-8856
▁gamp	-8857
▁halo	-8858
▁ihip	-8859
▁ikal	-8860
▁ikas	-8861
▁impl	-8862
▁inir	-8863
▁ipam	-8864
▁itak	-8865
▁kaut	-8866
▁laro	-8867
▁lins	-8868
▁maib	-8869
▁maya	-8870
▁mura	-8871
▁naih	-8872
▁nait	-8873
▁nana	-8874
▁nati	-8875
▁over	-8876
▁pili	-8877
▁pipi	-8878
▁pito	-8879
▁plan	-8880
▁puro	-8881
▁pusp	-8882
▁serb	-8883
▁sige	-8884
▁sipi	-8885
▁sugo	-8886
▁susi	-8887
▁tamp	-8888
▁tant	-8889
▁tore	-8890
▁tung	-8891
▁uhaw	-8892
▁utak	-8893
▁utop	-8894
▁uuwi	-8895
00,000	-8896
Tatayo	-8897
Walang	-8898
aanang	-8899
abalag	-8900
abaril	-8901
abilin	-8902
abuhay	-8903
adlang	-8904
ahasan	-8905
ahawak	-8906
akahin	-8907
akapit	-8908
akasan	-8909
alikha	-8910
alipin	-8911
ambong	-8912
andili	-8913
anding	-8914
angako	-8915
angkot	-8916
anting	-8917
apalad	-8918
aridad	-8919
arlika	-8920
asahan	-8921
aspang	-8922
atanas	-8923
atanim	-8924
ations	-8925
dandan	-8926
enteng	-8927
ermino	-8928
ernong	-8929
ibilog	-8930
igmang	-8931
ihinto	-8932
ilahin	-8933
ilikot	-8934
ilipas	-8935
iliwan	-8936
iluhan	-8937
impito	-8938
inhing	-8939
inisid	-8940
ipigil	-8941
ipilit	-8942
isigla	-8943
itigil	-8944
itikan	-8945
iwasay	-8946
masaya	-8947
okasta	-8948
operat	-8949
orotan	-8950
sindak	-8951
syonal	-8952
tanong	-8953
ubhasa	-8954
ukuban	-8955
ulanit	-8956
ulutan	-8957
ungkal	-8958
untung	-8959
unuran	-8960
upling	-8961
urayan	-8962
utukan	-8963
utulan	-8964
yaring	-8965
yerong	-8966
▁Asawa	-8967
▁Basta	-8968
▁Beata	-8969
▁Binab	-8970
▁Chief	-8971
▁Cirio	-8972
▁Dahon	-8973
▁Dinar	-8974
▁Duhat	-8975
▁Epiko	-8976
▁Found	-8977
▁GANDA	-8978
▁Ganda	-8979
▁Gener	-8980
▁Grupo	-8981
▁Handa	-8982
▁Hesuk	-8983
▁Imper	-8984
▁Indio	-8985
▁Kalik	-8986
▁Kanya	-8987
▁Katap	-8988
▁Lamut	-8989
▁Likas	-8990
▁Limay	-8991
▁Makan	-8992
▁Malay	-8993
▁Malin	-8994
▁Mateo	-8995
▁Memor	-8996
▁Miram	-8997
▁Namum	-8998
▁Pakik	-8999
▁Pasta	-9000
▁Pepay	-9001
▁Pinam	-9002
▁Pinoy	-9003
▁Rabut	-9004
▁Ramon	-9005
▁Recto	-9006
▁SIPAG	-9007
▁Sabay	-9008
▁Santi	-9009
▁Sisiw	-9010
▁Supre	-9011
▁Tanag	-9012
▁Tinay	-9013
▁Tokyo	-9014
▁Tugon	-9015
▁Umuwi	-9016
▁Union	-9017
▁YAMAN	-9018
▁Yaman	-9019
▁animo	-9020
▁aruga	-9021
▁asong	-9022
▁balae	-9023
▁balag	-9024
▁bangg	-9025
▁banig	-9026
▁banta	-9027
▁bihag	-9028
▁biyas	-9029
▁dagta	-9030
▁dapit	-9031
▁dasal	-9032
▁dayap	-9033
▁dinad	-9034
▁dinam	-9035
▁erehe	-9036
▁gaano	-9037
▁gumug	-9038
▁hanay	-9039
▁hango	-9040
▁hatid	-9041
▁hibik	-9042
▁hilaw	-9043
▁hinog	-9044
▁hipan	-9045
▁hiram	-9046
▁iraos	-9047
▁isina	-9048
▁kabin	-9049
▁kahon	-9050
▁kakat	-9051
▁kapup	-9052
▁kasan	-9053
▁katat	-9054
▁katul	-9055
▁kiwil	-9056
▁kumuk	-9057
▁kurik	-9058
▁kuwar	-9059
▁lasak	-9060
▁libis	-9061
▁lungg	-9062
▁maari	-9063
▁malas	-9064
▁maliw	-9065
▁mapam	-9066
▁marir	-9067
▁masak	-9068
▁moral	-9069
▁naawa	-9070
▁nahan	-9071
▁nakag	-9072
▁nakib	-9073
▁pagda	-9074
▁paral	-9075
▁pares	-9076
▁parir	-9077
▁paris	-9078
▁pasan	-9079
▁payak	-9080
▁pilos	-9081
▁plasa	-9082
▁saksi	-9083
▁saliw	-9084
▁salop	-9085
▁samyo	-9086
▁sanay	-9087
▁sikap	-9088
▁silbi	-9089
▁sipag	-9090
▁supot	-9091
▁tanan	-9092
▁tanga	-9093
▁tanik	-9094
▁tapis	-9095
▁tatay	-9096
▁tawad	-9097
▁tindi	-9098
▁tingn	-9099
▁tugma	-9100
▁tungg	-9101
▁tunod	-9102
▁yugto	-9103
Andrade	-9104
Maynila	-9105
abatang	-9106
agaslas	-9107
ahabang	-9108
akaloob	-9109
aladkad	-9110
alaglag	-9111
alastas	-9112
ambales	-9113
andahan	-9114
aragdag	-9115
atayong	-9116
awaglit	-9117
ekalogo	-9118
elikula	-9119
imitivo	-9120
insiyam	-9121
intulad	-9122
isasyon	-9123
iwasang	-9124
labanan	-9125
mamahal	-9126
sidiary	-9127
ubungin	-9128
uhangin	-9129
ukadkad	-9130
ungawan	-9131
unggali	-9132
urdahan	-9133
usahang	-9134
ustusan	-9135
▁Alaala	-9136
▁Aleman	-9137
▁Anding	-9138
▁Androm	-9139
▁Bayani	-9140
▁Baysay	-9141
▁Binati	-9142
▁Carpio	-9143
▁Chikoy	-9144
▁DUNONG	-9145
▁Dalawa	-9146
▁Doming	-9147
▁Farida	-9148
▁Forces	-9149
▁Gulong	-9150
▁Gumawa	-9151
▁Impong	-9152
▁Ipinal	-9153
▁Iskong	-9154
▁Kinain	-9155
▁Laurel	-9156
▁Lupang	-9157
▁Miguel	-9158
▁Nagmam	-9159
▁Pamaya	-9160
▁People	-9161
▁Perlas	-9162
▁Romano	-9163
▁School	-9164
▁Sileno	-9165
▁Sinong	-9166
▁United	-9167
▁aksyon	-9168
▁aktwal	-9169
▁alitan	-9170
▁ayusin	-9171
▁babala	-9172
▁balong	-9173
▁bihasa	-9174
▁bilhin	-9175
▁birhen	-9176
▁budget	-9177
▁bumasa	-9178
▁bumati	-9179
▁corpus	-9180
▁damdam	-9181
▁disipl	-9182
▁dumapo	-9183
▁estilo	-9184
▁galang	-9185
▁gitara	-9186
▁gurong	-9187
▁habeas	-9188
▁hagdan	-9189
▁hinala	-9190
▁humina	-9191
▁ibigin	-9192
▁ibinub	-9193
▁ihalal	-9194
▁imbing	-9195
▁inabot	-9196
▁intsik	-9197
▁inukol	-9198
▁isipin	-9199
▁itapon	-9200
▁kaanak	-9201
▁kaanib	-9202
▁kadete	-9203
▁kaginh	-9204
▁kahima	-9205
▁kambal	-9206
▁kapaki	-9207
▁koalis	-9208
▁krimen	-9209
▁kukong	-9210
▁kumita	-9211
▁lalung	-9212
▁lambak	-9213
▁lanubo	-9214
▁layang	-9215
▁lingap	-9216
▁lobong	-9217
▁lugami	-9218
▁maalis	-9219
▁madugo	-9220
▁madula	-9221
▁magdad	-9222
▁magkam	-9223
▁mahika	-9224
▁maingg	-9225
▁mamili	-9226
▁mamuno	-9227
▁mapagl	-9228
▁mapapa	-9229
▁mapili	-9230
▁marang	-9231
▁nagapi	-9232
▁naghim	-9233
▁nagkuk	-9234
▁nagpan	-9235
▁nagsip	-9236
▁nagtut	-9237
▁namuno	-9238
▁nanalo	-9239
▁napagb	-9240
▁napagk	-9241
▁napapa	-9242
▁nasyon	-9243
▁natuto	-9244
▁ninais	-9245
▁ningas	-9246
▁ninong	-9247
▁orasan	-9248
▁pagbuo	-9249
▁pagmum	-9250
▁palalo	-9251
▁pamalo	-9252
▁panaho	-9253
▁patula	-9254
▁pitump	-9255
▁punung	-9256
▁puspos	-9257
▁putong	-9258
▁puwang	-9259
▁pwersa	-9260
▁record	-9261
▁salang	-9262
▁sumira	-9263
▁sweldo	-9264
▁titulo	-9265
▁tiwala	-9266
▁trumpo	-9267
▁umisip	-9268
▁unahan	-9269
▁winika	-9270
aginipan	-9271
ahatulan	-9272
alakalan	-9273
alambing	-9274
alatkayo	-9275
aligtaan	-9276
alimuyak	-9277
anggapan	-9278
angkutan	-9279
apalitan	-9280
asiyahan	-9281
awakawak	-9282
igiliwan	-9283
ingganda	-9284
ipinsala	-9285
paaralan	-9286
practice	-9287
tataguan	-9288
ulinigan	-9289
undangan	-9290
▁Abogado	-9291
▁Abuhing	-9292
▁Basahin	-9293
▁Benigno	-9294
▁Bulusan	-9295
▁Bungang	-9296
▁Datapwa	-9297
▁Donggon	-9298
▁Elenang	-9299
▁Estrada	-9300
▁Ginamit	-9301
▁Huminto	-9302
▁Ikaapat	-9303
▁Ilianon	-9304
▁Iniibig	-9305
▁Iniutos	-9306
▁Kapatid	-9307
▁Larawan	-9308
▁Lipunan	-9309
▁Lubhang	-9310
▁Mabuhay	-9311
▁Madilim	-9312
▁Masakit	-9313
▁Masarap	-9314
▁Matanda	-9315
▁Munting	-9316
▁Nabuhay	-9317
▁Pablito	-9318
▁Pangkal	-9319
▁Pumunta	-9320
▁Satanas	-9321
▁Sicavay	-9322
▁Sumakay	-9323
▁Sumpain	-9324
▁Tagapag	-9325
▁Tahimik	-9326
▁Toniong	-9327
▁Tumalon	-9328
▁Walayin	-9329
▁akalain	-9330
▁alapaap	-9331
▁bagaman	-9332
▁baguhin	-9333
▁balabal	-9334
▁batisan	-9335
▁bayaang	-9336
▁baywang	-9337
▁binalot	-9338
▁bituing	-9339
▁bumabag	-9340
▁bumbong	-9341
▁buwitre	-9342
▁dagitin	-9343
▁dagling	-9344
▁dinanas	-9345
▁dininig	-9346
▁gamutin	-9347
▁ginamot	-9348
▁gitnang	-9349
▁gugulin	-9350
▁hanggan	-9351
▁hayaang	-9352
▁hinango	-9353
▁hinarap	-9354
▁hiniram	-9355
▁hinubog	-9356
▁hulihin	-9357
▁humilig	-9358
▁hustong	-9359
▁idinaos	-9360
▁ikalawa	-9361
▁inaawit	-9362
▁inakala	-9363
▁ipinagp	-9364
▁isagawa	-9365
▁isipang	-9366
▁kakampi	-9367
▁kalahok	-9368
▁kalinga	-9369
▁kanayon	-9370
▁kaparis	-9371
▁karibal	-9372
▁kuwalta	-9373
▁kwartel	-9374
▁laganap	-9375
▁lalakad	-9376
▁langgam	-9377
▁lapatan	-9378
▁laruang	-9379
▁ligalig	-9380
▁linyang	-9381
▁luksang	-9382
▁lumahok	-9383
▁lumuhod	-9384
▁luntian	-9385
▁mabagal	-9386
▁mabango	-9387
▁mabigat	-9388
▁maestro	-9389
▁maganap	-9390
▁magtayo	-9391
▁mahalal	-9392
▁maiiwan	-9393
▁makasal	-9394
▁makatao	-9395
▁makisig	-9396
▁malusog	-9397
▁maluwag	-9398
▁mapatid	-9399
▁matalas	-9400
▁matinik	-9401
▁matulin	-9402
▁mawalay	-9403
▁mayorya	-9404
▁mineral	-9405
▁mithiin	-9406
▁mukhang	-9407
▁nadakip	-9408
▁naglaho	-9409
▁nagsama	-9410
▁nagtamo	-9411
▁nakakap	-9412
▁nakamit	-9413
▁nanatak	-9414
▁napagod	-9415
▁napatid	-9416
▁nariyan	-9417
▁natanaw	-9418
▁natupad	-9419
▁naulila	-9420
▁ninuman	-9421
▁nunukal	-9422
▁pabalik	-9423
▁pabango	-9424
▁pagbili	-9425
▁pagboto	-9426
▁pagdaka	-9427
▁pagtaas	-9428
▁pagtula	-9429
▁paitaas	-9430
▁palaboy	-9431
▁palapit	-9432
▁pasukan	-9433
▁petsang	-9434
▁pinagka	-9435
▁pinamam	-9436
▁pinapag	-9437
▁plumahe	-9438
▁pumalit	-9439
▁putukan	-9440
▁reynong	-9441
▁salawal	-9442
▁samahan	-9443
▁santong	-9444
▁sasabog	-9445
▁serbesa	-9446
▁sinasal	-9447
▁sinunod	-9448
▁suporta	-9449
▁tanglaw	-9450
▁taniman	-9451
▁tinuran	-9452
▁tumutol	-9453
▁ulilang	-9454
▁walumpu	-9455
ahanggang	-9456
alatayang	-9457
alinangan	-9458
arangalan	-9459
iniwalaan	-9460
ipikasyon	-9461
iwangwang	-9462
lalawigan	-9463
unikasyon	-9464
▁Arellano	-9465
▁Bautista	-9466
▁Doronoon	-9467
▁Guevarra	-9468
▁Halamang	-9469
▁Hilagang	-9470
▁Hukumang	-9471
▁Ibinigay	-9472
▁Kalabasa	-9473
▁Kampupot	-9474
▁Karaniwa	-9475
▁Kasamang	-9476
▁Kristong	-9477
▁Kundiman	-9478
▁Magtatag	-9479
▁Mahalaga	-9480
▁Mahigpit	-9481
▁Malaking	-9482
▁Memorial	-9483
▁Menalipo	-9484
▁Nagbigay	-9485
▁Naghanda	-9486
▁Namalagi	-9487
▁Napadaan	-9488
▁Pangalan	-9489
▁Panlabas	-9490
▁Pilipina	-9491
▁Santiago	-9492
▁Sinundan	-9493
▁Tanagyaw	-9494
▁Tinchang	-9495
▁Tumanggi	-9496
▁adhikain	-9497
▁akalaing	-9498
▁alikabok	-9499
▁balangay	-9500
▁beterano	-9501
▁bisperas	-9502
▁buhangin	-9503
▁bulubund	-9504
▁butihing	-9505
▁dagdagan	-9506
▁engkanto	-9507
▁gumagala	-9508
▁gumising	-9509
▁guniguni	-9510
▁halakhak	-9511
▁himalang	-9512
▁hinirang	-9513
▁inihalal	-9514
▁inilabas	-9515
▁ipagbili	-9516
▁ipinasya	-9517
▁isinilid	-9518
▁itatakda	-9519
▁kaanyuan	-9520
▁kabiguan	-9521
▁kahapong	-9522
▁kakaunti	-9523
▁kalayuan	-9524
▁kampilan	-9525
▁kapangan	-9526
▁karakter	-9527
▁karaniwa	-9528
▁katagang	-9529
▁kautusan	-9530
▁kinausap	-9531
▁kolehiyo	-9532
▁kontrata	-9533
▁kubyerta	-9534
▁lumalaki	-9535
▁lumalang	-9536
▁lumangoy	-9537
▁luntiang	-9538
▁mababait	-9539
▁mababasa	-9540
▁madugong	-9541
▁magbunga	-9542
▁mahirang	-9543
▁maikling	-9544
▁makagawa	-9545
▁makapagb	-9546
▁makapagp	-9547
▁makipags	-9548
▁malambot	-9549
▁mapakali	-9550
▁mapansin	-9551
▁masasama	-9552
▁matataas	-9553
▁minokawa	-9554
▁nabahala	-9555
▁nagbuhat	-9556
▁nagising	-9557
▁naglaban	-9558
▁nagnakaw	-9559
▁nagsadya	-9560
▁nagsisip	-9561
▁nagtampo	-9562
▁naisipan	-9563
▁nakapang	-9564
▁namangha	-9565
▁namumuno	-9566
▁nanalong	-9567
▁nanganak	-9568
▁napaiyak	-9569
▁natirang	-9570
▁paanyaya	-9571
▁pabareal	-9572
▁pabayaan	-9573
▁pabigkas	-9574
▁pagbubuo	-9575
▁paggugol	-9576
▁pagkakab	-9577
▁pagkamat	-9578
▁paglahok	-9579
▁pagliyag	-9580
▁pagpigil	-9581
▁pagsasal	-9582
▁pagsikat	-9583
▁pagyaman	-9584
▁pakitang	-9585
▁palayain	-9586
▁palengke	-9587
▁pangahas	-9588
▁pangamba	-9589
▁panghabi	-9590
▁pinakama	-9591
▁piyesang	-9592
▁puhunang	-9593
▁pulitika	-9594
▁pulubing	-9595
▁pumarito	-9596
▁sandaang	-9597
▁sisidlan	-9598
▁sumaklaw	-9599
▁talangka	-9600
▁talipapa	-9601
▁tangkang	-9602
▁tenyente	-9603
▁tinakpan	-9604
▁tinamaan	-9605
▁tinamong	-9606
▁titingin	-9607
▁tulisang	-9608
▁tumutubo	-9609
adalawampu	-9610
asalukuyan	-9611
ilingkuran	-9612
▁Amburayan	-9613
▁Binanggit	-9614
▁Ferdinand	-9615
▁Guwardiya	-9616
▁Krotonang	-9617
▁Matandang	-9618
▁Miramolin	-9619
▁Natagpuan	-9620
▁Pakinggan	-9621
▁Primitivo	-9622
▁Tanggapan	-9623
▁bahagyang	-9624
▁bandilang	-9625
▁banggitin	-9626
▁binitiwan	-9627
▁hinaharap	-9628
▁itinanong	-9629
▁kabaliwan	-9630
▁kabatiran	-9631
▁kalakalan	-9632
▁kalinisan	-9633
▁kasabihan	-9634
▁kasagutan	-9635
▁katakdaan	-9636
▁katuparan	-9637
▁kumakanta	-9638
▁lilimutin	-9639
▁lingkuran	-9640
▁lumalapit	-9641
▁mabubuhay	-9642
▁magagamit	-9643
▁magdiwang	-9644
▁maginhawa	-9645
▁magkaloob	-9646
▁magtanong	-9647
▁mahabagin	-9648
▁mahinhing	-9649
▁makalabas	-9650
▁makalipad	-9651
▁makapasok	-9652
▁mananakaw	-9653
▁maririkit	-9654
▁masilayan	-9655
▁masugatan	-9656
▁masunurin	-9657
▁matutuhan	-9658
▁matutuloy	-9659
▁mumunting	-9660
▁nababagay	-9661
▁nabanggit	-9662
▁nagaganap	-9663
▁nagdaraan	-9664
▁naghandog	-9665
▁nagigipit	-9666
▁nagkamali	-9667
▁nagsasaad	-9668
▁nagugutom	-9669
▁naiinggit	-9670
▁nakangiti	-9671
▁nalimutan	-9672
▁namamatay	-9673
▁napatigil	-9674
▁nasilayan	-9675
▁nasugatan	-9676
▁paaralang	-9677
▁pagdaraan	-9678
▁pagdurusa	-9679
▁pagkilala	-9680
▁paglililo	-9681
▁pagnanais	-9682
▁pagpipita	-9683
▁pagtataka	-9684
▁pagtugtog	-9685
▁pakakasal	-9686
▁pamamahay	-9687
▁pamilyang	-9688
▁pananamit	-9689
▁panginoon	-9690
▁pangkaran	-9691
▁patawarin	-9692
▁pinagpala	-9693
▁pinayuhan	-9694
▁pinipitas	-9695
▁pinuhunan	-9696
▁sertipiko	-9697
▁sinabihan	-9698
▁sinundang	-9699
▁sumasapit	-9700
▁tadhanang	-9701
akasalubong	-9702
asalukuyang	-9703
▁Convention	-9704
▁Foundation	-9705
▁Gayunpaman	-9706
▁Gobernador	-9707
▁Hesukristo	-9708
▁Kaigorotan	-9709
▁Kalahating	-9710
▁Karapatang	-9711
▁Nabalitaan	-9712
▁Nabilanggo	-9713
▁Napilitang	-9714
▁Pagmamahal	-9715
▁Panganiban	-9716
▁Pinuntahan	-9717
▁Presidente	-9718
▁Saridandan	-9719
▁Silanganan	-9720
▁alimangong	-9721
▁apatnapung	-9722
▁binantayan	-9723
▁bumubulong	-9724
▁durungawan	-9725
▁edukasyong	-9726
▁ginagawang	-9727
▁ibinibigay	-9728
▁ipinangako	-9729
▁itinanghal	-9730
▁kamatayang	-9731
▁kaparangan	-9732
▁kapintasan	-9733
▁katularing	-9734
▁katunggali	-9735
▁kumikinang	-9736
▁linggatong	-9737
▁maaliwalas	-9738
▁mabubuting	-9739
▁magbabalik	-9740
▁magkasakit	-9741
▁magtaguyod	-9742
▁magtotroso	-9743
▁makikilala	-9744
▁matulungan	-9745
▁matulungin	-9746
▁mayayamang	-9747
▁nabibilang	-9748
▁nagbubuhat	-9749
▁nagduruyan	-9750
▁naghihirap	-9751
▁naglalahad	-9752
▁naglalaman	-9753
▁nagmamahal	-9754
▁nagtatakda	-9755
▁nakaligtas	-9756
▁nakatingin	-9757
▁nalilimbag	-9758
▁nanalangin	-9759
▁napakalaki	-9760
▁pagbubukas	-9761
▁paghahabol	-9762
▁paghahalal	-9763
▁paghahamok	-9764
▁paglalayag	-9765
▁pagpapalit	-9766
▁pagsalakay	-9767
▁pagtatakda	-9768
▁pahayagang	-9769
▁panambitan	-9770
▁pandaigdig	-9771
▁panrehiyon	-9772
▁papayagang	-9773
▁pasubaling	-9774
▁sanggunian	-9775
▁sapilitang	-9776
▁sinasabing	-9777
▁sinasakyan	-9778
▁sinusundan	-9779
▁subsidiary	-9780
▁suliraning	-9781
▁talampakan	-9782
▁tinatanong	-9783
▁tradisyong	-9784
angailangang	-9785
▁Iminungkahi	-9786
▁Inanyayahan	-9787
▁Ipinakilala	-9788
▁Kahalagahan	-9789
▁Kongresista	-9790
▁Pamahalaang	-9791
▁ibinilanggo	-9792
▁inanyayahan	-9793
▁institusyon	-9794
▁ipaghiganti	-9795
▁isinalaysay	-9796
▁kalagitnaan	-9797
▁kapulungang	-9798
▁katiwasayan	-9799
▁kumakatawan	-9800
▁labinlimang	-9801
▁magpakailan	-9802
▁magsasalita	-9803
▁mahihirapan	-9804
▁mainggiting	-9805
▁makakayanan	-9806
▁makasalanan	-9807
▁makipagkita	-9808
▁nagkakaroon	-9809
▁naglalayong	-9810
▁nagtangkang	-9811
▁nagtatanong	-9812
▁nakapaligid	-9813
▁nakatatanda	-9814
▁nangungusap	-9815
▁napakaganda	-9816
▁pagdaralita	-9817
▁pagkagising	-9818
▁pagkakaagaw	-9819
▁pagkakaloob	-9820
▁pagsasarili	-9821
▁panggagamot	-9822
▁panghikayat	-9823
▁pasalamatan	-9824
▁sinapupunan	-9825
▁superbisyon	-9826
▁tatanggapin	-9827
▁tinatanggap	-9828
▁Nagpasalamat	-9829
▁boluntaryong	-9830
▁eksklusibong	-9831
▁engkantadong	-9832
▁ikinabubuhay	-9833
▁inilalarawan	-9834
▁kaginhawahan	-9835
▁kasangkapang	-9836
▁mandirigmang	-9837
▁nagmistulang	-9838
▁nagngangalit	-9839
▁nagpasalamat	-9840
▁nagtatrabaho	-9841
▁nangangasiwa	-9842
▁paglingkuran	-9843
▁pagmamalabis	-9844
▁pagpapatotoo	-9845
▁pagpapatupad	-9846
▁pagsisiyasat	-9847
▁pagtataguyod	-9848
▁palatuntunan	-9849
▁patutunguhan	-9850
▁pinakamaliit	-9851
▁sangkatauhan	-9852
▁tagapagbatas	-9853
▁Ipinagpatuloy	-9854
▁Lalapindigowa	-9855
▁instrumentong	-9856
▁internasyonal	-9857
▁ipagtatanggol	-9858
▁kinagigiliwan	-9859
▁magtatagumpay	-9860
▁makapagsalita	-9861
▁mangangalakal	-9862
▁mapapangasawa	-9863
▁nagniningning	-9864
▁pagkabilanggo	-9865
▁pagpapanatili	-9866
▁pinagtataguan	-9867
▁sertipikasyon	-9868
▁tagapagligtas	-9869
▁makapaghiganti	-9870
▁manghihimagsik	-9871
▁pampangasiwaan	-9872
▁pangkapulungan	-9873
▁pinagkautangan	-9874
▁pinakadakilang	-9875
▁tagapagtanggol	-9876
▁pinakamagandang	-9877
-9	-9878
38	-9879
50	-9880
5:	-9881
8:	-9882
HH	-9883
IM	-9884
MD	-9885
UK	-9886
YA	-9887
ft	-9888
ki	-9889
ll	-9890
ry	-9891
uf	-9892
uu	-9893
zo	-9894
!!!	-9895
-12	-9896
-20	-9897
-26	-9898
009	-9899
6-1	-9900
Dum	-9901
HAN	-9902
Hum	-9903
Kay	-9904
Low	-9905
Lum	-9906
Pap	-9907
Sap	-9908
Sas	-9909
Sin	-9910
ads	-9911
agn	-9912
all	-9913
alm	-9914
apl	-9915
ayd	-9916
cAr	-9917
cel	-9918
col	-9919
def	-9920
dez	-9921
eme	-9922
ffi	-9923
ied	-9924
ily	-9925
iph	-9926
ism	-9927
kab	-9928
kok	-9929
ley	-9930
low	-9931
mok	-9932
mol	-9933
mos	-9934
nag	-9935
nam	-9936
neg	-9937
oli	-9938
opa	-9939
rib	-9940
rov	-9941
rup	-9942
sar	-9943
sen	-9944
ser	-9945
sia	-9946
tak	-9947
tir	-9948
tot	-9949
ueg	-9950
uir	-9951
uod	-9952
uoy	-9953
usm	-9954
uum	-9955
wil	-9956
yed	-9957
–19	-9958
▁40	-9959
▁50	-9960
▁Aw	-9961
▁Do	-9962
▁Er	-9963
▁Ev	-9964
▁Iw	-9965
▁Ja	-9966
▁Sy	-9967
▁Ti	-9968
▁Ur	-9969
▁Ya	-9970
▁co	-9971
▁dy	-9972
▁ok	-9973
▁ti	-9974
▁un	-9975
!...	-9976
9-19	-9977
Flor	-9978
Gaya	-9979
Ilog	-9980
Mbgl	-9981
Miya	-9982
Naku	-9983
Tayo	-9984
abad	-9985
abla	-9986
ahis	-9987
alil	-9988
alye	-9989
amos	-9990
apam	-9991
apaw	-9992
atil	-9993
atim	-9994
atis	-9995
daka	-9996
dido	-9997
diin	-9998
dila	-9999
edia	-10000
ehis	-10001
elas	-10002
ensa	-10003
erio	-10004
erpe	-10005
erti	-10006
ethe	-10007
ette	-10008
gong	-10009
idor	-10010
igin	-10011
ikin	-10012
ilap	-10013
ilot	-10014
inal	-10015
inio	-10016
inog	-10017
ipid	-10018
isik	-10019
isis	-10020
itiw	-10021
iuna	-10022
kest	-10023
krip	-10024
kuro	-10025
laan	-10026
laki	-10027
laon	-10028
lima	-10029
oble	-10030
offi	-10031
oice	-10032
olog	-10033
olos	-10034
onis	-10035
onso	-10036
orya	-10037
ower	-10038
pala	-10039
ploy	-10040
rati	-10041
ribo	-10042
rile	-10043
rita	-10044
salo	-10045
stre	-10046
sura	-10047
thur	-10048
ubin	-10049
udla	-10050
uela	-10051
ueva	-10052
ugaw	-10053
uipo	-10054
uity	-10055
ukab	-10056
umid	-10057
umig	-10058
umon	-10059
upin	-10060
upon	-10061
uros	-10062
utik	-10063
uyot	-10064
uyur	-10065
wala	-10066
wita	-10067
yena	-10068
yuko	-10069
▁(8)	-10070
▁11:	-10071
▁12:	-10072
▁13:	-10073
▁14:	-10074
▁15:	-10075
▁16:	-10076
▁17:	-10077
▁188	-10078
▁18:	-10079
▁19,	-10080
▁19:	-10081
▁20:	-10082
▁21:	-10083
▁22:	-10084
▁23.	-10085
▁23:	-10086
▁24:	-10087
▁25:	-10088
▁26:	-10089
▁27:	-10090
▁28:	-10091
▁29:	-10092
▁30:	-10093
▁Alb	-10094
▁Aso	-10095
▁Ass	-10096
▁Aya	-10097
▁Bud	-10098
▁Buw	-10099
▁Cap	-10100
▁Doo	-10101
▁Dra	-10102
▁Eto	-10103
▁Hen	-10104
▁Hig	-10105
▁Huh	-10106
▁Iya	-10107
▁Kod	-10108
▁Kup	-10109
▁Leg	-10110
▁Mon	-10111
▁Nad	-10112
▁Nai	-10113
▁Neg	-10114
▁Pul	-10115
▁Pup	-10116
▁Pur	-10117
▁Sag	-10118
▁Sig	-10119
▁Sur	-10120
▁Teb	-10121
▁Tig	-10122
▁Toy	-10123
▁Uma	-10124
▁Vis	-10125
▁alp	-10126
▁arm	-10127
▁awt	-10128
▁bel	-10129
▁dap	-10130
▁dug	-10131
▁gig	-10132
▁gul	-10133
▁iwi	-10134
▁lal	-10135
▁lam	-10136
▁lap	-10137
▁lat	-10138
▁lay	-10139
▁met	-10140
▁paw	-10141
▁pot	-10142
▁rad	-10143
▁rel	-10144
▁sep	-10145
▁sib	-10146
▁sos	-10147
▁tol	-10148
▁top	-10149
▁ung	-10150
Anong	-10151
Bayan	-10152
Buong	-10153
Dahan	-10154
Iiyak	-10155
Iyong	-10156
Lahat	-10157
Mahal	-10158
Maria	-10159
aalsa	-10160
aanim	-10161
abawi	-10162
abida	-10163
adako	-10164
ademy	-10165
ading	-10166
adlad	-10167
adlak	-10168
adtad	-10169
agasa	-10170
agpak	-10171
aksak	-10172
aktan	-10173
alain	-10174
alamb	-10175
alaro	-10176
alisa	-10177
amisa	-10178
amnan	-10179
ampal	-10180
ampon	-10181
anaag	-10182
ander	-10183
angga	-10184
antad	-10185
antas	-10186
anyak	-10187
anzon	-10188
apito	-10189
apula	-10190
araeg	-10191
ardia	-10192
arhan	-10193
atian	-10194
atras	-10195
atriz	-10196
awagi	-10197
balik	-10198
cillo	-10199
ehong	-10200
elina	-10201
emble	-10202
essor	-10203
harap	-10204
hento	-10205
ibigo	-10206
ighan	-10207
igong	-10208
iknik	-10209
ility	-10210
imawa	-10211
imbar	-10212
impok	-10213
indra	-10214
inese	-10215
iraan	-10216
irapa	-10217
isama	-10218
ister	-10219
iyano	-10220
kabit	-10221
kasan	-10222
labis	-10223
lagas	-10224
lakad	-10225
lanca	-10226
linga	-10227
mulan	-10228
mundo	-10229
negos	-10230
onong	-10231
opoot	-10232
panya	-10233
ports	-10234
rimon	-10235
sibol	-10236
silip	-10237
takot	-10238
tanaw	-10239
tanim	-10240
tasin	-10241
torya	-10242
ubaya	-10243
udyok	-10244
uerte	-10245
ugmok	-10246
uhian	-10247
ukano	-10248
uklam	-10249
uklas	-10250
uklay	-10251
ulain	-10252
ulano	-10253
ultur	-10254
uming	-10255
umpas	-10256
unday	-10257
ungal	-10258
unior	-10259
unsod	-10260
untis	-10261
urnal	-10262
using	-10263
uyasu	-10264
yales	-10265
ythag	-10266
▁(197	-10267
▁1890	-10268
▁Alim	-10269
▁Alon	-10270
▁Apat	-10271
▁Birh	-10272
▁Cord	-10273
▁Daig	-10274
▁Dati	-10275
▁Guro	-10276
▁Idin	-10277
▁Iisa	-10278
▁Ilaw	-10279
▁Judi	-10280
▁KAMP	-10281
▁Kano	-10282
▁Kasi	-10283
▁Lamb	-10284
▁Lola	-10285
▁Lolo	-10286
▁Maga	-10287
▁Magu	-10288
▁Manl	-10289
▁Mata	-10290
▁McAr	-10291
▁Nina	-10292
▁Oras	-10293
▁Pagp	-10294
▁Pans	-10295
▁Paru	-10296
▁Pebo	-10297
▁Plat	-10298
▁Poon	-10299
▁Pulo	-10300
▁Sakb	-10301
▁Sama	-10302
▁Sige	-10303
▁Tama	-10304
▁Tana	-10305
▁Taon	-10306
▁Tata	-10307
▁Ubos	-10308
▁Utak	-10309
▁Yamb	-10310
▁aban	-10311
▁atas	-10312
▁baha	-10313
▁balo	-10314
▁bulo	-10315
▁dapt	-10316
▁dela	-10317
▁dipa	-10318
▁dumi	-10319
▁hapo	-10320
▁ibub	-10321
▁ilal	-10322
▁imbi	-10323
▁imik	-10324
▁ipab	-10325
▁itso	-10326
▁kapa	-10327
▁kara	-10328
▁kata	-10329
▁kati	-10330
▁kuko	-10331
▁kump	-10332
▁kuro	-10333
▁liku	-10334
▁lira	-10335
▁loro	-10336
▁mana	-10337
▁mapa	-10338
▁myth	-10339
▁nail	-10340
▁oper	-10341
▁paki	-10342
▁pano	-10343
▁perp	-10344
▁porm	-10345
▁post	-10346
▁prof	-10347
▁pusa	-10348
▁pust	-10349
▁ramo	-10350
▁salu	-10351
▁samb	-10352
▁serp	-10353
▁solo	-10354
▁sukd	-10355
▁taun	-10356
▁trah	-10357
▁tuka	-10358
▁turo	-10359
▁ubos	-10360
▁uhay	-10361
Arroyo	-10362
Halina	-10363
Iaayon	-10364
Ibarra	-10365
Lalaki	-10366
Parang	-10367
aaruga	-10368
abansa	-10369
abilis	-10370
abulan	-10371
abusaw	-10372
agakat	-10373
agalak	-10374
agatin	-10375
ahaman	-10376
ahanay	-10377
aksyon	-10378
alakip	-10379
alasin	-10380
alatag	-10381
alayaw	-10382
alyero	-10383
andera	-10384
andila	-10385
anglaw	-10386
ansing	-10387
anyaya	-10388
arahas	-10389
araing	-10390
aralin	-10391
arapin	-10392
arilin	-10393
arilyo	-10394
arship	-10395
asalan	-10396
awitan	-10397
ayawan	-10398
bahala	-10399
bulong	-10400
dakila	-10401
ercito	-10402
eriana	-10403
ersang	-10404
etheus	-10405
galang	-10406
gulong	-10407
hambal	-10408
hinala	-10409
ibayin	-10410
idilig	-10411
idilim	-10412
igmaan	-10413
ihanap	-10414
ikaing	-10415
ikalab	-10416
ikulan	-10417
ilabot	-10418
ilalas	-10419
ilihan	-10420
ilipit	-10421
illera	-10422
imasok	-10423
inario	-10424
incial	-10425
ipinan	-10426
isilbi	-10427
ission	-10428
iwalat	-10429
iyawan	-10430
kainan	-10431
kislap	-10432
latera	-10433
lutang	-10434
madali	-10435
minsan	-10436
orikal	-10437
padana	-10438
pagkat	-10439
parong	-10440
saping	-10441
tulong	-10442
uangco	-10443
ubukan	-10444
ugitan	-10445
uirino	-10446
ulagta	-10447
ulalas	-10448
ulanan	-10449
ulgado	-10450
ulihan	-10451
ulisan	-10452
uluwal	-10453
umanay	-10454
umikap	-10455
umusta	-10456
ungsod	-10457
unugin	-10458
usulat	-10459
uunlad	-10460
waring	-10461
wiling	-10462
▁1,000	-10463
▁1897.	-10464
▁1957.	-10465
▁1986.	-10466
▁Adlaw	-10467
▁Agham	-10468
▁Asong	-10469
▁Atake	-10470
▁Ating	-10471
▁Ayoko	-10472
▁Babae	-10473
▁Batay	-10474
▁Bikol	-10475
▁Bukal	-10476
▁Bukas	-10477
▁Bunga	-10478
▁Celia	-10479
▁Claro	-10480
▁Dahan	-10481
▁Dinig	-10482
▁Edipo	-10483
▁Evang	-10484
▁Gawin	-10485
▁Gubat	-10486
▁Hawak	-10487
▁Hayop	-10488
▁Hesus	-10489
▁Hirap	-10490
▁Hukbo	-10491
▁Human	-10492
▁Ibang	-10493
▁Ildef	-10494
▁Kapal	-10495
▁Kauna	-10496
▁Kayum	-10497
▁Kinag	-10498
▁Laban	-10499
▁Lihim	-10500
▁Lopez	-10501
▁Lumul	-10502
▁Lupon	-10503
▁Luson	-10504
▁Maawa	-10505
▁Mapat	-10506
▁Momoy	-10507
▁Nakak	-10508
▁Nanay	-10509
▁Norte	-10510
▁North	-10511
▁Odang	-10512
▁Pangg	-10513
▁Pinah	-10514
▁Power	-10515
▁Ramos	-10516
▁Santa	-10517
▁Sumas	-10518
▁Sunod	-10519
▁Takot	-10520
▁Tapat	-10521
▁Totoo	-10522
▁Tungk	-10523
▁Vigan	-10524
▁Waray	-10525
▁agnos	-10526
▁alkon	-10527
▁antok	-10528
▁anupa	-10529
▁bapor	-10530
▁binit	-10531
▁bisyo	-10532
▁bitui	-10533
▁buena	-10534
▁certi	-10535
▁dahop	-10536
▁darak	-10537
▁dawag	-10538
▁doble	-10539
▁doong	-10540
▁emper	-10541
▁gayak	-10542
▁guhit	-10543
▁gulok	-10544
▁gusot	-10545
▁hikaw	-10546
▁hinig	-10547
▁hitik	-10548
▁hitso	-10549
▁hulog	-10550
▁huwad	-10551
▁iabot	-10552
▁iluha	-10553
▁imbit	-10554
▁inimb	-10555
▁ipang	-10556
▁isasa	-10557
▁kahap	-10558
▁kalim	-10559
▁kapak	-10560
▁kapos	-10561
▁kasak	-10562
▁kaser	-10563
▁kasoy	-10564
▁kayat	-10565
▁kinah	-10566
▁kisap	-10567
▁kisig	-10568
▁kolon	-10569
▁labor	-10570
▁lalag	-10571
▁lalam	-10572
▁lente	-10573
▁limos	-10574
▁lumil	-10575
▁lupon	-10576
▁madad	-10577
▁malal	-10578
▁manin	-10579
▁marka	-10580
▁medyo	-10581
▁minim	-10582
▁mitsa	-10583
▁multo	-10584
▁nabub	-10585
▁nagpa	-10586
▁nahah	-10587
▁nakah	-10588
▁nalig	-10589
▁nanay	-10590
▁nanga	-10591
▁napal	-10592
▁napup	-10593
▁nilag	-10594
▁nomin	-10595
▁ordin	-10596
▁pahih	-10597
▁paimb	-10598
▁palig	-10599
▁parte	-10600
▁patul	-10601
▁payag	-10602
▁pilat	-10603
▁pilay	-10604
▁pinar	-10605
▁plano	-10606
▁popul	-10607
▁pulos	-10608
▁pumap	-10609
▁punan	-10610
▁punlo	-10611
▁sakim	-10612
▁sapin	-10613
▁setro	-10614
▁siglo	-10615
▁sikdo	-10616
▁silya	-10617
▁sobra	-10618
▁subok	-10619
▁sunud	-10620
▁supil	-10621
▁suson	-10622
▁sutla	-10623
▁tagat	-10624
▁tatan	-10625
▁tikas	-10626
▁torso	-10627
▁trigo	-10628
▁tukod	-10629
▁unawa	-10630
▁walis	-10631
▁yabag	-10632
▁yagit	-10633
Ituturo	-10634
Pangulo	-10635
Papasok	-10636
Pupunta	-10637
aangkin	-10638
abasang	-10639
abuting	-10640
agulang	-10641
ahalang	-10642
ahangga	-10643
aksihan	-10644
alamuha	-10645
alangit	-10646
alasing	-10647
aligtad	-10648
alimuot	-10649
alisang	-10650
ambilat	-10651
anghali	-10652
ansanan	-10653
apakpak	-10654
apantay	-10655
arausan	-10656
ariwara	-10657
artment	-10658
asakang	-10659
asaktan	-10660
asayang	-10661
asmasan	-10662
atakpan	-10663
atangis	-10664
atubili	-10665
awagang	-10666
awangis	-10667
ayabang	-10668
ehislat	-10669
eksiyon	-10670
emetery	-10671
ensiyon	-10672
entrong	-10673
hiwalay	-10674
iglahan	-10675
ikitang	-10676
ikiusap	-10677
ilibing	-10678
intayin	-10679
isilang	-10680
isipsip	-10681
iwalaan	-10682
lawigan	-10683
lumpung	-10684
officio	-10685
ospital	-10686
padahan	-10687
rocinio	-10688
ugalian	-10689
uhayang	-10690
ulangan	-10691
ulatang	-10692
ulimlim	-10693
umbasan	-10694
umiglas	-10695
umpayan	-10696
ustuhin	-10697
▁Andong	-10698
▁Apollo	-10699
▁Balita	-10700
▁Bangko	-10701
▁Banlak	-10702
▁Blanca	-10703
▁Buhong	-10704
▁Bumaba	-10705
▁Dakila	-10706
▁Ganoon	-10707
▁Ginawa	-10708
▁Halina	-10709
▁Hangin	-10710
▁Ikatlo	-10711
▁Iloilo	-10712
▁Ilongo	-10713
▁Inabot	-10714
▁Inalis	-10715
▁Ipugaw	-10716
▁Junior	-10717
▁Kabesa	-10718
▁Kagaya	-10719
▁Kapule	-10720
▁Kidlat	-10721
▁Kikong	-10722
▁Kilala	-10723
▁Komite	-10724
▁Kuaman	-10725
▁Kuyasu	-10726
▁Layang	-10727
▁Limang	-10728
▁Lumaki	-10729
▁Lumayo	-10730
▁Lunsod	-10731
▁Mactan	-10732
▁Magmam	-10733
▁Mahina	-10734
▁Mainit	-10735
▁Maitim	-10736
▁Makati	-10737
▁Malayo	-10738
▁Masdan	-10739
▁Medusa	-10740
▁Nagsas	-10741
▁Nanaog	-10742
▁Napuna	-10743
▁Natawa	-10744
▁Niyong	-10745
▁Pabula	-10746
▁Pagkak	-10747
▁Pangin	-10748
▁Pinagh	-10749
▁Pinags	-10750
▁Pinagt	-10751
▁Pinang	-10752
▁Pythag	-10753
▁Sariwa	-10754
▁Sotero	-10755
▁Tauhan	-10756
▁Toyang	-10757
▁Tuwing	-10758
▁Umahon	-10759
▁Umiyak	-10760
▁Yuyuko	-10761
▁abutin	-10762
▁agimat	-10763
▁alisin	-10764
▁angkan	-10765
▁artist	-10766
▁asahan	-10767
▁asotea	-10768
▁bagama	-10769
▁balite	-10770
▁bathin	-10771
▁bigkis	-10772
▁binili	-10773
▁bumili	-10774
▁bumuka	-10775
▁damhin	-10776
▁dangan	-10777
▁datung	-10778
▁dispos	-10779
▁dumami	-10780
▁eksena	-10781
▁employ	-10782
▁garuda	-10783
▁giting	-10784
▁giyera	-10785
▁gusali	-10786
▁halama	-10787
▁halong	-10788
▁hampas	-10789
▁hilaga	-10790
▁hinhin	-10791
▁ibayad	-10792
▁ikasal	-10793
▁ikmong	-10794
▁imahin	-10795
▁impluw	-10796
▁inisip	-10797
▁inuuna	-10798
▁ipinap	-10799
▁ipuipo	-10800
▁itatag	-10801
▁itsura	-10802
▁iwanan	-10803
▁kainan	-10804
▁kalahi	-10805
▁kamusm	-10806
▁kanais	-10807
▁kanina	-10808
▁kapara	-10809
▁kasong	-10810
▁kastil	-10811
▁katawa	-10812
▁kompit	-10813
▁konsul	-10814
▁kumpas	-10815
▁kumpis	-10816
▁kurang	-10817
▁lagnat	-10818
▁lalayo	-10819
▁lampas	-10820
▁maagap	-10821
▁mababa	-10822
▁magkap	-10823
▁magsil	-10824
▁magtut	-10825
▁malaon	-10826
▁mapags	-10827
▁mapaso	-10828
▁marmol	-10829
▁marumi	-10830
▁masawi	-10831
▁masira	-10832
▁medium	-10833
▁mongha	-10834
▁mulala	-10835
▁munang	-10836
▁nagkad	-10837
▁naglul	-10838
▁nagsit	-10839
▁nahati	-10840
▁naipit	-10841
▁naluto	-10842
▁napuna	-10843
▁nasira	-10844
▁natuwa	-10845
▁nayong	-10846
▁orkest	-10847
▁pagkar	-10848
▁palong	-10849
▁panlab	-10850
▁piping	-10851
▁propor	-10852
▁ranggo	-10853
▁sabong	-10854
▁sakali	-10855
▁saklap	-10856
▁sakong	-10857
▁sastre	-10858
▁sawing	-10859
▁sedula	-10860
▁singaw	-10861
▁singil	-10862
▁sirain	-10863
▁subali	-10864
▁tagdan	-10865
▁tumula	-10866
▁tuwina	-10867
▁uliran	-10868
▁umabot	-10869
▁umakay	-10870
▁umimik	-10871
▁usbong	-10872
▁utopia	-10873
▁wikain	-10874
Florante	-10875
Pilipino	-10876
Sapagkat	-10877
abalahan	-10878
aganapan	-10879
ahinuhod	-10880
alabasan	-10881
alikuran	-10882
amamatay	-10883
amanglaw	-10884
apakinig	-10885
araanang	-10886
asunduan	-10887
atakutan	-10888
atandang	-10889
atanghal	-10890
bersyong	-10891
hinayang	-10892
igtasang	-10893
ilanlang	-10894
ilimutan	-10895
inggitan	-10896
ipitagan	-10897
itingnan	-10898
kalayuan	-10899
mamasdan	-10900
olohikal	-10901
pirasong	-10902
sarimbar	-10903
tulungan	-10904
ubuhayin	-10905
ugtungan	-10906
ukuwento	-10907
ulturero	-10908
ungaling	-10909
ungkutin	-10910
yayahang	-10911
▁Academy	-10912
▁Bandina	-10913
▁Bantong	-10914
▁Birheng	-10915
▁Bitiwan	-10916
▁Cagayan	-10917
▁Congres	-10918
▁Dagling	-10919
▁Dinggin	-10920
▁Diumano	-10921
▁Europeo	-10922
▁Gagamba	-10923
▁Gintong	-10924
▁Haharap	-10925
▁Hinugot	-10926
▁Hukbong	-10927
▁Humanda	-10928
▁Ikalima	-10929
▁Ilukano	-10930
▁Indones	-10931
▁Journal	-10932
▁Kulaman	-10933
▁Layunin	-10934
▁Lumipad	-10935
▁Lumitaw	-10936
▁Mahalin	-10937
▁Mahigit	-10938
▁Malinaw	-10939
▁Malolos	-10940
▁Mamatay	-10941
▁Matangi	-10942
▁Matigas	-10943
▁Mayaman	-10944
▁Nabatid	-10945
▁Nabigla	-10946
▁Nakinig	-10947
▁Namutla	-10948
▁Nangako	-10949
▁Nanging	-10950
▁Napatay	-10951
▁Natapos	-10952
▁Nilusob	-10953
▁Paggawa	-10954
▁Palayok	-10955
▁Partido	-10956
▁Pinasan	-10957
▁Pinigil	-10958
▁Pupunta	-10959
▁Selyang	-10960
▁Tanauan	-10961
▁Tinipon	-10962
▁Tumigil	-10963
▁Tungkol	-10964
▁Visayas	-10965
▁Watawat	-10966
▁Yokasta	-10967
▁alagaan	-10968
▁artista	-10969
▁bagoong	-10970
▁bahagya	-10971
▁bandera	-10972
▁banyaga	-10973
▁barilin	-10974
▁batuhan	-10975
▁bawalan	-10976
▁binalak	-10977
▁binaril	-10978
▁binuhay	-10979
▁buntong	-10980
▁datapwa	-10981
▁diyaryo	-10982
▁dumakip	-10983
▁dumatal	-10984
▁dumulog	-10985
▁dustang	-10986
▁eskwela	-10987
▁ganapin	-10988
▁gandang	-10989
▁gasatan	-10990
▁gumugol	-10991
▁haharap	-10992
▁hamunin	-10993
▁hangaan	-10994
▁hinabol	-10995
▁hinamak	-10996
▁humanda	-10997
▁humigit	-10998
▁ibalita	-10999
▁iisipin	-11000
▁ikawalo	-11001
▁ikintal	-11002
▁indayog	-11003
▁iniutos	-11004
▁ipakita	-11005
▁ipiniit	-11006
▁isaisip	-11007
▁isilang	-11008
▁isusuot	-11009
▁kakanin	-11010
▁kalasag	-11011
▁kalihim	-11012
▁kapilas	-11013
▁karamay	-11014
▁karayom	-11015
▁katapat	-11016
▁kinasas	-11017
▁konseho	-11018
▁kulisap	-11019
▁kumanta	-11020
▁kuwarto	-11021
▁lagapak	-11022
▁leghorn	-11023
▁letrang	-11024
▁libreng	-11025
▁lilipad	-11026
▁liwasan	-11027
▁luhaang	-11028
▁lumakas	-11029
▁luminis	-11030
▁lumukso	-11031
▁lumulan	-11032
▁lumusob	-11033
▁lunting	-11034
▁maamong	-11035
▁magdala	-11036
▁magsama	-11037
▁magsaya	-11038
▁magsing	-11039
▁magtamo	-11040
▁magturo	-11041
▁makatat	-11042
▁makipan	-11043
▁malagim	-11044
▁malalag	-11045
▁malilim	-11046
▁maluwat	-11047
▁mamulat	-11048
▁mariing	-11049
▁masasal	-11050
▁maselan	-11051
▁masigla	-11052
▁matanaw	-11053
▁matatap	-11054
▁matuloy	-11055
▁minorya	-11056
▁mistula	-11057
▁musikal	-11058
▁naaakit	-11059
▁naghari	-11060
▁nahabag	-11061
▁nahihim	-11062
▁nakalul	-11063
▁nalulug	-11064
▁namunga	-11065
▁nangagh	-11066
▁nangako	-11067
▁nanguha	-11068
▁napigil	-11069
▁nasasal	-11070
▁natulog	-11071
▁negrita	-11072
▁ngumiti	-11073
▁nilimot	-11074
▁nilusob	-11075
▁ninakaw	-11076
▁paanong	-11077
▁pagdami	-11078
▁paglaki	-11079
▁paharap	-11080
▁palakad	-11081
▁palakas	-11082
▁palayan	-11083
▁pambata	-11084
▁panalok	-11085
▁panitik	-11086
▁papalit	-11087
▁paraiso	-11088
▁pinakas	-11089
▁platero	-11090
▁pulisya	-11091
▁puluhan	-11092
▁pumitas	-11093
▁pumutok	-11094
▁pumutol	-11095
▁putlain	-11096
▁putulin	-11097
▁puwesto	-11098
▁sagutin	-11099
▁sikreto	-11100
▁simulan	-11101
▁sinulid	-11102
▁sisikat	-11103
▁subukin	-11104
▁sulatan	-11105
▁sumilip	-11106
▁sumpaan	-11107
▁tandaan	-11108
▁tantuin	-11109
▁termino	-11110
▁tukuyin	-11111
▁tumagal	-11112
▁ugaling	-11113
▁umiling	-11114
▁usaping	-11115
▁wakasan	-11116
ahagulgol	-11117
aklolohan	-11118
alisasyon	-11119
anganyaya	-11120
anggaling	-11121
ibilangan	-11122
igantihan	-11123
intangang	-11124
onomiyang	-11125
operatiba	-11126
rikultura	-11127
ukulangin	-11128
ungunahan	-11129
uwentuhan	-11130
▁Akademya	-11131
▁Bantawan	-11132
▁Bikulano	-11133
▁Binatang	-11134
▁Bukidnon	-11135
▁Cemetery	-11136
▁Darangan	-11137
▁Dinatnan	-11138
▁Diosdado	-11139
▁Espadana	-11140
▁Hinampas	-11141
▁Hinintay	-11142
▁Ikatlong	-11143
▁Inatasan	-11144
▁Isinulat	-11145
▁Josefina	-11146
▁Kabataan	-11147
▁Kaluluwa	-11148
▁Kasopiya	-11149
▁Katauhan	-11150
▁Katulong	-11151
▁Macaraeg	-11152
▁Macarang	-11153
▁Magbuhat	-11154
▁Maglagda	-11155
▁Malayang	-11156
▁McArthur	-11157
▁Military	-11158
▁Mindanaw	-11159
▁Nabalita	-11160
▁Nagbihis	-11161
▁Naglaban	-11162
▁Naglagay	-11163
▁Nagtatag	-11164
▁Nagtuloy	-11165
▁Nagyakap	-11166
▁Palayain	-11167
▁Pangarap	-11168
▁Persyano	-11169
▁Pinakain	-11170
▁Polinese	-11171
▁Sakbawan	-11172
▁Ugnayang	-11173
▁aktibong	-11174
▁alaalang	-11175
▁apatnapu	-11176
▁babagsak	-11177
▁balahibo	-11178
▁bersyong	-11179
▁bigkasan	-11180
▁binyagan	-11181
▁bumangon	-11182
▁desisyon	-11183
▁dibisyon	-11184
▁digmaang	-11185
▁dinaanan	-11186
▁diyosang	-11187
▁etnikong	-11188
▁gabinete	-11189
▁gagapang	-11190
▁gamiting	-11191
▁gumulang	-11192
▁halatang	-11193
▁ibabalik	-11194
▁ibinalik	-11195
▁idinulog	-11196
▁ikinalat	-11197
▁ikinalul	-11198
▁ilalagay	-11199
▁ilalapat	-11200
▁inihagis	-11201
▁inilipat	-11202
▁ipabatid	-11203
▁ipinasok	-11204
▁isinabit	-11205
▁isinabog	-11206
▁isinumpa	-11207
▁isisigaw	-11208
▁ispiritu	-11209
▁isusunod	-11210
▁kabanata	-11211
▁kabuuang	-11212
▁kahambal	-11213
▁kahirapa	-11214
▁kailanma	-11215
▁kakainin	-11216
▁kalabang	-11217
▁kalakhan	-11218
▁kalinang	-11219
▁kaliwang	-11220
▁kapantay	-11221
▁kapiling	-11222
▁karamiha	-11223
▁kasindak	-11224
▁kasinung	-11225
▁katuwaan	-11226
▁katuwira	-11227
▁kausapin	-11228
▁kriminal	-11229
▁kwentong	-11230
▁labanang	-11231
▁lalampas	-11232
▁linangin	-11233
▁lingapin	-11234
▁liwasang	-11235
▁lulutang	-11236
▁lumalayo	-11237
▁lumingap	-11238
▁mabagsik	-11239
▁mabilang	-11240
▁mabining	-11241
▁magdasal	-11242
▁magpapas	-11243
▁magpasya	-11244
▁magsikap	-11245
▁magsugal	-11246
▁mahuhuli	-11247
▁makakuha	-11248
▁makapagl	-11249
▁makapagt	-11250
▁makapang	-11251
▁makasama	-11252
▁malaglag	-11253
▁mamimili	-11254
▁manligaw	-11255
▁mapadaan	-11256
▁mapapasa	-11257
▁marahang	-11258
▁masasabi	-11259
▁masasaya	-11260
▁masisira	-11261
▁masungit	-11262
▁matiyaga	-11263
▁matulain	-11264
▁mayabong	-11265
▁medisina	-11266
▁minanang	-11267
▁musikang	-11268
▁nagawang	-11269
▁nagbilin	-11270
▁naggayak	-11271
▁naghanap	-11272
▁nagkaisa	-11273
▁nagpapag	-11274
▁nagpapak	-11275
▁nagpapas	-11276
▁nagpilit	-11277
▁nagsaing	-11278
▁nahalata	-11279
▁nahuling	-11280
▁naiibang	-11281
▁naisulat	-11282
▁nakadapo	-11283
▁nakakuha	-11284
▁nakapagp	-11285
▁nakapagt	-11286
▁nakasama	-11287
▁nakatali	-11288
▁nakulong	-11289
▁namihasa	-11290
▁namimili	-11291
▁nanaisin	-11292
▁napagpas	-11293
▁napiling	-11294
▁nasaktan	-11295
▁nasindak	-11296
▁natatamo	-11297
▁natikman	-11298
▁ngitngit	-11299
▁ninanasa	-11300
▁ningning	-11301
▁niyaring	-11302
▁paborito	-11303
▁pabulong	-11304
▁pagawaan	-11305
▁pagdalaw	-11306
▁pagdinig	-11307
▁paggalaw	-11308
▁paghanap	-11309
▁paglaban	-11310
▁paglabas	-11311
▁pagsapit	-11312
▁pakialam	-11313
▁pakiusap	-11314
▁palakpak	-11315
▁pamanang	-11316
▁pamaraan	-11317
▁pandinig	-11318
▁panukala	-11319
▁papanhik	-11320
▁paratang	-11321
▁patnugot	-11322
▁pinaalis	-11323
▁pinagkak	-11324
▁pinagtag	-11325
▁pinalaya	-11326
▁pinapalo	-11327
▁pinipint	-11328
▁pipiliin	-11329
▁pirasong	-11330
▁pleading	-11331
▁posisyon	-11332
▁practice	-11333
▁pumanhik	-11334
▁saganang	-11335
▁sagupaan	-11336
▁sampalok	-11337
▁sibilyan	-11338
▁singilin	-11339
▁sinundan	-11340
▁soloista	-11341
▁sugatang	-11342
▁sumbrero	-11343
▁sumilong	-11344
▁suspindi	-11345
▁tagapagb	-11346
▁tagsibol	-11347
▁talastas	-11348
▁teknikal	-11349
▁tinalian	-11350
▁tinunton	-11351
▁tinuruan	-11352
▁tinyente	-11353
ampalataya	-11354
cholarship	-11355
intulutang	-11356
▁Andromeda	-11357
▁Bahaginan	-11358
▁Bathalang	-11359
▁Filipinas	-11360
▁Ikinulong	-11361
▁Ildefonso	-11362
▁Inglatera	-11363
▁Ipinadala	-11364
▁Ipinasiya	-11365
▁Kabikulan	-11366
▁Kapagdaka	-11367
▁Magbangon	-11368
▁Makalipas	-11369
▁Mongindra	-11370
▁Naglakbay	-11371
▁Sakristan	-11372
▁Tarabusaw	-11373
▁Tinanggap	-11374
▁Tinanghal	-11375
▁Tinatawag	-11376
▁Tiningnan	-11377
▁bubuhayin	-11378
▁dalamhati	-11379
▁disiplina	-11380
▁dumadalaw	-11381
▁ebidensya	-11382
▁hangaring	-11383
▁higanteng	-11384
▁hinangaan	-11385
▁hinimatay	-11386
▁humantong	-11387
▁ikapitong	-11388
▁inihandog	-11389
▁ipaglihim	-11390
▁ipagpalit	-11391
▁ipakilala	-11392
▁isangguni	-11393
▁isinagawa	-11394
▁itatalaga	-11395
▁kababalag	-11396
▁kabahayan	-11397
▁kabaitang	-11398
▁kabayanan	-11399
▁kabuluhan	-11400
▁kagalakan	-11401
▁kahariang	-11402
▁kalabanin	-11403
▁kaluwagan	-11404
▁karaingan	-11405
▁kasanayan	-11406
▁katayuang	-11407
▁katibayan	-11408
▁kurikulum	-11409
▁lambingan	-11410
▁lumaganap	-11411
▁lumalakad	-11412
▁lumilitaw	-11413
▁luwalhati	-11414
▁mabalasik	-11415
▁maestrong	-11416
▁magagalit	-11417
▁magaspang	-11418
▁magdadala	-11419
▁maghapong	-11420
▁magkaaway	-11421
▁magkabila	-11422
▁mahihirap	-11423
▁mahuhulog	-11424
▁makatagpo	-11425
▁makatapos	-11426
▁malalaman	-11427
▁malambing	-11428
▁malilimot	-11429
▁malimutan	-11430
▁mambabasa	-11431
▁maninisid	-11432
▁mapahamak	-11433
▁mapaparam	-11434
▁masalalay	-11435
▁masiyahan	-11436
▁matanggap	-11437
▁matatanaw	-11438
▁nagagalit	-11439
▁nagbangon	-11440
▁nagdadala	-11441
▁nagkulang	-11442
▁nagsasabi	-11443
▁naitanong	-11444
▁nakaaaliw	-11445
▁nakaranas	-11446
▁nakatikom	-11447
▁nalathala	-11448
▁nalulunod	-11449
▁namumunga	-11450
▁namumutla	-11451
▁nangasiwa	-11452
▁nasusunog	-11453
▁natanggap	-11454
▁nawawalan	-11455
▁nililiyag	-11456
▁pagbabayo	-11457
▁pagkabigo	-11458
▁pagkatuto	-11459
▁pagluluto	-11460
▁pagmasdan	-11461
▁pagsuyong	-11462
▁pagtanggi	-11463
▁pagtatayo	-11464
▁palakihin	-11465
▁paliwanag	-11466
▁pampangin	-11467
▁pandanggo	-11468
▁pandaraya	-11469
▁panlabing	-11470
▁papatayin	-11471
▁patakbong	-11472
▁patatagin	-11473
▁pinangang	-11474
▁pinapatay	-11475
▁pinasukan	-11476
▁salinlahi	-11477
▁sapagakat	-11478
▁sinimulan	-11479
▁sinisinta	-11480
▁sinusunod	-11481
▁taginting	-11482
▁talinhaga	-11483
▁taumbayan	-11484
▁teritoryo	-11485
▁titingnan	-11486
▁tumakbong	-11487
▁tumandang	-11488
▁tumatawag	-11489
ibusterismo	-11490
▁Apolinario	-11491
▁Artikulong	-11492
▁Cordillera	-11493
▁Department	-11494
▁Humanities	-11495
▁Kasarinlan	-11496
▁Katapusang	-11497
▁Kristiyano	-11498
▁Makanungan	-11499
▁Nagkataong	-11500
▁Nagtawanan	-11501
▁Pagkalipas	-11502
▁Patrocinio	-11503
▁Pinagmulan	-11504
▁Pythagoras	-11505
▁Tinangkang	-11506
▁asosasyong	-11507
▁balagtasan	-11508
▁bibigkasin	-11509
▁binibigyan	-11510
▁binurdahan	-11511
▁demokrasya	-11512
▁dinaramdam	-11513
▁emperatriz	-11514
▁ikinagalit	-11515
▁ikinamatay	-11516
▁inaakalang	-11517
▁iniingatan	-11518
▁inilalabas	-11519
▁kaalipinan	-11520
▁kabihasnan	-11521
▁kahulugang	-11522
▁kahusayang	-11523
▁kakulangan	-11524
▁kapabayaan	-11525
▁kapalarang	-11526
▁kapansanan	-11527
▁kasulatang	-11528
▁kataksilan	-11529
▁kaugaliang	-11530
▁kondisyong	-11531
▁konsensiya	-11532
▁kukulangin	-11533
▁lawlawigan	-11534
▁mabulaklak	-11535
▁magbabawas	-11536
▁magbubukid	-11537
▁magigising	-11538
▁magkakapit	-11539
▁magmamaliw	-11540
▁magmukhang	-11541
▁magpahayag	-11542
▁magtrabaho	-11543
▁makakasama	-11544
▁mamahaling	-11545
▁mapagbigay	-11546
▁mapagmahal	-11547
▁maramdaman	-11548
▁marangyang	-11549
▁mararating	-11550
▁matipunong	-11551
▁mauunawaan	-11552
▁nagbabawal	-11553
▁naglalagay	-11554
▁nagliliyab	-11555
▁nagmakaawa	-11556
▁nagpahinga	-11557
▁nagsisipan	-11558
▁nagtatanim	-11559
▁nakakaalam	-11560
▁nakibahagi	-11561
▁nakikiusap	-11562
▁namamahala	-11563
▁namamasyal	-11564
▁nanghihina	-11565
▁naniningil	-11566
▁napapaloob	-11567
▁natitirang	-11568
▁pagbibilog	-11569
▁paghakbang	-11570
▁pagkabalda	-11571
▁pagkabigla	-11572
▁pagkakapag	-11573
▁pagkamanan	-11574
▁pagsusulat	-11575
▁pagtalikod	-11576
▁pagtatapat	-11577
▁pagtibayin	-11578
▁pagtutulad	-11579
▁palaisipan	-11580
▁panalangin	-11581
▁pangatlong	-11582
▁panggabing	-11583
▁pangunguha	-11584
▁paroroonan	-11585
▁pasalaysay	-11586
▁pinadalhan	-11587
▁pinangarap	-11588
▁pinayagang	-11589
▁pormasyong	-11590
▁produksyon	-11591
▁regulasyon	-11592
▁sansinukob	-11593
▁sinambilat	-11594
▁sinasariwa	-11595
▁tanghaling	-11596
▁tinangkang	-11597
▁tumutulong	-11598
▁tunggalian	-11599
▁Kinagabihan	-11600
▁Maguindanao	-11601
▁Manananggol	-11602
▁Panghalalan	-11603
▁Pinampangan	-11604
▁binabanggit	-11605
▁ikinabahala	-11606
▁imahinasyon	-11607
▁ipahintulot	-11608
▁ipinagtapat	-11609
▁kaligtasang	-11610
▁kapanahunan	-11611
▁kasingganda	-11612
▁kooperatiba	-11613
▁labindalawa	-11614
▁laboratoryo	-11615
▁luwalhating	-11616
▁madamdaming	-11617
▁magkakasama	-11618
▁magtagumpay	-11619
▁magtataksil	-11620
▁makabuluhan	-11621
▁mambibigkas	-11622
▁manananggol	-11623
▁manghahalal	-11624
▁mangingibig	-11625
▁maparusahan	-11626
▁minumutyang	-11627
▁nagbabalita	-11628
▁nagbabantay	-11629
▁naghahandog	-11630
▁nagkakaloob	-11631
▁nagsalaysay	-11632
▁nagulantang	-11633
▁nakahandang	-11634
▁nakasalalay	-11635
▁nalulungkot	-11636
▁nanganganib	-11637
▁nasisiyahan	-11638
▁pagkakamali	-11639
▁paglilibing	-11640
▁pagmamalaki	-11641
▁pagpaparusa	-11642
▁pagpasyahan	-11643
▁pagtataksil	-11644
▁pakikitungo	-11645
▁pansariling	-11646
▁parurusahan	-11647
▁pinakasalan	-11648
▁pinakawalan	-11649
▁propesyonal	-11650
▁sambayanang	-11651
▁sepulturero	-11652
▁sinasadyang	-11653
▁tangkilikin	-11654
▁tinaguriang	-11655
apangyarihang	-11656
▁Bungangsakit	-11657
▁Ipinalalagay	-11658
▁Metropolitan	-11659
▁Mitolohiyang	-11660
▁Pagpapaunlad	-11661
▁Proklamasyon	-11662
▁Sangkatauhan	-11663
▁ipinaliwanag	-11664
▁ipinatutupad	-11665
▁kadahilanang	-11666
▁kahihinatnan	-11667
▁kapanganakan	-11668
▁kaparusahang	-11669
▁katotohanang	-11670
▁kayumangging	-11671
▁komunikasyon	-11672
▁magkahiwalay	-11673
▁makipaglaban	-11674
▁mitolohiyang	-11675
▁naghihimutok	-11676
▁naghihingalo	-11677
▁naglalagalag	-11678
▁nagliliwanag	-11679
▁nagmamahalan	-11680
▁nagsasaalang	-11681
▁nasyonalismo	-11682
▁pagkakasundo	-11683
▁pagkamatapat	-11684
▁pagpapahirap	-11685
▁pagpapalakad	-11686
▁pagpapasakit	-11687
▁pagpapatiuna	-11688
▁pagsasaalang	-11689
▁pagtangkilik	-11690
▁paninindigan	-11691
▁proporsyonal	-11692
▁sansinukuban	-11693
▁tagapamahala	-11694
▁talasalitaan	-11695
▁tinatangisan	-11696
▁Ipinagtanggol	-11697
▁Nakapagtataka	-11698
▁Pinakamahusay	-11699
▁bulubunduking	-11700
▁humahalimuyak	-11701
▁kwalipikadong	-11702
▁kwalipikasyon	-11703
▁magkakaibigan	-11704
▁magpahanggang	-11705
▁maipaghiganti	-11706
▁makapagsimula	-11707
▁makasaysayang	-11708
▁nanunungkulan	-11709
▁napanaginipan	-11710
▁paghihinagpis	-11711
▁pagkakahirang	-11712
▁pagkakaibigan	-11713
▁pagtatagumpay	-11714
▁pagtutulungan	-11715
▁pampamahalaan	-11716
▁pampananalapi	-11717
▁pangangatawan	-11718
▁pinagkalooban	-11719
▁pinagmamasdan	-11720
▁pinakamaganda	-11721
▁pinakamayaman	-11722
▁pinangalanang	-11723
▁pinarurusahan	-11724
▁umalingawngaw	-11725
▁Filibusterismo	-11726
▁nagdadalamhati	-11727
▁nagpapahiwatig	-11728
▁napakahalagang	-11729
▁pagpapakasakit	-11730
▁pinagtatalunan	-11731
▁kasinungalingan	-11732
▁nangangahulugan	-11733
▁pagkamamamayang	-11734
):	-11735
-7	-11736
-8	-11737
.'	-11738
.,	-11739
4,	-11740
??	-11741
AD	-11742
Ab	-11743
Ad	-11744
Ah	-11745
ER	-11746
ES	-11747
Es	-11748
La	-11749
OR	-11750
OT	-11751
RA	-11752
SE	-11753
SP	-11754
UM	-11755
Un	-11756
bp	-11757
ii	-11758
me	-11759
ou	-11760
ph	-11761
va	-11762
!",	-11763
-21	-11764
-23	-11765
-29	-11766
-30	-11767
00.	-11768
100	-11769
4-3	-11770
7).	-11771
999	-11772
Aba	-11773
CMD	-11774
Cor	-11775
GAW	-11776
Gan	-11777
Gum	-11778
Hin	-11779
Hoy	-11780
Isa	-11781
Min	-11782
Nan	-11783
Nat	-11784
Pup	-11785
STA	-11786
San	-11787
Sus	-11788
ULA	-11789
alp	-11790
ark	-11791
ase	-11792
asy	-11793
ath	-11794
aws	-11795
ayp	-11796
ayu	-11797
bes	-11798
bls	-11799
5,	-11800
US	-11801
buk	-11802
cip	-11803
civ	-11804
dik	-11805
dog	-11806
ean	-11807
ede	-11808
edo	-11809
eld	-11810
ell	-11811
epe	-11812
ert	-11813
git	-11814
hag	-11815
hat	-11816
hod	-11817
ier	-11818
iik	-11819
iil	-11820
ikt	-11821
inc	-11822
iol	-11823
ipk	-11824
irt	-11825
isl	-11826
kuw	-11827
lab	-11828
men	-11829
nis	-11830
okl	-11831
ore	-11832
ose	-11833
ota	-11834
rez	-11835
rof	-11836
rol	-11837
tay	-11838
tog	-11839
tos	-11840
ual	-11841
ugn	-11842
uog	-11843
usi	-11844
uts	-11845
vel	-11846
wag	-11847
yap	-11848
▁1)	-11849
▁2)	-11850
▁26	-11851
▁27	-11852
▁31	-11853
▁32	-11854
▁37	-11855
▁4,	-11856
▁6,	-11857
▁7,	-11858
▁Cu	-11859
▁DE	-11860
▁ED	-11861
▁Fr	-11862
▁He	-11863
▁Ko	-11864
▁Ol	-11865
▁SA	-11866
▁So	-11867
▁St	-11868
▁Th	-11869
▁UP	-11870
▁Yo	-11871
▁ac	-11872
▁ah	-11873
▁ho	-11874
▁hu	-11875
▁py	-11876
▁te	-11877
▁uy	-11878
...?	-11879
0.00	-11880
?...	-11881
AKAR	-11882
High	-11883
INIS	-11884
Ipin	-11885
Mula	-11886
Pers	-11887
SANG	-11888
Sana	-11889
Siya	-11890
UPOT	-11891
aama	-11892
abab	-11893
agiw	-11894
ahak	-11895
ahop	-11896
ahos	-11897
aing	-11898
akam	-11899
5).	-11900
53)	-11901
imo	-11902
▁5,	-11903
▁60	-11904
▁Re	-11905
akod	-11906
alac	-11907
amah	-11908
amog	-11909
amyo	-11910
ania	-11911
anos	-11912
apil	-11913
apin	-11914
apoy	-11915
aron	-11916
arot	-11917
atig	-11918
atik	-11919
atsa	-11920
bibi	-11921
buti	-11922
ches	-11923
cree	-11924
egil	-11925
ehiy	-11926
elpa	-11927
emat	-11928
enas	-11929
endi	-11930
engk	-11931
enso	-11932
enus	-11933
erba	-11934
etso	-11935
gaan	-11936
hair	-11937
haya	-11938
ibag	-11939
ibas	-11940
ibin	-11941
ibug	-11942
idel	-11943
ihaw	-11944
iksi	-11945
ilao	-11946
ilon	-11947
inti	-11948
ipun	-11949
irik	-11950
irot	-11951
isaw	-11952
iyuh	-11953
kang	-11954
lalo	-11955
layo	-11956
lugo	-11957
luha	-11958
muni	-11959
nasa	-11960
ngay	-11961
okon	-11962
okus	-11963
okya	-11964
osis	-11965
payo	-11966
pirm	-11967
pito	-11968
puin	-11969
pula	-11970
pung	-11971
rino	-11972
rote	-11973
tayo	-11974
tiis	-11975
tram	-11976
trol	-11977
uano	-11978
ubot	-11979
ugos	-11980
umot	-11981
unoy	-11982
uris	-11983
urok	-11984
usod	-11985
uuin	-11986
uump	-11987
uwen	-11988
vert	-11989
veto	-11990
wira	-11991
yaan	-11992
zine	-11993
▁15,	-11994
▁187	-11995
▁22,	-11996
▁25.	-11997
▁27.	-11998
▁28,	-11999
fas	-12000
hhh	-12001
▁8,	-12002
Magh	-12003
Pagb	-12004
bato	-12005
eros	-12006
▁26.	-12007
▁Ana	-12008
▁Bab	-12009
▁Bib	-12010
▁Bol	-12011
▁Cat	-12012
▁Civ	-12013
▁Day	-12014
▁Dim	-12015
▁ESP	-12016
▁Fam	-12017
▁Gay	-12018
▁Gov	-12019
▁Gra	-12020
▁Har	-12021
▁Him	-12022
▁Hom	-12023
▁Hoy	-12024
▁Iyo	-12025
▁Jer	-12026
▁KAR	-12027
▁Kos	-12028
▁LAH	-12029
▁Lat	-12030
▁Lip	-12031
▁Liv	-12032
▁Lol	-12033
▁Lor	-12034
▁Mau	-12035
▁Miy	-12036
▁Mod	-12037
▁PAN	-12038
▁PAT	-12039
▁Paz	-12040
▁Pet	-12041
▁Pun	-12042
▁Reb	-12043
▁Reh	-12044
▁Rin	-12045
▁Ruf	-12046
▁Sat	-12047
▁Siy	-12048
▁Sub	-12049
▁Sug	-12050
▁Taw	-12051
▁Tor	-12052
▁Tup	-12053
▁Vel	-12054
▁Win	-12055
▁aks	-12056
▁alo	-12057
▁apl	-12058
▁ass	-12059
▁ber	-12060
▁bod	-12061
▁civ	-12062
▁dep	-12063
▁der	-12064
▁gal	-12065
▁gis	-12066
▁gma	-12067
▁hen	-12068
▁ing	-12069
▁iss	-12070
▁kau	-12071
▁kus	-12072
▁lil	-12073
▁lol	-12074
▁mis	-12075
▁mot	-12076
▁pih	-12077
▁pol	-12078
▁pon	-12079
▁poo	-12080
▁rep	-12081
▁rum	-12082
▁sci	-12083
▁sem	-12084
▁sop	-12085
▁suw	-12086
▁suy	-12087
▁tiy	-12088
▁upo	-12089
▁wag	-12090
,000.	-12091
Aking	-12092
Batas	-12093
GAWAR	-12094
IMULA	-12095
Ilang	-12096
Kaawa	-12097
LINIS	-12098
Matat	-12099
Ate	-12100
gay	-12101
hina	-12102
▁VII	-12103
Papal	-12104
Yaong	-12105
aakay	-12106
aalok	-12107
aasan	-12108
abaan	-12109
abala	-12110
abali	-12111
adama	-12112
adang	-12113
adsad	-12114
agdan	-12115
agham	-12116
agnas	-12117
agpag	-12118
ainom	-12119
akada	-12120
akhan	-12121
aklad	-12122
akrip	-12123
akulo	-12124
akwil	-12125
alaez	-12126
aliin	-12127
alyas	-12128
amkam	-12129
amora	-12130
anday	-12131
andig	-12132
angki	-12133
angko	-12134
angla	-12135
antap	-12136
antsa	-12137
apant	-12138
apian	-12139
apiit	-12140
aplos	-12141
arana	-12142
arapo	-12143
asabi	-12144
asiya	-12145
aslas	-12146
aspas	-12147
aster	-12148
astol	-12149
ative	-12150
atuan	-12151
atuon	-12152
atuwa	-12153
ausap	-12154
awaii	-12155
awsaw	-12156
ayani	-12157
aydor	-12158
aypay	-12159
aysay	-12160
bukid	-12161
cipal	-12162
colta	-12163
dilim	-12164
eatro	-12165
edeng	-12166
edest	-12167
egalo	-12168
egrat	-12169
entas	-12170
entaw	-12171
enter	-12172
entro	-12173
erang	-12174
ergio	-12175
ernat	-12176
etary	-12177
gagat	-12178
ginsa	-12179
gubat	-12180
hapon	-12181
hayop	-12182
hinan	-12183
ibago	-12184
igang	-12185
iibig	-12186
iinom	-12187
ilant	-12188
ilaok	-12189
imang	-12190
imbal	-12191
impas	-12192
inain	-12193
inaon	-12194
indoy	-12195
ingga	-12196
ingit	-12197
ingka	-12198
ipili	-12199
As	-12200
▁op	-12201
Ayaw	-12202
ikli	-12203
kibo	-12204
▁24.	-12205
▁Dav	-12206
illaf	-12207
ipkip	-12208
ipolo	-12209
irits	-12210
itano	-12211
lawin	-12212
libot	-12213
lumpu	-12214
lunos	-12215
malas	-12216
ngang	-12217
noong	-12218
nugot	-12219
orari	-12220
ortal	-12221
pasin	-12222
peran	-12223
putla	-12224
raban	-12225
regor	-12226
sakin	-12227
sanib	-12228
sarap	-12229
sayan	-12230
shirt	-12231
silid	-12232
sinas	-12233
sulok	-12234
ubuka	-12235
ubuti	-12236
uestr	-12237
uging	-12238
uglas	-12239
ukain	-12240
uluan	-12241
uluga	-12242
umamo	-12243
undat	-12244
ungad	-12245
ungis	-12246
unglo	-12247
ungol	-12248
unian	-12249
untok	-12250
unyon	-12251
urado	-12252
urgos	-12253
ustos	-12254
usyun	-12255
uunan	-12256
uwail	-12257
velop	-12258
venue	-12259
watak	-12260
yedad	-12261
▁(190	-12262
▁1897	-12263
▁1899	-12264
▁1949	-12265
▁1971	-12266
▁1989	-12267
▁1998	-12268
▁Apoy	-12269
▁Aral	-12270
▁Aray	-12271
▁Arts	-12272
▁Asin	-12273
▁Baba	-12274
▁Bawa	-12275
▁Beng	-12276
▁Buto	-12277
▁Cast	-12278
▁Emir	-12279
▁Gawa	-12280
▁Hala	-12281
▁Hayo	-12282
▁Hous	-12283
▁Ibub	-12284
▁Igon	-12285
▁Ilok	-12286
▁Indo	-12287
▁Irog	-12288
▁Itat	-12289
▁Itim	-12290
▁Kaka	-12291
▁Kanl	-12292
▁Kuba	-12293
▁Kult	-12294
▁Maka	-12295
▁Mart	-12296
▁Masa	-12297
▁Meme	-12298
▁Muni	-12299
uob	-12300
tima	-12301
▁Bak	-12302
▁Def	-12303
Epiro	-12304
areer	-12305
ikaso	-12306
ngine	-12307
ughog	-12308
▁2007	-12309
▁Ahas	-12310
▁Bitu	-12311
▁Nagu	-12312
▁Nand	-12313
▁Nawa	-12314
▁Nuon	-12315
▁Orak	-12316
▁PANG	-12317
▁Papa	-12318
▁Pito	-12319
▁Prov	-12320
▁Salv	-12321
▁Serp	-12322
▁Sits	-12323
▁Tiyo	-12324
▁VIII	-12325
▁Yaon	-12326
▁abay	-12327
▁agua	-12328
▁akay	-12329
▁alis	-12330
▁aran	-12331
▁asim	-12332
▁atbp	-12333
▁bant	-12334
▁baon	-12335
▁bula	-12336
▁daya	-12337
▁dayo	-12338
▁disi	-12339
▁diya	-12340
▁duon	-12341
▁elem	-12342
▁ener	-12343
▁ikap	-12344
▁ikuk	-12345
▁inan	-12346
▁kaaa	-12347
▁kahi	-12348
▁kaib	-12349
▁kalo	-12350
▁karo	-12351
▁kawa	-12352
▁kayg	-12353
▁kwak	-12354
▁laan	-12355
▁laso	-12356
▁lata	-12357
▁layo	-12358
▁ling	-12359
▁lola	-12360
▁lukl	-12361
▁luko	-12362
▁maal	-12363
▁maid	-12364
▁maig	-12365
▁main	-12366
▁masy	-12367
▁mest	-12368
▁mito	-12369
▁moog	-12370
▁muog	-12371
▁pare	-12372
▁pasa	-12373
▁pira	-12374
▁pres	-12375
▁puma	-12376
▁puto	-12377
▁samo	-12378
▁sint	-12379
▁sold	-12380
▁subs	-12381
▁suka	-12382
▁susp	-12383
▁suyo	-12384
▁teng	-12385
▁trab	-12386
▁tulo	-12387
▁tuwi	-12388
▁tuyo	-12389
▁umid	-12390
▁unan	-12391
▁ungg	-12392
▁usig	-12393
▁uupo	-12394
Magpap	-12395
Medium	-12396
Nasaan	-12397
Pagkat	-12398
aabang	-12399
PAG	-12400
etua	-12401
hele	-12402
umal	-12403
▁adm	-12404
▁rem	-12405
alaon	-12406
elekt	-12407
imyas	-12408
uhaan	-12409
▁1935	-12410
▁High	-12411
▁Medi	-12412
▁Ulap	-12413
▁pios	-12414
▁warr	-12415
abanas	-12416
abigin	-12417
abulid	-12418
abunan	-12419
adakip	-12420
adaloy	-12421
agahan	-12422
agalag	-12423
agitin	-12424
agkait	-12425
ahabol	-12426
ahador	-12427
ahagya	-12428
ahasik	-12429
ahatan	-12430
ahatol	-12431
alakaw	-12432
alakot	-12433
alaong	-12434
alayas	-12435
aliban	-12436
alilis	-12437
aliman	-12438
alinis	-12439
alitin	-12440
alugad	-12441
alupit	-12442
amaang	-12443
amahal	-12444
amante	-12445
amaran	-12446
amento	-12447
amukha	-12448
amutan	-12449
anakit	-12450
anggan	-12451
angkal	-12452
antaon	-12453
apagod	-12454
apatak	-12455
apatda	-12456
aputok	-12457
arakip	-12458
arawal	-12459
arding	-12460
ariaan	-12461
asakop	-12462
asanib	-12463
asayaw	-12464
astern	-12465
asukan	-12466
atakot	-12467
atnang	-12468
awayin	-12469
awiang	-12470
ayahin	-12471
ayukay	-12472
bagang	-12473
bahagi	-12474
besito	-12475
bighan	-12476
didiin	-12477
egildo	-12478
ektado	-12479
endrez	-12480
entang	-12481
entist	-12482
hayuan	-12483
himala	-12484
ibalik	-12485
ibitay	-12486
icolas	-12487
iedras	-12488
igagal	-12489
igawad	-12490
igiliw	-12491
igitan	-12492
ihagis	-12493
ihimig	-12494
ihiyan	-12495
ikhang	-12496
ilahan	-12497
ilidad	-12498
iligin	-12499
KAL	-12500
▁Sh	-12501
▁he	-12502
▁11,	-12503
ibayo	-12504
iliti	-12505
itiko	-12506
sayad	-12507
ulpot	-12508
▁giba	-12509
▁heto	-12510
▁kaap	-12511
▁pika	-12512
▁sapi	-12513
ilikan	-12514
ilisik	-12515
ilugan	-12516
inanap	-12517
inelas	-12518
ingala	-12519
inipay	-12520
inisin	-12521
iphayo	-12522
iranin	-12523
isahin	-12524
isanin	-12525
isilid	-12526
isipot	-12527
itaryo	-12528
itawan	-12529
itikim	-12530
itinda	-12531
itiyak	-12532
itnang	-12533
iwakal	-12534
libong	-12535
lumbay	-12536
lusion	-12537
oklama	-12538
omenda	-12539
oridad	-12540
pangan	-12541
panhik	-12542
pulong	-12543
rapura	-12544
rehens	-12545
sahang	-12546
tangan	-12547
tangis	-12548
ubhang	-12549
ubusin	-12550
ugulat	-12551
ugunin	-12552
ukatan	-12553
uligsa	-12554
uliran	-12555
ulupig	-12556
ulupot	-12557
umilit	-12558
umpati	-12559
umpong	-12560
umulan	-12561
unaway	-12562
ungero	-12563
unghay	-12564
untang	-12565
unying	-12566
upitin	-12567
uplong	-12568
upukol	-12569
urihan	-12570
usabos	-12571
usalem	-12572
usapin	-12573
usilak	-12574
ustino	-12575
uugnay	-12576
uwende	-12577
uwesto	-12578
uwisit	-12579
walang	-12580
yayang	-12581
yertos	-12582
▁1891.	-12583
▁1898.	-12584
▁1899.	-12585
▁1922.	-12586
▁1935.	-12587
▁1987.	-12588
▁1989.	-12589
▁Aklan	-12590
▁Alang	-12591
▁Amang	-12592
▁Aming	-12593
▁Apolo	-12594
▁Babay	-12595
▁Baboy	-12596
▁Bagom	-12597
▁Balat	-12598
▁Balit	-12599
AKAS	-12600
Sige	-12601
inid	-12602
ithi	-12603
▁Ele	-12604
▁Rev	-12605
▁for	-12606
isira	-12607
kolar	-12608
ombra	-12609
▁Joel	-12610
▁Ukol	-12611
▁beat	-12612
alahin	-12613
regula	-12614
urnino	-12615
▁Bansa	-12616
▁Board	-12617
▁Buena	-12618
▁Caban	-12619
▁Casta	-12620
▁Corre	-12621
▁Dapwa	-12622
▁Diyan	-12623
▁Diyuh	-12624
▁Doray	-12625
▁Elena	-12626
▁Embid	-12627
▁Epiro	-12628
▁Gabay	-12629
▁Habag	-12630
▁Halik	-12631
▁Hamog	-12632
▁Hayun	-12633
▁Hinih	-12634
▁House	-12635
▁Iabot	-12636
▁Igala	-12637
▁Impah	-12638
▁Imuth	-12639
▁Indya	-12640
▁Ipagp	-12641
▁Isasa	-12642
▁Islaw	-12643
▁Itaas	-12644
▁Itago	-12645
▁Jaena	-12646
▁Kaawa	-12647
▁Kabis	-12648
▁Kapit	-12649
▁Korte	-12650
▁Kulay	-12651
▁Kulog	-12652
▁Kunin	-12653
▁Labos	-12654
▁Lanaw	-12655
▁Leron	-12656
▁Lubay	-12657
▁Lulan	-12658
▁Mahin	-12659
▁Mangg	-12660
▁Manun	-12661
▁Melch	-12662
▁Minis	-12663
▁Minsa	-12664
▁Namay	-12665
▁Nanan	-12666
▁Naupo	-12667
▁Nayon	-12668
▁Niyog	-12669
▁Nueva	-12670
▁Nuong	-12671
▁Palma	-12672
▁Paris	-12673
▁Parup	-12674
▁Payat	-12675
▁Pinas	-12676
▁Pinya	-12677
▁Pista	-12678
▁Poong	-12679
▁Pulis	-12680
▁Repor	-12681
▁Rosas	-12682
▁Saint	-12683
▁Sakit	-12684
▁Sinta	-12685
▁Solid	-12686
▁Staff	-12687
▁Sulod	-12688
▁Talas	-12689
▁Talat	-12690
▁Tapos	-12691
▁Tiago	-12692
▁Tinub	-12693
▁Tinut	-12694
▁Trade	-12695
▁Tsino	-12696
▁Tungo	-12697
▁Turko	-12698
▁Utang	-12699
▁Veter	-12700
▁Voice	-12701
▁aaral	-12702
▁aawit	-12703
▁alint	-12704
▁apong	-12705
▁arkit	-12706
▁artil	-12707
▁aywan	-12708
▁bahaw	-12709
▁bahid	-12710
▁bakya	-12711
▁balse	-12712
▁banga	-12713
▁basag	-12714
▁basal	-12715
▁bayaw	-12716
▁bihis	-12717
▁bilao	-12718
▁binid	-12719
▁binuo	-12720
▁bitag	-12721
▁bitak	-12722
▁burda	-12723
▁civil	-12724
▁delib	-12725
▁demon	-12726
▁dikit	-12727
▁dinig	-12728
▁diskw	-12729
▁donya	-12730
▁duyan	-12731
▁epekt	-12732
▁galos	-12733
▁gansa	-12734
▁ginat	-12735
▁ginaw	-12736
▁ginoo	-12737
▁gunam	-12738
▁hikbi	-12739
▁hinag	-12740
▁hinto	-12741
▁hipon	-12742
▁hukay	-12743
▁humuh	-12744
▁hurno	-12745
▁ibayo	-12746
▁ihain	-12747
▁iiyak	-12748
▁inaan	-12749
▁inapi	-12750
▁initi	-12751
▁ipagd	-12752
▁isipa	-12753
▁issue	-12754
▁itala	-12755
▁kabag	-12756
▁kagat	-12757
▁kagaw	-12758
▁kakal	-12759
▁kalat	-12760
▁kamal	-12761
▁kanun	-12762
▁katig	-12763
▁kawag	-12764
▁kendi	-12765
▁kinuk	-12766
▁kiyas	-12767
▁kubol	-12768
▁kulot	-12769
▁kupas	-12770
▁kurus	-12771
▁latay	-12772
▁leong	-12773
▁letra	-12774
▁libro	-12775
▁limot	-12776
▁linaw	-12777
▁lumag	-12778
▁mabuo	-12779
▁maigi	-12780
▁maint	-12781
▁mamul	-12782
▁mapip	-12783
▁marur	-12784
▁masid	-12785
▁masig	-12786
▁maski	-12787
▁mater	-12788
▁matiy	-12789
▁mawat	-12790
▁media	-12791
▁milag	-12792
▁nabib	-12793
▁nadad	-12794
▁nagis	-12795
▁nahat	-12796
▁nakuk	-12797
▁nalik	-12798
▁nanaw	-12799
▁napab	-12800
▁naupo	-12801
▁nilul	-12802
▁noche	-12803
▁nukal	-12804
▁orden	-12805
▁order	-12806
▁oyayi	-12807
▁padre	-12808
▁pagsa	-12809
▁pahat	-12810
▁pahim	-12811
▁paisa	-12812
▁palaw	-12813
▁palit	-12814
▁palko	-12815
▁palwa	-12816
▁pamah	-12817
▁parke	-12818
▁patag	-12819
▁patid	-12820
▁patik	-12821
▁patyo	-12822
▁penal	-12823
▁pitik	-12824
▁pusod	-12825
▁radio	-12826
▁rehas	-12827
▁relih	-12828
▁retir	-12829
▁rural	-12830
▁rurok	-12831
▁sable	-12832
▁salag	-12833
▁salon	-12834
▁sangm	-12835
▁sapul	-12836
▁sasab	-12837
▁sigwa	-12838
▁sugal	-12839
▁tahur	-12840
▁takda	-12841
▁talon	-12842
▁tanto	-12843
▁tawid	-12844
▁tibok	-12845
▁tigas	-12846
▁tigre	-12847
▁timog	-12848
▁tipak	-12849
▁tolda	-12850
▁tribu	-12851
▁tulin	-12852
▁ungas	-12853
▁uring	-12854
Albanya	-12855
Ibababa	-12856
Itataas	-12857
Malakas	-12858
Tagalog	-12859
Tatakbo	-12860
Tingnan	-12861
aagawan	-12862
aanyaya	-12863
abigkas	-12864
ademiko	-12865
agaslaw	-12866
agawian	-12867
agayway	-12868
agdasal	-12869
aghapon	-12870
agistis	-12871
agpuang	-12872
aharian	-12873
akulong	-12874
alabind	-12875
alakpak	-12876
alanang	-12877
alasang	-12878
alimang	-12879
alingon	-12880
aliping	-12881
alisbis	-12882
aluktot	-12883
alungat	-12884
amahagi	-12885
ambahan	-12886
ampisaw	-12887
anaagan	-12888
andante	-12889
andusay	-12890
anghero	-12891
aplusin	-12892
arampot	-12893
arangya	-12894
asarili	-12895
asariwa	-12896
atangay	-12897
atanong	-12898
awawala	-12899
ayamaya	-12900
ayuhang	-12901
bahayan	-12902
didilim	-12903
egrated	-12904
ehiyado	-12905
ektahan	-12906
embleya	-12907
ensyang	-12908
esermon	-12909
esmundo	-12910
ference	-12911
gagatas	-12912
gilalas	-12913
hairman	-12914
ikalawa	-12915
ilalait	-12916
ilanlan	-12917
iligaya	-12918
ilingin	-12919
ilyuhan	-12920
ingnang	-12921
intatlo	-12922
intindi	-12923
irahang	-12924
iritsit	-12925
iwagaan	-12926
iwagang	-12927
iwanang	-12928
kamukha	-12929
kanyang	-12930
kendeng	-12931
lathala	-12932
maganda	-12933
marikit	-12934
natapos	-12935
notcher	-12936
opootan	-12937
ortahan	-12938
peranza	-12939
pinsala	-12940
rilyero	-12941
risinta	-12942
saktong	-12943
sunuran	-12944
ubiling	-12945
ublihan	-12946
ubukang	-12947
ugbugin	-12948
umption	-12949
unayang	-12950
unyapit	-12951
▁(1932)	-12952
▁(1936)	-12953
▁Adonis	-12954
▁Alagad	-12955
▁Albino	-12956
▁Alonzo	-12957
▁Andang	-12958
▁Anghel	-12959
▁Anyong	-12960
▁Bagobo	-12961
▁Baltog	-12962
▁Baston	-12963
▁Batong	-12964
▁Bigyan	-12965
▁Binasa	-12966
▁Buksan	-12967
▁Burgos	-12968
▁Center	-12969
▁Dalaga	-12970
▁Dalhin	-12971
▁Darang	-12972
▁Doctor	-12973
▁Enrile	-12974
▁Gabing	-12975
▁Gayong	-12976
▁George	-12977
▁Govern	-12978
▁Gregor	-12979
▁Handog	-12980
▁Hawaii	-12981
▁Hermen	-12982
▁Hilaga	-12983
▁Huling	-12984
▁Ibanag	-12985
▁Iisang	-12986
▁Inayos	-12987
▁Intram	-12988
▁Inusig	-12989
▁Ipinag	-12990
▁Ipinap	-12991
▁Joseng	-12992
▁Joseph	-12993
▁Kagand	-12994
▁Katang	-12995
▁Kausap	-12996
▁Kitang	-12997
▁Kurita	-12998
▁Lahing	-12999
▁Lalaki	-13000
▁Lamang	-13001
▁Lintik	-13002
▁Lumang	-13003
▁Lupain	-13004
▁Maghah	-13005
▁Magpak	-13006
▁Makata	-13007
▁Makopa	-13008
▁Malaca	-13009
▁Mamang	-13010
▁Mantap	-13011
▁Mapang	-13012
▁Nabawi	-13013
▁Nadala	-13014
▁Nagbab	-13015
▁Nagpup	-13016
▁Nagtat	-13017
▁Naiiba	-13018
▁Napang	-13019
▁Natalo	-13020
▁Naubos	-13021
▁Nimpas	-13022
▁Ninais	-13023
▁Ninfas	-13024
▁Niyaya	-13025
▁Pagkap	-13026
▁Palaez	-13027
▁Pantas	-13028
▁Parkas	-13029
▁Pawang	-13030
▁Pebong	-13031
▁Pitong	-13032
▁Platas	-13033
▁Sabado	-13034
▁Salapi	-13035
▁Santol	-13036
▁Sayang	-13037
▁Sising	-13038
▁Subali	-13039
▁Talaan	-13040
▁Talaga	-13041
▁Tamang	-13042
▁Tanang	-13043
▁Tatayo	-13044
▁Tulong	-13045
▁Tumaas	-13046
▁Umawit	-13047
▁Valdez	-13048
▁Villaf	-13049
▁aakyat	-13050
▁advert	-13051
▁agahan	-13052
▁agawan	-13053
▁alisan	-13054
▁aliwin	-13055
▁awitan	-13056
▁babasa	-13057
▁bagwis	-13058
▁baklad	-13059
▁balbas	-13060
▁balido	-13061
▁baligt	-13062
▁baling	-13063
▁balisa	-13064
▁bangko	-13065
▁basket	-13066
▁basong	-13067
▁baston	-13068
▁batiin	-13069
▁bawiin	-13070
▁bayaan	-13071
▁bayong	-13072
▁binasa	-13073
▁binawi	-13074
▁binayo	-13075
▁bisang	-13076
▁bolang	-13077
▁buhong	-13078
▁bukana	-13079
▁buktot	-13080
▁bulkan	-13081
▁bulung	-13082
▁career	-13083
▁corrup	-13084
▁decree	-13085
▁dinaya	-13086
▁doktor	-13087
▁dukeng	-13088
▁dumumi	-13089
▁estado	-13090
▁gating	-13091
▁gulong	-13092
▁guwang	-13093
▁halina	-13094
▁hatiin	-13095
▁hidhid	-13096
▁higera	-13097
▁higtan	-13098
▁hiwaga	-13099
▁ibuhos	-13100
▁ihayag	-13101
▁ihulog	-13102
▁ikagig	-13103
▁ikatat	-13104
▁ikinal	-13105
▁ilabas	-13106
▁ilagay	-13107
▁inahin	-13108
▁inamin	-13109
▁inilul	-13110
▁inulit	-13111
▁ipasya	-13112
▁ipinam	-13113
▁isahan	-13114
▁iskrip	-13115
▁itanim	-13116
▁itawag	-13117
▁itigil	-13118
▁itulak	-13119
▁ituloy	-13120
▁kaalam	-13121
▁kabang	-13122
▁kagabi	-13123
▁kagila	-13124
▁kahong	-13125
▁kalesa	-13126
▁kalian	-13127
▁kanyon	-13128
▁kapani	-13129
▁kapuri	-13130
▁karamd	-13131
▁katyaw	-13132
▁kawali	-13133
▁kubang	-13134
▁kutang	-13135
▁lambat	-13136
▁lantay	-13137
▁latigo	-13138
▁layuni	-13139
▁lilong	-13140
▁linsil	-13141
▁liping	-13142
▁lumaya	-13143
▁lunday	-13144
▁lunsod	-13145
▁lutuan	-13146
▁maabot	-13147
▁maagaw	-13148
▁maasim	-13149
▁mabasa	-13150
▁mabawi	-13151
▁magaan	-13152
▁maghih	-13153
▁magkar	-13154
▁magsus	-13155
▁magulo	-13156
▁makina	-13157
▁malabo	-13158
▁manika	-13159
▁manood	-13160
▁mapasa	-13161
▁mapawi	-13162
▁mapuno	-13163
▁mariin	-13164
▁martir	-13165
▁masins	-13166
▁matang	-13167
▁matiis	-13168
▁matuwa	-13169
▁matwid	-13170
▁mayama	-13171
▁mediko	-13172
▁milyon	-13173
▁minuto	-13174
▁motion	-13175
▁musang	-13176
▁musmos	-13177
▁naagaw	-13178
▁naamis	-13179
▁nabali	-13180
▁nagkik	-13181
▁nagpar	-13182
▁naisin	-13183
▁nakaya	-13184
▁nalang	-13185
▁napagt	-13186
▁napana	-13187
▁napawi	-13188
▁napuno	-13189
▁nasawi	-13190
▁natira	-13191
▁natuyo	-13192
▁naubos	-13193
▁niyaya	-13194
▁normal	-13195
▁obrero	-13196
▁pababa	-13197
▁pabaon	-13198
▁padala	-13199
▁pagano	-13200
▁pagdad	-13201
▁pagkit	-13202
▁pahina	-13203
▁palaki	-13204
▁palaso	-13205
▁palayo	-13206
▁pamahi	-13207
▁pandar	-13208
▁panday	-13209
▁pangko	-13210
▁panhik	-13211
▁pantig	-13212
▁papaya	-13213
▁parati	-13214
▁paroko	-13215
▁pasang	-13216
▁paslit	-13217
▁piknik	-13218
▁piliin	-13219
▁pinaki	-13220
▁pinalo	-13221
▁pintor	-13222
▁piraso	-13223
▁piskal	-13224
▁punglo	-13225
▁recall	-13226
▁rentas	-13227
▁sadlak	-13228
▁sagang	-13229
▁sandok	-13230
▁sasama	-13231
▁serpiy	-13232
▁silyon	-13233
▁sinira	-13234
▁sising	-13235
▁siyent	-13236
▁subdib	-13237
▁sumapi	-13238
▁sundan	-13239
▁sungay	-13240
▁susuko	-13241
▁takpan	-13242
▁talian	-13243
▁taling	-13244
▁tamaan	-13245
▁taripa	-13246
▁teatro	-13247
▁tignan	-13248
▁tindig	-13249
▁tingni	-13250
▁tinuka	-13251
▁tuklas	-13252
▁tumaas	-13253
▁tumulo	-13254
▁turing	-13255
▁ulunan	-13256
▁umusad	-13257
▁unggoy	-13258
▁usigin	-13259
▁yantok	-13260
Dumating	-13261
Hanggang	-13262
Ibibigay	-13263
Mangyari	-13264
Maraming	-13265
Nakalaan	-13266
abatayan	-13267
akaawang	-13268
alakayin	-13269
alasakit	-13270
alawampu	-13271
alikasan	-13272
andulong	-13273
anggihan	-13274
asagutin	-13275
atingala	-13276
ayakapin	-13277
ayukayok	-13278
binyagan	-13279
bulungan	-13280
didatong	-13281
elektwal	-13282
ibigyang	-13283
ikasiyam	-13284
ilandang	-13285
iligalig	-13286
ilinlang	-13287
impitong	-13288
isisihan	-13289
itanghal	-13290
kaniyang	-13291
maligaya	-13292
manghang	-13293
piritwal	-13294
rehiyong	-13295
unggaban	-13296
ungkalin	-13297
▁Alading	-13298
▁Antalan	-13299
▁Babaing	-13300
▁Bangkay	-13301
▁Bituing	-13302
▁Buhayin	-13303
▁Bunsong	-13304
▁Cebuano	-13305
▁Defense	-13306
▁Develop	-13307
▁Dianzon	-13308
▁Dinakip	-13309
▁Dinarad	-13310
▁Domingo	-13311
▁Douglas	-13312
▁Dumalap	-13313
▁Escolta	-13314
▁Filemon	-13315
▁Gagawin	-13316
▁Ganding	-13317
▁Garrote	-13318
▁Guardia	-13319
▁Heswita	-13320
▁Hinabol	-13321
▁Hinarap	-13322
▁Hiningi	-13323
▁Humanga	-13324
▁Igalang	-13325
▁Ikaanim	-13326
▁Ikapito	-13327
▁Ipinayo	-13328
▁Isinama	-13329
▁Isinuot	-13330
▁Itinaas	-13331
▁Jupiter	-13332
▁KAGAWAR	-13333
▁KARAPAT	-13334
▁Kasabay	-13335
▁Katawan	-13336
▁Kayrami	-13337
▁Kumapit	-13338
▁Kumatok	-13339
▁Lumawig	-13340
▁Lumuhod	-13341
▁Maagang	-13342
▁Magsisi	-13343
▁Mahanga	-13344
▁Malasin	-13345
▁Maliban	-13346
▁Malubha	-13347
▁Malugod	-13348
▁Malupit	-13349
▁Marikit	-13350
▁Martang	-13351
▁Matamis	-13352
▁Matibay	-13353
▁Matindi	-13354
▁Mautang	-13355
▁Mutyang	-13356
▁Nagdala	-13357
▁Nahulog	-13358
▁Nakamit	-13359
▁Nakaupo	-13360
▁Namuhay	-13361
▁Nanguna	-13362
▁Nangung	-13363
▁Napagka	-13364
▁Narinig	-13365
▁Natanaw	-13366
▁Nicolas	-13367
▁Palawan	-13368
▁Pangkat	-13369
▁Pinasok	-13370
▁Pinauwi	-13371
▁Pinutol	-13372
▁Sadyang	-13373
▁Sagisag	-13374
▁Samahan	-13375
▁Sandayo	-13376
▁Sicalac	-13377
▁Sinulat	-13378
▁Sinunod	-13379
▁Siyudad	-13380
▁Sumapit	-13381
▁Sumigaw	-13382
▁Sumisid	-13383
▁Suprema	-13384
▁Tiniyak	-13385
▁Tutungo	-13386
▁aanihin	-13387
▁abangan	-13388
▁abaniko	-13389
▁angkang	-13390
▁anitong	-13391
▁balikan	-13392
▁balitaw	-13393
▁bayaran	-13394
▁bayarin	-13395
▁bihisan	-13396
▁biktima	-13397
▁bingwit	-13398
▁binubuk	-13399
▁binuwag	-13400
▁bubuuin	-13401
▁buhayin	-13402
▁bukirin	-13403
▁bunutin	-13404
▁busabos	-13405
▁detalye	-13406
▁diligin	-13407
▁duluhan	-13408
▁dumakot	-13409
▁dumaloy	-13410
▁dumanas	-13411
▁duwende	-13412
▁ganoong	-13413
▁grupong	-13414
▁gulanit	-13415
▁habilin	-13416
▁hanguin	-13417
▁harapin	-13418
▁higupin	-13419
▁hihingi	-13420
▁hinaing	-13421
▁hinding	-13422
▁hiningi	-13423
▁hinugot	-13424
▁hukayin	-13425
▁humalik	-13426
▁humihip	-13427
▁ibinato	-13428
▁inaakay	-13429
▁inaalis	-13430
▁inaaliw	-13431
▁inaanak	-13432
▁inianak	-13433
▁inihain	-13434
▁iniraos	-13435
▁inuusig	-13436
▁ipadala	-13437
▁ipinagt	-13438
▁ipinayo	-13439
▁isinama	-13440
▁isinasa	-13441
▁isusubo	-13442
▁ituturo	-13443
▁kabaita	-13444
▁kabaong	-13445
▁kabigha	-13446
▁kagalit	-13447
▁kaginoo	-13448
▁kaginsa	-13449
▁kakaiba	-13450
▁kalakip	-13451
▁kaluban	-13452
▁kalunos	-13453
▁kamukha	-13454
▁kanyong	-13455
▁kapatak	-13456
▁kasingt	-13457
▁katakot	-13458
▁katamis	-13459
▁katwira	-13460
▁kilabot	-13461
▁kilusan	-13462
▁kinasus	-13463
▁klaseng	-13464
▁kongres	-13465
▁kunwari	-13466
▁kuratsa	-13467
▁kutsero	-13468
▁labagin	-13469
▁lalabis	-13470
▁lambong	-13471
▁lamunin	-13472
▁lathala	-13473
▁likhang	-13474
▁limampu	-13475
▁lubusan	-13476
▁luluhod	-13477
▁lumagay	-13478
▁lumagda	-13479
▁lumalag	-13480
▁lumawig	-13481
▁lumiyag	-13482
▁lumubog	-13483
▁lumulon	-13484
▁lutasin	-13485
▁mabibig	-13486
▁mabigla	-13487
▁mabunga	-13488
▁madamot	-13489
▁magalit	-13490
▁magdusa	-13491
▁maghapo	-13492
▁magilas	-13493
▁magpang	-13494
▁magumon	-13495
▁magyuko	-13496
▁mahimok	-13497
▁mahinog	-13498
▁maiinam	-13499
▁makahoy	-13500
▁makitil	-13501
▁malabis	-13502
▁malaong	-13503
▁malibre	-13504
▁malikha	-13505
▁malikot	-13506
▁maliksi	-13507
▁malunod	-13508
▁manding	-13509
▁mangaso	-13510
▁mangkok	-13511
▁manipis	-13512
▁manumpa	-13513
▁mapapak	-13514
▁mapapal	-13515
▁mapasok	-13516
▁maramot	-13517
▁masakim	-13518
▁masunod	-13519
▁masupil	-13520
▁matayog	-13521
▁matindi	-13522
▁matupad	-13523
▁mauubos	-13524
▁maykaya	-13525
▁medalya	-13526
▁mensahe	-13527
▁mismong	-13528
▁monopol	-13529
▁nabaril	-13530
▁nabitay	-13531
▁nagbayo	-13532
▁nagdaos	-13533
▁naglaon	-13534
▁nagmana	-13535
▁nagpala	-13536
▁nagpati	-13537
▁nagtaas	-13538
▁nagtalo	-13539
▁nagtayo	-13540
▁nagulat	-13541
▁nahayag	-13542
▁naiinip	-13543
▁nakahih	-13544
▁nalanta	-13545
▁namalas	-13546
▁namutla	-13547
▁nangagb	-13548
▁nangagl	-13549
▁napakas	-13550
▁napapan	-13551
▁napipin	-13552
▁naputol	-13553
▁nasakop	-13554
▁nasunod	-13555
▁natuloy	-13556
▁natupok	-13557
▁naturan	-13558
▁nayanig	-13559
▁nilibot	-13560
▁nililok	-13561
▁nominee	-13562
▁okasyon	-13563
▁orakulo	-13564
▁paghabi	-13565
▁pagkuha	-13566
▁pagpuri	-13567
▁pakikib	-13568
▁pamatay	-13569
▁panatil	-13570
▁panyong	-13571
▁papasok	-13572
▁parokya	-13573
▁pasigaw	-13574
▁patente	-13575
▁pilyong	-13576
▁pinahih	-13577
▁pinangh	-13578
▁pinauwi	-13579
▁pinigil	-13580
▁pinsang	-13581
▁pintong	-13582
▁pistang	-13583
▁pitasin	-13584
▁piyesta	-13585
▁planeta	-13586
▁plantsa	-13587
▁popular	-13588
▁pumanik	-13589
▁pustiso	-13590
▁putlang	-13591
▁puwersa	-13592
▁resulta	-13593
▁revenue	-13594
▁sabagay	-13595
▁sagipin	-13596
▁sagrado	-13597
▁sakbibi	-13598
▁salarin	-13599
▁sapatos	-13600
▁sasagot	-13601
▁sigasig	-13602
▁sigwang	-13603
▁silahis	-13604
▁silyang	-13605
▁sinadya	-13606
▁sinauna	-13607
▁singkad	-13608
▁sinunog	-13609
▁sukaban	-13610
▁sukdang	-13611
▁sumabog	-13612
▁sumasal	-13613
▁sumibol	-13614
▁sumipot	-13615
▁tabsing	-13616
▁talukap	-13617
▁tigilan	-13618
▁tiniyak	-13619
▁tinudla	-13620
▁tiririt	-13621
▁tribong	-13622
▁tularan	-13623
▁tumanaw	-13624
▁tumikim	-13625
▁tumulak	-13626
▁ugnayan	-13627
▁umaabot	-13628
▁umaakay	-13629
▁umaalis	-13630
▁umaayon	-13631
▁umanong	-13632
▁umiikot	-13633
▁umiimik	-13634
▁umugong	-13635
▁unawain	-13636
Lalapitan	-13637
Malungkot	-13638
Mamamatay	-13639
abilanggo	-13640
ahingahan	-13641
akripisyo	-13642
alakhakan	-13643
alawigang	-13644
alintulad	-13645
atakutang	-13646
awawalang	-13647
bighaning	-13648
comulgado	-13649
ementeryo	-13650
ernatural	-13651
hihiganti	-13652
ikalabing	-13653
imagsikan	-13654
ipaglaban	-13655
pirmasyon	-13656
rimonyong	-13657
ungkahing	-13658
upumiglas	-13659
uumpugang	-13660
▁Agustino	-13661
▁Alemanya	-13662
▁Aninipay	-13663
▁Antipolo	-13664
▁Bangkaya	-13665
▁Barangay	-13666
▁Binigkas	-13667
▁Binuksan	-13668
▁Bubuksan	-13669
▁Bumagsak	-13670
▁Bumaling	-13671
▁Congress	-13672
▁Cotabato	-13673
▁Darating	-13674
▁Datapuwa	-13675
▁Dekalogo	-13676
▁Dinampot	-13677
▁Diyuhara	-13678
▁Etolyang	-13679
▁Filipina	-13680
▁Gobyerno	-13681
▁Graciano	-13682
▁Gumulong	-13683
▁Halikayo	-13684
▁Hospital	-13685
▁Ikinasal	-13686
▁Inabutan	-13687
▁Inihagis	-13688
▁Inilabas	-13689
▁Inilagay	-13690
▁Isinunod	-13691
▁Isisilid	-13692
▁Isusumpa	-13693
▁Itinapon	-13694
▁KAMPUPOT	-13695
▁Kanilang	-13696
▁Kapuluan	-13697
▁Katindoy	-13698
▁Kotabato	-13699
▁Kupidong	-13700
▁Magaling	-13701
▁Magazine	-13702
▁Magbayad	-13703
▁Magiging	-13704
▁Makahiya	-13705
▁Makaraan	-13706
▁Maligaya	-13707
▁Marahang	-13708
▁Marunong	-13709
▁Masaklap	-13710
▁Naaalala	-13711
▁Nagagawa	-13712
▁Nagdaang	-13713
▁Naghanap	-13714
▁Naglakad	-13715
▁Nagsayaw	-13716
▁Nahalata	-13717
▁Nakatira	-13718
▁Nanatili	-13719
▁Napaiyak	-13720
▁Naroroon	-13721
▁Nasindak	-13722
▁Pagsapit	-13723
▁Pinatubo	-13724
▁Politiko	-13725
▁Pumanaog	-13726
▁Salaysay	-13727
▁Sarhento	-13728
▁Talagang	-13729
▁Tenyente	-13730
▁Tinuruan	-13731
▁Titingin	-13732
▁Tumilaok	-13733
▁Tumindig	-13734
▁Tumingin	-13735
▁alipusta	-13736
▁alpombra	-13737
▁apektado	-13738
▁armadong	-13739
▁atensyon	-13740
▁babatiin	-13741
▁bahagdan	-13742
▁bakasyon	-13743
▁bantayog	-13744
▁batikang	-13745
▁bibilang	-13746
▁binabasa	-13747
▁binabayo	-13748
▁binagtas	-13749
▁biyayang	-13750
▁bubuksan	-13751
▁bubungan	-13752
▁bumababa	-13753
▁bumabati	-13754
▁buwayang	-13755
▁dalitang	-13756
▁daluyong	-13757
▁darakpin	-13758
▁datapuwa	-13759
▁dayalogo	-13760
▁dayuhang	-13761
▁dinamita	-13762
▁dinampot	-13763
▁dinapuan	-13764
▁dumadapo	-13765
▁enerhiya	-13766
▁gampanin	-13767
▁gumapang	-13768
▁hahagkan	-13769
▁hinangad	-13770
▁hintayin	-13771
▁ibinayad	-13772
▁ibinilin	-13773
▁iginapos	-13774
▁ikabuhay	-13775
▁ikakasal	-13776
▁inaaring	-13777
▁inihatid	-13778
▁inilagak	-13779
▁inilawan	-13780
▁iniwanan	-13781
▁ipagkait	-13782
▁ipahatid	-13783
▁ipahayag	-13784
▁ipakasal	-13785
▁ipatupad	-13786
▁ipinataw	-13787
▁isinagot	-13788
▁isinalin	-13789
▁itinaboy	-13790
▁itinangi	-13791
▁itinulak	-13792
▁itinuloy	-13793
▁kaasalan	-13794
▁kabayong	-13795
▁kagalang	-13796
▁kahalili	-13797
▁kahuluga	-13798
▁kalaguyo	-13799
▁kalaking	-13800
▁kalapati	-13801
▁kalawang	-13802
▁kaliskis	-13803
▁kalumbay	-13804
▁kamagong	-13805
▁kamandag	-13806
▁kamangha	-13807
▁kampanya	-13808
▁karakang	-13809
▁kaserola	-13810
▁kastilyo	-13811
▁katabing	-13812
▁katalong	-13813
▁katambal	-13814
▁katotong	-13815
▁katuwang	-13816
▁kayarian	-13817
▁kilyawan	-13818
▁kinubkob	-13819
▁kolonyal	-13820
▁kumausap	-13821
▁kumidlat	-13822
▁kumikibo	-13823
▁kumilala	-13824
▁kupidong	-13825
▁landasin	-13826
▁larawang	-13827
▁lehislat	-13828
▁likurang	-13829
▁limitado	-13830
▁linggong	-13831
▁listahan	-13832
▁lumaking	-13833
▁lumundag	-13834
▁lumutang	-13835
▁lunggati	-13836
▁maaalala	-13837
▁maalamat	-13838
▁mabubuti	-13839
▁magbalak	-13840
▁magbuhat	-13841
▁maghapon	-13842
▁maglakad	-13843
▁magmasid	-13844
▁magyakap	-13845
▁mahinhin	-13846
▁mahiwaga	-13847
▁maiwasan	-13848
▁makakaya	-13849
▁makakibo	-13850
▁makalawa	-13851
▁makalaya	-13852
▁makapagd	-13853
▁makaraan	-13854
▁makatayo	-13855
▁malagong	-13856
▁malamyos	-13857
▁mamasdan	-13858
▁mamumuno	-13859
▁mangusap	-13860
▁mapadali	-13861
▁mapapala	-13862
▁masusing	-13863
▁matauhan	-13864
▁matimyas	-13865
▁matinong	-13866
▁matipuno	-13867
▁mawiwika	-13868
▁minabuti	-13869
▁naaalala	-13870
▁nadatnan	-13871
▁naganyak	-13872
▁nagbihis	-13873
▁nagbukas	-13874
▁nagdasal	-13875
▁nagdilim	-13876
▁nagkagan	-13877
▁nagkakas	-13878
▁nagkalat	-13879
▁naglagay	-13880
▁naglalak	-13881
▁nagpatih	-13882
▁nagsabog	-13883
▁nagsilbi	-13884
▁nagsisil	-13885
▁nagtanim	-13886
▁nakahuli	-13887
▁nakaiwas	-13888
▁nakalaan	-13889
▁nakataas	-13890
▁nakatiis	-13891
▁nakawala	-13892
▁nakayuko	-13893
▁nakipagk	-13894
▁nakipags	-13895
▁nakubkob	-13896
▁nalamang	-13897
▁nalimbag	-13898
▁namamana	-13899
▁namasyal	-13900
▁namataan	-13901
▁namayapa	-13902
▁nanghina	-13903
▁nangusap	-13904
▁naniwala	-13905
▁napadaan	-13906
▁napadpad	-13907
▁naparito	-13908
▁napayapa	-13909
▁naririto	-13910
▁nasambit	-13911
▁nasisira	-13912
▁naubusan	-13913
▁nawaglit	-13914
▁nawalang	-13915
▁nilagyan	-13916
▁niluluto	-13917
▁ninasang	-13918
▁orkestra	-13919
▁paalisin	-13920
▁pagdaing	-13921
▁pagdamay	-13922
▁paggapas	-13923
▁paghahal	-13924
▁pagharap	-13925
▁paghihin	-13926
▁paghingi	-13927
▁paghinto	-13928
▁pagkaawa	-13929
▁paglilin	-13930
▁paglubog	-13931
▁pagpanaw	-13932
▁pagsuway	-13933
▁pagtakas	-13934
▁pagtakbo	-13935
▁pagtanaw	-13936
▁pagtanda	-13937
▁pagtungo	-13938
▁palaging	-13939
▁palalong	-13940
▁palaring	-13941
▁palasong	-13942
▁palendag	-13943
▁pamimili	-13944
▁paminsan	-13945
▁pamunuan	-13946
▁pangkura	-13947
▁panlunas	-13948
▁pansinin	-13949
▁pantribo	-13950
▁parangal	-13951
▁parating	-13952
▁parehong	-13953
▁partidos	-13954
▁pasubsob	-13955
▁patibong	-13956
▁payagang	-13957
▁pelikula	-13958
▁pensiyon	-13959
▁perpetua	-13960
▁pinagpup	-13961
▁pinapang	-13962
▁pinupuri	-13963
▁produkto	-13964
▁pumalaot	-13965
▁pwersang	-13966
▁relasyon	-13967
▁salitaan	-13968
▁sangguni	-13969
▁sektoral	-13970
▁simulain	-13971
▁sinasaka	-13972
▁sinusuyo	-13973
▁sosyedad	-13974
▁sukdulan	-13975
▁susundan	-13976
▁susundin	-13977
▁susuriin	-13978
▁tagapags	-13979
▁tagaroon	-13980
▁taluktok	-13981
▁tampulan	-13982
▁tanikala	-13983
▁tatsulok	-13984
▁tawaging	-13985
▁tinangis	-13986
▁tinangka	-13987
▁tinitiis	-13988
▁tiyakang	-13989
▁trahedya	-13990
▁tumangis	-13991
▁ugnayang	-13992
▁umusbong	-13993
▁umuunlad	-13994
Balintawak	-13995
Pagkatapos	-13996
Tutulungan	-13997
agubilinan	-13998
akasalanan	-13999
akaunawaan	-14000
alinhagang	-14001
aminations	-14002
angkilikin	-14003
ganisasyon	-14004
paniwalang	-14005
uestration	-14006
uwalhatian	-14007
▁Artilyero	-14008
▁Asembleya	-14009
▁Binitiwan	-14010
▁Capariaan	-14011
▁Dalubhasa	-14012
▁Damdaming	-14013
▁Economics	-14014
▁Embidayan	-14015
▁Esperanza	-14016
▁Fleridang	-14017
▁Ginagamit	-14018
▁Hahahahah	-14019
▁Hahawakan	-14020
▁Hinahanap	-14021
▁Hinimatay	-14022
▁Impiyerno	-14023
▁Inaasahan	-14024
▁Indrapura	-14025
▁Ipinakita	-14026
▁Kapalaran	-14027
▁Karaniwan	-14028
▁Kasulatan	-14029
▁Kinumusta	-14030
▁Kulturang	-14031
▁Lakandiwa	-14032
▁Mabubuhay	-14033
▁Macaranga	-14034
▁Magaganda	-14035
▁Magmadali	-14036
▁Makabayan	-14037
▁Mantapuli	-14038
▁Mapatubig	-14039
▁Melendrez	-14040
▁Minisalaw	-14041
▁Municipal	-14042
▁Nagdurusa	-14043
▁Nagkagulo	-14044
▁Nagkataon	-14045
▁Nagsasama	-14046
▁Nakahanda	-14047
▁Nalimutan	-14048
▁Napilitan	-14049
▁Natatakot	-14050
▁Nilapitan	-14051
▁Paaralang	-14052
▁Pablitong	-14053
▁Pagkaalis	-14054
▁Persiyano	-14055
▁Pinatigil	-14056
▁Pinatuloy	-14057
▁Pinawalan	-14058
▁President	-14059
▁Saturnino	-14060
▁Sinabihan	-14061
▁Sinigawan	-14062
▁Suliranin	-14063
▁Tabunaway	-14064
▁Tinawagan	-14065
▁Tinuligsa	-14066
▁Titingala	-14067
▁Tungkulin	-14068
▁Valeriana	-14069
▁Yambungan	-14070
▁akademiko	-14071
▁anyayahan	-14072
▁ariariang	-14073
▁artistiko	-14074
▁babarilin	-14075
▁bangungot	-14076
▁batsilyer	-14077
▁bibitayin	-14078
▁binabalak	-14079
▁binabalik	-14080
▁binayaran	-14081
▁binigyang	-14082
▁binubunot	-14083
▁bumubuong	-14084
▁dadalawin	-14085
▁daigdigan	-14086
▁dinaranas	-14087
▁dinatnang	-14088
▁dinumihan	-14089
▁ginugugol	-14090
▁hagupitin	-14091
▁hanggahan	-14092
▁hardinero	-14093
▁hinanakit	-14094
▁hinatulan	-14095
▁hinuhukay	-14096
▁humahanga	-14097
▁humihinga	-14098
▁ihahandog	-14099
▁ikabubuti	-14100
▁ikauunlad	-14101
▁ililigtas	-14102
▁inaangkin	-14103
▁industriy	-14104
▁inilibing	-14105
▁inilimbag	-14106
▁iniluklok	-14107
▁ipagtapat	-14108
▁ipakikita	-14109
▁ipinadpad	-14110
▁isalubong	-14111
▁isinakdal	-14112
▁isinasama	-14113
▁isisilang	-14114
▁itinatago	-14115
▁itinuturo	-14116
▁kaalamang	-14117
▁kabakahin	-14118
▁kabilugan	-14119
▁kaganapan	-14120
▁kahihiyan	-14121
▁kalaliman	-14122
▁kaliluhan	-14123
▁kamukhang	-14124
▁kapatiran	-14125
▁karahasan	-14126
▁kariktang	-14127
▁karugtong	-14128
▁kasakiman	-14129
▁katagalan	-14130
▁katamaran	-14131
▁katatagan	-14132
▁katipunan	-14133
▁katubusan	-14134
▁katuturan	-14135
▁kautusang	-14136
▁kawanihan	-14137
▁kinaawaan	-14138
▁kinagagap	-14139
▁kinakapos	-14140
▁kinawayan	-14141
▁kulturang	-14142
▁kumatawan	-14143
▁kunwaring	-14144
▁labandera	-14145
▁limampung	-14146
▁lumalabas	-14147
▁mababakas	-14148
▁mabanggit	-14149
▁mabigyang	-14150
▁madaliang	-14151
▁magbangon	-14152
▁magkaisip	-14153
▁magkausap	-14154
▁magparusa	-14155
▁magpulong	-14156
▁magsasabi	-14157
▁magtitiis	-14158
▁mahinahon	-14159
▁maiibigan	-14160
▁maiwasang	-14161
▁makaharap	-14162
▁makakamit	-14163
▁makalapit	-14164
▁makalimot	-14165
▁makarinig	-14166
▁makasapit	-14167
▁makikipag	-14168
▁malilikot	-14169
▁mananayaw	-14170
▁mapatakan	-14171
▁masakitin	-14172
▁masiglang	-14173
▁masusupil	-14174
▁matagalan	-14175
▁matahimik	-14176
▁matutulis	-14177
▁matutupad	-14178
▁nababatay	-14179
▁nagagapos	-14180
▁nagbabala	-14181
▁nagbibiro	-14182
▁naghangad	-14183
▁naghintay	-14184
▁nagkaanak	-14185
▁nagkagulo	-14186
▁nagligtas	-14187
▁nagpadala	-14188
▁nagpasiya	-14189
▁nagpulong	-14190
▁nagsasaya	-14191
▁nagtaksil	-14192
▁nagtuturo	-14193
▁naibalita	-14194
▁nakaabang	-14195
▁nakabalik	-14196
▁nakabihis	-14197
▁nakadamit	-14198
▁nakakapag	-14199
▁nakalahad	-14200
▁nakalasap	-14201
▁nakalatag	-14202
▁nakalipad	-14203
▁nakasaksi	-14204
▁nakatagpo	-14205
▁nakatakda	-14206
▁nakatikim	-14207
▁nakatitik	-14208
▁nalagutan	-14209
▁nalalanta	-14210
▁naliligid	-14211
▁namamahay	-14212
▁namamalas	-14213
▁nangakong	-14214
▁nanghiram	-14215
▁nangitlog	-14216
▁napansing	-14217
▁naraanang	-14218
▁nasasabik	-14219
▁nasasakop	-14220
▁nasasalig	-14221
▁natagalan	-14222
▁natanawan	-14223
▁natapakan	-14224
▁natitipon	-14225
▁naunawaan	-14226
▁negosyong	-14227
▁nilapitan	-14228
▁nilikhang	-14229
▁ordinansa	-14230
▁pagbagsak	-14231
▁pagdidiin	-14232
▁paggunita	-14233
▁pagkahari	-14234
▁pagkatalo	-14235
▁pagkukusa	-14236
▁paglinang	-14237
▁pagpanhik	-14238
▁pagtalima	-14239
▁pagtutuos	-14240
▁pakendeng	-14241
▁pakikiisa	-14242
▁palasyong	-14243
▁palayawin	-14244
▁palitawin	-14245
▁palugitan	-14246
▁pamalakad	-14247
▁pambayani	-14248
▁pambungad	-14249
▁pamilihan	-14250
▁pananakop	-14251
▁pangunang	-14252
▁pansarili	-14253
▁pantulong	-14254
▁paraluman	-14255
▁pasilidad	-14256
▁pinalabas	-14257
▁pinalayas	-14258
▁pinanumpa	-14259
▁pinturang	-14260
▁pipitasin	-14261
▁pitumpung	-14262
▁plebesito	-14263
▁professor	-14264
▁puspusang	-14265
▁reclusion	-14266
▁sabungero	-14267
▁sandalyas	-14268
▁sandatang	-14269
▁scientist	-14270
▁sigarilyo	-14271
▁simulaing	-14272
▁sinalanta	-14273
▁sinamahan	-14274
▁sinasadya	-14275
▁sinugatan	-14276
▁solitaryo	-14277
▁sumasayaw	-14278
▁sumisigaw	-14279
▁sumisikat	-14280
▁sundalong	-14281
▁talumpati	-14282
▁tanggihan	-14283
▁tangraban	-14284
▁tinatapos	-14285
▁tinigilan	-14286
▁tinikling	-14287
▁tiningnan	-14288
▁tinubuang	-14289
▁tinutulan	-14290
▁tinutungo	-14291
▁tumitibok	-14292
▁tumutugon	-14293
▁tuntuning	-14294
▁tutuparin	-14295
Papalibutan	-14296
alipikasyon	-14297
amantalahan	-14298
arantiyahan	-14299
rehensibong	-14300
▁Assumption	-14301
▁Bagombayan	-14302
▁Cabanatuan	-14303
▁Conference	-14304
▁Evangelina	-14305
▁Himagsikan	-14306
▁Inilarawan	-14307
▁Intramuros	-14308
▁Ipinangako	-14309
▁Itinanghal	-14310
▁Kalanutian	-14311
▁Kalikasang	-14312
▁Kayumanggi	-14313
▁Nagbuntung	-14314
▁Naghiyawan	-14315
▁Nagkakaisa	-14316
▁Nagmakaawa	-14317
▁Nagsisipan	-14318
▁Nagtrabaho	-14319
▁Nakaramdam	-14320
▁Nanggaling	-14321
▁Naramdaman	-14322
▁Pagkaraang	-14323
▁Pamayamaya	-14324
▁Pandaigdig	-14325
▁Paruparong	-14326
▁Persyanong	-14327
▁Pilosopiya	-14328
▁Pinamunuan	-14329
▁Samaritano	-14330
▁Sapilitang	-14331
▁Silanganin	-14332
▁Sinasabing	-14333
▁Sinimulang	-14334
▁Tinulungan	-14335
▁baligtarin	-14336
▁binitiwang	-14337
▁bumabalong	-14338
▁certiorari	-14339
▁dalawandaa	-14340
▁hahalinhan	-14341
▁henerasyon	-14342
▁hinahagkan	-14343
▁hinatulang	-14344
▁historikal	-14345
▁ikabubuhay	-14346
▁imbitasyon	-14347
▁inaalagaan	-14348
▁inihabilin	-14349
▁inilalagay	-14350
▁inilarawan	-14351
▁initiative	-14352
▁integrated	-14353
▁interesado	-14354
▁ipahiwatig	-14355
▁ipaliwanag	-14356
▁ipatutupad	-14357
▁ipinamalas	-14358
▁isinisigaw	-14359
▁kabinataan	-14360
▁kabuhayang	-14361
▁kagawarang	-14362
▁kaguluhang	-14363
▁kailaliman	-14364
▁kakaunting	-14365
▁kampanaryo	-14366
▁kamusmusan	-14367
▁kapasyahan	-14368
▁kapistahan	-14369
▁kapulungan	-14370
▁kapurihang	-14371
▁kapuspalad	-14372
▁kararating	-14373
▁kasiglahan	-14374
▁katapatang	-14375
▁katapusang	-14376
▁kinakitaan	-14377
▁koalisyong	-14378
▁kolehiyado	-14379
▁kontrabida	-14380
▁lumilingon	-14381
▁lumulutang	-14382
▁magbubuhat	-14383
▁magdudulot	-14384
▁maghapunan	-14385
▁magkagalit	-14386
▁magkaharap	-14387
▁magkakamag	-14388
▁magkasabay	-14389
▁magkasundo	-14390
▁magpatotoo	-14391
▁magpautang	-14392
▁magsabatas	-14393
▁magtanggol	-14394
▁maitanghal	-14395
▁makabangon	-14396
▁makakamtan	-14397
▁makalawang	-14398
▁makapagpat	-14399
▁makaramdam	-14400
▁malawakang	-14401
▁manalangin	-14402
▁mananatili	-14403
▁mangyaring	-14404
▁mapuputing	-14405
▁maralitang	-14406
▁marurunong	-14407
▁matagumpay	-14408
▁matiyagang	-14409
▁matustusan	-14410
▁mawawaglit	-14411
▁nabilanggo	-14412
▁nadagdagan	-14413
▁nagbabalak	-14414
▁nagbangong	-14415
▁nagdahilan	-14416
▁nagdarasal	-14417
▁naghahanda	-14418
▁naghahatid	-14419
▁naghahayag	-14420
▁naghiwalay	-14421
▁nagkapalad	-14422
▁naglalagos	-14423
▁naglilibot	-14424
▁naglingkod	-14425
▁nagpahayag	-14426
▁nagpapalit	-14427
▁nagpupugay	-14428
▁nagtatanod	-14429
▁nagugunita	-14430
▁nagwawakas	-14431
▁nakababasa	-14432
▁nakakausap	-14433
▁nakakulong	-14434
▁nakapagpap	-14435
▁nakapagsas	-14436
▁nakapanhik	-14437
▁nakaramdam	-14438
▁nakikilala	-14439
▁namamangka	-14440
▁nananariwa	-14441
▁nananatili	-14442
▁nararating	-14443
▁naulinigan	-14444
▁ngumingiti	-14445
▁pagbabanta	-14446
▁pagbabawal	-14447
▁pagdarasal	-14448
▁paghahakot	-14449
▁paghaharap	-14450
[...]
