<unk>	0
<s>	0
</s>	0
ng	-0
ang	-1
an	-2
▁n	-3
▁s	-4
ag	-5
▁m	-6
at	-7
al	-8
ay	-9
in	-10
▁k	-11
▁p	-12
ak	-13
▁sa	-14
▁ng	-15
▁ang	-16
▁na	-17
it	-18
am	-19
ing	-20
as	-21
il	-22
ong	-23
▁b	-24
aw	-25
ar	-26
ap	-27
ah	-28
▁l	-29
▁t	-30
iy	-31
ab	-32
▁d	-33
▁at	-34
▁A	-35
ul	-36
is	-37
ig	-38
▁ay	-39
▁h	-40
um	-41
un	-42
ga	-43
on	-44
▁mga	-45
▁S	-46
▁N	-47
▁pag	-48
ik	-49
▁M	-50
ib	-51
ung	-52
iya	-53
ad	-54
▁nag	-55
▁g	-56
▁K	-57
▁P	-58
▁kan	-59
ip	-60
▁mag	-61
▁I	-62
▁Ang	-63
ut	-64
us	-65
▁ni	-66
▁si	-67
uh	-68
▁D	-69
ito	-70
▁B	-71
▁is	-72
im	-73
ala	-74
and	-75
▁"	-76
di	-77
▁L	-78
yang	-79
▁ak	-80
up	-81
uw	-82
ub	-83
os	-84
uk	-85
ilang	-86
▁nang	-87
ila	-88
▁H	-89
..	-90
ot	-91
▁T	-92
▁Sa	-93
iw	-94
▁kanyang	-95
aya	-96
indi	-97
awa	-98
▁isang	-99
▁ko	-100
alak	-101
alang	-102
ari	-103
▁ka	-104
▁may	-105
iyang	-106
og	-107
ug	-108
ita	-109
ya	-110
▁mat	-111
▁ito	-112
or	-113
ih	-114
▁w	-115
ayan	-116
▁niya	-117
ur	-118
ir	-119
▁mo	-120
ant	-121
▁siya	-122
id	-123
▁in	-124
▁nak	-125
▁pin	-126
ayo	-127
ol	-128
er	-129
ok	-130
▁ib	-131
amang	-132
▁At	-133
▁mal	-134
▁nam	-135
▁pa	-136
▁hindi	-137
▁(	-138
▁mak	-139
."	-140
angg	-141
▁an	-142
apat	-143
▁ta	-144
▁iy	-145
ahan	-146
▁pan	-147
en	-148
▁sin	-149
ata	-150
alag	-151
▁r	-152
▁kung	-153
ama	-154
uhay	-155
▁pang	-156
oy	-157
▁pagk	-158
to	-159
ula	-160
sa	-161
▁Nag	-162
yo	-163
oon	-164
ibig	-165
od	-166
ahat	-167
▁kay	-168
▁kas	-169
▁kat	-170
aan	-171
▁ma	-172
▁ako	-173
alam	-174
...	-175
▁mas	-176
uan	-177
araw	-178
ating	-179
▁kah	-180
awang	-181
aka	-182
aba	-183
agk	-184
abi	-185
▁kal	-186
▁lum	-187
▁man	-188
▁F	-189
ipin	-190
▁tin	-191
anda	-192
ahil	-193
▁dal	-194
▁lamang	-195
▁di	-196
▁mah	-197
▁kap	-198
▁siyang	-199
▁it	-200
▁par	-201
▁niyang	-202
▁kong	-203
unt	-204
▁Ng	-205
▁aking	-206
▁buhay	-207
▁lahat	-208
upang	-209
▁kam	-210
ana	-211
▁G	-212
▁mab	-213
▁anak	-214
alit	-215
▁tao	-216
und	-217
▁din	-218
▁kanilang	-219
ob	-220
unit	-221
andang	-222
▁kab	-223
akas	-224
▁upang	-225
▁Kung	-226
es	-227
▁Al	-228
ayon	-229
▁nap	-230
▁pal	-231
▁ik	-232
▁mar	-233
▁um	-234
▁sila	-235
int	-236
▁araw	-237
▁naman	-238
▁nat	-239
▁bag	-240
aring	-241
alan	-242
akit	-243
▁In	-244
▁walang	-245
atay	-246
aling	-247
▁o	-248
▁pam	-249
▁Don	-250
▁map	-251
ulang	-252
ins	-253
▁bin	-254
▁iyong	-255
▁Nang	-256
▁rin	-257
ili	-258
ante	-259
▁hin	-260
ali	-261
upa	-262
sang	-263
▁J	-264
alim	-265
alik	-266
▁Na	-267
aman	-268
▁bat	-269
apit	-270
▁tag	-271
▁pus	-272
▁sum	-273
▁nila	-274
▁Fl	-275
▁pun	-276
alaki	-277
ika	-278
ayang	-279
▁lang	-280
asa	-281
ina	-282
▁kar	-283
▁Ay	-284
ungk	-285
iling	-286
▁magk	-287
▁e	-288
▁tum	-289
▁gin	-290
abang	-291
aban	-292
▁dahil	-293
▁W	-294
▁baba	-295
▁bayan	-296
iwan	-297
uha	-298
▁Mag	-299
▁il	-300
ahon	-301
el	-302
▁May	-303
ha	-304
amb	-305
yan	-306
▁C	-307
▁Flor	-308
▁Hindi	-309
ro	-310
▁tul	-311
▁kaya	-312
asawa	-313
na	-314
awan	-315
uwa	-316
alaga	-317
alo	-318
uwag	-319
▁pat	-320
agkat	-321
anggang	-322
▁ama	-323
angk	-324
▁Pag	-325
yong	-326
▁nito	-327
inig	-328
aming	-329
▁Florante	-330
atu	-331
awag	-332
.)	-333
▁wala	-334
ulo	-335
▁bah	-336
▁lupa	-337
▁U	-338
akl	-339
uhan	-340
apos	-341
▁mong	-342
▁pinag	-343
uti	-344
▁dum	-345
▁nags	-346
iyos	-347
▁Lam	-348
▁Isang	-349
▁y	-350
apag	-351
▁mang	-352
ulan	-353
▁nin	-354
▁puso	-355
alaking	-356
▁dalawang	-357
▁kin	-358
ilipin	-359
▁babae	-360
asan	-361
▁sar	-362
alita	-363
▁nagp	-364
▁nga	-365
▁pagl	-366
▁ina	-367
itan	-368
agat	-369
alay	-370
alin	-371
▁R	-372
ipag	-373
▁kanya	-374
▁pags	-375
ta	-376
irap	-377
tat	-378
uli	-379
oob	-380
arap	-381
▁mam	-382
▁Pilipin	-383
uto	-384
▁pak	-385
amp	-386
▁Juan	-387
apatid	-388
▁Ad	-389
han	-390
▁hari	-391
tong	-392
unang	-393
ura	-394
yon	-395
▁Sin	-396
▁E	-397
bay	-398
▁Ag	-399
▁bul	-400
▁nas	-401
▁itong	-402
▁ngunit	-403
▁kum	-404
▁Ib	-405
rins	-406
angan	-407
itong	-408
ko	-409
uong	-410
▁ikaw	-411
▁dito	-412
▁mad	-413
▁Ngunit	-414
ain	-415
▁kag	-416
ungan	-417
▁tat	-418
▁lag	-419
ahang	-420
▁lalaki	-421
▁hanggang	-422
aran	-423
▁Ito	-424
▁langit	-425
▁naging	-426
▁iba	-427
▁ipin	-428
em	-429
▁Si	-430
▁po	-431
lang	-432
ulog	-433
▁nan	-434
▁nagk	-435
▁O	-436
amd	-437
amit	-438
▁panahon	-439
abas	-440
anap	-441
tan	-442
▁La	-443
oong	-444
along	-445
arian	-446
ulong	-447
aga	-448
ind	-449
amah	-450
▁kuw	-451
▁nar	-452
▁nagb	-453
▁nagl	-454
ihan	-455
,"	-456
▁Y	-457
▁ag	-458
yari	-459
▁iyo	-460
▁ating	-461
▁ba	-462
unga	-463
▁isa	-464
▁nasa	-465
▁sab	-466
▁hang	-467
▁para	-468
▁'	-469
agp	-470
una	-471
isip	-472
▁Pin	-473
▁buw	-474
ayong	-475
oro	-476
▁sap	-477
apang	-478
▁Kaya	-479
ubat	-480
▁hum	-481
▁sag	-482
aklak	-483
uling	-484
▁pagh	-485
▁buong	-486
▁al	-487
ugan	-488
utan	-489
!"	-490
▁nab	-491
▁An	-492
▁Nak	-493
▁kang	-494
▁wika	-495
ban	-496
awat	-497
▁ngayon	-498
awit	-499
arang	-500
▁mata	-501
▁Di	-502
usap	-503
▁pagp	-504
▁Laura	-505
▁big	-506
▁loob	-507
ulay	-508
▁nil	-509
▁pum	-510
▁akin	-511
▁puno	-512
▁silang	-513
ayop	-514
unod	-515
▁sam	-516
alas	-517
awin	-518
iyak	-519
undok	-520
▁dalaga	-521
ud	-522
ati	-523
usa	-524
agal	-525
▁bum	-526
alaman	-527
tas	-528
▁gum	-529
▁iyon	-530
▁bahay	-531
alat	-532
iwa	-533
ihin	-534
isa	-535
▁pagb	-536
▁asawa	-537
▁ninyo	-538
▁unang	-539
▁kaharian	-540
uy	-541
wa	-542
▁da	-543
ilim	-544
▁tub	-545
▁kamay	-546
▁taong	-547
abag	-548
ibigan	-549
pik	-550
ilig	-551
▁tang	-552
▁hayop	-553
▁parang	-554
uno	-555
▁Ik	-556
uting	-557
iwanag	-558
la	-559
abaw	-560
alig	-561
▁Bat	-562
▁Pagkat	-563
▁kapatid	-564
uri	-565
ust	-566
alis	-567
sing	-568
abing	-569
▁Datu	-570
▁nilang	-571
▁pagkak	-572
ami	-573
ump	-574
awak	-575
▁Mga	-576
▁hig	-577
▁Agat	-578
▁Mari	-579
▁noon	-580
alamat	-581
esa	-582
sin	-583
ungo	-584
ahing	-585
iging	-586
▁nagh	-587
hala	-588
ulat	-589
▁Mar	-590
▁kaw	-591
anong	-592
▁ibig	-593
▁kahit	-594
▁bulaklak	-595
kas	-596
long	-597
▁kun	-598
▁tun	-599
anga	-600
▁nagt	-601
▁prins	-602
?"	-603
eng	-604
banya	-605
▁Siya	-606
aki	-607
ano	-608
dig	-609
▁Ip	-610
▁Ako	-611
▁magp	-612
▁Diyos	-613
▁Donya	-614
▁kuwen	-615
yay	-616
ed	-617
say	-618
▁buk	-619
▁tubig	-620
eg	-621
▁bawat	-622
▁gubat	-623
▁Haring	-624
lay	-625
ingg	-626
▁Lum	-627
▁Mak	-628
▁gan	-629
▁Pilipino	-630
lo	-631
▁Tin	-632
▁nal	-633
▁kayo	-634
▁pagt	-635
unting	-636
▁Dahil	-637
▁dagat	-638
▁bundok	-639
▁maging	-640
olf	-641
▁ya	-642
asal	-643
unan	-644
▁Sum	-645
agang	-646
igdig	-647
▁Adolf	-648
▁ibang	-649
▁sinabi	-650
atang	-651
iwang	-652
▁ibon	-653
▁tayo	-654
▁lakas	-655
▁Walang	-656
AN	-657
da	-658
ey	-659
agi	-660
nan	-661
▁pap	-662
▁bagay	-663
ako	-664
ira	-665
hang	-666
ipad	-667
▁pagd	-668
▁Kas	-669
▁naw	-670
alakas	-671
▁Maria	-672
▁bunga	-673
▁dapat	-674
alagang	-675
▁dalawa	-676
▁maraming	-677
▁magandang	-678
sak	-679
▁Man	-680
▁nakat	-681
▁tunay	-682
agan	-683
▁hal	-684
▁mula	-685
▁matat	-686
so	-687
dib	-688
▁dib	-689
▁lub	-690
▁lug	-691
▁luha	-692
▁magb	-693
anggol	-694
▁dumating	-695
▁magulang	-696
unong	-697
▁dibdib	-698
▁punong	-699
ma	-700
▁–	-701
ukha	-702
unta	-703
▁nah	-704
▁ulo	-705
▁muli	-706
▁Adolfo	-707
▁kasama	-708
▁nitong	-709
ern	-710
ulad	-711
▁Bin	-712
amdam	-713
▁agad	-714
▁itin	-715
▁ilang	-716
",	-717
▁1	-718
Ang	-719
ago	-720
olo	-721
▁Il	-722
▁ap	-723
▁ban	-724
▁pas	-725
▁epik	-726
▁akong	-727
▁mahal	-728
▁Albanya	-729
uro	-730
...!	-731
ikan	-732
agawa	-733
isang	-734
▁datu	-735
▁sina	-736
▁buwan	-737
▁huwag	-738
▁kundi	-739
▁tungk	-740
▁i	-741
hin	-742
▁or	-743
ango	-744
aroon	-745
amahal	-746
▁panan	-747
▁Nagong	-748
▁katawan	-749
lad	-750
isig	-751
uloy	-752
▁min	-753
▁Koro	-754
▁gabi	-755
▁ilog	-756
▁mags	-757
ungkot	-758
▁tinig	-759
▁makita	-760
▁sarili	-761
oo	-762
akot	-763
pang	-764
▁doon	-765
anggap	-766
▁Huwag	-767
arating	-768
bo	-769
ann	-770
ara	-771
iran	-772
ilala	-773
▁bato	-774
▁natin	-775
▁nakita	-776
apa	-777
imp	-778
▁Fa	-779
alaw	-780
oyan	-781
usan	-782
▁Nam	-783
insan	-784
▁kita	-785
▁pinak	-786
annoyan	-787
Ay	-788
ero	-789
ers	-790
▁tr	-791
amag	-792
aong	-793
apak	-794
aral	-795
▁git	-796
▁lik	-797
ikita	-798
▁nagd	-799
▁pagm	-800
▁sabi	-801
▁Faust	-802
▁diyos	-803
▁Cannoyan	-804
aro	-805
▁ip	-806
apon	-807
ilis	-808
undo	-809
▁Mal	-810
▁sak	-811
▁bata	-812
▁isip	-813
▁laging	-814
▁daigdig	-815
ubo	-816
▁ul	-817
inga	-818
uhat	-819
▁lig	-820
▁lugar	-821
ilangan	-822
▁Faustus	-823
ent	-824
uin	-825
ayaw	-826
uran	-827
ahanap	-828
▁kulay	-829
▁yaong	-830
▁inyong	-831
▁Bathala	-832
ahi	-833
imb	-834
pak	-835
atan	-836
▁Mab	-837
▁palas	-838
ugo	-839
▁Mat	-840
▁ano	-841
itang	-842
▁isin	-843
▁sand	-844
▁lalaking	-845
▁sapagkat	-846
uwi	-847
ahay	-848
amat	-849
igil	-850
▁Mah	-851
▁Wala	-852
▁noong	-853
▁tulad	-854
▁malaking	-855
amo	-856
agka	-857
ilag	-858
itin	-859
unti	-860
▁Sinabi	-861
▁matandang	-862
ist	-863
▁maa	-864
ingin	-865
▁saan	-866
▁mukha	-867
▁habang	-868
▁sariling	-869
om	-870
apan	-871
▁Hin	-872
▁dak	-873
▁pab	-874
▁koro	-875
▁magt	-876
▁ring	-877
ubalit	-878
▁magkak	-879
▁muling	-880
ipe	-881
amis	-882
▁lib	-883
▁suk	-884
▁nagm	-885
▁bagong	-886
ks	-887
▁Ka	-888
abis	-889
nong	-890
▁Mas	-891
▁bak	-892
▁bal	-893
ahong	-894
irang	-895
iwala	-896
▁gawa	-897
▁sino	-898
▁sakit	-899
▁binata	-900
akad	-901
ulot	-902
▁gag	-903
▁awit	-904
▁nais	-905
▁oras	-906
▁kamat	-907
▁lalong	-908
▁kuwento	-909
▁pagkain	-910
▁a	-911
aso	-912
uga	-913
uni	-914
apal	-915
▁Kay	-916
akain	-917
abalik	-918
▁hirap	-919
alaysay	-920
▁tatlong	-921
api	-922
upo	-923
ahin	-924
away	-925
usang	-926
▁Ipin	-927
▁Tula	-928
▁Kaban	-929
▁higit	-930
▁tahan	-931
▁palasyo	-932
▁Kabanata	-933
ahim	-934
igay	-935
isan	-936
▁Kin	-937
▁sim	-938
uhang	-939
utang	-940
▁pala	-941
▁Yaong	-942
▁gitna	-943
▁tinat	-944
eo	-945
ihim	-946
▁sig	-947
▁sus	-948
▁ding	-949
▁taga	-950
yat	-951
▁Ar	-952
akay	-953
ilan	-954
iliw	-955
▁Mad	-956
▁huk	-957
▁sul	-958
ikang	-959
▁Adar	-960
▁saka	-961
▁Inang	-962
▁pagka	-963
▁prinsesa	-964
▁Pilipinas	-965
awi	-966
agot	-967
▁bun	-968
▁pil	-969
ibigay	-970
▁kapag	-971
▁napak	-972
▁Adarna	-973
▁bilang	-974
▁hangin	-975
ibang	-976
▁Alad	-977
▁taon	-978
irahan	-979
▁palad	-980
▁palak	-981
san	-982
▁Kal	-983
▁tan	-984
awala	-985
ingan	-986
ubong	-987
▁Ikaw	-988
▁bago	-989
▁diwa	-990
▁ikin	-991
▁kanila	-992
▁liwanag	-993
et	-994
man	-995
abay	-996
ahoy	-997
ilos	-998
▁ini	-999
▁niy	-1000
imang	-1001
▁magl	-1002
▁tula	-1003
▁Ibong	-1004
▁kahoy	-1005
▁kalul	-1006
▁tungkol	-1007
▁kaibigan	-1008
do	-1009
re	-1010
ags	-1011
ipas	-1012
▁sal	-1013
araan	-1014
igkas	-1015
▁nina	-1016
▁Prins	-1017
▁nakak	-1018
alakbay	-1019
alawang	-1020
angyari	-1021
▁kamatayan	-1022
iba	-1023
pan	-1024
abot	-1025
ahas	-1026
akan	-1027
igan	-1028
ikha	-1029
ingi	-1030
utos	-1031
▁Tum	-1032
antay	-1033
ising	-1034
ongan	-1035
▁kami	-1036
▁pagg	-1037
yayari	-1038
▁bangk	-1039
alitang	-1040
▁mabuti	-1041
▁namang	-1042
▁pagtat	-1043
▁2	-1044
ono	-1045
anay	-1046
▁Kat	-1047
▁Sam	-1048
▁sas	-1049
asyon	-1050
▁sana	-1051
▁tuwa	-1052
▁epiko	-1053
▁kapwa	-1054
▁Aladin	-1055
▁ginawa	-1056
▁pagkat	-1057
▁pagsas	-1058
▁halaman	-1059
▁Pagkatapos	-1060
aks	-1061
las	-1062
abig	-1063
ilin	-1064
ipit	-1065
iwata	-1066
▁Nagp	-1067
▁magd	-1068
arapat	-1069
▁bakit	-1070
▁masas	-1071
▁tapat	-1072
ca	-1073
io	-1074
▁ig	-1075
anaw	-1076
apas	-1077
▁Par	-1078
▁lip	-1079
▁uri	-1080
▁Pers	-1081
▁mand	-1082
agpuan	-1083
▁aming	-1084
▁ibong	-1085
▁karan	-1086
ulungan	-1087
▁nagtat	-1088
▁tauhan	-1089
▁malapit	-1090
▁sanggol	-1091
▁kaniyang	-1092
AR	-1093
Sa	-1094
agd	-1095
erm	-1096
law	-1097
ikit	-1098
uman	-1099
▁tuw	-1100
umang	-1101
▁pook	-1102
▁sing	-1103
▁mapag	-1104
▁salita	-1105
▁maganda	-1106
▁malakas	-1107
no	-1108
eon	-1109
isi	-1110
lan	-1111
hati	-1112
ilya	-1113
ubuk	-1114
ukot	-1115
▁him	-1116
▁san	-1117
agong	-1118
akyat	-1119
agalog	-1120
amatay	-1121
▁galit	-1122
▁magag	-1123
▁mundo	-1124
▁patay	-1125
▁biglang	-1126
▁masamang	-1127
▁[	-1128
▁Jos	-1129
▁Kah	-1130
▁Men	-1131
▁Ped	-1132
▁bit	-1133
▁sad	-1134
ayaan	-1135
intay	-1136
▁alam	-1137
▁apoy	-1138
▁buto	-1139
▁magm	-1140
arawan	-1141
▁inang	-1142
▁alamat	-1143
▁bahagi	-1144
▁dating	-1145
▁Binukot	-1146
▁Namongan	-1147
▁panahong	-1148
▁It	-1149
anan	-1150
anta	-1151
utin	-1152
ugali	-1153
▁lalo	-1154
▁tila	-1155
▁labis	-1156
▁kagand	-1157
▁tulang	-1158
▁tulong	-1159
▁matsing	-1160
▁kaluluwa	-1161
▁nangyari	-1162
▁kapangyari	-1163
emb	-1164
res	-1165
▁Un	-1166
emon	-1167
ikat	-1168
tang	-1169
▁baka	-1170
▁iyan	-1171
ahimik	-1172
akasal	-1173
▁Kapag	-1174
▁laban	-1175
▁manok	-1176
amdamin	-1177
▁taglay	-1178
amagitan	-1179
▁Tagalog	-1180
▁katulad	-1181
▁munting	-1182
▁tahanan	-1183
▁pagdating	-1184
ba	-1185
hh	-1186
iz	-1187
ibo	-1188
iit	-1189
iti	-1190
uyo	-1191
▁Am	-1192
utom	-1193
uyan	-1194
▁pul	-1195
iting	-1196
▁ipag	-1197
▁muna	-1198
▁naka	-1199
alapit	-1200
▁Lahat	-1201
▁Noong	-1202
▁nasas	-1203
▁pusong	-1204
▁mamatay	-1205
▁matanda	-1206
ra	-1207
▁V	-1208
amot	-1209
ibat	-1210
inis	-1211
usto	-1212
utok	-1213
▁Dum	-1214
▁pay	-1215
▁rey	-1216
▁tal	-1217
▁Bant	-1218
▁Jose	-1219
▁Nagk	-1220
▁anyo	-1221
▁bang	-1222
▁inil	-1223
intong	-1224
▁ginto	-1225
▁nayon	-1226
▁pakik	-1227
▁sinas	-1228
▁Samant	-1229
▁ligaya	-1230
▁tanging	-1231
▁maaaring	-1232
▁pamamagitan	-1233
op	-1234
dan	-1235
ora	-1236
▁Ig	-1237
abuk	-1238
agin	-1239
amak	-1240
bong	-1241
ilid	-1242
iyam	-1243
tila	-1244
uang	-1245
uhin	-1246
upit	-1247
▁Kan	-1248
▁paa	-1249
ataas	-1250
urang	-1251
▁Pang	-1252
▁ibin	-1253
▁samp	-1254
▁ganda	-1255
▁hukbo	-1256
▁nanin	-1257
▁pagong	-1258
▁yaring	-1259
▁babaing	-1260
▁mabuting	-1261
hi	-1262
aliw	-1263
anak	-1264
atid	-1265
igid	-1266
▁Hum	-1267
▁Nat	-1268
▁lin	-1269
andog	-1270
igyan	-1271
uring	-1272
▁Ayon	-1273
▁dugo	-1274
▁katut	-1275
▁makak	-1276
▁ngayo	-1277
▁Nakita	-1278
ilangang	-1279
▁kawayan	-1280
yu	-1281
ays	-1282
ian	-1283
ida	-1284
lap	-1285
ngk	-1286
pas	-1287
▁Kr	-1288
arir	-1289
▁Din	-1290
▁Kap	-1291
▁but	-1292
▁tak	-1293
▁uma	-1294
Hindi	-1295
alala	-1296
imula	-1297
nayan	-1298
▁Agyu	-1299
▁dala	-1300
▁pati	-1301
uwaang	-1302
▁Bakit	-1303
▁sagot	-1304
▁bayang	-1305
▁marami	-1306
▁pagmamahal	-1307
▁kapangyarihan	-1308
ek	-1309
log	-1310
uko	-1311
▁Ma	-1312
agad	-1313
izal	-1314
lado	-1315
ubos	-1316
ugat	-1317
ulin	-1318
▁Isa	-1319
▁ent	-1320
unita	-1321
▁kamp	-1322
ablado	-1323
iyahan	-1324
ugtong	-1325
▁Rizal	-1326
▁bansa	-1327
▁halos	-1328
▁kaysa	-1329
▁makat	-1330
alangin	-1331
▁kaaway	-1332
▁Hanggang	-1333
▁pangalan	-1334
▁entablado	-1335
ego	-1336
▁Um	-1337
▁es	-1338
agaw	-1339
dang	-1340
ipon	-1341
unin	-1342
▁Nal	-1343
▁kak	-1344
alimb	-1345
unlad	-1346
▁Ines	-1347
▁Mula	-1348
▁dusa	-1349
▁Bayan	-1350
▁Kahit	-1351
▁bibig	-1352
▁gayon	-1353
▁hanap	-1354
▁iyang	-1355
▁palay	-1356
▁sibat	-1357
▁batang	-1358
▁tanong	-1359
▁Tuwaang	-1360
▁magiging	-1361
▁-	-1362
aho	-1363
erp	-1364
lat	-1365
ugt	-1366
▁Is	-1367
▁ih	-1368
anao	-1369
iyan	-1370
▁Bis	-1371
▁Lab	-1372
▁Tul	-1373
abasa	-1374
▁Araw	-1375
▁Sila	-1376
▁inih	-1377
▁kasi	-1378
▁lagi	-1379
alaala	-1380
▁Pedro	-1381
▁kasal	-1382
amdaman	-1383
▁namatay	-1384
▁kuwentong	-1385
agh	-1386
era	-1387
loh	-1388
obo	-1389
▁Ak	-1390
▁as	-1391
Kung	-1392
abal	-1393
angh	-1394
apay	-1395
igma	-1396
ilit	-1397
roon	-1398
▁Sal	-1399
awing	-1400
▁Doon	-1401
▁Ibig	-1402
▁Moro	-1403
▁Saka	-1404
▁magh	-1405
ahayag	-1406
ungang	-1407
▁dahon	-1408
▁harap	-1409
▁nakik	-1410
▁natut	-1411
▁malayo	-1412
▁nagsas	-1413
▁pinagm	-1414
▁Kastila	-1415
▁gintong	-1416
▁paligid	-1417
▁prinsipe	-1418
▁singsing	-1419
uo	-1420
tik	-1421
▁Lu	-1422
ahal	-1423
alon	-1424
arin	-1425
ista	-1426
uwal	-1427
wang	-1428
▁Ano	-1429
aging	-1430
angal	-1431
▁pana	-1432
abayan	-1433
anggam	-1434
atuloy	-1435
itoloh	-1436
▁Upang	-1437
▁amang	-1438
▁dilag	-1439
▁talim	-1440
aysayan	-1441
▁lumaki	-1442
▁minsan	-1443
▁nagsis	-1444
▁pagpap	-1445
▁piling	-1446
▁subalit	-1447
▁damdamin	-1448
▁nagiging	-1449
NG	-1450
mp	-1451
▁Ha	-1452
ibay	-1453
irog	-1454
itik	-1455
ling	-1456
mang	-1457
ulit	-1458
uwan	-1459
▁Ina	-1460
▁raw	-1461
▁tut	-1462
aloob	-1463
▁daan	-1464
▁ilaw	-1465
▁nama	-1466
▁pulo	-1467
▁rito	-1468
alabas	-1469
▁pangk	-1470
▁Bisaya	-1471
▁Minsan	-1472
▁diwata	-1473
▁malaki	-1474
▁pakpak	-1475
▁paraan	-1476
▁bangkay	-1477
▁malaman	-1478
▁sadyang	-1479
▁tandang	-1480
▁Bantugan	-1481
▁tinatawag	-1482
de	-1483
akb	-1484
ona	-1485
umb	-1486
▁Dr	-1487
ayak	-1488
ener	-1489
iyas	-1490
unog	-1491
upan	-1492
▁Gin	-1493
▁Nab	-1494
▁Nar	-1495
▁Rey	-1496
▁buh	-1497
▁kad	-1498
▁nad	-1499
▁Mind	-1500
▁Nags	-1501
▁alim	-1502
▁apat	-1503
▁tabi	-1504
emonyo	-1505
ilipad	-1506
▁bunso	-1507
▁lubos	-1508
▁mahiw	-1509
▁ngang	-1510
▁pamum	-1511
▁pilak	-1512
▁sinta	-1513
▁tawag	-1514
ahangad	-1515
▁Alamat	-1516
▁ilalim	-1517
▁lupain	-1518
▁puting	-1519
▁mabuhay	-1520
▁pampang	-1521
▁tagapag	-1522
▁pangarap	-1523
▁Samantala	-1524
▁kagandahan	-1525
AT	-1526
▁3	-1527
agb	-1528
dal	-1529
ilo	-1530
pit	-1531
▁de	-1532
ayag	-1533
ilog	-1534
orot	-1535
ukol	-1536
▁kul	-1537
▁tuk	-1538
abait	-1539
adala	-1540
aking	-1541
asama	-1542
asang	-1543
onood	-1544
umpay	-1545
▁Ilog	-1546
▁Pagd	-1547
▁gaya	-1548
▁manl	-1549
abigat	-1550
alakad	-1551
isipan	-1552
ngkant	-1553
ubuhay	-1554
▁balat	-1555
▁bukid	-1556
▁nakal	-1557
▁panin	-1558
▁umaga	-1559
abayang	-1560
▁bayani	-1561
▁mataas	-1562
▁epikong	-1563
▁kasalan	-1564
▁lubhang	-1565
▁Tulalang	-1566
▁pagkakata	-1567
ado	-1568
ena	-1569
oto	-1570
pir	-1571
ros	-1572
way	-1573
▁Ap	-1574
anti	-1575
▁Bid	-1576
aalam	-1577
igaya	-1578
uparo	-1579
usong	-1580
▁Dito	-1581
▁Pagb	-1582
▁Pagk	-1583
▁Solo	-1584
▁inyo	-1585
▁laki	-1586
▁sama	-1587
aharap	-1588
ulugan	-1589
▁giliw	-1590
▁hawak	-1591
▁laman	-1592
▁namin	-1593
▁tangh	-1594
▁tumut	-1595
▁yaman	-1596
saknong	-1597
▁Habang	-1598
▁limang	-1599
▁naming	-1600
▁nating	-1601
▁Subalit	-1602
▁dahilan	-1603
▁engkant	-1604
▁higante	-1605
▁mahirap	-1606
▁Prinsipe	-1607
▁masayang	-1608
apo	-1609
ino	-1610
▁am	-1611
ahah	-1612
ardo	-1613
asok	-1614
atak	-1615
ayos	-1616
erno	-1617
ilaw	-1618
ingn	-1619
inta	-1620
▁Bal	-1621
▁Gan	-1622
▁Ind	-1623
▁Kab	-1624
▁Pal	-1625
▁Sel	-1626
▁Sul	-1627
▁Tag	-1628
▁eks	-1629
▁imp	-1630
▁mus	-1631
▁pup	-1632
▁sis	-1633
alino	-1634
ihing	-1635
laban	-1636
uyang	-1637
abihin	-1638
alagay	-1639
amayan	-1640
▁nakas	-1641
▁sukat	-1642
▁umuwi	-1643
ihintay	-1644
▁bituin	-1645
▁maliit	-1646
abukasan	-1647
▁Cabigat	-1648
▁tinawag	-1649
▁dalagang	-1650
▁manonood	-1651
▁salitang	-1652
▁kailangan	-1653
▁mahiwagang	-1654
ep	-1655
pis	-1656
ubi	-1657
uot	-1658
▁Bi	-1659
adal	-1660
amba	-1661
amig	-1662
enas	-1663
isin	-1664
iwat	-1665
ubog	-1666
▁Ama	-1667
▁Kam	-1668
▁Nap	-1669
▁Nen	-1670
▁bay	-1671
▁yum	-1672
andro	-1673
igpit	-1674
inang	-1675
ingat	-1676
kahoy	-1677
roong	-1678
uwang	-1679
▁Fler	-1680
▁Puti	-1681
▁ayaw	-1682
▁lahi	-1683
▁sund	-1684
alakay	-1685
inggan	-1686
ingnan	-1687
▁batis	-1688
▁buhok	-1689
▁gawin	-1690
▁habag	-1691
▁magka	-1692
▁sanga	-1693
embaran	-1694
▁Malana	-1695
▁Naging	-1696
▁dunong	-1697
▁gabing	-1698
▁gumawa	-1699
▁kusang	-1700
▁pawang	-1701
▁umalis	-1702
▁Langgam	-1703
▁bumalik	-1704
▁gagawin	-1705
▁mabilis	-1706
▁matamis	-1707
▁Pagdating	-1708
ci	-1709
ho	-1710
▁u	-1711
ada	-1712
din	-1713
ris	-1714
wel	-1715
abit	-1716
igaw	-1717
ilip	-1718
iyag	-1719
ukan	-1720
usog	-1721
utol	-1722
▁Ros	-1723
▁biy	-1724
▁lar	-1725
▁maw	-1726
▁nai	-1727
▁una	-1728
angis	-1729
ansin	-1730
asari	-1731
orong	-1732
ugang	-1733
▁Bern	-1734
▁Isin	-1735
▁Nagb	-1736
▁Nagm	-1737
▁Para	-1738
▁lawa	-1739
agamit	-1740
apatay	-1741
iwalay	-1742
utusan	-1743
▁Balag	-1744
▁Manok	-1745
▁abang	-1746
▁gutom	-1747
▁kapal	-1748
▁lihim	-1749
ilalang	-1750
▁Labtik	-1751
▁batong	-1752
▁buwaya	-1753
▁diyosa	-1754
▁galing	-1755
▁kaloob	-1756
▁kasint	-1757
▁niyong	-1758
▁paglal	-1759
▁kayaman	-1760
▁nangang	-1761
▁pinakam	-1762
▁tahimik	-1763
▁Bembaran	-1764
▁Bernardo	-1765
▁Bidasari	-1766
▁makikita	-1767
▁minamahal	-1768
▁pangyayari	-1769
▁pinagmulan	-1770
▁paglalakbay	-1771
▁magkakapatid	-1772
hik	-1773
igm	-1774
lit	-1775
ran	-1776
ukl	-1777
▁Oh	-1778
agas	-1779
asin	-1780
igit	-1781
ilik	-1782
iyon	-1783
ugon	-1784
uhod	-1785
ukal	-1786
▁bab	-1787
▁bas	-1788
▁ham	-1789
akita	-1790
anggi	-1791
ihang	-1792
oroon	-1793
tasan	-1794
▁Leon	-1795
▁aral	-1796
▁bait	-1797
▁bunt	-1798
▁land	-1799
▁maka	-1800
▁pamb	-1801
▁utos	-1802
aginip	-1803
atlong	-1804
irapan	-1805
▁Sulay	-1806
▁damit	-1807
▁paano	-1808
▁sigaw	-1809
▁takot	-1810
alitaan	-1811
iligtas	-1812
▁Atenas	-1813
▁Igorot	-1814
▁katang	-1815
▁palaka	-1816
▁lumabas	-1817
▁narinig	-1818
itolohiya	-1819
▁Sulayman	-1820
▁alimango	-1821
AK	-1822
co	-1823
ATA	-1824
ahe	-1825
dir	-1826
anim	-1827
ingk	-1828
upad	-1829
▁Ban	-1830
▁Bul	-1831
▁Del	-1832
▁Sap	-1833
▁Sar	-1834
▁ger	-1835
▁per	-1836
▁put	-1837
abago	-1838
alian	-1839
▁Itin	-1840
▁Magb	-1841
▁anim	-1842
▁baya	-1843
▁lamb	-1844
▁ulan	-1845
anggit	-1846
intang	-1847
usahan	-1848
usapan	-1849
▁Ilang	-1850
▁Itong	-1851
▁buhat	-1852
▁kalag	-1853
▁katap	-1854
▁matut	-1855
▁Madali	-1856
▁Ngayon	-1857
▁balang	-1858
▁pabula	-1859
▁pagkab	-1860
alimbawa	-1861
▁Flerida	-1862
▁lumakad	-1863
▁makapag	-1864
▁mayroon	-1865
▁ngayong	-1866
▁sabihin	-1867
▁dakilang	-1868
▁kabilang	-1869
▁madaling	-1870
▁kailangang	-1871
▁karaniwang	-1872
▁naninirahan	-1873
At	-1874
Ip	-1875
ola	-1876
sik	-1877
uag	-1878
▁Ab	-1879
▁Ni	-1880
▁ab	-1881
adya	-1882
alad	-1883
alok	-1884
amad	-1885
amas	-1886
apis	-1887
ihis	-1888
isag	-1889
song	-1890
umpa	-1891
usay	-1892
▁Aga	-1893
▁Kon	-1894
▁Pab	-1895
▁bur	-1896
▁piy	-1897
▁tig	-1898
akila	-1899
indig	-1900
isyon	-1901
pisod	-1902
▁Krot	-1903
▁TATA	-1904
▁init	-1905
▁isda	-1906
▁simb	-1907
igmaan	-1908
▁Biuag	-1909
▁Diego	-1910
▁Selya	-1911
▁anong	-1912
▁bango	-1913
▁kawal	-1914
▁likod	-1915
▁linya	-1916
▁nakab	-1917
▁namum	-1918
▁napag	-1919
▁tiyak	-1920
alingan	-1921
▁Maging	-1922
▁Neneng	-1923
▁Sultan	-1924
▁episod	-1925
▁ganito	-1926
▁hangad	-1927
▁mabait	-1928
▁pitong	-1929
▁tuwing	-1930
▁bakuran	-1931
▁sandali	-1932
apangyari	-1933
▁Dalawang	-1934
▁Menandro	-1935
▁Paruparo	-1936
▁kalooban	-1937
▁marunong	-1938
▁nagtagal	-1939
▁nakikita	-1940
▁tulungan	-1941
▁kababayan	-1942
▁kasaysayan	-1943
),	-1944
).	-1945
ao	-1946
pa	-1947
tr	-1948
ONG	-1949
end	-1950
kan	-1951
les	-1952
lig	-1953
uel	-1954
▁Ed	-1955
▁Es	-1956
akop	-1957
amay	-1958
ento	-1959
hasa	-1960
itim	-1961
pres	-1962
uwid	-1963
▁Pan	-1964
▁daw	-1965
▁har	-1966
▁ika	-1967
▁tit	-1968
angit	-1969
ataan	-1970
atnan	-1971
unawa	-1972
ungin	-1973
▁Dama	-1974
▁Miya	-1975
▁Nagt	-1976
▁band	-1977
▁kina	-1978
▁pant	-1979
▁pint	-1980
▁ulap	-1981
akupan	-1982
andaan	-1983
atawag	-1984
eneral	-1985
inding	-1986
▁Aling	-1987
▁Buhay	-1988
▁karun	-1989
▁kilos	-1990
▁pagod	-1991
▁reyna	-1992
▁silid	-1993
▁sumas	-1994
▁tangk	-1995
atauhan	-1996
▁Parang	-1997
▁dakila	-1998
▁gunita	-1999
▁kumain	-2000
▁nagpap	-2001
▁Kalabaw	-2002
▁anumang	-2003
▁kagubat	-2004
▁kalaban	-2005
▁pagkaka	-2006
▁Prinsesa	-2007
▁binigyan	-2008
▁halamang	-2009
▁mahigpit	-2010
▁Pagbigkas	-2011
ia	-2012
inh	-2013
iri	-2014
uon	-2015
uso	-2016
▁ar	-2017
agay	-2018
amok	-2019
anib	-2020
atap	-2021
ibik	-2022
iisa	-2023
otoo	-2024
▁Bum	-2025
▁Kum	-2026
▁bub	-2027
▁dag	-2028
▁mut	-2029
▁usa	-2030
aksil	-2031
among	-2032
ampas	-2033
ikain	-2034
itaas	-2035
ugong	-2036
ugtog	-2037
▁Agad	-2038
▁alin	-2039
▁ayon	-2040
▁irog	-2041
▁kand	-2042
aganda	-2043
amangk	-2044
apatan	-2045
ighati	-2046
iligaw	-2047
iyerno	-2048
uhayan	-2049
▁bisig	-2050
▁itlog	-2051
▁mapap	-2052
▁panig	-2053
▁panit	-2054
▁sasak	-2055
alagaan	-2056
ingning	-2057
▁Bundok	-2058
▁Langit	-2059
▁Persya	-2060
▁dangal	-2061
▁gawain	-2062
▁ibabaw	-2063
▁ipinag	-2064
▁landas	-2065
▁lupang	-2066
▁nawala	-2067
▁ninuno	-2068
▁salapi	-2069
▁tayong	-2070
akasalan	-2071
▁bilangg	-2072
▁suliran	-2073
▁episodyo	-2074
▁ginagawa	-2075
▁kagubatan	-2076
▁kayamanan	-2077
▁nagbibigay	-2078
▁magagandang	-2079
▁pagkakataon	-2080
MP	-2081
ec	-2082
lks	-2083
tap	-2084
tod	-2085
yal	-2086
▁II	-2087
▁id	-2088
▁pr	-2089
....	-2090
akap	-2091
akaw	-2092
anto	-2093
awid	-2094
ayun	-2095
ermo	-2096
rito	-2097
udad	-2098
ugot	-2099
uyog	-2100
▁Bag	-2101
▁Buk	-2102
▁Dul	-2103
▁Min	-2104
▁day	-2105
▁pah	-2106
aaral	-2107
ahati	-2108
akbay	-2109
alawa	-2110
atili	-2111
ayway	-2112
bayan	-2113
ining	-2114
islap	-2115
utian	-2116
▁Bago	-2117
▁Sari	-2118
▁asal	-2119
▁atin	-2120
▁kaka	-2121
▁leon	-2122
▁roon	-2123
▁sala	-2124
otohan	-2125
▁Bugan	-2126
▁Gayon	-2127
▁Konde	-2128
▁balak	-2129
▁handa	-2130
▁kabut	-2131
▁lunti	-2132
▁mangg	-2133
▁nagng	-2134
▁nanan	-2135
▁natat	-2136
▁nawaw	-2137
▁sabay	-2138
▁sulat	-2139
▁tribo	-2140
agumpay	-2141
presyon	-2142
▁balita	-2143
▁dinala	-2144
▁magkas	-2145
▁makata	-2146
▁mandir	-2147
▁nagpas	-2148
▁pinagt	-2149
▁samant	-2150
diriwang	-2151
▁Leonora	-2152
▁Mabilis	-2153
▁Maganda	-2154
▁Salermo	-2155
▁marahil	-2156
▁patungo	-2157
▁pinangg	-2158
▁sapagka	-2159
▁Dumating	-2160
▁Maraming	-2161
▁mayroong	-2162
▁simbahan	-2163
▁hinahanap	-2164
▁malungkot	-2165
▁nagkaroon	-2166
▁suliranin	-2167
aa	-2168
ti	-2169
adh	-2170
ens	-2171
lim	-2172
mas	-2173
zon	-2174
▁Gr	-2175
abog	-2176
akat	-2177
iman	-2178
imit	-2179
unos	-2180
▁And	-2181
▁Imp	-2182
▁Pum	-2183
▁Tab	-2184
▁apo	-2185
▁erm	-2186
▁kon	-2187
▁kub	-2188
▁noo	-2189
▁tab	-2190
▁umi	-2191
▁was	-2192
aptap	-2193
ibing	-2194
sakit	-2195
▁Nagl	-2196
▁Nasa	-2197
▁Pina	-2198
▁aliw	-2199
▁dako	-2200
▁pand	-2201
▁tupa	-2202
ahinga	-2203
alamin	-2204
ibhasa	-2205
ihingi	-2206
imbing	-2207
itanyo	-2208
orilya	-2209
▁Labaw	-2210
▁bigas	-2211
▁binub	-2212
▁dalam	-2213
▁galak	-2214
▁labas	-2215
▁makas	-2216
▁siyam	-2217
asawang	-2218
ibigang	-2219
tanggol	-2220
unahing	-2221
untahan	-2222
▁Manobo	-2223
▁ganoon	-2224
▁huling	-2225
▁kaagad	-2226
▁kabayo	-2227
▁lumbay	-2228
▁masaya	-2229
▁nagbab	-2230
▁pinuno	-2231
▁pulubi	-2232
▁sultan	-2233
▁Kanyang	-2234
▁Makisig	-2235
▁digmaan	-2236
▁kasaluk	-2237
▁lungkot	-2238
▁madilim	-2239
▁madlang	-2240
▁malalim	-2241
▁masipag	-2242
▁matapos	-2243
▁pangung	-2244
▁bayaning	-2245
▁binatang	-2246
▁maligaya	-2247
▁nilalang	-2248
▁lumilipad	-2249
▁mamamayan	-2250
▁nararapat	-2251
▁pagbigkas	-2252
▁sandaling	-2253
▁pagkatapos	-2254
▁punongkahoy	-2255
▁samantalang	-2256
IA	-2257
ac	-2258
ANG	-2259
Ito	-2260
cis	-2261
iro	-2262
kin	-2263
uke	-2264
▁Cr	-2265
▁Da	-2266
▁Pa	-2267
▁ed	-2268
▁gr	-2269
ahad	-2270
enor	-2271
iban	-2272
ibon	-2273
inaw	-2274
iong	-2275
ipan	-2276
iram	-2277
ugol	-2278
ungg	-2279
utas	-2280
▁hah	-2281
▁kuk	-2282
▁lul	-2283
▁mai	-2284
▁nir	-2285
▁sup	-2286
▁tor	-2287
Bakit	-2288
ababa	-2289
agsik	-2290
ahala	-2291
akwel	-2292
alayo	-2293
andaw	-2294
asong	-2295
bahay	-2296
erong	-2297
ingal	-2298
ingap	-2299
intas	-2300
▁Duke	-2301
▁Noon	-2302
▁Samp	-2303
▁baga	-2304
▁damo	-2305
▁dulo	-2306
▁guro	-2307
ahanda	-2308
amalas	-2309
tanong	-2310
unayan	-2311
usunod	-2312
▁Anong	-2313
▁Pagka	-2314
▁bagyo	-2315
▁bukas	-2316
▁ganap	-2317
▁gumag	-2318
▁inaas	-2319
▁kaawa	-2320
▁mapan	-2321
▁napap	-2322
▁sumis	-2323
▁tinut	-2324
▁wakas	-2325
apansin	-2326
▁Pagong	-2327
▁alipin	-2328
▁gawing	-2329
▁kayong	-2330
▁libing	-2331
▁luhang	-2332
▁masama	-2333
▁naglal	-2334
▁pinagk	-2335
▁saging	-2336
▁sakdal	-2337
▁tingin	-2338
▁Krotona	-2339
▁Tandang	-2340
▁gorilya	-2341
▁kaligay	-2342
▁lumipad	-2343
▁lumipas	-2344
▁lumisan	-2345
▁marinig	-2346
▁nilikha	-2347
▁sumunod	-2348
▁katutubo	-2349
▁talagang	-2350
▁ermitanyo	-2351
▁impiyerno	-2352
▁kapalaran	-2353
▁matinding	-2354
▁panaginip	-2355
▁ekspresyon	-2356
▁paniniwala	-2357
▁matatagpuan	-2358
▁nasasakupan	-2359
".	-2360
Ng	-2361
eb	-2362
po	-2363
AND	-2364
cif	-2365
iwi	-2366
lip	-2367
oko	-2368
tol	-2369
▁Ah	-2370
▁KA	-2371
▁ha	-2372
ARIA	-2373
Iput	-2374
alab	-2375
atas	-2376
ikal	-2377
init	-2378
into	-2379
▁Hal	-2380
▁IMP	-2381
▁Nas	-2382
▁aki	-2383
▁awa	-2384
▁hat	-2385
▁naa	-2386
▁por	-2387
agkan	-2388
aglay	-2389
ambal	-2390
atong	-2391
cifer	-2392
enang	-2393
iliit	-2394
ipags	-2395
undin	-2396
urong	-2397
▁Iput	-2398
▁nagw	-2399
▁puri	-2400
aklolo	-2401
alitan	-2402
anghal	-2403
apitan	-2404
ustong	-2405
▁Diwat	-2406
▁Gibon	-2407
▁Hapon	-2408
▁MARIA	-2409
▁banal	-2410
▁burol	-2411
▁dilim	-2412
▁gusto	-2413
▁hamog	-2414
▁layaw	-2415
▁makik	-2416
▁ugali	-2417
angalan	-2418
aramdam	-2419
arangay	-2420
▁IMPONG	-2421
▁Manuel	-2422
▁Morong	-2423
▁dalita	-2424
▁gayong	-2425
▁gulang	-2426
▁hardin	-2427
▁kailan	-2428
▁kinuha	-2429
▁lahing	-2430
▁laking	-2431
▁maling	-2432
▁nagkas	-2433
▁niring	-2434
▁pagkag	-2435
▁sanang	-2436
▁waring	-2437
alagahan	-2438
arapatra	-2439
aririnig	-2440
▁Demonyo	-2441
▁Inahing	-2442
▁Lucifer	-2443
▁hanapin	-2444
▁lumapit	-2445
▁matuwid	-2446
▁nahulog	-2447
▁nakapag	-2448
▁pamilya	-2449
▁pangkat	-2450
▁sampung	-2451
▁sintang	-2452
▁Sumakwel	-2453
▁mahabang	-2454
▁napansin	-2455
▁panganib	-2456
▁tungkulin	-2457
▁Diwatandaw	-2458
▁karunungan	-2459
▁katutubong	-2460
▁Indarapatra	-2461
▁pangunahing	-2462
▁makapangyari	-2463
Al	-2464
mo	-2465
ANA	-2466
kop	-2467
tok	-2468
wit	-2469
..."	-2470
alap	-2471
atut	-2472
awig	-2473
ayat	-2474
ayok	-2475
ilay	-2476
itaw	-2477
nang	-2478
ubay	-2479
ugad	-2480
▁Bas	-2481
▁Ber	-2482
▁Big	-2483
▁Gag	-2484
▁Lin	-2485
▁ins	-2486
▁lan	-2487
▁lun	-2488
agana	-2489
agsak	-2490
ahagi	-2491
alakh	-2492
hanap	-2493
idlat	-2494
iisip	-2495
istal	-2496
uluan	-2497
uturo	-2498
uyuan	-2499
▁Anak	-2500
▁Fran	-2501
▁Nagh	-2502
▁damb	-2503
▁igin	-2504
▁itim	-2505
▁kain	-2506
akbang	-2507
ernand	-2508
▁gamit	-2509
▁kabig	-2510
▁kalak	-2511
▁karik	-2512
▁likas	-2513
▁nalul	-2514
▁nangg	-2515
▁narir	-2516
▁pangh	-2517
▁tatlo	-2518
▁tuloy	-2519
alubong	-2520
amangha	-2521
▁Diwata	-2522
▁Ibalon	-2523
▁Lalong	-2524
▁Mabuti	-2525
▁biyaya	-2526
▁daliri	-2527
▁hirang	-2528
▁iisang	-2529
▁iniwan	-2530
▁kabund	-2531
▁magsas	-2532
▁magtat	-2533
▁mapang	-2534
▁pambih	-2535
▁piyesa	-2536
▁simula	-2537
▁wikang	-2538
Sabayang	-2539
otohanan	-2540
yayaring	-2541
▁Mahirap	-2542
▁Nagalit	-2543
▁Unnayan	-2544
▁babaeng	-2545
▁bathala	-2546
▁bugtong	-2547
▁kabayan	-2548
▁kalungk	-2549
▁nawalan	-2550
▁palakol	-2551
▁pumanaw	-2552
▁pumasok	-2553
▁sagisag	-2554
▁ganitong	-2555
▁malayong	-2556
▁matapang	-2557
▁nagngang	-2558
▁nagtungo	-2559
▁panauhin	-2560
▁kabuhayan	-2561
▁kahulugan	-2562
▁kaibigang	-2563
▁pamumuhay	-2564
▁tanghalan	-2565
▁kasintahan	-2566
▁Kinabukasan	-2567
An	-2568
NA	-2569
UP	-2570
go	-2571
ka	-2572
Ano	-2573
ato	-2574
eba	-2575
igu	-2576
ipo	-2577
lib	-2578
non	-2579
orn	-2580
uny	-2581
uta	-2582
▁Ba	-2583
▁br	-2584
▁pl	-2585
aano	-2586
agap	-2587
ikap	-2588
ubok	-2589
ugin	-2590
upot	-2591
uwek	-2592
▁Bub	-2593
▁Dal	-2594
▁Pak	-2595
▁aso	-2596
▁ros	-2597
agpis	-2598
ayapa	-2599
cisco	-2600
iligo	-2601
iusap	-2602
uyong	-2603
▁Mang	-2604
▁NANA	-2605
▁Nais	-2606
▁Pags	-2607
▁Pand	-2608
▁Pros	-2609
▁Sino	-2610
▁bung	-2611
▁kani	-2612
▁labi	-2613
▁wari	-2614
agatan	-2615
amaraw	-2616
amihan	-2617
aralan	-2618
awayan	-2619
ayaang	-2620
entong	-2621
erpina	-2622
iguyon	-2623
imbang	-2624
pikong	-2625
uhunan	-2626
▁Espan	-2627
▁akala	-2628
▁baboy	-2629
▁binab	-2630
▁gapos	-2631
▁halik	-2632
▁halim	-2633
▁itaas	-2634
▁kalis	-2635
▁kapar	-2636
▁kasab	-2637
▁lilim	-2638
▁makal	-2639
▁manan	-2640
▁sikat	-2641
hininga	-2642
ingatan	-2643
ugalian	-2644
ukasyon	-2645
utangan	-2646
▁Bagong	-2647
▁Marami	-2648
▁Muling	-2649
▁alaala	-2650
▁bulong	-2651
▁gawang	-2652
▁hiling	-2653
▁kabila	-2654
▁malaya	-2655
▁ngalan	-2656
▁tabing	-2657
▁tapang	-2658
aliwanag	-2659
amdaming	-2660
anggapin	-2661
asalamat	-2662
▁hininga	-2663
▁iniibig	-2664
▁nagmula	-2665
▁ninyong	-2666
▁pananim	-2667
▁patayin	-2668
▁pintuan	-2669
▁saknong	-2670
alawikain	-2671
amangkero	-2672
▁Aliguyon	-2673
▁Berbanya	-2674
▁Mindanao	-2675
▁Sumarang	-2676
▁barangay	-2677
▁dalampas	-2678
▁magbalik	-2679
▁maliliit	-2680
▁nagbigay	-2681
▁nakakita	-2682
▁sinumang	-2683
▁Francisco	-2684
▁kahirapan	-2685
▁magkaroon	-2686
▁mamamatay	-2687
▁nagsimula	-2688
▁panitikan	-2689
▁tinanggap	-2690
▁Proserpina	-2691
▁bilangguan	-2692
▁karamdaman	-2693
▁mandirigma	-2694
▁manliligaw	-2695
▁mitolohiya	-2696
▁nawawalang	-2697
▁kabayanihan	-2698
▁kaligayahan	-2699
he	-2700
Ako	-2701
May	-2702
agl	-2703
aha	-2704
ema	-2705
ily	-2706
wak	-2707
▁BU	-2708
▁ga	-2709
▁im	-2710
Nang	-2711
agit	-2712
alog	-2713
awad	-2714
ikas	-2715
ilak	-2716
iwas	-2717
loob	-2718
ukin	-2719
yayi	-2720
▁Ali	-2721
▁Lib	-2722
▁Mus	-2723
▁Pat	-2724
▁kor	-2725
▁neg	-2726
▁say	-2727
▁tur	-2728
aklap	-2729
alaan	-2730
anang	-2731
apong	-2732
buhay	-2733
igtas	-2734
inseo	-2735
iping	-2736
itiis	-2737
ngles	-2738
riseo	-2739
ulaan	-2740
urusa	-2741
yudad	-2742
▁Ikin	-2743
▁Saan	-2744
▁Tayo	-2745
▁agos	-2746
▁bint	-2747
▁dali	-2748
▁ilan	-2749
▁kaba	-2750
▁kult	-2751
▁sang	-2752
▁ugat	-2753
▁ulit	-2754
agamot	-2755
agapos	-2756
akaawa	-2757
antong	-2758
awakan	-2759
dahang	-2760
iganti	-2761
ilayan	-2762
insang	-2763
ukhang	-2764
▁Aking	-2765
▁Oyayi	-2766
▁Puwek	-2767
▁Reyna	-2768
▁Sarag	-2769
▁bakod	-2770
▁bigla	-2771
▁bukal	-2772
▁hamak	-2773
▁hapis	-2774
▁hinah	-2775
▁kinat	-2776
▁kumik	-2777
▁nangh	-2778
▁pamam	-2779
▁pilit	-2780
▁trono	-2781
▁tunog	-2782
▁utang	-2783
antayan	-2784
ayundin	-2785
ernando	-2786
ibigkas	-2787
uhalang	-2788
▁Briseo	-2789
▁Kinuha	-2790
▁Linseo	-2791
▁Tingal	-2792
▁bangka	-2793
▁dakong	-2794
▁haring	-2795
▁kasing	-2796
▁kayang	-2797
▁kuweba	-2798
▁mandin	-2799
▁musika	-2800
▁nagkak	-2801
▁paghih	-2802
▁payapa	-2803
▁perlas	-2804
alimutan	-2805
amahalan	-2806
apalaran	-2807
istulang	-2808
▁Malakas	-2809
▁Tamaraw	-2810
▁Tinawag	-2811
▁bungang	-2812
▁hanging	-2813
▁hinanap	-2814
▁kampana	-2815
▁lumitaw	-2816
▁mayaman	-2817
▁paggawa	-2818
alanutian	-2819
▁Fernando	-2820
▁Sapagkat	-2821
▁kalayaan	-2822
▁kuwintas	-2823
▁magaling	-2824
▁nakilala	-2825
▁narating	-2826
▁nawawala	-2827
▁pagiging	-2828
▁salaysay	-2829
▁sasakyan	-2830
▁ginagamit	-2831
▁halimbawa	-2832
▁kalagayan	-2833
▁karagatan	-2834
▁natagpuan	-2835
▁natutulog	-2836
▁sasabihin	-2837
▁malalaking	-2838
▁nakarating	-2839
▁kalungkutan	-2840
▁pambihirang	-2841
▁dalampasigan	-2842
AB	-2843
IW	-2844
OY	-2845
ic	-2846
li	-2847
si	-2848
te	-2849
ARO	-2850
agt	-2851
igo	-2852
itu	-2853
lak	-2854
udo	-2855
uka	-2856
uod	-2857
▁As	-2858
ahih	-2859
inam	-2860
irin	-2861
isay	-2862
ukoy	-2863
uksa	-2864
▁LAK	-2865
▁Nan	-2866
▁TOY	-2867
▁Tat	-2868
▁aba	-2869
▁bar	-2870
▁esp	-2871
▁hih	-2872
▁lim	-2873
▁sil	-2874
Huwag	-2875
aanak	-2876
aghoy	-2877
amaan	-2878
angon	-2879
gayak	-2880
ikudo	-2881
umbay	-2882
▁Daga	-2883
▁Iyan	-2884
▁Mags	-2885
▁Mens	-2886
▁Pamb	-2887
▁Rosa	-2888
▁Sant	-2889
▁Tang	-2890
▁dati	-2891
▁patn	-2892
▁pina	-2893
▁pong	-2894
▁yaon	-2895
ambing	-2896
angong	-2897
apasok	-2898
ayanan	-2899
ibutan	-2900
inigay	-2901
ugutan	-2902
▁Dagat	-2903
▁Mahal	-2904
▁Sinas	-2905
▁dilaw	-2906
▁halip	-2907
▁hiyas	-2908
▁kamag	-2909
▁kayum	-2910
▁nagug	-2911
▁patak	-2912
▁reyno	-2913
▁sinus	-2914
▁talud	-2915
▁tamis	-2916
▁tangi	-2917
▁totoo	-2918
▁tumat	-2919
ahating	-2920
arangaw	-2921
iwayway	-2922
▁Kaagad	-2923
▁Kaptan	-2924
▁Simang	-2925
▁TOYANG	-2926
▁buwang	-2927
▁kalang	-2928
▁kulang	-2929
▁magkab	-2930
▁makuha	-2931
▁pangit	-2932
▁pulong	-2933
ungkahoy	-2934
▁demonyo	-2935
▁gawaing	-2936
▁kalabaw	-2937
▁labanan	-2938
▁lipunan	-2939
▁madalas	-2940
▁manging	-2941
▁matagal	-2942
▁matibay	-2943
▁napatay	-2944
▁pamamah	-2945
▁sundalo	-2946
▁susunod	-2947
▁tawagin	-2948
▁Barangaw	-2949
▁Marikudo	-2950
▁Silangan	-2951
▁darating	-2952
▁gererong	-2953
▁kasamaan	-2954
▁kumakain	-2955
▁libingan	-2956
▁magagawa	-2957
▁pinagtat	-2958
▁tuluyang	-2959
▁kasalanan	-2960
▁nakatulog	-2961
▁pananalig	-2962
▁tumanggap	-2963
▁Balagtasan	-2964
▁Saragnayan	-2965
▁kabundukan	-2966
▁makarating	-2967
▁paghahanap	-2968
▁naghihintay	-2969
▁punungkahoy	-2970
▁pinanggalingan	-2971
00	-2972
LE	-2973
LO	-2974
OG	-2975
le	-2976
ri	-2977
IWA	-2978
Nak	-2979
UAN	-2980
aon	-2981
ini	-2982
tar	-2983
uns	-2984
wan	-2985
▁19	-2986
▁ca	-2987
ABLO	-2988
ARUP	-2989
LENA	-2990
Mlks	-2991
adap	-2992
agpo	-2993
ding	-2994
iang	-2995
igla	-2996
ihag	-2997
ikot	-2998
ilat	-2999
imog	-3000
itas	-3001
kong	-3002
ukso	-3003
undi	-3004
upok	-3005
usob	-3006
uyak	-3007
▁Ant	-3008
▁Pas	-3009
▁Tip	-3010
▁dar	-3011
▁las	-3012
▁pad	-3013
▁uod	-3014
aawit	-3015
adong	-3016
agdag	-3017
ahiya	-3018
amtan	-3019
andag	-3020
antog	-3021
arito	-3022
hikan	-3023
inoon	-3024
ipagk	-3025
iyego	-3026
ulila	-3027
undan	-3028
ungib	-3029
yagan	-3030
▁Band	-3031
▁Bato	-3032
▁JUAN	-3033
▁Niya	-3034
▁Taga	-3035
▁Tila	-3036
▁amin	-3037
▁caca	-3038
▁dila	-3039
▁iwan	-3040
▁kuba	-3041
▁laya	-3042
▁mala	-3043
▁panl	-3044
▁puti	-3045
▁sawa	-3046
▁unti	-3047
ANDIWA	-3048
agalit	-3049
awalan	-3050
isigaw	-3051
uluhan	-3052
▁Alban	-3053
▁Buhat	-3054
▁Buwan	-3055
▁ELENA	-3056
▁Galit	-3057
▁Karan	-3058
▁PABLO	-3059
▁PARUP	-3060
▁Panay	-3061
▁bulag	-3062
▁butil	-3063
▁dadal	-3064
▁daing	-3065
▁hangg	-3066
▁kapat	-3067
▁kapit	-3068
▁katuw	-3069
▁lamok	-3070
▁lingg	-3071
▁lumul	-3072
▁mahih	-3073
▁masis	-3074
▁paksa	-3075
▁pangg	-3076
▁pinap	-3077
▁pinto	-3078
▁rosas	-3079
▁sangk	-3080
▁sinis	-3081
▁tabak	-3082
▁tanda	-3083
agaling	-3084
ahandog	-3085
alagyan	-3086
alakhak	-3087
alinong	-3088
amalaki	-3089
oroonan	-3090
ulugang	-3091
▁Bilang	-3092
▁Muslim	-3093
▁bangis	-3094
▁halaga	-3095
▁handog	-3096
▁lusong	-3097
▁maitim	-3098
▁naroon	-3099
▁paglil	-3100
▁pinagb	-3101
▁pinagh	-3102
▁pulang	-3103
▁suklay	-3104
▁suyuan	-3105
▁tuktok	-3106
▁yungib	-3107
ahulugan	-3108
arusahan	-3109
▁Biglang	-3110
▁Bugtong	-3111
▁Griyego	-3112
▁Heneral	-3113
▁Humadap	-3114
▁Lumipas	-3115
▁Mensahe	-3116
▁bandila	-3117
▁bunsong	-3118
▁hahanap	-3119
▁himutok	-3120
▁humingi	-3121
▁kalalak	-3122
▁larawan	-3123
▁maagang	-3124
▁mahusay	-3125
▁malinaw	-3126
▁masarap	-3127
▁pagitan	-3128
▁patalim	-3129
▁pumunta	-3130
▁sandata	-3131
ipaglaban	-3132
▁Bulaklak	-3133
▁PARUPARO	-3134
▁kabataan	-3135
▁matalino	-3136
▁pananamp	-3137
▁tinanong	-3138
▁LAKANDIWA	-3139
▁katangian	-3140
▁katapusan	-3141
▁kaugalian	-3142
▁naririnig	-3143
▁magkapatid	-3144
▁mahalagang	-3145
▁nanggaling	-3146
▁pagsintang	-3147
▁dambuhalang	-3148
▁kasalukuyan	-3149
ipagsapalaran	-3150
!!	-3151
BU	-3152
ND	-3153
eh	-3154
ue	-3155
BUY	-3156
agu	-3157
est	-3158
fin	-3159
iis	-3160
iko	-3161
its	-3162
ote	-3163
tor	-3164
yas	-3165
▁--	-3166
▁Pl	-3167
▁ub	-3168
ahag	-3169
akbo	-3170
anin	-3171
ayog	-3172
bing	-3173
dali	-3174
igat	-3175
iyaw	-3176
king	-3177
ones	-3178
oses	-3179
ubig	-3180
unam	-3181
▁Ati	-3182
▁Gum	-3183
▁III	-3184
▁Ini	-3185
▁Kak	-3186
▁Kar	-3187
▁adh	-3188
▁ari	-3189
▁bus	-3190
▁dah	-3191
▁est	-3192
▁hil	-3193
▁pis	-3194
▁saw	-3195
▁umu	-3196
BUYOG	-3197
alagi	-3198
aliit	-3199
anaog	-3200
apaan	-3201
arili	-3202
ariwa	-3203
arusa	-3204
indak	-3205
omong	-3206
umula	-3207
unton	-3208
▁Inil	-3209
▁Kayo	-3210
▁Lagi	-3211
▁Lawa	-3212
▁Lena	-3213
▁Linc	-3214
▁Pati	-3215
▁alit	-3216
▁alon	-3217
▁bers	-3218
▁ginh	-3219
▁kaki	-3220
▁katw	-3221
▁kund	-3222
▁lilo	-3223
▁lipi	-3224
▁porm	-3225
▁ukol	-3226
abango	-3227
aklong	-3228
alanta	-3229
alikat	-3230
ikling	-3231
ilikha	-3232
inggit	-3233
undong	-3234
usumpa	-3235
▁Binig	-3236
▁Dapat	-3237
▁Dulaw	-3238
▁Kundi	-3239
▁Lawin	-3240
▁Pangk	-3241
▁Papay	-3242
▁Tabor	-3243
▁Unang	-3244
▁bakal	-3245
▁bakas	-3246
▁balon	-3247
▁busog	-3248
▁dahan	-3249
▁hapon	-3250
▁hatol	-3251
▁hilig	-3252
▁humah	-3253
▁kalik	-3254
▁kalin	-3255
▁kanin	-3256
▁kumak	-3257
▁kunin	-3258
▁mamas	-3259
▁matip	-3260
▁munti	-3261
▁nakad	-3262
▁nakap	-3263
▁namim	-3264
▁nasus	-3265
▁panib	-3266
▁sampu	-3267
▁sapat	-3268
▁sugat	-3269
▁sumpa	-3270
▁wagas	-3271
ahalaga	-3272
alitong	-3273
ibilang	-3274
uklasan	-3275
unawaan	-3276
▁Ayonan	-3277
▁Bayang	-3278
▁Delfin	-3279
▁Flores	-3280
▁Narito	-3281
▁anyong	-3282
▁bumaba	-3283
▁dalang	-3284
▁kainin	-3285
▁kilala	-3286
▁korona	-3287
▁magawa	-3288
▁naisip	-3289
▁nangak	-3290
▁pagbab	-3291
▁pinsan	-3292
▁sagana	-3293
▁talaga	-3294
▁tatuan	-3295
▁yamang	-3296
angkilik	-3297
▁BUBUYOG	-3298
▁Cristal	-3299
▁Filipin	-3300
▁Hinanap	-3301
▁binubuo	-3302
▁dalisay	-3303
▁dayuhan	-3304
▁kapalit	-3305
▁magmula	-3306
▁malamig	-3307
▁malinis	-3308
▁malupit	-3309
▁minsang	-3310
▁mutyang	-3311
▁patuloy	-3312
▁sumagot	-3313
▁tingnan	-3314
▁Balagtas	-3315
▁Kaibigan	-3316
▁kaisipan	-3317
▁kalabasa	-3318
▁kapuluan	-3319
▁kariktan	-3320
▁kaunting	-3321
▁kilalang	-3322
▁larangan	-3323
▁magdamag	-3324
▁marating	-3325
▁pagkakas	-3326
▁paningin	-3327
▁Albanyang	-3328
▁Tipaklong	-3329
▁kabutihan	-3330
▁karapatan	-3331
▁kasiyahan	-3332
▁nabubuhay	-3333
▁nasiyahan	-3334
▁pinakamag	-3335
▁pormasyon	-3336
▁Calanutian	-3337
▁mangyayari	-3338
▁naghahanap	-3339
▁Nagmalitong	-3340
▁kinabukasan	-3341
-2	-3342
AM	-3343
Ka	-3344
Oo	-3345
bi	-3346
pu	-3347
se	-3348
sm	-3349
ss	-3350
Mab	-3351
Mag	-3352
Mga	-3353
NDO	-3354
aas	-3355
amt	-3356
asm	-3357
bag	-3358
goy	-3359
kis	-3360
lag	-3361
lam	-3362
pot	-3363
sel	-3364
tad	-3365
ugn	-3366
yag	-3367
▁Bo	-3368
▁If	-3369
▁kw	-3370
▁us	-3371
Dito	-3372
abik	-3373
adab	-3374
akip	-3375
ampa	-3376
anag	-3377
asag	-3378
asta	-3379
elih	-3380
ente	-3381
esto	-3382
haga	-3383
isda	-3384
ismo	-3385
itil	-3386
kita	-3387
piko	-3388
taas	-3389
tuwa	-3390
ugao	-3391
ugis	-3392
uhos	-3393
ulak	-3394
urin	-3395
usin	-3396
▁Ahh	-3397
▁Bit	-3398
▁Bon	-3399
▁Dem	-3400
▁Gat	-3401
▁Int	-3402
▁Kag	-3403
▁Kul	-3404
▁Lim	-3405
▁Lus	-3406
▁Osm	-3407
▁lay	-3408
▁mau	-3409
▁nau	-3410
▁sik	-3411
▁tib	-3412
aalay	-3413
aanan	-3414
abaho	-3415
abong	-3416
aklaw	-3417
alaka	-3418
alung	-3419
amali	-3420
ampot	-3421
anais	-3422
dagat	-3423
dahan	-3424
ihasa	-3425
ikong	-3426
kapal	-3427
palad	-3428
uluto	-3429
unuan	-3430
uwing	-3431
▁Dala	-3432
▁Hari	-3433
▁INDO	-3434
▁Magk	-3435
▁Magm	-3436
▁Muli	-3437
▁Sand	-3438
▁Tiwi	-3439
▁Yawa	-3440
▁himp	-3441
▁idin	-3442
▁lung	-3443
▁mapa	-3444
▁napa	-3445
▁saya	-3446
▁suso	-3447
▁trad	-3448
▁yata	-3449
ahamak	-3450
ahatid	-3451
alaban	-3452
angaso	-3453
atanda	-3454
ayahan	-3455
ibigin	-3456
iyakap	-3457
tasyon	-3458
ugatan	-3459
upunta	-3460
▁Bawat	-3461
▁Delos	-3462
▁Lakan	-3463
▁Minda	-3464
▁Ngayo	-3465
▁Sipag	-3466
▁Tagak	-3467
▁Tiyak	-3468
▁Tulad	-3469
▁anaki	-3470
▁balah	-3471
▁bilin	-3472
▁bilog	-3473
▁boses	-3474
▁butas	-3475
▁digma	-3476
▁diyam	-3477
▁duwag	-3478
▁grupo	-3479
▁ilong	-3480
▁kaban	-3481
▁kanan	-3482
▁kinar	-3483
▁lamig	-3484
▁lunas	-3485
▁madla	-3486
▁mahin	-3487
▁makab	-3488
▁nasis	-3489
▁pakay	-3490
▁pista	-3491
▁pugad	-3492
▁putik	-3493
▁sanda	-3494
▁sanhi	-3495
▁sinag	-3496
▁tagap	-3497
▁talas	-3498
▁tamad	-3499
▁tigil	-3500
▁titig	-3501
▁tugon	-3502
▁tulog	-3503
akasama	-3504
akilala	-3505
alataya	-3506
alayong	-3507
atayang	-3508
iibigan	-3509
ilitang	-3510
intawak	-3511
intuang	-3512
ubuksan	-3513
ulaklak	-3514
unahang	-3515
ustuhan	-3516
▁Ifugao	-3517
▁Persiy	-3518
▁Pusong	-3519
▁Simula	-3520
▁angkin	-3521
▁angkop	-3522
▁buntot	-3523
▁dalhin	-3524
▁ganyan	-3525
▁inagaw	-3526
▁inilag	-3527
▁isdang	-3528
▁kapuwa	-3529
▁maaari	-3530
▁naglil	-3531
▁naiiba	-3532
▁naiwan	-3533
▁nganga	-3534
▁pagtit	-3535
▁pagtut	-3536
▁pinagd	-3537
▁pinagp	-3538
▁puntod	-3539
▁saglit	-3540
▁tangan	-3541
▁tumubo	-3542
▁usapan	-3543
agkaloob	-3544
ahahahah	-3545
andangan	-3546
▁Laurang	-3547
▁Matapos	-3548
▁Nalaman	-3549
▁Sumunod	-3550
▁Tanging	-3551
▁bansang	-3552
▁bubuyog	-3553
▁ipinang	-3554
▁kabiyak	-3555
▁kumilos	-3556
▁maunlad	-3557
▁nabuhay	-3558
▁namuhay	-3559
▁natapos	-3560
▁pagsuyo	-3561
▁pangako	-3562
▁pinatay	-3563
▁pupunta	-3564
▁sumapit	-3565
▁tangkay	-3566
▁tinapay	-3567
▁umakyat	-3568
▁Binigyan	-3569
▁balitang	-3570
▁gagawing	-3571
▁makatang	-3572
▁mangyari	-3573
▁mayamang	-3574
▁nagbalik	-3575
▁nakatayo	-3576
▁nakatira	-3577
▁naroroon	-3578
▁pamumuno	-3579
▁panganay	-3580
▁Pagkaraan	-3581
▁alitaptap	-3582
▁diyamante	-3583
▁matatanda	-3584
▁pinagkaka	-3585
▁tanggapin	-3586
▁Gagalangin	-3587
▁Humadapnon	-3588
▁hinahangad	-3589
▁kalangitan	-3590
▁kapitbahay	-3591
▁karangalan	-3592
▁katangiang	-3593
▁kayumanggi	-3594
▁nagsisipag	-3595
▁nangyayari	-3596
▁Nalandangan	-3597
▁kalalakihan	-3598
▁katotohanan	-3599
▁manggagamot	-3600
▁pagdiriwang	-3601
▁paghahangad	-3602
▁pagkakaroon	-3603
-1	-3604
oc	-3605
abe	-3606
are	-3607
dim	-3608
eks	-3609
eta	-3610
hap	-3611
haw	-3612
hol	-3613
hoy	-3614
iin	-3615
kad	-3616
kep	-3617
udy	-3618
unl	-3619
yak	-3620
▁El	-3621
▁Ul	-3622
▁la	-3623
Magp	-3624
aari	-3625
abae	-3626
abol	-3627
akda	-3628
ampo	-3629
asik	-3630
awis	-3631
awng	-3632
edur	-3633
esus	-3634
eter	-3635
gabi	-3636
igas	-3637
ikom	-3638
ilap	-3639
ilas	-3640
nila	-3641
olin	-3642
rang	-3643
sama	-3644
seng	-3645
ubad	-3646
ugod	-3647
uhit	-3648
unay	-3649
unot	-3650
usta	-3651
▁Amb	-3652
▁Edo	-3653
▁Hil	-3654
▁Map	-3655
▁Nil	-3656
▁Pad	-3657
▁Sig	-3658
▁Tur	-3659
▁Una	-3660
▁anu	-3661
▁inu	-3662
▁kur	-3663
▁win	-3664
abula	-3665
adlaw	-3666
akala	-3667
akang	-3668
alake	-3669
ambit	-3670
angat	-3671
apati	-3672
arong	-3673
awian	-3674
buwan	-3675
daang	-3676
dapat	-3677
egalo	-3678
erpre	-3679
ibong	-3680
imdim	-3681
iyaga	-3682
orneo	-3683
sabay	-3684
utong	-3685
uusap	-3686
▁Baka	-3687
▁Ibin	-3688
▁Lila	-3689
▁Magp	-3690
▁Mayo	-3691
▁Pero	-3692
▁ahas	-3693
▁bala	-3694
▁dili	-3695
▁gayo	-3696
▁huli	-3697
▁huni	-3698
▁kubo	-3699
▁kusa	-3700
▁mait	-3701
▁taas	-3702
▁yari	-3703
aalala	-3704
abihan	-3705
aguita	-3706
alahan	-3707
antang	-3708
antimp	-3709
arinig	-3710
awngaw	-3711
diwang	-3712
inggin	-3713
ipunan	-3714
omongo	-3715
saring	-3716
udulot	-3717
uksang	-3718
ulitin	-3719
▁Bohol	-3720
▁Gansa	-3721
▁Halik	-3722
▁Hibik	-3723
▁Kaysa	-3724
▁Likal	-3725
▁Nguni	-3726
▁Pinak	-3727
▁Pluto	-3728
▁Tinig	-3729
▁agong	-3730
▁altar	-3731
▁binib	-3732
▁daang	-3733
▁dalag	-3734
▁humih	-3735
▁ibaba	-3736
▁kagit	-3737
▁kakay	-3738
▁kamah	-3739
▁kauna	-3740
▁mabub	-3741
▁magig	-3742
▁makap	-3743
▁mamah	-3744
▁mapat	-3745
▁nabab	-3746
▁papel	-3747
▁pinam	-3748
▁sadya	-3749
▁sayaw	-3750
▁sigla	-3751
▁simoy	-3752
▁sunog	-3753
▁takip	-3754
▁tapos	-3755
▁tuwid	-3756
Lalapit	-3757
akalang	-3758
alimbag	-3759
amandag	-3760
apakita	-3761
araanan	-3762
arungan	-3763
ayapaan	-3764
ilimbag	-3765
ilingan	-3766
imulang	-3767
indanao	-3768
yayahan	-3769
▁Daldal	-3770
▁Ganyan	-3771
▁Ingles	-3772
▁Laging	-3773
▁Linceo	-3774
▁Palaka	-3775
▁Santos	-3776
▁Wikang	-3777
▁damong	-3778
▁himpap	-3779
▁isipan	-3780
▁katalo	-3781
▁kitang	-3782
▁labing	-3783
▁libong	-3784
▁mahuli	-3785
▁mawala	-3786
▁murang	-3787
▁paghah	-3788
▁piging	-3789
▁pinana	-3790
▁talino	-3791
▁umawit	-3792
ahimikan	-3793
amatayan	-3794
elihiyon	-3795
kanilang	-3796
uwalhati	-3797
▁Bubuyog	-3798
▁Daigdig	-3799
▁Demeter	-3800
▁Espanya	-3801
▁Mariang	-3802
▁Maynila	-3803
▁Pedrito	-3804
▁Sumagot	-3805
▁Tatlong	-3806
▁asawang	-3807
▁babalik	-3808
▁balikat	-3809
▁ginhawa	-3810
▁gustong	-3811
▁heneral	-3812
▁hukbong	-3813
▁iibigin	-3814
▁inahing	-3815
▁kasangk	-3816
▁kultura	-3817
▁malawak	-3818
▁malimit	-3819
▁marapat	-3820
▁marikit	-3821
▁nagalit	-3822
▁naganap	-3823
▁nakasal	-3824
▁niyakap	-3825
▁palagay	-3826
▁palayok	-3827
▁panging	-3828
▁pinggan	-3829
▁salamin	-3830
▁Amomongo	-3831
▁Madaling	-3832
▁Makiling	-3833
▁Maykapal	-3834
▁Soloista	-3835
▁bahaging	-3836
▁dalagita	-3837
▁gayundin	-3838
▁ibinigay	-3839
▁kaalaman	-3840
▁kalahati	-3841
▁mababang	-3842
▁mabangis	-3843
▁maysakit	-3844
▁pagsinta	-3845
▁tagumpay	-3846
▁taludtod	-3847
▁Halimbawa	-3848
▁Nagkaroon	-3849
▁Panginoon	-3850
▁ikalawang	-3851
▁kakaibang	-3852
▁karanasan	-3853
▁maririnig	-3854
▁naglakbay	-3855
▁nagmumula	-3856
▁nagsalita	-3857
▁nakagapos	-3858
▁pagkabata	-3859
▁paglingap	-3860
▁palibhasa	-3861
▁sumusunod	-3862
angailangan	-3863
erpretasyon	-3864
▁Mitolohiya	-3865
▁Pilipinong	-3866
▁masasamang	-3867
▁nagpatuloy	-3868
▁naniniwala	-3869
▁paglalaban	-3870
▁pamamahala	-3871
▁Samantalang	-3872
▁katahimikan	-3873
▁pangungusap	-3874
▁pasasalamat	-3875
▁salamangkero	-3876
▁nagngangalang	-3877
'-	-3878
-3	-3879
Di	-3880
mm	-3881
th	-3882
▁:	-3883
Mal	-3884
Tat	-3885
abo	-3886
agm	-3887
dla	-3888
hal	-3889
ibe	-3890
iha	-3891
iig	-3892
inl	-3893
ipi	-3894
kob	-3895
mos	-3896
ras	-3897
rop	-3898
ter	-3899
tim	-3900
tot	-3901
uho	-3902
yaw	-3903
yos	-3904
▁"'	-3905
▁(1	-3906
▁(2	-3907
▁1.	-3908
▁2.	-3909
▁3.	-3910
▁30	-3911
▁Em	-3912
▁le	-3913
▁oh	-3914
▁oo	-3915
Solo	-3916
Wala	-3917
aani	-3918
aboy	-3919
agos	-3920
amon	-3921
atag	-3922
atao	-3923
ibot	-3924
ihas	-3925
imot	-3926
isil	-3927
itag	-3928
kepu	-3929
laro	-3930
trum	-3931
uban	-3932
unao	-3933
unig	-3934
unpu	-3935
urog	-3936
utop	-3937
utya	-3938
yaya	-3939
▁Buy	-3940
▁Iba	-3941
▁Ika	-3942
▁Lis	-3943
▁Mam	-3944
▁Nah	-3945
▁Niy	-3946
▁Rog	-3947
▁San	-3948
▁ant	-3949
▁haw	-3950
▁huw	-3951
▁mit	-3952
▁pir	-3953
▁ser	-3954
akpan	-3955
aktan	-3956
anday	-3957
bayad	-3958
embro	-3959
ganda	-3960
iikan	-3961
itlog	-3962
pakan	-3963
salin	-3964
sayaw	-3965
tanim	-3966
uksan	-3967
untik	-3968
uotan	-3969
yakap	-3970
▁Alam	-3971
▁Alit	-3972
▁Duri	-3973
▁Edna	-3974
▁Etol	-3975
▁Hang	-3976
▁Kina	-3977
▁Kris	-3978
▁Magh	-3979
▁Nagd	-3980
▁Naku	-3981
▁Nana	-3982
▁Pabl	-3983
▁Wika	-3984
▁abot	-3985
▁alag	-3986
▁alak	-3987
▁ayos	-3988
▁bitu	-3989
▁buny	-3990
▁dami	-3991
▁maip	-3992
▁nagn	-3993
▁pari	-3994
▁poot	-3995
▁pula	-3996
▁tala	-3997
▁tama	-3998
▁ubod	-3999
alimot	-4000
ariang	-4001
atapwa	-4002
atawat	-4003
awagan	-4004
awanan	-4005
awarin	-4006
edurug	-4007
ikayat	-4008
indaya	-4009
ingkod	-4010
ingwit	-4011
inhawa	-4012
iwatig	-4013
piritu	-4014
rabaho	-4015
tangan	-4016
ubusan	-4017
umanon	-4018
uwento	-4019
▁Bahay	-4020
▁Banal	-4021
▁Iyang	-4022
▁Juana	-4023
▁Lakas	-4024
▁Nakat	-4025
▁Napag	-4026
▁Napak	-4027
▁Narir	-4028
▁Pinat	-4029
▁Timog	-4030
▁Tubig	-4031
▁aklat	-4032
▁bahag	-4033
▁batok	-4034
▁brily	-4035
▁bumub	-4036
▁diyan	-4037
▁dumad	-4038
▁gamot	-4039
▁hinih	-4040
▁hubad	-4041
▁iglap	-4042
▁kabuk	-4043
▁kasam	-4044
▁kinik	-4045
▁kodla	-4046
▁ligaw	-4047
▁lubha	-4048
▁mahuh	-4049
▁malam	-4050
▁malay	-4051
▁malul	-4052
▁mangh	-4053
▁matin	-4054
▁mutya	-4055
▁nagka	-4056
▁nalal	-4057
▁nguni	-4058
▁punta	-4059
▁talam	-4060
Epikong	-4061
agalang	-4062
aganaan	-4063
agawang	-4064
alagtas	-4065
anganib	-4066
angkang	-4067
ilanggo	-4068
intahan	-4069
iyahang	-4070
uturing	-4071
▁Andres	-4072
▁Anggoy	-4073
▁Binata	-4074
▁Borneo	-4075
▁Kasama	-4076
▁Ladlaw	-4077
▁Lisuga	-4078
▁Masaya	-4079
▁Nasaan	-4080
▁Nitong	-4081
▁Rosita	-4082
▁Tuwang	-4083
▁alagad	-4084
▁anuman	-4085
▁bangin	-4086
▁bantog	-4087
▁bigyan	-4088
▁diwang	-4089
▁dugong	-4090
▁gerero	-4091
▁hating	-4092
▁ibigay	-4093
▁kaliwa	-4094
▁kaming	-4095
▁kawili	-4096
▁kidlat	-4097
▁maayos	-4098
▁magpap	-4099
▁mahina	-4100
▁mangga	-4101
▁maputi	-4102
▁nagbub	-4103
▁nagsus	-4104
▁paalam	-4105
▁paanan	-4106
▁pagnan	-4107
▁pagpup	-4108
▁pansin	-4109
▁pinagl	-4110
▁pinang	-4111
▁sumama	-4112
▁taghoy	-4113
▁talang	-4114
▁tanang	-4115
▁tinang	-4116
▁tumayo	-4117
▁umiyak	-4118
▁utusan	-4119
agandang	-4120
▁Antenor	-4121
▁Hayaang	-4122
▁Libulan	-4123
▁Lumapit	-4124
▁Matagal	-4125
▁Minango	-4126
▁Osmalik	-4127
▁Salamat	-4128
▁Tingnan	-4129
▁bayabas	-4130
▁buntung	-4131
▁gantimp	-4132
▁ginamit	-4133
▁halimaw	-4134
▁handang	-4135
▁hilahil	-4136
▁karapat	-4137
▁kasabay	-4138
▁kasipag	-4139
▁kumalat	-4140
▁likuran	-4141
▁lingkod	-4142
▁mahulog	-4143
▁maliban	-4144
▁matatag	-4145
▁nakaupo	-4146
▁nangung	-4147
▁pakasal	-4148
▁pumayag	-4149
▁talulot	-4150
▁tauhang	-4151
▁umaawit	-4152
▁umagang	-4153
▁wastong	-4154
agpatuloy	-4155
▁Adolfong	-4156
▁Inutusan	-4157
▁Naggayak	-4158
▁Nagtungo	-4159
▁Naririto	-4160
▁Tinagong	-4161
▁dahilang	-4162
▁ginawang	-4163
▁giniikan	-4164
▁gumagawa	-4165
▁hinagpis	-4166
▁kasamang	-4167
▁kulungan	-4168
▁mahalaga	-4169
▁makakain	-4170
▁makitang	-4171
▁mangmang	-4172
▁marangal	-4173
▁masagana	-4174
▁nagdulot	-4175
▁naghanda	-4176
▁paghanga	-4177
▁paglakad	-4178
▁patnubay	-4179
▁tahanang	-4180
apaliwanag	-4181
sengedurug	-4182
▁Alitaptap	-4183
▁Kamatayan	-4184
▁Nalungkot	-4185
▁Palibhasa	-4186
▁brilyante	-4187
▁edukasyon	-4188
▁hahanapin	-4189
▁halamanan	-4190
▁isinilang	-4191
▁kalikasan	-4192
▁karamihan	-4193
▁mahimbing	-4194
▁nalalaman	-4195
▁pagbabago	-4196
▁sinalakay	-4197
▁sinaunang	-4198
alingawngaw	-4199
▁Kailangang	-4200
▁Pangumanon	-4201
▁engkantado	-4202
▁kahilingan	-4203
▁kapayapaan	-4204
▁katapangan	-4205
▁matatapang	-4206
▁pinanaugan	-4207
▁Likalibutan	-4208
▁ipagtanggol	-4209
▁kagandahang	-4210
▁kasintahang	-4211
▁kinaroroonan	-4212
▁pagkakataong	-4213
▁pagmamahalan	-4214
▁pagtatanghal	-4215
▁pinakamalaking	-4216
3)	-4217
IT	-4218
Ib	-4219
LI	-4220
ee	-4221
ht	-4222
if	-4223
iv	-4224
ow	-4225
uz	-4226
Kas	-4227
Mar	-4228
Mat	-4229
ade	-4230
ans	-4231
edi	-4232
eri	-4233
eus	-4234
hel	-4235
kaw	-4236
kon	-4237
pad	-4238
pat	-4239
tao	-4240
til	-4241
umi	-4242
yth	-4243
▁Hu	-4244
▁Oo	-4245
▁Ta	-4246
▁dr	-4247
▁et	-4248
▁pi	-4249
acio	-4250
ahol	-4251
alos	-4252
alul	-4253
anod	-4254
apad	-4255
asam	-4256
atin	-4257
engk	-4258
ibol	-4259
inip	-4260
insa	-4261
ipat	-4262
isap	-4263
isid	-4264
isyo	-4265
iyab	-4266
lika	-4267
mana	-4268
ogan	-4269
onar	-4270
roso	-4271
ubha	-4272
uhog	-4273
ukob	-4274
umin	-4275
unat	-4276
upid	-4277
upil	-4278
ural	-4279
wili	-4280
▁Bay	-4281
▁Bik	-4282
▁Hag	-4283
▁Maa	-4284
▁Pam	-4285
▁Pap	-4286
▁Pul	-4287
▁Sas	-4288
▁Yao	-4289
▁bug	-4290
▁gob	-4291
▁ing	-4292
▁kil	-4293
▁lab	-4294
▁miy	-4295
▁mul	-4296
▁mum	-4297
▁nun	-4298
▁sah	-4299
▁sob	-4300
▁sol	-4301
aayos	-4302
abaon	-4303
adaan	-4304
ahuli	-4305
aligt	-4306
alima	-4307
alogo	-4308
apaap	-4309
aruga	-4310
bitin	-4311
esang	-4312
idlip	-4313
imlan	-4314
ingas	-4315
isisi	-4316
light	-4317
liyaw	-4318
resya	-4319
sunod	-4320
tamis	-4321
ubuan	-4322
uhing	-4323
ukang	-4324
umano	-4325
umbas	-4326
undag	-4327
▁Agio	-4328
▁Alin	-4329
▁Awit	-4330
▁Ayaw	-4331
▁Buod	-4332
▁Dali	-4333
▁Hand	-4334
▁Lalo	-4335
▁Luis	-4336
▁Lupa	-4337
▁Sina	-4338
▁Unti	-4339
▁akda	-4340
▁daga	-4341
▁iisa	-4342
▁inam	-4343
▁kuta	-4344
▁mamb	-4345
▁nami	-4346
▁nawa	-4347
▁nuon	-4348
▁pero	-4349
▁sapa	-4350
▁sulo	-4351
▁ulam	-4352
adyang	-4353
aganap	-4354
aksaya	-4355
alayag	-4356
alinga	-4357
alipas	-4358
alipin	-4359
atanaw	-4360
awitan	-4361
ayakap	-4362
daling	-4363
ensiya	-4364
ifacio	-4365
ilimot	-4366
ilitaw	-4367
iliyag	-4368
imulan	-4369
ingang	-4370
inting	-4371
isyong	-4372
ngkong	-4373
otoong	-4374
unahan	-4375
untong	-4376
▁Akong	-4377
▁Atlas	-4378
▁Banna	-4379
▁Bulan	-4380
▁Gayun	-4381
▁Kalig	-4382
▁Labis	-4383
▁Makat	-4384
▁Reyno	-4385
▁Talis	-4386
▁Tenor	-4387
▁alaga	-4388
▁batid	-4389
▁bigay	-4390
▁binit	-4391
▁binti	-4392
▁dampa	-4393
▁hugis	-4394
▁kalan	-4395
▁kapur	-4396
▁kinab	-4397
▁kulog	-4398
▁lakad	-4399
▁likha	-4400
▁lipad	-4401
▁liyag	-4402
▁lubid	-4403
▁maaga	-4404
▁mahim	-4405
▁masus	-4406
▁matit	-4407
▁mithi	-4408
▁napat	-4409
▁natit	-4410
▁palam	-4411
▁pamim	-4412
▁pinas	-4413
▁pinat	-4414
▁pipit	-4415
▁pugon	-4416
▁salat	-4417
▁salin	-4418
▁sarap	-4419
▁sisiw	-4420
▁tiyan	-4421
▁tumit	-4422
▁tungo	-4423
▁yapak	-4424
Salamat	-4425
abagong	-4426
aganang	-4427
agsikan	-4428
akitang	-4429
aligaya	-4430
aliksik	-4431
amtaman	-4432
apitong	-4433
ibigyan	-4434
intulot	-4435
ugnayan	-4436
▁Abyang	-4437
▁Batooy	-4438
▁Buyung	-4439
▁Dinala	-4440
▁Diyosa	-4441
▁Dunong	-4442
▁Gresya	-4443
▁Ibigin	-4444
▁Kumuha	-4445
▁adhika	-4446
▁bagang	-4447
▁buksan	-4448
▁dusang	-4449
▁espada	-4450
▁gising	-4451
▁ikinab	-4452
▁ipinas	-4453
▁kaakit	-4454
▁kanang	-4455
▁kislap	-4456
▁kumuha	-4457
▁lumang	-4458
▁lungga	-4459
▁madali	-4460
▁mainit	-4461
▁nagpat	-4462
▁nakaka	-4463
▁nanaog	-4464
▁nangag	-4465
▁narito	-4466
▁nasang	-4467
▁pagbib	-4468
▁pagsus	-4469
▁pantay	-4470
▁patung	-4471
▁pinags	-4472
▁sansin	-4473
▁saysay	-4474
▁sumuko	-4475
▁sundin	-4476
▁tahana	-4477
▁taksil	-4478
▁umibig	-4479
ahiwalay	-4480
akasakit	-4481
alahanin	-4482
alamhati	-4483
alarawan	-4484
aligiran	-4485
alinuhan	-4486
ampangan	-4487
itingala	-4488
itingnan	-4489
potlight	-4490
ungkulan	-4491
▁Lalabas	-4492
▁Madalas	-4493
▁Matulog	-4494
▁Mayroon	-4495
▁Namatay	-4496
▁Reynong	-4497
▁gagamit	-4498
▁hakbang	-4499
▁igalang	-4500
▁ipinagb	-4501
▁itataas	-4502
▁kadilim	-4503
▁lalapit	-4504
▁lumikha	-4505
▁lupaing	-4506
▁magsisi	-4507
▁maingat	-4508
▁mapalad	-4509
▁marahas	-4510
▁nagsabi	-4511
▁nakakat	-4512
▁nalaman	-4513
▁negrito	-4514
▁saklolo	-4515
▁salamat	-4516
▁sangkap	-4517
▁sumakay	-4518
▁sumisid	-4519
▁supling	-4520
▁tuluyan	-4521
▁tumanda	-4522
aniniwala	-4523
anyayahan	-4524
aramdaman	-4525
▁Alindaya	-4526
▁Dulliyaw	-4527
▁Magulang	-4528
▁Masayang	-4529
▁Nagpunta	-4530
▁Napansin	-4531
▁Narating	-4532
▁Talisain	-4533
▁Tulungan	-4534
▁bersiyon	-4535
▁bibigkas	-4536
▁bumagsak	-4537
▁dadalhin	-4538
▁dingding	-4539
▁gunitain	-4540
▁hiniling	-4541
▁ibibigay	-4542
▁kampupot	-4543
▁katwiran	-4544
▁kinakain	-4545
▁kundiman	-4546
▁mabigyan	-4547
▁mabisang	-4548
▁magalang	-4549
▁magising	-4550
▁mapayapa	-4551
▁masaklap	-4552
▁masining	-4553
▁miyembro	-4554
▁nagpapak	-4555
▁paggiliw	-4556
▁pagkaing	-4557
▁pagkatao	-4558
▁pagpapak	-4559
▁pagsubok	-4560
▁panaghoy	-4561
▁panimdim	-4562
▁sakaling	-4563
▁silangan	-4564
▁tinatang	-4565
▁Bonifacio	-4566
▁damdaming	-4567
▁kandungan	-4568
▁kapatagan	-4569
▁karaniwan	-4570
▁kasayahan	-4571
▁kasipagan	-4572
▁makabalik	-4573
▁mistulang	-4574
▁naglahong	-4575
▁nagsisisi	-4576
▁namumuhay	-4577
▁nanirahan	-4578
▁papalapit	-4579
itolohiyang	-4580
▁Balintawak	-4581
▁Isinusumpa	-4582
▁Salawikain	-4583
▁binibigkas	-4584
▁engkantada	-4585
▁gantimpala	-4586
▁ginintuang	-4587
▁himagsikan	-4588
▁himpapawid	-4589
▁kabalagtas	-4590
▁kabutihang	-4591
▁kagitingan	-4592
▁kagustuhan	-4593
▁kasaganaan	-4594
▁maningning	-4595
▁masaganang	-4596
▁matalinong	-4597
▁nagkasakit	-4598
▁naglalakad	-4599
▁nasasaklaw	-4600
▁pagkabuhay	-4601
▁pagtatanim	-4602
▁pinuntahan	-4603
▁salawikain	-4604
▁sinalubong	-4605
▁kahalagahan	-4606
▁kasangkapan	-4607
▁katalinuhan	-4608
▁magkabilang	-4609
▁magkaibigan	-4610
▁maglalakbay	-4611
▁matatandang	-4612
▁nagtataglay	-4613
▁tagapagmana	-4614
▁paglalarawan	-4615
▁pangyayaring	-4616
▁magkasintahan	-4617
▁napakagandang	-4618
▁pagsasalaysay	-4619
▁makapangyarihan	-4620
▁pananampalataya	-4621
2)	-4622
AG	-4623
It	-4624
Pa	-4625
gl	-4626
Ina	-4627
PIT	-4628
bat	-4629
can	-4630
dad	-4631
eto	-4632
gon	-4633
iga	-4634
ikl	-4635
ima	-4636
ngi	-4637
ope	-4638
rip	-4639
rom	-4640
uya	-4641
▁(3	-4642
▁Or	-4643
▁Pe	-4644
▁Ut	-4645
▁Uv	-4646
▁iw	-4647
Kaya	-4648
agis	-4649
agon	-4650
alot	-4651
aloy	-4652
ampi	-4653
aram	-4654
arok	-4655
buan	-4656
eses	-4657
ilen	-4658
illa	-4659
ipot	-4660
mata	-4661
mong	-4662
oron	-4663
rade	-4664
ramo	-4665
tama	-4666
tana	-4667
ugay	-4668
ugun	-4669
ukas	-4670
ukaw	-4671
ulas	-4672
ulid	-4673
ulum	-4674
umpo	-4675
unaw	-4676
usig	-4677
uway	-4678
wari	-4679
wela	-4680
yemb	-4681
▁Ale	-4682
▁Hig	-4683
▁Jat	-4684
▁Kem	-4685
▁Sag	-4686
▁Tik	-4687
▁and	-4688
▁ber	-4689
▁bil	-4690
▁dam	-4691
▁dat	-4692
▁doo	-4693
▁hul	-4694
▁ind	-4695
▁let	-4696
▁pit	-4697
▁sug	-4698
▁tik	-4699
▁yao	-4700
Isang	-4701
PITAN	-4702
adali	-4703
aguan	-4704
akand	-4705
ambot	-4706
anggo	-4707
aping	-4708
asdan	-4709
ataon	-4710
awaan	-4711
bayat	-4712
edium	-4713
iglig	-4714
ikaan	-4715
ilong	-4716
ipang	-4717
ipeng	-4718
ipong	-4719
iwant	-4720
ubali	-4721
ubing	-4722
ubkob	-4723
ubund	-4724
ugnay	-4725
ukuha	-4726
uming	-4727
ungay	-4728
ungit	-4729
unian	-4730
uruan	-4731
uyuko	-4732
wayen	-4733
westo	-4734
▁Ahhh	-4735
▁Apol	-4736
▁Cruz	-4737
▁Dula	-4738
▁Gabi	-4739
▁Herm	-4740
▁Iyon	-4741
▁Pagt	-4742
▁Rita	-4743
▁Ulan	-4744
▁Uwak	-4745
▁alay	-4746
▁bati	-4747
▁biro	-4748
▁diin	-4749
▁dula	-4750
▁edad	-4751
▁gawi	-4752
▁hiya	-4753
▁karn	-4754
▁nagg	-4755
▁nanl	-4756
▁nuno	-4757
▁pain	-4758
▁pako	-4759
▁pusp	-4760
▁sari	-4761
▁sind	-4762
▁sump	-4763
▁tali	-4764
▁taos	-4765
abigla	-4766
agalan	-4767
agupit	-4768
agutan	-4769
ahanga	-4770
alapad	-4771
anawan	-4772
angkin	-4773
asalin	-4774
asinan	-4775
atakbo	-4776
awakas	-4777
emonya	-4778
endeng	-4779
halang	-4780
ibuhin	-4781
igawan	-4782
iisang	-4783
ikilos	-4784
ilaban	-4785
ipitas	-4786
ligtas	-4787
salita	-4788
ubukas	-4789
ubukin	-4790
ulutan	-4791
uparan	-4792
upitan	-4793
utyang	-4794
yembre	-4795
▁Akala	-4796
▁Bagyo	-4797
▁Bangk	-4798
▁Buong	-4799
▁Doron	-4800
▁Halos	-4801
▁Huwan	-4802
▁Ilian	-4803
▁Iyong	-4804
▁Masas	-4805
▁Naawa	-4806
▁Sagot	-4807
▁Sangk	-4808
▁Siyam	-4809
▁Tunay	-4810
▁Wigan	-4811
▁aalis	-4812
▁agila	-4813
▁balit	-4814
▁batas	-4815
▁beses	-4816
▁bilis	-4817
▁braso	-4818
▁bumab	-4819
▁dahas	-4820
▁disin	-4821
▁ganid	-4822
▁gatas	-4823
▁gulat	-4824
▁hangi	-4825
▁hawla	-4826
▁himig	-4827
▁ingat	-4828
▁kakah	-4829
▁kaunl	-4830
▁kinag	-4831
▁kinal	-4832
▁lason	-4833
▁lipos	-4834
▁lupit	-4835
▁magug	-4836
▁mahah	-4837
▁makag	-4838
▁mandi	-4839
▁mapup	-4840
▁monar	-4841
▁nahih	-4842
▁nahuh	-4843
▁nalag	-4844
▁namam	-4845
▁napan	-4846
▁nasok	-4847
▁niyon	-4848
▁palat	-4849
▁papag	-4850
▁papay	-4851
▁patut	-4852
▁pinup	-4853
▁sabik	-4854
▁sahig	-4855
▁sukab	-4856
▁sulok	-4857
▁tagal	-4858
▁tagpo	-4859
▁tatak	-4860
▁tibay	-4861
▁tinik	-4862
▁tuhod	-4863
▁ulila	-4864
▁wasto	-4865
abagsak	-4866
agdagan	-4867
akbuhan	-4868
alooban	-4869
amasdan	-4870
ambitan	-4871
anganak	-4872
arangan	-4873
atiling	-4874
bitinan	-4875
higanti	-4876
igdigan	-4877
isilang	-4878
itikang	-4879
itingin	-4880
nanakaw	-4881
uhunang	-4882
unguhan	-4883
uniguni	-4884
▁Bahagi	-4885
▁Bituin	-4886
▁Halika	-4887
▁Laking	-4888
▁Ligaya	-4889
▁Maliit	-4890
▁Mangga	-4891
▁Nawala	-4892
▁Pamban	-4893
▁Punong	-4894
▁Puting	-4895
▁Siyang	-4896
▁Uvigan	-4897
▁Yamang	-4898
▁agawin	-4899
▁alamin	-4900
▁amihan	-4901
▁awitin	-4902
▁baybay	-4903
▁bigkas	-4904
▁bubong	-4905
▁butong	-4906
▁dahong	-4907
▁dragon	-4908
▁inggit	-4909
▁kabata	-4910
▁kastil	-4911
▁katoto	-4912
▁kinaka	-4913
▁lalake	-4914
▁ligtas	-4915
▁maipag	-4916
▁makain	-4917
▁mapagm	-4918
▁mapait	-4919
▁minana	-4920
▁nabigo	-4921
▁nagdar	-4922
▁naghih	-4923
▁nagpup	-4924
▁nasaan	-4925
▁pagdar	-4926
▁pagkad	-4927
▁pagkah	-4928
▁pagmam	-4929
▁palang	-4930
▁pantas	-4931
▁pataas	-4932
▁pinaka	-4933
▁pisngi	-4934
▁puring	-4935
▁rarang	-4936
▁sining	-4937
▁sinong	-4938
▁taguan	-4939
▁tamang	-4940
ahiwatig	-4941
anggulan	-4942
angkahoy	-4943
ighatian	-4944
▁Babalik	-4945
▁Ingkong	-4946
▁Jatakas	-4947
▁KAPITAN	-4948
▁Lumakad	-4949
▁Marahil	-4950
▁Maranao	-4951
▁Matsing	-4952
▁Nakapag	-4953
▁Nalbuan	-4954
▁Panahon	-4955
▁Pandora	-4956
▁Pangkas	-4957
▁Persyan	-4958
▁Pinilit	-4959
▁Sapagka	-4960
▁Tinungo	-4961
▁alagang	-4962
▁aliping	-4963
▁angking	-4964
▁basahin	-4965
▁bintana	-4966
▁bunying	-4967
▁busilak	-4968
▁dumalaw	-4969
▁gaanong	-4970
▁harapan	-4971
▁huminga	-4972
▁ibabang	-4973
▁iligtas	-4974
▁iniisip	-4975
▁instrum	-4976
▁kabihas	-4977
▁kahapon	-4978
▁kalakal	-4979
▁kalapit	-4980
▁kinalag	-4981
▁kukunin	-4982
▁lalabas	-4983
▁layunin	-4984
▁limutin	-4985
▁mababaw	-4986
▁mahalin	-4987
▁makapan	-4988
▁mapatay	-4989
▁matikas	-4990
▁matipid	-4991
▁matulog	-4992
▁nadinig	-4993
▁nagdaan	-4994
▁nagdala	-4995
▁namamah	-4996
▁nangags	-4997
▁nanging	-4998
▁nasapit	-4999
▁natakot	-5000
▁naunang	-5001
▁pahayag	-5002
▁palabas	-5003
▁panulat	-5004
▁paraang	-5005
▁pasakit	-5006
▁pighati	-5007
▁sinuman	-5008
▁sumikat	-5009
▁takdang	-5010
▁torogan	-5011
▁tumigil	-5012
▁umunlad	-5013
ahulugang	-5014
amadaling	-5015
awagayway	-5016
▁Filipino	-5017
▁Handiong	-5018
▁Kayganda	-5019
▁Kembayat	-5020
▁Maaaring	-5021
▁Magbitag	-5022
▁Magwayen	-5023
▁Nalimbag	-5024
▁Namangha	-5025
▁Persiyus	-5026
▁Sinapati	-5027
▁ikatlong	-5028
▁kamataya	-5029
▁kasawian	-5030
▁katauhan	-5031
▁katawang	-5032
▁kawawang	-5033
▁kuliglig	-5034
▁ligayang	-5035
▁lipunang	-5036
▁magbigay	-5037
▁magmahal	-5038
▁malamang	-5039
▁manggang	-5040
▁matuling	-5041
▁mawawala	-5042
▁mayabang	-5043
▁naglalag	-5044
▁naliligo	-5045
▁pabulang	-5046
▁paggamit	-5047
▁pagkakal	-5048
▁pagkakat	-5049
▁pagpatay	-5050
▁payapang	-5051
▁sabayang	-5052
▁sariwang	-5053
▁tanghali	-5054
▁Edukasyon	-5055
▁Inalagaan	-5056
▁Magandang	-5057
▁Makatunao	-5058
▁Malungkot	-5059
▁Nagpaalam	-5060
▁Tenoriong	-5061
▁halimuyak	-5062
▁kailanman	-5063
▁kakayahan	-5064
▁kamahalan	-5065
▁kasabikan	-5066
▁kasamaang	-5067
▁kaugnayan	-5068
▁magaganda	-5069
▁magkasama	-5070
▁magsasaka	-5071
▁malalakas	-5072
▁maliwanag	-5073
▁matatawag	-5074
▁nagpaalam	-5075
▁nagtanong	-5076
▁nakaharap	-5077
▁pagkaraan	-5078
▁pamayanan	-5079
▁pinakamah	-5080
▁sinasamba	-5081
▁spotlight	-5082
▁tinutukoy	-5083
▁Ginbitinan	-5084
▁Kaligirang	-5085
▁Pangasinan	-5086
▁hatinggabi	-5087
▁inaasahang	-5088
▁magnanakaw	-5089
▁magpakasal	-5090
▁makamandag	-5091
▁masasabing	-5092
▁nagpasalin	-5093
▁pagbabalik	-5094
▁pagkakaisa	-5095
▁pagkamatay	-5096
▁pamamaraan	-5097
▁balahibuhin	-5098
▁kapighatian	-5099
▁magkakaroon	-5100
▁mangingisda	-5101
▁nagdiriwang	-5102
▁naghahangad	-5103
▁naglalakbay	-5104
▁nagsasabing	-5105
▁pagbabagong	-5106
▁pagsasalita	-5107
▁pamamalakad	-5108
▁pangalawang	-5109
▁kasalukuyang	-5110
▁mangyayaring	-5111
▁napakalaking	-5112
▁sandaigdigan	-5113
▁Interpretasyon	-5114
▁Pangkasaysayan	-5115
▁nagpapaliwanag	-5116
2:	-5117
;"	-5118
Ia	-5119
Ul	-5120
bl	-5121
ch	-5122
aal	-5123
arp	-5124
atr	-5125
bgl	-5126
bib	-5127
bit	-5128
eda	-5129
egh	-5130
ela	-5131
elo	-5132
ihi	-5133
irh	-5134
iso	-5135
kod	-5136
lon	-5137
lor	-5138
mah	-5139
mal	-5140
mat	-5141
mpa	-5142
sob	-5143
taz	-5144
ukd	-5145
wis	-5146
▁20	-5147
▁Be	-5148
▁SI	-5149
▁Te	-5150
▁ad	-5151
▁ut	-5152
AMAN	-5153
Ikaw	-5154
Iyan	-5155
Mags	-5156
Saan	-5157
abos	-5158
amao	-5159
apap	-5160
apup	-5161
aray	-5162
ariw	-5163
atal	-5164
atlo	-5165
awal	-5166
ayad	-5167
bata	-5168
bers	-5169
dala	-5170
esta	-5171
hhhh	-5172
ibis	-5173
idad	-5174
ihip	-5175
iiba	-5176
ilio	-5177
irit	-5178
isit	-5179
kaya	-5180
kayo	-5181
oras	-5182
paro	-5183
piro	-5184
puno	-5185
puso	-5186
rong	-5187
ugho	-5188
ugma	-5189
uhaw	-5190
ukad	-5191
ukat	-5192
ukay	-5193
unyi	-5194
upas	-5195
usot	-5196
utla	-5197
uwak	-5198
uwat	-5199
uyas	-5200
uyin	-5201
▁Aba	-5202
▁Apo	-5203
▁Bai	-5204
▁Buh	-5205
▁Bun	-5206
▁Hah	-5207
▁Hes	-5208
▁Ilo	-5209
▁Med	-5210
▁Nin	-5211
▁Noo	-5212
▁Put	-5213
▁Rom	-5214
▁Sus	-5215
▁Tal	-5216
▁abo	-5217
▁ala	-5218
▁dos	-5219
▁etn	-5220
▁gug	-5221
▁hab	-5222
▁hik	-5223
▁hit	-5224
▁pip	-5225
▁pop	-5226
▁puw	-5227
▁uli	-5228
Anupa	-5229
Babae	-5230
Diyos	-5231
Epiko	-5232
abata	-5233
abato	-5234
abola	-5235
agpas	-5236
agtas	-5237
agulo	-5238
agupa	-5239
alata	-5240
aligo	-5241
amant	-5242
ampok	-5243
angad	-5244
anhin	-5245
arama	-5246
areal	-5247
aslas	-5248
asmin	-5249
atiin	-5250
awiin	-5251
ayain	-5252
ayuan	-5253
bigay	-5254
gunam	-5255
habag	-5256
handa	-5257
ihina	-5258
ilaan	-5259
imtim	-5260
inlok	-5261
intik	-5262
iring	-5263
isita	-5264
iwaga	-5265
iwika	-5266
lipad	-5267
luran	-5268
nilay	-5269
obong	-5270
oloko	-5271
onang	-5272
palit	-5273
rinig	-5274
saing	-5275
sones	-5276
tazar	-5277
uezon	-5278
uking	-5279
uluwa	-5280
ungaw	-5281
uning	-5282
unsod	-5283
upaan	-5284
upkop	-5285
uriin	-5286
▁Bumb	-5287
▁Cora	-5288
▁Gaya	-5289
▁Kami	-5290
▁Kamp	-5291
▁Lahi	-5292
▁Lope	-5293
▁Magt	-5294
▁Mong	-5295
▁Naka	-5296
▁Paib	-5297
▁Puno	-5298
▁Puso	-5299
▁Sabi	-5300
▁Sump	-5301
▁bida	-5302
▁bote	-5303
▁buti	-5304
▁daho	-5305
▁dini	-5306
▁emos	-5307
▁hagd	-5308
▁igat	-5309
▁isus	-5310
▁iyak	-5311
▁kabu	-5312
▁kayl	-5313
▁kons	-5314
▁laot	-5315
▁leeg	-5316
▁liig	-5317
▁lobo	-5318
▁lolo	-5319
▁maih	-5320
▁maik	-5321
▁mesa	-5322
▁muni	-5323
▁naip	-5324
▁nala	-5325
▁pait	-5326
▁pans	-5327
▁paru	-5328
▁pera	-5329
▁plum	-5330
▁prop	-5331
▁sawi	-5332
▁sist	-5333
▁suot	-5334
▁tadh	-5335
▁tawa	-5336
▁tugt	-5337
▁unos	-5338
Alamat	-5339
Ngayon	-5340
Ngunit	-5341
Ulitin	-5342
aanong	-5343
aasawa	-5344
abalot	-5345
abasag	-5346
agatin	-5347
agusto	-5348
ahilig	-5349
akutan	-5350
alahad	-5351
alayin	-5352
amaliw	-5353
anakaw	-5354
angkat	-5355
angkop	-5356
apakan	-5357
athala	-5358
eghorn	-5359
hating	-5360
ibabaw	-5361
idigma	-5362
igipit	-5363
ilalim	-5364
ilihan	-5365
ilipat	-5366
ilitan	-5367
imutan	-5368
isahan	-5369
iyasat	-5370
iyudad	-5371
langan	-5372
onggon	-5373
oyagan	-5374
pantay	-5375
raming	-5376
samang	-5377
sangan	-5378
tataka	-5379
ubilin	-5380
ulatan	-5381
ungkol	-5382
upiter	-5383
ustang	-5384
uugali	-5385
walong	-5386
▁Anupa	-5387
▁Baran	-5388
▁Batid	-5389
▁Bukid	-5390
▁Bukod	-5391
▁Gusto	-5392
▁Higit	-5393
▁Ilong	-5394
▁Jesus	-5395
▁Kapwa	-5396
▁Lalap	-5397
▁Lubos	-5398
▁Natat	-5399
▁Natut	-5400
▁Patay	-5401
▁Samar	-5402
▁Silen	-5403
▁alang	-5404
▁along	-5405
▁aniya	-5406
▁awang	-5407
▁babas	-5408
▁baong	-5409
▁bigat	-5410
▁binhi	-5411
▁bungo	-5412
▁daloy	-5413
▁duhat	-5414
▁halig	-5415
▁ingay	-5416
▁kaisa	-5417
▁kakan	-5418
▁kalig	-5419
▁kamao	-5420
▁kanal	-5421
▁karne	-5422
▁kinak	-5423
▁lagay	-5424
▁lawin	-5425
▁lugod	-5426
▁malag	-5427
▁malig	-5428
▁mayay	-5429
▁minsa	-5430
▁minum	-5431
▁nakaa	-5432
▁nakay	-5433
▁napah	-5434
▁ngala	-5435
▁nimpa	-5436
▁niyog	-5437
▁palag	-5438
▁paman	-5439
▁pauwi	-5440
▁pawis	-5441
▁payat	-5442
▁pinab	-5443
▁pinay	-5444
▁sakop	-5445
▁taluk	-5446
▁tigib	-5447
▁tinal	-5448
▁tukso	-5449
▁ulang	-5450
▁umupo	-5451
Lalabas	-5452
Sabihin	-5453
Uulitin	-5454
abangan	-5455
abangon	-5456
adalhan	-5457
akailan	-5458
akikita	-5459
aksihan	-5460
aksilan	-5461
amasyal	-5462
atapuwa	-5463
atayuan	-5464
atingin	-5465
hikayat	-5466
inyagan	-5467
uluhang	-5468
umbalik	-5469
unggali	-5470
upidong	-5471
▁Etolya	-5472
▁Hasmin	-5473
▁Iniwan	-5474
▁Kayong	-5475
▁Malaki	-5476
▁Malaya	-5477
▁Marian	-5478
▁Naisip	-5479
▁Natuwa	-5480
▁Paalam	-5481
▁Pantay	-5482
▁Rogong	-5483
▁Taglay	-5484
▁Tumayo	-5485
▁Waring	-5486
▁Yaring	-5487
▁baging	-5488
▁bughaw	-5489
▁daanan	-5490
▁dulang	-5491
▁himala	-5492
▁inibig	-5493
▁inspir	-5494
▁kabibe	-5495
▁kampon	-5496
▁kapang	-5497
▁karsel	-5498
▁kausap	-5499
▁kinain	-5500
▁laruan	-5501
▁magtot	-5502
▁mailap	-5503
▁mapagk	-5504
▁mapagp	-5505
▁masdan	-5506
▁maubos	-5507
▁misyon	-5508
▁muntik	-5509
▁naakit	-5510
▁nagdad	-5511
▁nagdur	-5512
▁naghah	-5513
▁nakiki	-5514
▁napang	-5515
▁pagkal	-5516
▁pagkap	-5517
▁pagkas	-5518
▁pamana	-5519
▁patpat	-5520
▁regalo	-5521
▁tainga	-5522
▁tugtog	-5523
▁tulain	-5524
▁turuan	-5525
▁tuwang	-5526
▁umagaw	-5527
▁umahon	-5528
........	-5529
ahangaan	-5530
ihimutok	-5531
iligawan	-5532
ilingkod	-5533
liwayway	-5534
mamalaki	-5535
▁Bandila	-5536
▁Bumalik	-5537
▁Corazon	-5538
▁Epikong	-5539
▁Hagibis	-5540
▁Ipinagb	-5541
▁Ipinagt	-5542
▁Katulad	-5543
▁Kawayan	-5544
▁Liwanag	-5545
▁Lumatay	-5546
▁Lumikha	-5547
▁Natakot	-5548
▁Ngayong	-5549
▁Paganay	-5550
▁Pumayag	-5551
▁Sabihin	-5552
▁Tumawag	-5553
▁balaraw	-5554
▁dinggin	-5555
▁emosyon	-5556
▁ganyang	-5557
▁hawakan	-5558
▁humarap	-5559
▁ibababa	-5560
▁inaasam	-5561
▁itinuro	-5562
▁kahabag	-5563
▁kamalig	-5564
▁kandong	-5565
▁kapitan	-5566
▁lambing	-5567
▁maalala	-5568
▁maaring	-5569
▁magluto	-5570
▁magsabi	-5571
▁malubha	-5572
▁mamunga	-5573
▁mapigil	-5574
▁marupok	-5575
▁masakit	-5576
▁masapit	-5577
▁masukal	-5578
▁matalas	-5579
▁matapat	-5580
▁minahal	-5581
▁monarka	-5582
▁mundong	-5583
▁paglaya	-5584
▁pagpili	-5585
▁pamagat	-5586
▁pananaw	-5587
▁puhunan	-5588
▁sobrang	-5589
▁sultana	-5590
▁sumigaw	-5591
▁tadhana	-5592
▁totoong	-5593
▁tumakbo	-5594
▁umiibig	-5595
▁umiiyak	-5596
▁watawat	-5597
agalingan	-5598
alinghaga	-5599
amanhikan	-5600
anganiban	-5601
asalubong	-5602
ihimagsik	-5603
ihinagpis	-5604
iwantiwan	-5605
▁Bumbaran	-5606
▁Floresca	-5607
▁Masinlok	-5608
▁Mayroong	-5609
▁Naalaala	-5610
▁Nagising	-5611
▁Parabula	-5612
▁Sabayang	-5613
▁Sampalok	-5614
▁Tinanong	-5615
▁binibini	-5616
▁dalangin	-5617
▁dosenang	-5618
▁ikinasal	-5619
▁iniaalay	-5620
▁inihanda	-5621
▁inilagay	-5622
▁itinakda	-5623
▁kadakila	-5624
▁karimlan	-5625
▁kasuotan	-5626
▁katulong	-5627
▁katumbas	-5628
▁kawayang	-5629
▁lansones	-5630
▁libangan	-5631
▁liwayway	-5632
▁lumuluha	-5633
▁magarang	-5634
▁malalaki	-5635
▁malamlam	-5636
▁maliligo	-5637
▁malumbay	-5638
▁mamasyal	-5639
▁manugang	-5640
▁maybahay	-5641
▁nagpunta	-5642
▁nahuhuli	-5643
▁nanatili	-5644
▁nasabing	-5645
▁natutong	-5646
▁paaralan	-5647
▁pagkakah	-5648
▁pagpapas	-5649
▁palamuti	-5650
▁paniwala	-5651
▁pantalon	-5652
▁parabola	-5653
▁paruparo	-5654
▁sinasabi	-5655
▁tinangay	-5656
▁tinubuan	-5657
apangasawa	-5658
apastangan	-5659
▁Baranugun	-5660
▁Dinoyagan	-5661
▁Ibinalita	-5662
▁Maririnig	-5663
▁Nararapat	-5664
▁Naririnig	-5665
▁Paiborong	-5666
▁Tinatawag	-5667
▁gagamitin	-5668
▁gumagamit	-5669
▁hinihingi	-5670
▁hiningang	-5671
▁humihingi	-5672
▁ikinulong	-5673
▁inaasahan	-5674
▁iniligtas	-5675
▁ipinakita	-5676
▁kabanalan	-5677
▁kadiliman	-5678
▁kakahuyan	-5679
▁katunayan	-5680
▁katuwiran	-5681
▁mabangong	-5682
▁magdamdam	-5683
▁mamahalin	-5684
▁mananakop	-5685
▁manirahan	-5686
▁mapalagay	-5687
▁mapanglaw	-5688
▁nagbabago	-5689
▁nagdurusa	-5690
▁nailigtas	-5691
▁nakikinig	-5692
▁nakikipag	-5693
▁natatakot	-5694
▁pagkakita	-5695
▁pagkawala	-5696
▁pagkikita	-5697
▁pagnanasa	-5698
▁pagsilang	-5699
▁pakasalan	-5700
▁pangalawa	-5701
▁panibugho	-5702
▁pupugutan	-5703
▁seremonya	-5704
▁tradisyon	-5705
▁Karaniwang	-5706
▁Lalapindig	-5707
▁Magindanao	-5708
▁Nagpatuloy	-5709
▁Sampaguita	-5710
▁alalahanin	-5711
▁gumagapang	-5712
▁kalahating	-5713
▁katamtaman	-5714
▁mababangis	-5715
▁mangangaso	-5716
▁masasayang	-5717
▁nagbabadya	-5718
▁nagpakasal	-5719
▁natuklasan	-5720
▁pagsasayaw	-5721
▁pahintulot	-5722
▁pamanhikan	-5723
▁panibagong	-5724
▁panitikang	-5725
▁prinsipeng	-5726
▁Isinalaysay	-5727
▁iginagalang	-5728
▁inihahandog	-5729
▁inspirasyon	-5730
▁nangangarap	-5731
▁pagpupulong	-5732
▁Maniwantiwan	-5733
▁Salamangkero	-5734
▁bungangkahoy	-5735
▁kinatatayuan	-5736
▁nagkahiwalay	-5737
▁paghihiganti	-5738
▁nagsasalaysay	-5739
▁pagpapahalaga	-5740
▁pakikipaglaban	-5741
):	-5742
9:	-5743
AS	-5744
AY	-5745
HH	-5746
II	-5747
In	-5748
NI	-5749
UN	-5750
sy	-5751
ua	-5752
▁,	-5753
▁c	-5754
All	-5755
And	-5756
Bal	-5757
Kay	-5758
LAK	-5759
Mam	-5760
Mas	-5761
PAG	-5762
Pag	-5763
Tut	-5764
agn	-5765
aly	-5766
apl	-5767
bah	-5768
cav	-5769
cia	-5770
cos	-5771
eho	-5772
emp	-5773
ibu	-5774
ice	-5775
ido	-5776
igi	-5777
kam	-5778
ket	-5779
mag	-5780
mar	-5781
may	-5782
nam	-5783
nap	-5784
obl	-5785
osa	-5786
owa	-5787
pag	-5788
pal	-5789
pap	-5790
ril	-5791
roc	-5792
sip	-5793
sod	-5794
ton	-5795
uba	-5796
ver	-5797
was	-5798
wid	-5799
yol	-5800
▁10	-5801
▁11	-5802
▁En	-5803
▁Hi	-5804
▁IV	-5805
▁Oy	-5806
▁re	-5807
▁ti	-5808
ANDA	-5809
Kasi	-5810
abon	-5811
abut	-5812
ador	-5813
agip	-5814
ahok	-5815
akal	-5816
akin	-5817
aksi	-5818
alau	-5819
alop	-5820
apwa	-5821
aris	-5822
atol	-5823
atub	-5824
awas	-5825
dand	-5826
echo	-5827
ekto	-5828
enan	-5829
enta	-5830
enus	-5831
eron	-5832
eryo	-5833
estr	-5834
etro	-5835
fina	-5836
hing	-5837
hiya	-5838
ibal	-5839
ibit	-5840
iham	-5841
iimb	-5842
ikim	-5843
ikip	-5844
ilok	-5845
imat	-5846
ipol	-5847
irio	-5848
itng	-5849
itre	-5850
iwag	-5851
iwil	-5852
lahi	-5853
lupa	-5854
mula	-5855
oche	-5856
oice	-5857
orin	-5858
payo	-5859
puti	-5860
rado	-5861
rami	-5862
seho	-5863
taon	-5864
ubli	-5865
ugso	-5866
ukod	-5867
ulag	-5868
ular	-5869
umba	-5870
unas	-5871
unud	-5872
urok	-5873
usad	-5874
usal	-5875
usaw	-5876
▁(19	-5877
▁...	-5878
▁Bah	-5879
▁DUN	-5880
▁Hab	-5881
▁Kur	-5882
▁Pah	-5883
▁Pil	-5884
▁Sib	-5885
▁Sis	-5886
▁Tao	-5887
▁Tar	-5888
▁Tok	-5889
▁Ton	-5890
▁Uri	-5891
▁aan	-5892
▁aks	-5893
▁ani	-5894
▁api	-5895
▁bud	-5896
▁dad	-5897
▁del	-5898
▁duk	-5899
▁emp	-5900
▁gar	-5901
▁gas	-5902
▁hap	-5903
▁ibo	-5904
▁iis	-5905
▁isk	-5906
▁iya	-5907
▁kut	-5908
▁pos	-5909
▁reh	-5910
▁tad	-5911
Galit	-5912
Gusto	-5913
Higit	-5914
aaway	-5915
abuti	-5916
adang	-5917
adpad	-5918
aglit	-5919
aksak	-5920
alaot	-5921
alina	-5922
alipo	-5923
angya	-5924
anhik	-5925
arami	-5926
arayo	-5927
arida	-5928
aruan	-5929
asyal	-5930
cavay	-5931
endag	-5932
engke	-5933
estro	-5934
giliw	-5935
idlan	-5936
impal	-5937
inaas	-5938
intab	-5939
ipapa	-5940
ipita	-5941
lawan	-5942
odoro	-5943
okawa	-5944
opiya	-5945
risto	-5946
sanga	-5947
tanaw	-5948
tuloy	-5949
ubdan	-5950
ubsob	-5951
uklok	-5952
uktot	-5953
umpok	-5954
ungis	-5955
upong	-5956
uulit	-5957
uutos	-5958
uwahe	-5959
yahan	-5960
yaman	-5961
yerno	-5962
▁Abot	-5963
▁Aila	-5964
▁Asya	-5965
▁Atis	-5966
▁Bata	-5967
▁Birh	-5968
▁Dugo	-5969
▁Gran	-5970
▁Haba	-5971
▁Ibon	-5972
▁Igin	-5973
▁Ilan	-5974
▁Impo	-5975
▁Kaig	-5976
▁Maru	-5977
▁Maya	-5978
▁Pagm	-5979
▁Sana	-5980
▁Seus	-5981
▁Sing	-5982
▁Tubo	-5983
▁Utos	-5984
▁Wari	-5985
▁amoy	-5986
▁asin	-5987
▁bany	-5988
▁baro	-5989
▁basa	-5990
▁bola	-5991
▁gabe	-5992
▁halo	-5993
▁hits	-5994
▁ingk	-5995
▁isas	-5996
▁itak	-5997
▁itat	-5998
▁itut	-5999
▁kaay	-6000
▁kump	-6001
▁lamp	-6002
▁luma	-6003
▁magw	-6004
▁mais	-6005
▁mali	-6006
▁mari	-6007
▁maya	-6008
▁mist	-6009
▁nati	-6010
▁over	-6011
▁pagn	-6012
▁paka	-6013
▁pili	-6014
▁plan	-6015
▁pray	-6016
▁samb	-6017
▁tamp	-6018
▁tant	-6019
▁tema	-6020
▁tore	-6021
▁tubo	-6022
▁tunt	-6023
▁usok	-6024
▁utop	-6025
▁uwak	-6026
Ingles	-6027
Tatayo	-6028
aantay	-6029
abagin	-6030
abalag	-6031
abawal	-6032
abuhay	-6033
abutan	-6034
agawan	-6035
aginan	-6036
ahanan	-6037
ahunan	-6038
akapit	-6039
akdang	-6040
alasap	-6041
alasik	-6042
alikod	-6043
alisan	-6044
aluhan	-6045
ambang	-6046
angako	-6047
anggal	-6048
araang	-6049
asaing	-6050
asanay	-6051
asundo	-6052
atanas	-6053
atanim	-6054
awahan	-6055
awirin	-6056
ayawan	-6057
dalang	-6058
dandan	-6059
hagang	-6060
hanang	-6061
ibalik	-6062
igmang	-6063
ihinal	-6064
iingat	-6065
ilabot	-6066
ilahin	-6067
ilikot	-6068
iluhan	-6069
inggil	-6070
inhing	-6071
inigil	-6072
inisid	-6073
iwasay	-6074
libong	-6075
oblema	-6076
okasta	-6077
orotan	-6078
ubhang	-6079
ugugol	-6080
ukuban	-6081
ulinig	-6082
uluhod	-6083
unurin	-6084
upling	-6085
urayan	-6086
usbong	-6087
uwagan	-6088
▁Beata	-6089
▁Cirio	-6090
▁Dahon	-6091
▁Dinar	-6092
▁Duhat	-6093
▁Epiko	-6094
▁GANDA	-6095
▁Ganda	-6096
▁Gener	-6097
▁Grupo	-6098
▁Kalik	-6099
▁Kanya	-6100
▁Krist	-6101
▁Lamut	-6102
▁Limay	-6103
▁Luzon	-6104
▁Makan	-6105
▁Malin	-6106
▁Miram	-6107
▁Nakal	-6108
▁Noche	-6109
▁Pablo	-6110
▁Padre	-6111
▁Pakik	-6112
▁Palay	-6113
▁Pinoy	-6114
▁Rabut	-6115
▁SIPAG	-6116
▁Sabay	-6117
▁Tanag	-6118
▁YAMAN	-6119
▁Yaman	-6120
▁alila	-6121
▁animo	-6122
▁anino	-6123
▁anito	-6124
▁antas	-6125
▁aruga	-6126
▁asong	-6127
▁balae	-6128
▁bangg	-6129
▁banig	-6130
▁biyas	-6131
▁dagta	-6132
▁gaano	-6133
▁galaw	-6134
▁gayun	-6135
▁gilid	-6136
▁gulay	-6137
▁hamon	-6138
▁hapag	-6139
▁hibik	-6140
▁hilaw	-6141
▁hinat	-6142
▁hinog	-6143
▁hipan	-6144
▁iiwan	-6145
▁kahin	-6146
▁kapan	-6147
▁kapup	-6148
▁kapus	-6149
▁karak	-6150
▁kawan	-6151
▁kinam	-6152
▁kiwil	-6153
▁kumot	-6154
▁kuwar	-6155
▁lalag	-6156
▁lalaw	-6157
▁lalim	-6158
▁layon	-6159
▁luksa	-6160
▁mabab	-6161
▁manin	-6162
▁mapam	-6163
▁marir	-6164
▁matul	-6165
▁nahan	-6166
▁napas	-6167
▁ngiti	-6168
▁pakir	-6169
▁parir	-6170
▁paris	-6171
▁saang	-6172
▁sakay	-6173
▁salam	-6174
▁salaw	-6175
▁salop	-6176
▁samyo	-6177
▁sipag	-6178
▁tanik	-6179
▁tapis	-6180
▁tatay	-6181
▁tingn	-6182
▁tinit	-6183
▁tunod	-6184
▁umano	-6185
▁yakap	-6186
▁yumao	-6187
Andrade	-6188
aalaala	-6189
abaihan	-6190
abayaan	-6191
akainin	-6192
akilang	-6193
alaglag	-6194
alatang	-6195
aligtas	-6196
amangka	-6197
angging	-6198
arinlan	-6199
awaglit	-6200
bansang	-6201
entuhan	-6202
ilinang	-6203
ilingon	-6204
imagsik	-6205
indihan	-6206
irasong	-6207
isipang	-6208
iwalang	-6209
labanan	-6210
masyong	-6211
otabato	-6212
ubungin	-6213
udyante	-6214
ugunita	-6215
uhangin	-6216
ukulang	-6217
umunuan	-6218
utulong	-6219
▁Aanhin	-6220
▁Androm	-6221
▁Baysay	-6222
▁DUNONG	-6223
▁Farida	-6224
▁Impong	-6225
▁Ipinas	-6226
▁Iskong	-6227
▁Kagand	-6228
▁Magtat	-6229
▁Naiwan	-6230
▁Pagtat	-6231
▁Romano	-6232
▁Silang	-6233
▁Sileno	-6234
▁bahala	-6235
▁bantay	-6236
▁dumaan	-6237
▁dumalo	-6238
▁hangga	-6239
▁humina	-6240
▁ibigin	-6241
▁ihanda	-6242
▁ihatid	-6243
▁inumin	-6244
▁isipin	-6245
▁itinat	-6246
▁kahima	-6247
▁kalong	-6248
▁kaunti	-6249
▁kukong	-6250
▁kwento	-6251
▁lagyan	-6252
▁lalung	-6253
▁lambak	-6254
▁langis	-6255
▁lanubo	-6256
▁layang	-6257
▁lingap	-6258
▁linggo	-6259
▁lumayo	-6260
▁mabisa	-6261
▁madula	-6262
▁magbub	-6263
▁magdar	-6264
▁mahaba	-6265
▁mahika	-6266
▁maingg	-6267
▁mamuno	-6268
▁manang	-6269
▁mapagt	-6270
▁mapili	-6271
▁masabi	-6272
▁nagapi	-6273
▁nagbib	-6274
▁nagkat	-6275
▁nagpak	-6276
▁nagsil	-6277
▁namuno	-6278
▁nangas	-6279
▁napili	-6280
▁natuto	-6281
▁ngipin	-6282
▁orasan	-6283
▁pampan	-6284
▁panaho	-6285
▁pasiya	-6286
▁pastol	-6287
▁pating	-6288
▁patula	-6289
▁paulit	-6290
▁pinili	-6291
▁punung	-6292
▁putong	-6293
▁sabing	-6294
▁sayang	-6295
▁silong	-6296
▁sindak	-6297
▁trumpo	-6298
▁tumira	-6299
▁tumpak	-6300
▁umaasa	-6301
▁unahan	-6302
alambing	-6303
alathala	-6304
aligtaan	-6305
alimuyak	-6306
alinhaga	-6307
apatayin	-6308
apaunlad	-6309
atanging	-6310
awakawak	-6311
aysayang	-6312
ihinging	-6313
ingganda	-6314
lalakbay	-6315
ukuwento	-6316
ulantang	-6317
urusahan	-6318
▁Abuhing	-6319
▁Basahin	-6320
▁Bulusan	-6321
▁Bungang	-6322
▁Datapwa	-6323
▁Donggon	-6324
▁Elenang	-6325
▁Ginamit	-6326
▁Ikaapat	-6327
▁Ikalawa	-6328
▁Ilianon	-6329
▁Kapitan	-6330
▁Larawan	-6331
▁Mabigat	-6332
▁Mabuhay	-6333
▁Magmula	-6334
▁Mariano	-6335
▁Masarap	-6336
▁Matanda	-6337
▁Munting	-6338
▁Nagulat	-6339
▁Pablito	-6340
▁Patuloy	-6341
▁Pumunta	-6342
▁Sampung	-6343
▁Satanas	-6344
▁Sicavay	-6345
▁Sumpain	-6346
▁Teodoro	-6347
▁Toniong	-6348
▁Tumango	-6349
▁Walayin	-6350
▁alapaap	-6351
▁bagamat	-6352
▁bandang	-6353
▁bayaang	-6354
▁baywang	-6355
▁bituing	-6356
▁dagitin	-6357
▁diumano	-6358
▁ginamot	-6359
▁ginugol	-6360
▁gitnang	-6361
▁gumamit	-6362
▁hanggan	-6363
▁hatulan	-6364
▁hinango	-6365
▁hiniram	-6366
▁hinubog	-6367
▁hitsura	-6368
▁humanga	-6369
▁humilig	-6370
▁hustong	-6371
▁huwaran	-6372
▁inaawit	-6373
▁ingkong	-6374
▁isipang	-6375
▁kabuuan	-6376
▁kadahil	-6377
▁kahanga	-6378
▁kahawig	-6379
▁kaparis	-6380
▁kasunod	-6381
▁laganap	-6382
▁langgam	-6383
▁laruang	-6384
▁ligalig	-6385
▁luntian	-6386
▁mabagal	-6387
▁maestro	-6388
▁magiliw	-6389
▁magtago	-6390
▁makisig	-6391
▁malapad	-6392
▁malasin	-6393
▁mapatid	-6394
▁matakot	-6395
▁matigas	-6396
▁matinik	-6397
▁matulin	-6398
▁nabihag	-6399
▁nagbago	-6400
▁naglaho	-6401
▁nagturo	-6402
▁nagwika	-6403
▁nakapan	-6404
▁nanatak	-6405
▁napagod	-6406
▁napakat	-6407
▁napatid	-6408
▁nariyan	-6409
▁natupad	-6410
▁ninuman	-6411
▁nunukal	-6412
▁pabango	-6413
▁pagdaka	-6414
▁paitaas	-6415
▁palayaw	-6416
▁papaano	-6417
▁papayag	-6418
▁papunta	-6419
▁pinagka	-6420
▁pinilit	-6421
▁plumahe	-6422
▁pumatay	-6423
▁reynong	-6424
▁sapitin	-6425
▁sayawan	-6426
▁sinagot	-6427
▁sinapup	-6428
▁sinulat	-6429
▁sistema	-6430
▁tanglaw	-6431
▁taniman	-6432
▁tinipon	-6433
▁tumakas	-6434
▁tungkod	-6435
▁ulilang	-6436
ahanggang	-6437
alagtasan	-6438
alatayang	-6439
anggalang	-6440
anggaling	-6441
anggunian	-6442
ihinatnan	-6443
ihinayang	-6444
intakutan	-6445
▁Baltazar	-6446
▁Doronoon	-6447
▁Espanyol	-6448
▁Gayundin	-6449
▁Halamang	-6450
▁Hilagang	-6451
▁Hiniling	-6452
▁Kalabasa	-6453
▁Kalayaan	-6454
▁Kampupot	-6455
▁Karaniwa	-6456
▁Kristong	-6457
▁Mabuting	-6458
▁Mahalaga	-6459
▁Makikita	-6460
▁Mangyari	-6461
▁Menalipo	-6462
▁Nagbalik	-6463
▁Naghanda	-6464
▁Nakilala	-6465
▁Namalagi	-6466
▁Tanagyaw	-6467
▁Tumulong	-6468
▁balangay	-6469
▁binuksan	-6470
▁buhangin	-6471
▁bulubund	-6472
▁bunganga	-6473
▁daraanan	-6474
▁engkanto	-6475
▁gobyerno	-6476
▁gumagala	-6477
▁guniguni	-6478
▁halakhak	-6479
▁hangarin	-6480
▁hinagkan	-6481
▁hinintay	-6482
▁inutusan	-6483
▁itinanim	-6484
▁kabaitan	-6485
▁kampilan	-6486
▁karuwahe	-6487
▁kawikaan	-6488
▁lumalang	-6489
▁lumangoy	-6490
▁luntiang	-6491
▁mababasa	-6492
▁magbunga	-6493
▁magiting	-6494
▁magtuloy	-6495
▁maibigan	-6496
▁maikling	-6497
▁makapags	-6498
▁makipagk	-6499
▁malambot	-6500
▁malayang	-6501
▁minokawa	-6502
▁nagagawa	-6503
▁nagbuhat	-6504
▁naghirap	-6505
▁naglilip	-6506
▁nagpapas	-6507
▁nagpasya	-6508
▁nagtatag	-6509
▁nakitang	-6510
▁nalalabi	-6511
▁natirang	-6512
▁ninanais	-6513
▁pabareal	-6514
▁pabigkas	-6515
▁pagliyag	-6516
▁pagsikat	-6517
▁pagtulog	-6518
▁pagtupad	-6519
▁palengke	-6520
▁pamahala	-6521
▁pangahas	-6522
▁panghabi	-6523
▁pinakain	-6524
▁piyesang	-6525
▁pulubing	-6526
▁sabihing	-6527
▁sinabing	-6528
▁talangka	-6529
▁talipapa	-6530
▁tangkang	-6531
▁tanungin	-6532
▁tinamong	-6533
▁titingin	-6534
▁tugtugin	-6535
▁tumanggi	-6536
▁tumutubo	-6537
agkaibigan	-6538
atutunayan	-6539
uwalhating	-6540
▁Amburayan	-6541
▁Karamihan	-6542
▁Krotonang	-6543
▁Miramolin	-6544
▁Nabanggit	-6545
▁Nagtanong	-6546
▁Pakinggan	-6547
▁Sandaling	-6548
▁bahagyang	-6549
▁banggitin	-6550
▁binanggit	-6551
▁gumaganap	-6552
▁hangganan	-6553
▁ibinalita	-6554
▁ipinadala	-6555
▁kabukiran	-6556
▁kalawakan	-6557
▁kalupitan	-6558
▁kasabihan	-6559
▁kasagutan	-6560
▁kaunlaran	-6561
▁kumikilos	-6562
▁lansangan	-6563
▁lumalapit	-6564
▁maginhawa	-6565
▁magkaanak	-6566
▁mahinhing	-6567
▁makalipad	-6568
▁makatulog	-6569
▁malalapad	-6570
▁mananakaw	-6571
▁maririkit	-6572
▁masasarap	-6573
▁masilayan	-6574
▁matagpuan	-6575
▁maunawaan	-6576
▁nababatid	-6577
▁nagaganap	-6578
▁nagigipit	-6579
▁nagugutom	-6580
▁nakahanda	-6581
▁nakalaban	-6582
▁nasilayan	-6583
▁natatanaw	-6584
▁paglililo	-6585
▁pagsasabi	-6586
▁pagsasama	-6587
▁pagtulong	-6588
▁pakakasal	-6589
▁pakinggan	-6590
▁pangalang	-6591
▁parusahan	-6592
▁pasalamat	-6593
▁patawarin	-6594
▁pinagpala	-6595
▁pinipitas	-6596
▁pinuhunan	-6597
▁relihiyon	-6598
▁sasakyang	-6599
▁tumutukoy	-6600
aniniwalaan	-6601
▁Ipinatawag	-6602
▁Kaigorotan	-6603
▁Kalahating	-6604
▁Pagmamahal	-6605
▁Panganiban	-6606
▁Panitikang	-6607
▁Pinuntahan	-6608
▁Saridandan	-6609
▁alimangong	-6610
▁binantayan	-6611
▁dumarating	-6612
▁estudyante	-6613
▁hinihiling	-6614
▁ipinahayag	-6615
▁itinanghal	-6616
▁kababaihan	-6617
▁kababayang	-6618
▁kaparangan	-6619
▁katunggali	-6620
▁kumikinang	-6621
▁linggatong	-6622
▁mabalitaan	-6623
▁magagaling	-6624
▁magbabalik	-6625
▁magbibigay	-6626
▁maghiwalay	-6627
▁magigiting	-6628
▁magtotroso	-6629
▁makatulong	-6630
▁maligayang	-6631
▁mapapansin	-6632
▁maramdamin	-6633
▁matuklasan	-6634
▁matulungan	-6635
▁nabibilang	-6636
▁nagduruyan	-6637
▁naghihirap	-6638
▁naglalahad	-6639
▁nalilimbag	-6640
▁naramdaman	-6641
▁pagbibigay	-6642
▁paghahanda	-6643
▁paghihirap	-6644
▁pagkakaiba	-6645
▁paglalakad	-6646
▁paglalayag	-6647
▁pagtanggap	-6648
▁pagtitipon	-6649
▁pakiramdam	-6650
▁panambitan	-6651
▁pananalita	-6652
▁pangangaso	-6653
▁pinangalan	-6654
▁talampakan	-6655
▁tinulungan	-6656
▁tradisyong	-6657
▁Ipinagtapat	-6658
▁Kahalagahan	-6659
▁karunungang	-6660
▁katungkulan	-6661
▁mainggiting	-6662
▁mapangasawa	-6663
▁nagkakaroon	-6664
▁nakalimutan	-6665
▁nangungusap	-6666
▁napakaganda	-6667
▁pagdaralita	-6668
▁pagkagising	-6669
▁pakakasalan	-6670
▁panghikayat	-6671
▁pinarusahan	-6672
▁Ipinaliwanag	-6673
▁engkantadong	-6674
▁ikinabubuhay	-6675
▁inilalarawan	-6676
▁ipinagkaloob	-6677
▁kinalalagyan	-6678
▁labingwalong	-6679
▁mandirigmang	-6680
▁nagmistulang	-6681
▁nagngangalit	-6682
▁nagpapahayag	-6683
▁nararamdaman	-6684
▁pagpapakasal	-6685
▁patutunguhan	-6686
▁Lalapindigowa	-6687
▁instrumentong	-6688
▁ipinagpatuloy	-6689
▁nagpapakilala	-6690
▁tagapagligtas	-6691
▁kapangyarihang	-6692
▁pinagkautangan	-6693
▁pangangailangan	-6694
3:	-6695
Ar	-6696
GA	-6697
Is	-6698
ce	-6699
ez	-6700
ll	-6701
pi	-6702
uu	-6703
va	-6704
▁v	-6705
!!!	-6706
,00	-6707
Dum	-6708
Hum	-6709
Low	-6710
Mak	-6711
Man	-6712
Nag	-6713
Nap	-6714
Nat	-6715
Nin	-6716
Opo	-6717
Pin	-6718
Sap	-6719
Sas	-6720
Sig	-6721
Sin	-6722
ani	-6723
any	-6724
ast	-6725
ate	-6726
atn	-6727
ayu	-6728
bas	-6729
bid	-6730
big	-6731
dar	-6732
def	-6733
ekt	-6734
ese	-6735
esp	-6736
gil	-6737
him	-6738
iki	-6739
ion	-6740
ipa	-6741
iph	-6742
ite	-6743
iyo	-6744
lin	-6745
lod	-6746
lum	-6747
mok	-6748
ond	-6749
ook	-6750
ort	-6751
oso	-6752
pin	-6753
pok	-6754
sar	-6755
ser	-6756
sil	-6757
tog	-6758
uad	-6759
uda	-6760
uer	-6761
ugb	-6762
ule	-6763
uma	-6764
uoy	-6765
urg	-6766
uum	-6767
wat	-6768
▁12	-6769
▁1:	-6770
▁2:	-6771
▁Ch	-6772
▁Iw	-6773
▁Ku	-6774
▁Re	-6775
▁To	-6776
▁Ya	-6777
▁ir	-6778
▁kr	-6779
▁oy	-6780
▁ug	-6781
!...	-6782
,000	-6783
Anak	-6784
Ilog	-6785
Mbgl	-6786
Miya	-6787
Naku	-6788
Pero	-6789
Sino	-6790
Taga	-6791
aala	-6792
abab	-6793
ahed	-6794
ahid	-6795
ahis	-6796
akik	-6797
angi	-6798
apab	-6799
asim	-6800
asyo	-6801
atil	-6802
ayom	-6803
daan	-6804
ecto	-6805
elan	-6806
entr	-6807
epub	-6808
erpe	-6809
ersa	-6810
ethe	-6811
gawa	-6812
ibak	-6813
ibok	-6814
ibug	-6815
ikaw	-6816
ikin	-6817
inda	-6818
inog	-6819
inoo	-6820
isis	-6821
leng	-6822
nais	-6823
onso	-6824
rero	-6825
reto	-6826
ribo	-6827
rita	-6828
sari	-6829
sura	-6830
trab	-6831
ubin	-6832
udla	-6833
uela	-6834
ugal	-6835
ugaw	-6836
ugto	-6837
uipo	-6838
ukab	-6839
umig	-6840
umon	-6841
ungh	-6842
upin	-6843
urno	-6844
urol	-6845
usok	-6846
uyot	-6847
uyur	-6848
yena	-6849
yoso	-6850
▁Aya	-6851
▁Bar	-6852
▁Buw	-6853
▁Cag	-6854
▁Cap	-6855
▁Day	-6856
▁Eto	-6857
▁Huh	-6858
▁Ing	-6859
▁Iya	-6860
▁Kad	-6861
▁Kaw	-6862
▁Mac	-6863
▁Mel	-6864
▁Nai	-6865
▁Per	-6866
▁Pup	-6867
▁Sur	-6868
▁Teb	-6869
▁Tig	-6870
▁Tom	-6871
▁Umi	-6872
▁Val	-6873
▁Vic	-6874
▁amb	-6875
▁amp	-6876
▁bik	-6877
▁dap	-6878
▁dir	-6879
▁esk	-6880
▁gam	-6881
▁gig	-6882
▁hag	-6883
▁hid	-6884
▁hud	-6885
▁iwi	-6886
▁lak	-6887
▁law	-6888
▁lus	-6889
▁lut	-6890
▁rad	-6891
▁tip	-6892
▁tir	-6893
Anong	-6894
Bayan	-6895
Buong	-6896
Dahan	-6897
Iiyak	-6898
Iyong	-6899
Lahat	-6900
Mahal	-6901
aalab	-6902
aalin	-6903
aanim	-6904
abawi	-6905
abaya	-6906
abigo	-6907
adlad	-6908
adlak	-6909
adtad	-6910
aglag	-6911
agpak	-6912
ainan	-6913
ainit	-6914
alsik	-6915
ambog	-6916
amiha	-6917
amnan	-6918
anaag	-6919
anaig	-6920
anasa	-6921
angga	-6922
angka	-6923
anood	-6924
antas	-6925
antok	-6926
apuan	-6927
apula	-6928
arhan	-6929
arpio	-6930
atriz	-6931
awagi	-6932
ayani	-6933
ayari	-6934
bagay	-6935
bisig	-6936
eksto	-6937
hanga	-6938
hindi	-6939
ibigo	-6940
ibili	-6941
idang	-6942
igang	-6943
iklab	-6944
ikman	-6945
imawa	-6946
imbar	-6947
imlim	-6948
indol	-6949
indra	-6950
inggo	-6951
ingon	-6952
intal	-6953
ipagt	-6954
ipana	-6955
irapa	-6956
isong	-6957
itain	-6958
iyata	-6959
iyong	-6960
kamay	-6961
kasan	-6962
labis	-6963
lanca	-6964
lilis	-6965
linga	-6966
lipat	-6967
mundo	-6968
nayon	-6969
ormal	-6970
tapat	-6971
torya	-6972
ugmok	-6973
ukano	-6974
uklas	-6975
uklay	-6976
ulain	-6977
ulano	-6978
umpak	-6979
umpas	-6980
unday	-6981
ungal	-6982
unyag	-6983
usyon	-6984
uyasu	-6985
ythag	-6986
▁Alim	-6987
▁Apat	-6988
▁Ilaw	-6989
▁Kano	-6990
▁Kasi	-6991
▁Kast	-6992
▁Kund	-6993
▁Lamb	-6994
▁Lola	-6995
▁Lolo	-6996
▁Magu	-6997
▁Napa	-6998
▁Pagh	-6999
▁Pagp	-7000
▁Paru	-7001
▁Pebo	-7002
▁Poon	-7003
▁Pulo	-7004
▁Sakb	-7005
▁Sama	-7006
▁Samb	-7007
▁Sige	-7008
▁Tama	-7009
▁Tata	-7010
▁Yamb	-7011
▁baha	-7012
▁base	-7013
▁bend	-7014
▁bulo	-7015
▁daig	-7016
▁dumi	-7017
▁gulo	-7018
▁ihip	-7019
▁ikab	-7020
▁ikag	-7021
▁inis	-7022
▁itso	-7023
▁kaal	-7024
▁kapa	-7025
▁kati	-7026
▁kays	-7027
▁kuko	-7028
▁laro	-7029
▁liku	-7030
▁lins	-7031
▁lira	-7032
▁magn	-7033
▁maiw	-7034
▁mano	-7035
▁myth	-7036
▁pano	-7037
▁puma	-7038
▁pusa	-7039
▁ramo	-7040
▁real	-7041
▁sant	-7042
▁serp	-7043
▁sige	-7044
▁sinl	-7045
▁sira	-7046
▁solo	-7047
▁sugo	-7048
▁susi	-7049
▁tamb	-7050
▁tuka	-7051
▁ubos	-7052
▁uhay	-7053
▁walo	-7054
Halina	-7055
Iaayon	-7056
Lalaki	-7057
Mabuti	-7058
Parang	-7059
Walang	-7060
aalaga	-7061
aanang	-7062
abayad	-7063
abugan	-7064
abulan	-7065
abusaw	-7066
agawin	-7067
agisag	-7068
ahaman	-7069
ahawak	-7070
ahinto	-7071
alakal	-7072
alakan	-7073
alamig	-7074
alanan	-7075
alanin	-7076
alasan	-7077
alasin	-7078
alaueg	-7079
alawak	-7080
alayas	-7081
alayaw	-7082
aligan	-7083
alikan	-7084
alikha	-7085
amahin	-7086
amalay	-7087
amanan	-7088
ampung	-7089
andili	-7090
antaon	-7091
anting	-7092
arapin	-7093
arlika	-7094
aspang	-7095
atahan	-7096
atangi	-7097
ataong	-7098
ayanig	-7099
ayaran	-7100
eksyon	-7101
eriana	-7102
etheus	-7103
hambal	-7104
idilim	-7105
igyang	-7106
iimbot	-7107
ikaing	-7108
ikulan	-7109
ilinan	-7110
imatay	-7111
ipigil	-7112
isigla	-7113
isinta	-7114
itngit	-7115
iyawan	-7116
kasama	-7117
kislap	-7118
lutang	-7119
masaya	-7120
parong	-7121
sindak	-7122
ubukan	-7123
ugasan	-7124
uluwal	-7125
umihan	-7126
umpaan	-7127
ungkal	-7128
untung	-7129
unugin	-7130
unuran	-7131
utlang	-7132
uunlad	-7133
wiling	-7134
yaring	-7135
▁Adlaw	-7136
▁Asong	-7137
▁Ating	-7138
▁Ayoko	-7139
▁Bikol	-7140
▁Binab	-7141
▁Bukal	-7142
▁Dahan	-7143
▁Edipo	-7144
▁Gawin	-7145
▁Gubat	-7146
▁Handa	-7147
▁Hayop	-7148
▁Hirap	-7149
▁Ibang	-7150
▁Ildef	-7151
▁Kabal	-7152
▁Kayum	-7153
▁Likas	-7154
▁Lumul	-7155
▁Luson	-7156
▁Maawa	-7157
▁Mapat	-7158
▁Nanay	-7159
▁Odang	-7160
▁Panga	-7161
▁Pasko	-7162
▁Pilar	-7163
▁Polin	-7164
▁Repub	-7165
▁Santo	-7166
▁Tapat	-7167
▁Tatlo	-7168
▁Tuloy	-7169
▁Waray	-7170
▁alkon	-7171
▁anupa	-7172
▁baliw	-7173
▁balot	-7174
▁banta	-7175
▁batay	-7176
▁bingi	-7177
▁bisyo	-7178
▁bitui	-7179
▁budhi	-7180
▁dapit	-7181
▁dawag	-7182
▁dayap	-7183
▁dinad	-7184
▁dinig	-7185
▁doong	-7186
▁dukha	-7187
▁dulot	-7188
▁emper	-7189
▁gayak	-7190
▁ginag	-7191
▁hatid	-7192
▁hinig	-7193
▁hiram	-7194
▁hitik	-7195
▁huwad	-7196
▁ipagl	-7197
▁ispir	-7198
▁kaany	-7199
▁kahon	-7200
▁kaita	-7201
▁kakat	-7202
▁kasoy	-7203
▁katan	-7204
▁kinas	-7205
▁kisap	-7206
▁kisig	-7207
▁kolon	-7208
▁lalam	-7209
▁lawak	-7210
▁lente	-7211
▁libis	-7212
▁lulan	-7213
▁lumil	-7214
▁maawa	-7215
▁madad	-7216
▁magpa	-7217
▁mamum	-7218
▁matim	-7219
▁multo	-7220
▁naawa	-7221
▁nakah	-7222
▁nanay	-7223
▁nanga	-7224
▁nanun	-7225
▁napip	-7226
▁nuong	-7227
▁pader	-7228
▁panay	-7229
▁panun	-7230
▁panyo	-7231
▁paral	-7232
▁pares	-7233
▁parte	-7234
▁pasan	-7235
▁pinaa	-7236
▁pinal	-7237
▁pinan	-7238
▁plasa	-7239
▁pulos	-7240
▁pumup	-7241
▁sakim	-7242
▁saksi	-7243
▁setro	-7244
▁sikap	-7245
▁supil	-7246
▁suson	-7247
▁takbo	-7248
▁tanod	-7249
▁tanso	-7250
▁tikas	-7251
▁tindi	-7252
▁titik	-7253
▁torso	-7254
▁trigo	-7255
▁tugma	-7256
▁unawa	-7257
▁yagit	-7258
Ituturo	-7259
Papasok	-7260
Pupunta	-7261
aanyong	-7262
abasang	-7263
abihing	-7264
agmulan	-7265
agpalit	-7266
agulang	-7267
ahangga	-7268
ahihiya	-7269
akitaan	-7270
alamuha	-7271
alisang	-7272
ambibig	-7273
andaang	-7274
andugan	-7275
apakpak	-7276
apiling	-7277
apusang	-7278
araming	-7279
arangal	-7280
arawang	-7281
ariwara	-7282
asayang	-7283
asmasan	-7284
atakpan	-7285
atangis	-7286
awagang	-7287
awalang	-7288
awangis	-7289
estrong	-7290
inggang	-7291
intasan	-7292
intayin	-7293
intulad	-7294
isipsip	-7295
lawigan	-7296
trabida	-7297
ukadkad	-7298
ukuyang	-7299
umiglas	-7300
ustuhin	-7301
▁Alaala	-7302
▁Anding	-7303
▁Apollo	-7304
▁Banlak	-7305
▁Batang	-7306
▁Blanca	-7307
▁Buhong	-7308
▁Carpio	-7309
▁Dakila	-7310
▁Dalawa	-7311
▁Dumaan	-7312
▁Ganito	-7313
▁Ganoon	-7314
▁Halina	-7315
▁Hangin	-7316
▁Ikatlo	-7317
▁Ilongo	-7318
▁Ipugaw	-7319
▁Kailan	-7320
▁Kidlat	-7321
▁Kikong	-7322
▁Kilala	-7323
▁Kinain	-7324
▁Kristo	-7325
▁Kuaman	-7326
▁Kuyasu	-7327
▁Lakand	-7328
▁Layang	-7329
▁Limang	-7330
▁Linggo	-7331
▁Lunsod	-7332
▁Mabini	-7333
▁Malayo	-7334
▁Masdan	-7335
▁Mataas	-7336
▁Medusa	-7337
▁Nagtat	-7338
▁Niyong	-7339
▁Pabula	-7340
▁Perlas	-7341
▁Pythag	-7342
▁Sariwa	-7343
▁Toyang	-7344
▁Tuwing	-7345
▁Umahon	-7346
▁Umiyak	-7347
▁Victor	-7348
▁Yuyuko	-7349
▁abutin	-7350
▁agimat	-7351
▁anghel	-7352
▁bagama	-7353
▁balana	-7354
▁balite	-7355
▁balong	-7356
▁bating	-7357
▁bihasa	-7358
▁bilhin	-7359
▁bisita	-7360
▁bumuka	-7361
▁damdam	-7362
▁damhin	-7363
▁dangan	-7364
▁datung	-7365
▁dumami	-7366
▁dumapo	-7367
▁eksena	-7368
▁estilo	-7369
▁ganang	-7370
▁garuda	-7371
▁giting	-7372
▁halama	-7373
▁haligi	-7374
▁halong	-7375
▁hangal	-7376
▁hapong	-7377
▁higaan	-7378
▁hingin	-7379
▁hinhin	-7380
▁hudyat	-7381
▁ibalik	-7382
▁ikmong	-7383
▁imahin	-7384
▁imbing	-7385
▁inutos	-7386
▁inuuna	-7387
▁ipuipo	-7388
▁isinas	-7389
▁itsura	-7390
▁iwanan	-7391
▁kaginh	-7392
▁kagyat	-7393
▁kalahi	-7394
▁kanino	-7395
▁kataka	-7396
▁kumita	-7397
▁kumpas	-7398
▁lobong	-7399
▁lugami	-7400
▁maaliw	-7401
▁madugo	-7402
▁magkar	-7403
▁magkat	-7404
▁magpak	-7405
▁malaon	-7406
▁mamili	-7407
▁mapagl	-7408
▁mapaso	-7409
▁masawi	-7410
▁masira	-7411
▁matuto	-7412
▁mulala	-7413
▁naglul	-7414
▁nagnin	-7415
▁nagtut	-7416
▁nahati	-7417
▁nakang	-7418
▁nakuha	-7419
▁naluto	-7420
▁napapa	-7421
▁nasira	-7422
▁natalo	-7423
▁natamo	-7424
▁natuwa	-7425
▁nayong	-7426
▁ninais	-7427
▁ningas	-7428
▁pagbub	-7429
▁pagkam	-7430
▁pakana	-7431
▁palalo	-7432
▁palong	-7433
▁papuri	-7434
▁perang	-7435
▁piitan	-7436
▁piping	-7437
▁saklap	-7438
▁sakong	-7439
▁sariwa	-7440
▁sawing	-7441
▁siguro	-7442
▁singaw	-7443
▁subali	-7444
▁sumang	-7445
▁sumira	-7446
▁tagdan	-7447
▁taning	-7448
▁tatayo	-7449
▁tindig	-7450
▁tiniis	-7451
▁tiyaga	-7452
▁trahed	-7453
▁tumama	-7454
▁tumula	-7455
▁tuwina	-7456
▁tuyong	-7457
▁umakay	-7458
▁umisip	-7459
▁usbong	-7460
▁utopia	-7461
▁winika	-7462
Sapagkat	-7463
aakalang	-7464
aginipan	-7465
ahambing	-7466
akatawan	-7467
akawalan	-7468
amakaawa	-7469
amanglaw	-7470
apakinig	-7471
apatayan	-7472
apatuloy	-7473
atanghal	-7474
bersyong	-7475
ikitungo	-7476
ilanlang	-7477
ilimutan	-7478
ingkuran	-7479
ipitagan	-7480
libingan	-7481
pirasong	-7482
sarimbar	-7483
ugaliang	-7484
ugtungan	-7485
umingiti	-7486
▁Bandina	-7487
▁Bantong	-7488
▁Bitiwan	-7489
▁Cagayan	-7490
▁Dinggin	-7491
▁Gagamba	-7492
▁Gintong	-7493
▁Granada	-7494
▁Haharap	-7495
▁Hinugot	-7496
▁Humanda	-7497
▁Humingi	-7498
▁Ikalima	-7499
▁Ilukano	-7500
▁Itinuro	-7501
▁Kulaman	-7502
▁Lumipad	-7503
▁Mahalin	-7504
▁Malapit	-7505
▁Malinaw	-7506
▁Masakit	-7507
▁Naalala	-7508
▁Nabuhay	-7509
▁Nakinig	-7510
▁Nanging	-7511
▁Napatay	-7512
▁Palayok	-7513
▁Pinakam	-7514
▁Pinasan	-7515
▁Pupunta	-7516
▁Selyang	-7517
▁Tinipon	-7518
▁Tumalon	-7519
▁Yokasta	-7520
▁akalain	-7521
▁alagaan	-7522
▁bagoong	-7523
▁bagyong	-7524
▁bahagya	-7525
▁balabal	-7526
▁batayan	-7527
▁batisan	-7528
▁binuhay	-7529
▁biyenan	-7530
▁buntong	-7531
▁buwitre	-7532
▁dagling	-7533
▁datapwa	-7534
▁dumatal	-7535
▁dustang	-7536
▁gamitin	-7537
▁gandang	-7538
▁gasatan	-7539
▁gumugol	-7540
▁handaan	-7541
▁hangaan	-7542
▁hayaang	-7543
▁hinggil	-7544
▁hulihin	-7545
▁humanap	-7546
▁humanda	-7547
▁huminto	-7548
▁iisipin	-7549
▁ikaapat	-7550
▁ilibing	-7551
▁indayog	-7552
▁isilang	-7553
▁kalahok	-7554
▁kalasag	-7555
▁kalinga	-7556
▁kanayon	-7557
▁kandila	-7558
▁kapilas	-7559
▁karamay	-7560
▁karayom	-7561
▁karibal	-7562
▁kinapap	-7563
▁konseho	-7564
▁kristal	-7565
▁kuwarto	-7566
▁lagapak	-7567
▁lalakad	-7568
▁leghorn	-7569
▁letrang	-7570
▁lilipad	-7571
▁linyang	-7572
▁lumaban	-7573
▁lumakas	-7574
▁lumipat	-7575
▁lumukso	-7576
▁lunting	-7577
▁mabango	-7578
▁mabigat	-7579
▁maganap	-7580
▁magbago	-7581
▁magsing	-7582
▁mahigit	-7583
▁makamit	-7584
▁makapal	-7585
▁makasal	-7586
▁makipag	-7587
▁makipan	-7588
▁malagim	-7589
▁malalag	-7590
▁malilim	-7591
▁malusog	-7592
▁maluwag	-7593
▁maluwat	-7594
▁mamuhay	-7595
▁mamulat	-7596
▁mangang	-7597
▁mangung	-7598
▁mapapal	-7599
▁matanaw	-7600
▁matatap	-7601
▁mawalay	-7602
▁mistula	-7603
▁musikal	-7604
▁naaakit	-7605
▁nabuwal	-7606
▁nagkita	-7607
▁nagsama	-7608
▁nagtago	-7609
▁nahabag	-7610
▁nakalul	-7611
▁nakamit	-7612
▁nakatat	-7613
▁nakipag	-7614
▁namunga	-7615
▁nangagl	-7616
▁nanguha	-7617
▁natigil	-7618
▁natulog	-7619
▁naulila	-7620
▁nauukol	-7621
▁negrita	-7622
▁nilisan	-7623
▁nilusob	-7624
▁paanong	-7625
▁pabalik	-7626
▁pagtula	-7627
▁paharap	-7628
▁palihim	-7629
▁palitan	-7630
▁pambata	-7631
▁panangh	-7632
▁pangang	-7633
▁pangkas	-7634
▁panitik	-7635
▁papalit	-7636
▁paraiso	-7637
▁patawad	-7638
▁pautang	-7639
▁pinakas	-7640
▁pumitas	-7641
▁pumutok	-7642
▁pumutol	-7643
▁putulin	-7644
▁rehiyon	-7645
▁sagutin	-7646
▁sikreto	-7647
▁sinapit	-7648
▁sinulid	-7649
▁sisikat	-7650
▁sumayaw	-7651
▁sumpaan	-7652
▁sumulat	-7653
▁tandaan	-7654
▁tangang	-7655
▁tantuin	-7656
▁timbang	-7657
▁tinungo	-7658
▁tirahan	-7659
▁tumungo	-7660
▁tumupad	-7661
aklolohan	-7662
alamutian	-7663
andayuhan	-7664
apagaling	-7665
otohanang	-7666
▁Bantawan	-7667
▁Bikulano	-7668
▁Bukidnon	-7669
▁Darangan	-7670
▁Gayunman	-7671
▁Hinampas	-7672
▁Isinulat	-7673
▁Josefina	-7674
▁Kabataan	-7675
▁Kaluluwa	-7676
▁Kasopiya	-7677
▁Katauhan	-7678
▁Macarang	-7679
▁Magbuhat	-7680
▁Malaking	-7681
▁Mindanaw	-7682
▁Naglaban	-7683
▁Nagyakap	-7684
▁Naisipan	-7685
▁Palayain	-7686
▁Persyano	-7687
▁Pinakain	-7688
▁Polinese	-7689
▁Sakbawan	-7690
▁adhikain	-7691
▁alaalang	-7692
▁alinmang	-7693
▁balahibo	-7694
▁bibigyan	-7695
▁bigkasan	-7696
▁butihing	-7697
▁dinatnan	-7698
▁diyosang	-7699
▁etnikong	-7700
▁gagapang	-7701
▁gumaling	-7702
▁gumising	-7703
▁gumulang	-7704
▁halagang	-7705
▁himalang	-7706
▁isaalang	-7707
▁isinabit	-7708
▁isinabog	-7709
▁isinulat	-7710
▁ispiritu	-7711
▁itinapon	-7712
▁kaayusan	-7713
▁kabiguan	-7714
▁kahambal	-7715
▁kahapong	-7716
▁kahirapa	-7717
▁kakaunti	-7718
▁kalakhan	-7719
▁kalayuan	-7720
▁kapiling	-7721
▁karakter	-7722
▁karaniwa	-7723
▁katagang	-7724
▁katuwira	-7725
▁kwentong	-7726
▁lalagyan	-7727
▁lingapin	-7728
▁lulutang	-7729
▁lumalaki	-7730
▁lumingap	-7731
▁mabagsik	-7732
▁mabilang	-7733
▁mabining	-7734
▁magbayad	-7735
▁maghanap	-7736
▁magkakap	-7737
▁magkakas	-7738
▁magsikap	-7739
▁magsisil	-7740
▁magtungo	-7741
▁makaalis	-7742
▁makakuha	-7743
▁manatili	-7744
▁manligaw	-7745
▁mapansin	-7746
▁mapapasa	-7747
▁marahang	-7748
▁masasaya	-7749
▁masisira	-7750
▁masungit	-7751
▁matulain	-7752
▁mayabong	-7753
▁musikang	-7754
▁nabahala	-7755
▁nagdaang	-7756
▁naggayak	-7757
▁naghanap	-7758
▁nagising	-7759
▁nagkaisa	-7760
▁naglaban	-7761
▁nagpilit	-7762
▁nagtampo	-7763
▁nahalata	-7764
▁naisipan	-7765
▁nakadapo	-7766
▁nakaraan	-7767
▁namangha	-7768
▁namihasa	-7769
▁namumuno	-7770
▁nanalong	-7771
▁nanganak	-7772
▁napagpas	-7773
▁napiling	-7774
▁ningning	-7775
▁niyaring	-7776
▁orihinal	-7777
▁paggalaw	-7778
▁paghanap	-7779
▁paghawak	-7780
▁paglipas	-7781
▁pagpunta	-7782
▁palakpak	-7783
▁pamimili	-7784
▁panlabas	-7785
▁papalayo	-7786
▁pirasong	-7787
▁problema	-7788
▁puhunang	-7789
▁puntahan	-7790
▁saganang	-7791
▁salaming	-7792
▁sampalok	-7793
▁sisidlan	-7794
▁soloista	-7795
▁taguring	-7796
▁talastas	-7797
▁tinalian	-7798
▁tinunton	-7799
▁tulisang	-7800
▁tumindig	-7801
▁tumulong	-7802
akatuparan	-7803
▁Andromeda	-7804
▁Bathalang	-7805
▁Filipinas	-7806
▁Ikinulong	-7807
▁Ildefonso	-7808
▁Kabikulan	-7809
▁Kailangan	-7810
▁Lumilitaw	-7811
▁Magbangon	-7812
▁Matandang	-7813
▁Mongindra	-7814
▁Naglakbay	-7815
▁Sinimulan	-7816
▁Tarabusaw	-7817
▁balangkas	-7818
▁bandilang	-7819
▁binitiwan	-7820
▁dalamhati	-7821
▁higanteng	-7822
▁hinaharap	-7823
▁ikapitong	-7824
▁inihandog	-7825
▁isalaysay	-7826
▁kababalag	-7827
▁kabaitang	-7828
▁kabataang	-7829
▁kagalakan	-7830
▁kahariang	-7831
▁kaisipang	-7832
▁kaitaasan	-7833
▁kalinisan	-7834
▁kapurihan	-7835
▁katandaan	-7836
▁katapatan	-7837
▁kumakanta	-7838
▁lalawigan	-7839
▁lambingan	-7840
▁lilimutin	-7841
▁lumalakad	-7842
▁mabalasik	-7843
▁mabubuhay	-7844
▁maestrong	-7845
▁magdiwang	-7846
▁magkaaway	-7847
▁magkabila	-7848
▁magpaalam	-7849
▁magtanong	-7850
▁mahabagin	-7851
▁mailigtas	-7852
▁malambing	-7853
▁malimutan	-7854
▁maninisid	-7855
▁mapaparam	-7856
▁masugatan	-7857
▁matatanaw	-7858
▁mumunting	-7859
▁nagdadala	-7860
▁nagkamali	-7861
▁nagkulang	-7862
▁naglalaro	-7863
▁nakaaaliw	-7864
▁nakarinig	-7865
▁nakasabit	-7866
▁nakasakay	-7867
▁nakatikom	-7868
▁nalilikha	-7869
▁nalulunod	-7870
▁namamatay	-7871
▁nasusulat	-7872
▁nasusunog	-7873
▁nilalaman	-7874
▁nililiyag	-7875
▁pagbabayo	-7876
▁pagdaraan	-7877
▁pagdurusa	-7878
▁pagluluto	-7879
▁pagmasdan	-7880
▁pagnanais	-7881
▁pagpipita	-7882
▁pagsusuri	-7883
▁pagsuyong	-7884
▁pagtataka	-7885
▁pagtingin	-7886
▁pakikipag	-7887
▁palakihin	-7888
▁pampangin	-7889
▁pananamit	-7890
▁pandanggo	-7891
▁pangitain	-7892
▁patungong	-7893
▁sinimulan	-7894
▁sinisinta	-7895
▁sumalakay	-7896
▁sumasapit	-7897
▁taginting	-7898
▁talinhaga	-7899
▁titingnan	-7900
▁tumandang	-7901
▁tumututol	-7902
aalinlangan	-7903
▁Makanungan	-7904
▁Nabalitaan	-7905
▁Nabilanggo	-7906
▁Nagkataong	-7907
▁Nakarating	-7908
▁Pambansang	-7909
▁Pinagmulan	-7910
▁Pythagoras	-7911
▁Silanganan	-7912
▁balagtasan	-7913
▁bibigkasin	-7914
▁binubuksan	-7915
▁bukambibig	-7916
▁emperatriz	-7917
▁ginagawang	-7918
▁hinihintay	-7919
▁ibinibigay	-7920
▁ipagkaloob	-7921
▁ipinangako	-7922
▁ipinatawag	-7923
▁kadakilaan	-7924
▁kahulugang	-7925
▁kalinangan	-7926
▁kaluluwang	-7927
▁kamatayang	-7928
▁kapirasong	-7929
▁katarungan	-7930
▁kayamanang	-7931
▁kinikilala	-7932
▁konsensiya	-7933
▁lawlawigan	-7934
▁maaliwalas	-7935
▁mabubuting	-7936
▁mabulaklak	-7937
▁magigising	-7938
▁magmamaliw	-7939
▁magtrabaho	-7940
▁makikilala	-7941
▁mamahaling	-7942
▁mapagmahal	-7943
▁maramdaman	-7944
▁mararating	-7945
▁matulungin	-7946
▁nabalitaan	-7947
▁naglalaman	-7948
▁nagliliyab	-7949
▁nagmakaawa	-7950
▁nagpahinga	-7951
▁nakikiusap	-7952
▁napapaloob	-7953
▁pagbanggit	-7954
▁pagbibilog	-7955
▁paghahamok	-7956
▁paghakbang	-7957
▁pagtutulad	-7958
▁pamahalaan	-7959
▁pambansang	-7960
▁panalangin	-7961
▁pangatlong	-7962
▁panggabing	-7963
▁pangunguha	-7964
▁pangunguna	-7965
▁papayagang	-7966
▁paroroonan	-7967
▁pasalaysay	-7968
▁pinadalhan	-7969
▁pormasyong	-7970
▁sandatahan	-7971
▁sansinukob	-7972
▁tinangkang	-7973
▁tumutulong	-7974
▁tutulungan	-7975
▁Inanyayahan	-7976
▁Maguindanao	-7977
▁Pinampangan	-7978
▁binabanggit	-7979
▁hinahangaan	-7980
▁imahinasyon	-7981
▁isinalaysay	-7982
▁itinuturing	-7983
▁kapaligiran	-7984
▁kasingganda	-7985
▁kumakatawan	-7986
▁luwalhating	-7987
▁madamdaming	-7988
▁magpakailan	-7989
▁magsasalita	-7990
▁magtagumpay	-7991
▁magtataksil	-7992
▁mahihirapan	-7993
▁makasalanan	-7994
▁mambibigkas	-7995
▁mangingibig	-7996
▁minumutyang	-7997
▁nagbabantay	-7998
▁naglalayong	-7999
▁nagsasalita	-8000
▁nagsimulang	-8001
▁nagtagumpay	-8002
▁nagtangkang	-8003
▁nagulantang	-8004
▁nakatakdang	-8005
▁nakatanggap	-8006
▁nakatatanda	-8007
▁nalulungkot	-8008
▁natatanging	-8009
▁paghihintay	-8010
▁pagkakaagaw	-8011
▁pagmamalaki	-8012
▁pakikilaban	-8013
▁pakikitungo	-8014
▁palatandaan	-8015
▁pinakasalan	-8016
▁sinapupunan	-8017
▁sinasadyang	-8018
▁Bungangsakit	-8019
▁Mitolohiyang	-8020
▁Nagpasalamat	-8021
▁Sangkatauhan	-8022
▁kaginhawahan	-8023
▁kinikilalang	-8024
▁mahahalagang	-8025
▁makapaniwala	-8026
▁makipaglaban	-8027
▁mitolohiyang	-8028
▁naghihimutok	-8029
▁naglalagalag	-8030
▁naglalarawan	-8031
▁nagmamahalan	-8032
▁nagpasalamat	-8033
▁napakaraming	-8034
▁paglilingkod	-8035
▁paglingkuran	-8036
▁pagtatanggol	-8037
▁pananghalian	-8038
▁pinamumunuan	-8039
▁sansinukuban	-8040
▁talasalitaan	-8041
▁tinatangisan	-8042
▁bulubunduking	-8043
▁humahalimuyak	-8044
▁ipinagbabawal	-8045
▁kinakailangan	-8046
▁magpahanggang	-8047
▁mapapangasawa	-8048
▁paghihimagsik	-8049
▁paghihinagpis	-8050
▁pinagtataguan	-8051
▁pinakamaganda	-8052
▁pinakamahusay	-8053
▁ipinagmamalaki	-8054
▁kinapapalooban	-8055
▁nagdadalamhati	-8056
▁nangangailangan	-8057
▁pinakamagandang	-8058
.'	-8059
9)	-8060
??	-8061
AH	-8062
Ad	-8063
Ah	-8064
As	-8065
LA	-8066
Si	-8067
US	-8068
bp	-8069
ew	-8070
ki	-8071
sh	-8072
ui	-8073
!",	-8074
Aba	-8075
Hig	-8076
Hin	-8077
Hoy	-8078
ING	-8079
Isa	-8080
Kat	-8081
Lum	-8082
Min	-8083
NIS	-8084
Nas	-8085
Pap	-8086
Pup	-8087
UPO	-8088
aca	-8089
ais	-8090
ayd	-8091
ayi	-8092
bal	-8093
bls	-8094
dog	-8095
eny	-8096
git	-8097
hat	-8098
hhh	-8099
Mah	-8100
Sus	-8101
hid	-8102
hih	-8103
iik	-8104
ill	-8105
imm	-8106
ipk	-8107
irt	-8108
isl	-8109
itn	-8110
kal	-8111
lis	-8112
low	-8113
luw	-8114
mad	-8115
nat	-8116
nit	-8117
oel	-8118
oot	-8119
pay	-8120
rap	-8121
rim	-8122
rin	-8123
rog	-8124
sol	-8125
sul	-8126
tid	-8127
udh	-8128
uob	-8129
wag	-8130
▁1]	-8131
▁3:	-8132
▁9:	-8133
▁Br	-8134
▁Mo	-8135
▁Pi	-8136
▁Ro	-8137
▁Ts	-8138
▁ho	-8139
▁hu	-8140
▁mu	-8141
▁ok	-8142
▁op	-8143
▁pw	-8144
▁up	-8145
▁uy	-8146
...?	-8147
?...	-8148
AKAS	-8149
High	-8150
Magh	-8151
Mula	-8152
Pagb	-8153
Sana	-8154
Sige	-8155
Siya	-8156
Tama	-8157
UPOT	-8158
aama	-8159
agiw	-8160
aham	-8161
akam	-8162
akim	-8163
akod	-8164
alac	-8165
alye	-8166
amog	-8167
amoy	-8168
anik	-8169
anyo	-8170
apaw	-8171
aron	-8172
aros	-8173
asid	-8174
atim	-8175
atok	-8176
atsa	-8177
ayng	-8178
ayuk	-8179
cion	-8180
dila	-8181
ende	-8182
endi	-8183
enig	-8184
enio	-8185
eong	-8186
fuer	-8187
gang	-8188
gong	-8189
ibag	-8190
ihaw	-8191
ilad	-8192
inas	-8193
inio	-8194
inom	-8195
ipis	-8196
iral	-8197
irik	-8198
isal	-8199
BI	-8200
bos	-8201
did	-8202
tak	-8203
tis	-8204
uks	-8205
uos	-8206
▁el	-8207
ampu	-8208
eneg	-8209
itig	-8210
iyuh	-8211
kang	-8212
laan	-8213
layo	-8214
luha	-8215
luko	-8216
maya	-8217
mura	-8218
napu	-8219
okus	-8220
onis	-8221
oral	-8222
orya	-8223
oryo	-8224
osyo	-8225
pala	-8226
pula	-8227
reng	-8228
saan	-8229
sala	-8230
taka	-8231
tayo	-8232
tiis	-8233
ting	-8234
uano	-8235
ueva	-8236
ulis	-8237
unoy	-8238
upig	-8239
uray	-8240
uris	-8241
uyod	-8242
wita	-8243
▁10:	-8244
▁192	-8245
▁Aso	-8246
▁Bac	-8247
▁Bak	-8248
▁Bib	-8249
▁Biy	-8250
▁Bol	-8251
▁Ceb	-8252
▁Dom	-8253
▁Fil	-8254
▁Gay	-8255
▁Ger	-8256
▁Git	-8257
▁Iyo	-8258
▁Jac	-8259
▁Jer	-8260
▁KAS	-8261
▁Kos	-8262
▁LAH	-8263
▁Lag	-8264
▁Lip	-8265
▁Liv	-8266
▁Los	-8267
▁Luc	-8268
▁Pol	-8269
▁Riv	-8270
▁Sic	-8271
▁Tup	-8272
▁bol	-8273
▁buo	-8274
▁der	-8275
▁det	-8276
▁dur	-8277
▁duw	-8278
▁gul	-8279
▁guw	-8280
▁imb	-8281
▁int	-8282
▁ipa	-8283
▁kik	-8284
▁kom	-8285
▁lol	-8286
▁pih	-8287
▁poo	-8288
▁pot	-8289
▁rum	-8290
▁sib	-8291
Epiro	-8292
LINIS	-8293
Nguni	-8294
aalok	-8295
agaan	-8296
agnas	-8297
agpag	-8298
akasi	-8299
ele	-8300
iil	-8301
tin	-8302
yed	-8303
▁Ko	-8304
LING	-8305
ahos	-8306
aing	-8307
buti	-8308
elas	-8309
irot	-8310
lalo	-8311
▁Rin	-8312
▁Sol	-8313
▁alo	-8314
▁bel	-8315
▁lal	-8316
▁tel	-8317
Hahag	-8318
akata	-8319
akong	-8320
akulo	-8321
alamb	-8322
amana	-8323
ampal	-8324
ampon	-8325
amuno	-8326
angin	-8327
angko	-8328
antad	-8329
antap	-8330
antsa	-8331
anyak	-8332
anzon	-8333
apagp	-8334
aydor	-8335
dulan	-8336
edras	-8337
egend	-8338
endre	-8339
ensya	-8340
entaw	-8341
erang	-8342
erola	-8343
gagat	-8344
ginsa	-8345
gubat	-8346
hapon	-8347
hayop	-8348
iinom	-8349
ilant	-8350
ilaok	-8351
imbag	-8352
impas	-8353
inain	-8354
inata	-8355
ingit	-8356
inyag	-8357
ipkip	-8358
irits	-8359
isama	-8360
kabit	-8361
lagas	-8362
lahat	-8363
nubay	-8364
opoot	-8365
ortal	-8366
oteng	-8367
paman	-8368
pasin	-8369
raban	-8370
rimon	-8371
sanib	-8372
sayad	-8373
shirt	-8374
sibol	-8375
silip	-8376
sulok	-8377
takot	-8378
tidos	-8379
turan	-8380
tutan	-8381
ubuka	-8382
udyok	-8383
ugbog	-8384
uhian	-8385
ukain	-8386
uklam	-8387
ulpot	-8388
unsad	-8389
unung	-8390
using	-8391
uugat	-8392
▁Ahas	-8393
▁Apoy	-8394
▁Baut	-8395
▁Bawa	-8396
▁Bitu	-8397
▁Daig	-8398
▁Emir	-8399
eme	-8400
uki	-8401
▁Et	-8402
▁Ol	-8403
Ayaw	-8404
aapi	-8405
asko	-8406
rile	-8407
▁Dis	-8408
Aking	-8409
Ilang	-8410
adako	-8411
agump	-8412
akhan	-8413
angla	-8414
ernat	-8415
indoy	-8416
itano	-8417
malas	-8418
otong	-8419
ulian	-8420
▁Buto	-8421
▁Gand	-8422
▁Glor	-8423
▁Hala	-8424
▁Hayo	-8425
▁Igon	-8426
▁Iisa	-8427
▁Indo	-8428
▁Inih	-8429
▁Irog	-8430
▁Isis	-8431
▁Itat	-8432
▁Joel	-8433
▁KAMP	-8434
▁Kaka	-8435
▁Kiko	-8436
▁Kult	-8437
▁Mand	-8438
▁Mata	-8439
▁Meme	-8440
▁Nagu	-8441
▁Nanl	-8442
▁Nawa	-8443
▁Ninf	-8444
▁Orak	-8445
▁Pagl	-8446
▁Pito	-8447
▁Plat	-8448
▁Simb	-8449
▁Sits	-8450
▁Tala	-8451
▁Ulap	-8452
▁adel	-8453
▁akay	-8454
▁alab	-8455
▁alis	-8456
▁asim	-8457
▁atbp	-8458
▁bula	-8459
▁buod	-8460
▁daya	-8461
▁dayo	-8462
▁dipa	-8463
▁disi	-8464
▁diya	-8465
▁elem	-8466
▁giba	-8467
▁gras	-8468
▁hapo	-8469
▁heto	-8470
▁ibib	-8471
▁ikal	-8472
▁ikap	-8473
▁ikuk	-8474
▁imik	-8475
▁kata	-8476
▁kawa	-8477
▁kayg	-8478
▁kily	-8479
▁kumb	-8480
▁kwak	-8481
▁laan	-8482
▁laso	-8483
▁lola	-8484
▁maal	-8485
▁maid	-8486
▁mana	-8487
▁masy	-8488
▁mito	-8489
▁moog	-8490
▁muog	-8491
▁mura	-8492
▁nail	-8493
▁nana	-8494
▁ngum	-8495
▁pagw	-8496
▁palo	-8497
▁pare	-8498
▁payo	-8499
ete	-8500
▁21	-8501
lump	-8502
uump	-8503
▁Dag	-8504
▁Lor	-8505
▁daa	-8506
arapo	-8507
atiis	-8508
silim	-8509
tugan	-8510
▁Aray	-8511
▁Asin	-8512
▁baon	-8513
▁dung	-8514
▁loro	-8515
▁misa	-8516
▁pika	-8517
▁pios	-8518
▁pipi	-8519
▁pira	-8520
▁puto	-8521
▁samo	-8522
▁sint	-8523
▁suka	-8524
▁suyo	-8525
▁tulo	-8526
▁turo	-8527
▁tuwi	-8528
▁uhaw	-8529
▁umid	-8530
▁utak	-8531
Medium	-8532
Pagkat	-8533
aabang	-8534
aaruga	-8535
abatid	-8536
abigin	-8537
abitiw	-8538
abulid	-8539
adaluh	-8540
adikit	-8541
adurog	-8542
agalak	-8543
agayon	-8544
aguyod	-8545
ahanay	-8546
akahin	-8547
akaisa	-8548
akbong	-8549
akilan	-8550
alahat	-8551
alakaw	-8552
alatag	-8553
alinis	-8554
alisin	-8555
aliwan	-8556
amahan	-8557
amante	-8558
amaran	-8559
amasid	-8560
amitan	-8561
andila	-8562
angang	-8563
anggan	-8564
angkal	-8565
anglaw	-8566
apagod	-8567
apatak	-8568
aranas	-8569
arawal	-8570
ariaan	-8571
asauli	-8572
atagan	-8573
atayan	-8574
awasan	-8575
awisan	-8576
bahagi	-8577
bahala	-8578
bighan	-8579
endrez	-8580
enegil	-8581
entral	-8582
fuerte	-8583
hangad	-8584
idilig	-8585
igitan	-8586
iglang	-8587
ihimig	-8588
ikhang	-8589
iligid	-8590
iligin	-8591
ilikan	-8592
ilipit	-8593
ilugan	-8594
ilyang	-8595
imitas	-8596
imithi	-8597
imutok	-8598
inanap	-8599
▁Sh	-8600
▁en	-8601
Pers	-8602
amyo	-8603
apoy	-8604
daos	-8605
enso	-8606
haya	-8607
sino	-8608
uuin	-8609
▁Doo	-8610
▁Kod	-8611
▁Lun	-8612
▁MGA	-8613
▁Pen	-8614
▁Uma	-8615
▁med	-8616
Kaawa	-8617
Yaong	-8618
alaro	-8619
impok	-8620
istro	-8621
iyano	-8622
ngang	-8623
usisa	-8624
uunan	-8625
▁ipap	-8626
▁papa	-8627
▁teng	-8628
▁unan	-8629
▁ungg	-8630
ahagya	-8631
aligid	-8632
ansala	-8633
atiran	-8634
bagang	-8635
dakila	-8636
enteng	-8637
inipay	-8638
insala	-8639
iphayo	-8640
ipilit	-8641
ipitan	-8642
isdang	-8643
isipot	-8644
itikan	-8645
itnaan	-8646
iwasan	-8647
kainan	-8648
latera	-8649
lumbay	-8650
mangan	-8651
mbayan	-8652
minsan	-8653
ondaya	-8654
panhik	-8655
pulong	-8656
rapura	-8657
tangis	-8658
trangh	-8659
tulong	-8660
ubuang	-8661
ukulan	-8662
ulalas	-8663
ulanan	-8664
ulihan	-8665
uliran	-8666
ulupot	-8667
umbong	-8668
unaway	-8669
unduan	-8670
untang	-8671
unwari	-8672
unying	-8673
upitin	-8674
upukol	-8675
usabos	-8676
usilak	-8677
utulan	-8678
uwesto	-8679
uwiran	-8680
uwisit	-8681
walang	-8682
waring	-8683
▁Aklan	-8684
▁Alang	-8685
▁Amang	-8686
▁Aniya	-8687
▁Apolo	-8688
▁Asawa	-8689
▁Babae	-8690
▁Baboy	-8691
▁Basta	-8692
▁Batas	-8693
▁Bukas	-8694
▁Bunga	-8695
▁Casta	-8696
▁Claro	-8697
▁Dapwa	-8698
▁Diyan	-8699
▁Fr	-8700
Tayo	-8701
iksi	-8702
ipid	-8703
▁hib	-8704
Papal	-8705
adugo	-8706
agist	-8707
alyas	-8708
hinan	-8709
uluga	-8710
▁Aral	-8711
▁abay	-8712
▁hist	-8713
▁kaaa	-8714
▁klas	-8715
agalag	-8716
agitin	-8717
arahas	-8718
igilin	-8719
igiliw	-8720
ilagay	-8721
itiyak	-8722
▁Babay	-8723
▁Diyuh	-8724
▁Embid	-8725
▁Epiro	-8726
▁Gabay	-8727
▁Hamog	-8728
▁Hawak	-8729
▁Hayun	-8730
▁Hesuk	-8731
▁Hesus	-8732
▁Hinih	-8733
▁Iabot	-8734
▁Igala	-8735
▁Impah	-8736
▁Indya	-8737
▁Islaw	-8738
▁Itaas	-8739
▁Itago	-8740
▁Kabis	-8741
▁Kabuk	-8742
▁Kapit	-8743
▁Kinam	-8744
▁Kinas	-8745
▁Kulay	-8746
▁Kulog	-8747
▁Kunin	-8748
▁Laban	-8749
▁Labos	-8750
▁Lanaw	-8751
▁Leron	-8752
▁Lihim	-8753
▁Lubay	-8754
▁Malay	-8755
▁Mangg	-8756
▁Manun	-8757
▁Mateo	-8758
▁Minis	-8759
▁Nakak	-8760
▁Nakas	-8761
▁Nakik	-8762
▁Namum	-8763
▁Naupo	-8764
▁Nayon	-8765
▁Niyog	-8766
▁Paano	-8767
▁Pangg	-8768
▁Parup	-8769
▁Pilit	-8770
▁Pinam	-8771
▁Pinya	-8772
▁Poong	-8773
▁Pulis	-8774
▁Recto	-8775
▁Sinta	-8776
▁Sulod	-8777
▁Takot	-8778
▁Talas	-8779
▁Tinay	-8780
▁Totoo	-8781
▁Tungk	-8782
▁Turko	-8783
▁Umuwi	-8784
▁Utang	-8785
▁Villa	-8786
▁Voice	-8787
▁aawit	-8788
▁abala	-8789
▁alins	-8790
▁amain	-8791
▁armas	-8792
▁aywan	-8793
▁bakya	-8794
▁balse	-8795
▁banga	-8796
▁baril	-8797
▁basag	-8798
▁basal	-8799
▁basta	-8800
▁bibit	-8801
▁bihis	-8802
▁binid	-8803
▁binur	-8804
▁bubog	-8805
▁bukod	-8806
▁bumuo	-8807
▁burda	-8808
▁dahop	-8809
▁dalaw	-8810
▁dikit	-8811
▁duyan	-8812
▁ginat	-8813
▁gipit	-8814
▁guhit	-8815
▁gunam	-8816
▁hango	-8817
▁hener	-8818
▁hikbi	-8819
▁hinag	-8820
▁hinto	-8821
▁hinuh	-8822
▁hipon	-8823
▁hitso	-8824
▁hukay	-8825
▁hulog	-8826
▁hurno	-8827
▁husto	-8828
▁iabot	-8829
▁ibayo	-8830
▁iiyak	-8831
▁iluha	-8832
▁isipa	-8833
▁ituro	-8834
▁kabag	-8835
▁kagat	-8836
▁kahap	-8837
▁kalaw	-8838
▁kalus	-8839
▁kapos	-8840
▁kasak	-8841
▁kawag	-8842
▁kendi	-8843
▁kinah	-8844
▁kiyas	-8845
▁kumuk	-8846
▁kupas	-8847
▁kurus	-8848
▁layun	-8849
▁leong	-8850
▁letra	-8851
▁liban	-8852
▁liham	-8853
▁limot	-8854
▁linaw	-8855
▁lumag	-8856
▁lungg	-8857
▁maing	-8858
▁makad	-8859
▁makar	-8860
▁makin	-8861
▁malal	-8862
▁maliw	-8863
▁mamul	-8864
▁manun	-8865
▁mapak	-8866
▁mapas	-8867
▁masid	-8868
▁mawat	-8869
▁milag	-8870
▁mismo	-8871
▁nabuo	-8872
▁nahah	-8873
▁nakag	-8874
▁nakam	-8875
▁nakar	-8876
▁nalig	-8877
▁nanaw	-8878
▁napup	-8879
▁nukal	-8880
▁oyayi	-8881
▁pagsa	-8882
▁pahim	-8883
▁paimb	-8884
▁palit	-8885
▁pangw	-8886
▁pasub	-8887
▁patid	-8888
▁patik	-8889
▁paunl	-8890
▁payag	-8891
▁payak	-8892
▁pitik	-8893
▁popul	-8894
▁pusod	-8895
▁putok	-8896
▁radio	-8897
▁rurok	-8898
▁salag	-8899
▁sangm	-8900
▁sapul	-8901
▁sigwa	-8902
▁sikdo	-8903
▁silya	-8904
▁sumus	-8905
▁sunod	-8906
▁sunud	-8907
▁sutla	-8908
▁takda	-8909
▁talon	-8910
▁tanan	-8911
▁tanto	-8912
▁tatan	-8913
▁tawad	-8914
▁tibok	-8915
▁tigas	-8916
▁tigre	-8917
▁timog	-8918
▁tribu	-8919
▁tulin	-8920
▁tutol	-8921
Albanya	-8922
Ibababa	-8923
Itataas	-8924
Malakas	-8925
Pilipin	-8926
Tagalog	-8927
Tatakbo	-8928
Tingnan	-8929
aangkin	-8930
abagtas	-8931
agaslaw	-8932
agdasal	-8933
agistis	-8934
aharian	-8935
alangit	-8936
alasang	-8937
alastas	-8938
alayuan	-8939
aligtad	-8940
alimang	-8941
alinhan	-8942
aliping	-8943
amadali	-8944
amalita	-8945
ambilat	-8946
amitang	-8947
ampanan	-8948
anggawa	-8949
antihan	-8950
aplusin	-8951
arangya	-8952
atayong	-8953
atubili	-8954
awawala	-8955
bahayan	-8956
bibigay	-8957
ekalogo	-8958
ernador	-8959
esmundo	-8960
gagatas	-8961
gilalas	-8962
hiwalay	-8963
iligaya	-8964
irahang	-8965
iritsit	-8966
istahan	-8967
iwagang	-8968
iwanang	-8969
kamukha	-8970
kanyang	-8971
kendeng	-8972
lilisik	-8973
marikit	-8974
ripisyo	-8975
rocinio	-8976
sinelas	-8977
ubukang	-8978
ubuklod	-8979
uhayang	-8980
umbasan	-8981
umpisal	-8982
unayang	-8983
unyapit	-8984
usisyon	-8985
uusapan	-8986
▁Adonis	-8987
▁Alagad	-8988
▁Anghel	-8989
▁Bagama	-8990
▁Bagobo	-8991
▁Balita	-8992
▁Baltog	-8993
▁Baston	-8994
▁Batong	-8995
▁Bigyan	-8996
▁Buksan	-8997
▁Dalaga	-8998
▁Dalhin	-8999
▁Darang	-9000
▁Emilio	-9001
▁Gayong	-9002
▁Handog	-9003
▁Hangga	-9004
▁Hilaga	-9005
▁Ibanag	-9006
▁Iisang	-9007
▁Iloilo	-9008
▁Inabot	-9009
▁Inalis	-9010
▁Inayos	-9011
▁Ipinak	-9012
▁Ipinal	-9013
▁Kagaya	-9014
▁Kapule	-9015
▁Katang	-9016
▁Kitang	-9017
▁Kurita	-9018
▁Labimp	-9019
▁Lahing	-9020
▁Lalaki	-9021
▁Lintik	-9022
▁Lumaki	-9023
▁Lumayo	-9024
▁Maghah	-9025
▁Magpak	-9026
▁Magsas	-9027
▁Mahina	-9028
▁Mainit	-9029
▁Maitim	-9030
▁Makata	-9031
▁Mamang	-9032
▁Mantap	-9033
▁Mapang	-9034
▁Marcos	-9035
▁Matang	-9036
▁Nabawi	-9037
▁Nadala	-9038
▁Nagpak	-9039
▁Nagpap	-9040
▁Nagsas	-9041
▁Naroon	-9042
▁Naubos	-9043
▁Nimpas	-9044
▁Ninfas	-9045
▁Pangin	-9046
▁Pantas	-9047
▁Parkas	-9048
▁Pawang	-9049
▁Pebong	-9050
▁Pinagh	-9051
▁Pitong	-9052
▁Platas	-9053
▁Rivera	-9054
▁Salapi	-9055
▁Santol	-9056
▁Sining	-9057
▁Sinong	-9058
▁Subali	-9059
▁Tamang	-9060
▁Tanang	-9061
▁Tatayo	-9062
▁Tulong	-9063
▁Tumaas	-9064
▁aakyat	-9065
▁agawan	-9066
▁alahas	-9067
▁alitan	-9068
▁aliwin	-9069
▁asahan	-9070
▁awitan	-9071
▁ayusin	-9072
▁babasa	-9073
▁bagwis	-9074
▁balbas	-9075
▁baling	-9076
▁basket	-9077
▁bathin	-9078
▁bolang	-9079
▁bukana	-9080
▁bumili	-9081
▁dagdag	-9082
▁dinaya	-9083
▁dukeng	-9084
▁dumumi	-9085
▁edukas	-9086
▁galang	-9087
▁gating	-9088
▁gitara	-9089
▁gurong	-9090
▁guwang	-9091
▁hagdan	-9092
▁halina	-9093
▁hampas	-9094
▁higera	-9095
▁hiwaga	-9096
▁ibuhos	-9097
▁ihulog	-9098
▁ikasal	-9099
▁ikinal	-9100
▁ikinat	-9101
▁ilabas	-9102
▁impluw	-9103
▁inaapi	-9104
▁inabot	-9105
▁inahin	-9106
▁inihal	-9107
▁inilul	-9108
▁inisip	-9109
▁inulit	-9110
▁ipinat	-9111
▁isahan	-9112
▁iskrip	-9113
▁itanim	-9114
▁itapon	-9115
▁itulak	-9116
▁kabang	-9117
▁kagaya	-9118
▁kagila	-9119
▁kaibig	-9120
▁kalian	-9121
▁kamang	-9122
▁kaniya	-9123
▁kapara	-9124
▁karagd	-9125
▁karamd	-9126
▁kasawi	-9127
▁katawa	-9128
▁katyaw	-9129
▁kubang	-9130
▁kutang	-9131
▁lagnat	-9132
▁lalayo	-9133
▁lambat	-9134
▁lantay	-9135
▁layuni	-9136
▁lilong	-9137
▁linsil	-9138
▁lintik	-9139
▁liping	-9140
▁lunday	-9141
▁lutuan	-9142
▁maabot	-9143
▁maagap	-9144
▁maagaw	-9145
▁maalam	-9146
▁maasim	-9147
▁magaan	-9148
▁magdad	-9149
▁magpas	-9150
▁magsil	-9151
▁magsus	-9152
▁magtut	-9153
▁magulo	-9154
▁mainam	-9155
▁manika	-9156
▁mapapa	-9157
▁mapasa	-9158
▁mariin	-9159
▁matang	-9160
▁matuwa	-9161
▁matwid	-9162
▁mayama	-9163
▁medium	-9164
▁munang	-9165
▁musang	-9166
▁naagaw	-9167
▁naamis	-9168
▁nabali	-9169
▁nagawa	-9170
▁nagpal	-9171
▁nagsip	-9172
▁naipag	-9173
▁naipit	-9174
▁naisin	-9175
▁nalang	-9176
▁napagk	-9177
▁napana	-9178
▁napuno	-9179
▁nasabi	-9180
▁nasawi	-9181
▁natira	-9182
▁natuyo	-9183
▁naubos	-9184
▁normal	-9185
▁pabaon	-9186
▁pagano	-9187
▁pagkit	-9188
▁pagsis	-9189
▁pahina	-9190
▁palaso	-9191
▁palayo	-9192
▁pamahi	-9193
▁panday	-9194
▁pangan	-9195
▁pantig	-9196
▁papaya	-9197
▁paslit	-9198
▁piraso	-9199
▁pumili	-9200
▁puspos	-9201
▁sadlak	-9202
▁sagang	-9203
▁sandok	-9204
▁serpiy	-9205
▁sinira	-9206
▁sising	-9207
▁sungay	-9208
▁takpan	-9209
▁talian	-9210
▁tamaan	-9211
▁tinamo	-9212
▁tingni	-9213
▁tinuka	-9214
▁tumaas	-9215
▁tumulo	-9216
▁uliran	-9217
▁ulunan	-9218
▁unggoy	-9219
▁walong	-9220
▁wikain	-9221
Dumating	-9222
Hanggang	-9223
Maraming	-9224
Nakalaan	-9225
abayaran	-9226
ahamakan	-9227
ahatulan	-9228
akaawang	-9229
alabasan	-9230
alaganap	-9231
alipinan	-9232
andulong	-9233
apalawak	-9234
apayaman	-9235
atakutan	-9236
ayakapin	-9237
ayukayok	-9238
egaluhan	-9239
enegildo	-9240
ibigyang	-9241
ihingalo	-9242
ilandang	-9243
inangang	-9244
itanghal	-9245
kaniyang	-9246
maligaya	-9247
manghang	-9248
ubuhayin	-9249
ulinigan	-9250
unggaban	-9251
ungkalin	-9252
ungkutin	-9253
▁Alading	-9254
▁Antalan	-9255
▁Birheng	-9256
▁Bituing	-9257
▁Buhayin	-9258
▁Bunsong	-9259
▁Cebuano	-9260
▁Dianzon	-9261
▁Dinarad	-9262
▁Diumano	-9263
▁Dumalap	-9264
▁Filemon	-9265
▁Ganding	-9266
▁Heswita	-9267
▁Huminto	-9268
▁Igalang	-9269
▁Ikaanim	-9270
▁Indones	-9271
▁Iniibig	-9272
▁Iniutos	-9273
▁Isinuot	-9274
▁Itinaas	-9275
▁Jacinto	-9276
▁Jupiter	-9277
▁Kasabay	-9278
▁Katawan	-9279
▁Kayrami	-9280
▁Lipunan	-9281
▁Lubhang	-9282
▁Lumabas	-9283
▁Magsisi	-9284
▁Mahanga	-9285
▁Mahigit	-9286
▁Malabon	-9287
▁Malasin	-9288
▁Malupit	-9289
▁Mamatay	-9290
▁Marikit	-9291
▁Martang	-9292
▁Matamis	-9293
▁Mayaman	-9294
▁Mutyang	-9295
▁Nagtaka	-9296
▁Nahulog	-9297
▁Nakaupo	-9298
▁Nangags	-9299
▁Nilusob	-9300
▁Paggawa	-9301
▁Palawan	-9302
▁Pangkat	-9303
▁Pinigil	-9304
▁Sadyang	-9305
▁Sagisag	-9306
▁Sandayo	-9307
▁Sicalac	-9308
▁Siyudad	-9309
▁Sumakay	-9310
▁Sumigaw	-9311
▁Sumisid	-9312
▁Tumigil	-9313
▁Watawat	-9314
▁aanihin	-9315
▁abangan	-9316
▁anitong	-9317
▁bagaman	-9318
▁balitaw	-9319
▁bandera	-9320
▁binalot	-9321
▁bingwit	-9322
▁buhayin	-9323
▁bumubuo	-9324
▁bunutin	-9325
▁dalawin	-9326
▁detalye	-9327
▁diligin	-9328
▁dinakip	-9329
▁dininig	-9330
▁dukhang	-9331
▁duluhan	-9332
▁dumakot	-9333
▁dumaloy	-9334
▁dumulog	-9335
▁duwende	-9336
▁ganoong	-9337
▁grupong	-9338
▁haharap	-9339
▁hanguin	-9340
▁hapunan	-9341
▁higupin	-9342
▁hinabol	-9343
▁hinamak	-9344
▁hinugot	-9345
▁humihip	-9346
▁ibalita	-9347
▁ibayong	-9348
▁ibinato	-9349
▁ikalawa	-9350
▁inaakay	-9351
▁inaaliw	-9352
▁inilaan	-9353
▁ipaalam	-9354
▁ipinagh	-9355
▁ipinagk	-9356
▁isaisip	-9357
▁ispirit	-9358
▁isusubo	-9359
▁itanong	-9360
▁itinago	-9361
▁itinayo	-9362
▁ituturo	-9363
▁kabaita	-9364
▁kabaong	-9365
▁kabigha	-9366
▁kaginoo	-9367
▁kaginsa	-9368
▁kakaiba	-9369
▁kakampi	-9370
▁kakanin	-9371
▁kapatak	-9372
▁katamis	-9373
▁katapat	-9374
▁katwira	-9375
▁kaugnay	-9376
▁kilabot	-9377
▁kulisap	-9378
▁kumanta	-9379
▁kuratsa	-9380
▁lambong	-9381
▁luhaang	-9382
▁luksang	-9383
▁luluhod	-9384
▁lumagay	-9385
▁lumawig	-9386
▁luminis	-9387
▁lumiyag	-9388
▁lumubog	-9389
▁lumulan	-9390
▁lumulon	-9391
▁lungsod	-9392
▁maamong	-9393
▁mabigla	-9394
▁mabunga	-9395
▁madamot	-9396
▁magdala	-9397
▁magdusa	-9398
▁maghapo	-9399
▁magilas	-9400
▁magkaka	-9401
▁magkita	-9402
▁magsaya	-9403
▁magtiis	-9404
▁magumon	-9405
▁mahimok	-9406
▁mahinog	-9407
▁maiinam	-9408
▁maiiwan	-9409
▁makahoy	-9410
▁makatao	-9411
▁makitil	-9412
▁malaong	-9413
▁maliksi	-9414
▁malunod	-9415
▁manding	-9416
▁mangaso	-9417
▁maramot	-9418
▁masakim	-9419
▁masasal	-9420
▁maselan	-9421
▁masigla	-9422
▁masunod	-9423
▁masupil	-9424
▁matiyak	-9425
▁matulad	-9426
▁mauubos	-9427
▁naalala	-9428
▁nabatid	-9429
▁nagbayo	-9430
▁naglaon	-9431
▁nagpala	-9432
▁nagtamo	-9433
▁nagulat	-9434
▁nahayag	-9435
▁naiinip	-9436
▁nakahih	-9437
▁nalanta	-9438
▁nalulug	-9439
▁namalas	-9440
▁nangagb	-9441
▁nangagh	-9442
▁napakah	-9443
▁napigil	-9444
▁natupok	-9445
▁nililok	-9446
▁nilimot	-9447
▁ninakaw	-9448
▁orakulo	-9449
▁pagbasa	-9450
▁pagdami	-9451
▁paghabi	-9452
▁pagkuha	-9453
▁paglaki	-9454
▁pagsang	-9455
▁palapit	-9456
▁pamatay	-9457
▁panalok	-9458
▁panatil	-9459
▁panyong	-9460
▁pasukan	-9461
▁payagan	-9462
▁pinakap	-9463
▁pinangh	-9464
▁pinauwi	-9465
▁pinsang	-9466
▁pitasin	-9467
▁planeta	-9468
▁plantsa	-9469
▁puluhan	-9470
▁puwersa	-9471
▁sagipin	-9472
▁salakay	-9473
▁salawal	-9474
▁santong	-9475
▁sasagot	-9476
▁sigwang	-9477
▁silahis	-9478
▁sinauna	-9479
▁siyudad	-9480
▁subukin	-9481
▁sukaban	-9482
▁sumibol	-9483
▁sumilip	-9484
▁sumipot	-9485
▁tabsing	-9486
▁taimtim	-9487
▁talukap	-9488
▁tanawin	-9489
▁tatawag	-9490
▁tigilan	-9491
▁tinudla	-9492
▁tinuran	-9493
▁tiririt	-9494
▁tribong	-9495
▁umaakay	-9496
▁umiikot	-9497
▁unawain	-9498
▁yumaong	-9499
Lalapitan	-9500
Malungkot	-9501
Mamamatay	-9502
agumpayan	-9503
akasamang	-9504
akikitang	-9505
akilanlan	-9506
akiusapan	-9507
alastasan	-9508
alinangan	-9509
alukuyang	-9510
anganyaya	-9511
bighaning	-9512
ernatural	-9513
ikilalang	-9514
inabangan	-9515
iwangwang	-9516
rimonyong	-9517
tranghero	-9518
ungkahing	-9519
upumiglas	-9520
uumpugang	-9521
▁Aninipay	-9522
▁Bangkaya	-9523
▁Bautista	-9524
▁Binatang	-9525
▁Bubuksan	-9526
▁Bumaling	-9527
▁Diyuhara	-9528
▁Etolyang	-9529
▁Halikayo	-9530
▁Hinintay	-9531
▁Ibinigay	-9532
▁Ikinasal	-9533
▁Inilagay	-9534
▁Isisilid	-9535
▁Isusumpa	-9536
▁KAMPUPOT	-9537
▁Kanilang	-9538
▁Kapuluan	-9539
▁Katindoy	-9540
▁Kotabato	-9541
▁Kundiman	-9542
▁Kupidong	-9543
▁Magaling	-9544
▁Magbayad	-9545
▁Makahiya	-9546
▁Maligaya	-9547
▁Marunong	-9548
▁Naaalala	-9549
▁Nagagawa	-9550
▁Nagbigay	-9551
▁Nagdaang	-9552
▁Naglagay	-9553
▁Nagsayaw	-9554
▁Nakatira	-9555
▁Nakiusap	-9556
▁Nanatili	-9557
▁Pagsapit	-9558
▁Pambansa	-9559
▁Sinundan	-9560
▁Talagang	-9561
▁Tinuruan	-9562
▁Titingin	-9563
▁Tumilaok	-9564
▁Tumingin	-9565
▁Victoria	-9566
▁bangkang	-9567
▁bantayog	-9568
▁batikang	-9569
▁batingaw	-9570
▁baybayin	-9571
▁bersyong	-9572
▁bibilang	-9573
▁binabayo	-9574
▁binagtas	-9575
▁binyagan	-9576
▁biyayang	-9577
▁bubuksan	-9578
▁bumabati	-9579
▁dalitang	-9580
▁daluyong	-9581
▁datapuwa	-9582
▁dayalogo	-9583
▁digmaang	-9584
▁dinaanan	-9585
▁dinapuan	-9586
▁dumadapo	-9587
▁gumapang	-9588
▁hahagkan	-9589
▁halatang	-9590
▁himagsik	-9591
▁hintayin	-9592
▁ibabalik	-9593
▁ibinilin	-9594
▁iginapos	-9595
▁ikinalat	-9596
▁ikinalul	-9597
▁inaakala	-9598
▁inaaring	-9599
▁inihagis	-9600
▁inilabas	-9601
▁ipinasya	-9602
▁isinagot	-9603
▁isinalin	-9604
▁isisigaw	-9605
▁kaanyuan	-9606
▁kabayong	-9607
▁kahuluga	-9608
▁kailalim	-9609
▁kakainin	-9610
▁kalabang	-9611
▁kalapati	-9612
▁kalawang	-9613
▁kaliwang	-9614
▁kalumbay	-9615
▁kamandag	-9616
▁kamangha	-9617
▁kapantay	-9618
▁karamiha	-9619
▁kaserola	-9620
▁kasindak	-9621
▁kastilyo	-9622
▁katabing	-9623
▁katalong	-9624
▁katotong	-9625
▁katuwaan	-9626
▁katuwang	-9627
▁kayarian	-9628
▁kilyawan	-9629
▁kinausap	-9630
▁kinubkob	-9631
▁kumidlat	-9632
▁kupidong	-9633
▁labanang	-9634
▁landasin	-9635
▁layuning	-9636
▁likurang	-9637
▁lubusang	-9638
▁lumaking	-9639
▁lumalayo	-9640
▁lumutang	-9641
▁lunggati	-9642
▁maaalala	-9643
▁maalamat	-9644
▁mababait	-9645
▁madugong	-9646
▁magbalak	-9647
▁magbuhat	-9648
▁maghapon	-9649
▁magmasid	-9650
▁magpapas	-9651
▁magyakap	-9652
▁mahinhin	-9653
▁mahiwaga	-9654
▁makatayo	-9655
▁makilala	-9656
▁malaglag	-9657
▁malagong	-9658
▁malamyos	-9659
▁mamasdan	-9660
▁mamumuno	-9661
▁mangusap	-9662
▁masasabi	-9663
▁masasama	-9664
▁masusing	-9665
▁matimyas	-9666
▁matinong	-9667
▁matiyaga	-9668
▁mawiwika	-9669
▁ministro	-9670
▁nadarama	-9671
▁nadatnan	-9672
▁naganyak	-9673
▁nagawang	-9674
▁nagdilim	-9675
▁nagkagan	-9676
▁nagkakas	-9677
▁nagkalat	-9678
▁nagmamay	-9679
▁nagpapag	-9680
▁nagsadya	-9681
▁nagsisip	-9682
▁nagtanim	-9683
▁naisulat	-9684
▁nakaiwas	-9685
▁nakayuko	-9686
▁nakubkob	-9687
▁nakulong	-9688
▁nalimbag	-9689
▁namasyal	-9690
▁nanaisin	-9691
▁nanghina	-9692
▁nangusap	-9693
▁naniwala	-9694
▁napadaan	-9695
▁napaiyak	-9696
▁naparito	-9697
▁napayapa	-9698
▁naririto	-9699
▁nasaktan	-9700
▁nasambit	-9701
▁nasisira	-9702
▁natatamo	-9703
▁naubusan	-9704
▁nawalang	-9705
▁niluluto	-9706
▁ninanasa	-9707
▁pagbalik	-9708
▁pagdamay	-9709
▁paggapas	-9710
▁paggugol	-9711
▁pagkilos	-9712
▁paglaban	-9713
▁paglubog	-9714
▁paglusob	-9715
▁paglutas	-9716
▁pagpanaw	-9717
▁pagpapah	-9718
▁pagsasal	-9719
▁pagsunod	-9720
▁pagtanda	-9721
▁pakitang	-9722
▁pakiusap	-9723
▁palaging	-9724
▁palalong	-9725
▁palaring	-9726
▁palasong	-9727
▁palendag	-9728
▁pamanang	-9729
▁pamaraan	-9730
▁paminsan	-9731
▁pandinig	-9732
▁pantribo	-9733
▁papanhik	-9734
▁parangal	-9735
▁parating	-9736
▁partidos	-9737
▁patibong	-9738
▁patnugot	-9739
▁payagang	-9740
▁pinagkak	-9741
▁pinapang	-9742
▁prayleng	-9743
▁pulutong	-9744
▁pumalaot	-9745
▁pumarito	-9746
▁sagupaan	-9747
▁salaping	-9748
▁sandaang	-9749
▁sinusuyo	-9750
▁sukdulan	-9751
▁susundan	-9752
▁susuriin	-9753
▁tagapagb	-9754
▁tagapayo	-9755
▁tagsibol	-9756
▁talampas	-9757
▁taluktok	-9758
▁tampulan	-9759
▁tanikala	-9760
▁tatsulok	-9761
▁tinamaan	-9762
▁tinangis	-9763
▁tindahan	-9764
▁trahedya	-9765
▁tumangis	-9766
▁tumingin	-9767
▁umuunlad	-9768
Balintawak	-9769
Pagkatapos	-9770
Tutulungan	-9771
abayanihan	-9772
akasalanan	-9773
amalasakit	-9774
amatandang	-9775
ampalataya	-9776
angkilikin	-9777
indalawang	-9778
uwalhatian	-9779
▁Bahaginan	-9780
▁Capariaan	-9781
▁Damdaming	-9782
▁Disyembre	-9783
▁Embidayan	-9784
▁Fleridang	-9785
▁Ginagamit	-9786
▁Hahahahah	-9787
▁Hahawakan	-9788
▁Ikalawang	-9789
▁Impiyerno	-9790
▁Indrapura	-9791
▁Inglatera	-9792
▁Ipinadala	-9793
▁Itinanong	-9794
▁Kasulatan	-9795
▁Kayamanan	-9796
▁Kulturang	-9797
▁Lakandiwa	-9798
▁Mabubuhay	-9799
▁Macaranga	-9800
▁Magaganda	-9801
▁Magmadali	-9802
▁Makalipas	-9803
▁Mantapuli	-9804
▁Mapatubig	-9805
▁Melendrez	-9806
▁Minisalaw	-9807
▁Nagdurusa	-9808
▁Nagkagulo	-9809
▁Nagkataon	-9810
▁Nagsasama	-9811
▁Nalimutan	-9812
▁Pablitong	-9813
▁Pagkaalis	-9814
▁Persiyano	-9815
▁Pinawalan	-9816
▁Republika	-9817
▁Tabunaway	-9818
▁Tinanggap	-9819
▁Tinawagan	-9820
▁Tiningnan	-9821
▁Titingala	-9822
▁Valeriana	-9823
▁Yambungan	-9824
▁alinsunod	-9825
▁banyagang	-9826
▁binabalik	-9827
▁binubunot	-9828
▁bubuhayin	-9829
▁daigdigan	-9830
▁direksyon	-9831
▁dumadalaw	-9832
▁ginugugol	-9833
▁hagupitin	-9834
▁hardinero	-9835
▁hinatulan	-9836
▁ikauunlad	-9837
▁inilibing	-9838
▁inilimbag	-9839
▁iniluklok	-9840
▁ipaglihim	-9841
▁ipagpalit	-9842
▁isisilang	-9843
▁itinanong	-9844
▁kabaliwan	-9845
▁kabatiran	-9846
▁kabilugan	-9847
▁kabuluhan	-9848
▁kagagawan	-9849
▁kagamitan	-9850
▁kagipitan	-9851
▁kaguluhan	-9852
▁kaliluhan	-9853
▁kamukhang	-9854
▁kariktang	-9855
▁karugtong	-9856
▁katagalan	-9857
▁katamaran	-9858
▁katipunan	-9859
▁katuparan	-9860
▁kilalanin	-9861
▁kinaawaan	-9862
▁kinagagap	-9863
▁kinakapos	-9864
▁kinalaman	-9865
▁kinawayan	-9866
▁luwalhati	-9867
▁magagalit	-9868
▁magagamit	-9869
▁magaspang	-9870
▁magbangon	-9871
▁magdadala	-9872
▁maghapong	-9873
▁magsalita	-9874
▁magsasabi	-9875
▁mahuhulog	-9876
▁maiibigan	-9877
▁makabayan	-9878
▁makakamit	-9879
▁makalabas	-9880
▁makalimot	-9881
▁makapasok	-9882
▁makarinig	-9883
▁makasapit	-9884
▁makatagpo	-9885
▁malilikot	-9886
▁malilimot	-9887
▁mambabasa	-9888
▁mapahamak	-9889
▁mapatakan	-9890
▁masunurin	-9891
▁masusupil	-9892
▁matahimik	-9893
▁matutuhan	-9894
▁matutulis	-9895
▁matutupad	-9896
▁nabanggit	-9897
▁nagagalit	-9898
▁nagagapos	-9899
▁nagbangon	-9900
▁nagdaraan	-9901
▁naghangad	-9902
▁nagpakita	-9903
▁nagsabing	-9904
▁nagsasabi	-9905
▁nagsasaya	-9906
▁nagtaksil	-9907
▁nagtuturo	-9908
▁naiinggit	-9909
▁nakaabang	-9910
▁nakabihis	-9911
▁nakabitin	-9912
▁nakalipad	-9913
▁nakayanan	-9914
▁nalalanta	-9915
▁nalathala	-9916
▁namamahay	-9917
▁namamalas	-9918
▁namumunga	-9919
▁nangakong	-9920
▁nanghiram	-9921
▁nangitlog	-9922
▁napansing	-9923
▁napatigil	-9924
▁napilitan	-9925
▁nasasabik	-9926
▁nasasakop	-9927
▁nasugatan	-9928
▁natanawan	-9929
▁natanggap	-9930
▁nawawalan	-9931
▁nilapitan	-9932
▁nilikhang	-9933
▁pagbabasa	-9934
▁paggunita	-9935
▁pagkabigo	-9936
▁paglalaro	-9937
▁pagtatalo	-9938
▁pagtatayo	-9939
▁pagtitiis	-9940
▁pagtugtog	-9941
▁pakendeng	-9942
▁palasyong	-9943
▁palayawin	-9944
▁palitawin	-9945
▁paliwanag	-9946
▁pamamahay	-9947
▁pambayani	-9948
▁pamilyang	-9949
▁pangkaran	-9950
▁panunumpa	-9951
▁paunlarin	-9952
▁pinalayas	-9953
▁pinapatay	-9954
▁pinturang	-9955
▁pipitasin	-9956
▁salinlahi	-9957
▁sandalyas	-9958
▁sinasadya	-9959
▁sumasayaw	-9960
▁sumisikat	-9961
▁sundalong	-9962
▁tadhanang	-9963
▁tangkilik	-9964
▁tangraban	-9965
▁tinigilan	-9966
▁tinikling	-9967
▁tinutungo	-9968
Papalibutan	-9969
alinghagang	-9970
ipagkasundo	-9971
▁Bagombayan	-9972
▁Gayunpaman	-9973
▁Hesukristo	-9974
▁Ipinangako	-9975
▁Kalanutian	-9976
▁Kalikasang	-9977
▁Kasarinlan	-9978
▁Katapusang	-9979
▁Katarungan	-9980
▁Kayumanggi	-9981
▁Kristiyano	-9982
▁Naghiyawan	-9983
▁Nagmakaawa	-9984
▁Nagsisipan	-9985
▁Nakaramdam	-9986
▁Nanggaling	-9987
▁Napilitang	-9988
▁Pagkalipas	-9989
▁Paruparong	-9990
▁Patrocinio	-9991
▁Persyanong	-9992
▁Samaritano	-9993
▁Silanganin	-9994
▁Sinasabing	-9995
▁binibigyan	-9996
▁binitiwang	-9997
▁binurdahan	-9998
▁bumabalong	-9999
▁bumubulong	-10000
▁dinaramdam	-10001
▁gobernador	-10002
▁henerasyon	-10003
▁hinahagkan	-10004
▁inaakalang	-10005
▁inaalagaan	-10006
▁iniingatan	-10007
▁ipaliwanag	-10008
▁kaalipinan	-10009
▁kabihasnan	-10010
▁kabuhayang	-10011
▁kabuktutan	-10012
▁kagalingan	-10013
▁kagamitang	-10014
▁kakayahang	-10015
▁kaligtasan	-10016
▁kapalarang	-10017
▁kapintasan	-10018
▁kapulungan	-10019
▁kapurihang	-10020
▁kapuspalad	-10021
▁kataksilan	-10022
▁katapusang	-10023
▁kaugaliang	-10024
▁kinakitaan	-10025
▁kontrabida	-10026
▁lumulutang	-10027
▁magdudulot	-10028
▁magkagalit	-10029
▁magkakamag	-10030
▁magkakapit	-10031
▁magkasakit	-10032
▁magkasundo	-10033
▁magmukhang	-10034
▁magpautang	-10035
▁magtanggol	-10036
▁maitanghal	-10037
▁makakamtan	-10038
▁makaramdam	-10039
▁manalangin	-10040
▁manggagawa	-10041
▁mangyaring	-10042
▁mapanganib	-10043
▁mapuputing	-10044
▁matagumpay	-10045
▁matipunong	-10046
▁mawawaglit	-10047
▁mayayamang	-10048
▁nagbangong	-10049
▁nagbubuhat	-10050
▁naghahatid	-10051
▁nagkasundo	-10052
▁naglalagos	-10053
▁naglilibot	-10054
▁nagmamahal	-10055
▁nagtatanim	-10056
▁nagugunita	-10057
▁nagwawakas	-10058
▁nakakaalam	-10059
▁nakakulong	-10060
▁nakaligtas	-10061
▁nakatingin	-10062
▁namamangka	-10063
▁nanalangin	-10064
▁nananariwa	-10065
▁nananatili	-10066
▁nanatiling	-10067
▁nanghihina	-10068
▁napakalaki	-10069
▁nararating	-10070
▁naulinigan	-10071
▁ngumingiti	-10072
▁paghahakot	-10073
▁pagkabigla	-10074
▁pagkaganda	-10075
▁pagkalimot	-10076
▁paglalahad	-10077
▁pagsasanay	-10078
▁palaisipan	-10079
▁pamamasyal	-10080
▁panghihina	-10081
▁pariralang	-10082
▁pasubaling	-10083
▁pinagagawa	-10084
▁pinangarap	-10085
▁pinapansin	-10086
▁prinsesang	-10087
▁pupuntahan	-10088
▁salubungin	-10089
▁sampaguita	-10090
▁sanggunian	-10091
▁sinambilat	-10092
▁sinasabing	-10093
▁sinasariwa	-10094
▁sinilangan	-10095
▁sinisipsip	-10096
▁sumalubong	-10097
▁taludturan	-10098
▁tanghaling	-10099
▁tinataglay	-10100
▁tinatakpan	-10101
apangyarihan	-10102
ipagkaibigan	-10103
▁Impahimbang	-10104
▁Ipinakilala	-10105
▁Kapampangan	-10106
▁Maghimagsik	-10107
▁Sitsiritsit	-10108
▁Tangkilikin	-10109
▁Villafuerte	-10110
▁alingawngaw	-10111
▁ikinabahala	-10112
▁inanyayahan	-10113
▁ipaghiganti	-10114
▁ipinakilala	-10115
▁kabihasnang	-10116
▁kabundukang	-10117
▁kadahilanan	-10118
▁kalagitnaan	-10119
▁kalinangang	-10120
▁kapahamakan	-10121
▁kapanahunan	-10122
▁kapupulutan	-10123
▁karagdagang	-10124
▁karamdamang	-10125
▁kasanggulan	-10126
▁kasaysayang	-10127
▁kinatagpuan	-10128
▁magkakasama	-10129
▁magpagulang	-10130
▁makakayanan	-10131
▁makatuwiran	-10132
▁makipagkita	-10133
▁malalabasan	-10134
▁mananalamin	-10135
▁maparusahan	-10136
▁mapatunayan	-10137
▁matatanggap	-10138
▁matatapatan	-10139
▁nagkapakpak	-10140
▁nagmamalaki	-10141
▁nagsalaysay	-10142
▁nagsisimula	-10143
▁nagsusuyuan	-10144
▁nagtatanong	-10145
▁nahihimbing	-10146
▁nakahandang	-10147
▁nakalulunos	-10148
▁nakasalalay	-10149
▁namamanglaw	-10150
▁namimilipit	-10151
▁nangangamba	-10152
▁nanghihingi	-10153
▁napangasawa	-10154
▁napayukayok	-10155
▁pagkadakila	-10156
▁pagkakaluto	-10157
▁pagkakamali	-10158
▁pagkamangha	-10159
▁pagsisilang	-10160
▁pagtataksil	-10161
▁pakikidigma	-10162
▁pamimingwit	-10163
▁pananahimik	-10164
▁panganganak	-10165
▁parurusahan	-10166
▁pasalamatan	-10167
▁pinagdaanan	-10168
▁pinagdarayo	-10169
▁pinaglaruan	-10170
▁pinakawalan	-10171
▁sinisintang	-10172
▁tagapakinig	-10173
▁tatanggapin	-10174
▁tinatanggap	-10175
▁Binabantayan	-10176
▁Hermenegildo	-10177
▁Pinakamataas	-10178
▁kahihinatnan	-10179
▁kayumangging	-10180
▁mahimasmasan	-10181
▁makabuluhang	-10182
▁makatarungan	-10183
▁nagliliwanag	-10184
▁nagtatrabaho	-10185
▁nakakapiling	-10186
▁nangakaraang	-10187
▁nanggagaling	-10188
▁nasisiyahang	-10189
▁pagkakahawig	-10190
▁pagkakasakit	-10191
▁pagpapahayag	-10192
▁pagpapaunlad	-10193
▁pagpipitagan	-10194
▁pampanitikan	-10195
▁paniniwalang	-10196
▁pinaghirapan	-10197
▁pinaglabanan	-10198
▁pinagsabihan	-10199
▁pinakamaliit	-10200
▁pinakamataas	-10201
▁pinalamutian	-10202
▁sangkatauhan	-10203
▁supernatural	-10204
▁Ipinagpatuloy	-10205
▁Nakapagtataka	-10206
▁Pinatutunayan	-10207
▁kaluwalhatian	-10208
▁maipagtanggol	-10209
▁makapagsimula	-10210
▁makipanirahan	-10211
▁mangingisdang	-10212
▁mapaparusahan	-10213
▁nagniningning	-10214
▁nakatatandang	-10215
▁napanaginipan	-10216
▁pagkakaibigan	-10217
▁pagtatagumpay	-10218
▁pangingibabaw	-10219
▁pinaglibingan	-10220
▁pinagmamasdan	-10221
▁pinangalanang	-10222
▁umalingawngaw	-10223
▁Pinaniniwalaan	-10224
▁interpretasyon	-10225
▁mangungunyapit	-10226
▁nagpapahiwatig	-10227
▁pinagtatagpuan	-10228
▁tagapagtanggol	-10229
▁umaalingawngaw	-10230
▁nangangahulugan	-10231
▁napagpasiyahang	-10232
▁pinagtagumpayan	-10233
-12	-10234
-20	-10235
-39	-10236
32)	-10237
AMA	-10238
Eee	-10239
III	-10240
PAT	-10241
eck	-10242
ect	-10243
eee	-10244
kia	-10245
ple	-10246
poc	-10247
▁39	-10248
2:00	-10249
AMBI	-10250
APAT	-10251
Adab	-10252
Alam	-10253
Araw	-10254
Flor	-10255
Ibig	-10256
Ikin	-10257
Patr	-10258
akti	-10259
argo	-10260
bibi	-10261
biro	-10262
celo	-10263
chos	-10264
cism	-10265
cpoc	-10266
cuad	-10267
ebey	-10268
ence	-10269
epto	-10270
ikli	-10271
isle	-10272
labe	-10273
lowe	-10274
magb	-10275
mlks	-10276
ngao	-10277
riol	-10278
ssss	-10279
▁11:	-10280
▁13:	-10281
▁20:	-10282
▁23:	-10283
▁29:	-10284
▁30:	-10285
▁Apr	-10286
▁Asu	-10287
▁Bic	-10288
▁INA	-10289
▁Low	-10290
▁Yoc	-10291
▁ark	-10292
▁ire	-10293
▁uso	-10294
Akong	-10295
Eeeek	-10296
Malum	-10297
Matat	-10298
Matut	-10299
Ngayo	-10300
aghuy	-10301
amsik	-10302
amtam	-10303
aplos	-10304
ardar	-10305
atect	-10306
chant	-10307
durog	-10308
eckar	-10309
ederi	-10310
egwas	-10311
empsy	-10312
enido	-10313
enyor	-10314
igiik	-10315
iilaw	-10316
iinit	-10317
ikomp	-10318
iksik	-10319
ilihi	-10320
iskis	-10321
iyera	-10322
kanya	-10323
konom	-10324
liham	-10325
lipop	-10326
mahal	-10327
minsa	-10328
nugot	-10329
odite	-10330
okles	-10331
otekt	-10332
papel	-10333
pawis	-10334
rocio	-10335
seras	-10336
sismo	-10337
suwan	-10338
tagpo	-10339
talon	-10340
terin	-10341
tibay	-10342
tuyot	-10343
ukdok	-10344
ulwak	-10345
urado	-10346
urgos	-10347
uropa	-10348
uusig	-10349
vukad	-10350
wento	-10351
yedad	-10352
▁Abad	-10353
▁Aeta	-10354
▁Bien	-10355
▁Caca	-10356
▁Gayg	-10357
▁Hudh	-10358
▁Losl	-10359
▁Oras	-10360
▁Patr	-10361
▁Pran	-10362
▁Prom	-10363
▁Shar	-10364
▁Utak	-10365
▁Vill	-10366
▁amba	-10367
▁aria	-10368
▁bibe	-10369
▁duon	-10370
▁imah	-10371
▁imbi	-10372
▁ipau	-10373
▁kimm	-10374
▁kudy	-10375
▁laon	-10376
▁look	-10377
▁lukl	-10378
▁mens	-10379
▁oohh	-10380
▁prak	-10381
▁pros	-10382
▁rubi	-10383
▁soso	-10384
▁sugp	-10385
▁tayu	-10386
▁tela	-10387
▁turb	-10388
▁tuso	-10389
-12:00	-10390
AMBINI	-10391
Dardar	-10392
Diyata	-10393
Lalake	-10394
Magpip	-10395
Manobo	-10396
Naging	-10397
Nakita	-10398
Narito	-10399
eka	-10400
opr	-10401
ahop	-10402
ashi	-10403
apora	-10404
aspas	-10405
ligid	-10406
▁Isda	-10407
▁Yaon	-10408
▁ihal	-10409
▁luko	-10410
Sasamb	-10411
aaabot	-10412
aantok	-10413
adhika	-10414
adyain	-10415
aghari	-10416
ahabol	-10417
akmang	-10418
alibag	-10419
alismo	-10420
alupan	-10421
amakin	-10422
aninaw	-10423
aramay	-10424
aridad	-10425
arimot	-10426
arinaw	-10427
asamba	-10428
atawid	-10429
atoryo	-10430
bibili	-10431
cpoclo	-10432
cuadro	-10433
dulaan	-10434
ebeyew	-10435
egrito	-10436
elismo	-10437
esorya	-10438
espada	-10439
eywang	-10440
igalot	-10441
igatig	-10442
ihagis	-10443
iinang	-10444
ikulum	-10445
ilihis	-10446
ingsel	-10447
ipusta	-10448
irenas	-10449
itikim	-10450
itikom	-10451
kawasa	-10452
laking	-10453
masdan	-10454
nunuan	-10455
ogyaya	-10456
okohan	-10457
orcism	-10458
palaya	-10459
rodite	-10460
takang	-10461
ubhasa	-10462
ubuhos	-10463
ugenio	-10464
ugnung	-10465
ugunin	-10466
ulagta	-10467
umilit	-10468
unghay	-10469
unsina	-10470
unuang	-10471
uruang	-10472
yenang	-10473
▁Amado	-10474
▁Aywan	-10475
▁BULAK	-10476
▁Benig	-10477
▁Benus	-10478
▁Bicol	-10479
▁Bienv	-10480
▁Bonto	-10481
▁Buuin	-10482
▁Dampa	-10483
▁Datap	-10484
▁Gitna	-10485
▁Hamak	-10486
▁Iloko	-10487
▁Kagaw	-10488
▁Kagit	-10489
▁Kakal	-10490
▁Kamay	-10491
▁Kamya	-10492
▁Kanin	-10493
▁Karun	-10494
▁LAHAT	-10495
▁Latin	-10496
▁Linog	-10497
▁Lunes	-10498
▁Minsa	-10499
ILA	-10500
▁VI	-10501
ahra	-10502
atra	-10503
ugba	-10504
▁Eba	-10505
ahuyo	-10506
emplo	-10507
iitim	-10508
ipres	-10509
itian	-10510
octor	-10511
▁Amay	-10512
▁Amer	-10513
▁Isip	-10514
▁Itim	-10515
▁titi	-10516
Doctor	-10517
agutom	-10518
bagong	-10519
ugtung	-10520
ulapay	-10521
umikap	-10522
usyoso	-10523
▁Aming	-10524
▁Among	-10525
▁Ginto	-10526
▁Mutya	-10527
▁Nahih	-10528
▁Narra	-10529
▁Nueva	-10530
▁Ohhhh	-10531
▁Panan	-10532
▁Pista	-10533
▁Polid	-10534
▁Rosas	-10535
▁Singk	-10536
▁Sukat	-10537
▁Tangi	-10538
▁Tasyo	-10539
▁Tebas	-10540
▁Tomin	-10541
▁Tsina	-10542
▁Ulila	-10543
▁Umaga	-10544
▁Venus	-10545
▁Visay	-10546
▁aisle	-10547
▁ambon	-10548
▁antok	-10549
▁arkit	-10550
▁babal	-10551
▁bayad	-10552
▁bihag	-10553
▁bitag	-10554
▁bitak	-10555
▁bungi	-10556
▁bunyi	-10557
▁buslo	-10558
▁dagim	-10559
▁dagli	-10560
▁dagok	-10561
▁durog	-10562
▁eksor	-10563
▁espad	-10564
▁galos	-10565
▁gusot	-10566
▁hahag	-10567
▁hyena	-10568
▁idina	-10569
▁ihain	-10570
▁inapo	-10571
▁ipagm	-10572
▁ipagt	-10573
▁ispad	-10574
▁iwing	-10575
▁kinaa	-10576
▁kirot	-10577
▁koles	-10578
▁konde	-10579
▁kutad	-10580
▁kutya	-10581
▁lanta	-10582
▁lasap	-10583
▁layag	-10584
▁liksi	-10585
▁limit	-10586
▁lolok	-10587
▁lunos	-10588
▁mabuo	-10589
▁macan	-10590
▁mawiw	-10591
▁medyo	-10592
▁moral	-10593
▁nadad	-10594
▁nalao	-10595
▁ngipi	-10596
▁pawid	-10597
▁pipig	-10598
▁pipil	-10599
cac	-10600
ede	-10601
ioc	-10602
Nagd	-10603
impi	-10604
inse	-10605
lima	-10606
plas	-10607
sisi	-10608
Batay	-10609
Patay	-10610
alika	-10611
erial	-10612
oocan	-10613
yonal	-10614
▁esep	-10615
▁guho	-10616
▁himl	-10617
▁sanl	-10618
Halika	-10619
Nasaan	-10620
abilin	-10621
anakit	-10622
ayadas	-10623
ilinis	-10624
iocles	-10625
▁Bakya	-10626
▁Nabig	-10627
▁Nabuo	-10628
▁Oriol	-10629
▁Pipit	-10630
▁Sumus	-10631
▁Tatay	-10632
▁lipat	-10633
▁mapit	-10634
▁maput	-10635
▁nagsi	-10636
▁pulis	-10637
▁rosal	-10638
▁rumar	-10639
▁sangh	-10640
▁santa	-10641
▁silbi	-10642
▁sipit	-10643
▁sisis	-10644
▁teleb	-10645
▁tibud	-10646
▁tipak	-10647
▁tipon	-10648
▁trans	-10649
▁tumba	-10650
▁tungg	-10651
▁tutup	-10652
▁tuyot	-10653
▁ugong	-10654
▁vinta	-10655
▁yugto	-10656
Bugtong	-10657
Gagawin	-10658
Hahagul	-10659
Katawan	-10660
Luluhod	-10661
Malaueg	-10662
Marahas	-10663
Matanto	-10664
Ninakaw	-10665
Sinuman	-10666
Tatlong	-10667
aaralan	-10668
aawitan	-10669
abigkis	-10670
abinyag	-10671
agasang	-10672
agaslas	-10673
aghapon	-10674
aglayin	-10675
agsakan	-10676
ahalata	-10677
ahatiin	-10678
akaloob	-10679
akbayan	-10680
alabind	-10681
alamlam	-10682
alamyos	-10683
alimuot	-10684
alingon	-10685
alogdog	-10686
alunton	-10687
amilant	-10688
ampanga	-10689
anagrin	-10690
anluran	-10691
apanhik	-10692
arahuyo	-10693
asikaso	-10694
atapong	-10695
atasang	-10696
atectec	-10697
ayabong	-10698
ayagpag	-10699
!)	-10700
-23	-10701
adl	-10702
dob	-10703
gal	-10704
pol	-10705
▁Ho	-10706
▁ek	-10707
Naka	-10708
alsa	-10709
alta	-10710
buko	-10711
▁19:	-10712
amaya	-10713
iiwan	-10714
iliti	-10715
lihan	-10716
ongto	-10717
ubdob	-10718
ugulo	-10719
untok	-10720
▁Baba	-10721
▁Nene	-10722
▁cari	-10723
▁marm	-10724
Pabula	-10725
abakas	-10726
akawan	-10727
alitin	-10728
himala	-10729
kimpal	-10730
umanen	-10731
utukin	-10732
▁Kabat	-10733
▁aagap	-10734
▁aleng	-10735
▁dinat	-10736
▁eklip	-10737
▁kabuh	-10738
▁kalap	-10739
▁kapas	-10740
▁kapon	-10741
▁laong	-10742
▁maint	-10743
▁manib	-10744
▁nalik	-10745
▁napul	-10746
▁palig	-10747
▁patag	-10748
adlakan	-10749
amaalam	-10750
ambulat	-10751
aralgal	-10752
arining	-10753
ayukdok	-10754
ederico	-10755
ensuela	-10756
esisyon	-10757
etapora	-10758
gandang	-10759
ginanap	-10760
hanggan	-10761
hrodite	-10762
ibagong	-10763
ibigkis	-10764
igpasin	-10765
ihangin	-10766
iikutin	-10767
ikhaing	-10768
iktorya	-10769
ilanlin	-10770
ilibing	-10771
ilyuhan	-10772
imortal	-10773
inaayos	-10774
inamnam	-10775
ingnang	-10776
iyayaan	-10777
kabigin	-10778
libutan	-10779
lintang	-10780
lipunan	-10781
lumpung	-10782
maganda	-10783
mundong	-10784
omoocan	-10785
ongtoan	-10786
opootan	-10787
osyedad	-10788
pisahan	-10789
risanto	-10790
sampung	-10791
saulian	-10792
sunuran	-10793
tikular	-10794
ukdulan	-10795
umbayan	-10796
umurang	-10797
unitang	-10798
upuring	-10799
bis	-10800
...)	-10801
hain	-10802
hena	-10803
hers	-10804
obya	-10805
odes	-10806
odog	-10807
oyaw	-10808
puan	-10809
▁12:	-10810
▁Hoy	-10811
▁Loy	-10812
▁pig	-10813
Hayun	-10814
abuan	-10815
alago	-10816
alatk	-10817
balat	-10818
entil	-10819
gusto	-10820
iibig	-10821
iluha	-10822
koyaw	-10823
unaan	-10824
uwaan	-10825
yalan	-10826
▁Harp	-10827
▁Oray	-10828
▁ipan	-10829
▁lata	-10830
▁pugo	-10831
ogodog	-10832
▁Marte	-10833
▁aring	-10834
▁ehers	-10835
▁isama	-10836
▁kahal	-10837
▁kasan	-10838
▁kasuk	-10839
▁lumal	-10840
▁masay	-10841
▁naaan	-10842
▁pahat	-10843
aagawan	-10844
abaging	-10845
abaunan	-10846
alisbis	-10847
esyonal	-10848
idating	-10849
imitang	-10850
iskoyaw	-10851
ukipkip	-10852
uwintas	-10853
yamante	-10854
▁(1932)	-10855
▁30,000	-10856
▁Aakyat	-10857
▁Angkin	-10858
▁Asahan	-10859
▁Athena	-10860
▁Bacong	-10861
▁Bandan	-10862
▁Bayaan	-10863
▁Bontoc	-10864
▁Bumaba	-10865
▁Bumili	-10866
▁Bungal	-10867
▁Burgos	-10868
▁Enrile	-10869
▁Gloria	-10870
▁Hangad	-10871
▁Hangal	-10872
▁Higera	-10873
▁Iliyan	-10874
▁Ilocos	-10875
▁Intsik	-10876
▁Isipin	-10877
▁Itinat	-10878
▁Iwasan	-10879
▁KASAMA	-10880
▁Kabaly	-10881
▁Kagyat	-10882
▁Kaning	-10883
▁Kinaum	-10884
▁Korong	-10885
▁Labong	-10886
▁Laguna	-10887
▁Loslos	-10888
▁Lupain	-10889
▁Maaari	-10890
▁Magpap	-10891
▁Makati	-10892
▁Mamili	-10893
▁Menand	-10894
▁Minago	-10895
▁Minang	-10896
▁Momong	-10897
▁Muntik	-10898
▁Naakit	-10899
"?	-10900
.")	-10901
Pal	-10902
ber	-10903
eni	-10904
nen	-10905
old	-10906
ren	-10907
▁RO	-10908
Gaya	-10909
amim	-10910
ason	-10911
isen	-10912
iwis	-10913
okon	-10914
silk	-10915
ulto	-10916
▁Ate	-10917
▁Mod	-10918
▁Pur	-10919
▁ROS	-10920
▁Sto	-10921
▁Ulo	-10922
abeto	-10923
ialam	-10924
ingil	-10925
ipint	-10926
kahan	-10927
laman	-10928
sahan	-10929
tasin	-10930
urias	-10931
▁Atin	-10932
▁Bita	-10933
▁ROSA	-10934
▁Tabi	-10935
▁hina	-10936
▁ikas	-10937
▁pamp	-10938
▁ulir	-10939
agahan	-10940
ihanay	-10941
isilip	-10942
itigil	-10943
ukasan	-10944
unidad	-10945
▁Nanan	-10946
▁Panap	-10947
▁kayat	-10948
▁makuk	-10949
▁malas	-10950
▁pahih	-10951
LINISAN	-10952
isingin	-10953
▁Furias	-10954
▁Manong	-10955
▁Nagbab	-10956
▁Naiiba	-10957
▁Nanaog	-10958
▁Nanood	-10959
▁Natawa	-10960
▁Nenita	-10961
▁Osmali	-10962
▁Padang	-10963
▁Pagkag	-10964
▁Pagkak	-10965
▁Pagkal	-10966
▁Pagkap	-10967
▁Pandak	-10968
▁Papaya	-10969
▁Parati	-10970
▁Persia	-10971
▁Pinagd	-10972
▁Pulubi	-10973
▁Punung	-10974
▁Saging	-10975
▁Sansin	-10976
▁Sigaan	-10977
▁Sinagm	-10978
▁Sising	-10979
▁Susana	-10980
▁Tagyak	-10981
▁Tapaan	-10982
▁Tauhan	-10983
▁Teksto	-10984
▁Tinuka	-10985
▁Turkia	-10986
▁Turuan	-10987
▁Tuyong	-10988
▁Umalis	-10989
▁Unahan	-10990
▁abutan	-10991
▁alibug	-10992
▁aragan	-10993
▁aralin	-10994
▁bakasy	-10995
▁barong	-10996
▁basong	-10997
▁bayaan	-10998
▁bigkis	-10999
AA	-11000
HAN	-11001
eid	-11002
eol	-11003
ibi	-11004
oll	-11005
ord	-11006
usm	-11007
vid	-11008
UHAN	-11009
ibih	-11010
idas	-11011
ihon	-11012
olar	-11013
ukid	-11014
umid	-11015
uruk	-11016
vana	-11017
vide	-11018
▁Bur	-11019
▁gal	-11020
alags	-11021
apant	-11022
bukid	-11023
eolog	-11024
ingid	-11025
uhaan	-11026
▁Bint	-11027
▁Coll	-11028
▁Mala	-11029
▁Payo	-11030
▁haba	-11031
▁layo	-11032
▁libo	-11033
▁naku	-11034
▁pind	-11035
Magpap	-11036
ahayan	-11037
antala	-11038
hapong	-11039
isipol	-11040
uguhit	-11041
▁Binti	-11042
▁Kalak	-11043
▁Kalaw	-11044
▁Midas	-11045
▁gangg	-11046
▁isasa	-11047
▁katiw	-11048
▁nakuk	-11049
▁pinar	-11050
▁sasan	-11051
alangoy	-11052
alasing	-11053
apaapoy	-11054
aravana	-11055
umaling	-11056
▁Bigong	-11057
▁Talags	-11058
▁bisang	-11059
▁bitbit	-11060
▁boteng	-11061
▁bubuga	-11062
▁buhong	-11063
▁bulkan	-11064
▁bungad	-11065
▁dakpin	-11066
▁devide	-11067
▁dilang	-11068
▁diyata	-11069
▁durung	-11070
▁gatong	-11071
▁ginuho	-11072
▁gitgit	-11073
▁guguan	-11074
▁gumiri	-11075
▁hagkan	-11076
▁hatiin	-11077
▁hentil	-11078
▁hidhid	-11079
▁hilaga	-11080
▁humpay	-11081
▁ibayad	-11082
▁iganti	-11083
▁ikabub	-11084
▁ikalul	-11085
▁imahen	-11086
▁impera	-11087
▁inasam	-11088
▁inuman	-11089
▁ipauub	-11090
▁ipukol	-11091
▁isukat	-11092
▁kabaly	-11093
▁kabibi	-11094
▁kadena	-11095
▁kahong	-11096
▁kainan	-11097
▁kaliks	-11098
▁kambal	-11099
Hul	-11100
pom	-11101
sum	-11102
▁Pr	-11103
aawa	-11104
ahaw	-11105
anya	-11106
immo	-11107
oman	-11108
usod	-11109
▁Duw	-11110
▁dug	-11111
Malag	-11112
estal	-11113
namin	-11114
okano	-11115
sindi	-11116
▁gong	-11117
▁kali	-11118
▁kasa	-11119
▁nait	-11120
Siyang	-11121
abanan	-11122
emanya	-11123
ibayan	-11124
ilibak	-11125
immoco	-11126
itindi	-11127
ubukal	-11128
▁Lalak	-11129
▁Mapay	-11130
▁Tahan	-11131
▁kuwag	-11132
▁matiy	-11133
▁napal	-11134
▁salak	-11135
▁salot	-11136
Hulihin	-11137
Malagom	-11138
alambot	-11139
ambahan	-11140
edestal	-11141
ugulong	-11142
▁Neckar	-11143
▁ginang	-11144
▁isabog	-11145
▁kamusm	-11146
▁kanais	-11147
▁kawali	-11148
▁kaysas	-11149
▁kimpal	-11150
▁kubkob	-11151
▁kumpol	-11152
▁kungdi	-11153
▁kuwago	-11154
▁lampad	-11155
▁lampas	-11156
▁lampin	-11157
▁lasing	-11158
▁lasong	-11159
▁liblib	-11160
▁liling	-11161
▁lingid	-11162
▁luhaan	-11163
▁lumiit	-11164
▁lunsod	-11165
▁maatim	-11166
▁maginh	-11167
▁mahiya	-11168
▁maikli	-11169
▁maiksi	-11170
▁mairog	-11171
▁makaya	-11172
▁mamaka	-11173
▁manood	-11174
▁mapagb	-11175
▁marmol	-11176
▁matiis	-11177
▁mautas	-11178
▁mawika	-11179
▁molabe	-11180
▁mulang	-11181
▁musala	-11182
▁naaani	-11183
▁nadala	-11184
▁nailat	-11185
▁nalaon	-11186
▁naligo	-11187
▁namana	-11188
▁nangal	-11189
▁napita	-11190
▁nauuwi	-11191
▁nunung	-11192
▁padyak	-11193
▁pagdir	-11194
▁pagkuk	-11195
▁pakwan	-11196
▁paring	-11197
▁pasint	-11198
▁patnub	-11199
0)	-11200
UM	-11201
Pas	-11202
len	-11203
mir	-11204
opa	-11205
ota	-11206
▁BA	-11207
▁SA	-11208
Koro	-11209
abes	-11210
paka	-11211
ubot	-11212
▁Aur	-11213
▁BAL	-11214
▁Huk	-11215
▁Taw	-11216
▁Tut	-11217
▁gay	-11218
▁lap	-11219
▁siy	-11220
▁taw	-11221
agasa	-11222
amasa	-11223
anaul	-11224
bihan	-11225
daing	-11226
ungot	-11227
▁(199	-11228
▁Bete	-11229
▁bila	-11230
▁paam	-11231
▁panr	-11232
andata	-11233
asaulo	-11234
ilanga	-11235
isigan	-11236
udlang	-11237
▁Daing	-11238
▁Hukbo	-11239
▁Lorna	-11240
▁Union	-11241
▁Yabes	-11242
▁bilao	-11243
▁nilal	-11244
▁purok	-11245
▁talis	-11246
▁tanga	-11247
Pasigaw	-11248
alangga	-11249
awanang	-11250
inataan	-11251
▁Dumapo	-11252
▁Makopa	-11253
▁Manaul	-11254
▁lapain	-11255
▁naisat	-11256
▁nangat	-11257
▁pawiin	-11258
▁perdig	-11259
▁piniit	-11260
▁pintor	-11261
▁prayle	-11262
▁puwang	-11263
▁pwesto	-11264
▁sakbat	-11265
▁samang	-11266
▁sierpe	-11267
▁singko	-11268
▁siwang	-11269
▁soldad	-11270
▁sumapi	-11271
▁sumbat	-11272
▁sungit	-11273
▁suriin	-11274
▁susuko	-11275
▁teksto	-11276
▁templo	-11277
▁tiisin	-11278
▁tiktak	-11279
▁tingal	-11280
▁tukain	-11281
▁turing	-11282
▁tutuon	-11283
▁ulirat	-11284
▁umihip	-11285
▁umulit	-11286
▁umunat	-11287
▁umusad	-11288
▁upuang	-11289
▁wasaki	-11290
▁yumuko	-11291
Arumanen	-11292
Bibigkas	-11293
Dekalogo	-11294
Florante	-11295
Hahagulg	-11296
Iaangkop	-11297
Ibibigay	-11298
Kaibigan	-11299
])	-11300
Bin	-11301
Din	-11302
apy	-11303
eco	-11304
imo	-11305
mam	-11306
ulf	-11307
▁TA	-11308
▁py	-11309
HHHH	-11310
atro	-11311
bang	-11312
ingp	-11313
uhap	-11314
uunt	-11315
walo	-11316
wulf	-11317
▁Dur	-11318
Amang	-11319
pasan	-11320
ungas	-11321
▁Damb	-11322
▁Kuba	-11323
▁Sang	-11324
▁abal	-11325
▁seco	-11326
▁yong	-11327
abunan	-11328
agutin	-11329
eowulf	-11330
ikatan	-11331
inging	-11332
▁Malim	-11333
▁Pingp	-11334
▁Prans	-11335
▁ayoko	-11336
▁ipagd	-11337
▁lapas	-11338
▁mahad	-11339
▁mahar	-11340
▁malis	-11341
▁mayro	-11342
▁paisa	-11343
▁patal	-11344
▁patat	-11345
▁pinoy	-11346
▁sinab	-11347
alpasan	-11348
pangkat	-11349
▁Birhen	-11350
▁Payong	-11351
▁adelpa	-11352
▁kawawa	-11353
▁pagkar	-11354
▁pyesta	-11355
▁rangya	-11356
▁umuuwi	-11357
▁yuyuko	-11358
Kanluran	-11359
Mamayang	-11360
Paulitin	-11361
Pupwesto	-11362
aalalang	-11363
abalahan	-11364
abalutan	-11365
aginting	-11366
agkanulo	-11367
ahagilap	-11368
ahariang	-11369
alakhing	-11370
alapitan	-11371
alatkayo	-11372
amatuwid	-11373
andingan	-11374
apanatag	-11375
ararapat	-11376
arilinan	-11377
arungang	-11378
asagutin	-11379
asapitan	-11380
atingkad	-11381
binyagan	-11382
chantara	-11383
engkanto	-11384
ernandez	-11385
etyembre	-11386
iginhawa	-11387
ihikayat	-11388
ikompisa	-11389
ilinlang	-11390
ilokohan	-11391
imetheus	-11392
ipinsala	-11393
isinalin	-11394
isisihan	-11395
iwasayan	-11396
konomiya	-11397
obyembre	-11398
presyong	-11399
▁f	-11400
Nan	-11401
Pat	-11402
kos	-11403
wal	-11404
▁Aw	-11405
▁aw	-11406
Nags	-11407
eeng	-11408
hero	-11409
idor	-11410
ikdo	-11411
ipun	-11412
waan	-11413
▁Dan	-11414
▁tah	-11415
▁tiw	-11416
abaka	-11417
amung	-11418
ibayo	-11419
yente	-11420
▁Huli	-11421
▁Kong	-11422
▁kaes	-11423
aakyat	-11424
aglahi	-11425
akaila	-11426
akanan	-11427
galang	-11428
ilapon	-11429
isahin	-11430
isinag	-11431
▁Danum	-11432
▁Gaano	-11433
▁Maaga	-11434
▁kaesk	-11435
atutulo	-11436
ilabang	-11437
unganen	-11438
▁Awitin	-11439
▁Mabait	-11440
▁kanina	-11441
▁pagkai	-11442
▁sasama	-11443
agamitin	-11444
ubukalan	-11445
ubuwisit	-11446
ukdulang	-11447
umukhang	-11448
unghayan	-11449
ungsuwan	-11450
uwentong	-11451
uyurakan	-11452
wentuhan	-11453
▁Alagaan	-11454
▁Andrade	-11455
▁Apolaki	-11456
▁Babaing	-11457
▁Bagamat	-11458
▁Bahagya	-11459
▁Bangkay	-11460
▁Basilio	-11461
▁Basilis	-11462
▁Bawasan	-11463
▁Benigno	-11464
▁Beowulf	-11465
▁Boholan	-11466
▁Bubuhat	-11467
▁Bulawan	-11468
▁Christo	-11469
▁Dadaluh	-11470
▁Dinalaw	-11471
▁Dogodog	-11472
▁Dumagat	-11473
▁Gambang	-11474
▁Gatpayo	-11475
▁Gumanda	-11476
▁Gustong	-11477
▁Habilin	-11478
▁Hagunoy	-11479
▁Hinamon	-11480
▁Huminga	-11481
▁Ibinaba	-11482
▁Ilokano	-11483
▁Iniabot	-11484
▁Jerusal	-11485
▁Kalakip	-11486
▁Kalinga	-11487
▁Kaputol	-11488
▁Kumapit	-11489
▁Kumatok	-11490
▁Libiran	-11491
▁Loslosi	-11492
▁Lucutan	-11493
▁Luksang	-11494
▁Lumawig	-11495
▁Mabango	-11496
▁Madilim	-11497
▁Magbiro	-11498
▁Magobya	-11499
Ak	-11500
Um	-11501
].	-11502
uf	-11503
Kaw	-11504
ads	-11505
her	-11506
sag	-11507
▁Hm	-11508
Sila	-11509
adag	-11510
anog	-11511
inhi	-11512
itar	-11513
lugo	-11514
pher	-11515
▁Arm	-11516
▁Ruf	-11517
▁rit	-11518
adsad	-11519
akada	-11520
alaon	-11521
apana	-11522
asara	-11523
atuon	-11524
iraan	-11525
lakas	-11526
oloob	-11527
ulumo	-11528
▁Bibl	-11529
▁maig	-11530
Bayaan	-11531
Kawawa	-11532
adaloy	-11533
amunin	-11534
andoon	-11535
itaryo	-11536
lungan	-11537
▁Armen	-11538
▁Harap	-11539
▁Kinat	-11540
▁Mabub	-11541
▁Sapat	-11542
▁kahig	-11543
▁mapip	-11544
▁masil	-11545
▁supot	-11546
▁tanim	-11547
Mabilis	-11548
aksakin	-11549
alanang	-11550
amahagi	-11551
islapan	-11552
▁Gumawa	-11553
▁Rufino	-11554
▁ikinas	-11555
▁pagmum	-11556
▁panata	-11557
Tigpasin	-11558
adhanang	-11559
▁Armenia	-11560
▁Bibliya	-11561
▁Lumanog	-11562
▁Magtago	-11563
▁Malimit	-11564
▁Malugod	-11565
▁Manalig	-11566
▁Mapapab	-11567
▁Maputla	-11568
▁Marlowe	-11569
▁Matibay	-11570
▁Nabatid	-11571
▁Nabigla	-11572
▁Nagdaan	-11573
▁Nagtayo	-11574
▁Naguili	-11575
▁Nakalbo	-11576
▁Nakatut	-11577
▁Nalunod	-11578
▁Namuhay	-11579
▁Napagka	-11580
▁Napakas	-11581
▁Natapos	-11582
▁Nawalan	-11583
▁Nebeyew	-11584
▁Negrito	-11585
▁Osmalic	-11586
▁Palihim	-11587
▁Pambata	-11588
▁Pambili	-11589
▁Penuela	-11590
▁Persiya	-11591
▁Piedras	-11592
▁Pinasok	-11593
▁Pinauwi	-11594
▁Pinutol	-11595
▁Plutong	-11596
▁Polidik	-11597
▁Puhunan	-11598
▁Silayan	-11599
3-	-11600
IN	-11601
gg	-11602
kl	-11603
▁9	-11604
Hah	-11605
edd	-11606
kap	-11607
net	-11608
Ipak	-11609
Magk	-11610
engu	-11611
ilot	-11612
rekl	-11613
rico	-11614
▁Dat	-11615
▁Gar	-11616
▁Sih	-11617
▁kot	-11618
▁tuh	-11619
▁upo	-11620
amora	-11621
aynet	-11622
inong	-11623
ipili	-11624
lapad	-11625
nggoy	-11626
uhagi	-11627
uruin	-11628
wagan	-11629
▁Ledd	-11630
▁bund	-11631
▁swak	-11632
▁teks	-11633
andiwa	-11634
angkok	-11635
anyong	-11636
enguet	-11637
iwakal	-11638
parusa	-11639
▁Dilag	-11640
▁Kaiba	-11641
▁Lanao	-11642
▁Tabak	-11643
▁kaing	-11644
▁latay	-11645
▁tikis	-11646
andusay	-11647
reklamo	-11648
ulangin	-11649
▁Unggoy	-11650
▁hibang	-11651
▁kasuyo	-11652
▁silain	-11653
▁tangos	-11654
▁tatawa	-11655
▁umayon	-11656
alingang	-11657
atiwakal	-11658
ungaling	-11659
▁Benguet	-11660
▁Sinikap	-11661
▁Sirenas	-11662
▁Sisilya	-11663
▁Sumadag	-11664
▁Sumatra	-11665
▁Tabagka	-11666
▁Tahimik	-11667
▁Taimtim	-11668
▁Tumahol	-11669
▁Tungkol	-11670
▁Tupinaw	-11671
▁Ulahing	-11672
▁Umaawit	-11673
▁Umakyat	-11674
▁Umiibig	-11675
▁Visayas	-11676
▁Yocasta	-11677
▁aagawin	-11678
▁amihang	-11679
▁ampunin	-11680
▁aninong	-11681
▁arugain	-11682
▁baguhin	-11683
▁bakawan	-11684
▁balikan	-11685
▁balyena	-11686
▁banayad	-11687
▁batugan	-11688
▁batuhan	-11689
▁bayaran	-11690
▁bellang	-11691
▁bendita	-11692
▁biniday	-11693
▁binuwag	-11694
▁blaking	-11695
▁bukasin	-11696
▁bumbong	-11697
▁bumuhos	-11698
▁bumukal	-11699
mg	-11700
Gan	-11701
ale	-11702
day	-11703
ham	-11704
pen	-11705
▁ep	-11706
arim	-11707
ayod	-11708
imik	-11709
itir	-11710
uyam	-11711
▁sir	-11712
aluin	-11713
aluna	-11714
uuyam	-11715
▁Gawa	-11716
▁Paki	-11717
abagay	-11718
abukas	-11719
agalaw	-11720
atuday	-11721
ayunin	-11722
ibagay	-11723
imarim	-11724
▁Pawis	-11725
▁Tamad	-11726
▁bulak	-11727
▁gabay	-11728
▁riyan	-11729
▁uring	-11730
atanyag	-11731
dugtong	-11732
ikalang	-11733
iwagaan	-11734
▁Dangla	-11735
▁Ipinag	-11736
▁Pulang	-11737
▁alabok	-11738
▁inaliw	-11739
▁masins	-11740
▁pababa	-11741
▁simple	-11742
▁tinula	-11743
▁umimik	-11744
ahayagan	-11745
amantala	-11746
intahang	-11747
itirikan	-11748
▁alinman	-11749
▁barangg	-11750
▁busabos	-11751
▁butihin	-11752
▁damayan	-11753
▁dangkal	-11754
▁dantaon	-11755
▁daratal	-11756
▁eklipse	-11757
▁eskwela	-11758
▁gagamba	-11759
▁gamutin	-11760
▁ginatip	-11761
▁gumalaw	-11762
▁gumanda	-11763
▁gumayak	-11764
▁habagat	-11765
▁hagdang	-11766
▁halikan	-11767
▁hanggat	-11768
▁hibashi	-11769
▁hinagod	-11770
▁hinahon	-11771
▁hinamon	-11772
▁hinding	-11773
▁humasik	-11774
▁humibik	-11775
▁humubog	-11776
▁ibubuka	-11777
▁idinaos	-11778
▁ihampas	-11779
▁ihandog	-11780
▁ilusyon	-11781
▁inakala	-11782
▁ingatan	-11783
▁inihain	-11784
▁insekto	-11785
▁inulila	-11786
▁inuring	-11787
▁inuulit	-11788
▁inuusig	-11789
▁ipagawa	-11790
▁ipakita	-11791
▁ipinagd	-11792
▁ipiniit	-11793
▁isinisi	-11794
▁isinuot	-11795
▁iskolar	-11796
▁itampok	-11797
▁itangis	-11798
▁kabataa	-11799
Ab	-11800
Bar	-11801
hag	-11802
kab	-11803
mab	-11804
uhi	-11805
▁AT	-11806
▁hi	-11807
Ipin	-11808
atis	-11809
isaw	-11810
ulaw	-11811
uyaw	-11812
uyos	-11813
▁Hek	-11814
▁Hih	-11815
▁Lat	-11816
▁aya	-11817
▁gut	-11818
aaapi	-11819
abaan	-11820
galaw	-11821
▁Esep	-11822
▁Pari	-11823
▁anya	-11824
▁imin	-11825
▁lima	-11826
▁plat	-11827
▁siga	-11828
▁taun	-11829
Nakang	-11830
agpang	-11831
alipad	-11832
apanga	-11833
pangan	-11834
unghan	-11835
▁Aladi	-11836
▁Hayan	-11837
▁Maman	-11838
▁Papag	-11839
▁Wakas	-11840
▁ipang	-11841
▁mapal	-11842
▁nging	-11843
▁pagit	-11844
▁tangg	-11845
▁tiisi	-11846
alakpak	-11847
ampisaw	-11848
unganga	-11849
▁Amuyaw	-11850
▁Hekate	-11851
▁Humayo	-11852
▁Nasabi	-11853
▁inalis	-11854
▁nagpan	-11855
▁papunt	-11856
▁sundan	-11857
▁umilag	-11858
bulungan	-11859
▁Leghorn	-11860
▁Minsang	-11861
▁Sibuyas	-11862
▁inaping	-11863
▁insenso	-11864
▁itinali	-11865
▁kagatin	-11866
▁kagitna	-11867
▁kakilak	-11868
▁kalagin	-11869
▁kalalim	-11870
▁kalamig	-11871
▁kalatas	-11872
▁kalingk	-11873
▁kaluban	-11874
▁kamahar	-11875
▁kamukha	-11876
▁kaparus	-11877
▁karikta	-11878
▁kaskong	-11879
▁katotoh	-11880
▁kayakap	-11881
▁kinahih	-11882
▁kinapal	-11883
▁kudyapi	-11884
▁kumitil	-11885
▁kunwari	-11886
▁kuwalta	-11887
▁kwintas	-11888
▁lipulin	-11889
▁lumimot	-11890
▁lumuhod	-11891
▁lumusob	-11892
▁lunurin	-11893
▁lusubin	-11894
▁maalong	-11895
▁maapula	-11896
▁mabasag	-11897
▁mabibig	-11898
▁mabilog	-11899
Tum	-11900
hon	-11901
kum	-11902
pab	-11903
sim	-11904
wil	-11905
yap	-11906
▁1)	-11907
▁NG	-11908
aang	-11909
ahum	-11910
egas	-11911
esio	-11912
▁Guw	-11913
▁Mil	-11914
▁Pit	-11915
▁Tir	-11916
▁hay	-11917
antig	-11918
buong	-11919
▁iniw	-11920
▁ipat	-11921
▁mumo	-11922
Tatang	-11923
alapat	-11924
emesio	-11925
ulutas	-11926
▁Ibuan	-11927
▁Lamok	-11928
▁Sisiw	-11929
▁babai	-11930
▁gahum	-11931
▁kinur	-11932
▁kunwa	-11933
▁nabay	-11934
▁nagpa	-11935
▁talos	-11936
agkaisa	-11937
ahampas	-11938
ilingas	-11939
isasyon	-11940
▁Dayang	-11941
▁Guwela	-11942
▁Katalo	-11943
▁Magdad	-11944
▁hahang	-11945
▁hinala	-11946
▁kakain	-11947
▁kuting	-11948
▁malama	-11949
▁marang	-11950
▁nabawi	-11951
▁ninong	-11952
▁prasko	-11953
▁sasamb	-11954
atanggap	-11955
▁Nagmula	-11956
▁Nemesio	-11957
▁mabiyak	-11958
▁mabusog	-11959
▁mabutas	-11960
▁magalit	-11961
▁magmana	-11962
▁magtayo	-11963
▁magtika	-11964
▁mahapis	-11965
▁mahilig	-11966
▁maidlip	-11967
▁maingay	-11968
▁makakat	-11969
▁makapit	-11970
▁makasas	-11971
▁malihim	-11972
▁malikot	-11973
▁malipol	-11974
▁mamasid	-11975
▁manggas	-11976
▁mangkok	-11977
▁mapagod	-11978
▁mapasok	-11979
▁marahan	-11980
▁mariing	-11981
▁marilag	-11982
▁masahol	-11983
▁masunog	-11984
▁matawag	-11985
▁matayog	-11986
▁matupad	-11987
▁mauutas	-11988
▁mawalan	-11989
▁maykaya	-11990
▁mithiin	-11991
▁mukhang	-11992
▁naakyat	-11993
▁nabihis	-11994
▁nadakip	-11995
▁nagdaos	-11996
▁nagdapa	-11997
▁naggala	-11998
▁nagkait	-11999
32	-12000
ayt	-12001
mus	-12002
usi	-12003
ario	-12004
egor	-12005
ings	-12006
riya	-12007
▁Lid	-12008
▁amo	-12009
▁ist	-12010
▁kus	-12011
▁sit	-12012
angki	-12013
apito	-12014
awata	-12015
isaya	-12016
onong	-12017
umaga	-12018
▁Dili	-12019
▁Kanl	-12020
▁Laya	-12021
▁kahi	-12022
▁musa	-12023
▁naih	-12024
▁saad	-12025
▁siit	-12026
▁uuwi	-12027
Bisaya	-12028
garing	-12029
ihisan	-12030
musika	-12031
▁Buhok	-12032
▁bulsa	-12033
▁inapi	-12034
▁kanun	-12035
▁kulot	-12036
▁likat	-12037
▁malun	-12038
▁pagad	-12039
▁sobra	-12040
▁udyok	-12041
abikang	-12042
aligang	-12043
angguni	-12044
bayanan	-12045
ustriya	-12046
▁Niyang	-12047
▁hinang	-12048
▁ikahon	-12049
▁kanunu	-12050
▁napagt	-12051
▁pansit	-12052
Dardarat	-12053
▁Ikapito	-12054
▁Kapatid	-12055
▁Lidagat	-12056
▁Pumitas	-12057
▁Sinauna	-12058
▁Sinulat	-12059
▁dambana	-12060
▁habilin	-12061
▁isusuot	-12062
▁kanyong	-12063
▁lamunin	-12064
▁nagsasa	-12065
▁nagsawa	-12066
▁nagsisi	-12067
▁nagtaas	-12068
▁nagtayo	-12069
▁nahagip	-12070
▁naiinis	-12071
▁nakabab	-12072
▁nakakas	-12073
▁nakalil	-12074
▁nakikis	-12075
▁nakitil	-12076
▁nalagot	-12077
▁namamat	-12078
▁namugad	-12079
▁nanagos	-12080
▁nangagt	-12081
▁napulot	-12082
▁nasakop	-12083
▁natanaw	-12084
▁natipon	-12085
▁natuloy	-12086
▁natural	-12087
▁nayanig	-12088
▁nilanta	-12089
▁nilason	-12090
▁nilibot	-12091
▁niyaong	-12092
▁okasyon	-12093
▁paakyat	-12094
▁pabilog	-12095
▁pagkasi	-12096
▁pagpuri	-12097
▁pagtaas	-12098
▁pahatid	-12099
aig	-12100
oli	-12101
ubl	-12102
enda	-12103
guni	-12104
laya	-12105
ulos	-12106
▁ANG	-12107
▁Bab	-12108
▁Hmm	-12109
▁Ita	-12110
▁Roy	-12111
▁Sim	-12112
▁lup	-12113
▁tey	-12114
Iyang	-12115
Mapan	-12116
abala	-12117
agand	-12118
iwasa	-12119
lagot	-12120
masid	-12121
uhata	-12122
umama	-12123
▁Alul	-12124
▁High	-12125
▁Kala	-12126
▁Lumb	-12127
▁Mlks	-12128
▁Nito	-12129
▁ilul	-12130
▁pito	-12131
▁teyp	-12132
ingala	-12133
napung	-12134
ugulat	-12135
ulanit	-12136
▁apong	-12137
▁pakal	-12138
iisipin	-12139
tatlong	-12140
ulimlim	-12141
▁Anyong	-12142
▁Sasaba	-12143
▁aplaya	-12144
▁binayo	-12145
▁inaaba	-12146
alikasan	-12147
amantika	-12148
▁Luluhod	-12149
▁Lumbera	-12150
▁Makinig	-12151
▁Narinig	-12152
▁binalak	-12153
▁maliwag	-12154
▁mensahe	-12155
▁nabiyak	-12156
▁nagbata	-12157
▁paineta	-12158
▁palayan	-12159
▁palibot	-12160
▁pamahra	-12161
▁pamukaw	-12162
▁pandama	-12163
▁papatay	-12164
▁pasukin	-12165
▁patagin	-12166
▁patalun	-12167
▁patanaw	-12168
▁pihikan	-12169
▁pilyong	-12170
▁pinaaas	-12171
▁pinahih	-12172
▁pinalad	-12173
▁pinapag	-12174
▁pinutol	-12175
▁pithaya	-12176
▁piyesta	-12177
▁popular	-12178
▁potrero	-12179
▁praktik	-12180
▁pugutan	-12181
▁pulutin	-12182
▁pumukol	-12183
▁pupugot	-12184
▁sabagay	-12185
▁sakbibi	-12186
▁salakot	-12187
▁saligan	-12188
▁samakat	-12189
▁sanlang	-12190
▁sasayad	-12191
▁sibilis	-12192
▁sikatan	-12193
▁silyang	-12194
▁simbolo	-12195
▁sinadya	-12196
▁sinamba	-12197
▁singkad	-12198
▁sinlaki	-12199
Kal	-12200
Lupa	-12201
Wika	-12202
alia	-12203
bali	-12204
▁Dud	-12205
▁Usa	-12206
Ibong	-12207
aliin	-12208
atyag	-12209
iming	-12210
inaon	-12211
osong	-12212
▁Kank	-12213
▁Katu	-12214
▁Ngum	-12215
▁dara	-12216
▁kara	-12217
▁pila	-12218
▁suma	-12219
▁tago	-12220
aakala	-12221
ayaman	-12222
ayngay	-12223
igilid	-12224
iraman	-12225
iwanan	-12226
lalaki	-12227
madiin	-12228
ukayan	-12229
ungkab	-12230
ungkag	-12231
▁Itlog	-12232
▁Pinto	-12233
▁Pugad	-12234
▁Sumal	-12235
▁kilik	-12236
▁nalin	-12237
alayang	-12238
ayangin	-12239
dudulot	-12240
ubulong	-12241
▁Hermes	-12242
▁hinabi	-12243
▁kasali	-12244
▁larong	-12245
▁mabasa	-12246
▁pagasa	-12247
▁palaki	-12248
▁pusang	-12249
▁sinisi	-12250
▁sumuyo	-12251
▁tighaw	-12252
asunduan	-12253
salaysay	-12254
▁Iginala	-12255
▁Lalapit	-12256
▁Pagdaan	-12257
▁katungk	-12258
▁naiwang	-12259
▁naturan	-12260
▁pinapan	-12261
▁sagamat	-12262
▁sagrado	-12263
▁sinunod	-12264
▁sisigaw	-12265
▁sisilip	-12266
▁sisisid	-12267
▁sugilan	-12268
▁sukdang	-12269
▁sulatan	-12270
▁sulatin	-12271
▁sumaksi	-12272
▁sumbong	-12273
▁sumpain	-12274
▁sumubok	-12275
▁sutlang	-12276
▁tagalog	-12277
▁takbong	-12278
▁tantong	-12279
▁tinutop	-12280
▁tiwasay	-12281
▁trabaho	-12282
▁tukuyin	-12283
▁tulutan	-12284
▁tumahol	-12285
▁tumanaw	-12286
▁tumutol	-12287
▁turista	-12288
▁tutungo	-12289
▁tutunog	-12290
▁tuturan	-12291
▁tuwirin	-12292
▁ugaling	-12293
▁umaaliw	-12294
▁umaayon	-12295
▁umiling	-12296
▁umugong	-12297
▁umurong	-12298
▁umuulan	-12299
Ayan	-12300
nasa	-12301
salo	-12302
▁Cat	-12303
▁pen	-12304
▁sel	-12305
Kapag	-12306
agyan	-12307
atamb	-12308
▁What	-12309
▁amis	-12310
▁buko	-12311
▁buwa	-12312
▁ilap	-12313
Talaga	-12314
abansa	-12315
ahasik	-12316
akayin	-12317
ambong	-12318
ilawan	-12319
upasan	-12320
▁Duwag	-12321
▁Mayro	-12322
▁Sabik	-12323
▁iluwa	-12324
▁yabag	-12325
ilingap	-12326
singhap	-12327
umanhin	-12328
▁Hudhud	-12329
▁Pinags	-12330
▁Pinili	-12331
▁ilawan	-12332
▁kasamb	-12333
▁magkag	-12334
▁magkah	-12335
▁magkam	-12336
▁porsel	-12337
▁sintas	-12338
▁tamnan	-12339
▁Lilitaw	-12340
▁Lumubog	-12341
▁Malaueg	-12342
▁bininit	-12343
▁binunot	-12344
▁kastila	-12345
▁lathala	-12346
▁lulusog	-12347
▁mabatid	-12348
▁mangagb	-12349
▁naabang	-12350
▁nagkaka	-12351
▁natabas	-12352
▁propeta	-12353
▁sumasal	-12354
▁tumindi	-12355
▁umuwing	-12356
▁wasakin	-12357
▁yumakap	-12358
Kailangan	-12359
Malumanay	-12360
Nararapat	-12361
Susubukin	-12362
Titingala	-12363
Titingnan	-12364
abaluktot	-12365
abilanggo	-12366
abulaanan	-12367
agdudulot	-12368
ahahahaha	-12369
ahingahan	-12370
ahintulot	-12371
alahatang	-12372
alakbayin	-12373
alakihang	-12374
alakpakan	-12375
aligtaran	-12376
alinhinan	-12377
amungmong	-12378
angatawan	-12379
angpangan	-12380
arangalan	-12381
atakutang	-12382
atangtang	-12383
awanggawa	-12384
bersiyong	-12385
bibilihan	-12386
ibangbang	-12387
ibingitan	-12388
ihintayin	-12389
ikislapan	-12390
ilanganin	-12391
inamentaw	-12392
ingitngit	-12393
intulutan	-12394
ipagkapwa	-12395
itinginan	-12396
kspresyon	-12397
maharlika	-12398
mamamayan	-12399
ps	-12400
▁13	-12401
▁ri	-12402
agpu	-12403
ikbi	-12404
iwal	-12405
pulo	-12406
▁mes	-12407
aklan	-12408
alayu	-12409
pitan	-12410
▁Look	-12411
▁Ulod	-12412
▁hulo	-12413
▁yama	-12414
agitna	-12415
angkad	-12416
angkap	-12417
angkot	-12418
asanib	-12419
chosis	-12420
inisin	-12421
itanan	-12422
saging	-12423
ugulan	-12424
umulan	-12425
▁Dinig	-12426
▁Kapos	-12427
▁Lulan	-12428
▁Mapag	-12429
▁Sinig	-12430
▁Tapos	-12431
▁bahaw	-12432
▁hihip	-12433
▁kaaya	-12434
alamuti	-12435
patulog	-12436
tamisan	-12437
untunan	-12438
▁Lamang	-12439
▁maitan	-12440
▁malabo	-12441
▁panhik	-12442
▁papang	-12443
▁umulan	-12444
▁Marcelo	-12445
▁Nayadas	-12446
▁Pagitan	-12447
▁daluyan	-12448
▁maghari	-12449
▁makinig	-12450
▁masanay	-12451
▁matalin	-12452
▁pagkama	-12453
▁pagluha	-12454
▁palakas	-12455
▁pinasan	-12456
▁puputok	-12457
▁tinupad	-12458
▁utusang	-12459
Mapanukso	-12460
pasiyahan	-12461
pimetheus	-12462
ubundukin	-12463
uuntugang	-12464
uwentuhan	-12465
▁Alemanya	-12466
▁Ambrocio	-12467
▁Barangay	-12468
▁Bibigyan	-12469
▁Caravana	-12470
▁Cotabato	-12471
▁Dakilang	-12472
▁Darangen	-12473
▁Darating	-12474
▁Datapuwa	-12475
▁Datapwat	-12476
▁Dayiring	-12477
▁Dinampot	-12478
▁Dinatnan	-12479
▁Etiocles	-12480
▁Federico	-12481
▁Gererong	-12482
▁Gumapang	-12483
▁Gustuhin	-12484
▁Haplusin	-12485
▁Higerang	-12486
▁Ilalagay	-12487
▁Inihagis	-12488
▁Inilabas	-12489
▁Inilapag	-12490
▁Inilipad	-12491
▁Intempsy	-12492
▁Ipinasya	-12493
▁Isasauli	-12494
▁Ispiritu	-12495
▁Itinapon	-12496
▁Itinusok	-12497
▁Kabayong	-12498
▁Kabunian	-12499
Ha	-12500
Na	-12501
nti	-12502
ymp	-12503
Unti	-12504
hani	-12505
igta	-12506
ikil	-12507
kaba	-12508
lain	-12509
▁Cel	-12510
▁hoy	-12511
▁iig	-12512
▁tud	-12513
Aalis	-12514
Dapat	-12515
anhan	-12516
hirap	-12517
ibhan	-12518
irhan	-12519
sarap	-12520
silyo	-12521
tumba	-12522
▁Akin	-12523
▁Ibal	-12524
▁Lobo	-12525
▁Luna	-12526
▁baar	-12527
▁hant	-12528
alalim	-12529
isaing	-12530
uyurak	-12531
▁Sinis	-12532
▁bayaw	-12533
▁burok	-12534
▁kanta	-12535
▁lagim	-12536
▁lumot	-12537
▁mamat	-12538
▁minam	-12539
▁paroo	-12540
▁pilik	-12541
▁punlo	-12542
▁sapot	-12543
Magsama	-12544
abuting	-12545
ahangin	-12546
anganin	-12547
inaalam	-12548
uklaman	-12549
ulaylay	-12550
ungkahi	-12551
▁Sinuyo	-12552
▁duling	-12553
▁hinuli	-12554
▁ipinam	-12555
▁mamula	-12556
▁pagsil	-12557
▁parami	-12558
▁pareho	-12559
▁tiwala	-12560
ibibigay	-12561
insangan	-12562
▁Digmaan	-12563
▁Sentral	-12564
▁Sinapit	-12565
▁Sinunod	-12566
▁binuong	-12567
▁isinama	-12568
▁kumagat	-12569
▁negosyo	-12570
▁paksang	-12571
▁pinigil	-12572
▁pintong	-12573
▁tatakas	-12574
▁tudlain	-12575
▁tumikim	-12576
▁tuntong	-12577
▁umaabot	-12578
▁Kalahati	-12579
▁Kankanay	-12580
▁Kastilya	-12581
▁Kasuotan	-12582
▁Katindig	-12583
▁Kaytamis	-12584
▁Kinausap	-12585
▁Kositong	-12586
▁Lambunao	-12587
▁Leonardo	-12588
▁Lihangin	-12589
▁Lilingon	-12590
▁Linceong	-12591
▁Liwayway	-12592
▁Maalaala	-12593
▁Mababaya	-12594
▁Magbigay	-12595
▁Magiging	-12596
▁Magkaisa	-12597
▁Mahabang	-12598
▁Mahigpit	-12599
Moro	-12600
▁Pos	-12601
▁Yum	-12602
▁bao	-12603
Itong	-12604
bihis	-12605
tanan	-12606
tanod	-12607
tulog	-12608
ubang	-12609
▁Idin	-12610
▁buku	-12611
▁yumi	-12612
alitaw	-12613
anapan	-12614
ayagan	-12615
engeng	-12616
gulong	-12617
sarili	-12618
ubuwal	-12619
▁Diana	-12620
▁Dinad	-12621
▁berde	-12622
▁dilat	-12623
▁humuh	-12624
▁nauna	-12625
▁rikit	-12626
▁sapad	-12627
abantog	-12628
panahon	-12629
subalit	-12630
tulogan	-12631
▁Buwaya	-12632
▁Gulong	-12633
▁Inisip	-12634
▁Tangan	-12635
▁agahan	-12636
▁banaag	-12637
▁humaba	-12638
▁humabi	-12639
▁kaagaw	-12640
▁kamtan	-12641
▁kukuha	-12642
▁layong	-12643
▁nagkab	-12644
▁nagkuk	-12645
▁nagnan	-12646
▁tinaga	-12647
▁tubuan	-12648
anggihan	-12649
apatiran	-12650
intuturo	-12651
ulungkot	-12652
▁Dagling	-12653
▁Humukay	-12654
▁Hupiter	-12655
▁Pengeng	-12656
▁bagunta	-12657
▁ginagal	-12658
▁ginanap	-12659
▁harding	-12660
▁inamuki	-12661
▁ipinagp	-12662
▁katipan	-12663
▁naaayon	-12664
▁naratay	-12665
▁pakamah	-12666
▁sinaing	-12667
Patraydor	-12668
▁Mahinang	-12669
▁Mahiwaga	-12670
▁Makating	-12671
▁Malayang	-12672
▁Maliliit	-12673
▁Mapaapoy	-12674
▁Maragtas	-12675
▁Marahang	-12676
▁Masaklap	-12677
▁Masamang	-12678
▁Matapang	-12679
▁Miskoyaw	-12680
▁Momoocan	-12681
▁Nabalita	-12682
▁Nagbihis	-12683
▁Naghanap	-12684
▁Nagkalat	-12685
▁Naglikha	-12686
▁Nagluksa	-12687
▁Nagsilid	-12688
▁Nagtanim	-12689
▁Nakatuon	-12690
▁Namasyal	-12691
▁Nanaisin	-12692
▁Napaiyak	-12693
▁Naroroon	-12694
▁Niligtas	-12695
▁Paalaman	-12696
▁Pagsagip	-12697
▁Panapana	-12698
▁Pandakan	-12699
ons	-12700
udd	-12701
uru	-12702
Para	-12703
atng	-12704
osam	-12705
uyuk	-12706
▁Ins	-12707
▁Lol	-12708
▁luk	-12709
▁suy	-12710
sagan	-12711
uddha	-12712
▁Diwa	-12713
▁Hati	-12714
▁Ikas	-12715
▁Musa	-12716
▁Pusa	-12717
▁bisa	-12718
▁ihin	-12719
▁uupo	-12720
Persya	-12721
abalat	-12722
abawas	-12723
arosip	-12724
atiuna	-12725
ibulan	-12726
ulayaw	-12727
utihin	-12728
▁Lipay	-12729
▁biyak	-12730
▁bumal	-12731
▁daong	-12732
▁ganti	-12733
▁kawit	-12734
▁nabig	-12735
▁niyan	-12736
alangan	-12737
apaknit	-12738
asaktan	-12739
ihinuha	-12740
▁Buddha	-12741
▁Naligo	-12742
▁Talaga	-12743
▁alayan	-12744
▁ilipad	-12745
▁itigil	-12746
▁mapuno	-12747
▁parati	-12748
▁parusa	-12749
Mangyari	-12750
abagabag	-12751
agalugan	-12752
atingala	-12753
▁Imperyo	-12754
▁Kaybuti	-12755
▁Lumaban	-12756
▁bulalas	-12757
▁gumiliw	-12758
▁nabuong	-12759
▁nagbaon	-12760
▁napakak	-12761
▁napalig	-12762
▁pigilin	-12763
▁sabugan	-12764
▁samosam	-12765
▁sinuway	-12766
uniguning	-12767
▁BULAKLAK	-12768
▁Pangaral	-12769
▁Pilipina	-12770
▁Pinatubo	-12771
▁Puhunang	-12772
▁Pumanaog	-12773
▁Pupwesto	-12774
▁Rinayong	-12775
▁Rogongan	-12776
▁Sariling	-12777
▁Simbahan	-12778
▁Sinambit	-12779
▁Singsing	-12780
▁Taglayin	-12781
▁Tinampal	-12782
▁Tinubuan	-12783
▁Tumanggi	-12784
▁abalahin	-12785
▁akalaing	-12786
▁alipusta	-12787
▁babagsak	-12788
▁babatiin	-12789
▁babayaan	-12790
▁balasang	-12791
▁balisang	-12792
▁baluktot	-12793
▁batayang	-12794
▁batisang	-12795
▁berkahan	-12796
▁bigkasin	-12797
▁bilanggo	-12798
▁bubungan	-12799
deng	-12800
kibo	-12801
utum	-12802
Sumpa	-12803
asiwa	-12804
layag	-12805
lunos	-12806
▁Dami	-12807
▁Isak	-12808
▁Ubos	-12809
▁dote	-12810
▁luya	-12811
abulin	-12812
alabin	-12813
amdami	-12814
awayin	-12815
saysay	-12816
ubukid	-12817
umpong	-12818
▁Gamit	-12819
▁Kasal	-12820
▁Makap	-12821
▁Tinut	-12822
▁gansa	-12823
▁ginaw	-12824
▁iutos	-12825
▁pitas	-12826
ilagang	-12827
▁Bayani	-12828
▁Gabing	-12829
▁Kataka	-12830
▁Pinagb	-12831
▁Umawit	-12832
▁bulung	-12833
▁daratn	-12834
▁dinami	-12835
▁dungis	-12836
▁higtan	-12837
▁ibigan	-12838
▁lalang	-12839
▁maalis	-12840
▁magbib	-12841
▁magkap	-12842
▁musmos	-12843
▁paalis	-12844
▁pagtul	-12845
▁pagyay	-12846
alangkas	-12847
amaganda	-12848
inggitan	-12849
tatanong	-12850
▁Dahilan	-12851
▁Damiana	-12852
▁Dumaong	-12853
▁Inakala	-12854
▁Lumuhod	-12855
▁Makapag	-12856
▁Natanaw	-12857
▁kalunos	-12858
▁naghari	-12859
▁ngalang	-12860
▁palawit	-12861
▁pumanik	-12862
▁sinasal	-12863
otektahan	-12864
▁Makatang	-12865
▁Paghingi	-12866
▁bulagsak	-12867
▁bulwagan	-12868
▁bumababa	-12869
▁bumalong	-12870
▁bumangon	-12871
▁bumigtas	-12872
▁buwayang	-12873
▁dagdagan	-12874
▁daratnan	-12875
▁desisyon	-12876
▁dinadala	-12877
▁dinampot	-12878
▁dinamtan	-12879
▁dumalaga	-12880
▁dumalang	-12881
▁dumarapo	-12882
▁edukasyo	-12883
▁eksenang	-12884
▁espiritu	-12885
▁gamiting	-12886
▁haharang	-12887
▁hahatiin	-12888
▁haliging	-12889
▁hanagrin	-12890
▁hihigang	-12891
▁hinampas	-12892
▁hinangad	-12893
▁hinipang	-12894
▁hiwagang	-12895
▁ibinenta	-12896
▁idinilat	-12897
▁idinulot	-12898
▁iginayak	-12899
mak	-12900
▁iu	-12901
amin	-12902
bago	-12903
tago	-12904
▁21:	-12905
▁22:	-12906
▁Sta	-12907
▁iip	-12908
▁roo	-12909
agiik	-12910
imbal	-12911
isira	-12912
▁Guro	-12913
▁kibo	-12914
▁poon	-12915
Gagawa	-12916
ahango	-12917
amukha	-12918
ayunan	-12919
ernong	-12920
▁Binub	-12921
▁Iling	-12922
▁Kaawa	-12923
▁Kasoy	-12924
▁Kinab	-12925
▁Umupo	-12926
▁WAKAS	-12927
▁likaw	-12928
▁mapah	-12929
▁mapay	-12930
▁pasig	-12931
atangay	-12932
awisang	-12933
ilagaan	-12934
▁Babasa	-12935
▁Bagwis	-12936
▁Ilipad	-12937
▁bagsak	-12938
▁lumago	-12939
▁lunong	-12940
▁magsis	-12941
▁malago	-12942
▁nawika	-12943
▁panira	-12944
▁Binalak	-12945
▁Eugenio	-12946
▁Kinagat	-12947
▁Nangako	-12948
▁Sanggol	-12949
▁Sumapit	-12950
▁isagawa	-12951
▁kalulwa	-12952
▁kinunan	-12953
▁maaakit	-12954
▁magbata	-12955
▁magsama	-12956
▁manalig	-12957
▁naiisip	-12958
▁pamatid	-12959
▁pinakad	-12960
▁tibabal	-12961
Magandang	-12962
akripisyo	-12963
▁Paglipas	-12964
▁hinayaan	-12965
▁ihaharap	-12966
▁iingatan	-12967
▁ikamatay	-12968
▁ilalagay	-12969
▁ilalapat	-12970
▁inihanay	-12971
▁inilagak	-12972
▁inilapat	-12973
▁inilawan	-12974
▁ipahamak	-12975
▁ipahatid	-12976
▁ipakasal	-12977
▁ipamalas	-12978
▁ipapasok	-12979
▁isinilid	-12980
▁isinumpa	-12981
▁isusunod	-12982
▁itanghal	-12983
▁itatangi	-12984
▁itatanim	-12985
▁itatapon	-12986
▁itinangi	-12987
▁itinulad	-12988
▁itinuloy	-12989
▁kagalang	-12990
▁kagaling	-12991
▁kahinaan	-12992
▁kakamtan	-12993
▁kalaguyo	-12994
▁kalahing	-12995
▁kalaking	-12996
▁kalansay	-12997
▁kalawaka	-12998
▁kaliitan	-12999
alu	-13000
▁2)	-13001
▁De	-13002
pero	-13003
▁Sit	-13004
ainom	-13005
alahi	-13006
amook	-13007
atahi	-13008
impil	-13009
libot	-13010
pigil	-13011
wiran	-13012
▁ipak	-13013
▁ipis	-13014
▁liko	-13015
astern	-13016
igilan	-13017
ilisan	-13018
istang	-13019
▁Lalaw	-13020
▁Mahuh	-13021
▁Tigil	-13022
▁hanay	-13023
▁ipags	-13024
▁lundo	-13025
▁nagis	-13026
▁turan	-13027
▁walis	-13028
Munting	-13029
ulutang	-13030
▁Karamp	-13031
▁Natalo	-13032
▁bawiin	-13033
▁ipinap	-13034
▁isinis	-13035
▁isinus	-13036
▁kalaro	-13037
▁kasimp	-13038
▁mabawi	-13039
▁maghih	-13040
▁minuto	-13041
▁paniki	-13042
▁patayo	-13043
▁senyor	-13044
Pilipino	-13045
Titingin	-13046
amahinga	-13047
iligiran	-13048
▁Ipinang	-13049
▁Itataas	-13050
▁binuhat	-13051
▁bukirin	-13052
▁dinalaw	-13053
▁hikahos	-13054
▁humapon	-13055
▁maiitim	-13056
▁masundo	-13057
▁nagdusa	-13058
▁nagpapa	-13059
▁nalagas	-13060
▁napapan	-13061
▁pisikal	-13062
alakhakan	-13063
▁Nakikita	-13064
▁Pangalan	-13065
▁kaliskis	-13066
▁kamagong	-13067
▁kamaharl	-13068
▁kamalian	-13069
▁kandunga	-13070
▁kanluran	-13071
▁kapaitan	-13072
▁kapalara	-13073
▁karakang	-13074
▁karangya	-13075
▁katambal	-13076
▁kaulayaw	-13077
▁kaunlara	-13078
▁kausapin	-13079
▁kawalang	-13080
▁kawangis	-13081
▁kayamana	-13082
▁kaytamis	-13083
▁kinalong	-13084
▁kinamtan	-13085
▁kinikita	-13086
▁kinukuha	-13087
▁kolonyal	-13088
▁konsepto	-13089
▁kublihan	-13090
▁kultural	-13091
▁kumbento	-13092
▁kumikibo	-13093
▁kumilala	-13094
▁kumupkop	-13095
▁lagaslas	-13096
▁lagingan	-13097
▁lalabind	-13098
▁lalagpak	-13099
Bac	-13100
ild	-13101
Bago	-13102
Saka	-13103
arik	-13104
inid	-13105
▁Ore	-13106
Mahin	-13107
ahibo	-13108
apiit	-13109
insay	-13110
lakad	-13111
▁baso	-13112
▁kuro	-13113
▁mupo	-13114
▁pawa	-13115
Limang	-13116
isanin	-13117
kingan	-13118
manong	-13119
pansin	-13120
tumpok	-13121
yayang	-13122
▁Hinto	-13123
▁Lakad	-13124
▁Nasas	-13125
▁Sunod	-13126
▁Vigan	-13127
▁aakay	-13128
▁aping	-13129
▁dumag	-13130
▁hayag	-13131
▁hukom	-13132
▁madre	-13133
▁pilay	-13134
▁tanak	-13135
▁tanel	-13136
Mayroon	-13137
Saklolo	-13138
agsapit	-13139
▁Ipinab	-13140
▁Kalaro	-13141
▁Sayang	-13142
▁balisa	-13143
▁binawi	-13144
▁bukang	-13145
▁ikinag	-13146
▁iniuwi	-13147
▁niyaya	-13148
▁susong	-13149
▁Cawayan	-13150
▁Kumulat	-13151
▁Masipag	-13152
▁hinarap	-13153
▁iniiwan	-13154
▁kagiliw	-13155
▁kamates	-13156
▁kapisan	-13157
▁kasawia	-13158
▁lisanin	-13159
▁magturo	-13160
▁nagmana	-13161
▁orasyon	-13162
▁tagisan	-13163
▁ulirang	-13164
asalaysay	-13165
▁Kinalong	-13166
▁Salaysay	-13167
▁gagaling	-13168
▁lagusang	-13169
▁lampadan	-13170
▁larawang	-13171
▁linangin	-13172
▁linggong	-13173
▁lugaming	-13174
▁luklukan	-13175
▁lumagpak	-13176
▁lumigaya	-13177
▁lumindol	-13178
▁lumipana	-13179
▁lumunsad	-13180
▁lumusong	-13181
▁maalaala	-13182
▁maawaing	-13183
▁mababago	-13184
▁mabubuti	-13185
▁madadala	-13186
▁madarama	-13187
▁madungis	-13188
▁magawang	-13189
▁magdasal	-13190
▁magdilim	-13191
▁maghirap	-13192
▁magkaisa	-13193
▁magkakat	-13194
▁maglakad	-13195
▁maglinis	-13196
▁magpakat	-13197
▁magpunta	-13198
▁magsaing	-13199
agak	-13200
igin	-13201
teng	-13202
alasa	-13203
aysay	-13204
igiba	-13205
▁salu	-13206
anakan	-13207
angina	-13208
orikal	-13209
uluyan	-13210
yayaan	-13211
▁Pinag	-13212
▁dasal	-13213
▁hingi	-13214
▁saliw	-13215
▁sanay	-13216
ahasang	-13217
▁naipas	-13218
▁umabot	-13219
akanlong	-13220
▁Marahas	-13221
▁barilin	-13222
▁mabulas	-13223
▁nakakah	-13224
▁sasapit	-13225
▁Ibibigay	-13226
▁magsukab	-13227
▁magtampo	-13228
▁magtanim	-13229
▁magtapat	-13230
▁magtipid	-13231
▁magugupo	-13232
▁magugust	-13233
▁mahagkan	-13234
▁mahalata	-13235
▁mahuhuli	-13236
▁mahulaan	-13237
▁makababa	-13238
▁makagawa	-13239
▁makaiwas	-13240
▁makakaya	-13241
▁makakibo	-13242
▁makapagp	-13243
▁makasama	-13244
▁makasira	-13245
▁makatula	-13246
▁makausap	-13247
▁makinang	-13248
▁makiring	-13249
▁maligtas	-13250
▁maluwang	-13251
▁mamalagi	-13252
▁mananaig	-13253
▁mangahas	-13254
▁mangarap	-13255
▁mapahiya	-13256
▁mapalaki	-13257
▁mariwasa	-13258
▁masarili	-13259
▁matabang	-13260
▁matataas	-13261
▁matauhan	-13262
▁material	-13263
▁matining	-13264
▁matipuno	-13265
▁matitiis	-13266
▁matutong	-13267
▁maubusan	-13268
▁mawiwili	-13269
▁metapora	-13270
▁naaalala	-13271
▁nabuksan	-13272
▁nagaping	-13273
▁nagbalat	-13274
▁nagbihis	-13275
▁nagbilin	-13276
▁nagdasal	-13277
▁naglagay	-13278
▁nagmahal	-13279
▁nagnakaw	-13280
▁nagpapat	-13281
▁nagsabog	-13282
▁nagsaing	-13283
▁nagsayaw	-13284
▁nagsikap	-13285
▁nagsisil	-13286
▁nagsisis	-13287
▁nagsukab	-13288
▁nagsulit	-13289
▁nagtuloy	-13290
▁nagwakas	-13291
▁nahambal	-13292
▁nahihiya	-13293
▁nahubdan	-13294
▁naibalik	-13295
▁nailabas	-13296
▁naitanan	-13297
▁nakaalis	-13298
▁nakahuli	-13299
▁nakapagp	-13300
▁nakapags	-13301
▁nakapiit	-13302
▁nakasama	-13303
▁nakataas	-13304
▁nakatago	-13305
▁nakatali	-13306
▁nakatiis	-13307
▁nakausap	-13308
▁nakawala	-13309
▁nakipags	-13310
▁nakiusap	-13311
▁nakuhang	-13312
▁nalakbay	-13313
▁nalamang	-13314
▁nalayong	-13315
▁namaalam	-13316
▁namamana	-13317
▁namataan	-13318
▁namayapa	-13319
▁namnamin	-13320
▁nanakyat	-13321
▁nanariwa	-13322
▁nanasang	-13323
▁nangakas	-13324
▁nanunuot	-13325
▁napaaapi	-13326
▁napadako	-13327
▁napadpad	-13328
▁napahiga	-13329
▁napahiya	-13330
▁napapako	-13331
▁napapala	-13332
▁napapawi	-13333
▁naritong	-13334
▁natatali	-13335
▁natauhan	-13336
▁natikman	-13337
▁naturang	-13338
▁nawaglit	-13339
▁ngayunin	-13340
▁ngumanga	-13341
▁niladlad	-13342
▁nilagyan	-13343
▁nilusong	-13344
▁ninasang	-13345
▁ninunong	-13346
▁paamuhin	-13347
▁pabayaan	-13348
▁pabulong	-13349
▁padadala	-13350
▁pagaspas	-13351
▁pagbilog	-13352
▁pagbuhat	-13353
▁pagdalaw	-13354
▁pagdaloy	-13355
▁pagdinig	-13356
▁paghahal	-13357
▁paghatol	-13358
▁paghibik	-13359
▁paghihin	-13360
▁paghinga	-13361
▁paghinto	-13362
▁pagkaawa	-13363
▁pagkamal	-13364
▁pagkunan	-13365
▁paglikha	-13366
▁pagmamal	-13367
▁pagpapan	-13368
▁pagpugot	-13369
▁pagsapit	-13370
▁pagsulat	-13371
▁pagsuway	-13372
▁pagtakas	-13373
▁pagtungo	-13374
▁pagyaman	-13375
▁painumin	-13376
▁pakaunti	-13377
▁paliligo	-13378
▁pamahiin	-13379
▁pambayad	-13380
▁pamuling	-13381
▁pandikit	-13382
▁paninira	-13383
▁panirang	-13384
▁panlaban	-13385
▁panlunas	-13386
▁pansinin	-13387
▁pantalan	-13388
▁panuunan	-13389
▁parirala	-13390
▁pasaklaw	-13391
▁pasubsob	-13392
▁pasulong	-13393
▁pedestal	-13394
▁pigingan	-13395
▁pinagsas	-13396
▁pinakama	-13397
▁pinalaya	-13398
▁pinangko	-13399
▁pinansin	-13400
▁pinapalo	-13401
▁pinasahi	-13402
▁pinggang	-13403
▁pinipint	-13404
▁pocpoclo	-13405
▁posisyon	-13406
▁pulseras	-13407
▁puspusan	-13408
▁sagingan	-13409
▁salitaan	-13410
▁sanghaya	-13411
▁sanglang	-13412
▁saysayin	-13413
▁sigurado	-13414
▁sinayang	-13415
▁sinundan	-13416
▁sinusukl	-13417
▁soldados	-13418
▁solusyon	-13419
▁sosyedad	-13420
▁subukang	-13421
▁sugatang	-13422
▁sumaisip	-13423
▁sumamang	-13424
▁sumiklab	-13425
▁sumilang	-13426
▁sumilong	-13427
▁sumulpot	-13428
▁tagaroon	-13429
▁tagtuyot	-13430
▁talisman	-13431
▁tampuhan	-13432
▁tanungan	-13433
▁tatakpan	-13434
▁tawaging	-13435
▁tawanang	-13436
▁tekstong	-13437
▁tinangka	-13438
▁tinapang	-13439
▁tinatago	-13440
▁tingnang	-13441
▁tinitiis	-13442
▁tinuruan	-13443
▁torongan	-13444
▁tsinelas	-13445
▁tultugan	-13446
▁tulutang	-13447
▁tumatawa	-13448
▁tumitira	-13449
▁tumubong	-13450
▁tumugtog	-13451
▁tumuklas	-13452
▁turbante	-13453
▁turingan	-13454
▁umusbong	-13455
▁yumabong	-13456
..........	-13457
Hahagulgol	-13458
Kailangang	-13459
Pasalubong	-13460
Sasambitin	-13461
agkalooban	-13462
alamhatian	-13463
alatkayong	-13464
ihingalong	-13465
▁Amongabon	-13466
▁Aphrodite	-13467
▁Babalikan	-13468
▁Binanggit	-13469
▁Boholanos	-13470
▁Bubuhatin	-13471
▁Cahariang	-13472
▁Datimbang	-13473
▁Domingsel	-13474
▁Gaygaynet	-13475
▁Hernandez	-13476
▁Hinahanap	-13477
▁Hinimatay	-13478
▁Ikalimang	-13479
▁Iniligtas	-13480
▁Ipagdasal	-13481
▁Ipagpalit	-13482
▁Ipinaalam	-13483
▁Itinuring	-13484
▁Jerusalem	-13485
▁Kabalyero	-13486
▁Kabukiran	-13487
▁Kadugnung	-13488
▁Kagandaha	-13489
▁Kagawaran	-13490
▁Kakagatin	-13491
▁Kalawitan	-13492
▁Kalikasan	-13493
▁Karaniwan	-13494
▁Kasabihan	-13495
▁Kastilang	-13496
▁Katangian	-13497
▁Kayraming	-13498
▁Kinastila	-13499
▁Kinawayan	-13500
▁Leddangan	-13501
▁Lumilipad	-13502
▁Madogyaya	-13503
▁Magsasaka	-13504
▁Magsisisi	-13505
▁Makabuhay	-13506
▁Mapalawak	-13507
▁Masusunod	-13508
▁Minalisin	-13509
▁Mistulang	-13510
▁Nagkasama	-13511
▁Nagsimula	-13512
▁Nagsipagt	-13513
▁Nagsisisi	-13514
▁Naguilian	-13515
▁Nakagapos	-13516
▁Nakahanda	-13517
▁Nakatungo	-13518
▁Nalalanta	-13519
▁Natagpuan	-13520
▁Natatakot	-13521
▁Natutulog	-13522
▁Nobyembre	-13523
▁Pabulanan	-13524
▁Pagbagsak	-13525
▁Pagtugtog	-13526
▁Pakawalan	-13527
▁Pandanggo	-13528
▁Pangaiwan	-13529
▁Papatayin	-13530
▁Paraisong	-13531
▁Parusahan	-13532
▁Patawarin	-13533
▁Persiyang	-13534
▁Pinayagan	-13535
▁Relihiyon	-13536
▁Sambangki	-13537
▁Setyembre	-13538
▁Singkamas	-13539
▁Sinisinta	-13540
▁Sumalunga	-13541
▁Sumarinaw	-13542
▁Sumisinta	-13543
▁Tanggapin	-13544
▁Tinalupan	-13545
▁Tinitiyak	-13546
▁Titingnan	-13547
▁Tominaman	-13548
▁Tumahimik	-13549
▁Tungkulin	-13550
▁Yayakapin	-13551
▁aksesorya	-13552
▁anakpawis	-13553
▁bahaghari	-13554
▁bangungot	-13555
▁baranggay	-13556
▁bathalang	-13557
▁bendisyon	-13558
▁bibitiwan	-13559
▁binabakas	-13560
▁binabalot	-13561
▁binigyang	-13562
▁bugtungan	-13563
▁bulalakaw	-13564
▁bumabalik	-13565
▁bungkalin	-13566
▁dadagitin	-13567
▁dadalawin	-13568
▁dinadagit	-13569
▁dinaranas	-13570
▁dinatnang	-13571
▁dinumihan	-13572
▁dumadaloy	-13573
▁dumidilim	-13574
▁ekonomiya	-13575
▁espadahan	-13576
▁gandingan	-13577
▁ginhawang	-13578
▁grasiyang	-13579
▁gumagalaw	-13580
▁gumaganda	-13581
▁gumigiliw	-13582
▁hahamakin	-13583
▁hahanguin	-13584
▁haharapin	-13585
▁hihilahin	-13586
▁hinahamak	-13587
▁hinahamon	-13588
▁hinanakit	-13589
▁hinigupan	-13590
▁hinimatay	-13591
▁hininging	-13592
▁hinugasan	-13593
▁hinukayan	-13594
▁humagupit	-13595
▁humahalik	-13596
▁humahanga	-13597
▁humakbang	-13598
▁humantong	-13599
▁humihinga	-13600
▁idalangin	-13601
▁igagalang	-13602
▁ihahandog	-13603
▁ikabubuti	-13604
▁ikukumpas	-13605
▁ililigtas	-13606
▁impuwesto	-13607
▁inaantala	-13608
▁inaawitan	-13609
▁inilantad	-13610
▁ipagtapat	-13611
▁ipakikita	-13612
▁ipakilala	-13613
▁ipapakain	-13614
▁ipauubaya	-13615
▁ipinarusa	-13616
▁ipinatong	-13617
▁isalubong	-13618
▁isinaayos	-13619
▁isinaksak	-13620
▁isinasama	-13621
▁ispadahan	-13622
▁itinatago	-13623
▁itinindig	-13624
▁kabakahin	-13625
▁kabalyero	-13626
▁kadalasan	-13627
▁kaganapan	-13628
▁kagandaha	-13629
▁kahatulan	-13630
▁kakatwang	-13631
▁kakisigan	-13632
▁kalabanin	-13633
▁kalakaran	-13634
▁kalaliman	-13635
▁kalangita	-13636
▁kaligatan	-13637
▁kalimutan	-13638
▁kalusugan	-13639
▁kaluwagan	-13640
▁kamunting	-13641
▁kapaguran	-13642
▁kapakanan	-13643
▁karaingan	-13644
▁kasakiman	-13645
▁kasamahan	-13646
▁kasanayan	-13647
▁kasukalan	-13648
▁katalasan	-13649
▁katapanga	-13650
▁katatagan	-13651
▁katuturan	-13652
▁kaukulang	-13653
▁kayariang	-13654
▁kaysasaya	-13655
▁kinabahan	-13656
▁kinakanta	-13657
▁kinalagan	-13658
▁kinurutan	-13659
▁kisapmata	-13660
▁kolintang	-13661
▁komunidad	-13662
▁kulintang	-13663
▁kulturang	-13664
▁kumakalat	-13665
▁kumandili	-13666
▁kundangan	-13667
▁kunwaring	-13668
▁kurikulum	-13669
▁lambuting	-13670
▁lapastang	-13671
▁lolokisen	-13672
▁lumaganap	-13673
▁lumalabas	-13674
▁lumalakas	-13675
▁lumiliyag	-13676
▁mababakas	-13677
▁mababango	-13678
▁mabigyang	-13679
▁mabubusog	-13680
▁magaganap	-13681
▁magbabait	-13682
▁magbinata	-13683
▁magdurusa	-13684
▁maghangad	-13685
▁magkaisip	-13686
▁maglakbay	-13687
▁maglalaon	-13688
▁magluluto	-13689
▁magmadali	-13690
▁magparusa	-13691
▁magsilang	-13692
▁magsisisi	-13693
▁magtitiis	-13694
▁magugutom	-13695
▁mahahayag	-13696
▁maharlika	-13697
▁mahawakan	-13698
▁mahinahon	-13699
▁mahinusay	-13700
▁maiwasang	-13701
▁makaakyat	-13702
▁makabansa	-13703
▁makahinga	-13704
▁makalapit	-13705
▁makalipas	-13706
▁makapitas	-13707
▁makasikat	-13708
▁makidigma	-13709
▁makukulay	-13710
▁malalaman	-13711
▁maliligaw	-13712
▁malubhang	-13713
▁malulupit	-13714
▁mamahinga	-13715
▁mamighati	-13716
▁mangitlog	-13717
▁manloloko	-13718
▁mapipigil	-13719
▁mapitagan	-13720
▁mapupunta	-13721
▁maputlang	-13722
▁mararahas	-13723
▁masakitin	-13724
▁masakupan	-13725
▁masansala	-13726
▁masasapit	-13727
▁masidhing	-13728
▁masiglang	-13729
▁masisigla	-13730
▁masiyahan	-13731
▁masusunod	-13732
▁masyadong	-13733
▁matagalan	-13734
▁matanggap	-13735
▁matangkad	-13736
▁matantong	-13737
▁matatakot	-13738
▁matitigan	-13739
▁matitigas	-13740
▁matiwasay	-13741
▁matutulog	-13742
▁matutuloy	-13743
▁mawakawak	-13744
▁mawatasan	-13745
▁mayayaman	-13746
▁minamalas	-13747
▁minimithi	-13748
▁naatasang	-13749
▁nababasag	-13750
▁nababatay	-13751
▁nagbabala	-13752
▁nagbangis	-13753
▁nagbibiro	-13754
▁nagdiwang	-13755
▁naghandog	-13756
▁nagkaanak	-13757
▁nagkagulo	-13758
▁nagkaloob	-13759
▁nagkataon	-13760
▁nagligtas	-13761
▁nagnanais	-13762
▁nagpasiya	-13763
▁nagpulong	-13764
▁nagpupuno	-13765
▁nagsasama	-13766
▁nagsilaho	-13767
▁nagtaguan	-13768
▁nagtatago	-13769
▁nagtatamo	-13770
▁nagtatawa	-13771
▁nagtulong	-13772
▁nagwawagi	-13773
▁nagwiwika	-13774
▁nahigitan	-13775
▁naiibigan	-13776
▁nakaakyat	-13777
▁nakabalik	-13778
▁nakabalot	-13779
▁nakadamit	-13780
▁nakahasik	-13781
▁nakakabit	-13782
▁nakakamit	-13783
▁nakalatag	-13784
▁nakalipas	-13785
▁nakalugay	-13786
▁nakaluhod	-13787
▁nakangiti	-13788
▁nakapasok	-13789
▁nakapulot	-13790
▁nakasabay	-13791
▁nakasagot	-13792
▁nakasaksi	-13793
▁nakasulat	-13794
▁nakatanod	-13795
▁nakatikim	-13796
▁nakikiapi	-13797
▁nalanghap	-13798
▁nalikhang	-13799
▁nalilimot	-13800
▁nalimutan	-13801
▁nalungkot	-13802
▁namighati	-13803
▁namimitas	-13804
▁nanawagan	-13805
▁nangasawi	-13806
▁napahilig	-13807
▁napahinto	-13808
▁napapatay	-13809
▁nasalanta	-13810
▁natanggal	-13811
▁natapakan	-13812
▁natitipon	-13813
▁natititik	-13814
▁natutuhan	-13815
▁natutuloy	-13816
▁nilawayan	-13817
▁nilulutas	-13818
▁niyapakan	-13819
▁nunungong	-13820
▁pagbigyan	-13821
▁paggalang	-13822
▁pagharian	-13823
▁paghatiin	-13824
▁pagitawin	-13825
▁pagkahari	-13826
▁pagkakain	-13827
▁pagkalung	-13828
▁pagkatuto	-13829
▁paglalaho	-13830
▁paglinang	-13831
▁paglingon	-13832
▁pagpanhik	-13833
▁pagpapala	-13834
▁pagparito	-13835
▁pagsamant	-13836
▁pagsaulan	-13837
▁pagtadtad	-13838
▁pagtaliin	-13839
▁pagtanggi	-13840
▁pagtutuos	-13841
▁pahayagan	-13842
▁pahimakas	-13843
▁paimbulog	-13844
▁pakikinig	-13845
▁pambihira	-13846
▁pamilihan	-13847
▁pamuksang	-13848
▁pamumulot	-13849
▁pananabik	-13850
▁pandulaan	-13851
▁panginoon	-13852
▁pangkatan	-13853
▁pangmasid	-13854
▁panloloko	-13855
▁papaanong	-13856
▁papalabas	-13857
▁papatayin	-13858
▁papayagan	-13859
▁papugutan	-13860
▁paraluman	-13861
▁pasintabi	-13862
▁patotoong	-13863
▁patunugin	-13864
▁pinakamab	-13865
▁pinangang	-13866
▁pinawalan	-13867
▁pinayuhan	-13868
▁pinugutan	-13869
▁pinuputol	-13870
▁pinutulan	-13871
▁praktikal	-13872
▁prusisyon	-13873
▁pumapatak	-13874
▁puspusang	-13875
▁salakayin	-13876
▁sandipang	-13877
▁sanlibong	-13878
▁sasadyain	-13879
▁sasagpang	-13880
▁sasagutin	-13881
▁sasalitin	-13882
▁sinabugan	-13883
▁sinalanta	-13884
▁sinasagot	-13885
▁siniphayo	-13886
▁sinubukan	-13887
▁sinugatan	-13888
▁sinusunog	-13889
▁sisinghap	-13890
▁siyamnapu	-13891
▁solitaryo	-13892
▁sugilanon	-13893
▁sumasakop	-13894
▁sumasamba	-13895
▁tagubilin	-13896
▁tanggulan	-13897
▁tanghalin	-13898
▁tatandaan	-13899
▁tinalupan	-13900
▁tinangnan	-13901
▁tinatapos	-13902
▁tinubuang	-13903
▁tumakbong	-13904
▁tumalikod	-13905
▁tumatabas	-13906
▁tumatakas	-13907
▁tumingala	-13908
▁tumitibok	-13909
▁tumutugon	-13910
▁tuntungan	-13911
▁winalisan	-13912
▁yumayakap	-13913
ahalukipkip	-13914
atanikalang	-13915
ihinayangan	-13916
▁Balensuela	-13917
▁Bienvenido	-13918
▁Binongtoan	-13919
▁Dinaradiya	-13920
▁Dumalaplap	-13921
▁Dumalogdog	-13922
▁Ekspresyon	-13923
▁Epimetheus	-13924
▁Floranteng	-13925
▁Hinihiling	-13926
▁Humadapnen	-13927
▁Itinanghal	-13928
▁Kabisayaan	-13929
▁Kagandahan	-13930
▁Kagitingan	-13931
▁Kailokohan	-13932
▁Kapampanga	-13933
▁Karunungan	-13934
▁Kasaysayan	-13935
▁Kataksilan	-13936
▁Katamtaman	-13937
▁Livunganen	-13938
▁Lumulutang	-13939
▁Magbabalik	-13940
▁Magbibigay	-13941
▁Maggagatas	-13942
▁Magkakapit	-13943
▁Mahalagang	-13944
▁Makapitong	-13945
▁Makarating	-13946
▁Maningning	-13947
▁Mapayapang	-13948
▁Maratectec	-13949
▁Menandrong	-13950
▁Nagbabalik	-13951
▁Nagbuntung	-13952
▁Naghahanap	-13953
▁Nagkagusto	-13954
▁Nagkakaisa	-13955
▁Nagpahinga	-13956
▁Nagpatawag	-13957
▁Nagpumilit	-13958
▁Nagsibalik	-13959
▁Nagtawanan	-13960
▁Nagugunita	-13961
▁Nahihiyang	-13962
▁Namayagpag	-13963
▁Naramdaman	-13964
▁Pagbabalik	-13965
▁Pagsaklolo	-13966
▁Pagsasalin	-13967
▁Pangavukad	-13968
▁Panginoong	-13969
▁Pinalangga	-13970
▁Pinamunuan	-13971
▁Polidiktis	-13972
▁Prometheus	-13973
▁Rinamentaw	-13974
▁Sansinukob	-13975
▁Sapilitang	-13976
▁Sasabihing	-13977
▁Sihesmundo	-13978
▁Sinimulang	-13979
▁Talagsahon	-13980
▁babasaging	-13981
▁bibilangin	-13982
▁biniyayaan	-13983
▁bumabagsak	-13984
▁bumalisbis	-13985
▁dinaraanan	-13986
▁dumalagang	-13987
▁durungawan	-13988
▁eksorsismo	-13989
▁elementong	-13990
▁engkantong	-13991
▁episodyong	-13992
▁gugustuhin	-13993
▁gunamgunam	-13994
▁hahahahaha	-13995
▁hahalakhak	-13996
▁hanapbuhay	-13997
▁hinatulang	-13998
▁ibinabalik	-13999
▁ibinalibag	-14000
▁ikabubuhay	-14001
▁ikinagalit	-14002
▁ikinalubog	-14003
▁ikinamatay	-14004
▁ikinuwento	-14005
▁industriya	-14006
▁inihabilin	-14007
▁inihahatid	-14008
▁inilalagay	-14009
▁inilarawan	-14010
▁ipahiwatig	-14011
▁ipinagapos	-14012
▁ipinaghele	-14013
▁ipinakasal	-14014
▁ipinamalas	-14015
▁ispiritung	-14016
▁itinatanim	-14017
▁kabinataan	-14018
▁kaginoohan	-14019
▁kagugunita	-14020
▁kahihintay	-14021
▁kahiwagaan	-14022
▁kailaliman	-14023
▁kakanyahan	-14024
▁kakaunting	-14025
▁kalabasang	-14026
▁kaligayaha	-14027
▁kaliksihan	-14028
▁kalimitang	-14029
▁kapabayaan	-14030
▁kapilyuhan	-14031
▁karalitaan	-14032
▁kasabihang	-14033
▁kasambahay	-14034
▁kasarinlan	-14035
▁kasiyahang	-14036
▁kastilaloy	-14037
▁kastilyong	-14038
▁kasukdulan	-14039
▁katangahan	-14040
▁katanyagan	-14041
▁katapatang	-14042
▁katatayong	-14043
▁katiwalian	-14044
▁katotohana	-14045
▁katunayang	-14046
▁kimmatuday	-14047
▁kinaratnan	-14048
▁lalakbayin	-14049
▁lumagaslas	-14050
▁lumalangoy	-14051
▁lumalayong	-14052
▁lumilingon	-14053
▁mabinyagan	-14054
▁madagdagan	-14055
▁madamdamin	-14056
▁magbabawas	-14057
▁magbubuhat	-14058
▁magbubukas	-14059
▁magbungkal	-14060
▁maghahanap	-14061
▁magkalapit	-14062
▁magkamalay	-14063
▁maglalahad	-14064
▁maglambing	-14065
▁magluluwal	-14066
▁magpahayag	-14067
▁magpatanda	-14068
▁magtatagal	-14069
▁mahahabang	-14070
▁makabangon	-14071
▁makakakita	-14072
▁makakasama	-14073
▁makalumang	-14074
▁makapitong	-14075
▁makasarili	-14076
▁makatitiis	-14077
▁makikintab	-14078
▁makikitang	-14079
▁makikiusap	-14080
▁makinabang	-14081
▁malalagong	-14082
▁malalamang	-14083
▁malikhaing	-14084
▁malinamnam	-14085
▁maliwanang	-14086
▁mananatili	-14087
▁manibalang	-14088
▁mapagbigay	-14089
▁mapagtanto	-14090
▁mapapaknit	-14091
▁mapayapang	-14092
▁maralitang	-14093
▁marangyang	-14094
▁mararangal	-14095
▁mararangya	-14096
▁masasaktan	-14097
▁masilungan	-14098
▁matalastas	-14099
▁matiyagang	-14100
▁mauunawaan	-14101
▁minamasdan	-14102
▁mungkahing	-14103
▁nagbubunga	-14104
▁nagbuntung	-14105
▁nagdarahop	-14106
▁nagdarasal	-14107
▁naghahanda	-14108
▁naghahayag	-14109
▁naghimutok	-14110
▁naghiwalay	-14111
▁nagkadurog	-14112
▁nagkagayon	-14113
▁nagkakalat	-14114
▁nagkatotoo	-14115
▁naglagalag	-14116
▁naglalaban	-14117
▁naglathala	-14118
▁nagliwanag	-14119
▁nagmamaliw	-14120
▁nagpahayag	-14121
▁nagpamalas	-14122
▁nagpanggap	-14123
▁nagpapalit	-14124
▁nagpatiuna	-14125
▁nagpupugay	-14126
▁nagsasayaw	-14127
▁nagsigawan	-14128
▁nagsilabas	-14129
▁nagsipunta	-14130
▁nagsisipan	-14131
▁nagtatagpo	-14132
▁nagtatanod	-14133
▁nagtutulog	-14134
▁nahahaling	-14135
▁nailathala	-14136
▁naisatitik	-14137
▁nakababata	-14138
▁nakabigkis	-14139
▁nakapanhik	-14140
▁nakaramdam	-14141
▁nakikilala	-14142
▁nalalaglag	-14143
▁nalalamang	-14144
▁nalulugami	-14145
▁namamahala	-14146
▁namamasyal	-14147
▁namamayong	-14148
▁nananaghoy	-14149
▁nandayuhan	-14150
▁nangabuhay	-14151
▁nangamatay	-14152
▁nangangako	-14153
▁naniningil	-14154
▁napahiyang	-14155
▁napakasama	-14156
▁napangarap	-14157
▁napapaiyak	-14158
▁nararahuyo	-14159
▁nasaksihan	-14160
▁nasasaktan	-14161
▁natatakpan	-14162
▁pababayaan	-14163
▁pagbubukas	-14164
▁pagkagalit	-14165
▁pagkagapos	-14166
▁pagkagiliw	-14167
▁pagkahulog	-14168
▁pagkakapag	-14169
▁pagkalipas	-14170
▁pagkarinig	-14171
▁pagkaulila	-14172
▁pagkukunan	-14173
▁paglilibot	-14174
▁paglilinis	-14175
▁pagluluwal	-14176
▁pagmumukha	-14177
▁pagsalakay	-14178
▁pagsasaing	-14179
▁pakikisama	-14180
▁palakpakan	-14181
▁pamimiliin	-14182
▁panganorin	-14183
▁panggatong	-14184
▁paninirang	-14185
▁panliligaw	-14186
▁panlipunan	-14187
▁papanhikin	-14188
▁paparating	-14189
▁partikular	-14190
▁patnubayan	-14191
▁perdigones	-14192
▁pinabaunan	-14193
▁pinagdasal	-14194
▁pinagtagpu	-14195
▁pinagyaman	-14196
▁pinakaloob	-14197
▁pinapakita	-14198
▁pinatutulo	-14199
▁pinayagang	-14200
▁pinayuhang	-14201
▁saklolohan	-14202
▁salagubang	-14203
▁sambayanan	-14204
▁sambuntong	-14205
▁sanlibutan	-14206
▁sapilitang	-14207
▁sasambahin	-14208
▁sasayangin	-14209
▁serpiyente	-14210
▁sinasambit	-14211
▁sinindihan	-14212
▁sinusundan	-14213
▁sumalangit	-14214
▁sumisilang	-14215
▁tagapamuno	-14216
▁takipsilim	-14217
▁talinghaga	-14218
▁tanggulang	-14219
▁tanikalang	-14220
▁tataglayin	-14221
▁tatanungin	-14222
▁telebisyon	-14223
▁tinalunton	-14224
▁tinatangay	-14225
▁tinatanong	-14226
▁tiwangwang	-14227
▁tumagistis	-14228
▁tumangging	-14229
▁tumatangis	-14230
▁tumutugtog	-14231
▁tunggalian	-14232
▁tungkuling	-14233
............	-14234
aniniwalaang	-14235
apagpagaling	-14236
▁Christopher	-14237
▁Dambuhalang	-14238
▁Ipahintulot	-14239
▁Ipinagbilin	-14240
▁Ipinagbunyi	-14241
▁Ipinakulong	-14242
▁Itinatanong	-14243
▁Kabayanihan	-14244
▁Kabungsuwan	-14245
▁Kasukdulang	-14246
▁Katagalugan	-14247
▁Katotohanan	-14248
▁Katungkulan	-14249
▁Labimpitong	-14250
▁Magkaibigan	-14251
▁Maglalakbay	-14252
▁Magpapakita	-14253
▁Magtatanong	-14254
▁Mahihikayat	-14255
▁Makaligtaan	-14256
▁Makasalanan	-14257
▁Naghahangad	-14258
▁Naghihintay	-14259
▁Nagmumurang	-14260
▁Nagpakilala	-14261
▁Nagtakbuhan	-14262
▁Nananawagan	-14263
▁Natatandaan	-14264
▁Pagkagising	-14265
▁Pagtataksil	-14266
▁Panchantara	-14267
▁Pangunahing	-14268
▁Pingpinggan	-14269
▁Sagamantika	-14270
▁Sinagmaling	-14271
▁Sinasalamin	-14272
▁Tinatawagan	-14273
▁alibangbang	-14274
▁bakasyunang	-14275
▁bilangguang	-14276
▁binubukalan	-14277
▁ekspresyong	-14278
▁estranghero	-14279
▁ginagalawan	-14280
▁ginatipigan	-14281
▁hinahagupit	-14282
▁hinandulong	-14283
▁hinihinging	-14284
▁ikaliligtas	-14285
▁ikinahihiya	-14286
▁instrumento	-14287
▁kadalagahan	-14288
▁kagandanhan	-14289
▁kapanglawan	-14290
▁kasingtibay	-14291
▁katiwasayan	-14292
▁kaygagaslaw	-14293
▁kaylalamyos	-14294
▁kinamulatan	-14295
▁kinasapitan	-14296
▁lapastangan	-14297
▁magdaragdag	-14298
▁maginhawang	-14299
▁magkakadugo	-14300
[...]
