<unk>	0
<s>	0
</s>	0
ng	-0
ang	-1
an	-2
▁n	-3
▁s	-4
at	-5
ag	-6
▁m	-7
al	-8
ay	-9
in	-10
▁k	-11
▁p	-12
▁sa	-13
▁ng	-14
▁na	-15
▁ang	-16
ak	-17
it	-18
as	-19
il	-20
am	-21
ar	-22
ap	-23
ing	-24
▁b	-25
ah	-26
aw	-27
ong	-28
iy	-29
ab	-30
▁t	-31
▁d	-32
▁at	-33
▁l	-34
ga	-35
is	-36
ul	-37
▁mga	-38
▁ay	-39
on	-40
▁A	-41
um	-42
un	-43
▁h	-44
ig	-45
▁S	-46
▁pag	-47
ad	-48
▁P	-49
ib	-50
▁K	-51
ik	-52
▁N	-53
ung	-54
iya	-55
▁M	-56
ip	-57
▁kan	-58
▁I	-59
▁mag	-60
▁nag	-61
▁si	-62
▁ni	-63
▁g	-64
us	-65
ito	-66
▁D	-67
▁Ang	-68
ut	-69
▁is	-70
di	-71
im	-72
ala	-73
▁B	-74
uh	-75
▁kany	-76
uk	-77
ilang	-78
apat	-79
▁T	-80
ari	-81
up	-82
and	-83
indi	-84
os	-85
▁H	-86
ila	-87
▁isang	-88
er	-89
ub	-90
▁kanyang	-91
uw	-92
or	-93
▁L	-94
▁nang	-95
▁"	-96
ot	-97
ur	-98
▁may	-99
awa	-100
alang	-101
▁kay	-102
▁siya	-103
▁niya	-104
ayan	-105
en	-106
▁ito	-107
▁ak	-108
iyang	-109
ih	-110
iw	-111
▁nak	-112
ug	-113
ol	-114
ir	-115
alak	-116
▁Sa	-117
▁ka	-118
ata	-119
ita	-120
▁pan	-121
id	-122
▁pin	-123
▁in	-124
▁w	-125
▁hindi	-126
▁r	-127
og	-128
amang	-129
ant	-130
es	-131
▁pang	-132
..	-133
ok	-134
▁an	-135
▁pa	-136
ya	-137
▁ib	-138
▁o	-139
▁nam	-140
ahan	-141
▁ta	-142
▁sin	-143
▁mak	-144
▁ko	-145
aya	-146
▁pagk	-147
▁mat	-148
angg	-149
▁(	-150
alag	-151
od	-152
ama	-153
▁mal	-154
to	-155
▁kung	-156
▁mo	-157
aan	-158
ahat	-159
▁kas	-160
▁kat	-161
▁pam	-162
agk	-163
▁iy	-164
ayo	-165
▁ma	-166
oy	-167
ipin	-168
yon	-169
yo	-170
oon	-171
▁At	-172
▁par	-173
."	-174
ahil	-175
▁lamang	-176
▁it	-177
awang	-178
itan	-179
sa	-180
uhay	-181
abi	-182
ula	-183
▁kap	-184
▁man	-185
alan	-186
▁Nag	-187
ili	-188
▁di	-189
alam	-190
ating	-191
ibig	-192
▁lahat	-193
ob	-194
upang	-195
▁kal	-196
▁dapat	-197
ungk	-198
uan	-199
▁kanilang	-200
▁dal	-201
araw	-202
▁tin	-203
▁bat	-204
▁Ib	-205
aka	-206
▁mas	-207
aba	-208
▁lum	-209
▁upang	-210
▁niyang	-211
▁siyang	-212
▁Don	-213
ta	-214
ana	-215
▁kah	-216
anda	-217
▁kab	-218
▁bin	-219
aring	-220
▁nito	-221
▁naman	-222
ra	-223
▁ako	-224
▁mah	-225
▁F	-226
▁E	-227
ulo	-228
▁G	-229
▁mang	-230
▁sila	-231
▁din	-232
el	-233
▁mab	-234
▁tao	-235
▁C	-236
▁nap	-237
▁um	-238
▁kar	-239
akas	-240
...	-241
ayon	-242
▁mar	-243
apag	-244
unit	-245
▁walang	-246
und	-247
▁Al	-248
▁kam	-249
▁Ng	-250
▁araw	-251
atay	-252
▁anak	-253
▁Is	-254
alit	-255
▁nat	-256
▁pal	-257
▁dahil	-258
aban	-259
▁bag	-260
▁In	-261
awan	-262
▁kin	-263
▁ik	-264
▁magk	-265
andang	-266
yong	-267
aling	-268
oob	-269
int	-270
▁buhay	-271
ulang	-272
▁Hindi	-273
alim	-274
▁Pil	-275
agkat	-276
▁Nang	-277
arra	-278
ali	-279
unt	-280
▁sum	-281
▁Kung	-282
▁bah	-283
▁aking	-284
▁hin	-285
▁tum	-286
▁Kap	-287
▁Ibarra	-288
▁kong	-289
ante	-290
aman	-291
ayang	-292
▁rin	-293
ulan	-294
▁tag	-295
▁il	-296
ulong	-297
▁bayan	-298
▁nila	-299
▁May	-300
om	-301
alik	-302
uno	-303
ina	-304
ON	-305
asa	-306
▁pags	-307
▁Pilipin	-308
pap	-309
ins	-310
▁sap	-311
upa	-312
iling	-313
▁pr	-314
▁map	-315
▁pagl	-316
▁J	-317
ahon	-318
agan	-319
▁pat	-320
abang	-321
▁Mari	-322
▁para	-323
YON	-324
yan	-325
SYON	-326
EK	-327
▁e	-328
▁Na	-329
angk	-330
▁SEK	-331
alaki	-332
tat	-333
usap	-334
▁SEKSYON	-335
▁kaya	-336
ado	-337
apit	-338
ika	-339
▁al	-340
▁gin	-341
▁Sin	-342
re	-343
▁dalawang	-344
▁kanya	-345
iwan	-346
ha	-347
asan	-348
▁sak	-349
alaga	-350
akit	-351
▁baba	-352
ungan	-353
▁W	-354
ent	-355
▁mam	-356
▁Maria	-357
▁iyong	-358
ura	-359
▁lang	-360
ago	-361
▁iba	-362
▁pinag	-363
uli	-364
isa	-365
uhan	-366
▁ama	-367
apos	-368
inig	-369
asawa	-370
▁dum	-371
▁1	-372
da	-373
▁Pang	-374
▁nags	-375
▁wala	-376
▁kag	-377
alo	-378
uha	-379
▁Mag	-380
alita	-381
arap	-382
▁kum	-383
yang	-384
▁pus	-385
▁ipin	-386
▁Fl	-387
▁Si	-388
▁ina	-389
amb	-390
▁lupa	-391
anggang	-392
ipag	-393
aming	-394
▁U	-395
eg	-396
uti	-397
unod	-398
yari	-399
uwag	-400
▁sar	-401
▁loob	-402
awag	-403
st	-404
la	-405
amp	-406
ero	-407
amit	-408
▁tul	-409
▁R	-410
▁Kapitan	-411
em	-412
uman	-413
▁pak	-414
ud	-415
asyon	-416
han	-417
▁iyon	-418
na	-419
▁tat	-420
▁babae	-421
▁Bas	-422
▁Flor	-423
uwa	-424
▁bahay	-425
alaking	-426
▁panahon	-427
ans	-428
angan	-429
▁Pag	-430
▁hal	-431
oong	-432
abas	-433
amah	-434
▁nas	-435
▁pagb	-436
ayong	-437
▁Sim	-438
op	-439
▁isa	-440
unong	-441
aran	-442
▁nga	-443
unang	-444
▁sapagkat	-445
itong	-446
▁dito	-447
▁Isang	-448
▁tungk	-449
▁pagh	-450
apatid	-451
ulat	-452
▁nagp	-453
ilio	-454
▁An	-455
▁nar	-456
ahang	-457
ast	-458
iyos	-459
uong	-460
▁nin	-461
alay	-462
▁Ito	-463
▁mad	-464
▁maa	-465
▁sab	-466
ihan	-467
▁y	-468
ara	-469
▁Basilio	-470
▁Ay	-471
▁nagk	-472
▁batas	-473
irap	-474
anong	-475
akl	-476
▁Di	-477
▁Dapat	-478
▁ngunit	-479
unan	-480
▁Tin	-481
▁nab	-482
▁Juan	-483
▁nasa	-484
.)	-485
ist	-486
▁Nak	-487
▁Pin	-488
abing	-489
▁mong	-490
alin	-491
▁Florante	-492
atu	-493
oro	-494
alis	-495
isip	-496
▁hanggang	-497
agat	-498
▁taong	-499
▁pagkak	-500
▁pagt	-501
▁naging	-502
oun	-503
▁Donya	-504
agaw	-505
lang	-506
▁ano	-507
▁nan	-508
▁itong	-509
▁Ngunit	-510
▁Pad	-511
▁puso	-512
▁nagb	-513
awat	-514
▁bum	-515
▁sam	-516
agi	-517
ati	-518
pin	-519
utan	-520
▁hum	-521
apang	-522
▁lalaki	-523
▁Padre	-524
▁Simoun	-525
▁Lam	-526
uling	-527
ilangan	-528
ump	-529
ain	-530
ind	-531
▁nagt	-532
una	-533
▁itin	-534
▁nagl	-535
ed	-536
uro	-537
▁kuw	-538
▁magp	-539
▁pagpap	-540
amd	-541
ulog	-542
▁buw	-543
▁O	-544
iyak	-545
▁tang	-546
uy	-547
aga	-548
uloy	-549
atang	-550
▁buong	-551
agad	-552
along	-553
irang	-554
▁bul	-555
▁mags	-556
▁Pangulo	-557
▁maaaring	-558
aso	-559
ust	-560
ek	-561
aroon	-562
▁big	-563
arang	-564
▁Kaban	-565
▁pamam	-566
▁Kabanata	-567
long	-568
▁magt	-569
▁Pilipinas	-570
▁kun	-571
▁hang	-572
wa	-573
▁Ad	-574
▁ip	-575
▁hari	-576
uri	-577
▁Ag	-578
▁mula	-579
anggap	-580
res	-581
ento	-582
▁ikaw	-583
alaman	-584
alaan	-585
ko	-586
bay	-587
anap	-588
ungo	-589
▁pas	-590
ihin	-591
agawa	-592
iging	-593
▁kasama	-594
et	-595
▁pum	-596
ibigan	-597
▁langit	-598
hang	-599
igit	-600
▁gum	-601
▁nil	-602
arian	-603
ano	-604
▁Pari	-605
▁mata	-606
▁pagp	-607
▁puno	-608
▁Dahil	-609
▁Pilipino	-610
ami	-611
ban	-612
iran	-613
▁kaw	-614
▁bawat	-615
▁dalaga	-616
▁silang	-617
unga	-618
▁asawa	-619
▁2	-620
usa	-621
ilala	-622
iko	-623
▁ba	-624
isyon	-625
▁Kaya	-626
agal	-627
asal	-628
▁raw	-629
▁ibang	-630
▁maging	-631
ugan	-632
agp	-633
▁Y	-634
ubat	-635
▁pap	-636
aging	-637
▁bilang	-638
!"	-639
▁po	-640
akan	-641
aral	-642
li	-643
▁sinabi	-644
▁dumating	-645
abag	-646
alaw	-647
anga	-648
▁Mga	-649
▁nagh	-650
ro	-651
▁or	-652
abaw	-653
▁wika	-654
▁unang	-655
▁parang	-656
yay	-657
▁ban	-658
▁Siya	-659
▁ating	-660
▁Sinabi	-661
lo	-662
ilim	-663
▁huk	-664
iwanag	-665
▁ngayon	-666
▁La	-667
▁re	-668
awit	-669
ulungan	-670
alig	-671
▁pagd	-672
▁kahit	-673
▁kamay	-674
▁binata	-675
alat	-676
ener	-677
▁iyo	-678
,"	-679
▁da	-680
aklak	-681
▁taon	-682
▁tungkol	-683
undok	-684
▁kundi	-685
▁'	-686
isan	-687
▁Kin	-688
▁panan	-689
▁kapatid	-690
nan	-691
usan	-692
▁Mar	-693
▁Tiy	-694
▁nilang	-695
tas	-696
ubig	-697
▁akin	-698
▁sina	-699
esa	-700
ilig	-701
ingg	-702
ulad	-703
▁Mak	-704
▁Ipin	-705
▁ninyo	-706
ungkulan	-707
eng	-708
▁ut	-709
▁kang	-710
agitan	-711
oto	-712
ayag	-713
ulay	-714
▁ibig	-715
uni	-716
uto	-717
igil	-718
▁tun	-719
ahing	-720
uting	-721
▁nakat	-722
AN	-723
▁noon	-724
eneral	-725
?"	-726
sak	-727
▁Ik	-728
alas	-729
▁buk	-730
▁pamb	-731
▁sino	-732
▁pinak	-733
say	-734
▁magb	-735
▁Lum	-736
▁sag	-737
▁bagay	-738
▁pamamagitan	-739
ayop	-740
▁lib	-741
▁Laura	-742
alagang	-743
▁Pagkat	-744
aki	-745
ibil	-746
▁Bin	-747
▁Tiyago	-748
▁nitong	-749
kas	-750
akot	-751
▁Diyos	-752
api	-753
ern	-754
▁nal	-755
▁tayo	-756
alamat	-757
▁mamam	-758
▁karapat	-759
ilit	-760
▁gan	-761
▁naw	-762
alakas	-763
▁nah	-764
▁ilang	-765
▁dalawa	-766
▁lub	-767
▁Kast	-768
est	-769
man	-770
▁ep	-771
igan	-772
iyon	-773
▁lug	-774
▁tubig	-775
▁Walang	-776
iwa	-777
tan	-778
ukha	-779
▁Sum	-780
▁tan	-781
araan	-782
alawang	-783
▁maraming	-784
▁Pr	-785
ulin	-786
▁ulo	-787
isang	-788
▁Kong	-789
▁hayop	-790
▁kaharian	-791
asyo	-792
hala	-793
lias	-794
▁sand	-795
▁Elias	-796
▁bulaklak	-797
tor	-798
reso	-799
▁Est	-800
angyari	-801
▁Kongreso	-802
ira	-803
awak	-804
ilip	-805
▁daw	-806
▁dib	-807
▁tunay	-808
lay	-809
ahin	-810
ukol	-811
▁kayo	-812
▁gubat	-813
▁lakas	-814
amo	-815
hin	-816
imp	-817
iwang	-818
▁gabi	-819
anggol	-820
▁matat	-821
arating	-822
▁nakita	-823
▁pagtat	-824
▁tatlong	-825
▁V	-826
dib	-827
ihim	-828
▁Ako	-829
▁Bat	-830
amdam	-831
▁Datu	-832
▁gawa	-833
unting	-834
▁dagat	-835
ahi	-836
ino	-837
▁ya	-838
unta	-839
▁lik	-840
▁min	-841
▁sim	-842
agang	-843
▁Agat	-844
▁isip	-845
▁bundok	-846
▁kanila	-847
▁pagsas	-848
▁sarili	-849
▁magandang	-850
pan	-851
asok	-852
ataas	-853
▁buwan	-854
▁huwag	-855
▁Estado	-856
▁Kastila	-857
adh	-858
▁Ka	-859
▁tr	-860
sing	-861
▁Sal	-862
▁bunga	-863
▁prins	-864
▁dibdib	-865
▁i	-866
akb	-867
ilis	-868
stit	-869
uran	-870
▁Tum	-871
ingan	-872
▁isin	-873
▁makita	-874
Ang	-875
ilin	-876
pang	-877
unin	-878
▁Man	-879
▁dak	-880
banya	-881
ingin	-882
ubong	-883
▁doon	-884
stitus	-885
▁kapangyari	-886
",	-887
do	-888
ma	-889
igd	-890
ikan	-891
ingi	-892
▁Heneral	-893
imb	-894
ugo	-895
unl	-896
▁Kon	-897
▁magl	-898
▁Haring	-899
▁katawan	-900
olo	-901
ulit	-902
▁muli	-903
▁mahal	-904
▁magulang	-905
▁sariling	-906
so	-907
▁It	-908
igaw	-909
▁sal	-910
▁bago	-911
▁pagm	-912
▁pangk	-913
eo	-914
le	-915
ers	-916
uwi	-917
ahas	-918
akda	-919
apon	-920
usto	-921
▁Pero	-922
▁pagg	-923
▁higit	-924
▁lugar	-925
erm	-926
▁ap	-927
ango	-928
▁Dam	-929
▁bata	-930
▁pamah	-931
▁Damaso	-932
agd	-933
apa	-934
atan	-935
awin	-936
▁Mah	-937
▁lim	-938
▁ibon	-939
▁nagd	-940
▁kapag	-941
▁punong	-942
olf	-943
▁sus	-944
ikang	-945
iwala	-946
▁Adolf	-947
▁nakak	-948
▁natin	-949
ci	-950
▁Kab	-951
▁Mab	-952
▁Nam	-953
▁Wala	-954
ungkot	-955
▁bangk	-956
▁tanging	-957
▁a	-958
▁–	-959
ego	-960
uin	-961
▁Ar	-962
usang	-963
arapat	-964
▁mukha	-965
▁muling	-966
▁lalaking	-967
aro	-968
▁Hin	-969
ikita	-970
▁agad	-971
▁bato	-972
▁ilog	-973
▁luha	-974
ahanap	-975
▁akong	-976
▁mapag	-977
▁noong	-978
▁tulad	-979
ilangang	-980
▁malaking	-981
ubo	-982
undo	-983
akad	-984
ulot	-985
▁Kom	-986
▁San	-987
asang	-988
igdig	-989
insan	-990
▁ring	-991
adhana	-992
▁tinig	-993
ugt	-994
ilan	-995
▁Mat	-996
amahal	-997
▁sakit	-998
▁bahagi	-999
▁habang	-1000
▁kaibigan	-1001
▁3	-1002
sik	-1003
akay	-1004
ayaw	-1005
inga	-1006
▁pab	-1007
▁mayr	-1008
▁lalong	-1009
amat	-1010
ibay	-1011
▁bak	-1012
▁git	-1013
▁nina	-1014
▁oras	-1015
▁bansa	-1016
▁matandang	-1017
ic	-1018
abis	-1019
agka	-1020
▁Nap	-1021
▁Nagp	-1022
▁kita	-1023
▁Adolfo	-1024
▁bagong	-1025
▁ilalim	-1026
▁matanda	-1027
per	-1028
ris	-1029
aong	-1030
▁bal	-1031
ahong	-1032
▁alin	-1033
aralan	-1034
▁gayong	-1035
▁magkak	-1036
irahan	-1037
▁Huwag	-1038
▁Albanya	-1039
aal	-1040
yat	-1041
...!	-1042
unti	-1043
itang	-1044
▁datu	-1045
▁ding	-1046
▁ipag	-1047
▁taga	-1048
▁Kagaw	-1049
▁inyong	-1050
▁tulong	-1051
▁de	-1052
apal	-1053
▁sil	-1054
▁tuw	-1055
amant	-1056
umang	-1057
▁nagm	-1058
ibigay	-1059
▁tahan	-1060
▁Nagong	-1061
▁laging	-1062
▁nagpap	-1063
▁pagkat	-1064
uo	-1065
awi	-1066
▁Il	-1067
uhat	-1068
▁suk	-1069
agani	-1070
ansin	-1071
▁Koro	-1072
▁saan	-1073
▁sabi	-1074
▁Isagani	-1075
iba	-1076
▁sul	-1077
unlad	-1078
utang	-1079
ubalit	-1080
▁makat	-1081
▁mabuti	-1082
▁pagkain	-1083
▁mamamayan	-1084
las	-1085
pak	-1086
abay	-1087
igay	-1088
syon	-1089
uhin	-1090
▁kon	-1091
ayaan	-1092
▁ayon	-1093
usapan	-1094
▁Diego	-1095
▁tinat	-1096
alaysay	-1097
▁Kagawad	-1098
ann	-1099
▁Fa	-1100
ikha	-1101
ilos	-1102
oyan	-1103
▁inil	-1104
▁nais	-1105
abalik	-1106
▁diyos	-1107
▁napak	-1108
▁yaong	-1109
annoyan	-1110
▁namang	-1111
Ay	-1112
ido	-1113
isig	-1114
▁Dum	-1115
awala	-1116
yante	-1117
yayari	-1118
▁Faust	-1119
▁kulay	-1120
▁laban	-1121
▁pagka	-1122
▁daigdig	-1123
▁Cannoyan	-1124
upo	-1125
abuk	-1126
anan	-1127
away	-1128
upad	-1129
▁sas	-1130
ibang	-1131
igaya	-1132
uring	-1133
▁sana	-1134
▁nagtat	-1135
▁Konstitus	-1136
▁kapangyarihan	-1137
▁Ma	-1138
▁Kas	-1139
akain	-1140
uhang	-1141
▁kamat	-1142
▁nakas	-1143
▁patay	-1144
▁Faustus	-1145
agot	-1146
▁Mas	-1147
▁ginawa	-1148
▁Bathala	-1149
▁katulad	-1150
▁malakas	-1151
ahim	-1152
apan	-1153
▁Mad	-1154
▁Mal	-1155
▁ari	-1156
▁ini	-1157
▁ikin	-1158
san	-1159
uga	-1160
abot	-1161
alip	-1162
uang	-1163
▁Kay	-1164
▁pil	-1165
▁pis	-1166
antay	-1167
▁kapwa	-1168
▁katut	-1169
vi	-1170
ako	-1171
anak	-1172
itin	-1173
▁Kat	-1174
▁est	-1175
▁lip	-1176
▁pul	-1177
intay	-1178
▁awit	-1179
atuloy	-1180
▁pakik	-1181
▁panun	-1182
▁Komisyon	-1183
iti	-1184
lat	-1185
utol	-1186
▁uri	-1187
▁Nagk	-1188
▁Sisa	-1189
▁magh	-1190
▁gitna	-1191
▁karapatan	-1192
▁pamahalaan	-1193
ibo	-1194
▁Lu	-1195
▁as	-1196
ente	-1197
▁him	-1198
bayan	-1199
▁naka	-1200
▁hirap	-1201
alitang	-1202
yal	-1203
amot	-1204
iban	-1205
aaral	-1206
▁Ayon	-1207
▁anyo	-1208
▁koro	-1209
▁pala	-1210
▁Salvi	-1211
▁tapat	-1212
▁Nakita	-1213
▁biglang	-1214
eh	-1215
ep	-1216
ipe	-1217
▁ul	-1218
amis	-1219
▁Kal	-1220
▁pah	-1221
alian	-1222
ikong	-1223
atawan	-1224
▁Yaong	-1225
▁kahoy	-1226
▁dating	-1227
▁pinakam	-1228
▁tagapag	-1229
▁nangyari	-1230
ks	-1231
▁ag	-1232
▁ar	-1233
angi	-1234
anti	-1235
atas	-1236
nong	-1237
utok	-1238
▁Nat	-1239
▁alam	-1240
▁saka	-1241
▁ukol	-1242
ansang	-1243
▁kalul	-1244
▁masas	-1245
▁palasyo	-1246
▁tungkulin	-1247
▁ig	-1248
▁ih	-1249
▁ug	-1250
anta	-1251
iliw	-1252
ilya	-1253
alakad	-1254
▁Sibil	-1255
▁galit	-1256
▁gayon	-1257
▁nakab	-1258
abukasan	-1259
▁kuwento	-1260
▁tahanan	-1261
▁masamang	-1262
▁Pagkatapos	-1263
ens	-1264
▁Es	-1265
▁Pa	-1266
ingk	-1267
ising	-1268
peres	-1269
urang	-1270
▁lalo	-1271
▁magd	-1272
ukuman	-1273
alakbay	-1274
▁panahong	-1275
▁kamatayan	-1276
aks	-1277
ayun	-1278
▁Kura	-1279
▁Tula	-1280
akasal	-1281
▁bakit	-1282
▁Alperes	-1283
▁malapit	-1284
▁kailangan	-1285
hi	-1286
▁Un	-1287
abig	-1288
agay	-1289
atid	-1290
▁Isa	-1291
▁dugo	-1292
▁inih	-1293
▁muna	-1294
agamit	-1295
agpuan	-1296
▁palad	-1297
▁hangin	-1298
▁namatay	-1299
▁Kapulungan	-1300
AR	-1301
ez	-1302
oo	-1303
▁Um	-1304
ahoy	-1305
angh	-1306
utin	-1307
uyan	-1308
▁bun	-1309
▁ibin	-1310
amatay	-1311
▁Kapag	-1312
▁sinas	-1313
▁limang	-1314
▁liwanag	-1315
▁magkaroon	-1316
ono	-1317
arin	-1318
ugon	-1319
▁kak	-1320
▁Adar	-1321
▁anim	-1322
▁kami	-1323
▁magm	-1324
agalog	-1325
alabas	-1326
alagay	-1327
▁Inang	-1328
▁kasal	-1329
▁makak	-1330
amdamin	-1331
▁batang	-1332
▁pinuno	-1333
▁pangalan	-1334
▁prinsesa	-1335
▁pagdating	-1336
bo	-1337
iit	-1338
isi	-1339
law	-1340
umb	-1341
ahal	-1342
amak	-1343
▁Ikaw	-1344
▁Nagt	-1345
▁diwa	-1346
▁guro	-1347
arawan	-1348
▁estud	-1349
▁karan	-1350
▁palak	-1351
▁Adarna	-1352
▁Samant	-1353
▁marami	-1354
▁umalis	-1355
era	-1356
▁(1	-1357
▁(2	-1358
anay	-1359
dang	-1360
ilag	-1361
igkas	-1362
▁Alad	-1363
▁baka	-1364
▁sing	-1365
▁Lahat	-1366
▁aming	-1367
▁kalag	-1368
▁manok	-1369
▁salita	-1370
▁bangkay	-1371
▁dahilan	-1372
▁magiging	-1373
abl	-1374
iro	-1375
▁ab	-1376
iyam	-1377
mang	-1378
ubuk	-1379
▁Jos	-1380
▁Kah	-1381
▁Par	-1382
▁kor	-1383
▁sad	-1384
adong	-1385
bahan	-1386
▁apat	-1387
▁pray	-1388
▁tila	-1389
▁tula	-1390
▁gagaw	-1391
▁inang	-1392
▁nakik	-1393
▁nanin	-1394
▁kagand	-1395
▁tauhan	-1396
▁Tagalog	-1397
▁makapag	-1398
▁kabilang	-1399
▁paaralan	-1400
▁pambayan	-1401
▁estudyante	-1402
▁panunungkulan	-1403
go	-1404
agb	-1405
▁am	-1406
idad	-1407
inis	-1408
ipit	-1409
▁Hum	-1410
▁Tal	-1411
▁kad	-1412
aloob	-1413
▁dala	-1414
▁sang	-1415
▁Ibong	-1416
▁kaysa	-1417
▁labis	-1418
▁niyon	-1419
▁bayang	-1420
iz	-1421
▁c	-1422
dir	-1423
ela	-1424
lan	-1425
pas	-1426
cido	-1427
hati	-1428
▁imp	-1429
akita	-1430
imula	-1431
▁apoy	-1432
▁pana	-1433
▁pook	-1434
▁samp	-1435
▁tuwa	-1436
iyahan	-1437
▁Prins	-1438
▁magag	-1439
▁kinaka	-1440
▁babaing	-1441
▁halaman	-1442
▁maganda	-1443
▁kaluluwa	-1444
de	-1445
tr	-1446
emb	-1447
ilo	-1448
por	-1449
tik	-1450
▁Lin	-1451
▁bit	-1452
▁pay	-1453
akyat	-1454
ongan	-1455
▁Nags	-1456
▁iyan	-1457
▁kumb	-1458
▁panl	-1459
entong	-1460
ungang	-1461
▁alamat	-1462
▁kaagad	-1463
▁kayaman	-1464
▁mabuting	-1465
▁nararapat	-1466
awad	-1467
iyas	-1468
rist	-1469
▁Ped	-1470
▁Tag	-1471
▁niy	-1472
andog	-1473
▁Jose	-1474
▁pari	-1475
▁pati	-1476
abayan	-1477
ahimik	-1478
▁epiko	-1479
▁Aladin	-1480
▁gawain	-1481
▁itinat	-1482
▁kasint	-1483
▁kaniyang	-1484
▁Konstitusyong	-1485
Sa	-1486
ey	-1487
no	-1488
po	-1489
agin	-1490
asak	-1491
ukot	-1492
upit	-1493
▁Din	-1494
▁Sen	-1495
▁Vic	-1496
angal	-1497
ataan	-1498
iwata	-1499
▁Pagk	-1500
▁angk	-1501
▁daan	-1502
ahayag	-1503
asyong	-1504
▁damit	-1505
▁harap	-1506
▁lumip	-1507
▁natut	-1508
▁sagot	-1509
▁lupain	-1510
▁pagbab	-1511
▁sanggol	-1512
▁kumbento	-1513
io	-1514
▁4	-1515
ays	-1516
eon	-1517
pit	-1518
isin	-1519
utom	-1520
uwal	-1521
▁Bag	-1522
▁nai	-1523
▁paa	-1524
▁uma	-1525
aalam	-1526
esang	-1527
▁Mula	-1528
▁Pers	-1529
▁rito	-1530
▁ibong	-1531
▁Victor	-1532
▁paraan	-1533
▁taglay	-1534
▁tanong	-1535
▁Hukuman	-1536
▁mamatay	-1537
▁simbahan	-1538
mo	-1539
agl	-1540
aho	-1541
hik	-1542
uko	-1543
ult	-1544
igid	-1545
ikit	-1546
izal	-1547
ubos	-1548
ukan	-1549
▁(2)	-1550
▁ent	-1551
▁tal	-1552
Hindi	-1553
▁bang	-1554
▁Rizal	-1555
▁halos	-1556
▁mundo	-1557
▁palay	-1558
▁pamum	-1559
▁kaaway	-1560
▁mataas	-1561
▁halalan	-1562
▁kasalan	-1563
ba	-1564
ada	-1565
dal	-1566
▁Cl	-1567
akip	-1568
ayos	-1569
ikat	-1570
tang	-1571
unog	-1572
uyod	-1573
▁Nab	-1574
▁day	-1575
▁nad	-1576
▁san	-1577
▁Cris	-1578
▁buto	-1579
▁utos	-1580
alaala	-1581
▁bibig	-1582
▁ginto	-1583
▁kawal	-1584
▁panin	-1585
▁silid	-1586
alagaan	-1587
▁magtat	-1588
▁prayle	-1589
▁hukuman	-1590
▁maliban	-1591
▁munting	-1592
▁damdamin	-1593
▁pagkakata	-1594
▁katungkulan	-1595
ch	-1596
ard	-1597
uot	-1598
uyo	-1599
▁Am	-1600
alad	-1601
emon	-1602
▁reg	-1603
▁sig	-1604
alimb	-1605
igyan	-1606
▁Itin	-1607
▁pans	-1608
▁hanap	-1609
▁hinih	-1610
▁nagsis	-1611
▁pusong	-1612
▁tulang	-1613
▁Binukot	-1614
▁Dumating	-1615
▁Namongan	-1616
▁mayroong	-1617
bong	-1618
hiya	-1619
ilaw	-1620
ubuo	-1621
▁(1)	-1622
▁bay	-1623
▁hap	-1624
▁kil	-1625
uyang	-1626
▁Sila	-1627
▁gaya	-1628
aguyod	-1629
▁balak	-1630
▁kawan	-1631
▁lihim	-1632
▁nayon	-1633
▁kaloob	-1634
▁matsing	-1635
▁-	-1636
ora	-1637
asya	-1638
ibat	-1639
ipon	-1640
wang	-1641
anggi	-1642
▁Isin	-1643
▁kamp	-1644
▁tabi	-1645
aganap	-1646
aharap	-1647
alapit	-1648
lacido	-1649
▁Kahit	-1650
▁Tasyo	-1651
▁ganda	-1652
▁hukbo	-1653
▁tawag	-1654
amdaman	-1655
▁taning	-1656
aliwanag	-1657
▁kawayan	-1658
▁Samantala	-1659
▁pangyayari	-1660
hh	-1661
ags	-1662
dan	-1663
end	-1664
lap	-1665
amay	-1666
▁Gin	-1667
▁bab	-1668
▁buh	-1669
▁but	-1670
▁dig	-1671
▁hig	-1672
▁lin	-1673
▁tit	-1674
nayan	-1675
unita	-1676
▁Nagb	-1677
▁Saka	-1678
▁lawa	-1679
▁sama	-1680
anggit	-1681
▁Bakit	-1682
▁Noong	-1683
▁mangg	-1684
▁ngayo	-1685
alangin	-1686
aysayan	-1687
ukasyon	-1688
▁gabing	-1689
▁ligaya	-1690
▁minsan	-1691
▁nagsas	-1692
▁wikang	-1693
▁malaman	-1694
▁nakapag	-1695
▁katutubong	-1696
co	-1697
fa	-1698
▁5	-1699
ahe	-1700
erp	-1701
▁Ak	-1702
▁Dr	-1703
▁Ip	-1704
ahay	-1705
amba	-1706
▁Nal	-1707
▁bar	-1708
▁rey	-1709
▁tut	-1710
adala	-1711
yente	-1712
▁Bant	-1713
awalan	-1714
ingnan	-1715
intong	-1716
isipan	-1717
▁Bayan	-1718
▁halip	-1719
▁tinut	-1720
ahangad	-1721
taasang	-1722
▁Habang	-1723
▁gumawa	-1724
▁magkas	-1725
▁malaki	-1726
▁yaring	-1727
▁Placido	-1728
▁lumabas	-1729
▁pangang	-1730
▁subalit	-1731
amahalaan	-1732
▁Hanggang	-1733
AT	-1734
ia	-1735
agh	-1736
log	-1737
▁Ig	-1738
▁es	-1739
Kung	-1740
anaw	-1741
ikal	-1742
otoo	-1743
utos	-1744
▁Kan	-1745
▁Sel	-1746
▁kom	-1747
▁sug	-1748
▁umi	-1749
ingat	-1750
umpay	-1751
▁Huli	-1752
▁ayaw	-1753
▁roon	-1754
ubuhay	-1755
uhayan	-1756
▁Pedro	-1757
▁bukid	-1758
▁lubos	-1759
▁takot	-1760
▁umuwi	-1761
awalang	-1762
▁pagkab	-1763
▁pagong	-1764
▁paligid	-1765
▁pampang	-1766
▁sabihin	-1767
▁sadyang	-1768
▁pagpapat	-1769
ti	-1770
yu	-1771
ena	-1772
ngk	-1773
anao	-1774
anat	-1775
erno	-1776
iyan	-1777
nila	-1778
▁eks	-1779
▁mus	-1780
alino	-1781
undin	-1782
uwang	-1783
▁Araw	-1784
▁Doon	-1785
▁ilaw	-1786
▁kasi	-1787
alakay	-1788
▁Clara	-1789
▁Upang	-1790
▁tiyak	-1791
▁Naging	-1792
▁entabl	-1793
▁salapi	-1794
▁gagawin	-1795
▁Kabesang	-1796
▁kailangang	-1797
▁pagmamahal	-1798
00	-1799
3)	-1800
pa	-1801
ida	-1802
▁ed	-1803
▁la	-1804
apak	-1805
sang	-1806
umpa	-1807
▁Ano	-1808
▁Ina	-1809
▁Lab	-1810
▁tuk	-1811
abasa	-1812
alala	-1813
igtas	-1814
ihang	-1815
▁Agyu	-1816
▁Ibig	-1817
▁kaug	-1818
▁lagi	-1819
▁pant	-1820
atlong	-1821
iganti	-1822
ugtong	-1823
ulugan	-1824
uwaang	-1825
▁Espan	-1826
▁Tales	-1827
▁sapat	-1828
▁sibat	-1829
▁sulat	-1830
▁malayo	-1831
▁lubhang	-1832
▁mabilis	-1833
▁nangang	-1834
▁narinig	-1835
▁tinawag	-1836
▁dalagang	-1837
▁nagiging	-1838
▁Victorina	-1839
▁entablado	-1840
ola	-1841
ran	-1842
ukl	-1843
▁19	-1844
alon	-1845
ares	-1846
ilik	-1847
▁Cam	-1848
▁Min	-1849
▁Tul	-1850
abait	-1851
igpit	-1852
unawa	-1853
▁Pagd	-1854
▁inyo	-1855
▁kina	-1856
▁maka	-1857
usahan	-1858
▁amang	-1859
▁nakal	-1860
▁Kataas	-1861
▁Parang	-1862
▁pinagm	-1863
▁samant	-1864
▁mabuhay	-1865
▁mayroon	-1866
▁tanggap	-1867
▁pangarap	-1868
▁tinatawag	-1869
▁pagkatapos	-1870
▁Kataastaasang	-1871
agt	-1872
anto	-1873
arir	-1874
▁Bis	-1875
▁Nar	-1876
▁put	-1877
▁Ines	-1878
▁dusa	-1879
iwalay	-1880
▁gawin	-1881
▁iyang	-1882
▁magka	-1883
▁ngang	-1884
▁patak	-1885
▁umaga	-1886
alingan	-1887
iligtas	-1888
▁paglal	-1889
▁pagtut	-1890
▁pakpak	-1891
▁pitong	-1892
alawigan	-1893
▁Tuwaang	-1894
▁bumalik	-1895
▁pagkaka	-1896
▁sumunod	-1897
apangyari	-1898
▁singsing	-1899
▁Kinatawan	-1900
▁kayamanan	-1901
▁kagandahan	-1902
▁pambansang	-1903
▁samantalang	-1904
pir	-1905
▁id	-1906
akaw	-1907
aliw	-1908
▁Hal	-1909
▁yum	-1910
alana	-1911
oroon	-1912
▁Para	-1913
▁manl	-1914
▁pint	-1915
▁pulo	-1916
abihin	-1917
akbang	-1918
isyong	-1919
▁Ilang	-1920
▁buhok	-1921
▁dahon	-1922
▁dilag	-1923
▁kabut	-1924
▁kapal	-1925
▁kontr	-1926
▁namum	-1927
▁pilak	-1928
▁sasak	-1929
▁sukat	-1930
▁tumut	-1931
▁utang	-1932
▁yaman	-1933
▁balita	-1934
▁bayani	-1935
▁korpor	-1936
▁magpap	-1937
▁maliit	-1938
▁pinagt	-1939
▁Tandang	-1940
▁mahirap	-1941
▁matapos	-1942
▁marunong	-1943
▁salitang	-1944
▁kuwentong	-1945
▁kasintahan	-1946
ca	-1947
dio	-1948
obo	-1949
sod	-1950
uon	-1951
▁kw	-1952
ador	-1953
ubog	-1954
uhod	-1955
usay	-1956
▁Ind	-1957
▁Pan	-1958
▁Pas	-1959
▁Pum	-1960
▁bas	-1961
▁int	-1962
▁lok	-1963
onood	-1964
uusap	-1965
▁Dito	-1966
▁Ilog	-1967
▁Moro	-1968
ahanda	-1969
inding	-1970
uhunan	-1971
unayan	-1972
▁ganap	-1973
▁laman	-1974
▁mahiw	-1975
▁mapap	-1976
▁panig	-1977
▁sibil	-1978
▁talim	-1979
▁tangh	-1980
abayang	-1981
▁lumaki	-1982
▁nagbab	-1983
▁nawala	-1984
▁piling	-1985
▁puting	-1986
▁Linares	-1987
▁Maynila	-1988
▁gintong	-1989
▁patungo	-1990
▁suliran	-1991
▁kalayaan	-1992
▁libingan	-1993
▁masayang	-1994
▁prinsipe	-1995
▁nagkaroon	-1996
▁magkapatid	-1997
▁kinabukasan	-1998
).	-1999
ona	-2000
akbo	-2001
anim	-2002
apay	-2003
ipan	-2004
ista	-2005
ular	-2006
▁Sib	-2007
▁naa	-2008
▁per	-2009
▁reh	-2010
▁sis	-2011
▁sup	-2012
▁una	-2013
atnan	-2014
ihing	-2015
itolo	-2016
▁Mang	-2017
▁nama	-2018
andaan	-2019
anggam	-2020
ilingk	-2021
usunod	-2022
▁Nguni	-2023
▁hawak	-2024
▁likod	-2025
▁lokal	-2026
▁paano	-2027
▁gulang	-2028
▁Mabilis	-2029
▁Subalit	-2030
▁pagpapa	-2031
▁pumasok	-2032
▁tulisan	-2033
▁kalooban	-2034
▁pagkakas	-2035
▁kalagayan	-2036
▁sandaling	-2037
angailangan	-2038
▁pagkakataon	-2039
▁paglalakbay	-2040
▁u	-2041
▁Ha	-2042
abel	-2043
adya	-2044
asin	-2045
irog	-2046
iwat	-2047
upan	-2048
uwan	-2049
▁And	-2050
▁Rey	-2051
▁biy	-2052
▁ika	-2053
▁lar	-2054
▁sek	-2055
▁tig	-2056
indig	-2057
sakit	-2058
▁alim	-2059
▁kaka	-2060
▁lung	-2061
abigat	-2062
emonyo	-2063
inggan	-2064
irapan	-2065
▁bunso	-2066
▁karun	-2067
▁natat	-2068
alitaan	-2069
arungan	-2070
ihintay	-2071
▁Alamat	-2072
▁Bisaya	-2073
▁Isabel	-2074
▁Minsan	-2075
▁balang	-2076
▁diwata	-2077
▁magsas	-2078
▁naming	-2079
▁pawang	-2080
▁dayuhan	-2081
▁kasaluk	-2082
▁pangkat	-2083
▁tandang	-2084
▁Bantugan	-2085
▁Dalawang	-2086
▁kabataan	-2087
▁madaling	-2088
▁Pagdating	-2089
▁Pamahalaan	-2090
▁kasaysayan	-2091
▁Pangalawang	-2092
LO	-2093
apo	-2094
ato	-2095
cio	-2096
▁Ra	-2097
adal	-2098
ingn	-2099
isyo	-2100
itik	-2101
▁(3)	-2102
▁Gan	-2103
▁Men	-2104
▁ham	-2105
▁kub	-2106
▁maw	-2107
▁pun	-2108
▁pup	-2109
agong	-2110
inang	-2111
wiran	-2112
▁Nasa	-2113
alamin	-2114
apatay	-2115
ayanan	-2116
ilipad	-2117
intang	-2118
▁gamit	-2119
▁makas	-2120
▁namin	-2121
▁sinta	-2122
unahing	-2123
untunin	-2124
▁Senado	-2125
▁bituin	-2126
▁galing	-2127
▁ganito	-2128
▁hirang	-2129
▁huling	-2130
▁kusang	-2131
▁masama	-2132
▁nating	-2133
▁sangay	-2134
▁tingin	-2135
▁usapan	-2136
▁anumang	-2137
▁lumapit	-2138
▁binatang	-2139
▁makikita	-2140
▁manonood	-2141
▁pakikipag	-2142
▁karapatang	-2143
▁mahiwagang	-2144
".	-2145
6.	-2146
te	-2147
ema	-2148
▁Im	-2149
agas	-2150
ahad	-2151
akap	-2152
amas	-2153
anib	-2154
ardo	-2155
fael	-2156
ihis	-2157
ilib	-2158
orot	-2159
usog	-2160
▁neg	-2161
▁ser	-2162
aking	-2163
esyon	-2164
kahoy	-2165
ugang	-2166
ugtog	-2167
usong	-2168
▁Pagb	-2169
▁aral	-2170
▁lahi	-2171
▁laki	-2172
aganda	-2173
otohan	-2174
utusan	-2175
▁Gayon	-2176
▁balat	-2177
▁batis	-2178
▁buhat	-2179
▁giliw	-2180
▁gutom	-2181
▁matut	-2182
▁pista	-2183
▁sanga	-2184
▁sigaw	-2185
▁ugali	-2186
ukulang	-2187
▁Rafael	-2188
▁batong	-2189
▁buwaya	-2190
▁kailan	-2191
▁lupang	-2192
▁Crispin	-2193
▁bilangg	-2194
▁epikong	-2195
▁pamilya	-2196
▁sandali	-2197
▁Tulalang	-2198
▁pagiging	-2199
▁panauhin	-2200
▁kababayan	-2201
▁lalawigan	-2202
▁matinding	-2203
II	-2204
ANG	-2205
cas	-2206
lim	-2207
ubi	-2208
way	-2209
yla	-2210
▁Ni	-2211
abal	-2212
abit	-2213
ahah	-2214
amig	-2215
elih	-2216
iisa	-2217
itaw	-2218
▁Bid	-2219
▁Kam	-2220
▁Nan	-2221
▁Nas	-2222
▁Sul	-2223
asari	-2224
iting	-2225
laban	-2226
ulaan	-2227
uparo	-2228
▁dako	-2229
▁engk	-2230
▁isda	-2231
▁mait	-2232
▁pamp	-2233
▁pand	-2234
▁usap	-2235
ernand	-2236
ipunan	-2237
▁Custo	-2238
▁kalup	-2239
▁likas	-2240
▁tangk	-2241
akilala	-2242
indanao	-2243
saknong	-2244
▁higante	-2245
▁katangi	-2246
▁Custodio	-2247
▁Prinsipe	-2248
▁ginagawa	-2249
▁nagtagal	-2250
▁kasalanan	-2251
▁minamahal	-2252
▁suliranin	-2253
▁tumanggap	-2254
▁paniniwala	-2255
▁naninirahan	-2256
▁pangunahing	-2257
▁magkakapatid	-2258
ene	-2259
kan	-2260
nap	-2261
rot	-2262
▁1.	-2263
▁2.	-2264
abog	-2265
atak	-2266
enas	-2267
hasa	-2268
ikap	-2269
ipik	-2270
▁Bal	-2271
▁Buk	-2272
▁Bum	-2273
▁Ros	-2274
▁Sap	-2275
▁hih	-2276
agdag	-2277
ahati	-2278
alawa	-2279
anaog	-2280
angis	-2281
awing	-2282
iisip	-2283
itaas	-2284
▁Herm	-2285
▁Nagm	-2286
▁Paul	-2287
▁Puti	-2288
▁bait	-2289
▁pero	-2290
▁ulan	-2291
atawag	-2292
ayunin	-2293
ubatan	-2294
▁Balag	-2295
▁abang	-2296
▁habag	-2297
▁kalak	-2298
▁labas	-2299
▁panuk	-2300
▁siyam	-2301
agumpay	-2302
alampas	-2303
ilanggo	-2304
untahan	-2305
▁mabait	-2306
▁Cabigat	-2307
▁binubuo	-2308
▁kalaban	-2309
▁matamis	-2310
▁sampung	-2311
▁tahimik	-2312
▁Maraming	-2313
▁nagtungo	-2314
▁karaniwang	-2315
▁magagandang	-2316
),	-2317
0.	-2318
AK	-2319
ka	-2320
iyo	-2321
nay	-2322
orm	-2323
▁3.	-2324
▁Ab	-2325
▁Ir	-2326
alok	-2327
ling	-2328
maan	-2329
orra	-2330
usig	-2331
▁Ama	-2332
▁Int	-2333
▁Maa	-2334
▁Pab	-2335
▁Pal	-2336
▁lag	-2337
agsik	-2338
alayo	-2339
andro	-2340
ibong	-2341
iusap	-2342
tasan	-2343
ungin	-2344
▁Bern	-2345
▁Fler	-2346
▁Solo	-2347
▁bunt	-2348
▁kand	-2349
▁kult	-2350
▁land	-2351
▁sist	-2352
▁sund	-2353
▁Manok	-2354
▁anong	-2355
▁pangh	-2356
▁pinap	-2357
▁sabay	-2358
▁sinus	-2359
amahala	-2360
embaran	-2361
ibigang	-2362
▁Malana	-2363
▁Ngayon	-2364
▁Sibyla	-2365
▁dunong	-2366
▁ibabaw	-2367
▁magkab	-2368
▁magpat	-2369
▁malaya	-2370
▁nagkas	-2371
▁naglal	-2372
▁pinagb	-2373
▁tuwing	-2374
alimbawa	-2375
asalamat	-2376
ilingkod	-2377
▁Camorra	-2378
▁Espanya	-2379
▁Fernand	-2380
▁Langgam	-2381
▁Paulita	-2382
▁lupaing	-2383
▁nasasak	-2384
▁pangung	-2385
▁sapagka	-2386
▁Bernardo	-2387
▁mahigpit	-2388
▁talagang	-2389
▁tulungan	-2390
▁pinagmulan	-2391
▁Kinabukasan	-2392
iu	-2393
fer	-2394
lip	-2395
akat	-2396
alap	-2397
amad	-2398
atut	-2399
istr	-2400
iyag	-2401
ukoy	-2402
usob	-2403
uwid	-2404
▁Ban	-2405
▁Kum	-2406
▁Nen	-2407
▁piy	-2408
akila	-2409
ampas	-2410
bansa	-2411
buhay	-2412
orong	-2413
▁Leon	-2414
▁Sand	-2415
▁Tiya	-2416
▁asal	-2417
▁kura	-2418
abihan	-2419
ubilin	-2420
▁Lucas	-2421
▁bisig	-2422
▁handa	-2423
▁kapar	-2424
▁mahih	-2425
▁pinto	-2426
angalan	-2427
atauhan	-2428
ikilala	-2429
insunod	-2430
▁Labtik	-2431
▁Madali	-2432
▁diyosa	-2433
▁hangad	-2434
▁kumain	-2435
▁niyong	-2436
▁pagsus	-2437
▁simula	-2438
▁utusan	-2439
▁lumakad	-2440
▁marahil	-2441
▁nawalan	-2442
▁ngayong	-2443
▁Bembaran	-2444
▁Bidasari	-2445
▁Tinyente	-2446
▁dakilang	-2447
▁napansin	-2448
▁kagubatan	-2449
▁tinanggap	-2450
▁karunungan	-2451
ATA	-2452
apt	-2453
cis	-2454
lit	-2455
pis	-2456
ril	-2457
tao	-2458
wel	-2459
yag	-2460
▁4.	-2461
▁Oh	-2462
▁aw	-2463
▁pl	-2464
atao	-2465
igma	-2466
ilog	-2467
into	-2468
isag	-2469
iwas	-2470
tana	-2471
utas	-2472
▁Bul	-2473
▁bub	-2474
▁lab	-2475
▁pad	-2476
▁tab	-2477
aglay	-2478
akala	-2479
araig	-2480
asong	-2481
ayapa	-2482
ugong	-2483
▁Bago	-2484
▁Nagl	-2485
▁alit	-2486
▁anya	-2487
▁epis	-2488
▁init	-2489
▁klas	-2490
▁sala	-2491
agamot	-2492
araang	-2493
ayaman	-2494
eksyon	-2495
ibhasa	-2496
ilalim	-2497
ugulin	-2498
▁Sulay	-2499
▁aklat	-2500
▁gusto	-2501
▁halal	-2502
▁katap	-2503
▁nakap	-2504
▁nakar	-2505
▁puman	-2506
▁sumas	-2507
agaling	-2508
intulot	-2509
uturing	-2510
▁Atenas	-2511
▁Igorot	-2512
▁Maging	-2513
▁bangka	-2514
▁dakila	-2515
▁kawani	-2516
▁palaka	-2517
agkaloob	-2518
elihiyon	-2519
▁hakbang	-2520
▁mayaman	-2521
▁susunod	-2522
itolohiya	-2523
▁Sulayman	-2524
▁alimango	-2525
▁binigyan	-2526
▁sasakyan	-2527
▁sinabing	-2528
▁pagkamatay	-2529
▁pagpapaunlad	-2530
▁kinakailangan	-2531
▁kapangyarihang	-2532
4)	-2533
At	-2534
si	-2535
ue	-2536
gad	-2537
gan	-2538
isd	-2539
kal	-2540
uel	-2541
▁15	-2542
▁Ap	-2543
▁Ed	-2544
▁im	-2545
aano	-2546
atol	-2547
awid	-2548
pres	-2549
▁Del	-2550
▁ani	-2551
▁ger	-2552
▁mai	-2553
▁noo	-2554
▁usa	-2555
batas	-2556
erong	-2557
ining	-2558
intas	-2559
▁Magb	-2560
▁Nagh	-2561
▁Nais	-2562
▁Pina	-2563
▁Sari	-2564
▁Tang	-2565
▁band	-2566
▁baya	-2567
▁boto	-2568
▁huli	-2569
▁ilan	-2570
▁lamb	-2571
▁prib	-2572
▁prop	-2573
apatan	-2574
inigay	-2575
▁Aling	-2576
▁Irene	-2577
▁Itong	-2578
▁bukas	-2579
▁kakay	-2580
▁kilos	-2581
▁laang	-2582
▁napag	-2583
▁pagod	-2584
▁tatlo	-2585
▁totoo	-2586
asawang	-2587
▁Marami	-2588
▁Neneng	-2589
▁bigyan	-2590
▁gunita	-2591
▁kayong	-2592
▁libing	-2593
▁ninuno	-2594
▁pabula	-2595
▁sakdal	-2596
alimutan	-2597
▁Flerida	-2598
▁bakuran	-2599
▁engkant	-2600
▁lipunan	-2601
▁paggawa	-2602
▁patayin	-2603
▁pintuan	-2604
▁itadhana	-2605
▁itaguyod	-2606
▁nakikita	-2607
▁kaibigang	-2608
▁kapalaran	-2609
▁malungkot	-2610
▁nagbibigay	-2611
▁panukalang	-2612
▁makapangyari	-2613
▁kinakailangang	-2614
1.	-2615
2.	-2616
ec	-2617
ONG	-2618
igo	-2619
inh	-2620
uso	-2621
▁Ba	-2622
▁gr	-2623
abol	-2624
iral	-2625
iuag	-2626
song	-2627
ukal	-2628
▁Ben	-2629
▁Sar	-2630
▁bur	-2631
▁hah	-2632
aklaw	-2633
alagi	-2634
among	-2635
angit	-2636
ikain	-2637
ipagk	-2638
urong	-2639
utian	-2640
yahan	-2641
▁Fran	-2642
▁Krot	-2643
▁Mayr	-2644
▁Noon	-2645
▁TATA	-2646
▁damo	-2647
▁dulo	-2648
▁igin	-2649
▁mand	-2650
aginip	-2651
ahinga	-2652
awakan	-2653
ilipin	-2654
iyerno	-2655
ustong	-2656
▁Biuag	-2657
▁Buhay	-2658
▁Selya	-2659
▁bango	-2660
▁itlog	-2661
▁layun	-2662
▁linya	-2663
▁panit	-2664
alubong	-2665
ingning	-2666
unawaan	-2667
▁Lalong	-2668
▁Sultan	-2669
▁dangal	-2670
▁episod	-2671
▁gawing	-2672
▁landas	-2673
▁mapang	-2674
▁nagkak	-2675
▁naiiba	-2676
▁tayong	-2677
akasalan	-2678
diriwang	-2679
▁digmaan	-2680
▁kagawad	-2681
▁kapakan	-2682
▁pinangg	-2683
▁Makaraig	-2684
▁Menandro	-2685
▁Paruparo	-2686
▁halamang	-2687
▁layuning	-2688
▁paggamit	-2689
▁sinumang	-2690
▁pamamaraan	-2691
▁itinatadhana	-2692
Ng	-2693
ao	-2694
ea	-2695
ayb	-2696
hal	-2697
igl	-2698
iri	-2699
mas	-2700
ons	-2701
ahok	-2702
amok	-2703
atap	-2704
ayak	-2705
inaw	-2706
ipas	-2707
iram	-2708
ismo	-2709
onom	-2710
udad	-2711
ugot	-2712
unos	-2713
utla	-2714
▁Ani	-2715
▁Car	-2716
▁lul	-2717
▁mut	-2718
aksil	-2719
bahay	-2720
cisco	-2721
iliit	-2722
iyong	-2723
▁Agad	-2724
▁Dama	-2725
▁Miya	-2726
▁amin	-2727
▁atin	-2728
▁itat	-2729
▁part	-2730
▁payo	-2731
▁pina	-2732
▁ulap	-2733
anghal	-2734
ighati	-2735
iglang	-2736
napung	-2737
▁Binig	-2738
▁Gayun	-2739
▁inaas	-2740
▁itaas	-2741
▁kinat	-2742
▁lingk	-2743
▁makap	-2744
▁nagng	-2745
▁napap	-2746
▁pangg	-2747
▁papel	-2748
▁reyna	-2749
▁sumis	-2750
▁tumat	-2751
alagyan	-2752
tanggol	-2753
▁Kaagad	-2754
▁dinala	-2755
▁kabayo	-2756
▁kabila	-2757
▁kayang	-2758
▁kinuha	-2759
▁maaari	-2760
▁masaya	-2761
▁paghih	-2762
▁pagtit	-2763
▁pulong	-2764
▁Kalabaw	-2765
▁Maganda	-2766
▁hanapin	-2767
▁kontrol	-2768
▁layunin	-2769
▁marinig	-2770
▁masipag	-2771
▁pagsang	-2772
▁regular	-2773
▁Prinsesa	-2774
▁ganitong	-2775
▁katutubo	-2776
▁mahabang	-2777
▁pamahala	-2778
▁Francisco	-2779
▁Pagbigkas	-2780
▁hinahanap	-2781
▁mamamatay	-2782
▁pagbabago	-2783
▁pamumuhay	-2784
▁pangalagaan	-2785
▁Konstitusyon	-2786
AG	-2787
AM	-2788
Ip	-2789
isk	-2790
ity	-2791
lam	-2792
les	-2793
oko	-2794
wan	-2795
▁5.	-2796
amam	-2797
atlo	-2798
awig	-2799
ibik	-2800
ikas	-2801
imot	-2802
lump	-2803
rito	-2804
ugad	-2805
ugin	-2806
ugol	-2807
ural	-2808
urop	-2809
▁Dul	-2810
▁Nil	-2811
▁Pen	-2812
▁Tad	-2813
▁Tar	-2814
▁abo	-2815
▁apo	-2816
▁bot	-2817
▁hur	-2818
▁ins	-2819
▁kuk	-2820
▁kut	-2821
▁sah	-2822
▁sub	-2823
▁tak	-2824
abaho	-2825
ahagi	-2826
ahala	-2827
akbay	-2828
ardin	-2829
atong	-2830
dahan	-2831
elaez	-2832
ganis	-2833
ibing	-2834
islap	-2835
undan	-2836
▁Samp	-2837
▁irog	-2838
▁kani	-2839
▁nuno	-2840
▁yaon	-2841
amangk	-2842
atipik	-2843
iligaw	-2844
ukhang	-2845
uluhan	-2846
▁banal	-2847
▁bigas	-2848
▁dilim	-2849
▁hukom	-2850
▁humih	-2851
▁klase	-2852
▁mapan	-2853
▁tagap	-2854
▁tuloy	-2855
▁wakas	-2856
ilalang	-2857
▁Bundok	-2858
▁Langit	-2859
▁Mabuti	-2860
▁Manuel	-2861
▁Pelaez	-2862
▁Persya	-2863
▁iniwan	-2864
▁kulang	-2865
▁pulubi	-2866
▁usapin	-2867
alagahan	-2868
otohanan	-2869
yayaring	-2870
▁kaligay	-2871
▁kampana	-2872
▁lumitaw	-2873
▁lungkot	-2874
▁madalas	-2875
▁marapat	-2876
▁matangi	-2877
▁nakabab	-2878
ungkulang	-2879
▁darating	-2880
▁episodyo	-2881
▁panganib	-2882
▁sambayan	-2883
▁kabuhayan	-2884
▁pagkaraan	-2885
▁bilangguan	-2886
▁pamahalaang	-2887
▁punongkahoy	-2888
5)	-2889
IK	-2890
IN	-2891
▁9	-2892
May	-2893
any	-2894
art	-2895
ete	-2896
iga	-2897
lks	-2898
ogr	-2899
....	-2900
abin	-2901
agda	-2902
aryo	-2903
ayat	-2904
ermo	-2905
ilid	-2906
irin	-2907
omin	-2908
ubay	-2909
ungg	-2910
uyog	-2911
▁Ant	-2912
▁Tab	-2913
▁awa	-2914
▁kur	-2915
▁nau	-2916
Bakit	-2917
aanak	-2918
ababa	-2919
agkan	-2920
alapi	-2921
arili	-2922
asama	-2923
ayway	-2924
ermon	-2925
indak	-2926
uruan	-2927
▁Luci	-2928
▁kain	-2929
▁leon	-2930
▁nagw	-2931
agapos	-2932
agutan	-2933
amihan	-2934
entino	-2935
▁Bugan	-2936
▁Konde	-2937
▁akala	-2938
▁bagyo	-2939
▁binab	-2940
▁hiyas	-2941
▁kaawa	-2942
▁kamag	-2943
▁lunti	-2944
▁namim	-2945
▁nanan	-2946
▁paksa	-2947
▁tribo	-2948
anatili	-2949
ayundin	-2950
nanakaw	-2951
presyon	-2952
▁Kinuha	-2953
▁alaala	-2954
▁alahas	-2955
▁alipin	-2956
▁angkop	-2957
▁ganoon	-2958
▁itakda	-2959
▁kausap	-2960
▁kilala	-2961
▁libong	-2962
▁lumbay	-2963
▁magawa	-2964
▁makata	-2965
▁mandir	-2966
▁naroon	-2967
▁pagsis	-2968
▁saging	-2969
▁sanang	-2970
aririnig	-2971
▁Leonora	-2972
▁Nagalit	-2973
▁Salermo	-2974
▁hinanap	-2975
▁humingi	-2976
▁nahulog	-2977
▁palabas	-2978
▁patuloy	-2979
▁sundalo	-2980
▁Tinanong	-2981
▁bayaning	-2982
▁institus	-2983
▁magagawa	-2984
▁maligaya	-2985
▁maliliit	-2986
▁mangyari	-2987
▁maysakit	-2988
▁pagkakat	-2989
▁paningin	-2990
▁tagapagp	-2991
▁impiyerno	-2992
▁pagbigkas	-2993
▁panaginip	-2994
▁sasabihin	-2995
▁Ipinaliwanag	-2996
IA	-2997
eb	-2998
mb	-2999
Ito	-3000
erb	-3001
eta	-3002
irh	-3003
sob	-3004
til	-3005
ugh	-3006
ukt	-3007
▁Da	-3008
bing	-3009
ibit	-3010
igas	-3011
igla	-3012
itas	-3013
kong	-3014
ulak	-3015
unas	-3016
usta	-3017
▁(4)	-3018
▁Gum	-3019
▁Kun	-3020
▁bis	-3021
▁dag	-3022
▁erm	-3023
▁tor	-3024
agsak	-3025
anang	-3026
andaw	-3027
angon	-3028
aptap	-3029
arusa	-3030
asyal	-3031
hanap	-3032
idlat	-3033
itiis	-3034
▁Ayaw	-3035
▁Ikin	-3036
▁aliw	-3037
▁idin	-3038
▁labi	-3039
▁lans	-3040
▁puti	-3041
▁tupa	-3042
▁unti	-3043
agalit	-3044
agatan	-3045
ahatid	-3046
alahat	-3047
antong	-3048
ilipat	-3049
ilitar	-3050
itanyo	-3051
orilya	-3052
ulatan	-3053
▁Anong	-3054
▁Europ	-3055
▁Labaw	-3056
▁Mahal	-3057
▁Pagka	-3058
▁Tadeo	-3059
▁batay	-3060
▁galak	-3061
▁malag	-3062
▁nasas	-3063
▁nguni	-3064
anganak	-3065
araanan	-3066
gugulin	-3067
inabang	-3068
usisyon	-3069
▁Manobo	-3070
▁Sinang	-3071
▁biyaya	-3072
▁iisang	-3073
▁maling	-3074
▁pinagk	-3075
▁pinsan	-3076
▁sultan	-3077
▁waring	-3078
▁Filipin	-3079
▁Hermana	-3080
▁Kanyang	-3081
▁Makisig	-3082
▁babaeng	-3083
▁bintana	-3084
▁gawaing	-3085
▁hininga	-3086
▁kasangk	-3087
▁lumipas	-3088
▁lungsod	-3089
▁madilim	-3090
▁madlang	-3091
▁mahusay	-3092
▁malalim	-3093
▁mangang	-3094
▁manging	-3095
▁nilikha	-3096
▁salamin	-3097
▁sumapit	-3098
▁tadhana	-3099
▁Maaaring	-3100
▁Mindanao	-3101
▁bilanggo	-3102
▁katulong	-3103
▁kilalang	-3104
▁magbalik	-3105
▁malayang	-3106
▁malayong	-3107
▁matapang	-3108
▁nagbigay	-3109
▁nilalang	-3110
▁pambansa	-3111
▁tinanong	-3112
▁edukasyon	-3113
▁kabutihan	-3114
▁kahulugan	-3115
▁lumilipad	-3116
▁natagpuan	-3117
▁tanggapan	-3118
▁Florentino	-3119
▁kontrolado	-3120
▁manggagawa	-3121
▁pagkakaroon	-3122
RT	-3123
ANA	-3124
aas	-3125
agm	-3126
aha	-3127
ian	-3128
ipo	-3129
itu	-3130
opo	-3131
str	-3132
ubl	-3133
uke	-3134
▁13	-3135
▁As	-3136
▁Gr	-3137
▁bu	-3138
..."	-3139
agap	-3140
ahih	-3141
enor	-3142
ibon	-3143
init	-3144
uiro	-3145
▁Kag	-3146
▁Pat	-3147
▁ant	-3148
▁dar	-3149
▁kul	-3150
▁nir	-3151
▁pip	-3152
▁saw	-3153
abuti	-3154
akang	-3155
ambal	-3156
enang	-3157
ingap	-3158
kalde	-3159
uluan	-3160
unton	-3161
urusa	-3162
uyong	-3163
▁Anak	-3164
▁Duke	-3165
▁Inil	-3166
▁Pamb	-3167
▁baga	-3168
▁bung	-3169
▁kusa	-3170
▁mala	-3171
▁puri	-3172
ahamak	-3173
alipas	-3174
amalas	-3175
ambing	-3176
ayaang	-3177
imbang	-3178
imbing	-3179
iyasat	-3180
ristal	-3181
ristan	-3182
uiroga	-3183
▁Pilos	-3184
▁Prans	-3185
▁bakod	-3186
▁duwag	-3187
▁gapos	-3188
▁kabig	-3189
▁kapat	-3190
▁kayum	-3191
▁kumak	-3192
▁lilim	-3193
▁mangh	-3194
▁nalal	-3195
▁nangg	-3196
▁narir	-3197
▁pilit	-3198
▁sugat	-3199
angguni	-3200
aramdam	-3201
araming	-3202
hininga	-3203
▁Intsik	-3204
▁Muling	-3205
▁Pagong	-3206
▁bumaba	-3207
▁hardin	-3208
▁kabund	-3209
▁lahing	-3210
▁luhang	-3211
▁paghah	-3212
▁sesyon	-3213
▁sumama	-3214
ahulugan	-3215
angkilik	-3216
apangulo	-3217
arusahan	-3218
▁Krotona	-3219
▁Lucifer	-3220
▁gorilya	-3221
▁kalungk	-3222
▁lumipad	-3223
▁lumisan	-3224
▁matagal	-3225
▁matuwid	-3226
▁napatay	-3227
▁sandata	-3228
▁Sapagkat	-3229
▁kasamaan	-3230
▁marangal	-3231
▁nakakita	-3232
▁nakilala	-3233
▁pinagtat	-3234
▁ermitanyo	-3235
▁ginagamit	-3236
▁hinihingi	-3237
▁ikalawang	-3238
▁kahirapan	-3239
▁katangian	-3240
▁nagsimula	-3241
▁pribadong	-3242
▁sumusunod	-3243
▁tanghalan	-3244
▁Nagpatuloy	-3245
▁ekspresyon	-3246
▁karamdaman	-3247
▁karangalan	-3248
▁katarungan	-3249
▁magnanakaw	-3250
▁nawawalang	-3251
▁Tagapangulo	-3252
▁kaligayahan	-3253
▁matatagpuan	-3254
▁nasasakupan	-3255
▁paglilingkod	-3256
▁pangangailangan	-3257
An	-3258
Ep	-3259
MP	-3260
bi	-3261
ri	-3262
AND	-3263
Ano	-3264
IKU	-3265
iwi	-3266
oso	-3267
pad	-3268
tar	-3269
▁Ah	-3270
▁ha	-3271
ARIA	-3272
Iput	-3273
aboy	-3274
aril	-3275
atag	-3276
ihag	-3277
inta	-3278
nang	-3279
udit	-3280
uksa	-3281
usin	-3282
yayi	-3283
▁ART	-3284
▁Ber	-3285
▁IMP	-3286
▁Ing	-3287
▁Ini	-3288
▁Mus	-3289
▁Pak	-3290
▁aki	-3291
▁las	-3292
▁pet	-3293
▁res	-3294
▁ros	-3295
▁say	-3296
IKULO	-3297
agpis	-3298
ahuli	-3299
akpan	-3300
akwel	-3301
alakh	-3302
asiwa	-3303
atili	-3304
dapat	-3305
ingal	-3306
isdik	-3307
palad	-3308
uturo	-3309
uusig	-3310
uyuan	-3311
▁Iput	-3312
▁Mags	-3313
▁Nagd	-3314
▁diin	-3315
▁itim	-3316
▁kaba	-3317
▁napa	-3318
▁opis	-3319
▁ugat	-3320
▁wari	-3321
apitan	-3322
ilikha	-3323
langan	-3324
▁Diwat	-3325
▁Gibon	-3326
▁Hapon	-3327
▁Kundi	-3328
▁MARIA	-3329
▁baboy	-3330
▁bakas	-3331
▁bigla	-3332
▁burol	-3333
▁daang	-3334
▁hamog	-3335
▁hatol	-3336
▁instr	-3337
▁layaw	-3338
▁lingg	-3339
▁mapat	-3340
▁nalul	-3341
▁negos	-3342
▁sikat	-3343
▁tugon	-3344
agalang	-3345
amangha	-3346
antayan	-3347
arangay	-3348
istrado	-3349
oroonan	-3350
▁Bilang	-3351
▁IMPONG	-3352
▁Morong	-3353
▁daliri	-3354
▁dalita	-3355
▁hangga	-3356
▁hiling	-3357
▁kasawi	-3358
▁kasund	-3359
▁labing	-3360
▁laking	-3361
▁magsis	-3362
▁niring	-3363
▁pagpup	-3364
▁pantay	-3365
▁payapa	-3366
▁piging	-3367
▁sektor	-3368
▁tabing	-3369
agubilin	-3370
arapatra	-3371
ayanihan	-3372
ormasyon	-3373
▁Alkalde	-3374
▁Biglang	-3375
▁Demonyo	-3376
▁Inahing	-3377
▁Juanito	-3378
▁Tinawag	-3379
▁Tumango	-3380
▁bansang	-3381
▁bathala	-3382
▁kalabaw	-3383
▁kasabay	-3384
▁labanan	-3385
▁larawan	-3386
▁makipag	-3387
▁malinis	-3388
▁malupit	-3389
▁militar	-3390
▁natapos	-3391
▁ninyong	-3392
▁opisyal	-3393
▁organis	-3394
▁palakol	-3395
▁paraang	-3396
▁sagisag	-3397
▁sinapit	-3398
▁sintang	-3399
anghalian	-3400
▁ARTIKULO	-3401
▁Sumakwel	-3402
▁gumagawa	-3403
▁hurisdik	-3404
▁ibinigay	-3405
▁kaalaman	-3406
▁kuwintas	-3407
▁mayamang	-3408
▁nagngang	-3409
▁pagkatao	-3410
▁salaysay	-3411
▁Nagkaroon	-3412
▁karagatan	-3413
▁kinalaman	-3414
▁nagpaalam	-3415
▁nakasulat	-3416
▁paghirang	-3417
▁panitikan	-3418
▁Diwatandaw	-3419
▁nakarating	-3420
▁panlipunan	-3421
▁sambayanan	-3422
▁Indarapatra	-3423
▁korporasyon	-3424
▁korporasyong	-3425
6:	-3426
GA	-3427
Ako	-3428
did	-3429
eba	-3430
ice	-3431
iis	-3432
orn	-3433
wit	-3434
▁ek	-3435
▁en	-3436
▁kr	-3437
agpo	-3438
alal	-3439
anin	-3440
asiw	-3441
ding	-3442
gado	-3443
inam	-3444
isay	-3445
isda	-3446
pada	-3447
silo	-3448
ubok	-3449
ugat	-3450
ukay	-3451
upot	-3452
▁ind	-3453
▁kol	-3454
▁mit	-3455
▁pur	-3456
▁tek	-3457
Huwag	-3458
agana	-3459
aglit	-3460
aliit	-3461
amaan	-3462
antog	-3463
istro	-3464
▁Pags	-3465
▁Pati	-3466
▁Sant	-3467
▁Sino	-3468
▁Taga	-3469
▁bril	-3470
▁damb	-3471
▁kaso	-3472
▁maip	-3473
▁mist	-3474
aalala	-3475
abawal	-3476
awagan	-3477
awanan	-3478
insang	-3479
ugutan	-3480
▁Napag	-3481
▁Pablo	-3482
▁baril	-3483
▁halik	-3484
▁hangg	-3485
▁hinah	-3486
▁ibaba	-3487
▁ipagb	-3488
▁kaban	-3489
▁kahil	-3490
▁kalin	-3491
▁karik	-3492
▁kumik	-3493
▁napat	-3494
▁pinat	-3495
▁progr	-3496
▁tunog	-3497
aalahas	-3498
anganib	-3499
apaloob	-3500
asiwaan	-3501
ingatan	-3502
lumpung	-3503
uklasan	-3504
ungkahi	-3505
yayahan	-3506
▁Diwata	-3507
▁Ibalon	-3508
▁Naisip	-3509
▁Punong	-3510
▁bulong	-3511
▁dalang	-3512
▁gawang	-3513
▁handog	-3514
▁kagyat	-3515
▁ngalan	-3516
▁pambih	-3517
▁pinang	-3518
▁piyesa	-3519
▁saglit	-3520
Sabayang	-3521
agandang	-3522
amdaming	-3523
▁Mahirap	-3524
▁Sumagot	-3525
▁Tarsilo	-3526
▁Unnayan	-3527
▁bugtong	-3528
▁bungang	-3529
▁kalalak	-3530
▁kasunod	-3531
▁kumalat	-3532
▁nagmula	-3533
▁nakasal	-3534
▁pagitan	-3535
▁pananim	-3536
▁pinatay	-3537
▁pumanaw	-3538
▁sistema	-3539
▁tawagin	-3540
▁tuwiran	-3541
▁Gayunman	-3542
▁Nakilala	-3543
▁kumakain	-3544
▁magaling	-3545
▁nasabing	-3546
▁nawawala	-3547
▁alinsunod	-3548
▁brilyante	-3549
▁halimbawa	-3550
▁kakayahan	-3551
▁nabubuhay	-3552
▁natutulog	-3553
▁pagtuturo	-3554
▁pananalig	-3555
▁prusisyon	-3556
▁Mahistrado	-3557
▁malalaking	-3558
▁naglalakad	-3559
▁paghahanap	-3560
▁kalungkutan	-3561
▁kasalukuyan	-3562
▁naghihintay	-3563
▁pinanggalingan	-3564
0:	-3565
4.	-3566
AP	-3567
Al	-3568
UP	-3569
▁,	-3570
abe	-3571
aca	-3572
din	-3573
igu	-3574
lag	-3575
non	-3576
pos	-3577
uds	-3578
yas	-3579
zon	-3580
▁6.	-3581
▁Ep	-3582
▁em	-3583
▁ga	-3584
alab	-3585
amag	-3586
atin	-3587
iham	-3588
ilat	-3589
loob	-3590
ment	-3591
oses	-3592
tuwa	-3593
ukin	-3594
uwek	-3595
yero	-3596
▁Gag	-3597
▁Lim	-3598
▁MGA	-3599
▁Omb	-3600
▁aso	-3601
▁bud	-3602
▁hil	-3603
▁med	-3604
▁sik	-3605
adaan	-3606
apaan	-3607
arito	-3608
artel	-3609
iligo	-3610
ilipo	-3611
inoon	-3612
intul	-3613
irhen	-3614
oserp	-3615
ugnay	-3616
unuan	-3617
usyon	-3618
▁Iyan	-3619
▁NANA	-3620
▁Pand	-3621
▁Saan	-3622
▁dati	-3623
▁dila	-3624
▁kons	-3625
▁patn	-3626
agawan	-3627
akaawa	-3628
alaban	-3629
alimot	-3630
amaraw	-3631
asalin	-3632
awayan	-3633
ayagan	-3634
dahang	-3635
ensahe	-3636
iguyon	-3637
ilitaw	-3638
inggit	-3639
udsman	-3640
uwiran	-3641
▁Lakas	-3642
▁Panay	-3643
▁Pinat	-3644
▁Tulad	-3645
▁Unang	-3646
▁awtor	-3647
▁balik	-3648
▁halim	-3649
▁hamak	-3650
▁husto	-3651
▁kapit	-3652
▁kinar	-3653
▁kunin	-3654
▁madla	-3655
▁makik	-3656
▁malim	-3657
▁manan	-3658
▁mayor	-3659
▁nangh	-3660
▁sangk	-3661
▁sanhi	-3662
▁tangi	-3663
ahalaga	-3664
akasama	-3665
aliksik	-3666
ibigkas	-3667
imulang	-3668
utangan	-3669
▁Bagong	-3670
▁Filipo	-3671
▁Muslim	-3672
▁halaga	-3673
▁kasing	-3674
▁kumuha	-3675
▁kuweba	-3676
▁madali	-3677
▁musika	-3678
▁naisip	-3679
▁nakaka	-3680
▁pagkag	-3681
▁pagkap	-3682
▁pagmam	-3683
▁paring	-3684
▁pinagh	-3685
▁pinagp	-3686
▁talino	-3687
▁tapang	-3688
amahalan	-3689
kanilang	-3690
oserpina	-3691
▁Tanging	-3692
▁asawang	-3693
▁hanging	-3694
▁iniibig	-3695
▁instrum	-3696
▁lumikha	-3697
▁malawak	-3698
▁malinaw	-3699
▁matibay	-3700
▁pangako	-3701
▁saknong	-3702
alawikain	-3703
amangkero	-3704
▁Aliguyon	-3705
▁Berbanya	-3706
▁Sumarang	-3707
▁balitang	-3708
▁barangay	-3709
▁dalampas	-3710
▁katwiran	-3711
▁magtakda	-3712
▁narating	-3713
▁paglakad	-3714
▁tuluyang	-3715
▁Ombudsman	-3716
▁Pagkaraan	-3717
▁awtoridad	-3718
▁magsasaka	-3719
▁relihiyon	-3720
▁Proserpina	-3721
▁kabundukan	-3722
▁kahilingan	-3723
▁makarating	-3724
▁mandirigma	-3725
▁manliligaw	-3726
▁mitolohiya	-3727
▁pamamahala	-3728
▁kabayanihan	-3729
▁pangkalahat	-3730
▁hurisdiksyon	-3731
▁institusyong	-3732
▁nakabababang	-3733
2:	-3734
AB	-3735
EN	-3736
aa	-3737
ua	-3738
ani	-3739
eho	-3740
ekt	-3741
igh	-3742
igi	-3743
iin	-3744
ini	-3745
kad	-3746
oni	-3747
udo	-3748
uka	-3749
▁BU	-3750
▁TO	-3751
▁le	-3752
Nang	-3753
ampa	-3754
awal	-3755
ibur	-3756
igat	-3757
rang	-3758
ubha	-3759
ugod	-3760
▁Ali	-3761
▁Bar	-3762
▁Bub	-3763
▁Dal	-3764
▁Hes	-3765
▁Iba	-3766
▁Kar	-3767
▁Lib	-3768
▁Lun	-3769
▁Pam	-3770
▁liw	-3771
▁mau	-3772
▁uli	-3773
aghoy	-3774
asiya	-3775
ehiyo	-3776
ilaan	-3777
inseo	-3778
riseo	-3779
ungib	-3780
uward	-3781
yudad	-3782
▁Hang	-3783
▁Iyon	-3784
▁Kayo	-3785
▁Mayo	-3786
▁Tayo	-3787
▁agos	-3788
▁bala	-3789
▁dali	-3790
▁gant	-3791
▁kuba	-3792
▁ulit	-3793
abatid	-3794
amahan	-3795
astong	-3796
ayaran	-3797
ibutan	-3798
ilayan	-3799
ilitan	-3800
uparan	-3801
▁Aking	-3802
▁Galit	-3803
▁Halos	-3804
▁Karan	-3805
▁Lakan	-3806
▁Oyayi	-3807
▁Pinak	-3808
▁Puwek	-3809
▁Reyna	-3810
▁Sarag	-3811
▁anino	-3812
▁bilin	-3813
▁bukal	-3814
▁daing	-3815
▁digma	-3816
▁dilaw	-3817
▁gamot	-3818
▁hapis	-3819
▁hapon	-3820
▁lubid	-3821
▁malay	-3822
▁pasya	-3823
▁tanda	-3824
▁trono	-3825
agdagan	-3826
ahating	-3827
akalang	-3828
atahang	-3829
higanti	-3830
uhalang	-3831
▁Briseo	-3832
▁Europa	-3833
▁Linseo	-3834
▁Tingal	-3835
▁Tuwang	-3836
▁Wikang	-3837
▁anyong	-3838
▁bantay	-3839
▁buwang	-3840
▁dakong	-3841
▁haring	-3842
▁ibigay	-3843
▁kalang	-3844
▁maitim	-3845
▁mandin	-3846
▁mapagt	-3847
▁nanaog	-3848
▁pangit	-3849
▁pansin	-3850
▁perlas	-3851
▁pinagl	-3852
▁pulang	-3853
▁talaga	-3854
▁yungib	-3855
apalaran	-3856
uwardiya	-3857
▁Hinanap	-3858
▁Malakas	-3859
▁Senador	-3860
▁Sumunod	-3861
▁Tamaraw	-3862
▁babalik	-3863
▁demonyo	-3864
▁ginamit	-3865
▁gustong	-3866
▁hahanap	-3867
▁ipinagb	-3868
▁kadilim	-3869
▁kapalit	-3870
▁kapitan	-3871
▁magmula	-3872
▁masarap	-3873
▁naaayon	-3874
▁nakakat	-3875
▁palagay	-3876
▁papayag	-3877
▁puhunan	-3878
▁pumunta	-3879
▁sumagot	-3880
▁tingnan	-3881
▁tumupad	-3882
▁umakyat	-3883
alanutian	-3884
▁Binigyan	-3885
▁Fernando	-3886
▁Silangan	-3887
▁bahaging	-3888
▁gagawing	-3889
▁kaisipan	-3890
▁larangan	-3891
▁magtatag	-3892
▁matalino	-3893
▁kailanman	-3894
▁kasiyahan	-3895
▁nakatulog	-3896
▁nakikipag	-3897
▁patakaran	-3898
▁tanggapin	-3899
▁kabutihang	-3900
▁mamamayang	-3901
▁masasamang	-3902
▁naghahanap	-3903
▁pagbibigay	-3904
▁pananalapi	-3905
▁pambihirang	-3906
▁dalampasigan	-3907
▁kasalukuyang	-3908
▁Konstitusyonal	-3909
▁tagapagpaganap	-3910
▁makapangyarihan	-3911
1:	-3912
BU	-3913
DO	-3914
IW	-3915
Ib	-3916
OG	-3917
Oo	-3918
iv	-3919
▁.	-3920
ARO	-3921
UAN	-3922
are	-3923
edi	-3924
its	-3925
oby	-3926
ors	-3927
pat	-3928
rat	-3929
reh	-3930
tim	-3931
tok	-3932
uya	-3933
▁25	-3934
▁Bu	-3935
▁El	-3936
▁IN	-3937
▁ad	-3938
▁pw	-3939
YANG	-3940
alog	-3941
ampu	-3942
anag	-3943
asag	-3944
ayad	-3945
daan	-3946
esto	-3947
eter	-3948
ikot	-3949
ilak	-3950
ilay	-3951
imog	-3952
ipad	-3953
itim	-3954
tomo	-3955
ubad	-3956
usok	-3957
▁10.	-3958
▁III	-3959
▁Ika	-3960
▁LAK	-3961
▁Nol	-3962
▁Una	-3963
▁aba	-3964
▁adh	-3965
▁and	-3966
▁bus	-3967
▁ple	-3968
aawit	-3969
abong	-3970
ahiya	-3971
aligt	-3972
alima	-3973
alung	-3974
amali	-3975
amasa	-3976
ampot	-3977
bagay	-3978
chang	-3979
erito	-3980
gayak	-3981
hikan	-3982
ibili	-3983
ikudo	-3984
pindi	-3985
ulila	-3986
umbay	-3987
umula	-3988
utong	-3989
▁Alam	-3990
▁Daga	-3991
▁JUAN	-3992
▁Magm	-3993
▁Pagh	-3994
▁Rosa	-3995
▁Tila	-3996
▁akda	-3997
▁alak	-3998
▁gayo	-3999
▁iwan	-4000
▁kabu	-4001
▁laya	-4002
▁nagn	-4003
▁pera	-4004
▁pong	-4005
▁pula	-4006
▁punt	-4007
abayad	-4008
adalaw	-4009
alipik	-4010
angong	-4011
ayuhan	-4012
igawan	-4013
igilan	-4014
inggil	-4015
inggin	-4016
isigaw	-4017
iwatig	-4018
piritu	-4019
salita	-4020
umanap	-4021
wirang	-4022
▁Dagat	-4023
▁Tibur	-4024
▁bakal	-4025
▁binib	-4026
▁bulag	-4027
▁buwis	-4028
▁dadal	-4029
▁dahan	-4030
▁dalaw	-4031
▁humah	-4032
▁kinal	-4033
▁liham	-4034
▁lumul	-4035
▁lunas	-4036
▁makab	-4037
▁makal	-4038
▁matip	-4039
▁nagug	-4040
▁nakad	-4041
▁nasus	-4042
▁natit	-4043
▁pakay	-4044
▁pinam	-4045
▁pinas	-4046
▁reyno	-4047
▁rosas	-4048
▁sinag	-4049
▁talud	-4050
▁tamis	-4051
▁tapos	-4052
ahandog	-4053
ampanan	-4054
arangaw	-4055
ayapaan	-4056
ilitang	-4057
ulitika	-4058
ustuhan	-4059
▁Kailan	-4060
▁Kaptan	-4061
▁Simang	-4062
▁TOYANG	-4063
▁Tinong	-4064
▁angkin	-4065
▁baybay	-4066
▁ilawan	-4067
▁ipinag	-4068
▁makuha	-4069
▁mapagk	-4070
▁naiwan	-4071
▁pagkah	-4072
▁umawit	-4073
▁umiyak	-4074
▁yamang	-4075
ahimikan	-4076
ungkahoy	-4077
▁Lumipas	-4078
▁bandila	-4079
▁hapunan	-4080
▁igalang	-4081
▁maagang	-4082
▁malamig	-4083
▁nabuhay	-4084
▁naganap	-4085
▁panging	-4086
▁patalim	-4087
▁sinuman	-4088
▁tumigil	-4089
▁wastong	-4090
ahalagang	-4091
edukasyon	-4092
ihimagsik	-4093
sapalaran	-4094
▁Balagtas	-4095
▁Barangaw	-4096
▁Filipino	-4097
▁Marikudo	-4098
▁Nagtungo	-4099
▁Tiburcio	-4100
▁gayundin	-4101
▁gererong	-4102
▁hirangin	-4103
▁kalahati	-4104
▁kasawian	-4105
▁kaunting	-4106
▁mabisang	-4107
▁makitang	-4108
▁mapayapa	-4109
▁nagbalik	-4110
▁nakatayo	-4111
▁nakatira	-4112
▁paglabag	-4113
▁pagtupad	-4114
▁tuntunin	-4115
atipikahan	-4116
▁Komisyong	-4117
▁katapusan	-4118
▁kaugalian	-4119
▁magsagawa	-4120
▁matatanda	-4121
▁nagsalita	-4122
▁nagtanong	-4123
▁naririnig	-4124
▁nasiyahan	-4125
▁sakristan	-4126
▁tinutukoy	-4127
▁Balagtasan	-4128
▁Kailangang	-4129
▁Saragnayan	-4130
▁kapakanang	-4131
▁kayumanggi	-4132
▁magpatibay	-4133
▁mahalagang	-4134
▁mangyayari	-4135
▁nanggaling	-4136
▁nangyayari	-4137
▁naniniwala	-4138
▁pagpapasya	-4139
▁alituntunin	-4140
▁kagandahang	-4141
▁kalalakihan	-4142
▁kasangkapan	-4143
▁kasintahang	-4144
▁katahimikan	-4145
▁katotohanan	-4146
▁manungkulan	-4147
▁naghahangad	-4148
▁pagdiriwang	-4149
▁paghahangad	-4150
▁punungkahoy	-4151
▁kinaroroonan	-4152
-1	-4153
4:	-4154
ct	-4155
pe	-4156
ru	-4157
ENA	-4158
IWA	-4159
Mga	-4160
arr	-4161
bis	-4162
ite	-4163
lak	-4164
mat	-4165
tin	-4166
uny	-4167
▁9.	-4168
▁Bo	-4169
▁EL	-4170
▁Or	-4171
▁Pl	-4172
ABLO	-4173
ARUP	-4174
Mlks	-4175
adap	-4176
agit	-4177
ahag	-4178
anod	-4179
asik	-4180
atal	-4181
awis	-4182
ayin	-4183
ayog	-4184
cion	-4185
each	-4186
ones	-4187
rero	-4188
sama	-4189
taas	-4190
ugal	-4191
ukso	-4192
unay	-4193
unot	-4194
upok	-4195
urin	-4196
usal	-4197
uyak	-4198
▁11.	-4199
▁Imp	-4200
▁Map	-4201
▁Rep	-4202
▁Sta	-4203
▁Tip	-4204
▁dir	-4205
▁leg	-4206
▁mon	-4207
▁puw	-4208
▁rec	-4209
▁sob	-4210
▁sya	-4211
▁umu	-4212
▁uod	-4213
aalay	-4214
aklap	-4215
amtan	-4216
andag	-4217
aping	-4218
apong	-4219
ayuan	-4220
embro	-4221
iyego	-4222
omong	-4223
risto	-4224
ukang	-4225
uksan	-4226
yagan	-4227
▁Band	-4228
▁Bato	-4229
▁Lagi	-4230
▁Lawa	-4231
▁Niya	-4232
▁ayos	-4233
▁caca	-4234
▁kond	-4235
▁mesa	-4236
▁naip	-4237
▁nuon	-4238
▁piso	-4239
▁sawa	-4240
▁tama	-4241
▁trad	-4242
▁ulat	-4243
▁unit	-4244
▁yari	-4245
ANDIWA	-4246
agawin	-4247
ahalal	-4248
ahilig	-4249
akbong	-4250
akdang	-4251
alahan	-4252
alidad	-4253
amayan	-4254
ariang	-4255
ayahan	-4256
diwang	-4257
ensyon	-4258
ibigin	-4259
iyakap	-4260
ostomo	-4261
pantay	-4262
rabaho	-4263
ugatan	-4264
undong	-4265
upunta	-4266
usumpa	-4267
▁Alban	-4268
▁Bawat	-4269
▁Buhat	-4270
▁Buwan	-4271
▁Domin	-4272
▁ELENA	-4273
▁Higit	-4274
▁Ngayo	-4275
▁PABLO	-4276
▁PARUP	-4277
▁Pangk	-4278
▁balon	-4279
▁boses	-4280
▁butil	-4281
▁grupo	-4282
▁hilig	-4283
▁kalik	-4284
▁kalis	-4285
▁kasip	-4286
▁lamok	-4287
▁mabub	-4288
▁mahuh	-4289
▁masis	-4290
▁munti	-4291
▁nasis	-4292
▁pamim	-4293
▁panib	-4294
▁pinup	-4295
▁pugad	-4296
▁putik	-4297
▁sahod	-4298
▁salig	-4299
▁sigla	-4300
▁sinis	-4301
▁sumpa	-4302
▁tabak	-4303
▁tamad	-4304
▁titig	-4305
aganang	-4306
agawang	-4307
alakhak	-4308
alamuti	-4309
alimbag	-4310
alinong	-4311
angkang	-4312
iibigan	-4313
irasong	-4314
olusyon	-4315
ubuksan	-4316
ulugang	-4317
▁Bayang	-4318
▁Kasama	-4319
▁anuman	-4320
▁bangis	-4321
▁dalhin	-4322
▁ganyan	-4323
▁kabata	-4324
▁lusong	-4325
▁mahina	-4326
▁mapagb	-4327
▁mawala	-4328
▁nagsus	-4329
▁pagdar	-4330
▁pribil	-4331
▁puntod	-4332
▁sermon	-4333
▁suklay	-4334
▁suyuan	-4335
▁taludt	-4336
▁tuktok	-4337
abuhayan	-4338
ahiwalay	-4339
aligiran	-4340
amantala	-4341
atanging	-4342
▁Bugtong	-4343
▁Griyego	-4344
▁Humadap	-4345
▁Mayroon	-4346
▁Mensahe	-4347
▁Nalaman	-4348
▁abogado	-4349
▁bunsong	-4350
▁dalisay	-4351
▁gantimp	-4352
▁heneral	-4353
▁himutok	-4354
▁hinggil	-4355
▁kultura	-4356
▁kumilos	-4357
▁makapan	-4358
▁nagsabi	-4359
▁nalaman	-4360
▁negosyo	-4361
▁pakasal	-4362
▁pupunta	-4363
▁rehiyon	-4364
▁umiiral	-4365
ahintulot	-4366
▁Bulaklak	-4367
▁PARUPARO	-4368
▁ariarian	-4369
▁ginawang	-4370
▁ikatlong	-4371
▁inutusan	-4372
▁itinakda	-4373
▁kapuluan	-4374
▁mahalaga	-4375
▁makatang	-4376
▁mangmang	-4377
▁naroroon	-4378
▁pananamp	-4379
▁sakaling	-4380
▁Fernandez	-4381
▁LAKANDIWA	-4382
▁Malungkot	-4383
▁hakbangin	-4384
▁karamihan	-4385
▁karanasan	-4386
▁kinatawan	-4387
▁magkasint	-4388
▁palibhasa	-4389
▁Crisostomo	-4390
▁hinihintay	-4391
▁kapayapaan	-4392
▁kasunduang	-4393
▁magtadhana	-4394
▁nagsisipag	-4395
▁pagsintang	-4396
▁tatlumpung	-4397
▁Samantalang	-4398
▁dambuhalang	-4399
▁magkabilang	-4400
▁magkaibigan	-4401
▁makatwirang	-4402
▁manggagamot	-4403
▁pagsasabing	-4404
▁pananagutan	-4405
▁pagkakataong	-4406
▁pangkalahatang	-4407
▁nangangailangan	-4408
!!	-4409
▁v	-4410
BUY	-4411
Tat	-4412
abo	-4413
agu	-4414
cia	-4415
eus	-4416
fin	-4417
ihi	-4418
ion	-4419
kin	-4420
ord	-4421
umi	-4422
wak	-4423
wal	-4424
yer	-4425
▁--	-4426
▁20	-4427
▁Et	-4428
▁II	-4429
▁Os	-4430
▁oo	-4431
▁pi	-4432
▁ub	-4433
aari	-4434
alot	-4435
amin	-4436
ampo	-4437
ator	-4438
dali	-4439
egur	-4440
haga	-4441
ispo	-4442
iyaw	-4443
rong	-4444
ugis	-4445
uhit	-4446
uhos	-4447
unam	-4448
yaya	-4449
▁(5)	-4450
▁12.	-4451
▁Ati	-4452
▁Kak	-4453
▁anu	-4454
▁dah	-4455
▁del	-4456
▁gag	-4457
▁hid	-4458
▁imb	-4459
▁inu	-4460
▁lig	-4461
▁miy	-4462
▁pon	-4463
▁siy	-4464
BUYOG	-4465
agulo	-4466
anais	-4467
arami	-4468
astos	-4469
awaan	-4470
awani	-4471
bayad	-4472
daang	-4473
dagat	-4474
ihasa	-4475
iyaga	-4476
sunod	-4477
tuloy	-4478
ugali	-4479
umano	-4480
umbas	-4481
undag	-4482
▁Baka	-4483
▁Cons	-4484
▁Hari	-4485
▁Lena	-4486
▁Linc	-4487
▁Magk	-4488
▁Selo	-4489
▁alip	-4490
▁alon	-4491
▁asos	-4492
▁banc	-4493
▁bers	-4494
▁edad	-4495
▁ginh	-4496
▁iisa	-4497
▁kaki	-4498
▁kubo	-4499
▁lilo	-4500
▁lipi	-4501
▁mail	-4502
▁mais	-4503
▁mapa	-4504
▁past	-4505
▁poot	-4506
▁saya	-4507
▁suot	-4508
▁tekn	-4509
▁trib	-4510
abango	-4511
aklong	-4512
aksaya	-4513
alakal	-4514
angkop	-4515
antang	-4516
atanaw	-4517
atawat	-4518
awasan	-4519
eritor	-4520
ihinal	-4521
ikling	-4522
itiwan	-4523
tasyon	-4524
uksang	-4525
unahan	-4526
usugan	-4527
uwento	-4528
▁Artik	-4529
▁Dulaw	-4530
▁Labis	-4531
▁Lawin	-4532
▁Napak	-4533
▁Papay	-4534
▁Patay	-4535
▁Sinas	-4536
▁Tabor	-4537
▁Tinig	-4538
▁Tiyak	-4539
▁bumub	-4540
▁busog	-4541
▁butas	-4542
▁dampa	-4543
▁diyam	-4544
▁gumag	-4545
▁hapag	-4546
▁hubad	-4547
▁ilong	-4548
▁inter	-4549
▁kalig	-4550
▁kanan	-4551
▁kanin	-4552
▁lakad	-4553
▁likha	-4554
▁maaga	-4555
▁mithi	-4556
▁pader	-4557
▁palat	-4558
▁payat	-4559
▁pinab	-4560
▁putok	-4561
▁sampu	-4562
▁sanda	-4563
▁sulok	-4564
▁tanod	-4565
▁tulog	-4566
▁tumit	-4567
▁tuwid	-4568
▁wagas	-4569
Heneral	-4570
abagsak	-4571
agsikan	-4572
alitong	-4573
atingin	-4574
halalan	-4575
ibigyan	-4576
ibilang	-4577
olohiya	-4578
sobispo	-4579
▁Ayonan	-4580
▁Delfin	-4581
▁Flores	-4582
▁Ingles	-4583
▁Kawani	-4584
▁Laging	-4585
▁Magtat	-4586
▁Malaki	-4587
▁Narito	-4588
▁Santos	-4589
▁Siyang	-4590
▁bantog	-4591
▁bisita	-4592
▁dugong	-4593
▁himpap	-4594
▁kainin	-4595
▁kapuwa	-4596
▁kidlat	-4597
▁korona	-4598
▁manang	-4599
▁nagawa	-4600
▁naglil	-4601
▁nagpup	-4602
▁nakuha	-4603
▁nangak	-4604
▁nganga	-4605
▁paanan	-4606
▁pantao	-4607
▁patung	-4608
▁sagana	-4609
▁sundin	-4610
▁talaan	-4611
▁tatuan	-4612
alamhati	-4613
amatayan	-4614
uwalhati	-4615
▁BUBUYOG	-4616
▁Cristal	-4617
▁Lumapit	-4618
▁Matapos	-4619
▁Pumasok	-4620
▁Tatlong	-4621
▁balikat	-4622
▁botante	-4623
▁gagamit	-4624
▁hukbong	-4625
▁humarap	-4626
▁iibigin	-4627
▁ipinang	-4628
▁ituring	-4629
▁kaugnay	-4630
▁limutin	-4631
▁maaring	-4632
▁mahigit	-4633
▁matatag	-4634
▁matiyak	-4635
▁minsang	-4636
▁mutyang	-4637
▁nagalit	-4638
▁nakipag	-4639
▁nangung	-4640
▁nauukol	-4641
▁niyakap	-4642
▁pinggan	-4643
▁pumayag	-4644
▁tangkay	-4645
▁tauhang	-4646
▁teritor	-4647
▁umaawit	-4648
▁Inutusan	-4649
▁Kaibigan	-4650
▁Pilosopo	-4651
▁kalabasa	-4652
▁kariktan	-4653
▁kasamang	-4654
▁kawaning	-4655
▁magdamag	-4656
▁marating	-4657
▁miyembro	-4658
▁nagpunta	-4659
▁pagpapas	-4660
▁panganay	-4661
▁Albanyang	-4662
▁Kailangan	-4663
▁Palibhasa	-4664
▁Tipaklong	-4665
▁diyamante	-4666
▁kadiliman	-4667
▁kakaibang	-4668
▁nagmumula	-4669
▁nakagapos	-4670
▁pamayanan	-4671
▁pinagkaka	-4672
▁pormasyon	-4673
▁Calanutian	-4674
▁Pilipinong	-4675
▁animnapung	-4676
▁gantimpala	-4677
▁himagsikan	-4678
▁kalangitan	-4679
▁kapitbahay	-4680
▁kayamanang	-4681
▁paglalaban	-4682
▁pahintulot	-4683
▁Nagmalitong	-4684
▁iginagalang	-4685
▁ipagtanggol	-4686
▁matatandang	-4687
▁nakatakdang	-4688
▁natatanging	-4689
▁pampulitika	-4690
▁pribilehiyo	-4691
▁katungkulang	-4692
▁pangkabuhayan	-4693
-2	-4694
6)	-4695
AS	-4696
Di	-4697
IT	-4698
Ka	-4699
NG	-4700
ee	-4701
ov	-4702
pu	-4703
ss	-4704
ui	-4705
Nak	-4706
aon	-4707
ary	-4708
asm	-4709
bag	-4710
bat	-4711
che	-4712
dim	-4713
eat	-4714
ekl	-4715
goy	-4716
hel	-4717
iha	-4718
kil	-4719
kop	-4720
nat	-4721
pot	-4722
rit	-4723
sas	-4724
uho	-4725
ver	-4726
yak	-4727
▁Br	-4728
▁If	-4729
▁Le	-4730
▁Ul	-4731
Dito	-4732
abik	-4733
adab	-4734
aker	-4735
amon	-4736
anas	-4737
atat	-4738
awng	-4739
enta	-4740
gabi	-4741
ihas	-4742
imik	-4743
ipot	-4744
kaya	-4745
kita	-4746
leng	-4747
lian	-4748
olin	-4749
uban	-4750
ugao	-4751
ulum	-4752
umin	-4753
urog	-4754
usot	-4755
▁13.	-4756
▁14.	-4757
▁15.	-4758
▁16.	-4759
▁Ahh	-4760
▁Dem	-4761
▁Gat	-4762
▁Lus	-4763
▁Nah	-4764
▁Osm	-4765
▁Spe	-4766
▁Tat	-4767
▁art	-4768
▁kod	-4769
▁pos	-4770
▁tib	-4771
▁tur	-4772
▁win	-4773
abaon	-4774
alaka	-4775
alast	-4776
alump	-4777
angka	-4778
antok	-4779
ariwa	-4780
arong	-4781
ayain	-4782
embre	-4783
ensya	-4784
etong	-4785
ibust	-4786
idong	-4787
ingay	-4788
kapal	-4789
syong	-4790
uhing	-4791
uluto	-4792
umpis	-4793
ungat	-4794
uotan	-4795
wagan	-4796
▁Alit	-4797
▁Dala	-4798
▁INDO	-4799
▁Ibin	-4800
▁Kina	-4801
▁Muli	-4802
▁Serb	-4803
▁Tiwi	-4804
▁Wika	-4805
▁Yawa	-4806
▁dami	-4807
▁dili	-4808
▁dula	-4809
▁leeg	-4810
▁magn	-4811
▁ngum	-4812
▁suso	-4813
▁taas	-4814
▁yata	-4815
ahanan	-4816
alikod	-4817
alitan	-4818
angkin	-4819
awngaw	-4820
ensiya	-4821
ilimot	-4822
imulan	-4823
iwasan	-4824
saring	-4825
udulot	-4826
usbong	-4827
▁Anang	-4828
▁Delos	-4829
▁Krist	-4830
▁Minda	-4831
▁Nakat	-4832
▁Pinag	-4833
▁Sipag	-4834
▁Tagak	-4835
▁aalis	-4836
▁altar	-4837
▁anaki	-4838
▁aniya	-4839
▁antas	-4840
▁balah	-4841
▁bilog	-4842
▁dalag	-4843
▁kagip	-4844
▁kagit	-4845
▁kahus	-4846
▁kasab	-4847
▁lamig	-4848
▁mahin	-4849
▁namam	-4850
▁panay	-4851
▁pinan	-4852
▁regul	-4853
▁simoy	-4854
▁tagal	-4855
▁takip	-4856
▁tigil	-4857
abagong	-4858
abinete	-4859
aganaan	-4860
ailalim	-4861
akitang	-4862
alataya	-4863
amalaki	-4864
atayang	-4865
igdigan	-4866
intawak	-4867
intuang	-4868
iwalaan	-4869
iwalang	-4870
obyerno	-4871
sakahan	-4872
ulaklak	-4873
unahang	-4874
▁Batang	-4875
▁Birhen	-4876
▁Ifugao	-4877
▁Masaya	-4878
▁Mataas	-4879
▁Naroon	-4880
▁Nasaan	-4881
▁Nawala	-4882
▁Persiy	-4883
▁Pusong	-4884
▁Simula	-4885
▁Waring	-4886
▁buntot	-4887
▁inagaw	-4888
▁isdang	-4889
▁isipan	-4890
▁kababa	-4891
▁kitang	-4892
▁lumang	-4893
▁maayos	-4894
▁mahuli	-4895
▁mapagp	-4896
▁murang	-4897
▁nagpat	-4898
▁palang	-4899
▁regalo	-4900
▁tangan	-4901
▁tumayo	-4902
▁tumubo	-4903
ahahahah	-4904
ahiwatig	-4905
alinuhan	-4906
andangan	-4907
astangan	-4908
eachment	-4909
▁Ipinagt	-4910
▁Laurang	-4911
▁Madalas	-4912
▁Namatay	-4913
▁Speaker	-4914
▁Tumutol	-4915
▁bubuyog	-4916
▁handang	-4917
▁ipinagp	-4918
▁kabiyak	-4919
▁kalakal	-4920
▁likuran	-4921
▁madilaw	-4922
▁malimit	-4923
▁mananak	-4924
▁matapat	-4925
▁maunlad	-4926
▁nagsasa	-4927
▁namuhay	-4928
▁pagsuyo	-4929
▁pahayag	-4930
▁palayok	-4931
▁pamamah	-4932
▁sumulat	-4933
▁tinapay	-4934
▁tirahan	-4935
anyayahan	-4936
ikilalang	-4937
intulutan	-4938
▁Masayang	-4939
▁Napansin	-4940
▁Serbisyo	-4941
▁bulwagan	-4942
▁hiniling	-4943
▁inihanda	-4944
▁kultural	-4945
▁kuwartel	-4946
▁kwalipik	-4947
▁magharap	-4948
▁maglagda	-4949
▁malamang	-4950
▁mawawala	-4951
▁naghanda	-4952
▁pagkaing	-4953
▁pagpatay	-4954
▁pagsinta	-4955
▁pamumuno	-4956
▁programa	-4957
▁tagumpay	-4958
▁tindahan	-4959
▁Arsobispo	-4960
▁Halimbawa	-4961
▁Itinanong	-4962
▁alitaptap	-4963
▁balangkas	-4964
▁ituturing	-4965
▁kasulatan	-4966
▁katapatan	-4967
▁lansangan	-4968
▁maririnig	-4969
▁mayayaman	-4970
▁nakahanda	-4971
▁nalalaman	-4972
▁nanirahan	-4973
▁pagkawala	-4974
▁papalapit	-4975
▁Gagalangin	-4976
▁Humadapnon	-4977
▁hinahangad	-4978
▁inaasahang	-4979
▁katangiang	-4980
▁magbibigay	-4981
▁nagpatuloy	-4982
▁paghahanda	-4983
▁pansakahan	-4984
▁Isinalaysay	-4985
▁Nalandangan	-4986
▁ipinanganak	-4987
▁nagtataglay	-4988
▁pagpupulong	-4989
▁pangungusap	-4990
▁pangyayaring	-4991
▁magkasintahan	-4992
▁nagngangalang	-4993
▁paghihimagsik	-4994
-3	-4995
AL	-4996
kl	-4997
of	-4998
,00	-4999
amt	-5000
asi	-5001
atr	-5002
ber	-5003
bol	-5004
cil	-5005
eds	-5006
emp	-5007
eto	-5008
hap	-5009
hol	-5010
hoy	-5011
ill	-5012
ipa	-5013
ipi	-5014
iso	-5015
kep	-5016
ous	-5017
ruz	-5018
sel	-5019
uez	-5020
uty	-5021
yaw	-5022
▁23	-5023
▁NG	-5024
Wala	-5025
abae	-5026
agis	-5027
alul	-5028
ampi	-5029
apad	-5030
apis	-5031
asta	-5032
asto	-5033
bura	-5034
edya	-5035
ekto	-5036
eses	-5037
esor	-5038
ikom	-5039
ilas	-5040
iman	-5041
ipat	-5042
isap	-5043
itig	-5044
oche	-5045
opol	-5046
ract	-5047
seng	-5048
ugay	-5049
uhog	-5050
ukob	-5051
ukod	-5052
unal	-5053
unat	-5054
ustr	-5055
uway	-5056
waan	-5057
wari	-5058
wela	-5059
▁Amb	-5060
▁Dor	-5061
▁Edo	-5062
▁Hil	-5063
▁Sak	-5064
▁aut	-5065
▁dok	-5066
▁hik	-5067
▁huw	-5068
▁mul	-5069
▁pit	-5070
▁tel	-5071
aanan	-5072
aayos	-5073
adali	-5074
alake	-5075
alaya	-5076
ambit	-5077
apati	-5078
arama	-5079
araos	-5080
aruga	-5081
asdan	-5082
atiin	-5083
buwan	-5084
emang	-5085
erpre	-5086
habag	-5087
igaan	-5088
iliin	-5089
imdim	-5090
orneo	-5091
sabay	-5092
ubuan	-5093
upkop	-5094
uwing	-5095
yaman	-5096
▁Gabi	-5097
▁Kami	-5098
▁Lila	-5099
▁Naku	-5100
▁Puno	-5101
▁Sina	-5102
▁abot	-5103
▁ahas	-5104
▁alag	-5105
▁amoy	-5106
▁bany	-5107
▁gulo	-5108
▁huni	-5109
▁isus	-5110
▁kuta	-5111
▁misa	-5112
▁naib	-5113
▁nanl	-5114
▁palo	-5115
▁pors	-5116
▁sakl	-5117
▁sert	-5118
▁tala	-5119
abigla	-5120
aguita	-5121
aklolo	-5122
alawak	-5123
alinga	-5124
alipad	-5125
anggay	-5126
apasok	-5127
apunan	-5128
asanay	-5129
atangi	-5130
atoryo	-5131
atulan	-5132
iisang	-5133
ikilos	-5134
inhawa	-5135
itente	-5136
omongo	-5137
ratiko	-5138
ubukas	-5139
ubusan	-5140
ulitin	-5141
▁Bahay	-5142
▁Bohol	-5143
▁Buong	-5144
▁Gansa	-5145
▁Halik	-5146
▁Hibik	-5147
▁Juana	-5148
▁Kaysa	-5149
▁Leeds	-5150
▁Likal	-5151
▁Paano	-5152
▁Pluto	-5153
▁Timog	-5154
▁Tubig	-5155
▁agong	-5156
▁alang	-5157
▁alila	-5158
▁anang	-5159
▁balit	-5160
▁baliw	-5161
▁banda	-5162
▁beses	-5163
▁binub	-5164
▁budhi	-5165
▁disin	-5166
▁gulay	-5167
▁kamah	-5168
▁kauna	-5169
▁kaunl	-5170
▁kinag	-5171
▁lubha	-5172
▁mabab	-5173
▁malul	-5174
▁mamah	-5175
▁mutya	-5176
▁naaal	-5177
▁nabab	-5178
▁nagka	-5179
▁nanun	-5180
▁pasub	-5181
▁rebol	-5182
▁sadya	-5183
▁salin	-5184
▁sayaw	-5185
▁segur	-5186
▁sunog	-5187
▁tangg	-5188
▁umano	-5189
abangon	-5190
akiusap	-5191
aligtas	-5192
amandag	-5193
etongin	-5194
iglahin	-5195
ilimbag	-5196
iyahang	-5197
olacion	-5198
umpisal	-5199
▁Daldal	-5200
▁Dinala	-5201
▁Ganyan	-5202
▁Iniwan	-5203
▁Linceo	-5204
▁Palaka	-5205
▁Republ	-5206
▁alagad	-5207
▁bangin	-5208
▁buksan	-5209
▁bumoto	-5210
▁damong	-5211
▁diwang	-5212
▁dumalo	-5213
▁gising	-5214
▁hinang	-5215
▁ipinas	-5216
▁ipinat	-5217
▁kaliwa	-5218
▁kaming	-5219
▁katalo	-5220
▁labind	-5221
▁lumayo	-5222
▁maipag	-5223
▁naghih	-5224
▁nangag	-5225
▁paalam	-5226
▁pagkad	-5227
▁pagkam	-5228
▁paglil	-5229
▁pagpip	-5230
▁pinana	-5231
▁saysay	-5232
▁sining	-5233
▁tainga	-5234
▁tamang	-5235
▁tinang	-5236
akasakit	-5237
▁Bubuyog	-5238
▁Demeter	-5239
▁Humingi	-5240
▁Ipinagb	-5241
▁Mariang	-5242
▁Matagal	-5243
▁Nagtaka	-5244
▁Pedrito	-5245
▁Seksyon	-5246
▁buntung	-5247
▁gamitin	-5248
▁ginhawa	-5249
▁hihigit	-5250
▁inahing	-5251
▁iniisip	-5252
▁interes	-5253
▁kabuuan	-5254
▁kadahil	-5255
▁kahapon	-5256
▁kalapit	-5257
▁kandila	-5258
▁kukunin	-5259
▁lingkod	-5260
▁maglaan	-5261
▁maingat	-5262
▁malubha	-5263
▁mapalad	-5264
▁marahas	-5265
▁marikit	-5266
▁masakit	-5267
▁nagdaan	-5268
▁nakatat	-5269
▁nakaupo	-5270
▁nanging	-5271
▁natakot	-5272
▁paglaya	-5273
▁pagpili	-5274
▁pananaw	-5275
▁pulbura	-5276
▁sapitin	-5277
▁sumakay	-5278
▁tumakas	-5279
▁umagang	-5280
anggunian	-5281
aramdaman	-5282
▁Amomongo	-5283
▁Madaling	-5284
▁Makiling	-5285
▁Maykapal	-5286
▁Soloista	-5287
▁bumagsak	-5288
▁dalagita	-5289
▁dingding	-5290
▁iniharap	-5291
▁isaalang	-5292
▁katumbas	-5293
▁kawalang	-5294
▁ketongin	-5295
▁kulungan	-5296
▁mababang	-5297
▁mabangis	-5298
▁magalang	-5299
▁magtungo	-5300
▁makakain	-5301
▁manatili	-5302
▁masagana	-5303
▁masaklap	-5304
▁nagdulot	-5305
▁nagpapat	-5306
▁nagtuloy	-5307
▁nakitang	-5308
▁orihinal	-5309
▁paghanga	-5310
▁pagkakah	-5311
▁paglusob	-5312
▁pagpapak	-5313
▁pagsubok	-5314
▁palamuti	-5315
▁panlahat	-5316
▁parusang	-5317
▁patnubay	-5318
▁taludtod	-5319
▁tumanggi	-5320
▁Nagpaalam	-5321
▁Nagtanong	-5322
▁Panginoon	-5323
▁Penitente	-5324
▁guwardiya	-5325
▁hahanapin	-5326
▁halamanan	-5327
▁isinilang	-5328
▁kabataang	-5329
▁kagagawan	-5330
▁kalikasan	-5331
▁kapakanan	-5332
▁kasayahan	-5333
▁kaukulang	-5334
▁manirahan	-5335
▁naglakbay	-5336
▁nakikinig	-5337
▁pagkabata	-5338
▁paglingap	-5339
▁propesyon	-5340
alingawngaw	-5341
erpretasyon	-5342
▁Mitolohiya	-5343
▁kagustuhan	-5344
▁kalupunang	-5345
▁kasaganaan	-5346
▁nagkasakit	-5347
▁pagkaraang	-5348
▁paglalakad	-5349
▁pinagtibay	-5350
▁resolusyon	-5351
▁sinalubong	-5352
▁Consolacion	-5353
▁Komisyonado	-5354
▁impeachment	-5355
▁itinuturing	-5356
▁katalinuhan	-5357
▁mangingisda	-5358
▁pagsasalita	-5359
▁pasasalamat	-5360
▁kinalalagyan	-5361
▁organisasyon	-5362
▁paghihiganti	-5363
▁pagkakasakit	-5364
▁pagtatanghal	-5365
▁pangangalaga	-5366
▁salamangkero	-5367
▁maratipikahan	-5368
'-	-5369
AY	-5370
IP	-5371
It	-5372
mm	-5373
▁6	-5374
▁:	-5375
Mag	-5376
ham	-5377
ibe	-5378
ima	-5379
ism	-5380
kis	-5381
kob	-5382
sil	-5383
son	-5384
tad	-5385
tos	-5386
uba	-5387
uns	-5388
yol	-5389
▁"'	-5390
▁30	-5391
▁De	-5392
▁Ta	-5393
▁dr	-5394
▁ir	-5395
▁lo	-5396
▁oh	-5397
▁up	-5398
Solo	-5399
aani	-5400
agos	-5401
amar	-5402
ansa	-5403
apas	-5404
edur	-5405
eryo	-5406
ibot	-5407
ikim	-5408
inip	-5409
itag	-5410
itil	-5411
itng	-5412
kayo	-5413
kepu	-5414
list	-5415
mana	-5416
maya	-5417
oduk	-5418
onal	-5419
onco	-5420
puno	-5421
roso	-5422
ulok	-5423
unao	-5424
unig	-5425
unpu	-5426
upil	-5427
uyos	-5428
wahe	-5429
▁(6)	-5430
▁19.	-5431
▁ANG	-5432
▁Bay	-5433
▁Buy	-5434
▁Dep	-5435
▁Lad	-5436
▁Lis	-5437
▁Pul	-5438
▁Rog	-5439
▁hab	-5440
▁haw	-5441
▁mum	-5442
▁tar	-5443
▁tik	-5444
angat	-5445
anggo	-5446
anhik	-5447
araya	-5448
ganda	-5449
iikan	-5450
imlan	-5451
imtim	-5452
ingas	-5453
intik	-5454
ipiko	-5455
itlog	-5456
pakan	-5457
salin	-5458
uezon	-5459
ughaw	-5460
uhong	-5461
ukuha	-5462
uning	-5463
untik	-5464
uwahe	-5465
yakap	-5466
▁Cruz	-5467
▁Duri	-5468
▁Edna	-5469
▁Etol	-5470
▁Luis	-5471
▁Lupa	-5472
▁Magh	-5473
▁Magt	-5474
▁Nana	-5475
▁Pabl	-5476
▁Unti	-5477
▁bend	-5478
▁biro	-5479
▁buny	-5480
▁daga	-5481
▁hagd	-5482
▁ikab	-5483
▁ipat	-5484
▁kaay	-5485
▁kabo	-5486
▁krim	-5487
▁maih	-5488
▁mari	-5489
▁nand	-5490
▁nawa	-5491
▁prot	-5492
▁real	-5493
▁sari	-5494
▁serb	-5495
▁sira	-5496
▁tali	-5497
▁ubod	-5498
aasawa	-5499
abagin	-5500
abatas	-5501
abutan	-5502
adyang	-5503
agalan	-5504
agupit	-5505
ahirap	-5506
alabis	-5507
alaing	-5508
alanin	-5509
alanta	-5510
alipat	-5511
amitan	-5512
ampung	-5513
anyaya	-5514
arinig	-5515
atapwa	-5516
athala	-5517
awakas	-5518
awaran	-5519
awarin	-5520
edurug	-5521
ibabaw	-5522
ikayat	-5523
ilaban	-5524
ilbing	-5525
ilinan	-5526
indaya	-5527
ingang	-5528
ingwit	-5529
isinta	-5530
otoong	-5531
samang	-5532
ukulan	-5533
umanon	-5534
ungkol	-5535
untong	-5536
utyang	-5537
uugali	-5538
walong	-5539
▁Akong	-5540
▁Banal	-5541
▁Bukod	-5542
▁Carol	-5543
▁Gusto	-5544
▁Iyang	-5545
▁Mayor	-5546
▁Narir	-5547
▁Palay	-5548
▁Pasko	-5549
▁Timot	-5550
▁alaga	-5551
▁armas	-5552
▁artil	-5553
▁bahag	-5554
▁batid	-5555
▁batok	-5556
▁bigay	-5557
▁binti	-5558
▁bubog	-5559
▁dahas	-5560
▁diyan	-5561
▁iglap	-5562
▁kalan	-5563
▁kapur	-5564
▁katak	-5565
▁katat	-5566
▁kinab	-5567
▁kinak	-5568
▁kinap	-5569
▁kinau	-5570
▁kodla	-5571
▁kulog	-5572
▁lason	-5573
▁liban	-5574
▁ligaw	-5575
▁lugod	-5576
▁maest	-5577
▁mahim	-5578
▁malam	-5579
▁mandi	-5580
▁manun	-5581
▁masus	-5582
▁matin	-5583
▁matit	-5584
▁nahuh	-5585
▁napas	-5586
▁patut	-5587
▁punta	-5588
▁salam	-5589
▁salat	-5590
▁susog	-5591
▁tiyan	-5592
▁tungo	-5593
▁umupo	-5594
▁yapak	-5595
Epikong	-5596
abayaan	-5597
alagtas	-5598
apantay	-5599
arasyon	-5600
arronco	-5601
atiling	-5602
atwiran	-5603
ayagang	-5604
ehistro	-5605
entuhan	-5606
ilibing	-5607
indigan	-5608
istahan	-5609
itikang	-5610
onomiya	-5611
ractice	-5612
uhunang	-5613
uluhang	-5614
uusapan	-5615
▁Andres	-5616
▁Anggoy	-5617
▁Binata	-5618
▁Borneo	-5619
▁Deputy	-5620
▁Hangga	-5621
▁Kumuha	-5622
▁Ladlaw	-5623
▁Lisuga	-5624
▁Nitong	-5625
▁Rosita	-5626
▁Saglit	-5627
▁Talisa	-5628
▁adhika	-5629
▁alamin	-5630
▁bahala	-5631
▁dagdag	-5632
▁dulaan	-5633
▁gerero	-5634
▁hating	-5635
▁ikinab	-5636
▁ipinak	-5637
▁kanang	-5638
▁kawili	-5639
▁kislap	-5640
▁ligtas	-5641
▁linggo	-5642
▁mangga	-5643
▁mapagm	-5644
▁maputi	-5645
▁nabigo	-5646
▁nagbub	-5647
▁nagdar	-5648
▁nagkat	-5649
▁napang	-5650
▁nasaan	-5651
▁nasabi	-5652
▁pagkal	-5653
▁pagnan	-5654
▁pampan	-5655
▁pataas	-5656
▁pinagd	-5657
▁silong	-5658
▁sumang	-5659
▁taghoy	-5660
▁talang	-5661
▁tanang	-5662
▁umibig	-5663
alahanin	-5664
alathala	-5665
alingang	-5666
ibustero	-5667
ulungang	-5668
▁Antenor	-5669
▁Halalan	-5670
▁Hayaang	-5671
▁Inakala	-5672
▁Itinuro	-5673
▁Kasunod	-5674
▁Katulad	-5675
▁Libulan	-5676
▁Minango	-5677
▁Nakapag	-5678
▁Osmalik	-5679
▁Salamat	-5680
▁Tingnan	-5681
▁Tinungo	-5682
▁balaraw	-5683
▁bandang	-5684
▁batayan	-5685
▁bayabas	-5686
▁dumalaw	-5687
▁halimaw	-5688
▁harapan	-5689
▁hilahil	-5690
▁iligtas	-5691
▁industr	-5692
▁ipinagt	-5693
▁itinuro	-5694
▁kahabag	-5695
▁kapanat	-5696
▁lalapit	-5697
▁lumipat	-5698
▁magsisi	-5699
▁mahilig	-5700
▁mahulog	-5701
▁nagturo	-5702
▁nakapan	-5703
▁pagsasa	-5704
▁palihim	-5705
▁pamagat	-5706
▁saklolo	-5707
▁sangkap	-5708
▁talulot	-5709
▁trabaho	-5710
▁umiiyak	-5711
▁umunlad	-5712
asalubong	-5713
▁Adolfong	-5714
▁Dominiko	-5715
▁Mayroong	-5716
▁Naggayak	-5717
▁Nagpunta	-5718
▁Naririto	-5719
▁Penchang	-5720
▁Tinagong	-5721
▁Victoria	-5722
▁batayang	-5723
▁baybayin	-5724
▁bibigyan	-5725
▁dadalhin	-5726
▁dahilang	-5727
▁dinatnan	-5728
▁giniikan	-5729
▁hinagpis	-5730
▁ibibigay	-5731
▁karuwahe	-5732
▁kundiman	-5733
▁mabigyan	-5734
▁makilala	-5735
▁makipagk	-5736
▁pagkilos	-5737
▁rebolber	-5738
▁sabihing	-5739
▁salungat	-5740
▁silangan	-5741
▁sinasabi	-5742
▁tahanang	-5743
▁talampas	-5744
▁tribunal	-5745
▁tuwirang	-5746
alinlangan	-5747
apangasawa	-5748
sengedurug	-5749
▁Alitaptap	-5750
▁Edukasyon	-5751
▁Kamatayan	-5752
▁Kastilang	-5753
▁Nabanggit	-5754
▁Nalungkot	-5755
▁Paghirang	-5756
▁Republika	-5757
▁baranggay	-5758
▁binanggit	-5759
▁dalawampu	-5760
▁damdaming	-5761
▁gagamitin	-5762
▁humihingi	-5763
▁kagipitan	-5764
▁kalupunan	-5765
▁karaniwan	-5766
▁kaugnayan	-5767
▁magsalita	-5768
▁magsimula	-5769
▁mahimbing	-5770
▁maliwanag	-5771
▁maunawaan	-5772
▁mistulang	-5773
▁natatakot	-5774
▁pagsusuri	-5775
▁pagtulong	-5776
▁pinakamah	-5777
▁seguruhin	-5778
▁sinalakay	-5779
▁sinaunang	-5780
▁sistemang	-5781
▁tangkilik	-5782
arroncocido	-5783
▁Isinusumpa	-5784
▁Nakarating	-5785
▁Pangumanon	-5786
▁engkantado	-5787
▁himpapawid	-5788
▁instrument	-5789
▁ipinahayag	-5790
▁kababaihan	-5791
▁kababayang	-5792
▁kagitingan	-5793
▁kalagayang	-5794
▁kalahating	-5795
▁katapangan	-5796
▁magpatuloy	-5797
▁masaganang	-5798
▁matatapang	-5799
▁natuklasan	-5800
▁pagbabalik	-5801
▁pagkakaisa	-5802
▁pananalita	-5803
▁pasiglahin	-5804
▁patakarang	-5805
▁pinanaugan	-5806
▁pinuntahan	-5807
▁Likalibutan	-5808
▁kahalagahan	-5809
▁magkakaroon	-5810
▁mapangasawa	-5811
▁nagsasabing	-5812
▁pagbabagong	-5813
▁pamamalakad	-5814
▁sandatahang	-5815
▁makatarungan	-5816
▁naaalinsunod	-5817
▁pagmamahalan	-5818
▁pagpapahayag	-5819
▁pagsasagamit	-5820
▁pananaliksik	-5821
▁pananghalian	-5822
▁pagsasalaysay	-5823
▁Camarroncocido	-5824
▁pinakamalaking	-5825
9:	-5826
Pa	-5827
UN	-5828
gl	-5829
ke	-5830
ow	-5831
se	-5832
th	-5833
Mab	-5834
ade	-5835
atn	-5836
bal	-5837
can	-5838
dia	-5839
egr	-5840
elo	-5841
eno	-5842
ige	-5843
iig	-5844
ikl	-5845
kaw	-5846
kon	-5847
lin	-5848
los	-5849
lum	-5850
mal	-5851
ngi	-5852
ope	-5853
ort	-5854
rip	-5855
uev	-5856
ugb	-5857
urn	-5858
uta	-5859
yos	-5860
yth	-5861
▁Hu	-5862
▁Me	-5863
▁Mr	-5864
▁Oo	-5865
▁Ts	-5866
▁et	-5867
▁mg	-5868
▁of	-5869
▁on	-5870
abok	-5871
abon	-5872
ahol	-5873
aksi	-5874
alda	-5875
alos	-5876
andi	-5877
asam	-5878
enan	-5879
enep	-5880
ersa	-5881
hing	-5882
ibol	-5883
ight	-5884
insa	-5885
isid	-5886
itis	-5887
iyab	-5888
lahi	-5889
lano	-5890
ogan	-5891
oras	-5892
oval	-5893
potl	-5894
ubli	-5895
ugma	-5896
ugso	-5897
ugto	-5898
ugun	-5899
uhaw	-5900
ukat	-5901
ulag	-5902
ulid	-5903
utya	-5904
uwat	-5905
uyin	-5906
wili	-5907
▁Bik	-5908
▁Hag	-5909
▁KAP	-5910
▁Kul	-5911
▁Mam	-5912
▁Noo	-5913
▁Pap	-5914
▁Pec	-5915
▁Sil	-5916
▁Sto	-5917
▁Tom	-5918
▁Tur	-5919
▁Yao	-5920
▁akt	-5921
▁bil	-5922
▁bol	-5923
▁cor	-5924
▁des	-5925
▁diy	-5926
▁esk	-5927
▁hud	-5928
▁hul	-5929
▁kup	-5930
▁let	-5931
▁lut	-5932
▁nun	-5933
▁pop	-5934
▁tad	-5935
aaliw	-5936
abato	-5937
abula	-5938
adpad	-5939
aguan	-5940
ainan	-5941
alogo	-5942
ambot	-5943
apaap	-5944
bitin	-5945
brero	-5946
edium	-5947
ektor	-5948
ement	-5949
endum	-5950
facio	-5951
ialam	-5952
idlip	-5953
ilong	-5954
ipong	-5955
iraos	-5956
katlo	-5957
liyaw	-5958
obong	-5959
ority	-5960
resya	-5961
saing	-5962
sayaw	-5963
uklok	-5964
unyag	-5965
uyuko	-5966
yento	-5967
▁Agio	-5968
▁Alin	-5969
▁Apol	-5970
▁Awit	-5971
▁Bali	-5972
▁Boni	-5973
▁Buod	-5974
▁Dali	-5975
▁Gaya	-5976
▁Lalo	-5977
▁Pagt	-5978
▁Sabi	-5979
▁dekl	-5980
▁ikag	-5981
▁inam	-5982
▁isas	-5983
▁kaal	-5984
▁kast	-5985
▁luma	-5986
▁mali	-5987
▁mamb	-5988
▁nami	-5989
▁pagn	-5990
▁pain	-5991
▁pako	-5992
▁sapa	-5993
▁sulo	-5994
▁tugt	-5995
▁ulam	-5996
▁writ	-5997
aalaga	-5998
agdaan	-5999
agisag	-6000
aglahi	-6001
agling	-6002
ahayan	-6003
alahad	-6004
alapad	-6005
alayag	-6006
alisan	-6007
amanan	-6008
aryong	-6009
asaluk	-6010
asinan	-6011
ayakap	-6012
bisito	-6013
daling	-6014
didato	-6015
hanang	-6016
hiyang	-6017
ibitiw	-6018
igilin	-6019
ihingi	-6020
iingat	-6021
ilitis	-6022
iliyag	-6023
ingkod	-6024
inigil	-6025
inting	-6026
isahan	-6027
iskano	-6028
itngit	-6029
iwalag	-6030
ngkong	-6031
ouncil	-6032
ubukin	-6033
ukiran	-6034
unduan	-6035
unurin	-6036
uwagan	-6037
yembre	-6038
▁Akala	-6039
▁Atlas	-6040
▁Audit	-6041
▁Bangk	-6042
▁Banna	-6043
▁Bruno	-6044
▁Bulan	-6045
▁Kalig	-6046
▁Lunes	-6047
▁Makat	-6048
▁Naawa	-6049
▁Nanun	-6050
▁Napat	-6051
▁Reyno	-6052
▁Tenor	-6053
▁Tunay	-6054
▁Umaga	-6055
▁abala	-6056
▁benep	-6057
▁bukod	-6058
▁bumuo	-6059
▁buuin	-6060
▁dumad	-6061
▁gatas	-6062
▁hugis	-6063
▁kakah	-6064
▁kanal	-6065
▁kapus	-6066
▁kated	-6067
▁katuw	-6068
▁kinas	-6069
▁lipad	-6070
▁liyag	-6071
▁lulan	-6072
▁magug	-6073
▁makag	-6074
▁mapak	-6075
▁mismo	-6076
▁nalag	-6077
▁pamil	-6078
▁pangw	-6079
▁panyo	-6080
▁papag	-6081
▁party	-6082
▁pawis	-6083
▁pipit	-6084
▁pugon	-6085
▁pulit	-6086
▁purok	-6087
▁refer	-6088
▁repor	-6089
▁sahig	-6090
▁santo	-6091
▁sarap	-6092
▁sisiw	-6093
▁sunod	-6094
▁talas	-6095
▁tibay	-6096
▁tinal	-6097
▁tuhod	-6098
▁tutol	-6099
Salamat	-6100
akbuhan	-6101
akdaang	-6102
aligaya	-6103
amasdan	-6104
amtaman	-6105
angging	-6106
apitong	-6107
arangal	-6108
arangan	-6109
atayuan	-6110
ersidad	-6111
ilinang	-6112
impalad	-6113
indihan	-6114
iniwala	-6115
iwayway	-6116
umanhin	-6117
untunan	-6118
▁Abyang	-6119
▁Batooy	-6120
▁Buyung	-6121
▁Diyosa	-6122
▁Dumaan	-6123
▁Dunong	-6124
▁Gresya	-6125
▁Ibigin	-6126
▁Ipinas	-6127
▁Martin	-6128
▁Naiwan	-6129
▁Pecson	-6130
▁Tumayo	-6131
▁Umalis	-6132
▁amihan	-6133
▁aralin	-6134
▁awitin	-6135
▁bagang	-6136
▁bughaw	-6137
▁dahong	-6138
▁dusang	-6139
▁entity	-6140
▁espada	-6141
▁himala	-6142
▁hudyat	-6143
▁kaakit	-6144
▁kamang	-6145
▁karamp	-6146
▁langis	-6147
▁lungga	-6148
▁mabisa	-6149
▁mahaba	-6150
▁mainit	-6151
▁makain	-6152
▁minana	-6153
▁musiko	-6154
▁nagpak	-6155
▁narito	-6156
▁nasang	-6157
▁natamo	-6158
▁pagbib	-6159
▁pagbub	-6160
▁pagkas	-6161
▁pagkuk	-6162
▁pansit	-6163
▁parusa	-6164
▁pastol	-6165
▁perang	-6166
▁piitan	-6167
▁pinags	-6168
▁pinaka	-6169
▁pisngi	-6170
▁saklaw	-6171
▁sansin	-6172
▁sumuko	-6173
▁tahana	-6174
▁taksil	-6175
ahangaan	-6176
alarawan	-6177
ampangan	-6178
angkahoy	-6179
atutupad	-6180
ighatian	-6181
potlight	-6182
urusahan	-6183
▁Babalik	-6184
▁Bagamat	-6185
▁Bumalik	-6186
▁Daigdig	-6187
▁Karapat	-6188
▁Lalabas	-6189
▁Matulog	-6190
▁Naalala	-6191
▁Natakot	-6192
▁Pranses	-6193
▁Pumayag	-6194
▁Reynong	-6195
▁Timoteo	-6196
▁aliping	-6197
▁autonom	-6198
▁bakante	-6199
▁basahin	-6200
▁bawasan	-6201
▁busilak	-6202
▁dinggin	-6203
▁diumano	-6204
▁gaanong	-6205
▁gumamit	-6206
▁hidwaan	-6207
▁itataas	-6208
▁kabihas	-6209
▁karwahe	-6210
▁katipan	-6211
▁kawalan	-6212
▁lalabas	-6213
▁mababaw	-6214
▁magkaka	-6215
▁matikas	-6216
▁nabuwal	-6217
▁nagbago	-6218
▁nagdala	-6219
▁nangags	-6220
▁napakat	-6221
▁naunang	-6222
▁negrito	-6223
▁pagbasa	-6224
▁partido	-6225
▁pautang	-6226
▁pisikal	-6227
▁pumatay	-6228
▁ratipik	-6229
▁salamat	-6230
▁sinulat	-6231
▁sobrang	-6232
▁sumisid	-6233
▁supling	-6234
▁takdang	-6235
▁tuluyan	-6236
▁tumanda	-6237
▁tumugon	-6238
▁watawat	-6239
amadaling	-6240
anggalang	-6241
asaysayan	-6242
ibilanggo	-6243
inabangan	-6244
istradong	-6245
▁Alindaya	-6246
▁Artikulo	-6247
▁Carolino	-6248
▁Dulliyaw	-6249
▁Espanyol	-6250
▁Gabinete	-6251
▁Kapitana	-6252
▁Magulang	-6253
▁Naalaala	-6254
▁Nagbalik	-6255
▁Narating	-6256
▁Sandoval	-6257
▁Talisain	-6258
▁Tulungan	-6259
▁bersiyon	-6260
▁bibigkas	-6261
▁binuksan	-6262
▁gobyerno	-6263
▁gumaling	-6264
▁gunitain	-6265
▁halalang	-6266
▁hukumang	-6267
▁ipalabas	-6268
▁isinulat	-6269
▁itinanim	-6270
▁itinapon	-6271
▁itinatag	-6272
▁kadakila	-6273
▁kampupot	-6274
▁kasuotan	-6275
▁katauhan	-6276
▁kinakain	-6277
▁magbigay	-6278
▁magising	-6279
▁magkakas	-6280
▁masining	-6281
▁naglalag	-6282
▁paggiliw	-6283
▁pagmamay	-6284
▁pamalagi	-6285
▁panaghoy	-6286
▁panimdim	-6287
▁pinunong	-6288
▁puntahan	-6289
▁rehiyong	-6290
▁salaming	-6291
▁sariwang	-6292
▁tagapagl	-6293
▁tagapayo	-6294
▁tanungin	-6295
▁tinatang	-6296
apastangan	-6297
▁Bonifacio	-6298
▁asosasyon	-6299
▁ipinakita	-6300
▁kalusugan	-6301
▁kandungan	-6302
▁kapatagan	-6303
▁kasamaang	-6304
▁kasipagan	-6305
▁kilalanin	-6306
▁makabalik	-6307
▁malalakas	-6308
▁matagpuan	-6309
▁matatawag	-6310
▁naglahong	-6311
▁nagsisisi	-6312
▁nakasakay	-6313
▁namumuhay	-6314
▁natutuhan	-6315
▁nilalaman	-6316
▁pagkakita	-6317
▁pagsilang	-6318
▁pasalamat	-6319
▁plebisito	-6320
▁porsyento	-6321
▁sinasamba	-6322
▁tagubilin	-6323
▁tradisyon	-6324
itolohiyang	-6325
▁Balintawak	-6326
▁Kinikilala	-6327
▁Salawikain	-6328
▁alalahanin	-6329
▁binibigkas	-6330
▁dumarating	-6331
▁engkantada	-6332
▁ginintuang	-6333
▁ipagkaloob	-6334
▁itinatakda	-6335
▁kabalagtas	-6336
▁kakayahang	-6337
▁kapirasong	-6338
▁lingkurang	-6339
▁maghiganti	-6340
▁magpakasal	-6341
▁maningning	-6342
▁masasabing	-6343
▁masasayang	-6344
▁matalinong	-6345
▁nasasaklaw	-6346
▁pagkabuhay	-6347
▁pagtatanim	-6348
▁referendum	-6349
▁salawikain	-6350
▁sinilangan	-6351
▁sumailalim	-6352
▁tutulungan	-6353
apangyarihan	-6354
▁Pransiskano	-6355
▁deklarasyon	-6356
▁katedratiko	-6357
▁maglalakbay	-6358
▁nakalimutan	-6359
▁paghihintay	-6360
▁pangalawang	-6361
▁pangasiwaan	-6362
▁tagapagmana	-6363
▁ipinagkaloob	-6364
▁labingwalong	-6365
▁paglalarawan	-6366
▁pagtatanggol	-6367
▁pinakamataas	-6368
▁labindalawang	-6369
▁napakagandang	-6370
▁pagpapahalaga	-6371
▁Nanunungkulang	-6372
▁pananampalataya	-6373
2)	-6374
AH	-6375
ST	-6376
ac	-6377
dr	-6378
sh	-6379
vo	-6380
ING	-6381
Ina	-6382
Mal	-6383
Tut	-6384
adl	-6385
arl	-6386
bit	-6387
dak	-6388
eda	-6389
ere	-6390
eri	-6391
etr	-6392
gon	-6393
hay	-6394
inl	-6395
kam	-6396
mak	-6397
mar	-6398
obl	-6399
osa	-6400
reg	-6401
rer	-6402
ter	-6403
uer	-6404
ulg	-6405
uos	-6406
wat	-6407
wis	-6408
zar	-6409
▁(3	-6410
▁AT	-6411
▁Em	-6412
▁En	-6413
▁Id	-6414
▁Jo	-6415
▁Pe	-6416
▁Uv	-6417
▁VI	-6418
▁br	-6419
▁iw	-6420
▁ts	-6421
,000	-6422
ITAN	-6423
Kaya	-6424
Magp	-6425
Sino	-6426
aapi	-6427
abos	-6428
adem	-6429
agon	-6430
ahen	-6431
ahid	-6432
akal	-6433
aloy	-6434
apor	-6435
apup	-6436
aram	-6437
aris	-6438
arya	-6439
asid	-6440
bata	-6441
buan	-6442
entr	-6443
esta	-6444
esus	-6445
etro	-6446
iiba	-6447
iimb	-6448
illa	-6449
imba	-6450
inom	-6451
iong	-6452
ipis	-6453
iton	-6454
itre	-6455
klus	-6456
laro	-6457
mata	-6458
nais	-6459
oral	-6460
puso	-6461
ramo	-6462
siya	-6463
tama	-6464
tong	-6465
uing	-6466
ukad	-6467
ukas	-6468
ukaw	-6469
ulas	-6470
unaw	-6471
unyi	-6472
uwak	-6473
uwis	-6474
▁20.	-6475
▁21.	-6476
▁Aba	-6477
▁Ale	-6478
▁Bit	-6479
▁Dom	-6480
▁Fel	-6481
▁Huk	-6482
▁Ilo	-6483
▁Jat	-6484
▁Kem	-6485
▁Los	-6486
▁Mac	-6487
▁Med	-6488
▁Niy	-6489
▁Pia	-6490
▁Put	-6491
▁Rom	-6492
▁Sas	-6493
▁Tik	-6494
▁Umi	-6495
▁Val	-6496
▁aan	-6497
▁ala	-6498
▁amb	-6499
▁amp	-6500
▁ber	-6501
▁daa	-6502
▁dam	-6503
▁dat	-6504
▁det	-6505
▁dis	-6506
▁doo	-6507
▁dos	-6508
▁gar	-6509
▁gas	-6510
▁hit	-6511
▁lup	-6512
▁nob	-6513
▁nya	-6514
▁ord	-6515
▁pen	-6516
▁pri	-6517
▁sol	-6518
▁sun	-6519
▁tip	-6520
▁yao	-6521
Diyos	-6522
Isang	-6523
aalis	-6524
abago	-6525
agwan	-6526
ahiga	-6527
ainit	-6528
aktan	-6529
alata	-6530
anhin	-6531
ataon	-6532
awiin	-6533
bayat	-6534
handa	-6535
iglig	-6536
ikaan	-6537
ikano	-6538
intak	-6539
intal	-6540
ipagt	-6541
ipang	-6542
ipeng	-6543
isong	-6544
itain	-6545
iwant	-6546
oloko	-6547
onang	-6548
opiya	-6549
opong	-6550
palit	-6551
ubing	-6552
ubkob	-6553
ubund	-6554
ukala	-6555
uktot	-6556
ungaw	-6557
ungay	-6558
ungit	-6559
uutos	-6560
uwalh	-6561
wayen	-6562
yerta	-6563
▁Ahhh	-6564
▁Amer	-6565
▁Andr	-6566
▁Dula	-6567
▁Gran	-6568
▁Kiko	-6569
▁Magl	-6570
▁Naka	-6571
▁Nanl	-6572
▁Napa	-6573
▁Noli	-6574
▁Rita	-6575
▁Ulan	-6576
▁Uwak	-6577
▁alay	-6578
▁bati	-6579
▁daig	-6580
▁eduk	-6581
▁gawi	-6582
▁hits	-6583
▁hiya	-6584
▁ingk	-6585
▁ipak	-6586
▁ipan	-6587
▁ipap	-6588
▁iyak	-6589
▁karn	-6590
▁kibo	-6591
▁komp	-6592
▁krus	-6593
▁nagg	-6594
▁pagw	-6595
▁paka	-6596
▁pers	-6597
▁purg	-6598
▁sant	-6599
▁sump	-6600
▁taos	-6601
▁tema	-6602
▁unos	-6603
▁usok	-6604
Ngayon	-6605
Ngunit	-6606
abagay	-6607
agayan	-6608
ahanga	-6609
ahinto	-6610
ahunan	-6611
alalay	-6612
aliwan	-6613
aluhan	-6614
alunan	-6615
amahin	-6616
amasid	-6617
anawan	-6618
angang	-6619
anggal	-6620
angkat	-6621
ansala	-6622
apakan	-6623
astila	-6624
asundo	-6625
egrama	-6626
emonya	-6627
endeng	-6628
entibo	-6629
halang	-6630
ibuhin	-6631
ilibot	-6632
imatay	-6633
ipitas	-6634
isdaan	-6635
mangan	-6636
oblema	-6637
otroso	-6638
tataka	-6639
ubhang	-6640
ulinig	-6641
uluyan	-6642
umbong	-6643
umento	-6644
umihan	-6645
▁Bagyo	-6646
▁Batid	-6647
▁Doron	-6648
▁Handi	-6649
▁Huwan	-6650
▁Ilian	-6651
▁Iyong	-6652
▁Luzon	-6653
▁Masas	-6654
▁Nakas	-6655
▁Natat	-6656
▁Natut	-6657
▁Noche	-6658
▁Pasig	-6659
▁Pilit	-6660
▁Sagot	-6661
▁Sangk	-6662
▁Santo	-6663
▁Siyam	-6664
▁Tatlo	-6665
▁Tinat	-6666
▁Tuloy	-6667
▁Wigan	-6668
▁agila	-6669
▁amain	-6670
▁anito	-6671
▁bakol	-6672
▁balot	-6673
▁bayad	-6674
▁bigat	-6675
▁bilis	-6676
▁bingi	-6677
▁braso	-6678
▁bumab	-6679
▁daloy	-6680
▁dukha	-6681
▁ganid	-6682
▁gayun	-6683
▁gipit	-6684
▁gulat	-6685
▁hamon	-6686
▁hangi	-6687
▁hawla	-6688
▁himig	-6689
▁hinuh	-6690
▁ingat	-6691
▁ingay	-6692
▁ipagt	-6693
▁isama	-6694
▁kakan	-6695
▁karta	-6696
▁kasam	-6697
▁kuwad	-6698
▁lawak	-6699
▁limit	-6700
▁lipos	-6701
▁lupit	-6702
▁malig	-6703
▁mamum	-6704
▁mapup	-6705
▁minsa	-6706
▁minum	-6707
▁monar	-6708
▁nahih	-6709
▁nakay	-6710
▁nasok	-6711
▁nuong	-6712
▁parol	-6713
▁paunl	-6714
▁pauwi	-6715
▁pondo	-6716
▁sabik	-6717
▁sakay	-6718
▁sakop	-6719
▁salaw	-6720
▁sukab	-6721
▁sumus	-6722
▁tagpo	-6723
▁tinik	-6724
▁ulila	-6725
▁upuan	-6726
▁wasto	-6727
Lalapit	-6728
Sabihin	-6729
ahalata	-6730
akailan	-6731
akainin	-6732
aksihan	-6733
aksilan	-6734
alaging	-6735
alayuan	-6736
ambitan	-6737
amitang	-6738
ariling	-6739
asyahan	-6740
asyonal	-6741
ayamang	-6742
ayanang	-6743
bitinan	-6744
erasyon	-6745
isipang	-6746
itingin	-6747
tuwiran	-6748
umbalik	-6749
umbayan	-6750
umunuan	-6751
unguhan	-6752
uniguni	-6753
uspindi	-6754
utulong	-6755
▁Andeng	-6756
▁Bahagi	-6757
▁Bituin	-6758
▁Espada	-6759
▁Halika	-6760
▁Inisip	-6761
▁Laking	-6762
▁Ligaya	-6763
▁Maaari	-6764
▁Maliit	-6765
▁Mangga	-6766
▁Nasabi	-6767
▁Natuwa	-6768
▁Paalam	-6769
▁Pinagb	-6770
▁Puting	-6771
▁Uvigan	-6772
▁Yamang	-6773
▁agawin	-6774
▁anghel	-6775
▁bating	-6776
▁bigkas	-6777
▁bubong	-6778
▁butong	-6779
▁dragon	-6780
▁dumaan	-6781
▁ganang	-6782
▁haligi	-6783
▁hangal	-6784
▁ihanda	-6785
▁iharap	-6786
▁ilipat	-6787
▁inggit	-6788
▁inibig	-6789
▁inumin	-6790
▁inutos	-6791
▁isinas	-6792
▁kaagaw	-6793
▁kalong	-6794
▁kampan	-6795
▁kampon	-6796
▁kanino	-6797
▁kapang	-6798
▁karagd	-6799
▁karsel	-6800
▁kastil	-6801
▁katoto	-6802
▁lalake	-6803
▁magkat	-6804
▁mapait	-6805
▁misyon	-6806
▁nagbib	-6807
▁naghah	-6808
▁nahuli	-6809
▁nakang	-6810
▁natalo	-6811
▁pamana	-6812
▁panreh	-6813
▁pantas	-6814
▁papuri	-6815
▁paskil	-6816
▁patpat	-6817
▁piloto	-6818
▁pinili	-6819
▁produk	-6820
▁pumili	-6821
▁puring	-6822
▁rarang	-6823
▁sinong	-6824
▁taguan	-6825
▁tugtog	-6826
▁turuan	-6827
▁umaasa	-6828
alaganap	-6829
alangkas	-6830
anggapin	-6831
ihimutok	-6832
istulang	-6833
itingala	-6834
undangan	-6835
▁Council	-6836
▁Ingkong	-6837
▁Jatakas	-6838
▁KAPITAN	-6839
▁Liwanag	-6840
▁Lumakad	-6841
▁Magmula	-6842
▁Malapit	-6843
▁Marahil	-6844
▁Maranao	-6845
▁Matsing	-6846
▁Nalbuan	-6847
▁Panahon	-6848
▁Pandora	-6849
▁Patuloy	-6850
▁Persyan	-6851
▁Pinilit	-6852
▁Sapagka	-6853
▁Sinikap	-6854
▁Tangere	-6855
▁alagang	-6856
▁angking	-6857
▁bagamat	-6858
▁biyenan	-6859
▁bunying	-6860
▁dadalaw	-6861
▁eksklus	-6862
▁handaan	-6863
▁hawakan	-6864
▁hitsura	-6865
▁humanap	-6866
▁humanga	-6867
▁huminga	-6868
▁huminto	-6869
▁ibabang	-6870
▁ikaapat	-6871
▁inilaan	-6872
▁itanong	-6873
▁itinayo	-6874
▁kahanga	-6875
▁kahawig	-6876
▁kaparte	-6877
▁kapisan	-6878
▁kastila	-6879
▁kinalag	-6880
▁komedya	-6881
▁lumaban	-6882
▁maalala	-6883
▁magiliw	-6884
▁magkita	-6885
▁magsabi	-6886
▁magtiis	-6887
▁mahalin	-6888
▁makapal	-6889
▁malasin	-6890
▁mapatay	-6891
▁matalik	-6892
▁matipid	-6893
▁matulog	-6894
▁nadinig	-6895
▁nasapit	-6896
▁palitan	-6897
▁pangkap	-6898
▁panulat	-6899
▁papatay	-6900
▁pasakit	-6901
▁patawad	-6902
▁payagan	-6903
▁pighati	-6904
▁sumayaw	-6905
▁sumbong	-6906
▁sumikat	-6907
▁tanawin	-6908
▁taunang	-6909
▁timbang	-6910
▁tinungo	-6911
▁torogan	-6912
▁totoong	-6913
▁tumakbo	-6914
▁tumungo	-6915
▁tungkod	-6916
▁umiibig	-6917
ahulugang	-6918
alamutian	-6919
alastasan	-6920
amanhikan	-6921
anatiling	-6922
apalooban	-6923
awagayway	-6924
ibersidad	-6925
ihinagpis	-6926
ilanganin	-6927
inungkahi	-6928
▁Gayundin	-6929
▁Handiong	-6930
▁Kayganda	-6931
▁Kembayat	-6932
▁Mabuting	-6933
▁Magbitag	-6934
▁Magwayen	-6935
▁Makikita	-6936
▁Nagising	-6937
▁Nakiusap	-6938
▁Nalimbag	-6939
▁Namangha	-6940
▁Persiyus	-6941
▁Sinapati	-6942
▁alinmang	-6943
▁binibini	-6944
▁dalangin	-6945
▁dosenang	-6946
▁espiritu	-6947
▁gampanan	-6948
▁halagang	-6949
▁hangarin	-6950
▁hinagkan	-6951
▁ikinasal	-6952
▁inaakala	-6953
▁inilagay	-6954
▁kaayusan	-6955
▁kakilala	-6956
▁kamataya	-6957
▁karimlan	-6958
▁katawang	-6959
▁kawawang	-6960
▁kuliglig	-6961
▁ligayang	-6962
▁lipunang	-6963
▁magbayad	-6964
▁magiting	-6965
▁magkakat	-6966
▁magmahal	-6967
▁magpapat	-6968
▁mamasyal	-6969
▁manggang	-6970
▁manugang	-6971
▁matuling	-6972
▁mayabang	-6973
▁nagagawa	-6974
▁nagpasya	-6975
▁nahuhuli	-6976
▁nakausap	-6977
▁nalalabi	-6978
▁naliligo	-6979
▁naturang	-6980
▁natutong	-6981
▁pabulang	-6982
▁paghawak	-6983
▁pagkakal	-6984
▁paglutas	-6985
▁pagpasok	-6986
▁pagpunta	-6987
▁pagsunod	-6988
▁pagtulog	-6989
▁pasyahan	-6990
▁payapang	-6991
▁personal	-6992
▁prayleng	-6993
▁priority	-6994
▁pulutong	-6995
▁sabayang	-6996
▁sabungan	-6997
▁tanghali	-6998
▁tumulong	-6999
akatuparan	-7000
atutunayan	-7001
uwalhating	-7002
▁Ibinalita	-7003
▁Inalagaan	-7004
▁Katunayan	-7005
▁Magandang	-7006
▁Makatunao	-7007
▁Naririnig	-7008
▁Sinimulan	-7009
▁Tenoriong	-7010
▁benepisyo	-7011
▁direksyon	-7012
▁gumagamit	-7013
▁gumaganap	-7014
▁halimuyak	-7015
▁ibinalita	-7016
▁iniligtas	-7017
▁insentibo	-7018
▁kabanalan	-7019
▁kabayaran	-7020
▁kaguluhan	-7021
▁kahusayan	-7022
▁kakahuyan	-7023
▁kalupitan	-7024
▁kamahalan	-7025
▁kasabikan	-7026
▁kondisyon	-7027
▁magaganda	-7028
▁magkabisa	-7029
▁magkasama	-7030
▁magpaalam	-7031
▁makabayan	-7032
▁masasarap	-7033
▁mayoryang	-7034
▁nagdurusa	-7035
▁naglalaro	-7036
▁nagsabing	-7037
▁nailigtas	-7038
▁nakaharap	-7039
▁nakasabit	-7040
▁pagkikita	-7041
▁paglalaro	-7042
▁pagsasama	-7043
▁pagsulong	-7044
▁pagtatalo	-7045
▁pahayagan	-7046
▁pakasalan	-7047
▁pangalawa	-7048
▁pangitain	-7049
▁panunumpa	-7050
▁parusahan	-7051
▁patungong	-7052
▁regulahin	-7053
▁repormang	-7054
▁spotlight	-7055
▁telegrama	-7056
aalinlangan	-7057
▁Ginbitinan	-7058
▁Kaligirang	-7059
▁Karaniwang	-7060
▁Pangasinan	-7061
▁Panitikang	-7062
▁autonomous	-7063
▁hatinggabi	-7064
▁kagamitang	-7065
▁kaligtasan	-7066
▁kaparaanan	-7067
▁katakdaang	-7068
▁kinikilala	-7069
▁mahihirang	-7070
▁makamandag	-7071
▁makatulong	-7072
▁matuklasan	-7073
▁nagbabadya	-7074
▁nagpakasal	-7075
▁nagpasalin	-7076
▁naramdaman	-7077
▁paghihirap	-7078
▁paglilipat	-7079
▁paglilitis	-7080
▁pagsasanay	-7081
▁pagtanggap	-7082
▁pangunguna	-7083
▁panibagong	-7084
▁sawimpalad	-7085
▁teritoryal	-7086
▁Ipinagtapat	-7087
▁Ipinakiusap	-7088
▁balahibuhin	-7089
▁ipinakilala	-7090
▁kailanganin	-7091
▁kapanatagan	-7092
▁kapighatian	-7093
▁karagdagang	-7094
▁nagdiriwang	-7095
▁naglalakbay	-7096
▁nagsisimula	-7097
▁nagtagumpay	-7098
▁pagkukulang	-7099
▁pagtitiwala	-7100
▁pamumuhunan	-7101
▁pananalakay	-7102
▁panghukuman	-7103
▁pinarusahan	-7104
▁bungangkahoy	-7105
▁kinatatayuan	-7106
▁kinauukulang	-7107
▁mahahalagang	-7108
▁makapaniwala	-7109
▁mangyayaring	-7110
▁nakararaming	-7111
▁nakasalubong	-7112
▁napakalaking	-7113
▁pahintulutan	-7114
▁ratipikasyon	-7115
▁rehistradong	-7116
▁sandaigdigan	-7117
▁kakailanganin	-7118
▁Interpretasyon	-7119
▁Pangkasaysayan	-7120
▁kinapapalooban	-7121
▁nagpapaliwanag	-7122
;"	-7123
AD	-7124
IL	-7125
Ia	-7126
Ul	-7127
bl	-7128
he	-7129
ho	-7130
Bin	-7131
III	-7132
Ing	-7133
Mat	-7134
Nap	-7135
bas	-7136
bgl	-7137
bid	-7138
cho	-7139
com	-7140
cos	-7141
dad	-7142
dig	-7143
eks	-7144
hih	-7145
ket	-7146
lod	-7147
mag	-7148
mah	-7149
may	-7150
mga	-7151
mpa	-7152
ond	-7153
pag	-7154
pus	-7155
ros	-7156
tak	-7157
udi	-7158
udy	-7159
ukd	-7160
uki	-7161
uma	-7162
wid	-7163
▁1:	-7164
▁2:	-7165
▁IV	-7166
▁Ph	-7167
▁el	-7168
▁ur	-7169
AMAN	-7170
Ikaw	-7171
Iyan	-7172
Mags	-7173
Saan	-7174
aham	-7175
amao	-7176
amoy	-7177
anso	-7178
ariw	-7179
arok	-7180
asim	-7181
atub	-7182
ayle	-7183
bers	-7184
bisa	-7185
cial	-7186
dala	-7187
diwa	-7188
ecto	-7189
elan	-7190
enda	-7191
eral	-7192
eron	-7193
gawa	-7194
guni	-7195
hhhh	-7196
horn	-7197
ibal	-7198
ibis	-7199
ihip	-7200
ikil	-7201
ikip	-7202
ilok	-7203
inoo	-7204
irat	-7205
irit	-7206
itay	-7207
itna	-7208
lain	-7209
mong	-7210
napu	-7211
omez	-7212
onio	-7213
orin	-7214
paro	-7215
rado	-7216
rati	-7217
reng	-7218
reto	-7219
taka	-7220
taon	-7221
ugho	-7222
ulos	-7223
umpo	-7224
unik	-7225
uray	-7226
usad	-7227
usaw	-7228
uyas	-7229
▁199	-7230
▁22.	-7231
▁Apo	-7232
▁Bah	-7233
▁Bai	-7234
▁Bun	-7235
▁Cir	-7236
▁Hah	-7237
▁Kad	-7238
▁Kur	-7239
▁Mom	-7240
▁Nin	-7241
▁Per	-7242
▁Sis	-7243
▁Sus	-7244
▁amo	-7245
▁api	-7246
▁aya	-7247
▁bik	-7248
▁con	-7249
▁dad	-7250
▁dur	-7251
▁etn	-7252
▁gam	-7253
▁gug	-7254
▁hag	-7255
▁ipa	-7256
▁tub	-7257
Anupa	-7258
Babae	-7259
Epiko	-7260
Nguni	-7261
UNONG	-7262
abata	-7263
abigo	-7264
abola	-7265
agaan	-7266
agpas	-7267
agtas	-7268
agupa	-7269
akasi	-7270
akong	-7271
aligo	-7272
ambog	-7273
amnan	-7274
ampal	-7275
ampok	-7276
angin	-7277
angya	-7278
antao	-7279
anubo	-7280
areal	-7281
aruan	-7282
asmin	-7283
bigay	-7284
bisig	-7285
gunam	-7286
hindi	-7287
idlan	-7288
ihina	-7289
ikman	-7290
ilian	-7291
inaas	-7292
inlok	-7293
intab	-7294
iring	-7295
iwaga	-7296
iwika	-7297
lawan	-7298
lipad	-7299
luran	-7300
nayon	-7301
oklam	-7302
ormal	-7303
osyon	-7304
pangh	-7305
peras	-7306
rinig	-7307
tamis	-7308
tazar	-7309
uking	-7310
ulgol	-7311
uluwa	-7312
umpok	-7313
unsod	-7314
uriin	-7315
usisa	-7316
▁Alem	-7317
▁Bata	-7318
▁Bumb	-7319
▁Cora	-7320
▁Dugo	-7321
▁Ilan	-7322
▁Kamp	-7323
▁Lahi	-7324
▁Lope	-7325
▁Maya	-7326
▁Mong	-7327
▁Paib	-7328
▁Puso	-7329
▁Samb	-7330
▁Sana	-7331
▁Sump	-7332
▁baro	-7333
▁basa	-7334
▁base	-7335
▁bida	-7336
▁bote	-7337
▁buti	-7338
▁daho	-7339
▁dini	-7340
▁dung	-7341
▁hina	-7342
▁hist	-7343
▁igat	-7344
▁item	-7345
▁itut	-7346
▁kayl	-7347
▁kump	-7348
▁kuts	-7349
▁lamp	-7350
▁laot	-7351
▁liig	-7352
▁lobo	-7353
▁lolo	-7354
▁look	-7355
▁maik	-7356
▁muni	-7357
▁nala	-7358
▁onsa	-7359
▁pait	-7360
▁paru	-7361
▁plat	-7362
▁publ	-7363
▁sanl	-7364
▁sasa	-7365
▁sawi	-7366
▁simb	-7367
▁tamb	-7368
▁tawa	-7369
▁test	-7370
▁tubo	-7371
▁tunt	-7372
▁uwak	-7373
Alamat	-7374
Mabuti	-7375
Ulitin	-7376
aanong	-7377
abalot	-7378
abasag	-7379
abawas	-7380
aganay	-7381
agayon	-7382
agusto	-7383
ahilan	-7384
akante	-7385
alakan	-7386
alalim	-7387
alanan	-7388
alasik	-7389
aliang	-7390
aligid	-7391
alisin	-7392
alismo	-7393
amaliw	-7394
ambang	-7395
arahas	-7396
aranas	-7397
atahan	-7398
ataong	-7399
atayan	-7400
atiran	-7401
awahan	-7402
awirin	-7403
ayanig	-7404
dalang	-7405
hangad	-7406
idigma	-7407
igipit	-7408
igyang	-7409
iimbot	-7410
ilahok	-7411
iligid	-7412
ingiti	-7413
ingkad	-7414
insala	-7415
isdang	-7416
istang	-7417
onggon	-7418
oyagan	-7419
raming	-7420
saysay	-7421
ugasan	-7422
uluhod	-7423
undang	-7424
upiter	-7425
ustang	-7426
utlang	-7427
▁Aniya	-7428
▁Anupa	-7429
▁Baran	-7430
▁Bukid	-7431
▁Gomez	-7432
▁Ilong	-7433
▁Jesus	-7434
▁Kapwa	-7435
▁Lalap	-7436
▁Latin	-7437
▁Lubos	-7438
▁Nakal	-7439
▁Samar	-7440
▁Tomas	-7441
▁agham	-7442
▁along	-7443
▁aring	-7444
▁awang	-7445
▁babas	-7446
▁baong	-7447
▁basta	-7448
▁bibit	-7449
▁binhi	-7450
▁bulsa	-7451
▁bungo	-7452
▁duhat	-7453
▁galaw	-7454
▁ganti	-7455
▁gilid	-7456
▁ginag	-7457
▁ginug	-7458
▁iiwan	-7459
▁ilaan	-7460
▁ipagl	-7461
▁ituro	-7462
▁kaany	-7463
▁kahin	-7464
▁kaisa	-7465
▁kaita	-7466
▁kamao	-7467
▁karak	-7468
▁karne	-7469
▁katiw	-7470
▁kumot	-7471
▁labag	-7472
▁lagay	-7473
▁lalim	-7474
▁lawin	-7475
▁layon	-7476
▁legal	-7477
▁luksa	-7478
▁magig	-7479
▁magpa	-7480
▁napah	-7481
▁napan	-7482
▁napip	-7483
▁ngala	-7484
▁ngiti	-7485
▁nimpa	-7486
▁niyog	-7487
▁pakir	-7488
▁paman	-7489
▁patat	-7490
▁perya	-7491
▁pinah	-7492
▁pulis	-7493
▁pumup	-7494
▁saang	-7495
▁sinab	-7496
▁takbo	-7497
▁talam	-7498
▁talip	-7499
▁tanso	-7500
▁tatak	-7501
▁tigib	-7502
▁tinit	-7503
▁trans	-7504
▁tukso	-7505
▁ulang	-7506
▁urban	-7507
▁yakap	-7508
▁yumao	-7509
Lalabas	-7510
Uulitin	-7511
aalaala	-7512
aalipin	-7513
aanyong	-7514
aaralan	-7515
abilang	-7516
adalhan	-7517
ahihiya	-7518
akaloob	-7519
akitaan	-7520
alayong	-7521
alinhan	-7522
amahagi	-7523
amangka	-7524
amayang	-7525
andaang	-7526
anggawa	-7527
angkisa	-7528
aralang	-7529
arinlan	-7530
atapuwa	-7531
etropol	-7532
hikayat	-7533
igiting	-7534
ilingon	-7535
imagsik	-7536
inggang	-7537
intasan	-7538
inyagan	-7539
itanong	-7540
tikular	-7541
ugunita	-7542
▁Aanhin	-7543
▁Etolya	-7544
▁Felipo	-7545
▁Ganito	-7546
▁Hasmin	-7547
▁Indiyo	-7548
▁Kayong	-7549
▁Kristo	-7550
▁Magpap	-7551
▁Malaya	-7552
▁Matang	-7553
▁Nagpap	-7554
▁Nagsis	-7555
▁Pagtat	-7556
▁Pantay	-7557
▁Prayle	-7558
▁Rogong	-7559
▁Silang	-7560
▁Taglay	-7561
▁Tiyani	-7562
▁Yaring	-7563
▁baging	-7564
▁binati	-7565
▁daanan	-7566
▁dulang	-7567
▁gastos	-7568
▁ginang	-7569
▁hapong	-7570
▁higaan	-7571
▁ibalik	-7572
▁ihatid	-7573
▁imahen	-7574
▁inspir	-7575
▁intern	-7576
▁kabibe	-7577
▁kagaya	-7578
▁kataka	-7579
▁kaunti	-7580
▁kinain	-7581
▁kwento	-7582
▁lagyan	-7583
▁laruan	-7584
▁lintik	-7585
▁maalam	-7586
▁maaliw	-7587
▁magpak	-7588
▁mailap	-7589
▁mainam	-7590
▁masabi	-7591
▁masdan	-7592
▁matamo	-7593
▁matuto	-7594
▁maubos	-7595
▁muntik	-7596
▁naakit	-7597
▁nagdad	-7598
▁nagdur	-7599
▁nagnin	-7600
▁nakiki	-7601
▁nangas	-7602
▁napili	-7603
▁ngipin	-7604
▁nobela	-7605
▁pagrer	-7606
▁pakana	-7607
▁pareho	-7608
▁pasiya	-7609
▁pating	-7610
▁paulit	-7611
▁sabing	-7612
▁sariwa	-7613
▁siguro	-7614
▁superb	-7615
▁tabako	-7616
▁tanyag	-7617
▁tatayo	-7618
▁tulain	-7619
▁tumama	-7620
▁tumpak	-7621
▁tuwang	-7622
▁tuyong	-7623
▁ulirat	-7624
▁umagaw	-7625
▁umahon	-7626
▁walong	-7627
........	-7628
aakalang	-7629
adlangan	-7630
ahamakan	-7631
ahambing	-7632
alapitan	-7633
alikabok	-7634
alinhaga	-7635
alumpati	-7636
amangkin	-7637
aysayang	-7638
iligawan	-7639
ingkuran	-7640
intangan	-7641
liwayway	-7642
ulantang	-7643
▁Bandila	-7644
▁Corazon	-7645
▁Epikong	-7646
▁Ginoong	-7647
▁Granada	-7648
▁Hagibis	-7649
▁Ikalawa	-7650
▁Kawayan	-7651
▁Lumabas	-7652
▁Lumatay	-7653
▁Lumikha	-7654
▁Mabigat	-7655
▁Malabon	-7656
▁Mariano	-7657
▁Nagulat	-7658
▁Nawalan	-7659
▁Ngayong	-7660
▁Paganay	-7661
▁Pinakam	-7662
▁Sabihin	-7663
▁Tumawag	-7664
▁bendita	-7665
▁bumubuo	-7666
▁dalawin	-7667
▁dinakip	-7668
▁dukhang	-7669
▁emosyon	-7670
▁ganyang	-7671
▁ginugol	-7672
▁gumanap	-7673
▁hatulan	-7674
▁huwaran	-7675
▁ibababa	-7676
▁inaasam	-7677
▁ingkong	-7678
▁ipaalam	-7679
▁ipinagd	-7680
▁ipinagk	-7681
▁italaga	-7682
▁kalaing	-7683
▁kamalig	-7684
▁kandong	-7685
▁kariton	-7686
▁kristal	-7687
▁kuwitis	-7688
▁lambing	-7689
▁mabatid	-7690
▁magbago	-7691
▁magluto	-7692
▁magtago	-7693
▁makinig	-7694
▁malapad	-7695
▁mamuhay	-7696
▁mamunga	-7697
▁mangung	-7698
▁mapigil	-7699
▁marupok	-7700
▁masapit	-7701
▁masukal	-7702
▁matakot	-7703
▁matigas	-7704
▁matulad	-7705
▁mawalan	-7706
▁minahal	-7707
▁monarka	-7708
▁mundong	-7709
▁naalala	-7710
▁nabatid	-7711
▁nabihag	-7712
▁nagkita	-7713
▁nagtago	-7714
▁nagwika	-7715
▁namamah	-7716
▁natigil	-7717
▁nilisan	-7718
▁papaano	-7719
▁papeles	-7720
▁papunta	-7721
▁paputok	-7722
▁pigilin	-7723
▁pinilit	-7724
▁pribado	-7725
▁publiko	-7726
▁sayawan	-7727
▁sinagot	-7728
▁sinapup	-7729
▁sugatan	-7730
▁sultana	-7731
▁sumigaw	-7732
▁tangang	-7733
▁tatawag	-7734
▁tinipon	-7735
▁tinugon	-7736
▁tumawag	-7737
▁utusang	-7738
▁yumaong	-7739
agalingan	-7740
akiusapan	-7741
alinghaga	-7742
apagaling	-7743
ihinatnan	-7744
ihinayang	-7745
intakutan	-7746
iwantiwan	-7747
otohanang	-7748
relihiyon	-7749
stitusyon	-7750
untaryong	-7751
▁Batangas	-7752
▁Bumbaran	-7753
▁Floresca	-7754
▁Hiniling	-7755
▁Mangyari	-7756
▁Masinlok	-7757
▁Naisipan	-7758
▁Pambansa	-7759
▁Parabula	-7760
▁Sabayang	-7761
▁Sampalok	-7762
▁Simbahan	-7763
▁Tumulong	-7764
▁bangkang	-7765
▁batingaw	-7766
▁bunganga	-7767
▁daraanan	-7768
▁hinintay	-7769
▁humirang	-7770
▁iniaalay	-7771
▁kabaitan	-7772
▁kailalim	-7773
▁kawayang	-7774
▁komisyon	-7775
▁lalagyan	-7776
▁lansones	-7777
▁libangan	-7778
▁liwayway	-7779
▁lubusang	-7780
▁lumuluha	-7781
▁magarang	-7782
▁magtuloy	-7783
▁maibigan	-7784
▁makaalis	-7785
▁makapags	-7786
▁makausap	-7787
▁malalaki	-7788
▁malamlam	-7789
▁maliligo	-7790
▁malumbay	-7791
▁mapagkuk	-7792
▁maybahay	-7793
▁ministro	-7794
▁nadarama	-7795
▁nagdaang	-7796
▁naghirap	-7797
▁naglilip	-7798
▁nakaraan	-7799
▁nakiusap	-7800
▁nanatili	-7801
▁pagbalik	-7802
▁pagkamam	-7803
▁paglikha	-7804
▁paglipas	-7805
▁pagtawag	-7806
▁panlabas	-7807
▁pantalon	-7808
▁papalayo	-7809
▁parabola	-7810
▁paruparo	-7811
▁petisyon	-7812
▁pinakain	-7813
▁pinansin	-7814
▁problema	-7815
▁salaping	-7816
▁seksyong	-7817
▁taguring	-7818
▁tinangay	-7819
▁tinubuan	-7820
▁tugtugin	-7821
▁tumindig	-7822
▁tumingin	-7823
▁tumugtog	-7824
agkaibigan	-7825
oklamasyon	-7826
pakinabang	-7827
▁Baranugun	-7828
▁Dinoyagan	-7829
▁Kailanman	-7830
▁Karamihan	-7831
▁Kayamanan	-7832
▁Lumilitaw	-7833
▁Maririnig	-7834
▁Nagsimula	-7835
▁Nararapat	-7836
▁Pagkakita	-7837
▁Paiborong	-7838
▁Sandaling	-7839
▁artilyero	-7840
▁banyagang	-7841
▁dokumento	-7842
▁ekonomiya	-7843
▁hangganan	-7844
▁hiningang	-7845
▁ikinulong	-7846
▁inaasahan	-7847
▁ipagbawal	-7848
▁isalaysay	-7849
▁kabukiran	-7850
▁kagamitan	-7851
▁kagawaran	-7852
▁kaisipang	-7853
▁kaitaasan	-7854
▁kalawakan	-7855
▁kandidato	-7856
▁kapisanan	-7857
▁kasamahan	-7858
▁katunayan	-7859
▁katuwiran	-7860
▁kaunlaran	-7861
▁kumikilos	-7862
▁mabangong	-7863
▁magdamdam	-7864
▁magkaanak	-7865
▁magtaglay	-7866
▁magtamasa	-7867
▁makatulog	-7868
▁malalapad	-7869
▁mamahalin	-7870
▁mananakop	-7871
▁mapalagay	-7872
▁mapanglaw	-7873
▁naaangkop	-7874
▁nagbabago	-7875
▁nagtatago	-7876
▁nakabitin	-7877
▁nakalaban	-7878
▁nakalipas	-7879
▁nakaraang	-7880
▁nakayanan	-7881
▁nalilikha	-7882
▁nasusulat	-7883
▁natatanaw	-7884
▁paggalang	-7885
▁pagnanasa	-7886
▁pagsasabi	-7887
▁pagtingin	-7888
▁pagtitiis	-7889
▁pakinggan	-7890
▁pamangkin	-7891
▁pambayang	-7892
▁pangalang	-7893
▁pangwakas	-7894
▁panibugho	-7895
▁paumanhin	-7896
▁paunlarin	-7897
▁prangkisa	-7898
▁pulitikal	-7899
▁pupugutan	-7900
▁sasakyang	-7901
▁seremonya	-7902
▁sumalakay	-7903
▁tumutukoy	-7904
▁tumututol	-7905
etropolitan	-7906
panghukuman	-7907
▁Ipinatawag	-7908
▁Lalapindig	-7909
▁Magindanao	-7910
▁Naniniwala	-7911
▁Pambansang	-7912
▁Pilosopong	-7913
▁Sampaguita	-7914
▁bilanggong	-7915
▁binubuksan	-7916
▁gumagapang	-7917
▁hanapbuhay	-7918
▁hinihiling	-7919
▁industriya	-7920
▁ipinatawag	-7921
▁kadakilaan	-7922
▁kagalingan	-7923
▁kalinangan	-7924
▁kaluluwang	-7925
▁katamtaman	-7926
▁katiwalian	-7927
▁kinatawang	-7928
▁mababangis	-7929
▁mabalitaan	-7930
▁maghiwalay	-7931
▁maglingkod	-7932
▁makatwiran	-7933
▁mangangaso	-7934
▁mapagtibay	-7935
▁mapanganib	-7936
▁mapapansin	-7937
▁nagkasundo	-7938
▁nagpahatid	-7939
▁nakapaloob	-7940
▁nakararami	-7941
▁nalalabing	-7942
▁nanatiling	-7943
▁pagbanggit	-7944
▁pagbibitiw	-7945
▁pagkakaiba	-7946
▁pagpaplano	-7947
▁pagsasayaw	-7948
▁pagtatatag	-7949
▁pagtitipon	-7950
▁pakiramdam	-7951
▁pamamasyal	-7952
▁pamanhikan	-7953
▁pamayanang	-7954
▁pangangaso	-7955
▁pangisdaan	-7956
▁panitikang	-7957
▁partikular	-7958
▁pinangalan	-7959
▁pinapansin	-7960
▁prinsipeng	-7961
▁programang	-7962
▁proteksyon	-7963
▁purgatoryo	-7964
▁sandatahan	-7965
▁sasailalim	-7966
▁tinulungan	-7967
▁tungkuling	-7968
▁Sandatahang	-7969
▁Unibersidad	-7970
▁hinahangaan	-7971
▁impormasyon	-7972
▁inihahandog	-7973
▁inspirasyon	-7974
▁kadahilanan	-7975
▁kagalingang	-7976
▁kapahamakan	-7977
▁kapaligiran	-7978
▁karampatang	-7979
▁karunungang	-7980
▁magpanatili	-7981
▁nagsasalita	-7982
▁nangangamba	-7983
▁nangangarap	-7984
▁napangasawa	-7985
▁pagkakasala	-7986
▁pakakasalan	-7987
▁palatandaan	-7988
▁pamalagiang	-7989
▁pilibustero	-7990
▁siyamnapung	-7991
▁teknolohiya	-7992
▁Maniwantiwan	-7993
▁Salamangkero	-7994
▁kamangmangan	-7995
▁katanghalian	-7996
▁kinikilalang	-7997
▁konstitusyon	-7998
▁nagkahiwalay	-7999
▁naglalarawan	-8000
▁nagpapahayag	-8001
▁napakaraming	-8002
▁nararamdaman	-8003
▁pagpapakasal	-8004
▁pagpapatuloy	-8005
▁pangangasiwa	-8006
▁pansamantala	-8007
▁pinaghalalan	-8008
▁pinamumunuan	-8009
▁ipinagbabawal	-8010
▁ipinagpatuloy	-8011
▁mangingisdang	-8012
▁nagpapakilala	-8013
▁nagsasalaysay	-8014
▁organisasyong	-8015
▁pagkakapantay	-8016
▁pinakamahusay	-8017
▁pakikipaglaban	-8018
3:	-8019
9)	-8020
Ak	-8021
In	-8022
Is	-8023
OM	-8024
Si	-8025
UL	-8026
ce	-8027
cu	-8028
ef	-8029
fi	-8030
ki	-8031
oc	-8032
▁f	-8033
All	-8034
Bal	-8035
INI	-8036
LAK	-8037
Mak	-8038
Mas	-8039
Opo	-8040
Pag	-8041
Sin	-8042
ais	-8043
ams	-8044
bos	-8045
cav	-8046
ehe	-8047
eod	-8048
get	-8049
him	-8050
ibi	-8051
iki	-8052
ikn	-8053
itn	-8054
kit	-8055
kol	-8056
kom	-8057
lor	-8058
loy	-8059
mad	-8060
nit	-8061
nos	-8062
omb	-8063
ood	-8064
ote	-8065
owa	-8066
pay	-8067
pio	-8068
pok	-8069
rid	-8070
rim	-8071
roc	-8072
sip	-8073
ton	-8074
tot	-8075
usy	-8076
uth	-8077
ven	-8078
was	-8079
▁12	-8080
▁3:	-8081
▁4:	-8082
▁5:	-8083
▁6:	-8084
▁9:	-8085
▁Be	-8086
▁Hi	-8087
▁Oy	-8088
▁er	-8089
▁se	-8090
▁ti	-8091
ANDA	-8092
APAT	-8093
Anak	-8094
Andr	-8095
IPAG	-8096
Kasi	-8097
Pero	-8098
Tama	-8099
aala	-8100
abut	-8101
agak	-8102
agip	-8103
ahaw	-8104
alau	-8105
alop	-8106
alya	-8107
ando	-8108
apwa	-8109
arat	-8110
aray	-8111
asay	-8112
asko	-8113
atok	-8114
awas	-8115
ayom	-8116
cala	-8117
dand	-8118
echo	-8119
empo	-8120
epay	-8121
erat	-8122
fina	-8123
ibok	-8124
ibre	-8125
ikaw	-8126
ilbi	-8127
ilyo	-8128
imat	-8129
impi	-8130
inal	-8131
ipol	-8132
iwil	-8133
luko	-8134
lupa	-8135
mura	-8136
onya	-8137
otea	-8138
pine	-8139
port	-8140
puti	-8141
rami	-8142
saan	-8143
sala	-8144
sidi	-8145
tion	-8146
uest	-8147
ulig	-8148
ulta	-8149
umba	-8150
unyo	-8151
upig	-8152
urol	-8153
urot	-8154
▁(19	-8155
▁...	-8156
▁10:	-8157
▁Dis	-8158
▁Gar	-8159
▁Lag	-8160
▁Mel	-8161
▁Nor	-8162
▁Pah	-8163
▁Sol	-8164
▁Tao	-8165
▁Tay	-8166
▁Tok	-8167
▁Tut	-8168
▁Uri	-8169
▁Yum	-8170
▁bih	-8171
▁duk	-8172
▁emp	-8173
▁gus	-8174
▁ibo	-8175
▁iis	-8176
▁iya	-8177
▁lat	-8178
▁law	-8179
▁lus	-8180
▁pir	-8181
▁rek	-8182
▁rel	-8183
▁ret	-8184
▁tah	-8185
▁tir	-8186
Galit	-8187
Gusto	-8188
Higit	-8189
Kapag	-8190
aalab	-8191
aaway	-8192
abaya	-8193
abeas	-8194
aguri	-8195
alamb	-8196
alaot	-8197
alina	-8198
alipo	-8199
amaya	-8200
amiha	-8201
anaig	-8202
anood	-8203
apagp	-8204
apuan	-8205
arant	-8206
arayo	-8207
arida	-8208
asaan	-8209
asabi	-8210
astas	-8211
atiis	-8212
audit	-8213
ayari	-8214
cavay	-8215
encia	-8216
endag	-8217
engke	-8218
giliw	-8219
hanga	-8220
hikoy	-8221
idang	-8222
igang	-8223
imili	-8224
imiti	-8225
imlim	-8226
impal	-8227
inaos	-8228
inggo	-8229
ingil	-8230
ingon	-8231
inung	-8232
ipint	-8233
isina	-8234
iskis	-8235
istis	-8236
kamay	-8237
lahat	-8238
lipat	-8239
lumpu	-8240
nilay	-8241
obern	-8242
okawa	-8243
otong	-8244
paman	-8245
pirit	-8246
sahan	-8247
silim	-8248
ubdan	-8249
ubsob	-8250
ugbog	-8251
umahe	-8252
ungot	-8253
upaan	-8254
upong	-8255
uulit	-8256
weldo	-8257
westo	-8258
yawan	-8259
▁Abot	-8260
▁Aila	-8261
▁Anya	-8262
▁Asya	-8263
▁Atis	-8264
▁Baut	-8265
▁Guev	-8266
▁Haba	-8267
▁Ibon	-8268
▁Iday	-8269
▁Igin	-8270
▁Impo	-8271
▁Inih	-8272
▁Ipak	-8273
▁Juli	-8274
▁Kaig	-8275
▁Magp	-8276
▁Mand	-8277
▁Maru	-8278
▁Mind	-8279
▁Ngum	-8280
▁Pagl	-8281
▁Pagm	-8282
▁Seus	-8283
▁Sing	-8284
▁Teod	-8285
▁Toni	-8286
▁Tubo	-8287
▁Utos	-8288
▁Wari	-8289
▁asin	-8290
▁bisa	-8291
▁bola	-8292
▁buod	-8293
▁disk	-8294
▁ebid	-8295
▁gabe	-8296
▁gamp	-8297
▁halo	-8298
▁ihip	-8299
▁ikal	-8300
▁ikas	-8301
▁impl	-8302
▁inir	-8303
▁inis	-8304
▁itak	-8305
▁kapa	-8306
▁kaut	-8307
▁laro	-8308
▁lima	-8309
▁lins	-8310
▁magw	-8311
▁maya	-8312
▁mura	-8313
▁nati	-8314
▁over	-8315
▁pili	-8316
▁pipi	-8317
▁plan	-8318
▁puro	-8319
▁pusp	-8320
▁sent	-8321
▁sige	-8322
▁sipi	-8323
▁sugo	-8324
▁susi	-8325
▁tamp	-8326
▁tant	-8327
▁tore	-8328
▁tung	-8329
▁utop	-8330
▁uuwi	-8331
Ingles	-8332
Tatayo	-8333
Walang	-8334
aantay	-8335
abalag	-8336
abaril	-8337
abuhay	-8338
aginan	-8339
ahawak	-8340
akaisa	-8341
akapit	-8342
akasan	-8343
alasap	-8344
alayin	-8345
alikha	-8346
alipin	-8347
amalay	-8348
amilya	-8349
angako	-8350
aniban	-8351
antaon	-8352
anting	-8353
arlika	-8354
asahan	-8355
aspang	-8356
atanas	-8357
atanim	-8358
ayunan	-8359
dandan	-8360
enteng	-8361
entral	-8362
hagang	-8363
ibayan	-8364
ibilog	-8365
igmang	-8366
ihinto	-8367
ilabas	-8368
ilahin	-8369
ilibak	-8370
ilikot	-8371
ilipas	-8372
iliwan	-8373
iluhan	-8374
inhing	-8375
inisid	-8376
ipigil	-8377
ipilit	-8378
isigla	-8379
itikan	-8380
itnaan	-8381
itungo	-8382
iwasay	-8383
limang	-8384
masaya	-8385
okasta	-8386
operat	-8387
orotan	-8388
sindak	-8389
syonal	-8390
ubunga	-8391
ubuwal	-8392
ukuban	-8393
ulanit	-8394
ultura	-8395
ulutan	-8396
umpaan	-8397
ungkal	-8398
untung	-8399
unuran	-8400
unwari	-8401
uparin	-8402
upling	-8403
urayan	-8404
utukan	-8405
utulan	-8406
yaring	-8407
▁Basta	-8408
▁Batas	-8409
▁Beata	-8410
▁Binab	-8411
▁Cirio	-8412
▁Dahon	-8413
▁Dinar	-8414
▁Duhat	-8415
▁Epiko	-8416
▁GANDA	-8417
▁Ganda	-8418
▁Gener	-8419
▁Grupo	-8420
▁Handa	-8421
▁Hesuk	-8422
▁Hunyo	-8423
▁Indio	-8424
▁Kalik	-8425
▁Kanya	-8426
▁Katap	-8427
▁Lamut	-8428
▁Limay	-8429
▁Makan	-8430
▁Malin	-8431
▁Mateo	-8432
▁Miram	-8433
▁Namum	-8434
▁Pakik	-8435
▁Pasta	-8436
▁Pepay	-8437
▁Pinoy	-8438
▁Rabut	-8439
▁SIPAG	-8440
▁Sabay	-8441
▁Tanag	-8442
▁Tinay	-8443
▁Tugon	-8444
▁YAMAN	-8445
▁Yaman	-8446
▁animo	-8447
▁aruga	-8448
▁asong	-8449
▁balae	-8450
▁balag	-8451
▁bangg	-8452
▁banig	-8453
▁banta	-8454
▁bihag	-8455
▁biyas	-8456
▁dagta	-8457
▁dapit	-8458
▁darak	-8459
▁dasal	-8460
▁dayap	-8461
▁dinad	-8462
▁disip	-8463
▁dulot	-8464
▁erehe	-8465
▁gaano	-8466
▁hanay	-8467
▁hango	-8468
▁hatid	-8469
▁hibik	-8470
▁hilaw	-8471
▁hinog	-8472
▁hipan	-8473
▁hiram	-8474
▁iraos	-8475
▁isina	-8476
▁kabin	-8477
▁kahon	-8478
▁kakat	-8479
▁kapan	-8480
▁kapup	-8481
▁katay	-8482
▁katul	-8483
▁kinam	-8484
▁kiwil	-8485
▁kumuk	-8486
▁kurik	-8487
▁kuwar	-8488
▁lasak	-8489
▁libis	-8490
▁lungg	-8491
▁maari	-8492
▁maawa	-8493
▁malas	-8494
▁maliw	-8495
▁mapam	-8496
▁marir	-8497
▁masak	-8498
▁matul	-8499
▁moral	-8500
▁naawa	-8501
▁nagsi	-8502
▁nahan	-8503
▁nakag	-8504
▁nakib	-8505
▁pabor	-8506
▁pagda	-8507
▁paral	-8508
▁pares	-8509
▁parir	-8510
▁paris	-8511
▁pasan	-8512
▁payak	-8513
▁petsa	-8514
▁plasa	-8515
▁saksi	-8516
▁saliw	-8517
▁salop	-8518
▁samyo	-8519
▁sanay	-8520
▁sikap	-8521
▁silbi	-8522
▁sipag	-8523
▁supot	-8524
▁tanan	-8525
▁tanga	-8526
▁tanik	-8527
▁tapis	-8528
▁tatay	-8529
▁tawad	-8530
▁tindi	-8531
▁tingn	-8532
▁titik	-8533
▁tugma	-8534
▁tungg	-8535
▁tunod	-8536
Andrade	-8537
Maynila	-8538
agaslas	-8539
aladkad	-8540
alaglag	-8541
ambibig	-8542
andahan	-8543
andugan	-8544
antihan	-8545
aragdag	-8546
atayong	-8547
awaglit	-8548
imitivo	-8549
intulad	-8550
isasyon	-8551
iwasang	-8552
labanan	-8553
otabato	-8554
panahon	-8555
sidiary	-8556
ubungin	-8557
uhangin	-8558
ukadkad	-8559
uktutan	-8560
ungawan	-8561
unggali	-8562
urdahan	-8563
▁Alaala	-8564
▁Aleman	-8565
▁Anding	-8566
▁Androm	-8567
▁Bagama	-8568
▁Baysay	-8569
▁Binati	-8570
▁Carpio	-8571
▁Chikoy	-8572
▁DUNONG	-8573
▁Dalawa	-8574
▁Doming	-8575
▁Farida	-8576
▁Gulong	-8577
▁Gumawa	-8578
▁Impong	-8579
▁Ipinal	-8580
▁Iskong	-8581
▁Kinain	-8582
▁Linggo	-8583
▁Madrid	-8584
▁Pamaya	-8585
▁Pantao	-8586
▁Perlas	-8587
▁Philip	-8588
▁Romano	-8589
▁Sileno	-8590
▁Sinong	-8591
▁aksyon	-8592
▁aktwal	-8593
▁ayusin	-8594
▁babala	-8595
▁balana	-8596
▁balong	-8597
▁bihasa	-8598
▁bilhin	-8599
▁birhen	-8600
▁budget	-8601
▁bumasa	-8602
▁bumati	-8603
▁corpus	-8604
▁damdam	-8605
▁dumapo	-8606
▁estilo	-8607
▁galang	-8608
▁gitara	-8609
▁habeas	-8610
▁hagdan	-8611
▁hingin	-8612
▁humina	-8613
▁ibigin	-8614
▁ihalal	-8615
▁imbing	-8616
▁inabot	-8617
▁intsik	-8618
▁inukol	-8619
▁isipin	-8620
▁kaanak	-8621
▁kadete	-8622
▁kaginh	-8623
▁kahima	-8624
▁kambal	-8625
▁kapaki	-8626
▁krimen	-8627
▁kukong	-8628
▁kumita	-8629
▁lalung	-8630
▁lambak	-8631
▁lanubo	-8632
▁layang	-8633
▁lingap	-8634
▁lobong	-8635
▁lugami	-8636
▁maalis	-8637
▁madugo	-8638
▁madula	-8639
▁magdad	-8640
▁mahika	-8641
▁maingg	-8642
▁mamili	-8643
▁mamuno	-8644
▁mapagl	-8645
▁mapapa	-8646
▁mapili	-8647
▁nagapi	-8648
▁naghim	-8649
▁nagpas	-8650
▁nagsip	-8651
▁nagtut	-8652
▁naipag	-8653
▁namuno	-8654
▁napagb	-8655
▁napagk	-8656
▁napapa	-8657
▁natuto	-8658
▁ninais	-8659
▁ningas	-8660
▁ninong	-8661
▁orasan	-8662
▁pagmum	-8663
▁palalo	-8664
▁pamalo	-8665
▁panaho	-8666
▁patula	-8667
▁punung	-8668
▁putong	-8669
▁puwang	-8670
▁pwersa	-8671
▁record	-8672
▁sayang	-8673
▁sindak	-8674
▁sweldo	-8675
▁titulo	-8676
▁tiyaga	-8677
▁trumpo	-8678
▁tumira	-8679
▁umisip	-8680
▁unahan	-8681
▁winika	-8682
aginipan	-8683
ahatulan	-8684
alambing	-8685
alatkayo	-8686
aligtaan	-8687
alimuyak	-8688
amakaawa	-8689
anggapan	-8690
anggulan	-8691
angkutan	-8692
apalitan	-8693
arungang	-8694
asiyahan	-8695
awakawak	-8696
ihingalo	-8697
ingganda	-8698
ipinsala	-8699
paaralan	-8700
practice	-8701
ulinigan	-8702
▁Abuhing	-8703
▁Antonio	-8704
▁Basahin	-8705
▁Bulusan	-8706
▁Bungang	-8707
▁Datapwa	-8708
▁Donggon	-8709
▁Elenang	-8710
▁Ginamit	-8711
▁Huminto	-8712
▁Ikaapat	-8713
▁Ilianon	-8714
▁Iniibig	-8715
▁Iniutos	-8716
▁Larawan	-8717
▁Lubhang	-8718
▁Mabuhay	-8719
▁Madilim	-8720
▁Masakit	-8721
▁Masarap	-8722
▁Matanda	-8723
▁Munting	-8724
▁Pablito	-8725
▁Pumunta	-8726
▁Sampung	-8727
▁Satanas	-8728
▁Sicavay	-8729
▁Sumakay	-8730
▁Sumpain	-8731
▁Tahimik	-8732
▁Teodoro	-8733
▁Toniong	-8734
▁Tumalon	-8735
▁Walayin	-8736
▁akalain	-8737
▁alapaap	-8738
▁baguhin	-8739
▁balabal	-8740
▁batisan	-8741
▁bayaang	-8742
▁baywang	-8743
▁bituing	-8744
▁bumabag	-8745
▁bumbong	-8746
▁buwitre	-8747
▁dagitin	-8748
▁dininig	-8749
▁gamutin	-8750
▁ginamot	-8751
▁gitnang	-8752
▁gugulin	-8753
▁hanggan	-8754
▁hayaang	-8755
▁hinango	-8756
▁hinarap	-8757
▁hiniram	-8758
▁hinubog	-8759
▁hulihin	-8760
▁humawak	-8761
▁humilig	-8762
▁hustong	-8763
▁ibayong	-8764
▁ilibing	-8765
▁inaawit	-8766
▁inakala	-8767
▁ipinagm	-8768
▁isagawa	-8769
▁isipang	-8770
▁itinago	-8771
▁kalahok	-8772
▁kalinga	-8773
▁kanayon	-8774
▁kaparis	-8775
▁karibal	-8776
▁katiwas	-8777
▁kwartel	-8778
▁laganap	-8779
▁lalakad	-8780
▁langgam	-8781
▁lapatan	-8782
▁laruang	-8783
▁ligalig	-8784
▁luksang	-8785
▁lumahok	-8786
▁luntian	-8787
▁mabagal	-8788
▁mabango	-8789
▁mabigat	-8790
▁maestro	-8791
▁maganap	-8792
▁magtayo	-8793
▁mahalal	-8794
▁maiiwan	-8795
▁makakat	-8796
▁makamit	-8797
▁makasal	-8798
▁makatao	-8799
▁makisig	-8800
▁malusog	-8801
▁maluwag	-8802
▁mapatid	-8803
▁matalas	-8804
▁matinik	-8805
▁matulin	-8806
▁mawalay	-8807
▁mayorya	-8808
▁mineral	-8809
▁mithiin	-8810
▁mukhang	-8811
▁naglaho	-8812
▁nagsama	-8813
▁nagtamo	-8814
▁nakakap	-8815
▁nanatak	-8816
▁napagod	-8817
▁napatid	-8818
▁nariyan	-8819
▁natanaw	-8820
▁natupad	-8821
▁naulila	-8822
▁ninuman	-8823
▁nunukal	-8824
▁pabalik	-8825
▁pabango	-8826
▁pagboto	-8827
▁pagdaka	-8828
▁paitaas	-8829
▁palaboy	-8830
▁palapit	-8831
▁palayaw	-8832
▁pasukan	-8833
▁petsang	-8834
▁pinagka	-8835
▁pinanin	-8836
▁plumahe	-8837
▁pumalit	-8838
▁putukan	-8839
▁reynong	-8840
▁salawal	-8841
▁santong	-8842
▁sasabog	-8843
▁serbesa	-8844
▁sinasal	-8845
▁sinunod	-8846
▁siyudad	-8847
▁sulatin	-8848
▁tagapam	-8849
▁tanglaw	-8850
▁taniman	-8851
▁tinuran	-8852
▁tumutol	-8853
▁ulilang	-8854
agpatuloy	-8855
ahanggang	-8856
alatayang	-8857
alinangan	-8858
awanggawa	-8859
ipikasyon	-8860
iwangwang	-8861
obernador	-8862
unikasyon	-8863
▁Baltazar	-8864
▁Bautista	-8865
▁Doronoon	-8866
▁Guevarra	-8867
▁Halamang	-8868
▁Hilagang	-8869
▁Hukumang	-8870
▁Ibinigay	-8871
▁Kalabasa	-8872
▁Kalayaan	-8873
▁Kampupot	-8874
▁Karaniwa	-8875
▁Kasamang	-8876
▁Kristong	-8877
▁Kundiman	-8878
▁Mahalaga	-8879
▁Malaking	-8880
▁Menalipo	-8881
▁Nagbigay	-8882
▁Naghanda	-8883
▁Namalagi	-8884
▁Napadaan	-8885
▁Sinundan	-8886
▁Tanagyaw	-8887
▁Tinchang	-8888
▁Tumanggi	-8889
▁adhikain	-8890
▁akalaing	-8891
▁alikabok	-8892
▁balangay	-8893
▁bisperas	-8894
▁buhangin	-8895
▁bulubund	-8896
▁dagdagan	-8897
▁engkanto	-8898
▁gumagala	-8899
▁gumising	-8900
▁guniguni	-8901
▁halakhak	-8902
▁himalang	-8903
▁hinirang	-8904
▁ipagbili	-8905
▁ipinasya	-8906
▁isinilid	-8907
▁itatakda	-8908
▁kaanyuan	-8909
▁kabiguan	-8910
▁kahapong	-8911
▁kakaunti	-8912
▁kalayuan	-8913
▁kampilan	-8914
▁karakter	-8915
▁katagang	-8916
▁kawikaan	-8917
▁kinausap	-8918
▁kontrata	-8919
▁kubyerta	-8920
▁lumalaki	-8921
▁lumalang	-8922
▁lumangoy	-8923
▁luntiang	-8924
▁mababait	-8925
▁mababasa	-8926
▁madugong	-8927
▁magbubuk	-8928
▁magbunga	-8929
▁maghanap	-8930
▁maikling	-8931
▁makagawa	-8932
▁malambot	-8933
▁mapakali	-8934
▁mapansin	-8935
▁masasama	-8936
▁matataas	-8937
▁minokawa	-8938
▁mungkahi	-8939
▁nabahala	-8940
▁nagbuhat	-8941
▁nagising	-8942
▁naglaban	-8943
▁nagnakaw	-8944
▁nagsisip	-8945
▁nagtampo	-8946
▁naisipan	-8947
▁nakapang	-8948
▁namangha	-8949
▁namumuno	-8950
▁nanganak	-8951
▁napaiyak	-8952
▁natirang	-8953
▁ninanais	-8954
▁paanyaya	-8955
▁pabareal	-8956
▁pabayaan	-8957
▁pabigkas	-8958
▁pagbubuo	-8959
▁paggugol	-8960
▁pagkakab	-8961
▁pagkamak	-8962
▁pagkamat	-8963
▁paglahok	-8964
▁pagliyag	-8965
▁pagpigil	-8966
▁pagsasal	-8967
▁pagsikat	-8968
▁pagyaman	-8969
▁pakitang	-8970
▁palayain	-8971
▁palengke	-8972
▁pangahas	-8973
▁pangamba	-8974
▁panghabi	-8975
▁paniwala	-8976
▁pinakama	-8977
▁piyesang	-8978
▁propesor	-8979
▁puhunang	-8980
▁pulubing	-8981
▁saligang	-8982
▁sisidlan	-8983
▁sumaklaw	-8984
▁talangka	-8985
▁talipapa	-8986
▁tangkang	-8987
▁tinakpan	-8988
▁tinamaan	-8989
▁tinamong	-8990
▁titingin	-8991
▁tulisang	-8992
▁tumutubo	-8993
agkalooban	-8994
amantalang	-8995
ilingkuran	-8996
▁Amburayan	-8997
▁Binanggit	-8998
▁Binigyang	-8999
▁Disyembre	-9000
▁Guwardiya	-9001
▁Krotonang	-9002
▁Miramolin	-9003
▁Natagpuan	-9004
▁Pakinggan	-9005
▁Primitivo	-9006
▁Tanggapan	-9007
▁bahagyang	-9008
▁banggitin	-9009
▁binitiwan	-9010
▁hinaharap	-9011
▁ipinadala	-9012
▁itinanong	-9013
▁kabaliwan	-9014
▁kabatiran	-9015
▁kalakalan	-9016
▁kalinisan	-9017
▁kapurihan	-9018
▁kasabihan	-9019
▁kasagutan	-9020
▁kasunduan	-9021
▁katakdaan	-9022
▁katandaan	-9023
▁katuparan	-9024
▁kumakanta	-9025
▁lilimutin	-9026
▁lingkuran	-9027
▁lumalapit	-9028
▁mabubuhay	-9029
▁magagamit	-9030
▁magdiwang	-9031
▁maginhawa	-9032
▁magkaloob	-9033
▁magtanong	-9034
▁mahabagin	-9035
▁mahinhing	-9036
▁mailigtas	-9037
▁makalipad	-9038
▁makapasok	-9039
▁mananakaw	-9040
▁maririkit	-9041
▁masilayan	-9042
▁matutuhan	-9043
▁matutuloy	-9044
▁mumunting	-9045
▁nababagay	-9046
▁nababatid	-9047
▁nabanggit	-9048
▁nagaganap	-9049
▁nagdaraan	-9050
▁naghandog	-9051
▁nagigipit	-9052
▁nagkamali	-9053
▁nagsasaad	-9054
▁nagugutom	-9055
▁naiinggit	-9056
▁nakangiti	-9057
▁nakarinig	-9058
▁nalimutan	-9059
▁namamatay	-9060
▁napatigil	-9061
▁napilitan	-9062
▁nasilayan	-9063
▁nasugatan	-9064
▁nilagdaan	-9065
▁pagbabasa	-9066
▁pagdaraan	-9067
▁pagdaraos	-9068
▁pagdurusa	-9069
▁paglililo	-9070
▁pagnanais	-9071
▁pagsasaka	-9072
▁pagtataka	-9073
▁pagtugtog	-9074
▁pakakasal	-9075
▁pamilyang	-9076
▁pananamit	-9077
▁panginoon	-9078
▁patawarin	-9079
▁pinagpala	-9080
▁pinayuhan	-9081
▁pinipitas	-9082
▁pinuhunan	-9083
▁sertipiko	-9084
▁sinabihan	-9085
▁sinundang	-9086
▁sumasapit	-9087
▁tadhanang	-9088
akasalubong	-9089
asalukuyang	-9090
▁Gayunpaman	-9091
▁Hesukristo	-9092
▁Kaigorotan	-9093
▁Kalahating	-9094
▁Karapatang	-9095
▁Nabilanggo	-9096
▁Pagmamahal	-9097
▁Panganiban	-9098
▁Philippine	-9099
▁Pinuntahan	-9100
▁Saridandan	-9101
▁Silanganan	-9102
▁alimangong	-9103
▁apatnapung	-9104
▁binantayan	-9105
▁bukambibig	-9106
▁bumubulong	-9107
▁durungawan	-9108
▁edukasyong	-9109
▁ipinangako	-9110
▁itinanghal	-9111
▁kabuktutan	-9112
▁kaparangan	-9113
▁kapintasan	-9114
▁katularing	-9115
▁katunggali	-9116
▁kumikinang	-9117
▁linggatong	-9118
▁maaliwalas	-9119
▁mabubuting	-9120
▁magagaling	-9121
▁magbabalik	-9122
▁magigiting	-9123
▁magkasakit	-9124
▁magtaguyod	-9125
▁magtotroso	-9126
▁makikilala	-9127
▁maligayang	-9128
▁maramdamin	-9129
▁matulungan	-9130
▁mayayamang	-9131
▁nabalitaan	-9132
▁nabibilang	-9133
▁nagduruyan	-9134
▁naghihirap	-9135
▁naglalahad	-9136
▁naglalaman	-9137
▁nagmamahal	-9138
▁nakaligtas	-9139
▁nakatingin	-9140
▁nalilimbag	-9141
▁nanalangin	-9142
▁napakalaki	-9143
▁pagbabayad	-9144
▁pagbubukas	-9145
▁paghahalal	-9146
▁paghahamok	-9147
▁paglalayag	-9148
▁pagsalakay	-9149
▁pagtatakda	-9150
▁pakikipagk	-9151
▁panambitan	-9152
▁panrehiyon	-9153
▁papayagang	-9154
▁pasubaling	-9155
▁sinasabing	-9156
▁sinusundan	-9157
▁subsidiary	-9158
▁suliraning	-9159
▁talampakan	-9160
▁tinatanong	-9161
▁tradisyong	-9162
angailangang	-9163
▁Iminungkahi	-9164
▁Inanyayahan	-9165
▁Ipinakilala	-9166
▁Kahalagahan	-9167
▁inanyayahan	-9168
▁institusyon	-9169
▁ipaghiganti	-9170
▁isinalaysay	-9171
▁kumakatawan	-9172
▁magpakailan	-9173
▁magsasalita	-9174
▁mahihirapan	-9175
▁mainggiting	-9176
▁makakayanan	-9177
▁makasalanan	-9178
▁makipagkita	-9179
▁nagkakaroon	-9180
▁nagsimulang	-9181
▁nagtangkang	-9182
▁nagtatanong	-9183
▁nakatanggap	-9184
▁nakatatanda	-9185
▁nangungusap	-9186
▁napakaganda	-9187
▁pagdaralita	-9188
▁pagkagising	-9189
▁pagkakaagaw	-9190
▁pagkakaloob	-9191
▁pagpapatayo	-9192
▁pagsasarili	-9193
▁panggagamot	-9194
▁panghikayat	-9195
▁pasalamatan	-9196
▁sinapupunan	-9197
▁superbisyon	-9198
▁tatanggapin	-9199
▁tinatanggap	-9200
▁Nagpasalamat	-9201
▁boluntaryong	-9202
▁eksklusibong	-9203
▁engkantadong	-9204
▁ikinabubuhay	-9205
▁inilalarawan	-9206
▁kaginhawahan	-9207
▁kasangkapang	-9208
▁mandirigmang	-9209
▁naglilingkod	-9210
▁nagmistulang	-9211
▁nagngangalit	-9212
▁nagpasalamat	-9213
▁nagtatrabaho	-9214
▁nangangasiwa	-9215
▁paglingkuran	-9216
▁pagpapatupad	-9217
▁pagsasabatas	-9218
▁pagsisiyasat	-9219
▁pagtataguyod	-9220
▁patutunguhan	-9221
▁pinakamaliit	-9222
▁sangkatauhan	-9223
▁tagapagbatas	-9224
▁Lalapindigowa	-9225
▁instrumentong	-9226
▁internasyonal	-9227
▁magtatagumpay	-9228
▁makapagsalita	-9229
▁mangangalakal	-9230
▁mapapangasawa	-9231
▁nagniningning	-9232
▁pagkabilanggo	-9233
▁pagpapanatili	-9234
▁pinagtataguan	-9235
▁sertipikasyon	-9236
▁tagapagligtas	-9237
▁ipinagmamalaki	-9238
▁makapaghiganti	-9239
▁pagkamakabayan	-9240
▁pampangasiwaan	-9241
▁pangkapulungan	-9242
▁pansamantalang	-9243
▁pinagkautangan	-9244
▁tagapagtanggol	-9245
▁pinakamagandang	-9246
0)	-9247
5:	-9248
AW	-9249
Ar	-9250
HH	-9251
IM	-9252
YA	-9253
ew	-9254
ll	-9255
pi	-9256
uu	-9257
ve	-9258
ye	-9259
!!!	-9260
6-1	-9261
AMB	-9262
Dum	-9263
HAN	-9264
Hum	-9265
Kay	-9266
Low	-9267
Lum	-9268
Nag	-9269
Nin	-9270
Pap	-9271
Pas	-9272
Pin	-9273
Sap	-9274
Sas	-9275
Tit	-9276
ads	-9277
agn	-9278
ale	-9279
alm	-9280
apl	-9281
ayd	-9282
def	-9283
eme	-9284
erd	-9285
ese	-9286
ess	-9287
eth	-9288
gos	-9289
hid	-9290
ico	-9291
ide	-9292
iil	-9293
ily	-9294
iph	-9295
kok	-9296
ley	-9297
lib	-9298
lis	-9299
men	-9300
mok	-9301
mol	-9302
mos	-9303
neg	-9304
oli	-9305
opa	-9306
rap	-9307
ras	-9308
rib	-9309
rik	-9310
sar	-9311
ser	-9312
uar	-9313
uda	-9314
uhi	-9315
ule	-9316
uod	-9317
uoy	-9318
usm	-9319
uum	-9320
wil	-9321
yed	-9322
▁11	-9323
▁2,	-9324
▁Ch	-9325
▁Iw	-9326
▁Ku	-9327
▁Mo	-9328
▁Ro	-9329
▁Ya	-9330
▁ok	-9331
▁un	-9332
!...	-9333
Gaya	-9334
Ilog	-9335
Mbgl	-9336
Miya	-9337
Naku	-9338
Taga	-9339
Tayo	-9340
abad	-9341
abla	-9342
ahis	-9343
akop	-9344
alta	-9345
amil	-9346
apaw	-9347
aria	-9348
ario	-9349
atil	-9350
atim	-9351
atis	-9352
daka	-9353
dido	-9354
diin	-9355
dila	-9356
edia	-9357
elas	-9358
emok	-9359
emor	-9360
erpe	-9361
erti	-9362
gong	-9363
icol	-9364
idos	-9365
ikin	-9366
ilad	-9367
ilap	-9368
inio	-9369
inog	-9370
ipid	-9371
isil	-9372
iuna	-9373
kest	-9374
krip	-9375
kuro	-9376
laan	-9377
laki	-9378
muni	-9379
offi	-9380
oice	-9381
onso	-9382
otan	-9383
pala	-9384
rita	-9385
salo	-9386
sari	-9387
ship	-9388
stre	-9389
sura	-9390
ting	-9391
ubin	-9392
udla	-9393
uela	-9394
ugaw	-9395
uipo	-9396
uity	-9397
ukab	-9398
umid	-9399
umig	-9400
umon	-9401
upin	-9402
utik	-9403
uyot	-9404
uyur	-9405
wala	-9406
walo	-9407
wita	-9408
yena	-9409
yuko	-9410
▁11:	-9411
▁12:	-9412
▁13:	-9413
▁14:	-9414
▁15:	-9415
▁16:	-9416
▁19:	-9417
▁20:	-9418
▁21:	-9419
▁22:	-9420
▁23.	-9421
▁23:	-9422
▁24:	-9423
▁25,	-9424
▁25:	-9425
▁26:	-9426
▁29:	-9427
▁30:	-9428
▁Alb	-9429
▁Aya	-9430
▁Bud	-9431
▁Bur	-9432
▁Buw	-9433
▁Cap	-9434
▁Eto	-9435
▁Ger	-9436
▁Hab	-9437
▁Hig	-9438
▁Huh	-9439
▁Iya	-9440
▁Jac	-9441
▁Kaw	-9442
▁Kup	-9443
▁Leg	-9444
▁Mon	-9445
▁Nad	-9446
▁Nai	-9447
▁Neg	-9448
▁Pup	-9449
▁Sab	-9450
▁Sag	-9451
▁Sig	-9452
▁Teb	-9453
▁Tig	-9454
▁Toy	-9455
▁Uma	-9456
▁alp	-9457
▁arm	-9458
▁awt	-9459
▁bel	-9460
▁buo	-9461
▁dap	-9462
▁dug	-9463
▁gig	-9464
▁gul	-9465
▁iwi	-9466
▁lak	-9467
▁lal	-9468
▁lap	-9469
▁lay	-9470
▁leh	-9471
▁los	-9472
▁met	-9473
▁paw	-9474
▁pot	-9475
▁rad	-9476
▁sed	-9477
▁sep	-9478
▁sib	-9479
▁sos	-9480
▁tol	-9481
▁ung	-9482
Anong	-9483
Bayan	-9484
Buong	-9485
Dahan	-9486
Iiyak	-9487
Iyong	-9488
Lahat	-9489
Mahal	-9490
aalok	-9491
aanim	-9492
abawi	-9493
abida	-9494
adako	-9495
ading	-9496
adlad	-9497
adlak	-9498
adtad	-9499
agasa	-9500
agpak	-9501
akdal	-9502
aksak	-9503
akyan	-9504
alain	-9505
alaro	-9506
alisa	-9507
alsik	-9508
amisa	-9509
ampon	-9510
amsam	-9511
anaag	-9512
anasa	-9513
angga	-9514
antad	-9515
antas	-9516
anyak	-9517
apagt	-9518
apian	-9519
apito	-9520
apula	-9521
arhan	-9522
atian	-9523
atras	-9524
atriz	-9525
awagi	-9526
eatro	-9527
ehong	-9528
hikal	-9529
ibigo	-9530
ighan	-9531
igong	-9532
iklab	-9533
iknik	-9534
iksik	-9535
ility	-9536
imawa	-9537
imbar	-9538
impok	-9539
indol	-9540
indra	-9541
iraan	-9542
irapa	-9543
isama	-9544
iyano	-9545
kabit	-9546
kasan	-9547
labis	-9548
lakad	-9549
lanca	-9550
linga	-9551
mundo	-9552
negos	-9553
ports	-9554
rimon	-9555
silip	-9556
takot	-9557
tanaw	-9558
tanim	-9559
torya	-9560
ubaya	-9561
udyok	-9562
uerte	-9563
ugmok	-9564
uhian	-9565
ukano	-9566
uklam	-9567
uklas	-9568
uklay	-9569
ukump	-9570
ulain	-9571
ulano	-9572
ultur	-9573
uming	-9574
umpak	-9575
unday	-9576
ungal	-9577
urnal	-9578
using	-9579
uster	-9580
uyasu	-9581
yales	-9582
ythag	-9583
▁Alim	-9584
▁Apat	-9585
▁Birh	-9586
▁Cord	-9587
▁Daig	-9588
▁Dati	-9589
▁Idin	-9590
▁Iisa	-9591
▁Ilaw	-9592
▁Judi	-9593
▁Kano	-9594
▁Kasi	-9595
▁Kumb	-9596
▁Lamb	-9597
▁Lola	-9598
▁Lolo	-9599
▁Magu	-9600
▁Manl	-9601
▁Mata	-9602
▁Nina	-9603
▁Pagp	-9604
▁Paru	-9605
▁Pebo	-9606
▁Plat	-9607
▁Poon	-9608
▁Pulo	-9609
▁Sakb	-9610
▁Sama	-9611
▁Sang	-9612
▁Sige	-9613
▁Tama	-9614
▁Tata	-9615
▁Ubos	-9616
▁Yamb	-9617
▁atas	-9618
▁baha	-9619
▁balo	-9620
▁bulo	-9621
▁dapt	-9622
▁dipa	-9623
▁dumi	-9624
▁hapo	-9625
▁ilal	-9626
▁imbi	-9627
▁imik	-9628
▁ipab	-9629
▁itso	-9630
▁kara	-9631
▁kata	-9632
▁kati	-9633
▁kuko	-9634
▁kuro	-9635
▁libo	-9636
▁liku	-9637
▁lira	-9638
▁loro	-9639
▁maib	-9640
▁myth	-9641
▁naih	-9642
▁nana	-9643
▁oper	-9644
▁paki	-9645
▁pano	-9646
▁perp	-9647
▁porm	-9648
▁prof	-9649
▁pusa	-9650
▁pust	-9651
▁ramo	-9652
▁salu	-9653
▁samb	-9654
▁serp	-9655
▁solo	-9656
▁sukd	-9657
▁trah	-9658
▁tuka	-9659
▁turo	-9660
▁ubos	-9661
▁uhaw	-9662
▁uhay	-9663
▁utak	-9664
▁walo	-9665
Halina	-9666
Iaayon	-9667
Ibarra	-9668
Lalaki	-9669
Parang	-9670
aanang	-9671
aaruga	-9672
abilis	-9673
abulan	-9674
abusaw	-9675
ademya	-9676
adlang	-9677
agakat	-9678
agalak	-9679
agatin	-9680
ahaman	-9681
ahanay	-9682
ahasan	-9683
akahin	-9684
aksyon	-9685
alakip	-9686
alamig	-9687
alasan	-9688
alasin	-9689
alatag	-9690
alaueg	-9691
alayaw	-9692
alyero	-9693
ambong	-9694
amunin	-9695
andila	-9696
andili	-9697
angkot	-9698
anglaw	-9699
ansing	-9700
apalad	-9701
araing	-9702
arapin	-9703
arilin	-9704
arilyo	-9705
asalan	-9706
asigla	-9707
aunlad	-9708
awitan	-9709
ayawan	-9710
bahala	-9711
bulong	-9712
dakila	-9713
eriana	-9714
ernong	-9715
etheus	-9716
galang	-9717
gulong	-9718
hambal	-9719
idilig	-9720
idilim	-9721
igmaan	-9722
ihanap	-9723
ikaing	-9724
ikulan	-9725
ilabot	-9726
ilalas	-9727
ilipit	-9728
illera	-9729
imasok	-9730
inging	-9731
isihan	-9732
iwalat	-9733
iyawan	-9734
kainan	-9735
kislap	-9736
latera	-9737
lutang	-9738
minsan	-9739
orikal	-9740
padana	-9741
pagkat	-9742
parong	-9743
tulong	-9744
uardia	-9745
ubuang	-9746
ubukan	-9747
ugitan	-9748
ulagta	-9749
ulalas	-9750
ulanan	-9751
ulgado	-9752
ulihan	-9753
ulisan	-9754
uluwal	-9755
umanay	-9756
umusta	-9757
unugin	-9758
usulat	-9759
uunlad	-9760
waring	-9761
wiling	-9762
yerong	-9763
▁Adlaw	-9764
▁Asong	-9765
▁Ating	-9766
▁Ayoko	-9767
▁Batay	-9768
▁Bikol	-9769
▁Bukal	-9770
▁Bukas	-9771
▁Bunga	-9772
▁Dahan	-9773
▁Dinig	-9774
▁Edipo	-9775
▁Filib	-9776
▁Gawin	-9777
▁Gubat	-9778
▁Hawak	-9779
▁Hayop	-9780
▁Hesus	-9781
▁Hirap	-9782
▁Ibang	-9783
▁Ildef	-9784
▁Kapal	-9785
▁Kayum	-9786
▁Kinag	-9787
▁Laban	-9788
▁Lihim	-9789
▁Likas	-9790
▁Lumul	-9791
▁Luson	-9792
▁Maawa	-9793
▁Mapat	-9794
▁Marso	-9795
▁Momoy	-9796
▁Nanay	-9797
▁Odang	-9798
▁Panga	-9799
▁Pangg	-9800
▁Pilar	-9801
▁Polin	-9802
▁Recto	-9803
▁Sumas	-9804
▁Sunod	-9805
▁Takot	-9806
▁Tapat	-9807
▁Totoo	-9808
▁Tundo	-9809
▁Tungk	-9810
▁Umuwi	-9811
▁Waray	-9812
▁agnos	-9813
▁alkon	-9814
▁antok	-9815
▁anupa	-9816
▁bapor	-9817
▁beter	-9818
▁binit	-9819
▁bisyo	-9820
▁bitui	-9821
▁buena	-9822
▁certi	-9823
▁dawag	-9824
▁demok	-9825
▁dinam	-9826
▁dinig	-9827
▁doong	-9828
▁emper	-9829
▁gayak	-9830
▁guhit	-9831
▁gulok	-9832
▁gumug	-9833
▁gusot	-9834
▁hikaw	-9835
▁hinig	-9836
▁hitik	-9837
▁hitso	-9838
▁hulog	-9839
▁huwad	-9840
▁iabot	-9841
▁imbit	-9842
▁inimb	-9843
▁ipang	-9844
▁isasa	-9845
▁kahap	-9846
▁kalim	-9847
▁kapak	-9848
▁kapos	-9849
▁kasak	-9850
▁kasan	-9851
▁kaser	-9852
▁kasoy	-9853
▁katan	-9854
▁kayat	-9855
▁kinah	-9856
▁kisap	-9857
▁kisig	-9858
▁labin	-9859
▁labor	-9860
▁lalag	-9861
▁lalam	-9862
▁lente	-9863
▁limos	-9864
▁lupon	-9865
▁madad	-9866
▁makip	-9867
▁malal	-9868
▁manin	-9869
▁medyo	-9870
▁minim	-9871
▁mitsa	-9872
▁multo	-9873
▁nabuo	-9874
▁nahah	-9875
▁nakah	-9876
▁nakam	-9877
▁nalig	-9878
▁nanay	-9879
▁nanga	-9880
▁napal	-9881
▁napup	-9882
▁nilag	-9883
▁nomin	-9884
▁ordin	-9885
▁pahih	-9886
▁palig	-9887
▁panda	-9888
▁parte	-9889
▁patul	-9890
▁payag	-9891
▁pilat	-9892
▁pilay	-9893
▁pinar	-9894
▁plano	-9895
▁popul	-9896
▁pulos	-9897
▁pumap	-9898
▁punan	-9899
▁sakim	-9900
▁setro	-9901
▁sikdo	-9902
▁silya	-9903
▁sobra	-9904
▁subok	-9905
▁sunud	-9906
▁supil	-9907
▁suson	-9908
▁sutla	-9909
▁tagat	-9910
▁tatan	-9911
▁tikas	-9912
▁torso	-9913
▁trigo	-9914
▁tukod	-9915
▁unawa	-9916
▁walis	-9917
▁yabag	-9918
▁yagit	-9919
▁yugto	-9920
Ituturo	-9921
Papasok	-9922
Pilipin	-9923
Pupunta	-9924
aangkin	-9925
abasang	-9926
agmulan	-9927
ahabang	-9928
ahangga	-9929
akilang	-9930
alamuha	-9931
alasing	-9932
alastas	-9933
aligtad	-9934
alimuot	-9935
alisang	-9936
amasyal	-9937
ambilat	-9938
analapi	-9939
anghali	-9940
angyang	-9941
ansanan	-9942
apakpak	-9943
arausan	-9944
ariwara	-9945
asayang	-9946
asmasan	-9947
atangis	-9948
atubili	-9949
atulang	-9950
awagang	-9951
awangis	-9952
bibigay	-9953
enyente	-9954
hiwalay	-9955
iglahan	-9956
ikitang	-9957
ikiusap	-9958
intayin	-9959
isilang	-9960
isipsip	-9961
lawigan	-9962
officio	-9963
padahan	-9964
rocinio	-9965
ubulong	-9966
uhayang	-9967
ulangan	-9968
ulatang	-9969
umbasan	-9970
umiglas	-9971
usahang	-9972
ustuhin	-9973
▁Andong	-9974
▁Apollo	-9975
▁Balita	-9976
▁Banlak	-9977
▁Blanca	-9978
▁Buhong	-9979
▁Bumaba	-9980
▁Dakila	-9981
▁Ganoon	-9982
▁Halina	-9983
▁Hangin	-9984
▁Ikatlo	-9985
▁Ilongo	-9986
▁Inabot	-9987
▁Inalis	-9988
▁Ipugaw	-9989
▁Kabesa	-9990
▁Kagaya	-9991
▁Kidlat	-9992
▁Kikong	-9993
▁Kilala	-9994
▁Komite	-9995
▁Kuaman	-9996
▁Kuyasu	-9997
▁Laguna	-9998
▁Layang	-9999
▁Limang	-10000
▁Lumaki	-10001
▁Lumayo	-10002
▁Lunsod	-10003
▁Lupang	-10004
▁Mabini	-10005
▁Mainit	-10006
▁Maitim	-10007
▁Malayo	-10008
▁Manila	-10009
▁Masdan	-10010
▁Medusa	-10011
▁Nagsas	-10012
▁Nagtat	-10013
▁Nanaog	-10014
▁Napuna	-10015
▁Natawa	-10016
▁Niyong	-10017
▁Pabula	-10018
▁Pagkak	-10019
▁Pinagh	-10020
▁Pinags	-10021
▁Pinagt	-10022
▁Pythag	-10023
▁Sariwa	-10024
▁Sining	-10025
▁Tauhan	-10026
▁Toyang	-10027
▁Tuwing	-10028
▁Umahon	-10029
▁Umiyak	-10030
▁Yuyuko	-10031
▁abutin	-10032
▁agimat	-10033
▁alisin	-10034
▁alitan	-10035
▁artist	-10036
▁asahan	-10037
▁asotea	-10038
▁bagama	-10039
▁balite	-10040
▁bigkis	-10041
▁binili	-10042
▁bumili	-10043
▁bumuka	-10044
▁damhin	-10045
▁dangan	-10046
▁datung	-10047
▁dispos	-10048
▁dumami	-10049
▁eksena	-10050
▁employ	-10051
▁garuda	-10052
▁giting	-10053
▁gurong	-10054
▁gusali	-10055
▁halama	-10056
▁halong	-10057
▁hinala	-10058
▁hinhin	-10059
▁hinuli	-10060
▁ibayad	-10061
▁ikasal	-10062
▁ikinal	-10063
▁ikmong	-10064
▁imahin	-10065
▁impluw	-10066
▁inaapi	-10067
▁inisip	-10068
▁inuuna	-10069
▁ipinap	-10070
▁ipuipo	-10071
▁itapon	-10072
▁itsura	-10073
▁iwanan	-10074
▁kaanib	-10075
▁kainan	-10076
▁kalahi	-10077
▁kamusm	-10078
▁kanais	-10079
▁kanina	-10080
▁kapara	-10081
▁katawa	-10082
▁koalis	-10083
▁kompit	-10084
▁konsul	-10085
▁kumpas	-10086
▁kumpis	-10087
▁kurang	-10088
▁lagnat	-10089
▁lalayo	-10090
▁lampas	-10091
▁maagap	-10092
▁magkap	-10093
▁magtut	-10094
▁malaon	-10095
▁mapags	-10096
▁mapaso	-10097
▁marmol	-10098
▁marumi	-10099
▁masawi	-10100
▁masira	-10101
▁medium	-10102
▁mongha	-10103
▁mulala	-10104
▁munang	-10105
▁naglul	-10106
▁nagpan	-10107
▁nagsit	-10108
▁nahati	-10109
▁naipit	-10110
▁naluto	-10111
▁napuna	-10112
▁nasira	-10113
▁nasyon	-10114
▁natuwa	-10115
▁nayong	-10116
▁orkest	-10117
▁pagbuo	-10118
▁pagkar	-10119
▁palong	-10120
▁piping	-10121
▁propor	-10122
▁puspos	-10123
▁sabong	-10124
▁sakali	-10125
▁saklap	-10126
▁sakong	-10127
▁sastre	-10128
▁sawing	-10129
▁singaw	-10130
▁singil	-10131
▁sirain	-10132
▁subali	-10133
▁sumira	-10134
▁tagdan	-10135
▁tiniis	-10136
▁tiwala	-10137
▁tumula	-10138
▁tuwina	-10139
▁umabot	-10140
▁umakay	-10141
▁umimik	-10142
▁usbong	-10143
▁utopia	-10144
▁walump	-10145
▁wikain	-10146
Sapagkat	-10147
abalahan	-10148
abayaran	-10149
aganapan	-10150
aguriang	-10151
ahinuhod	-10152
alabasan	-10153
alikuran	-10154
amanglaw	-10155
apakinig	-10156
araanang	-10157
asunduan	-10158
atakutan	-10159
atanghal	-10160
bersyong	-10161
hinayang	-10162
igtasang	-10163
ihinging	-10164
ilanlang	-10165
ilimutan	-10166
iliwanag	-10167
inggitan	-10168
ipitagan	-10169
kalayuan	-10170
olohikal	-10171
pirasong	-10172
sarimbar	-10173
ubuhayin	-10174
ugtungan	-10175
ukuwento	-10176
ulturero	-10177
ungaling	-10178
ungkutin	-10179
yayahang	-10180
▁Bandina	-10181
▁Bantong	-10182
▁Birheng	-10183
▁Bitiwan	-10184
▁Cagayan	-10185
▁Dagling	-10186
▁Dinggin	-10187
▁Diumano	-10188
▁Europeo	-10189
▁Gagamba	-10190
▁Gintong	-10191
▁Haharap	-10192
▁Hinugot	-10193
▁Humanda	-10194
▁Ikalima	-10195
▁Ilukano	-10196
▁Jacinto	-10197
▁Journal	-10198
▁Kulaman	-10199
▁Layunin	-10200
▁Lumipad	-10201
▁Lumitaw	-10202
▁Mahalin	-10203
▁Malinaw	-10204
▁Mamatay	-10205
▁Matangi	-10206
▁Matigas	-10207
▁Mayaman	-10208
▁Nabatid	-10209
▁Nabigla	-10210
▁Nabuhay	-10211
▁Nakinig	-10212
▁Namutla	-10213
▁Nangako	-10214
▁Nanging	-10215
▁Napatay	-10216
▁Natapos	-10217
▁Nilusob	-10218
▁Paggawa	-10219
▁Palayok	-10220
▁Pinasan	-10221
▁Pinigil	-10222
▁Pupunta	-10223
▁Selyang	-10224
▁Tayabas	-10225
▁Tinipon	-10226
▁Tumigil	-10227
▁Tungkol	-10228
▁Watawat	-10229
▁Yokasta	-10230
▁alagaan	-10231
▁bagoong	-10232
▁bagyong	-10233
▁bahagya	-10234
▁batuhan	-10235
▁bawalan	-10236
▁binalak	-10237
▁binalot	-10238
▁binuhay	-10239
▁buntong	-10240
▁dagling	-10241
▁datapwa	-10242
▁dinanas	-10243
▁diyaryo	-10244
▁dumakip	-10245
▁dumatal	-10246
▁dustang	-10247
▁eskwela	-10248
▁ganapin	-10249
▁gandang	-10250
▁gasatan	-10251
▁gumugol	-10252
▁haharap	-10253
▁hamunin	-10254
▁hangaan	-10255
▁hinabol	-10256
▁hinamak	-10257
▁humanda	-10258
▁humigit	-10259
▁ibalita	-10260
▁idinaos	-10261
▁iisipin	-10262
▁ikalawa	-10263
▁ikawalo	-10264
▁ikintal	-10265
▁indayog	-10266
▁iniutos	-10267
▁ipagtat	-10268
▁ipakita	-10269
▁ipinagh	-10270
▁isaisip	-10271
▁isilang	-10272
▁isusuot	-10273
▁kakampi	-10274
▁kakanin	-10275
▁kalasag	-10276
▁kapilas	-10277
▁karamay	-10278
▁karayom	-10279
▁katapat	-10280
▁kinasas	-10281
▁konseho	-10282
▁kulisap	-10283
▁kumanta	-10284
▁kuwalta	-10285
▁kuwarto	-10286
▁lagapak	-10287
▁leghorn	-10288
▁letrang	-10289
▁libreng	-10290
▁lilipad	-10291
▁linyang	-10292
▁liwasan	-10293
▁luhaang	-10294
▁lumakas	-10295
▁luminis	-10296
▁lumuhod	-10297
▁lumukso	-10298
▁lumulan	-10299
▁lumusob	-10300
▁lunting	-10301
▁maamong	-10302
▁magdala	-10303
▁magsama	-10304
▁magsaya	-10305
▁magsing	-10306
▁magtamo	-10307
▁makatat	-10308
▁makipan	-10309
▁malagim	-10310
▁malalag	-10311
▁malilim	-10312
▁maluwat	-10313
▁mamulat	-10314
▁masasal	-10315
▁maselan	-10316
▁masigla	-10317
▁matanaw	-10318
▁matatap	-10319
▁matuloy	-10320
▁mistula	-10321
▁musikal	-10322
▁naaakit	-10323
▁nadakip	-10324
▁naghari	-10325
▁nahabag	-10326
▁nahihim	-10327
▁nakalul	-10328
▁nakamit	-10329
▁nalulug	-10330
▁namunga	-10331
▁nangagh	-10332
▁nangako	-10333
▁nanguha	-10334
▁napigil	-10335
▁nasasal	-10336
▁natulog	-10337
▁negrita	-10338
▁ngumiti	-10339
▁nilimot	-10340
▁nilusob	-10341
▁ninakaw	-10342
▁paanong	-10343
▁pagbili	-10344
▁pagdami	-10345
▁paglaki	-10346
▁pagtula	-10347
▁paharap	-10348
▁palakas	-10349
▁palayan	-10350
▁pambata	-10351
▁panalok	-10352
▁panitik	-10353
▁papalit	-10354
▁paraiso	-10355
▁pinakas	-10356
▁platero	-10357
▁pulisya	-10358
▁puluhan	-10359
▁pumitas	-10360
▁pumutok	-10361
▁pumutol	-10362
▁putlain	-10363
▁putulin	-10364
▁sagutin	-10365
▁samahan	-10366
▁sikreto	-10367
▁simulan	-10368
▁sinulid	-10369
▁sisikat	-10370
▁subukin	-10371
▁sulatan	-10372
▁sumilip	-10373
▁sumpaan	-10374
▁taimtim	-10375
▁tandaan	-10376
▁tantuin	-10377
▁tukuyin	-10378
▁tumagal	-10379
▁ugaling	-10380
▁umiling	-10381
▁usaping	-10382
ahagulgol	-10383
aklolohan	-10384
alisasyon	-10385
anganyaya	-10386
anggaling	-10387
intangang	-10388
lalawigan	-10389
onomiyang	-10390
operatiba	-10391
ukulangin	-10392
ungunahan	-10393
usterismo	-10394
uwentuhan	-10395
▁Bantawan	-10396
▁Bikulano	-10397
▁Binatang	-10398
▁Bukidnon	-10399
▁Darangan	-10400
▁Dinatnan	-10401
▁Espadana	-10402
▁Hinampas	-10403
▁Hinintay	-10404
▁Isinulat	-10405
▁Josefina	-10406
▁Kabataan	-10407
▁Kaluluwa	-10408
▁Kasopiya	-10409
▁Katauhan	-10410
▁Macarang	-10411
▁Magbuhat	-10412
▁Maglagda	-10413
▁Magtatag	-10414
▁Mahigpit	-10415
▁Mindanaw	-10416
▁Nabalita	-10417
▁Nagbihis	-10418
▁Naglaban	-10419
▁Naglagay	-10420
▁Nagtuloy	-10421
▁Nagyakap	-10422
▁Palayain	-10423
▁Pangarap	-10424
▁Persyano	-10425
▁Pilipina	-10426
▁Pinakain	-10427
▁Polinese	-10428
▁Sakbawan	-10429
▁alaalang	-10430
▁babagsak	-10431
▁balahibo	-10432
▁bigkasan	-10433
▁binyagan	-10434
▁bumangon	-10435
▁butihing	-10436
▁desisyon	-10437
▁dibisyon	-10438
▁dinaanan	-10439
▁diyosang	-10440
▁etnikong	-10441
▁gagapang	-10442
▁gamiting	-10443
▁gumulang	-10444
▁halatang	-10445
▁ibabalik	-10446
▁idinulog	-10447
▁ikinalat	-10448
▁ikinalul	-10449
▁ilalagay	-10450
▁ilalapat	-10451
▁inihagis	-10452
▁inilabas	-10453
▁ipabatid	-10454
▁ipinasok	-10455
▁isinabit	-10456
▁isinabog	-10457
▁isinumpa	-10458
▁isisigaw	-10459
▁ispiritu	-10460
▁isusunod	-10461
▁kabanata	-10462
▁kabuuang	-10463
▁kahambal	-10464
▁kahirapa	-10465
▁kakainin	-10466
▁kalakhan	-10467
▁kalinang	-10468
▁kaliwang	-10469
▁kapantay	-10470
▁kapiling	-10471
▁karamiha	-10472
▁karaniwa	-10473
▁kasindak	-10474
▁kasinung	-10475
▁katuwaan	-10476
▁katuwira	-10477
▁kausapin	-10478
▁kriminal	-10479
▁kwentong	-10480
▁lalampas	-10481
▁linangin	-10482
▁lingapin	-10483
▁liwasang	-10484
▁lulutang	-10485
▁lumalayo	-10486
▁lumingap	-10487
▁mabagsik	-10488
▁mabilang	-10489
▁mabining	-10490
▁magdasal	-10491
▁magpasya	-10492
▁magsikap	-10493
▁magsugal	-10494
▁mahirang	-10495
▁mahuhuli	-10496
▁makakuha	-10497
▁makapagl	-10498
▁makapagp	-10499
▁makapagt	-10500
▁makasama	-10501
▁makipags	-10502
▁malaglag	-10503
▁mamimili	-10504
▁manligaw	-10505
▁mapadaan	-10506
▁mapapasa	-10507
▁marahang	-10508
▁masasabi	-10509
▁masasaya	-10510
▁masisira	-10511
▁masungit	-10512
▁matiyaga	-10513
▁matulain	-10514
▁mayabong	-10515
▁medisina	-10516
▁minanang	-10517
▁musikang	-10518
▁nagawang	-10519
▁nagbilin	-10520
▁naggayak	-10521
▁naghanap	-10522
▁nagkaisa	-10523
▁nagpapag	-10524
▁nagpapak	-10525
▁nagpilit	-10526
▁nagsadya	-10527
▁nagsaing	-10528
▁nahalata	-10529
▁nahuling	-10530
▁naiibang	-10531
▁naisulat	-10532
▁nakadapo	-10533
▁nakapagp	-10534
▁nakapagt	-10535
▁nakatali	-10536
▁nakulong	-10537
▁namihasa	-10538
▁namimili	-10539
▁nanalong	-10540
▁napagpas	-10541
▁napiling	-10542
▁nasaktan	-10543
▁nasindak	-10544
▁natatamo	-10545
▁natikman	-10546
▁ngitngit	-10547
▁ningning	-10548
▁niyaring	-10549
▁pabulong	-10550
▁pagawaan	-10551
▁pagdalaw	-10552
▁pagdinig	-10553
▁paggalaw	-10554
▁paghanap	-10555
▁paglaban	-10556
▁paglabas	-10557
▁pagsapit	-10558
▁pakialam	-10559
▁pakiusap	-10560
▁palakpak	-10561
▁pamanang	-10562
▁pamaraan	-10563
▁pandinig	-10564
▁panukala	-10565
▁papanhik	-10566
▁paratang	-10567
▁patnugot	-10568
▁pinapalo	-10569
▁pinipint	-10570
▁pipiliin	-10571
▁pirasong	-10572
▁pleading	-10573
▁practice	-10574
▁pumanhik	-10575
▁saganang	-10576
▁sampalok	-10577
▁sandaang	-10578
▁serbisyo	-10579
▁sibilyan	-10580
▁singilin	-10581
▁sinundan	-10582
▁soloista	-10583
▁sugatang	-10584
▁sumbrero	-10585
▁sumilong	-10586
▁suspindi	-10587
▁tagapagb	-10588
▁talastas	-10589
▁tatlumpu	-10590
▁teknikal	-10591
▁tinalian	-10592
▁tinunton	-10593
▁tinyente	-10594
intulutang	-10595
▁Andromeda	-10596
▁Bathalang	-10597
▁Filipinas	-10598
▁Ikinulong	-10599
▁Ildefonso	-10600
▁Inglatera	-10601
▁Ipinasiya	-10602
▁Kabikulan	-10603
▁Kagawaran	-10604
▁Kapagdaka	-10605
▁Magbangon	-10606
▁Makalipas	-10607
▁Matandang	-10608
▁Mongindra	-10609
▁Naglakbay	-10610
▁Sakristan	-10611
▁Tarabusaw	-10612
▁Tinanggap	-10613
▁Tinatawag	-10614
▁Tiningnan	-10615
▁bandilang	-10616
▁bubuhayin	-10617
▁dalamhati	-10618
▁dumadalaw	-10619
▁ebidensya	-10620
▁higanteng	-10621
▁hinimatay	-10622
▁humantong	-10623
▁ikapitong	-10624
▁inihandog	-10625
▁ipaglihim	-10626
▁ipagpalit	-10627
▁ipakilala	-10628
▁isangguni	-10629
▁isinagawa	-10630
▁kababalag	-10631
▁kabahayan	-10632
▁kabaitang	-10633
▁kabayanan	-10634
▁kabuluhan	-10635
▁kagalakan	-10636
▁kahariang	-10637
▁kalabanin	-10638
▁kaluwagan	-10639
▁karaingan	-10640
▁kurikulum	-10641
▁lambingan	-10642
▁lumaganap	-10643
▁lumalakad	-10644
▁lumilitaw	-10645
▁luwalhati	-10646
▁mabalasik	-10647
▁maestrong	-10648
▁magagalit	-10649
▁magaspang	-10650
▁magdadala	-10651
▁maghapong	-10652
▁magkaaway	-10653
▁magkabila	-10654
▁mahihirap	-10655
▁mahuhulog	-10656
▁makalabas	-10657
▁makatagpo	-10658
▁malalaman	-10659
▁malambing	-10660
▁malilimot	-10661
▁malimutan	-10662
▁maninisid	-10663
▁mapahamak	-10664
▁mapaparam	-10665
▁masalalay	-10666
▁masiyahan	-10667
▁masugatan	-10668
▁masunurin	-10669
▁matanggap	-10670
▁matatanaw	-10671
▁nagagalit	-10672
▁nagbangon	-10673
▁nagdadala	-10674
▁nagkulang	-10675
▁nagpakita	-10676
▁nagsasabi	-10677
▁naitanong	-10678
▁nakaaaliw	-10679
▁nakatikom	-10680
▁nalathala	-10681
▁nalulunod	-10682
▁namumutla	-10683
▁nasusunog	-10684
▁natanggap	-10685
▁nawawalan	-10686
▁nililiyag	-10687
▁pagbabayo	-10688
▁pagkabigo	-10689
▁pagkatuto	-10690
▁pagluluto	-10691
▁pagmasdan	-10692
▁pagpipita	-10693
▁pagsuyong	-10694
▁pagtanggi	-10695
▁palakihin	-10696
▁paliwanag	-10697
▁pamamahay	-10698
▁pampangin	-10699
▁pandanggo	-10700
▁pandaraya	-10701
▁papatayin	-10702
▁patakbong	-10703
▁patatagin	-10704
▁pinagdaan	-10705
▁pinangang	-10706
▁pinapatay	-10707
▁salinlahi	-10708
▁sapagakat	-10709
▁sinimulan	-10710
▁sinisinta	-10711
▁sinusunod	-10712
▁taginting	-10713
▁talinhaga	-10714
▁teritoryo	-10715
▁titingnan	-10716
▁tumandang	-10717
▁tumatawag	-10718
▁Artikulong	-10719
▁Cordillera	-10720
▁Katapusang	-10721
▁Katarungan	-10722
▁Kristiyano	-10723
▁Makanungan	-10724
▁Nabalitaan	-10725
▁Nagkataong	-10726
▁Nagtawanan	-10727
▁Napilitang	-10728
▁Patrocinio	-10729
▁Pinagmulan	-10730
▁Pythagoras	-10731
▁asosasyong	-10732
▁balagtasan	-10733
▁bibigkasin	-10734
▁binibigyan	-10735
▁binurdahan	-10736
▁dinaramdam	-10737
▁emperatriz	-10738
▁ginagawang	-10739
▁gobernador	-10740
▁ibinibigay	-10741
▁ikinagalit	-10742
▁ikinamatay	-10743
▁iniingatan	-10744
▁inilalabas	-10745
▁kabihasnan	-10746
▁kahulugang	-10747
▁kahusayang	-10748
▁kakulangan	-10749
▁kamatayang	-10750
▁kapalarang	-10751
▁kapansanan	-10752
▁karalitaan	-10753
▁kasulatang	-10754
▁kataksilan	-10755
▁kaugaliang	-10756
▁kondisyong	-10757
▁konsensiya	-10758
▁kukulangin	-10759
▁lawlawigan	-10760
▁mabulaklak	-10761
▁magbabawas	-10762
▁magigising	-10763
▁magkakapit	-10764
▁magmamaliw	-10765
▁magmukhang	-10766
▁magpahayag	-10767
▁magtrabaho	-10768
▁makakasama	-10769
▁mamahaling	-10770
▁mapagmahal	-10771
▁maramdaman	-10772
▁marangyang	-10773
▁mararating	-10774
▁matipunong	-10775
▁matulungin	-10776
▁mauunawaan	-10777
▁nagbabawal	-10778
▁naglalagay	-10779
▁nagliliyab	-10780
▁nagmakaawa	-10781
▁nagpahinga	-10782
▁nagsisipan	-10783
▁nagtatakda	-10784
▁nakakaalam	-10785
▁nakibahagi	-10786
▁nakikiusap	-10787
▁namamahala	-10788
▁namamasyal	-10789
▁naniningil	-10790
▁napapaloob	-10791
▁natitirang	-10792
▁pagbibilog	-10793
▁paghahabol	-10794
▁paghakbang	-10795
▁pagkabalda	-10796
▁pagkabigla	-10797
▁pagkakapag	-10798
▁pagpapalit	-10799
▁pagsusulit	-10800
▁pagtutulad	-10801
▁pakikipagt	-10802
▁palaisipan	-10803
▁panalangin	-10804
▁pandaigdig	-10805
▁pangatlong	-10806
▁panggabing	-10807
▁pangunguha	-10808
▁paroroonan	-10809
▁pasalaysay	-10810
▁pinadalhan	-10811
▁pinangarap	-10812
▁pinayagang	-10813
▁pormasyong	-10814
▁produksyon	-10815
▁regulasyon	-10816
▁sanggunian	-10817
▁sansinukob	-10818
▁sapilitang	-10819
▁sinambilat	-10820
▁sinasariwa	-10821
▁tanghaling	-10822
▁tinangkang	-10823
▁tumutulong	-10824
▁tunggalian	-10825
▁Kapulungang	-10826
▁Kinagabihan	-10827
▁Maguindanao	-10828
▁Panghalalan	-10829
▁Pinampangan	-10830
▁binabanggit	-10831
▁ikinabahala	-10832
▁imahinasyon	-10833
▁ipahintulot	-10834
▁kalagitnaan	-10835
▁kaligtasang	-10836
▁kapanahunan	-10837
▁kasingganda	-10838
▁katiwasayan	-10839
▁kooperatiba	-10840
▁laboratoryo	-10841
▁luwalhating	-10842
▁madamdaming	-10843
▁magkakasama	-10844
▁magtagumpay	-10845
▁magtataksil	-10846
▁mambibigkas	-10847
▁manghahalal	-10848
▁mangingibig	-10849
▁maparusahan	-10850
▁minumutyang	-10851
▁nagbabalita	-10852
▁nagbabantay	-10853
▁naglalayong	-10854
▁nagsalaysay	-10855
▁nagulantang	-10856
▁nakahandang	-10857
▁nakapaligid	-10858
▁nakasalalay	-10859
▁nalulungkot	-10860
▁nanganganib	-10861
▁nasisiyahan	-10862
▁pagkakamali	-10863
▁paglilibing	-10864
▁pagmamalaki	-10865
▁pagpaparusa	-10866
▁pagpasyahan	-10867
▁pagtataksil	-10868
▁pakikilaban	-10869
▁pakikitungo	-10870
▁pansariling	-10871
▁parurusahan	-10872
▁pinakasalan	-10873
▁pinakawalan	-10874
▁propesyonal	-10875
▁sambayanang	-10876
▁sepulturero	-10877
▁sinasadyang	-10878
▁Bungangsakit	-10879
▁Ipinalalagay	-10880
▁Metropolitan	-10881
▁Mitolohiyang	-10882
▁Sangkatauhan	-10883
▁ipinaliwanag	-10884
▁ipinatutupad	-10885
▁kadahilanang	-10886
▁kahihinatnan	-10887
▁kaparusahang	-10888
▁katotohanang	-10889
▁kayumangging	-10890
▁komunikasyon	-10891
▁magkahiwalay	-10892
▁makipaglaban	-10893
▁mitolohiyang	-10894
▁naghihimutok	-10895
▁naglalagalag	-10896
▁nagliliwanag	-10897
▁nagmamahalan	-10898
▁nagsasaalang	-10899
▁nasyonalismo	-10900
▁pagkakasundo	-10901
▁pagkamatapat	-10902
▁pagmamalabis	-10903
▁pagpapahirap	-10904
▁pagpapalakad	-10905
▁pagpapasakit	-10906
▁pagpapatiuna	-10907
▁pagsasaalang	-10908
▁paninindigan	-10909
▁proporsyonal	-10910
▁sansinukuban	-10911
▁tagapamahala	-10912
▁talasalitaan	-10913
▁tinatangisan	-10914
▁Ipinagpatuloy	-10915
▁Nakapagtataka	-10916
▁bulubunduking	-10917
▁humahalimuyak	-10918
▁ipagtatanggol	-10919
▁kwalipikadong	-10920
▁kwalipikasyon	-10921
▁magkakaibigan	-10922
▁magpahanggang	-10923
▁maipaghiganti	-10924
▁nanunungkulan	-10925
▁napanaginipan	-10926
▁paghihinagpis	-10927
▁pagkakahirang	-10928
▁pagkakaibigan	-10929
▁pampamahalaan	-10930
▁pampananalapi	-10931
▁pangangatawan	-10932
▁pinagmamasdan	-10933
▁pinakamaganda	-10934
▁pinakamayaman	-10935
▁pinangalanang	-10936
▁pinarurusahan	-10937
▁umalingawngaw	-10938
▁Filibusterismo	-10939
▁nagdadalamhati	-10940
▁nagpapahiwatig	-10941
▁napakahalagang	-10942
▁pagpapakasakit	-10943
▁pinagtatalunan	-10944
▁kasinungalingan	-10945
▁nangangahulugan	-10946
▁pagkamamamayang	-10947
):	-10948
.'	-10949
2,	-10950
5.	-10951
60	-10952
??	-10953
Ab	-10954
ES	-10955
OS	-10956
OT	-10957
UM	-10958
US	-10959
bp	-10960
kt	-10961
ou	-10962
sy	-10963
uc	-10964
we	-10965
!",	-10966
-10	-10967
00.	-10968
4-3	-10969
5-2	-10970
91.	-10971
AMP	-10972
Aba	-10973
Gan	-10974
Gum	-10975
Hin	-10976
Hoy	-10977
Isa	-10978
Kin	-10979
Man	-10980
Min	-10981
Nat	-10982
Pup	-10983
San	-10984
all	-10985
aws	-10986
bls	-10987
col	-10988
dog	-10989
erk	-10990
esp	-10991
gay	-10992
hat	-10993
hhh	-10994
ica	-10995
imo	-10996
ipk	-10997
irt	-10998
isl	-10999
ER	-11000
Es	-11001
OR	-11002
SP	-11003
za	-11004
Mam	-11005
alp	-11006
kuw	-11007
nam	-11008
pen	-11009
ple	-11010
rod	-11011
rol	-11012
rup	-11013
sin	-11014
sue	-11015
tir	-11016
tog	-11017
uob	-11018
usi	-11019
wag	-11020
yap	-11021
▁1)	-11022
▁29	-11023
▁Er	-11024
▁SA	-11025
▁Sy	-11026
▁co	-11027
▁dy	-11028
▁he	-11029
▁hu	-11030
▁op	-11031
▁os	-11032
▁py	-11033
▁uy	-11034
0.00	-11035
AGAW	-11036
AHAT	-11037
AKAR	-11038
AKAS	-11039
AYAN	-11040
Ayaw	-11041
High	-11042
IMUL	-11043
Magh	-11044
Mula	-11045
Pagb	-11046
Pers	-11047
SANG	-11048
Sige	-11049
Siya	-11050
aama	-11051
agiw	-11052
akin	-11053
akod	-11054
alye	-11055
amog	-11056
amyo	-11057
anos	-11058
apin	-11059
arol	-11060
aron	-11061
arot	-11062
atik	-11063
atsa	-11064
bato	-11065
bibi	-11066
chol	-11067
dong	-11068
ehiy	-11069
elpa	-11070
endi	-11071
eneo	-11072
etso	-11073
etua	-11074
gang	-11075
iago	-11076
ibag	-11077
ibin	-11078
ibug	-11079
iksi	-11080
ilot	-11081
inid	-11082
ithi	-11083
kibo	-11084
ktub	-11085
laon	-11086
layo	-11087
lima	-11088
mbid	-11089
mula	-11090
ngay	-11091
okon	-11092
okya	-11093
olog	-11094
pirm	-11095
puin	-11096
pula	-11097
rile	-11098
rino	-11099
Ah	-11100
uf	-11101
STA	-11102
git	-11103
kab	-11104
nis	-11105
ony	-11106
INIS	-11107
abab	-11108
akam	-11109
ende	-11110
gaan	-11111
ilao	-11112
ildo	-11113
ilon	-11114
inti	-11115
isaw	-11116
isik	-11117
iyuh	-11118
onis	-11119
payo	-11120
rote	-11121
tayo	-11122
tiis	-11123
tima	-11124
trol	-11125
uano	-11126
ubot	-11127
ueva	-11128
ugos	-11129
ukid	-11130
ulis	-11131
ulto	-11132
umal	-11133
unoy	-11134
uris	-11135
urok	-11136
uuin	-11137
vert	-11138
veto	-11139
wira	-11140
▁192	-11141
▁24.	-11142
▁25.	-11143
▁26.	-11144
▁Aso	-11145
▁Biy	-11146
▁Bol	-11147
▁Ceb	-11148
▁Day	-11149
▁Dir	-11150
▁Doo	-11151
▁Gay	-11152
▁Him	-11153
▁Hoy	-11154
▁Iyo	-11155
▁KAR	-11156
▁KAS	-11157
▁Kos	-11158
▁Lar	-11159
▁Lip	-11160
▁Lol	-11161
▁Lor	-11162
▁Mau	-11163
▁PAN	-11164
▁PAT	-11165
▁Pol	-11166
▁Riv	-11167
▁Sat	-11168
▁Siy	-11169
▁Sub	-11170
▁Taw	-11171
▁Tup	-11172
▁alo	-11173
▁apl	-11174
▁dec	-11175
▁der	-11176
▁dob	-11177
▁gal	-11178
▁kau	-11179
▁kim	-11180
▁lol	-11181
▁mot	-11182
▁pih	-11183
▁rum	-11184
▁sen	-11185
▁tiy	-11186
▁ugn	-11187
▁upo	-11188
,000.	-11189
AMPUP	-11190
Aking	-11191
Epiro	-11192
Espan	-11193
IMULA	-11194
Kaawa	-11195
Maria	-11196
Papal	-11197
aakay	-11198
abaan	-11199
har	-11200
iik	-11201
ikd	-11202
ikt	-11203
lus	-11204
vil	-11205
▁DE	-11206
▁ho	-11207
Sana	-11208
aang	-11209
atig	-11210
enio	-11211
ukap	-11212
▁Ana	-11213
▁Bac	-11214
▁Liv	-11215
▁Pun	-11216
▁Tit	-11217
▁hib	-11218
▁kus	-11219
▁suw	-11220
adama	-11221
adang	-11222
adsad	-11223
agdan	-11224
agham	-11225
agnas	-11226
agpag	-11227
aklad	-11228
akulo	-11229
akwil	-11230
alaez	-11231
alait	-11232
alaon	-11233
alili	-11234
amora	-11235
anday	-11236
andig	-11237
antap	-11238
antig	-11239
anzon	-11240
apiit	-11241
areer	-11242
aslas	-11243
aspas	-11244
ative	-11245
atuon	-11246
awsaw	-11247
ayani	-11248
aydor	-11249
aypay	-11250
aysay	-11251
bukid	-11252
calac	-11253
cient	-11254
colta	-11255
dilim	-11256
eater	-11257
edest	-11258
edras	-11259
egrat	-11260
elekt	-11261
endre	-11262
entas	-11263
entaw	-11264
ernat	-11265
essor	-11266
etary	-11267
ginsa	-11268
hapon	-11269
hayop	-11270
hento	-11271
hinan	-11272
ibayo	-11273
iibig	-11274
iinom	-11275
iliti	-11276
illaf	-11277
impas	-11278
imyas	-11279
inain	-11280
ingga	-11281
ingit	-11282
ipili	-11283
ipkip	-11284
ipolo	-11285
irits	-11286
isisi	-11287
islat	-11288
itano	-11289
kahan	-11290
lagas	-11291
lawin	-11292
libot	-11293
lunos	-11294
malas	-11295
ombra	-11296
orari	-11297
pasin	-11298
raban	-11299
va	-11300
Mah	-11301
Sus	-11302
uts	-11303
▁Ek	-11304
▁mu	-11305
ihaw	-11306
itiw	-11307
orta	-11308
umot	-11309
▁Bab	-11310
▁Bib	-11311
▁poo	-11312
Yaong	-11313
abala	-11314
aplos	-11315
erang	-11316
etran	-11317
imbal	-11318
ister	-11319
ortal	-11320
rasya	-11321
sakin	-11322
sanib	-11323
sayad	-11324
sayan	-11325
shirt	-11326
sibol	-11327
sulok	-11328
tarya	-11329
tasin	-11330
tribo	-11331
ubuka	-11332
ubuti	-11333
ughog	-11334
uging	-11335
uhaan	-11336
ukain	-11337
uktok	-11338
ulpot	-11339
uluga	-11340
umamo	-11341
ungad	-11342
ungis	-11343
ungol	-11344
unsad	-11345
unyon	-11346
urado	-11347
ustos	-11348
venue	-11349
watak	-11350
yalan	-11351
yedad	-11352
▁Abad	-11353
▁Ahas	-11354
▁Apoy	-11355
▁Aral	-11356
▁Aray	-11357
▁Asin	-11358
▁Bawa	-11359
▁Bitu	-11360
▁Buto	-11361
▁Gand	-11362
▁Gawa	-11363
▁Glor	-11364
▁Hala	-11365
▁Hayo	-11366
▁Hong	-11367
▁Igon	-11368
▁Indo	-11369
▁Irog	-11370
▁Itat	-11371
▁Itim	-11372
▁Joel	-11373
▁Kaka	-11374
▁Kayb	-11375
▁Kuba	-11376
▁Kult	-11377
▁Magg	-11378
▁Maka	-11379
▁Meme	-11380
▁Nagu	-11381
▁Nand	-11382
▁Nawa	-11383
▁Ninf	-11384
▁Noby	-11385
▁Orak	-11386
▁Oras	-11387
▁PANG	-11388
▁Papa	-11389
▁Pito	-11390
▁Sits	-11391
▁Tala	-11392
▁Tiyo	-11393
▁Ulap	-11394
▁VIII	-11395
▁Yaon	-11396
▁abay	-11397
▁agua	-11398
▁akay	-11399
Un	-11400
ele	-11401
▁Cu	-11402
▁Re	-11403
...?	-11404
?...	-11405
luha	-11406
usod	-11407
▁Col	-11408
▁sop	-11409
Matat	-11410
ausap	-11411
gubat	-11412
imbag	-11413
isira	-11414
undat	-11415
▁Emir	-11416
▁Isis	-11417
▁aban	-11418
▁alis	-11419
▁asim	-11420
▁atbp	-11421
▁bula	-11422
▁daya	-11423
▁dayo	-11424
▁disi	-11425
▁diya	-11426
▁duon	-11427
▁elem	-11428
▁ener	-11429
▁heto	-11430
▁ikap	-11431
▁imin	-11432
▁inan	-11433
▁kaaa	-11434
▁kaap	-11435
▁kahi	-11436
▁kaib	-11437
▁kalo	-11438
▁karo	-11439
▁kayg	-11440
▁kint	-11441
▁kwak	-11442
▁laan	-11443
▁laso	-11444
▁lata	-11445
▁lola	-11446
▁lukl	-11447
▁luko	-11448
▁maal	-11449
▁maid	-11450
▁maig	-11451
▁main	-11452
▁mana	-11453
▁masy	-11454
▁mest	-11455
▁mism	-11456
▁mito	-11457
▁moog	-11458
▁muog	-11459
▁nait	-11460
▁pare	-11461
▁pika	-11462
▁pios	-11463
▁pira	-11464
▁post	-11465
▁puma	-11466
▁pung	-11467
▁puto	-11468
▁pwed	-11469
▁sint	-11470
▁subs	-11471
▁suka	-11472
▁suyo	-11473
▁taun	-11474
▁teng	-11475
▁term	-11476
▁trab	-11477
▁tuyo	-11478
▁umid	-11479
▁unan	-11480
▁ungg	-11481
▁usig	-11482
▁uupo	-11483
▁warr	-11484
AGAWAR	-11485
Magpap	-11486
Medium	-11487
Nasaan	-11488
aantok	-11489
abakas	-11490
abansa	-11491
abulid	-11492
abunan	-11493
adaloy	-11494
adurog	-11495
agahan	-11496
agalag	-11497
agitin	-11498
ahabol	-11499
ayu	-11500
ree	-11501
ugn	-11502
▁Ko	-11503
emat	-11504
eneg	-11505
erba	-11506
hina	-11507
lalo	-11508
okus	-11509
▁Bak	-11510
▁Jer	-11511
▁wag	-11512
aliin	-11513
angko	-11514
antsa	-11515
ilaok	-11516
inaon	-11517
untis	-11518
untok	-11519
▁pasa	-11520
▁sapi	-11521
aabang	-11522
abanas	-11523
abigin	-11524
agatas	-11525
ahador	-11526
ahasik	-11527
ahatol	-11528
alahin	-11529
alakaw	-11530
alakot	-11531
alaong	-11532
aliban	-11533
aliman	-11534
alinis	-11535
alugad	-11536
alupit	-11537
amaang	-11538
amante	-11539
amaran	-11540
amuhin	-11541
amukha	-11542
amutan	-11543
anayam	-11544
andera	-11545
anggan	-11546
angkal	-11547
antala	-11548
apagod	-11549
apatak	-11550
apatda	-11551
aputok	-11552
arakip	-11553
arawal	-11554
ariaan	-11555
arship	-11556
asayaw	-11557
asunod	-11558
atakot	-11559
ayahin	-11560
ayukay	-11561
bagang	-11562
bahagi	-11563
bighan	-11564
ektado	-11565
endrez	-11566
entang	-11567
hayuan	-11568
himala	-11569
hinala	-11570
ibayin	-11571
iedras	-11572
igawad	-11573
igiliw	-11574
igitan	-11575
ihagis	-11576
ihimig	-11577
ihiyan	-11578
ikhang	-11579
ilahan	-11580
ilidad	-11581
iligin	-11582
ilihis	-11583
ilikan	-11584
ilisan	-11585
ilisik	-11586
ilugan	-11587
inanap	-11588
incial	-11589
inelas	-11590
ingian	-11591
inipay	-11592
inisin	-11593
iphayo	-11594
ipinan	-11595
isayas	-11596
itaryo	-11597
itawan	-11598
itigil	-11599
50	-11600
ahop	-11601
ahos	-11602
ayas	-11603
daos	-11604
enso	-11605
irot	-11606
nasa	-11607
pito	-11608
▁Rin	-11609
▁aks	-11610
▁rem	-11611
▁sem	-11612
aasan	-11613
akhan	-11614
alyas	-11615
angla	-11616
aston	-11617
atuwa	-11618
balik	-11619
egalo	-11620
harap	-11621
ibago	-11622
ingka	-11623
sarap	-11624
▁Pans	-11625
▁aran	-11626
▁kawa	-11627
▁samo	-11628
▁tulo	-11629
▁tuwi	-11630
Pagkat	-11631
agkait	-11632
ahagya	-11633
anakit	-11634
asanib	-11635
atnang	-11636
didiin	-11637
ersang	-11638
ibalik	-11639
igagal	-11640
inoong	-11641
isipot	-11642
itikim	-11643
itiyak	-11644
iwakal	-11645
ktubre	-11646
leyado	-11647
libong	-11648
lumbay	-11649
pangan	-11650
pulong	-11651
rapura	-11652
ration	-11653
regula	-11654
tangan	-11655
tangis	-11656
ubusin	-11657
ugulat	-11658
ugunin	-11659
uligsa	-11660
uliran	-11661
ulupig	-11662
ulupot	-11663
umilit	-11664
umpati	-11665
umpung	-11666
unaway	-11667
ungero	-11668
unghay	-11669
ungsod	-11670
untang	-11671
unying	-11672
upitin	-11673
upukol	-11674
urnino	-11675
usabos	-11676
usalem	-11677
usapin	-11678
usilak	-11679
ustino	-11680
uugnay	-11681
uwende	-11682
uwesto	-11683
uwisit	-11684
walang	-11685
yayang	-11686
yertos	-11687
▁1992.	-11688
▁Agham	-11689
▁Aklan	-11690
▁Alang	-11691
▁Amang	-11692
▁Aming	-11693
▁Apolo	-11694
▁Artil	-11695
▁Asawa	-11696
▁Babae	-11697
▁Babay	-11698
▁Baboy	-11699
edo	-11700
Ipin	-11701
enus	-11702
haya	-11703
lugo	-11704
uump	-11705
▁ESP	-11706
▁gis	-11707
Ilang	-11708
agump	-11709
ainom	-11710
apant	-11711
astol	-11712
indoy	-11713
putla	-11714
tikal	-11715
uunan	-11716
yunan	-11717
▁Beng	-11718
▁Guro	-11719
▁Nuon	-11720
▁Serp	-11721
alayas	-11722
alilis	-11723
ingala	-11724
lusion	-11725
rehens	-11726
sahang	-11727
umpong	-11728
▁Bagom	-11729
▁Balat	-11730
▁Balit	-11731
▁Buena	-11732
▁Casta	-11733
▁Claro	-11734
▁Dapwa	-11735
▁Diyan	-11736
▁Diyuh	-11737
▁Doray	-11738
▁Embid	-11739
▁Enero	-11740
▁Epiro	-11741
▁Gabay	-11742
▁Hamog	-11743
▁Hayun	-11744
▁Hinih	-11745
▁Iabot	-11746
▁Igala	-11747
▁Impah	-11748
▁Imper	-11749
▁Imuth	-11750
▁Indya	-11751
▁Ipagp	-11752
▁Islaw	-11753
▁Itaas	-11754
▁Itago	-11755
▁Kaawa	-11756
▁Kabis	-11757
▁Kapit	-11758
▁Kulog	-11759
▁Kunin	-11760
▁Labos	-11761
▁Lanaw	-11762
▁Leron	-11763
▁Lubay	-11764
▁Lulan	-11765
▁Mahin	-11766
▁Malay	-11767
▁Mangg	-11768
▁Manun	-11769
▁Minis	-11770
▁Minsa	-11771
▁Nakak	-11772
▁Namay	-11773
▁Nanan	-11774
▁Naupo	-11775
▁Nayon	-11776
▁Niyog	-11777
▁Nuong	-11778
▁Pamay	-11779
▁Parup	-11780
▁Payat	-11781
▁Pinah	-11782
▁Pinam	-11783
▁Pinya	-11784
▁Pista	-11785
▁Poong	-11786
▁Pulis	-11787
▁Rosas	-11788
▁Santa	-11789
▁Santi	-11790
▁Sinta	-11791
▁Sulod	-11792
▁Talas	-11793
▁Tapos	-11794
▁Tiago	-11795
▁Tinut	-11796
▁Tsino	-11797
▁Tungo	-11798
▁Turko	-11799
Mar	-11800
▁2)	-11801
▁Ol	-11802
apoy	-11803
ikli	-11804
irik	-11805
▁Fil	-11806
▁Har	-11807
▁Kod	-11808
▁Set	-11809
▁gma	-11810
aalsa	-11811
amkam	-11812
arapo	-11813
ikaso	-11814
▁baon	-11815
▁giba	-11816
▁layo	-11817
amento	-11818
ibitay	-11819
iranin	-11820
panhik	-11821
saping	-11822
uplong	-11823
urihan	-11824
▁Isasa	-11825
▁Utang	-11826
▁Voice	-11827
▁aaral	-11828
▁aawit	-11829
▁alint	-11830
▁apong	-11831
▁arkit	-11832
▁aywan	-11833
▁bahaw	-11834
▁bahid	-11835
▁bakya	-11836
▁balse	-11837
▁banga	-11838
▁basag	-11839
▁basal	-11840
▁bayaw	-11841
▁bihis	-11842
▁bilao	-11843
▁binid	-11844
▁bitag	-11845
▁bitak	-11846
▁burda	-11847
▁dahop	-11848
▁dalub	-11849
▁delib	-11850
▁dikit	-11851
▁diskw	-11852
▁doble	-11853
▁donya	-11854
▁duyan	-11855
▁epekt	-11856
▁galos	-11857
▁gansa	-11858
▁ginat	-11859
▁ginaw	-11860
▁ginoo	-11861
▁gunam	-11862
▁hikbi	-11863
▁hinag	-11864
▁hinto	-11865
▁hipon	-11866
▁hukay	-11867
▁humuh	-11868
▁hurno	-11869
▁ibayo	-11870
▁ihain	-11871
▁iiyak	-11872
▁iluha	-11873
▁inaan	-11874
▁inapi	-11875
▁initi	-11876
▁ipagd	-11877
▁isipa	-11878
▁issue	-11879
▁itala	-11880
▁kabag	-11881
▁kagat	-11882
▁kagaw	-11883
▁kalat	-11884
▁kalaw	-11885
▁kamal	-11886
▁kanun	-11887
▁kasuk	-11888
▁katig	-11889
▁kawag	-11890
▁kendi	-11891
▁kinuk	-11892
▁kiyas	-11893
▁kubol	-11894
▁kulot	-11895
▁kupas	-11896
▁kurus	-11897
▁latay	-11898
▁leong	-11899
engk	-11900
akrip	-11901
ngang	-11902
unian	-11903
awayin	-11904
▁Kulay	-11905
▁hener	-11906
▁letra	-11907
▁libro	-11908
▁limot	-11909
▁linaw	-11910
▁lumag	-11911
▁mabuo	-11912
▁maigi	-11913
▁maint	-11914
▁mamul	-11915
▁mapay	-11916
▁mapip	-11917
▁marka	-11918
▁marur	-11919
▁masid	-11920
▁maski	-11921
▁matiy	-11922
▁mawat	-11923
▁media	-11924
▁milag	-11925
▁nabib	-11926
▁nabub	-11927
▁nadad	-11928
▁nagis	-11929
▁nagpa	-11930
▁nakuk	-11931
▁nalik	-11932
▁nanaw	-11933
▁napab	-11934
▁naupo	-11935
▁nilul	-11936
▁noche	-11937
▁nukal	-11938
▁orden	-11939
▁order	-11940
▁oyayi	-11941
▁padre	-11942
▁pagsa	-11943
▁pahat	-11944
▁pahim	-11945
▁paimb	-11946
▁paisa	-11947
▁palit	-11948
▁palko	-11949
▁palwa	-11950
▁parke	-11951
▁patag	-11952
▁patid	-11953
▁patik	-11954
▁patyo	-11955
▁penal	-11956
▁pilos	-11957
▁pitik	-11958
▁punlo	-11959
▁pusod	-11960
▁radio	-11961
▁rehas	-11962
▁relih	-11963
▁retir	-11964
▁rural	-11965
▁rurok	-11966
▁sable	-11967
▁salag	-11968
▁salon	-11969
▁sangm	-11970
▁sapin	-11971
▁sapul	-11972
▁sasab	-11973
▁schol	-11974
▁sigwa	-11975
▁sugal	-11976
▁tahur	-11977
▁takda	-11978
▁talon	-11979
▁tanto	-11980
▁tawid	-11981
▁tibok	-11982
▁tigas	-11983
▁tigre	-11984
▁timog	-11985
▁tipak	-11986
▁tolda	-11987
▁tribu	-11988
▁tulin	-11989
▁ungas	-11990
AMPUPOT	-11991
Albanya	-11992
Ibababa	-11993
Itataas	-11994
Malakas	-11995
Tagalog	-11996
Tatakbo	-11997
Tingnan	-11998
aagawan	-11999
aanyaya	-12000
abigkas	-12001
abuting	-12002
ademiko	-12003
agaslaw	-12004
agatang	-12005
agawian	-12006
agdasal	-12007
aghapon	-12008
agistis	-12009
agpuang	-12010
agulang	-12011
aharian	-12012
akulong	-12013
alabind	-12014
alakpak	-12015
alambot	-12016
alanang	-12017
alangit	-12018
alasang	-12019
alimang	-12020
alingon	-12021
aliping	-12022
alisbis	-12023
aluktot	-12024
alungat	-12025
amadali	-12026
amasama	-12027
ambahan	-12028
ampanga	-12029
ampisaw	-12030
anaagan	-12031
andusay	-12032
anghero	-12033
aplusin	-12034
arampot	-12035
arangya	-12036
asakang	-12037
asaling	-12038
asarili	-12039
asariwa	-12040
atangay	-12041
atanong	-12042
atapwat	-12043
awawala	-12044
ayuhang	-12045
bahayan	-12046
didilim	-12047
eateryo	-12048
egrated	-12049
ehiyado	-12050
ehiyong	-12051
ekalogo	-12052
eksiyon	-12053
ektahan	-12054
ensyang	-12055
esermon	-12056
esmundo	-12057
gilalas	-12058
ibingan	-12059
ilanlan	-12060
iligaya	-12061
ilingin	-12062
ilyuhan	-12063
ingnang	-12064
irahang	-12065
iritsit	-12066
iwagaan	-12067
iwagang	-12068
iwanang	-12069
kamukha	-12070
kanyang	-12071
kendeng	-12072
maganda	-12073
marikit	-12074
natapos	-12075
opootan	-12076
ortahan	-12077
rilyero	-12078
risinta	-12079
saktong	-12080
sunuran	-12081
ubukang	-12082
ubunyag	-12083
ugalian	-12084
ugbugin	-12085
ukumpas	-12086
ulimlim	-12087
unayang	-12088
unyapit	-12089
▁Adonis	-12090
▁Alagad	-12091
▁Albino	-12092
▁Andang	-12093
▁Anghel	-12094
▁Anyong	-12095
▁Ateneo	-12096
▁Bagobo	-12097
▁Baltog	-12098
▁Baston	-12099
▁Batong	-12100
▁Bigyan	-12101
▁Binasa	-12102
▁Buksan	-12103
▁Burgos	-12104
▁Carlos	-12105
▁Dalaga	-12106
▁Dalhin	-12107
▁Darang	-12108
▁Emilio	-12109
▁Gabing	-12110
▁Gayong	-12111
▁Ginawa	-12112
▁Handog	-12113
▁Hilaga	-12114
▁Huling	-12115
▁Ibanag	-12116
▁Iisang	-12117
▁Iloilo	-12118
▁Inayos	-12119
▁Inusig	-12120
▁Ipinag	-12121
▁Ipinap	-12122
▁Kagand	-12123
▁Kapule	-12124
▁Katang	-12125
▁Kausap	-12126
▁Kitang	-12127
▁Kurita	-12128
▁Labimp	-12129
▁Lahing	-12130
▁Lalaki	-12131
▁Lamang	-12132
▁Letran	-12133
▁Lintik	-12134
▁Lumang	-12135
▁Maghah	-12136
▁Magpak	-12137
▁Mahina	-12138
▁Makata	-12139
▁Makopa	-12140
▁Mamang	-12141
▁Mantap	-12142
▁Mapang	-12143
▁Marcos	-12144
▁Nabawi	-12145
▁Nadala	-12146
▁Nagbab	-12147
▁Nagpup	-12148
▁Naiiba	-12149
▁Napang	-12150
▁Natalo	-12151
▁Naubos	-12152
▁Nimpas	-12153
▁Ninais	-12154
▁Ninfas	-12155
▁Niyaya	-12156
▁Pagkap	-12157
▁Pagpap	-12158
▁Palaez	-12159
▁Pantas	-12160
▁Parkas	-12161
▁Pawang	-12162
▁Pebong	-12163
▁Pitong	-12164
▁Platas	-12165
▁Rivera	-12166
▁Salapi	-12167
▁Santol	-12168
▁Sayang	-12169
▁Sising	-12170
▁Subali	-12171
▁Talaan	-12172
▁Tamang	-12173
▁Tanang	-12174
▁Tatayo	-12175
▁Tulong	-12176
▁Tumaas	-12177
▁Umawit	-12178
▁Villaf	-12179
▁aakyat	-12180
▁advert	-12181
▁agahan	-12182
▁agawan	-12183
▁alisan	-12184
▁aliwin	-12185
▁angkan	-12186
▁awitan	-12187
▁babasa	-12188
▁bagwis	-12189
▁baklad	-12190
▁balbas	-12191
▁balido	-12192
▁baligt	-12193
▁baling	-12194
▁balisa	-12195
▁bangko	-12196
▁basket	-12197
▁baston	-12198
▁bathin	-12199
▁batiin	-12200
▁bawiin	-12201
▁bayaan	-12202
▁bayong	-12203
▁binasa	-12204
▁binawi	-12205
▁binayo	-12206
▁bisang	-12207
▁bolang	-12208
▁buhong	-12209
▁bukana	-12210
▁buktot	-12211
▁bulkan	-12212
▁bulung	-12213
▁career	-12214
▁corrup	-12215
▁decree	-12216
▁dinaya	-12217
▁disipl	-12218
▁doktor	-12219
▁dukeng	-12220
▁dumumi	-12221
▁estado	-12222
▁gating	-12223
▁gulong	-12224
▁guwang	-12225
▁halina	-12226
▁hampas	-12227
▁hatiin	-12228
▁hidhid	-12229
▁higera	-12230
▁higtan	-12231
▁hilaga	-12232
▁hiwaga	-12233
▁ibuhos	-12234
▁ihayag	-12235
▁ihulog	-12236
▁ikagig	-12237
▁ikatat	-12238
▁ilabas	-12239
▁ilagay	-12240
▁inahin	-12241
▁inamin	-12242
▁inilul	-12243
▁inulit	-12244
▁ipasya	-12245
▁ipinal	-12246
▁ipinam	-12247
▁isahan	-12248
▁iskrip	-12249
▁itanim	-12250
▁itawag	-12251
▁itigil	-12252
▁itulak	-12253
▁ituloy	-12254
▁kabang	-12255
▁kagila	-12256
▁kahong	-12257
▁kalesa	-12258
▁kalian	-12259
▁kaniya	-12260
▁kanyon	-12261
▁kapani	-12262
▁kapuri	-12263
▁karamd	-12264
▁kasapi	-12265
▁katyaw	-12266
▁kawali	-12267
▁kubang	-12268
▁kutang	-12269
▁lambat	-12270
▁lantay	-12271
▁latigo	-12272
▁layuni	-12273
▁lilong	-12274
▁linsil	-12275
▁liping	-12276
▁lumaya	-12277
▁lunday	-12278
▁lutuan	-12279
▁maabot	-12280
▁maagaw	-12281
▁maasim	-12282
▁mababa	-12283
▁mabasa	-12284
▁mabawi	-12285
▁magaan	-12286
▁magbub	-12287
▁maghih	-12288
▁magkah	-12289
▁magkam	-12290
▁magkar	-12291
▁magsus	-12292
▁magulo	-12293
▁makina	-12294
▁malabo	-12295
▁manika	-12296
▁manood	-12297
▁mapasa	-12298
▁mapawi	-12299
▁mapuno	-12300
▁mariin	-12301
▁martir	-12302
▁masins	-12303
▁matang	-12304
▁matiis	-12305
▁matuwa	-12306
▁matwid	-12307
▁mayama	-12308
▁mediko	-12309
▁minuto	-12310
▁motion	-12311
▁musang	-12312
▁musmos	-12313
▁naagaw	-12314
▁naamis	-12315
▁nabali	-12316
▁nagkik	-12317
▁nagkuk	-12318
▁nagpal	-12319
▁nagpar	-12320
▁nagsil	-12321
▁naisin	-12322
▁nakaya	-12323
▁nalang	-12324
▁nanalo	-12325
▁napagt	-12326
▁napana	-12327
▁napawi	-12328
▁napuno	-12329
▁nasawi	-12330
▁natira	-12331
▁natuyo	-12332
▁naubos	-12333
▁niyaya	-12334
▁normal	-12335
▁obrero	-12336
▁pababa	-12337
▁pabaon	-12338
▁padala	-12339
▁pagano	-12340
▁pagdad	-12341
▁paghig	-12342
▁pagkit	-12343
▁pahina	-12344
▁palaki	-12345
▁palaso	-12346
▁palayo	-12347
▁pamahi	-12348
▁panday	-12349
▁pangan	-12350
▁pangko	-12351
▁panhik	-12352
▁pantig	-12353
▁papaya	-12354
▁parati	-12355
▁paroko	-12356
▁pasang	-12357
▁paslit	-12358
▁piknik	-12359
▁piliin	-12360
▁pinaki	-12361
▁pinalo	-12362
▁piraso	-12363
▁punglo	-12364
▁ranggo	-12365
▁recall	-12366
▁rentas	-12367
▁sadlak	-12368
▁sagang	-12369
▁salang	-12370
▁sandok	-12371
▁sasama	-12372
▁scient	-12373
▁sedula	-12374
▁serpiy	-12375
▁silyon	-12376
▁sinira	-12377
▁sising	-12378
▁siyent	-12379
▁subdib	-12380
▁sundan	-12381
▁sungay	-12382
▁susuko	-12383
▁takpan	-12384
▁talian	-12385
▁taling	-12386
▁tamaan	-12387
▁taripa	-12388
▁teatro	-12389
▁tignan	-12390
▁tinamo	-12391
▁tindig	-12392
▁tingni	-12393
▁tinuka	-12394
▁tuklas	-12395
▁tumaas	-12396
▁tumulo	-12397
▁turing	-12398
▁uliran	-12399
▁ulunan	-12400
▁umusad	-12401
▁unggoy	-12402
▁usigin	-12403
Dumating	-12404
Hanggang	-12405
Ibibigay	-12406
Mangyari	-12407
Maraming	-12408
Nakalaan	-12409
Pilipino	-12410
abatayan	-12411
agalawan	-12412
akaawang	-12413
alakayin	-12414
alikasan	-12415
andulong	-12416
asagutin	-12417
atatapon	-12418
atingala	-12419
ayakapin	-12420
ayukayok	-12421
binyagan	-12422
bulungan	-12423
elektwal	-12424
enegildo	-12425
ibigyang	-12426
igiliwan	-12427
ilandang	-12428
iligalig	-12429
ilinlang	-12430
isisihan	-12431
itanghal	-12432
kaniyang	-12433
maligaya	-12434
manghang	-12435
odernong	-12436
piritwal	-12437
unggaban	-12438
ungkalin	-12439
▁Alading	-12440
▁Antalan	-12441
▁Bangkay	-12442
▁Bituing	-12443
▁Buhayin	-12444
▁Bunsong	-12445
▁Cebuano	-12446
▁Dianzon	-12447
▁Dinakip	-12448
▁Dinarad	-12449
▁Domingo	-12450
▁Dumalap	-12451
▁Escolta	-12452
▁Filemon	-12453
▁Ganding	-12454
▁Garrote	-12455
▁Guardia	-12456
▁Heswita	-12457
▁Hinabol	-12458
▁Hiningi	-12459
▁Humanga	-12460
▁Igalang	-12461
▁Ikaanim	-12462
▁Ikapito	-12463
▁Indones	-12464
▁Ipinayo	-12465
▁Isinama	-12466
▁Isinuot	-12467
▁Itinaas	-12468
▁Jupiter	-12469
▁KAGAWAR	-12470
▁KARAPAT	-12471
▁Kalihim	-12472
▁Kasabay	-12473
▁Katawan	-12474
▁Kayrami	-12475
▁Kumapit	-12476
▁Kumatok	-12477
▁Lipunan	-12478
▁Lumawig	-12479
▁Lumuhod	-12480
▁Maagang	-12481
▁Magsisi	-12482
▁Mahanga	-12483
▁Mahigit	-12484
▁Malasin	-12485
▁Maliban	-12486
▁Malubha	-12487
▁Malugod	-12488
▁Malupit	-12489
▁Marikit	-12490
▁Martang	-12491
▁Matamis	-12492
▁Matibay	-12493
▁Matindi	-12494
▁Mautang	-12495
▁Mutyang	-12496
▁Nagdala	-12497
▁Nahulog	-12498
▁Nakaupo	-12499
▁Namuhay	-12500
▁Nangags	-12501
▁Nangung	-12502
▁Napagka	-12503
▁Narinig	-12504
▁Natanaw	-12505
▁Palawan	-12506
▁Pangkat	-12507
▁Pinanin	-12508
▁Pinasok	-12509
▁Pinauwi	-12510
▁Pinutol	-12511
▁Sadyang	-12512
▁Sagisag	-12513
▁Sandayo	-12514
▁Sentral	-12515
▁Sicalac	-12516
▁Sinunod	-12517
▁Siyudad	-12518
▁Sumapit	-12519
▁Sumigaw	-12520
▁Sumisid	-12521
▁Tutungo	-12522
▁Visayas	-12523
▁aanihin	-12524
▁abangan	-12525
▁abaniko	-12526
▁angkang	-12527
▁anitong	-12528
▁artista	-12529
▁bagaman	-12530
▁balikan	-12531
▁balitaw	-12532
▁bandera	-12533
▁banyaga	-12534
▁barilin	-12535
▁bayaran	-12536
▁bayarin	-12537
▁bihisan	-12538
▁biktima	-12539
▁bingwit	-12540
▁binubuk	-12541
▁binuwag	-12542
▁bubuuin	-12543
▁buhayin	-12544
▁bukirin	-12545
▁bunutin	-12546
▁busabos	-12547
▁detalye	-12548
▁diligin	-12549
▁duluhan	-12550
▁dumakot	-12551
▁dumaloy	-12552
▁dumanas	-12553
▁dumulog	-12554
▁duwende	-12555
▁element	-12556
▁ganoong	-12557
▁grupong	-12558
▁gulanit	-12559
▁habilin	-12560
▁hanguin	-12561
▁higupin	-12562
▁hinding	-12563
▁hiningi	-12564
▁hinugot	-12565
▁hukayin	-12566
▁humalik	-12567
▁humihip	-12568
▁ibinato	-12569
▁inaakay	-12570
▁inaalis	-12571
▁inaaliw	-12572
▁inaanak	-12573
▁inianak	-12574
▁inihain	-12575
▁iniraos	-12576
▁inuusig	-12577
▁ipadala	-12578
▁ipinayo	-12579
▁ipiniit	-12580
▁isinama	-12581
▁isinasa	-12582
▁isusubo	-12583
▁ituturo	-12584
▁kabaita	-12585
▁kabaong	-12586
▁kabigha	-12587
▁kagalit	-12588
▁kaginoo	-12589
▁kaginsa	-12590
▁kakaiba	-12591
▁kalakip	-12592
▁kalihim	-12593
▁kaluban	-12594
▁kalunos	-12595
▁kamukha	-12596
▁kanyong	-12597
▁kapatak	-12598
▁kasingt	-12599
▁katakot	-12600
▁katamis	-12601
▁katwira	-12602
▁kilabot	-12603
▁kilusan	-12604
▁klaseng	-12605
▁kunwari	-12606
▁kuratsa	-12607
▁kutsero	-12608
▁labagin	-12609
▁lalabis	-12610
▁lambong	-12611
▁lamunin	-12612
▁lathala	-12613
▁likhang	-12614
▁lubusan	-12615
▁luluhod	-12616
▁lumagay	-12617
▁lumagda	-12618
▁lumalag	-12619
▁lumawig	-12620
▁lumiyag	-12621
▁lumubog	-12622
▁lumulon	-12623
▁lutasin	-12624
▁mabibig	-12625
▁mabigla	-12626
▁mabunga	-12627
▁madamot	-12628
▁magalit	-12629
▁magdusa	-12630
▁maghapo	-12631
▁magilas	-12632
▁magpang	-12633
▁magumon	-12634
▁magyuko	-12635
▁mahimok	-12636
▁mahinog	-12637
▁maiinam	-12638
▁makahoy	-12639
▁makitil	-12640
▁malaong	-12641
▁malibre	-12642
▁malikha	-12643
▁malikot	-12644
▁maliksi	-12645
▁malunod	-12646
▁manding	-12647
▁mangaso	-12648
▁mangkok	-12649
▁manipis	-12650
▁mapapak	-12651
▁mapapal	-12652
▁maramot	-12653
▁mariing	-12654
▁masakim	-12655
▁masunod	-12656
▁masupil	-12657
▁matayog	-12658
▁matindi	-12659
▁matupad	-12660
▁mauubos	-12661
▁maykaya	-12662
▁medalya	-12663
▁mensahe	-12664
▁mismong	-12665
▁monopol	-12666
▁nagbayo	-12667
▁naglaon	-12668
▁nagmana	-12669
▁nagpala	-12670
▁nagpati	-12671
▁nagtaas	-12672
▁nagtalo	-12673
▁nagtayo	-12674
▁nagulat	-12675
▁nahayag	-12676
▁naiinip	-12677
▁nakahih	-12678
▁nakakab	-12679
▁nalanta	-12680
▁namalas	-12681
▁namutla	-12682
▁nangagb	-12683
▁nangagl	-12684
▁napakas	-12685
▁napapan	-12686
▁napipin	-12687
▁naputol	-12688
▁nasunod	-12689
▁natuloy	-12690
▁natupok	-12691
▁naturan	-12692
▁nayanig	-12693
▁nilibot	-12694
▁nililok	-12695
▁nominee	-12696
▁okasyon	-12697
▁orakulo	-12698
▁paghabi	-12699
▁pagkuha	-12700
▁pagpuri	-12701
▁pagtaas	-12702
▁pakikib	-12703
▁pakikip	-12704
▁palakad	-12705
▁pamatay	-12706
▁panatil	-12707
▁panyong	-12708
▁papasok	-12709
▁parokya	-12710
▁pasigaw	-12711
▁patente	-12712
▁pilyong	-12713
▁pinahih	-12714
▁pinakad	-12715
▁pinakap	-12716
▁pinangh	-12717
▁pinapag	-12718
▁pinauwi	-12719
▁pinigil	-12720
▁pinsang	-12721
▁pintong	-12722
▁pistang	-12723
▁pitasin	-12724
▁piyesta	-12725
▁planeta	-12726
▁plantsa	-12727
▁popular	-12728
▁pumanik	-12729
▁pustiso	-12730
▁putlang	-12731
▁puwersa	-12732
▁puwesto	-12733
▁resulta	-12734
▁revenue	-12735
▁sabagay	-12736
▁sagipin	-12737
▁sagrado	-12738
▁sakbibi	-12739
▁salarin	-12740
▁sapatos	-12741
▁sasagot	-12742
▁sigwang	-12743
▁silahis	-12744
▁silyang	-12745
▁sinadya	-12746
▁sinauna	-12747
▁singkad	-12748
▁sinunog	-12749
▁sukaban	-12750
▁sukdang	-12751
▁sumabog	-12752
▁sumasal	-12753
▁sumibol	-12754
▁sumipot	-12755
▁suporta	-12756
▁tabsing	-12757
▁talukap	-12758
▁termino	-12759
▁tigilan	-12760
▁tiniyak	-12761
▁tinudla	-12762
▁tiririt	-12763
▁tribong	-12764
▁tularan	-12765
▁tumikim	-12766
▁tumulak	-12767
▁ugnayan	-12768
▁umaabot	-12769
▁umaakay	-12770
▁umaalis	-12771
▁umaayon	-12772
▁umanong	-12773
▁umiikot	-12774
▁umiimik	-12775
▁umugong	-12776
▁unawain	-12777
Lalapitan	-12778
Malungkot	-12779
Mamamatay	-12780
abilanggo	-12781
agumpayan	-12782
ahingahan	-12783
akripisyo	-12784
alakhakan	-12785
alintulad	-12786
atakutang	-12787
awawalang	-12788
bighaning	-12789
comulgado	-12790
ementeryo	-12791
ernatural	-12792
hihiganti	-12793
ipaglaban	-12794
pirmasyon	-12795
rikultura	-12796
rimonyong	-12797
ungkahing	-12798
upumiglas	-12799
uumpugang	-12800
▁Agustino	-12801
▁Akademya	-12802
▁Alemanya	-12803
▁Aninipay	-12804
▁Antipolo	-12805
▁Bangkaya	-12806
▁Binigkas	-12807
▁Bubuksan	-12808
▁Bumaling	-12809
▁Darating	-12810
▁Dinampot	-12811
▁Diyuhara	-12812
▁Etolyang	-12813
▁Gobyerno	-12814
▁Gumulong	-12815
▁Halikayo	-12816
▁Hongkong	-12817
▁Ikinasal	-12818
▁Inabutan	-12819
▁Inihagis	-12820
▁Inilabas	-12821
▁Inilagay	-12822
▁Isinunod	-12823
▁Isisilid	-12824
▁Isusumpa	-12825
▁Itinapon	-12826
▁KAMPUPOT	-12827
▁Kabilang	-12828
▁Kanilang	-12829
▁Kapuluan	-12830
▁Katindoy	-12831
▁Kotabato	-12832
▁Kupidong	-12833
▁Magaling	-12834
▁Magbayad	-12835
▁Magiging	-12836
▁Makahiya	-12837
▁Malayang	-12838
▁Maligaya	-12839
▁Marahang	-12840
▁Marunong	-12841
▁Naaalala	-12842
▁Nagagawa	-12843
▁Nagdaang	-12844
▁Naghanap	-12845
▁Naglakad	-12846
▁Nagsayaw	-12847
▁Nahalata	-12848
▁Nakatira	-12849
▁Nanatili	-12850
▁Naroroon	-12851
▁Nasindak	-12852
▁Pagsapit	-12853
▁Pumanaog	-12854
▁Salaysay	-12855
▁Santiago	-12856
▁Sarhento	-12857
▁Talagang	-12858
▁Tinuruan	-12859
▁Titingin	-12860
▁Tumilaok	-12861
▁Tumindig	-12862
▁Tumingin	-12863
▁aktibong	-12864
▁alipusta	-12865
▁alpombra	-12866
▁apatnapu	-12867
▁apektado	-12868
▁armadong	-12869
▁atensyon	-12870
▁babatiin	-12871
▁bahagdan	-12872
▁bakasyon	-12873
▁bantayog	-12874
▁batikang	-12875
▁bersyong	-12876
▁beterano	-12877
▁bibilang	-12878
▁binabasa	-12879
▁binabayo	-12880
▁binagtas	-12881
▁biyayang	-12882
▁bubuksan	-12883
▁bubungan	-12884
▁bumababa	-12885
▁bumabati	-12886
▁buwayang	-12887
▁dalitang	-12888
▁daluyong	-12889
▁darakpin	-12890
▁datapuwa	-12891
▁dayalogo	-12892
▁dayuhang	-12893
▁digmaang	-12894
▁dinampot	-12895
▁dinapuan	-12896
▁dumadapo	-12897
▁enerhiya	-12898
▁gabinete	-12899
▁gampanin	-12900
▁gumapang	-12901
▁hahagkan	-12902
▁himagsik	-12903
▁hinangad	-12904
▁hintayin	-12905
▁ibinalik	-12906
▁ibinayad	-12907
▁ibinilin	-12908
▁iginapos	-12909
▁ikakasal	-12910
▁inaaring	-12911
▁inihalal	-12912
▁inihatid	-12913
▁inilagak	-12914
▁inilawan	-12915
▁inilipat	-12916
▁iniwanan	-12917
▁ipagkait	-12918
▁ipahatid	-12919
▁ipakasal	-12920
▁ipatupad	-12921
▁ipinataw	-12922
▁isinagot	-12923
▁isinalin	-12924
▁itinaboy	-12925
▁itinangi	-12926
▁itinulak	-12927
▁itinuloy	-12928
▁kaasalan	-12929
▁kabayong	-12930
▁kagalang	-12931
▁kahuluga	-12932
▁kailanma	-12933
▁kalabang	-12934
▁kalaguyo	-12935
▁kalaking	-12936
▁kalapati	-12937
▁kalawang	-12938
▁kaliskis	-12939
▁kalumbay	-12940
▁kamagong	-12941
▁kamandag	-12942
▁kamangha	-12943
▁karakang	-12944
▁karangya	-12945
▁kaserola	-12946
▁kastilyo	-12947
▁katabing	-12948
▁katalong	-12949
▁katambal	-12950
▁katotong	-12951
▁katuwang	-12952
▁kautusan	-12953
▁kayarian	-12954
▁kilyawan	-12955
▁kinubkob	-12956
▁kumausap	-12957
▁kumidlat	-12958
▁kumikibo	-12959
▁kupidong	-12960
▁labanang	-12961
▁landasin	-12962
▁larawang	-12963
▁lehislat	-12964
▁likurang	-12965
▁limitado	-12966
▁linggong	-12967
▁listahan	-12968
▁lumaking	-12969
▁lumundag	-12970
▁lumutang	-12971
▁lunggati	-12972
▁maaalala	-12973
▁maalamat	-12974
▁mabubuti	-12975
▁magbalak	-12976
▁magbuhat	-12977
▁maghapon	-12978
▁maglakad	-12979
▁magmasid	-12980
▁magyakap	-12981
▁mahinhin	-12982
▁mahiwaga	-12983
▁maiwasan	-12984
▁makakibo	-12985
▁makalawa	-12986
▁makalaya	-12987
▁makapagd	-12988
▁makapagm	-12989
▁makapang	-12990
▁makatayo	-12991
▁malagong	-12992
▁malamyos	-12993
▁mamasdan	-12994
▁mamumuno	-12995
▁mangusap	-12996
▁mapadali	-12997
▁mapapala	-12998
▁masusing	-12999
▁matauhan	-13000
▁matimyas	-13001
▁matinong	-13002
▁matipuno	-13003
▁mawiwika	-13004
▁minabuti	-13005
▁naaalala	-13006
▁nadatnan	-13007
▁naganyak	-13008
▁nagbihis	-13009
▁nagdasal	-13010
▁nagdilim	-13011
▁nagkagan	-13012
▁nagkakas	-13013
▁nagkalat	-13014
▁naglagay	-13015
▁naglalak	-13016
▁nagmamay	-13017
▁nagpatih	-13018
▁nagsabog	-13019
▁nagtanim	-13020
▁nagtatag	-13021
▁nahirang	-13022
▁nakahuli	-13023
▁nakaiwas	-13024
▁nakalaan	-13025
▁nakasama	-13026
▁nakataas	-13027
▁nakatiis	-13028
▁nakawala	-13029
▁nakayuko	-13030
▁nakubkob	-13031
▁nalamang	-13032
▁nalimbag	-13033
▁namamana	-13034
▁namasyal	-13035
▁namataan	-13036
▁namayapa	-13037
▁nanaisin	-13038
▁nanghina	-13039
▁nangusap	-13040
▁naniwala	-13041
▁napadaan	-13042
▁napadpad	-13043
▁naparito	-13044
▁napayapa	-13045
▁naririto	-13046
▁nasambit	-13047
▁nasisira	-13048
▁naubusan	-13049
▁nawaglit	-13050
▁nawalang	-13051
▁nilagyan	-13052
▁niluluto	-13053
▁ninanasa	-13054
▁ninasang	-13055
▁orkestra	-13056
▁paalisin	-13057
▁paborito	-13058
▁pagdaing	-13059
▁pagdamay	-13060
▁paggapas	-13061
▁paghahal	-13062
▁pagharap	-13063
▁paghihin	-13064
▁paghingi	-13065
▁paghinto	-13066
▁pagkaawa	-13067
▁pagkakap	-13068
▁paglilin	-13069
▁paglubog	-13070
▁pagpanaw	-13071
▁pagsulat	-13072
▁pagsuway	-13073
▁pagtakbo	-13074
▁pagtanaw	-13075
▁pagtanda	-13076
▁pagtungo	-13077
▁palaging	-13078
▁palalong	-13079
▁palaring	-13080
▁palasong	-13081
▁palendag	-13082
▁pamimili	-13083
▁paminsan	-13084
▁pangkura	-13085
▁panlunas	-13086
▁pansinin	-13087
▁pantribo	-13088
▁parangal	-13089
▁parating	-13090
▁parehong	-13091
▁partidos	-13092
▁pasubsob	-13093
▁patibong	-13094
▁payagang	-13095
▁perpetua	-13096
▁pinaalis	-13097
▁pinagpup	-13098
▁pinapang	-13099
▁pinupuri	-13100
▁produkto	-13101
▁pumalaot	-13102
▁pumarito	-13103
▁pwersang	-13104
▁relasyon	-13105
▁sagupaan	-13106
▁salitaan	-13107
▁sangguni	-13108
▁sektoral	-13109
▁simulain	-13110
▁sinasaka	-13111
▁sinusuyo	-13112
▁sosyedad	-13113
▁sukdulan	-13114
▁susundan	-13115
▁susundin	-13116
▁susuriin	-13117
▁tagapags	-13118
▁tagsibol	-13119
▁taluktok	-13120
▁tampulan	-13121
▁tanikala	-13122
▁tatsulok	-13123
▁tawaging	-13124
▁tinangis	-13125
▁tinangka	-13126
▁tinitiis	-13127
▁tinuruan	-13128
▁tiyakang	-13129
▁trahedya	-13130
▁tumangis	-13131
▁ugnayang	-13132
▁umusbong	-13133
▁umuunlad	-13134
Balintawak	-13135
Pagkatapos	-13136
Tutulungan	-13137
agubilinan	-13138
akasalanan	-13139
akaunawaan	-13140
amalasakit	-13141
amatandang	-13142
ampalataya	-13143
angkilikin	-13144
asalukuyan	-13145
ganisasyon	-13146
paniwalang	-13147
uestration	-13148
uwalhatian	-13149
▁Artilyero	-13150
▁Bahaginan	-13151
▁Binitiwan	-13152
▁Capariaan	-13153
▁Damdaming	-13154
▁Embidayan	-13155
▁Fleridang	-13156
▁Ginagamit	-13157
▁Hahahahah	-13158
▁Hahawakan	-13159
▁Hinahanap	-13160
▁Hinimatay	-13161
▁Ikalawang	-13162
▁Impiyerno	-13163
▁Inaasahan	-13164
▁Indrapura	-13165
▁Ipinadala	-13166
▁Ipinakita	-13167
▁Kapalaran	-13168
▁Karaniwan	-13169
▁Kasulatan	-13170
▁Kinumusta	-13171
▁Kulturang	-13172
▁Lakandiwa	-13173
▁Mabubuhay	-13174
▁Macaranga	-13175
▁Magaganda	-13176
▁Magmadali	-13177
▁Mantapuli	-13178
▁Mapatubig	-13179
▁Melendrez	-13180
▁Minisalaw	-13181
▁Nagdurusa	-13182
▁Nagkagulo	-13183
▁Nagkataon	-13184
▁Nagsasama	-13185
▁Nakahanda	-13186
▁Nalimutan	-13187
▁Napilitan	-13188
▁Natatakot	-13189
▁Nilapitan	-13190
▁Nobyembre	-13191
▁Pablitong	-13192
▁Pagkaalis	-13193
▁Persiyano	-13194
▁Pinatigil	-13195
▁Pinatuloy	-13196
▁Pinawalan	-13197
▁Saturnino	-13198
▁Setyembre	-13199
▁Sinabihan	-13200
▁Sinigawan	-13201
▁Suliranin	-13202
▁Tabunaway	-13203
▁Tinawagan	-13204
▁Tinuligsa	-13205
▁Titingala	-13206
▁Tungkulin	-13207
▁Valeriana	-13208
▁Yambungan	-13209
▁akademiko	-13210
▁anyayahan	-13211
▁ariariang	-13212
▁artistiko	-13213
▁babarilin	-13214
▁bangungot	-13215
▁bibitayin	-13216
▁binabalak	-13217
▁binabalik	-13218
▁binayaran	-13219
▁binigyang	-13220
▁binubunot	-13221
▁bumubuong	-13222
▁dadalawin	-13223
▁daigdigan	-13224
▁dinaranas	-13225
▁dinatnang	-13226
▁dinumihan	-13227
▁ginugugol	-13228
▁hagupitin	-13229
▁hangaring	-13230
▁hanggahan	-13231
▁hardinero	-13232
▁hinanakit	-13233
▁hinangaan	-13234
▁hinatulan	-13235
▁hinuhukay	-13236
▁humihinga	-13237
▁ihahandog	-13238
▁ikabubuti	-13239
▁ikauunlad	-13240
▁ililigtas	-13241
▁inaangkin	-13242
▁industriy	-13243
▁inilibing	-13244
▁inilimbag	-13245
▁iniluklok	-13246
▁ipagtapat	-13247
▁ipakikita	-13248
▁ipinadpad	-13249
▁isalubong	-13250
▁isisilang	-13251
▁itatalaga	-13252
▁itinatago	-13253
▁kaalamang	-13254
▁kabilugan	-13255
▁kaganapan	-13256
▁kahihiyan	-13257
▁kalaliman	-13258
▁kaliluhan	-13259
▁kamukhang	-13260
▁kapatiran	-13261
▁kariktang	-13262
▁karugtong	-13263
▁kasakiman	-13264
▁kasanayan	-13265
▁katagalan	-13266
▁katamaran	-13267
▁katatagan	-13268
▁katayuang	-13269
▁katipunan	-13270
▁katuturan	-13271
▁kautusang	-13272
▁kawanihan	-13273
▁kinaawaan	-13274
▁kinagagap	-13275
▁kinakapos	-13276
▁kinawayan	-13277
▁kulturang	-13278
▁kunwaring	-13279
▁labandera	-13280
▁limampung	-13281
▁lumalabas	-13282
▁mababakas	-13283
▁mabanggit	-13284
▁mabigyang	-13285
▁madaliang	-13286
▁magbangon	-13287
▁magkausap	-13288
▁magparusa	-13289
▁magpulong	-13290
▁magsasabi	-13291
▁magtitiis	-13292
▁maiibigan	-13293
▁maiwasang	-13294
▁makaharap	-13295
▁makakamit	-13296
▁makalapit	-13297
▁makalimot	-13298
▁makarinig	-13299
▁makasapit	-13300
▁makatapos	-13301
▁makikipag	-13302
▁malilikot	-13303
▁mambabasa	-13304
▁mananayaw	-13305
▁mapatakan	-13306
▁masakitin	-13307
▁masiglang	-13308
▁masusupil	-13309
▁matagalan	-13310
▁matahimik	-13311
▁matutulis	-13312
▁matutupad	-13313
▁nababatay	-13314
▁nagagapos	-13315
▁nagbabala	-13316
▁nagbibiro	-13317
▁naghangad	-13318
▁naghintay	-13319
▁nagkaanak	-13320
▁nagkagulo	-13321
▁nagligtas	-13322
▁nagpasiya	-13323
▁nagpulong	-13324
▁nagsasaya	-13325
▁nagtaksil	-13326
▁nagtuturo	-13327
▁naibalita	-13328
▁nakaabang	-13329
▁nakabalik	-13330
▁nakabihis	-13331
▁nakakapag	-13332
▁nakalahad	-13333
▁nakalatag	-13334
▁nakalipad	-13335
▁nakaranas	-13336
▁nakasaksi	-13337
▁nakatakda	-13338
▁nakatikim	-13339
▁nakatitik	-13340
▁nalalanta	-13341
▁naliligid	-13342
▁namamahay	-13343
▁namamalas	-13344
▁namumunga	-13345
▁nangakong	-13346
▁nangasiwa	-13347
▁nanghiram	-13348
▁nangitlog	-13349
▁napansing	-13350
▁naraanang	-13351
▁nasasabik	-13352
▁nasasakop	-13353
▁nasasalig	-13354
▁natanawan	-13355
▁natapakan	-13356
▁natitipon	-13357
▁naunawaan	-13358
▁negosyong	-13359
▁nilapitan	-13360
▁nilikhang	-13361
▁ordinansa	-13362
▁paaralang	-13363
▁pagdidiin	-13364
▁paggunita	-13365
▁pagkahari	-13366
▁pagkukusa	-13367
▁paglinang	-13368
▁pagpanhik	-13369
▁pagtalima	-13370
▁pagtatayo	-13371
▁pagtutuos	-13372
▁pakendeng	-13373
▁pakikiisa	-13374
▁palasyong	-13375
▁palayawin	-13376
▁palitawin	-13377
▁palugitan	-13378
▁pamalakad	-13379
▁pambayani	-13380
▁pambungad	-13381
▁pangkaran	-13382
▁pansarili	-13383
▁pantulong	-13384
▁paraluman	-13385
▁pasilidad	-13386
▁pinalabas	-13387
▁pinalayas	-13388
▁pinanumpa	-13389
▁pinasukan	-13390
▁pinturang	-13391
▁pipitasin	-13392
▁pitumpung	-13393
▁professor	-13394
▁puspusang	-13395
▁reclusion	-13396
▁sabungero	-13397
▁sandalyas	-13398
▁sandatang	-13399
▁scientist	-13400
▁sigarilyo	-13401
▁sinamahan	-13402
▁sinasadya	-13403
▁sinugatan	-13404
▁solitaryo	-13405
▁sumasayaw	-13406
▁sumisigaw	-13407
▁sumisikat	-13408
▁sundalong	-13409
▁talumpati	-13410
▁tanggihan	-13411
▁tangraban	-13412
▁taumbayan	-13413
▁tinatapos	-13414
▁tinigilan	-13415
▁tinikling	-13416
▁tiningnan	-13417
▁tinutulan	-13418
▁tinutungo	-13419
▁tumitibok	-13420
▁tumutugon	-13421
▁tuntuning	-13422
Papalibutan	-13423
alipikasyon	-13424
amantalahan	-13425
arantiyahan	-13426
rehensibong	-13427
▁Bagombayan	-13428
▁Inilarawan	-13429
▁Ipinangako	-13430
▁Kalanutian	-13431
▁Kalikasang	-13432
▁Kasarinlan	-13433
▁Kayumanggi	-13434
▁Nagbuntung	-13435
▁Naghiyawan	-13436
▁Nagkakaisa	-13437
▁Nagmakaawa	-13438
▁Nagsisipan	-13439
▁Nakaramdam	-13440
▁Nanggaling	-13441
▁Naramdaman	-13442
▁Pagkalipas	-13443
▁Pagkaraang	-13444
▁Pamayamaya	-13445
▁Paruparong	-13446
▁Persyanong	-13447
▁Samaritano	-13448
▁Silanganin	-13449
▁Sinasabing	-13450
▁Sinimulang	-13451
▁Tinangkang	-13452
▁Tinulungan	-13453
▁baligtarin	-13454
▁binitiwang	-13455
▁bumabalong	-13456
▁certiorari	-13457
▁hahalinhan	-13458
▁henerasyon	-13459
▁hinahagkan	-13460
▁historikal	-13461
▁ikabubuhay	-13462
▁imbitasyon	-13463
▁inaakalang	-13464
▁inaalagaan	-13465
▁inilalagay	-13466
▁inilarawan	-13467
▁initiative	-13468
▁integrated	-13469
▁interesado	-13470
▁ipahiwatig	-13471
▁ipaliwanag	-13472
▁isinisigaw	-13473
▁kaalipinan	-13474
▁kabinataan	-13475
▁kabuhayang	-13476
▁kagawarang	-13477
▁kaguluhang	-13478
▁kailaliman	-13479
▁kampanaryo	-13480
▁kamusmusan	-13481
▁kapabayaan	-13482
▁kapasyahan	-13483
▁kapistahan	-13484
▁kapulungan	-13485
▁kapurihang	-13486
▁kapuspalad	-13487
▁kararating	-13488
▁kasarinlan	-13489
▁kasiglahan	-13490
▁katapatang	-13491
▁katapusang	-13492
▁kinakitaan	-13493
▁koalisyong	-13494
▁kolehiyado	-13495
▁kontrabida	-13496
▁lumilingon	-13497
▁lumulutang	-13498
▁magbubukid	-13499
▁magdudulot	-13500
▁maghapunan	-13501
▁magkagalit	-13502
▁magkaharap	-13503
▁magkakamag	-13504
▁magkasundo	-13505
▁magpatotoo	-13506
▁magpautang	-13507
▁magsabatas	-13508
▁magtanggol	-13509
▁maitanghal	-13510
▁makabangon	-13511
▁makakamtan	-13512
▁makalawang	-13513
▁makaramdam	-13514
▁manalangin	-13515
▁mananatili	-13516
▁mangyaring	-13517
▁mapagbigay	-13518
▁mapuputing	-13519
▁maralitang	-13520
▁marurunong	-13521
▁matagumpay	-13522
▁matiyagang	-13523
▁mawawaglit	-13524
▁nadagdagan	-13525
▁nagbabalak	-13526
▁nagbangong	-13527
▁nagbubuhat	-13528
▁nagdahilan	-13529
▁nagdarasal	-13530
▁naghahanda	-13531
▁naghahatid	-13532
▁naghahayag	-13533
▁naghiwalay	-13534
▁nagkapalad	-13535
▁naglalagos	-13536
▁naglilibot	-13537
▁nagpahayag	-13538
▁nagpapalit	-13539
▁nagpupugay	-13540
▁nagtatanim	-13541
▁nagtatanod	-13542
▁nagugunita	-13543
▁nagwawakas	-13544
▁nakababasa	-13545
▁nakakausap	-13546
▁nakakulong	-13547
▁nakapagpap	-13548
▁nakapagsas	-13549
▁nakapanhik	-13550
▁nakaramdam	-13551
▁nakikilala	-13552
▁namamangka	-13553
▁nananariwa	-13554
▁nananatili	-13555
▁nanghihina	-13556
▁nararating	-13557
▁naulinigan	-13558
▁ngumingiti	-13559
▁pagbabanta	-13560
▁pagbabawal	-13561
▁pagdarasal	-13562
▁paghahakot	-13563
▁paghaharap	-13564
▁pagkaganda	-13565
▁pagkakapat	-13566
▁pagkalimot	-13567
▁pagkaputol	-13568
▁pagkatakot	-13569
▁paglalagay	-13570
▁paglalahad	-13571
▁paglilibot	-13572
▁pagsisikap	-13573
▁pagsusulat	-13574
▁pagtalikod	-13575
▁pagtatangi	-13576
▁pagtatapat	-13577
▁pagtibayin	-13578
▁pagwawakas	-13579
▁pagyamanin	-13580
▁pakialaman	-13581
▁pakikipags	-13582
▁pamamahagi	-13583
▁pampamilya	-13584
▁panghihina	-13585
▁panghuling	-13586
▁panuntunan	-13587
▁papanhikin	-13588
▁pariralang	-13589
▁patuluyang	-13590
▁pinabulaan	-13591
▁pinagagawa	-13592
▁pinagdasal	-13593
▁pinasyahan	-13594
▁prinsesang	-13595
▁pupuntahan	-13596
▁salubungin	-13597
▁sampaguita	-13598
▁sinasakyan	-13599
▁sinindihan	-13600
▁sinisipsip	-13601
▁sumalubong	-13602
▁sumasaklaw	-13603
▁taludturan	-13604
▁tatawaging	-13605
▁tinalunton	-13606
▁tinataglay	-13607
▁tinatakpan	-13608
▁tinuturuan	-13609
▁tiwangwang	-13610
▁tumangging	-13611
alapastangan	-13612
isinungaling	-13613
▁Impahimbang	-13614
▁Itinatanong	-13615
▁Kapampangan	-13616
▁Katungkulan	-13617
▁Maghimagsik	-13618
▁Matanglawin	-13619
▁Naghihintay	-13620
▁Nagtakbuhan	-13621
▁Pangawalang	-13622
▁Pilibustero	-13623
▁Sitsiritsit	-13624
▁Tangkilikin	-13625
▁Villafuerte	-13626
▁advertising	-13627
▁alingawngaw	-13628
▁artilyerong	-13629
▁disposisyon	-13630
▁elementarya	-13631
▁ginagalawan	-13632
▁hinahagupit	-13633
▁intelektwal	-13634
▁ipinagtapat	-13635
▁ipinakikita	-13636
▁isinasagawa	-13637
▁kabihasnang	-13638
▁kabundukang	-13639
▁kalinangang	-13640
▁kaparaanang	-13641
▁kapulungang	-13642
▁kapupulutan	-13643
▁karamdamang	-13644
▁kasanggulan	-13645
▁kasaysayang	-13646
▁kasiphayuan	-13647
▁katarungang	-13648
▁kinatagpuan	-13649
▁labinlimang	-13650
▁magdaragdag	-13651
▁magkasamang	-13652
▁magpagulang	-13653
▁magpapakita	-13654
▁magsasakang	-13655
▁maitutulong	-13656
▁maituturing	-13657
▁makabuluhan	-13658
▁makalimutan	-13659
▁makatuwiran	-13660
▁malalabasan	-13661
▁mamumuhunan	-13662
▁mananalamin	-13663
▁manananggol	-13664
▁manghimasok	-13665
▁manlalakbay	-13666
▁mapatunayan	-13667
▁matatanggap	-13668
▁matatapatan	-13669
▁naghahandog	-13670
▁nagkakagulo	-13671
▁nagkakaloob	-13672
▁nagkapakpak	-13673
▁nagmamalaki	-13674
▁nagsusuyuan	-13675
▁nahihimbing	-13676
▁nakakalimot	-13677
▁nakalilimot	-13678
▁nakalulunos	-13679
▁nakasusulat	-13680
▁namamanglaw	-13681
▁namimilipit	-13682
▁nanghihingi	-13683
▁napayukayok	-13684
▁pagbabahagi	-13685
▁pagdaragdag	-13686
▁pagdarausan	-13687
▁pagkadakila	-13688
▁pagkahirang	-13689
▁pagkakaluto	-13690
▁pagkamangha	-13691
▁paglilinang	-13692
▁pagnanasang	-13693
▁pagpapairal	-13694
▁pagsisilang	-13695
▁pagtatamasa	-13696
▁pakikidigma	-13697
▁pakikilahok	-13698
▁pamimingwit	-13699
▁pananahimik	-13700
▁panganganak	-13701
▁pangingisda	-13702
▁pinagbigyan	-13703
▁pinagdaanan	-13704
▁pinagdarayo	-13705
▁pinaglaruan	-13706
▁pinagmulang	-13707
▁pinakikilos	-13708
▁pinakinggan	-13709
▁pinaligiran	-13710
▁pinatunayan	-13711
▁scholarship	-13712
▁sinasagisag	-13713
▁sinisintang	-13714
▁siyentipiko	-13715
▁suspindihin	-13716
▁tagapakinig	-13717
▁tangkilikin	-13718
▁tinaguriang	-13719
▁tinalikuran	-13720
▁tinatahanan	-13721
▁tinutuluyan	-13722
▁transaksyon	-13723
▁tumatanggap	-13724
apangyarihang	-13725
kapangyarihan	-13726
▁Binabantayan	-13727
▁Hermenegildo	-13728
▁Nakasalubong	-13729
▁Nanghinayang	-13730
▁Nararamdaman	-13731
▁Pinakamataas	-13732
▁Pinakiusapan	-13733
▁Proklamasyon	-13734
▁awtonomiyang	-13735
▁binabantayan	-13736
▁deliberasyon	-13737
▁estudyanteng	-13738
▁himpapawirin	-13739
▁ikagiginhawa	-13740
▁kalalakihang	-13741
▁karapatdapat	-13742
▁magkakasunod	-13743
▁magkakatulad	-13744
▁maglilingkod	-13745
▁magpakamatay	-13746
▁magpapatuloy	-13747
▁magsisilbing	-13748
▁magtagubilin	-13749
▁magtataguyod	-13750
▁mahimasmasan	-13751
▁maintindihan	-13752
▁makabuluhang	-13753
▁makakatulong	-13754
▁makasalubong	-13755
▁mananatiling	-13756
▁mangangalaga	-13757
▁manggagawang	-13758
▁mapagkukunan	-13759
▁mapagpanggap	-13760
▁naghihingalo	-13761
▁nagpapanggap	-13762
▁nakakapiling	-13763
▁nakarehistro	-13764
▁nakatutulong	-13765
▁nangakaraang	-13766
▁nanggagaling	-13767
▁nangyayaring	-13768
▁nasisiyahang	-13769
▁pagkakahawig	-13770
▁pagkakasugat	-13771
▁pagkakasunod	-13772
▁pagkakautang	-13773
▁pagkatanggap	-13774
▁pagmamalupit	-13775
▁pagpapatayin	-13776
▁pagpapatibay	-13777
▁pagpapatotoo	-13778
▁pagpapayaman	-13779
▁pagpipitagan	-13780
▁pagtangkilik	-13781
▁palatuntunan	-13782
▁pampanitikan	-13783
▁paniniwalang	-13784
▁panrelihiyon	-13785
▁pinagbilinan	-13786
▁pinaghirapan	-13787
▁pinaglabanan	-13788
▁pinagsabihan	-13789
▁pinagtawanan	-13790
▁pinalamutian	-13791
▁proklamasyon	-13792
▁sibilisasyon	-13793
▁subdibisyong	-13794
▁supernatural	-13795
▁Ipinagtanggol	-13796
▁Napagkaisahan	-13797
▁Pinatutunayan	-13798
▁ikatatlumpung	-13799
▁kaluwalhatian	-13800
▁kinagigiliwan	-13801
▁maipagtanggol	-13802
▁makapagsimula	-13803
▁makipanirahan	-13804
▁maluwalhating	-13805
▁mapagkukunang	-13806
▁mapaparusahan	-13807
▁naghihinagpis	-13808
▁nakatatandang	-13809
▁naratipikahan	-13810
▁pagpapasyahan	-13811
▁pagtatagumpay	-13812
▁pagtutulungan	-13813
▁pangingibabaw	-13814
▁pangkalahatan	-13815
▁pangrelihiyon	-13816
▁pinagkalooban	-13817
▁pinaglibingan	-13818
▁pinatutunayan	-13819
▁Pinaniniwalaan	-13820
▁interpretasyon	-13821
▁ipinagkakaloob	-13822
▁kinatatakutang	-13823
▁magpakailanman	-13824
▁maisakatuparan	-13825
▁makapagbibigay	-13826
▁mangungunyapit	-13827
▁napapalamutian	-13828
▁pangkalinangan	-13829
▁pangungumpisal	-13830
▁pinagtatagpuan	-13831
▁umaalingawngaw	-13832
▁Makapangyarihan	-13833
▁komprehensibong	-13834
▁napagbintangang	-13835
▁napagpasiyahang	-13836
▁pagpapahalagang	-13837
▁pinagtagumpayan	-13838
▁pinangungunahan	-13839
-12	-13840
-20	-13841
-31	-13842
-39	-13843
32)	-13844
32.	-13845
5):	-13846
55)	-13847
AMA	-13848
BUR	-13849
Eee	-13850
IYA	-13851
KAL	-13852
TOR	-13853
UNG	-13854
eck	-13855
eee	-13856
eyp	-13857
fea	-13858
kia	-13859
poc	-13860
tec	-13861
-12:	-13862
604.	-13863
APAG	-13864
Alam	-13865
Araw	-13866
Buod	-13867
CTOR	-13868
Dard	-13869
Flor	-13870
ILIP	-13871
Ibig	-13872
Ikin	-13873
LING	-13874
Mayr	-13875
Nags	-13876
ONST	-13877
Patr	-13878
UNAN	-13879
akti	-13880
argo	-13881
biro	-13882
cedo	-13883
celo	-13884
cher	-13885
chos	-13886
cpoc	-13887
cual	-13888
diri	-13889
ebey	-13890
ence	-13891
ette	-13892
gayn	-13893
hrod	-13894
igno	-13895
losi	-13896
lowe	-13897
magb	-13898
ngao	-13899
noo	-13900
ashi	-13901
ense	-13902
ensy	-13903
pons	-13904
rekl	-13905
rico	-13906
rief	-13907
riol	-13908
rono	-13909
sisi	-13910
ssss	-13911
tada	-13912
ugba	-13913
vice	-13914
vide	-13915
yoso	-13916
▁(9)	-13917
▁151	-13918
▁30,	-13919
▁33:	-13920
▁34:	-13921
▁35:	-13922
▁Aca	-13923
▁Apr	-13924
▁Asu	-13925
▁Chi	-13926
▁Dav	-13927
▁Eba	-13928
▁GOM	-13929
▁Low	-13930
▁PAM	-13931
▁Paz	-13932
▁ROS	-13933
▁Rec	-13934
▁Ruf	-13935
▁Seb	-13936
▁TAD	-13937
▁TAG	-13938
▁VII	-13939
▁esp	-13940
▁for	-13941
▁ide	-13942
▁ire	-13943
▁roo	-13944
▁uso	-13945
▁val	-13946
Akong	-13947
Itong	-13948
Matut	-13949
Ngayo	-13950
STADO	-13951
adyak	-13952
ahuyo	-13953
akmal	-13954
aldal	-13955
amtam	-13956
anyag	-13957
apora	-13958
casta	-13959
chant	-13960
cillo	-13961
civil	-13962
doras	-13963
durog	-13964
eckar	-13965
ectec	-13966
eksto	-13967
empsy	-13968
erico	-13969
etiro	-13970
gusot	-13971
iguel	-13972
iilaw	-13973
iinit	-13974
iitim	-13975
ikdik	-13976
ikomp	-13977
iktis	-13978
ilihi	-13979
illon	-13980
isiil	-13981
itono	-13982
iyera	-13983
kanya	-13984
katin	-13985
kolar	-13986
lagim	-13987
ligid	-13988
lipop	-13989
luksa	-13990
mahal	-13991
mamam	-13992
matat	-13993
minsa	-13994
nubay	-13995
nugot	-13996
octor	-13997
ograp	-13998
onsid	-13999
ches	-14000
epto	-14001
▁Eks	-14002
▁Luc	-14003
▁ass	-14004
Batas	-14005
aabot	-14006
bukas	-14007
emplo	-14008
epaso	-14009
itian	-14010
liham	-14011
oocan	-14012
orcis	-14013
ordin	-14014
pawis	-14015
pukan	-14016
rekom	-14017
rolyo	-14018
seras	-14019
sigla	-14020
suwan	-14021
tagpo	-14022
talon	-14023
tumba	-14024
tuyot	-14025
ukdok	-14026
uklod	-14027
ulwak	-14028
ulyap	-14029
uugat	-14030
vukad	-14031
witas	-14032
yenda	-14033
▁Alba	-14034
▁Amay	-14035
▁Bayl	-14036
▁Budd	-14037
▁Caca	-14038
▁Epim	-14039
▁Espa	-14040
▁Harp	-14041
▁High	-14042
▁Laru	-14043
▁Misk	-14044
▁PAMB	-14045
▁Pare	-14046
▁Sult	-14047
▁Ukol	-14048
▁Unos	-14049
▁Utak	-14050
▁Vill	-14051
▁abog	-14052
▁amba	-14053
▁amer	-14054
▁amga	-14055
▁amis	-14056
▁bibe	-14057
▁casi	-14058
▁cont	-14059
▁gras	-14060
▁guho	-14061
▁hard	-14062
▁himl	-14063
▁impi	-14064
▁ipau	-14065
▁iwas	-14066
▁kopa	-14067
▁kudy	-14068
▁pleb	-14069
▁prov	-14070
▁rubi	-14071
▁seny	-14072
▁sipa	-14073
▁soso	-14074
▁tayu	-14075
▁tela	-14076
▁teyp	-14077
▁tigh	-14078
▁titi	-14079
▁turb	-14080
ALINIS	-14081
AMBINI	-14082
ANSANG	-14083
Aruman	-14084
Doctor	-14085
HANANG	-14086
IPUNAN	-14087
Lalake	-14088
Magpip	-14089
Magsis	-14090
Nakang	-14091
Narito	-14092
ONSTIT	-14093
Sasamb	-14094
aaabot	-14095
abitiw	-14096
adyain	-14097
aghari	-14098
akipak	-14099
Bac	-14100
Ipak	-14101
plas	-14102
Mapan	-14103
erkur	-14104
igiba	-14105
kapan	-14106
lagot	-14107
▁aria	-14108
▁kont	-14109
akisig	-14110
alibag	-14111
alupan	-14112
amakin	-14113
amusta	-14114
andard	-14115
angond	-14116
aninaw	-14117
apamil	-14118
apding	-14119
apusin	-14120
aramay	-14121
aridad	-14122
arimot	-14123
arinaw	-14124
aripas	-14125
asakin	-14126
asamba	-14127
ataaas	-14128
atupad	-14129
ayadas	-14130
bagong	-14131
bibili	-14132
dinand	-14133
ebeyew	-14134
elismo	-14135
empong	-14136
ensyal	-14137
erilyo	-14138
esorya	-14139
espada	-14140
eywang	-14141
gaynet	-14142
ibangb	-14143
igasig	-14144
igatig	-14145
iinang	-14146
imotiv	-14147
irenas	-14148
iretso	-14149
irinsa	-14150
itikom	-14151
itnang	-14152
iumpok	-14153
iurong	-14154
iyempo	-14155
kimpal	-14156
laking	-14157
libing	-14158
lument	-14159
masdan	-14160
ogyaya	-14161
okohan	-14162
olette	-14163
orcism	-14164
oucher	-14165
pansin	-14166
pektor	-14167
puring	-14168
radong	-14169
sasaya	-14170
silyer	-14171
takang	-14172
ubuhos	-14173
udlain	-14174
udurog	-14175
ugenio	-14176
ugnung	-14177
uhugin	-14178
ulapay	-14179
umikap	-14180
unsina	-14181
upikal	-14182
urador	-14183
uruang	-14184
usyoso	-14185
utsero	-14186
uyurak	-14187
venido	-14188
yayaan	-14189
▁1515.	-14190
▁1604.	-14191
▁Abala	-14192
▁Aladi	-14193
▁Ambro	-14194
▁Armen	-14195
▁Bakya	-14196
▁Bansa	-14197
▁Bicol	-14198
▁Buuin	-14199
200	-14200
▁35	-14201
▁39	-14202
▁fa	-14203
buko	-14204
igsi	-14205
▁dep	-14206
▁ihi	-14207
ahibo	-14208
akada	-14209
amsik	-14210
awian	-14211
uiapo	-14212
▁Aeta	-14213
▁ROSA	-14214
▁bale	-14215
▁laon	-14216
cpoclo	-14217
ilanon	-14218
ugtung	-14219
▁Daing	-14220
▁Dampa	-14221
▁Dilag	-14222
▁ESPAD	-14223
▁Ganti	-14224
▁Giliw	-14225
▁Ginto	-14226
▁Gitna	-14227
▁Hamak	-14228
▁Iloko	-14229
▁Ipina	-14230
▁Kagit	-14231
▁Kamay	-14232
▁Kamya	-14233
▁Kanin	-14234
▁Karun	-14235
▁Kasoy	-14236
▁Kayat	-14237
▁LAHAT	-14238
▁Linog	-14239
▁Lipay	-14240
▁Lucia	-14241
▁Mapan	-14242
▁Matut	-14243
▁Mutya	-14244
▁Nabig	-14245
▁Nahih	-14246
▁Nicol	-14247
▁Nilul	-14248
▁Nueva	-14249
▁Ohhhh	-14250
▁Panan	-14251
▁Papal	-14252
▁Pauwi	-14253
▁Pipit	-14254
▁Polid	-14255
▁Pugad	-14256
▁Repor	-14257
▁Reyes	-14258
▁Sakay	-14259
▁Sasab	-14260
▁Singk	-14261
▁Sukat	-14262
▁Tangi	-14263
▁Tomin	-14264
▁Tsina	-14265
▁Tutol	-14266
▁Umupo	-14267
▁Venus	-14268
▁ambas	-14269
▁ambon	-14270
▁ampon	-14271
▁asset	-14272
▁babal	-14273
▁basar	-14274
▁bawal	-14275
▁binuo	-14276
▁brief	-14277
▁bungi	-14278
▁bunyi	-14279
▁buslo	-14280
▁civil	-14281
▁dagim	-14282
▁dagli	-14283
▁dagok	-14284
▁dilat	-14285
▁disab	-14286
▁durog	-14287
▁gabay	-14288
▁gatol	-14289
▁gulod	-14290
▁habol	-14291
▁hahag	-14292
▁hahal	-14293
▁hapdi	-14294
▁hyena	-14295
▁iatas	-14296
▁ikons	-14297
▁inani	-14298
▁ipagm	-14299
oco	-14300
Nagd	-14301
hers	-14302
isle	-14303
ucia	-14304
▁KAT	-14305
▁Und	-14306
abuso	-14307
aluin	-14308
kanay	-14309
ngoco	-14310
rofea	-14311
▁istr	-14312
▁susp	-14313
agdang	-14314
ikatan	-14315
ilapon	-14316
itawin	-14317
uwatan	-14318
▁Arabi	-14319
▁Hinto	-14320
▁Mahih	-14321
▁Sigaw	-14322
▁Undas	-14323
▁aisle	-14324
▁ehers	-14325
▁indul	-14326
▁ipagp	-14327
▁iwing	-14328
▁kakab	-14329
▁kikil	-14330
▁kilik	-14331
▁kirot	-14332
▁koles	-14333
▁kolon	-14334
▁konde	-14335
▁kurap	-14336
▁kurso	-14337
▁kutad	-14338
▁kutya	-14339
▁labak	-14340
▁lagim	-14341
▁lanta	-14342
▁laong	-14343
▁lasap	-14344
▁latin	-14345
▁laway	-14346
▁liksi	-14347
▁lipat	-14348
▁lolok	-14349
▁lundo	-14350
▁lunos	-14351
▁macan	-14352
▁mariw	-14353
▁mawiw	-14354
▁memor	-14355
▁nalao	-14356
▁ngipi	-14357
▁niyan	-14358
▁paroo	-14359
▁pawid	-14360
▁pilas	-14361
▁pilik	-14362
▁pingk	-14363
▁pisil	-14364
▁puwed	-14365
▁rever	-14366
▁rosal	-14367
▁salot	-14368
▁sangh	-14369
▁santa	-14370
▁sekta	-14371
▁semin	-14372
▁sigas	-14373
[...]
